{
  "version": "1.0",
  "truncation": null,
  "padding": null,
  "added_tokens": [
    {
      "id": 0,
      "content": "[UNK]",
      "single_word": false,
      "lstrip": false,
      "rstrip": false,
      "normalized": false,
      "special": true
    },
    {
      "id": 1,
      "content": "[CLS]",
      "single_word": false,
      "lstrip": false,
      "rstrip": false,
      "normalized": false,
      "special": true
    },
    {
      "id": 2,
      "content": "[SEP]",
      "single_word": false,
      "lstrip": false,
      "rstrip": false,
      "normalized": false,
      "special": true
    },
    {
      "id": 3,
      "content": "[PAD]",
      "single_word": false,
      "lstrip": false,
      "rstrip": false,
      "normalized": false,
      "special": true
    },
    {
      "id": 4,
      "content": "[MASK]",
      "single_word": false,
      "lstrip": false,
      "rstrip": false,
      "normalized": false,
      "special": true
    }
  ],
  "normalizer": null,
  "pre_tokenizer": {
    "type": "Sequence",
    "pretokenizers": [
      {
        "type": "Split",
        "pattern": {
          "Regex": "\\s+(?!\\S)|\\s+"
        },
        "behavior": "MergedWithNext",
        "invert": false
      },
      {
        "type": "ByteLevel",
        "add_prefix_space": false,
        "trim_offsets": true,
        "use_regex": false
      }
    ]
  },
  "post_processor": null,
  "decoder": null,
  "model": {
    "type": "BPE",
    "dropout": null,
    "unk_token": "[UNK]",
    "continuing_subword_prefix": null,
    "end_of_word_suffix": null,
    "fuse_unk": false,
    "byte_fallback": false,
    "ignore_merges": false,
    "vocab": {
      "[UNK]": 0,
      "[CLS]": 1,
      "[SEP]": 2,
      "[PAD]": 3,
      "[MASK]": 4,
      "!": 5,
      "\"": 6,
      "#": 7,
      "$": 8,
      "%": 9,
      "&": 10,
      "'": 11,
      "(": 12,
      ")": 13,
      "*": 14,
      "+": 15,
      ",": 16,
      "-": 17,
      ".": 18,
      "/": 19,
      "0": 20,
      "1": 21,
      "2": 22,
      "3": 23,
      "4": 24,
      "5": 25,
      "6": 26,
      "7": 27,
      "8": 28,
      "9": 29,
      ":": 30,
      ";": 31,
      "<": 32,
      "=": 33,
      ">": 34,
      "?": 35,
      "@": 36,
      "A": 37,
      "B": 38,
      "C": 39,
      "D": 40,
      "E": 41,
      "F": 42,
      "G": 43,
      "H": 44,
      "I": 45,
      "J": 46,
      "K": 47,
      "L": 48,
      "M": 49,
      "N": 50,
      "O": 51,
      "P": 52,
      "Q": 53,
      "R": 54,
      "S": 55,
      "T": 56,
      "U": 57,
      "V": 58,
      "W": 59,
      "X": 60,
      "Y": 61,
      "Z": 62,
      "[": 63,
      "\\": 64,
      "]": 65,
      "^": 66,
      "_": 67,
      "`": 68,
      "a": 69,
      "b": 70,
      "c": 71,
      "d": 72,
      "e": 73,
      "f": 74,
      "g": 75,
      "h": 76,
      "i": 77,
      "j": 78,
      "k": 79,
      "l": 80,
      "m": 81,
      "n": 82,
      "o": 83,
      "p": 84,
      "q": 85,
      "r": 86,
      "s": 87,
      "t": 88,
      "u": 89,
      "v": 90,
      "w": 91,
      "x": 92,
      "y": 93,
      "z": 94,
      "{": 95,
      "|": 96,
      "}": 97,
      "~": 98,
      "¡": 99,
      "¢": 100,
      "£": 101,
      "¤": 102,
      "¥": 103,
      "¦": 104,
      "§": 105,
      "¨": 106,
      "©": 107,
      "ª": 108,
      "«": 109,
      "¬": 110,
      "®": 111,
      "¯": 112,
      "°": 113,
      "±": 114,
      "²": 115,
      "³": 116,
      "´": 117,
      "µ": 118,
      "¶": 119,
      "·": 120,
      "¸": 121,
      "¹": 122,
      "º": 123,
      "»": 124,
      "¼": 125,
      "½": 126,
      "¾": 127,
      "¿": 128,
      "Â": 129,
      "Ã": 130,
      "Ä": 131,
      "Å": 132,
      "Æ": 133,
      "Ç": 134,
      "È": 135,
      "É": 136,
      "Ê": 137,
      "Ë": 138,
      "Ì": 139,
      "Í": 140,
      "Î": 141,
      "Ï": 142,
      "Ð": 143,
      "Ñ": 144,
      "Ò": 145,
      "Ó": 146,
      "Ô": 147,
      "Õ": 148,
      "Ö": 149,
      "×": 150,
      "Ø": 151,
      "Ù": 152,
      "Ú": 153,
      "Û": 154,
      "Ü": 155,
      "Ý": 156,
      "Þ": 157,
      "ß": 158,
      "à": 159,
      "á": 160,
      "â": 161,
      "ã": 162,
      "ä": 163,
      "å": 164,
      "æ": 165,
      "ç": 166,
      "è": 167,
      "é": 168,
      "ê": 169,
      "ë": 170,
      "ì": 171,
      "í": 172,
      "î": 173,
      "ï": 174,
      "ð": 175,
      "ñ": 176,
      "ò": 177,
      "ó": 178,
      "ô": 179,
      "Ā": 180,
      "ā": 181,
      "Ă": 182,
      "ă": 183,
      "Ą": 184,
      "ą": 185,
      "Ć": 186,
      "ć": 187,
      "Ĉ": 188,
      "ĉ": 189,
      "Ċ": 190,
      "ċ": 191,
      "Č": 192,
      "č": 193,
      "Ď": 194,
      "ď": 195,
      "Đ": 196,
      "đ": 197,
      "Ē": 198,
      "ē": 199,
      "Ĕ": 200,
      "ĕ": 201,
      "Ė": 202,
      "ė": 203,
      "Ę": 204,
      "ę": 205,
      "Ě": 206,
      "ě": 207,
      "Ĝ": 208,
      "ĝ": 209,
      "Ğ": 210,
      "ğ": 211,
      "Ġ": 212,
      "ġ": 213,
      "Ģ": 214,
      "ģ": 215,
      "Ĥ": 216,
      "ĥ": 217,
      "Ħ": 218,
      "ħ": 219,
      "Ĩ": 220,
      "ĩ": 221,
      "Ī": 222,
      "ī": 223,
      "Ĭ": 224,
      "ĭ": 225,
      "Į": 226,
      "į": 227,
      "İ": 228,
      "ı": 229,
      "Ĳ": 230,
      "ĳ": 231,
      "Ĵ": 232,
      "ĵ": 233,
      "Ķ": 234,
      "ķ": 235,
      "ĸ": 236,
      "Ĺ": 237,
      "ĺ": 238,
      "Ļ": 239,
      "ļ": 240,
      "Ľ": 241,
      "ľ": 242,
      "Ŀ": 243,
      "ŀ": 244,
      "Ł": 245,
      "ł": 246,
      "Ń": 247,
      "Ġt": 248,
      "ĠĠ": 249,
      "Ġa": 250,
      "he": 251,
      "in": 252,
      "re": 253,
      "Ġs": 254,
      "on": 255,
      "Ġthe": 256,
      "er": 257,
      "Ġw": 258,
      "at": 259,
      "ou": 260,
      "ĠĠĠĠ": 261,
      "it": 262,
      "Ġc": 263,
      "or": 264,
      "is": 265,
      "nd": 266,
      "Ġb": 267,
      "ing": 268,
      "Ġf": 269,
      "en": 270,
      "es": 271,
      "Ġm": 272,
      "Ġo": 273,
      "ed": 274,
      "Ġp": 275,
      "Ġto": 276,
      "an": 277,
      "Ġd": 278,
      "al": 279,
      "Ġh": 280,
      "Ġth": 281,
      "ar": 282,
      "le": 283,
      "Ġin": 284,
      "Ġand": 285,
      "as": 286,
      "Ġof": 287,
      "ĠI": 288,
      "om": 289,
      "ic": 290,
      "Ġl": 291,
      "Ġn": 292,
      "ion": 293,
      "ll": 294,
      "Ġg": 295,
      "et": 296,
      "st": 297,
      "ve": 298,
      "Ġe": 299,
      "Ġy": 300,
      "Ġre": 301,
      "ly": 302,
      "ot": 303,
      "ow": 304,
      "ct": 305,
      "ent": 306,
      "Ġis": 307,
      "Ġbe": 308,
      "id": 309,
      "Ġyou": 310,
      "ut": 311,
      "se": 312,
      "Ġit": 313,
      "Ġu": 314,
      "ĠĠĠ": 315,
      "ro": 316,
      "ĠĠĠĠĠĠĠĠ": 317,
      "im": 318,
      "Ġon": 319,
      "Ġthat": 320,
      "ay": 321,
      "ad": 322,
      "Ġhe": 323,
      "am": 324,
      "Ġ\"": 325,
      "Ġfor": 326,
      "âĢ": 327,
      "ld": 328,
      "ac": 329,
      "ver": 330,
      "ig": 331,
      "ĠT": 332,
      "Ġst": 333,
      "ith": 334,
      "ĠS": 335,
      "if": 336,
      "ke": 337,
      "Ġha": 338,
      "Ġwh": 339,
      "ĠA": 340,
      "Ġwith": 341,
      "Ġan": 342,
      "oo": 343,
      "Ġwe": 344,
      "ce": 345,
      "out": 346,
      "ur": 347,
      "ir": 348,
      "Ġas": 349,
      "ch": 350,
      "Ġ(": 351,
      "ation": 352,
      "ter": 353,
      "il": 354,
      "'s": 355,
      "ĠC": 356,
      "Ġwas": 357,
      "ht": 358,
      "Ġthis": 359,
      "s.": 360,
      "Ġr": 361,
      "ag": 362,
      "Ġse": 363,
      "pe": 364,
      "ate": 365,
      "ill": 366,
      "ol": 367,
      "her": 368,
      "ould": 369,
      "ri": 370,
      "em": 371,
      "ĠM": 372,
      "ul": 373,
      "ab": 374,
      "pp": 375,
      "Ġnot": 376,
      "Ġcon": 377,
      "Ġhave": 378,
      "un": 379,
      "ore": 380,
      "Ġ1": 381,
      "ĠĠĠĠĠĠĠ": 382,
      "Ġne": 383,
      "Ġare": 384,
      "Ġdo": 385,
      "Ġat": 386,
      "est": 387,
      "od": 388,
      "um": 389,
      "s,": 390,
      "Ġv": 391,
      "th": 392,
      "ain": 393,
      "ĠB": 394,
      "Ġcom": 395,
      "Ġde": 396,
      "qu": 397,
      "ust": 398,
      "ĠH": 399,
      ".\"": 400,
      "'t": 401,
      "Ġbut": 402,
      "us": 403,
      "Ġpro": 404,
      "Ġor": 405,
      "Ġex": 406,
      "ant": 407,
      "rom": 408,
      "Ġk": 409,
      "ist": 410,
      "Ġ=": 411,
      "Ġj": 412,
      "ĠP": 413,
      "Ġsh": 414,
      "el": 415,
      "ight": 416,
      "--": 417,
      "op": 418,
      "Ġli": 419,
      "ĠW": 420,
      "Ġso": 421,
      "âĢĻ": 422,
      "nt": 423,
      "ĊĊ": 424,
      "e.": 425,
      "ally": 426,
      "Ġ2": 427,
      "ĠThe": 428,
      "Ġcan": 429,
      "Ġmy": 430,
      "ess": 431,
      "and": 432,
      "ĠD": 433,
      "Ġal": 434,
      "Ġsu": 435,
      "ers": 436,
      "ome": 437,
      "Ġme": 438,
      "art": 439,
      "our": 440,
      "..": 441,
      "Ġ-": 442,
      "os": 443,
      "Ġfrom": 444,
      "00": 445,
      "res": 446,
      "ack": 447,
      "ort": 448,
      "Ġab": 449,
      "Ġch": 450,
      "ie": 451,
      "all": 452,
      "ame": 453,
      "ap": 454,
      "ĠL": 455,
      "Ġle": 456,
      "Ġhis": 457,
      "ĊĠĠĠ": 458,
      "ive": 459,
      "Ġtr": 460,
      "ĠF": 461,
      "ĠR": 462,
      "Ġall": 463,
      "Ġwhe": 464,
      "oc": 465,
      "Ġwor": 466,
      "ment": 467,
      "ity": 468,
      "ĠN": 469,
      "ook": 470,
      "ect": 471,
      "ind": 472,
      "Ġby": 473,
      "ard": 474,
      "pt": 475,
      "oug": 476,
      "Ġup": 477,
      "act": 478,
      "Ġif": 479,
      "red": 480,
      "Ġlike": 481,
      "ĊĠĠĠĠĠĠĠĠ": 482,
      "Ġout": 483,
      "Ġus": 484,
      "ĠG": 485,
      "te": 486,
      "pl": 487,
      "ĠE": 488,
      "iv": 489,
      "one": 490,
      "Ġthey": 491,
      "ak": 492,
      "Ġyour": 493,
      "ĊI": 494,
      "ĊT": 495,
      "Ġget": 496,
      "ost": 497,
      "Ġpl": 498,
      "ĠO": 499,
      "Ġgo": 500,
      "Ġcl": 501,
      "ies": 502,
      "ue": 503,
      "ound": 504,
      "very": 505,
      "ast": 506,
      "Ġjust": 507,
      "ide": 508,
      "Ġwill": 509,
      "Ġkn": 510,
      "ge": 511,
      ");": 512,
      "**": 513,
      "ine": 514,
      "Ġher": 515,
      "Ġwould": 516,
      "Ġone": 517,
      "ich": 518,
      "au": 519,
      "Ġsome": 520,
      "ass": 521,
      "ure": 522,
      "age": 523,
      "able": 524,
      "ake": 525,
      "ile": 526,
      "Ġthere": 527,
      "Ġany": 528,
      "ud": 529,
      "ong": 530,
      "Ġabout": 531,
      "âĢľ": 532,
      "//": 533,
      "ink": 534,
      "ther": 535,
      "Ġhas": 536,
      "Ġwhat": 537,
      "âĢĿ": 538,
      "ĠJ": 539,
      "ff": 540,
      "to": 541,
      "ction": 542,
      "are": 543,
      "iz": 544,
      "ime": 545,
      "per": 546,
      "ĠI'": 547,
      "ough": 548,
      "ple": 549,
      "Ġar": 550,
      "Ġad": 551,
      "Ġknow": 552,
      "og": 553,
      "ĊĠĠĠĠĠĠĠ": 554,
      "av": 555,
      "Ġhad": 556,
      "Ġ{": 557,
      "ood": 558,
      "Ġfe": 559,
      "n't": 560,
      "Ġmore": 561,
      "Ġwhen": 562,
      "ice": 563,
      "ase": 564,
      "ated": 565,
      "Ġqu": 566,
      "ub": 567,
      "ĊA": 568,
      "ble": 569,
      "Ġte": 570,
      "ult": 571,
      "Ġim": 572,
      "int": 573,
      "Ġi": 574,
      "Ġ<": 575,
      "xt": 576,
      "Ġwork": 577,
      ").": 578,
      "âĢĻs": 579,
      "so": 580,
      "Ġen": 581,
      "cl": 582,
      "hat": 583,
      "Ġhim": 584,
      "ck": 585,
      "ite": 586,
      "Ġwho": 587,
      "ial": 588,
      "Ġ3": 589,
      "Ġthem": 590,
      "Ġsa": 591,
      "ry": 592,
      "hing": 593,
      "orm": 594,
      "ick": 595,
      "Ġwhich": 596,
      "Ġshe": 597,
      "=\"": 598,
      "con": 599,
      "ous": 600,
      "Ġno": 601,
      "com": 602,
      "Ġwere": 603,
      "ĠĠĠĠĠĠĠĠĠĠĠĠĠĠĠĠ": 604,
      "Ġwant": 605,
      "ĊĠ": 606,
      "Ġ$": 607,
      "ep": 608,
      "Ġother": 609,
      "own": 610,
      "Ġ*": 611,
      "ven": 612,
      "ace": 613,
      "ear": 614,
      "ĠU": 615,
      "Ġman": 616,
      "ose": 617,
      "Ġdon": 618,
      "Ġgr": 619,
      "Ġag": 620,
      "ere": 621,
      "urn": 622,
      "ause": 623,
      "Ġtheir": 624,
      "ans": 625,
      "Ġres": 626,
      "ber": 627,
      "Ġcont": 628,
      "ip": 629,
      "Ġ0": 630,
      "Ġun": 631,
      "ra": 632,
      "ang": 633,
      "ire": 634,
      "Ġhow": 635,
      "ĠIt": 636,
      "Ġ[": 637,
      "Ġbeen": 638,
      "ail": 639,
      "ove": 640,
      "Ġam": 641,
      "Ġ+": 642,
      "Ġsc": 643,
      "Ġbec": 644,
      "ance": 645,
      "cc": 646,
      "Ġtime": 647,
      "reat": 648,
      "Ġlook": 649,
      "Ġpe": 650,
      "Ġnew": 651,
      "Ġpr": 652,
      "ĠY": 653,
      "es.": 654,
      "Ġcould": 655,
      "Ġthan": 656,
      "ory": 657,
      "----": 658,
      "Ġdid": 659,
      "his": 660,
      "Ġover": 661,
      "Ġinto": 662,
      "ĊThe": 663,
      "Ġ'": 664,
      "Ġneed": 665,
      "ach": 666,
      "ign": 667,
      "Ġthink": 668,
      "Ġdis": 669,
      "es,": 670,
      "Ġback": 671,
      "Ġ}": 672,
      "ord": 673,
      "ary": 674,
      "ĠK": 675,
      "lf": 676,
      "ress": 677,
      "ions": 678,
      "Ġthen": 679,
      "Ġoff": 680,
      "way": 681,
      "Ġonly": 682,
      "ru": 683,
      "ring": 684,
      "end": 685,
      "itt": 686,
      "ople": 687,
      "irst": 688,
      "Ġcomp": 689,
      "Ġper": 690,
      "port": 691,
      "Ġway": 692,
      "Ġpre": 693,
      "lic": 694,
      "Ġuse": 695,
      "?\"": 696,
      "ed.": 697,
      "Ġdon't": 698,
      "ia": 699,
      "Ġsee": 700,
      "ull": 701,
      "ject": 702,
      "Ġapp": 703,
      "get": 704,
      "fter": 705,
      "ount": 706,
      "01": 707,
      "Ġtw": 708,
      "ree": 709,
      "Ġsaid": 710,
      "ty": 711,
      "ĠHe": 712,
      "Ġbecause": 713,
      "ata": 714,
      "Ġ4": 715,
      "ical": 716,
      "Ġsp": 717,
      "Ġpeople": 718,
      "ĊS": 719,
      "Ġalso": 720,
      "Ġit's": 721,
      "du": 722,
      "Ġsay": 723,
      "Ġnow": 724,
      "nder": 725,
      "ence": 726,
      "ĠI'm": 727,
      "Ġpart": 728,
      "ode": 729,
      "vel": 730,
      "ild": 731,
      "ens": 732,
      "Ġevery": 733,
      "omet": 734,
      "form": 735,
      "we": 736,
      "ob": 737,
      "fere": 738,
      "Ġbet": 739,
      "ĠIn": 740,
      "Ġspe": 741,
      "Ġthing": 742,
      "ĠV": 743,
      "Ġshould": 744,
      "li": 745,
      "gr": 746,
      "de": 747,
      "ition": 748,
      "Ġdoes": 749,
      "Ġyear": 750,
      "ĠâĢľ": 751,
      "'re": 752,
      "Ġbl": 753,
      "ting": 754,
      "hed": 755,
      "iew": 756,
      "ĠĠĠĠĠ": 757,
      "vers": 758,
      "ne": 759,
      "ov": 760,
      "ock": 761,
      "ft": 762,
      "Ġfirst": 763,
      "Ġser": 764,
      "),": 765,
      "Ġ5": 766,
      "ank": 767,
      "Ġ\"I": 768,
      "Ġreally": 769,
      "Ġpo": 770,
      "fore": 771,
      "uch": 772,
      "...": 773,
      "er.": 774,
      "Ġgood": 775,
      "Ġro": 776,
      "Ġhere": 777,
      "ĊĠĠĠĠĠĠĠĠĠĠĠ": 778,
      "Ġright": 779,
      "ing.": 780,
      "ĊW": 781,
      "Ġmake": 782,
      "ell": 783,
      "other": 784,
      "ath": 785,
      "Ġour": 786,
      "Ġthr": 787,
      "ark": 788,
      "Ġtoo": 789,
      "Ġread": 790,
      "tp": 791,
      "oy": 792,
      "ĉĉ": 793,
      "Ġwr": 794,
      "Ġeven": 795,
      "Ġvery": 796,
      "Ġbu": 797,
      "Ġtwo": 798,
      "ĠSt": 799,
      "Ġset": 800,
      "ĊâĢľ": 801,
      "ade": 802,
      "Ġadd": 803,
      "Ġact": 804,
      "Ġdown": 805,
      "ed,": 806,
      "Ġdif": 807,
      "ations": 808,
      "Ġmuch": 809,
      "âĢĻt": 810,
      "</": 811,
      "Ġsm": 812,
      "y,": 813,
      "Ġafter": 814,
      "Ġke": 815,
      "Ġsomet": 816,
      "self": 817,
      "ĠĊ": 818,
      "ning": 819,
      "ious": 820,
      "Ġret": 821,
      "oll": 822,
      "Ġgoing": 823,
      "Ġwhere": 824,
      "()": 825,
      "be": 826,
      "Ġagain": 827,
      "Ġunder": 828,
      "Ġwell": 829,
      "Ġgu": 830,
      "Ġfl": 831,
      "lp": 832,
      "old": 833,
      "Ġfun": 834,
      "Ġstart": 835,
      "Ġplay": 836,
      "://": 837,
      "iss": 838,
      "Ġthese": 839,
      "read": 840,
      "Ġcomm": 841,
      "Ġbr": 842,
      "bs": 843,
      "Ġmay": 844,
      "ents": 845,
      "\",": 846,
      "Ġtry": 847,
      "Ġinst": 848,
      "Ġgot": 849,
      "Ġval": 850,
      "Ġbook": 851,
      "Ġdes": 852,
      "y.": 853,
      "ex": 854,
      "ish": 855,
      "ĠCh": 856,
      "ont": 857,
      "Ġday": 858,
      "Ġits": 859,
      "ool": 860,
      "the": 861,
      "Ġdef": 862,
      "Ġbefore": 863,
      "ond": 864,
      "wn": 865,
      "Ġhelp": 866,
      "ually": 867,
      "Ġrem": 868,
      "Ġcall": 869,
      "Ġusing": 870,
      "atch": 871,
      "pect": 872,
      "The": 873,
      "Ċ\"": 874,
      "ing,": 875,
      "Ġhand": 876,
      "ys": 877,
      "ĊH": 878,
      "Ġstill": 879,
      "alk": 880,
      "Ġclass": 881,
      "ci": 882,
      "lect": 883,
      "ĊC": 884,
      "ual": 885,
      "igh": 886,
      "ER": 887,
      "==": 888,
      "yst": 889,
      "Ġpos": 890,
      "Ġend": 891,
      "0.": 892,
      "Ġsomething": 893,
      "ĠThis": 894,
      "ors": 895,
      "ought": 896,
      "ange": 897,
      "Ġmost": 898,
      "Ġthrough": 899,
      "Ġrec": 900,
      "ict": 901,
      "up": 902,
      "ert": 903,
      "ize": 904,
      "er,": 905,
      "Ġem": 906,
      "ah": 907,
      "Ġbeing": 908,
      "ener": 909,
      "ian": 910,
      "Ġfind": 911,
      "Ġdiffere": 912,
      "tr": 913,
      "oth": 914,
      "Ġacc": 915,
      "ix": 916,
      "Ġfeel": 917,
      "ific": 918,
      "ib": 919,
      "Ġrun": 920,
      "Ġlong": 921,
      "ave": 922,
      "Ġlet": 923,
      "ublic": 924,
      "vent": 925,
      "ows": 926,
      "Ġche": 927,
      "ily": 928,
      "clud": 929,
      "ng": 930,
      "ype": 931,
      "Ġass": 932,
      "ces": 933,
      "Ġsame": 934,
      "Ġinter": 935,
      "Ġcol": 936,
      "You": 937,
      "ption": 938,
      "Ġ6": 939,
      "ible": 940,
      "pro": 941,
      "ystem": 942,
      "Ġreturn": 943,
      "Ġhapp": 944,
      "cri": 945,
      "St": 946,
      "blem": 947,
      "Ġrel": 948,
      "Ġchar": 949,
      "ĠYou": 950,
      "ittle": 951,
      "hen": 952,
      "Ġmod": 953,
      "ince": 954,
      "cre": 955,
      "ĠIf": 956,
      "put": 957,
      "Ġit.": 958,
      "pen": 959,
      "aking": 960,
      "erm": 961,
      "err": 962,
      "Ġ:": 963,
      "thing": 964,
      "ax": 965,
      "Ġ.": 966,
      "ise": 967,
      "Ġcons": 968,
      "ork": 969,
      "ating": 970,
      "__": 971,
      "Ġfin": 972,
      "ss": 973,
      "Ġsupp": 974,
      "but": 975,
      "ving": 976,
      "\">": 977,
      "ful": 978,
      "ww": 979,
      "Ġgreat": 980,
      "Ġph": 981,
      "ew": 982,
      "Ġmet": 983,
      "Ġpoint": 984,
      "-1": 985,
      "Ġsim": 986,
      "Ġob": 987,
      "ater": 988,
      "les": 989,
      "ĠBut": 990,
      "Ġ&": 991,
      "ĠAnd": 992,
      "ĠâĢ": 993,
      "ative": 994,
      "Ġproblem": 995,
      "Ġlittle": 996,
      "Ġsl": 997,
      "ug": 998,
      "ec": 999,
      "sh": 1000,
      "Ġinte": 1001,
      "ph": 1002,
      "uck": 1003,
      "Ġtake": 1004,
      "IN": 1005,
      "day": 1006,
      "Ġthose": 1007,
      "Ġseem": 1008,
      "Ġaround": 1009,
      "ons": 1010,
      "ĠWe": 1011,
      "Ġatt": 1012,
      "Ġmany": 1013,
      "Ġreg": 1014,
      "Ġac": 1015,
      "Ċ}": 1016,
      "ĊĠĠĠĠĠ": 1017,
      "Ġform": 1018,
      "Ġ\"W": 1019,
      "Ġbel": 1020,
      "cess": 1021,
      "ates": 1022,
      "Ġdata": 1023,
      "ĊM": 1024,
      "Ġ201": 1025,
      "Ġcr": 1026,
      "Ġ/": 1027,
      "Ġlast": 1028,
      "Ġcur": 1029,
      "oup": 1030,
      "oad": 1031,
      "ever": 1032,
      "Ġnum": 1033,
      "Ġwhile": 1034,
      "Ġtim": 1035,
      "ward": 1036,
      "ek": 1037,
      "o,": 1038,
      "Ġused": 1039,
      "--------": 1040,
      "Ġlot": 1041,
      "ĊB": 1042,
      "Ġlif": 1043,
      "pr": 1044,
      "Ġco": 1045,
      "cond": 1046,
      "http": 1047,
      "Ġown": 1048,
      "erson": 1049,
      "Ġint": 1050,
      "ced": 1051,
      "Ġmade": 1052,
      "Ġdifferent": 1053,
      "Ġfunction": 1054,
      "!\"": 1055,
      "ular": 1056,
      "ox": 1057,
      "Ġlist": 1058,
      "ON": 1059,
      "owing": 1060,
      "aw": 1061,
      "riend": 1062,
      "Ġent": 1063,
      "ased": 1064,
      "1.": 1065,
      "Ġmin": 1066,
      "Ġfoll": 1067,
      "Ġ_": 1068,
      "Ġvar": 1069,
      "val": 1070,
      "ly,": 1071,
      "Ġel": 1072,
      "Ġnever": 1073,
      "nâĢĻt": 1074,
      "ient": 1075,
      "nce": 1076,
      "2.": 1077,
      "ĊĊĠĠĠ": 1078,
      "che": 1079,
      "Ġreal": 1080,
      "Ġfr": 1081,
      "(\"": 1082,
      "Ġput": 1083,
      "'m": 1084,
      "Ġeach": 1085,
      "ead": 1086,
      "rent": 1087,
      "ield": 1088,
      "ĊF": 1089,
      "Ġ7": 1090,
      "Ġtri": 1091,
      "ason": 1092,
      "Ġsuch": 1093,
      "erv": 1094,
      "Ġsub": 1095,
      "ween": 1096,
      "ower": 1097,
      "0,": 1098,
      "Ġstr": 1099,
      "',": 1100,
      "ote": 1101,
      "app": 1102,
      "Ġquest": 1103,
      "Ġ\\": 1104,
      "Ġsure": 1105,
      "Ġins": 1106,
      "Ġmon": 1107,
      "Ġhead": 1108,
      "Ġspec": 1109,
      "amp": 1110,
      ".com": 1111,
      "Ġdec": 1112,
      "Ġask": 1113,
      "air": 1114,
      "hank": 1115,
      "io": 1116,
      "ather": 1117,
      "ĊL": 1118,
      "Ġfound": 1119,
      "olog": 1120,
      ".âĢĿ": 1121,
      "Ġ8": 1122,
      "Ġcre": 1123,
      "led": 1124,
      "Ġ//": 1125,
      "Ġlove": 1126,
      "Ġbit": 1127,
      "ident": 1128,
      "akes": 1129,
      "Ġname": 1130,
      "ĊD": 1131,
      "ef": 1132,
      "ample": 1133,
      "Ġstud": 1134,
      "rest": 1135,
      "ways": 1136,
      "ied": 1137,
      "Ġbetter": 1138,
      "Ġbetween": 1139,
      "lease": 1140,
      "Ġ|": 1141,
      "ody": 1142,
      "Ġfew": 1143,
      "ars": 1144,
      "ility": 1145,
      "a.": 1146,
      "Ġboth": 1147,
      "ĊP": 1148,
      "tern": 1149,
      "ĊA:": 1150,
      "Ġrequ": 1151,
      "Ġcor": 1152,
      "Ġinv": 1153,
      "ues": 1154,
      "Ġconf": 1155,
      "ically": 1156,
      "a,": 1157,
      "gg": 1158,
      "ĠĠĠĠĠĠĠĠĠĠĠ": 1159,
      "Ġthings": 1160,
      "Ġx": 1161,
      "Ġsur": 1162,
      "ĊĠĠĠĠĠĠĠĠĠĠĠĠĠĠĠ": 1163,
      "arch": 1164,
      "Ġap": 1165,
      "Ġwithout": 1166,
      "Ġfile": 1167,
      "olut": 1168,
      "uth": 1169,
      "mer": 1170,
      "Ġtrans": 1171,
      "Ġanother": 1172,
      "Ġfact": 1173,
      "br": 1174,
      "pos": 1175,
      "Ġet": 1176,
      "Ġtest": 1177,
      "az": 1178,
      "ĠShe": 1179,
      "ments": 1180,
      "Ġthought": 1181,
      "ml": 1182,
      "In": 1183,
      "AT": 1184,
      "ann": 1185,
      "Ċ#": 1186,
      "Ġprodu": 1187,
      "ton": 1188,
      "Ġsince": 1189,
      "Ġgener": 1190,
      "Ġsecond": 1191,
      "ation.": 1192,
      "'ve": 1193,
      "set": 1194,
      "Ġgl": 1195,
      "Ġinclud": 1196,
      "Ġperson": 1197,
      "oot": 1198,
      "Ġpres": 1199,
      "ray": 1200,
      "ash": 1201,
      "ope": 1202,
      "hod": 1203,
      "Ġhigh": 1204,
      "irect": 1205,
      "enc": 1206,
      "Ġcome": 1207,
      "ared": 1208,
      "Ġ10": 1209,
      "Ġkeep": 1210,
      "Ġsystem": 1211,
      "Ġdidn't": 1212,
      "Ġdet": 1213,
      "ense": 1214,
      "ruct": 1215,
      "Ġeff": 1216,
      "Ġyou're": 1217,
      "Ġmight": 1218,
      "Ċf": 1219,
      "Ġgiv": 1220,
      "Ġfil": 1221,
      "div": 1222,
      "->": 1223,
      "11": 1224,
      "Ġturn": 1225,
      "Ġnext": 1226,
      "ern": 1227,
      "Ġopen": 1228,
      "Ġshow": 1229,
      "text": 1230,
      "ST": 1231,
      "Ġwhy": 1232,
      "cept": 1233,
      "Ġalways": 1234,
      "Ġhard": 1235,
      "pend": 1236,
      "Ġ9": 1237,
      "ably": 1238,
      "here": 1239,
      "Ġtell": 1240,
      "oid": 1241,
      "Ġcode": 1242,
      "Ġresult": 1243,
      "Ġcan't": 1244,
      "dd": 1245,
      "ĠI've": 1246,
      "Ġfriend": 1247,
      "****": 1248,
      "its": 1249,
      "RE": 1250,
      "Ġbest": 1251,
      "Ġtalk": 1252,
      "Ġcar": 1253,
      "ities": 1254,
      "Ġcle": 1255,
      "ion.": 1256,
      "Ġey": 1257,
      "ger": 1258,
      "Ġthat's": 1259,
      "view": 1260,
      "'ll": 1261,
      "der": 1262,
      "))": 1263,
      "Ġposs": 1264,
      "Q:": 1265,
      "Ġpublic": 1266,
      "Ġeas": 1267,
      "ages": 1268,
      "ator": 1269,
      "Ġprov": 1270,
      "ribut": 1271,
      "Ġcount": 1272,
      "uring": 1273,
      "20": 1274,
      "Ġvalue": 1275,
      "();": 1276,
      "Ġcomple": 1277,
      "e,": 1278,
      "gin": 1279,
      "Ġmean": 1280,
      "ĊR": 1281,
      "uff": 1282,
      "Ġold": 1283,
      "ource": 1284,
      "Ġiss": 1285,
      "str": 1286,
      "Ġ19": 1287,
      "Ġtrying": 1288,
      "ren": 1289,
      "ics": 1290,
      "ĠUn": 1291,
      "Ġyears": 1292,
      "Ġgive": 1293,
      "Ġbig": 1294,
      "Ġide": 1295,
      "work": 1296,
      "Ġkind": 1297,
      "Ġnumber": 1298,
      "10": 1299,
      "Ġdoesn't": 1300,
      "Ċĉ": 1301,
      "und": 1302,
      "Ġexper": 1303,
      "Ġworld": 1304,
      "velop": 1305,
      "ument": 1306,
      "nect": 1307,
      "::": 1308,
      "ump": 1309,
      "stand": 1310,
      "Ġear": 1311,
      "hy": 1312,
      "Ġ\"A": 1313,
      "any": 1314,
      "ĠX": 1315,
      "Ċĉĉ": 1316,
      "ny": 1317,
      "ly.": 1318,
      "Ġcharact": 1319,
      "Ġpol": 1320,
      "ĠAl": 1321,
      "ok": 1322,
      "Ġsmall": 1323,
      "Ġthough": 1324,
      "ĠThey": 1325,
      "Ġactually": 1326,
      "ouse": 1327,
      "Ġelse": 1328,
      "ĠRe": 1329,
      "ik": 1330,
      "Ġsign": 1331,
      "-s": 1332,
      "000": 1333,
      "Ġcase": 1334,
      "Ġ0.": 1335,
      "Ġpost": 1336,
      "ait": 1337,
      "AR": 1338,
      "\":": 1339,
      "Ġmem": 1340,
      "Ġweek": 1341,
      "ames": 1342,
      "Ġaway": 1343,
      "Ġpass": 1344,
      "Ġmat": 1345,
      "of": 1346,
      "Ġdist": 1347,
      "riv": 1348,
      "Ġprob": 1349,
      "Ġdoing": 1350,
      "Ġstate": 1351,
      "press": 1352,
      "org": 1353,
      "ery": 1354,
      "Ġtype": 1355,
      "Ċw": 1356,
      "EN": 1357,
      "ĠSo": 1358,
      "Ġfam": 1359,
      "ream": 1360,
      "error": 1361,
      "Ġdr": 1362,
      "Ġstory": 1363,
      "aug": 1364,
      "1,": 1365,
      "ĊIn": 1366,
      "Ġhappen": 1367,
      "ĠWhat": 1368,
      "Ġinterest": 1369,
      "Ċthe": 1370,
      "Ġcour": 1371,
      "ĠAs": 1372,
      "Ġfar": 1373,
      "par": 1374,
      "Ġable": 1375,
      "ĊO": 1376,
      "Ġinf": 1377,
      "3.": 1378,
      "not": 1379,
      "ĠHow": 1380,
      "Ġgame": 1381,
      "ret": 1382,
      "ines": 1383,
      "Ġchang": 1384,
      "Ċ-": 1385,
      "Ġloc": 1386,
      "ĠThere": 1387,
      "Ġpat": 1388,
      "atic": 1389,
      "less": 1390,
      "ĊN": 1391,
      "ĠĠĠĠĠĠ": 1392,
      "als": 1393,
      "eah": 1394,
      "-b": 1395,
      "ner": 1396,
      "12": 1397,
      "eng": 1398,
      "rol": 1399,
      "Ċs": 1400,
      "ready": 1401,
      "Ġtop": 1402,
      "Ġconst": 1403,
      "Ġenough": 1404,
      "Ġmain": 1405,
      "ale": 1406,
      "Ġcare": 1407,
      "anc": 1408,
      "Ġthree": 1409,
      "Ġmov": 1410,
      "line": 1411,
      "Ġgetting": 1412,
      "ired": 1413,
      "Ġed": 1414,
      "IT": 1415,
      "Ġsupport": 1416,
      "arent": 1417,
      "ited": 1418,
      "ttp": 1419,
      "ures": 1420,
      "OR": 1421,
      "Ġ\"H": 1422,
      "Ġav": 1423,
      "ature": 1424,
      "Ġgroup": 1425,
      "Ġagainst": 1426,
      "ĊE": 1427,
      "Ġlooking": 1428,
      "Ġbuild": 1429,
      "chool": 1430,
      "Ġpar": 1431,
      "ĠTh": 1432,
      "o.": 1433,
      "Ġsk": 1434,
      "Ġresp": 1435,
      "Ġleft": 1436,
      "Ġcurrent": 1437,
      "HE": 1438,
      "LE": 1439,
      "Ċ<": 1440,
      "Ġexpl": 1441,
      "ation,": 1442,
      "It": 1443,
      "AN": 1444,
      "Ġimport": 1445,
      "gram": 1446,
      "sp": 1447,
      "Ġvers": 1448,
      "rop": 1449,
      "Ġsomeone": 1450,
      "ee": 1451,
      "http://": 1452,
      "Ġunt": 1453,
      "man": 1454,
      "('": 1455,
      "Ġbelie": 1456,
      "Ġquestion": 1457,
      ".com/": 1458,
      "ither": 1459,
      "vice": 1460,
      "ized": 1461,
      "ier": 1462,
      "Ġinform": 1463,
      "Ġmonth": 1464,
      "ational": 1465,
      "Ġ@": 1466,
      "Ġline": 1467,
      "Ġcou": 1468,
      "Ġcheck": 1469,
      "Ġit,": 1470,
      "Ġ\"T": 1471,
      "ric": 1472,
      "Ġalready": 1473,
      "Ġlife": 1474,
      "yn": 1475,
      "Ġchild": 1476,
      "Ġz": 1477,
      "Ġdevelop": 1478,
      "ĠThat": 1479,
      "yp": 1480,
      "ider": 1481,
      "usic": 1482,
      "Ġsw": 1483,
      "Ġ\"S": 1484,
      "Ġ</": 1485,
      "Ġunderstand": 1486,
      "Ġbeh": 1487,
      "ved": 1488,
      "Ġdisc": 1489,
      "ault": 1490,
      "ement": 1491,
      "Ġstand": 1492,
      "ĠIs": 1493,
      "Ġref": 1494,
      "Ġmethod": 1495,
      ",\"": 1496,
      "Ġâ": 1497,
      "na": 1498,
      "Ċm": 1499,
      "ined": 1500,
      "alth": 1501,
      "Ġword": 1502,
      "Ġchange": 1503,
      "Ġhaving": 1504,
      "ĠĠĠĠĠĠĠĠĠĠĠĠĠĠĠĠĠĠĠĠĠĠĠĠĠĠĠĠĠĠĠĠ": 1505,
      "ĠTr": 1506,
      "ĠFor": 1507,
      "ross": 1508,
      "ings": 1509,
      "ts": 1510,
      "oh": 1511,
      "Ġexpect": 1512,
      "Ġwar": 1513,
      "Ġbre": 1514,
      "ience": 1515,
      "name": 1516,
      "vious": 1517,
      "Ġpret": 1518,
      "Ġmust": 1519,
      "ten": 1520,
      "roll": 1521,
      "Ġfull": 1522,
      "ĊWhat": 1523,
      "bl": 1524,
      "====": 1525,
      "ĠSh": 1526,
      "ism": 1527,
      "ext": 1528,
      "Ġext": 1529,
      "ĠMy": 1530,
      "Ġmed": 1531,
      "son": 1532,
      "sw": 1533,
      "w.": 1534,
      "2,": 1535,
      "add": 1536,
      ",âĢĿ": 1537,
      "ym": 1538,
      "Ċp": 1539,
      "Ġdone": 1540,
      "s.\"": 1541,
      "Ġexample": 1542,
      "ters": 1543,
      "ivers": 1544,
      "ask": 1545,
      "ĠAr": 1546,
      "ware": 1547,
      "Ġ20": 1548,
      "Ġplace": 1549,
      "Ġrep": 1550,
      "Âł": 1551,
      "Ġpretty": 1552,
      "play": 1553,
      "Ġlar": 1554,
      "Ġ#": 1555,
      "Ġ200": 1556,
      "pped": 1557,
      "Ġhttp": 1558,
      "ĠDe": 1559,
      "Ġanything": 1560,
      "ird": 1561,
      "ID": 1562,
      "Ġdirect": 1563,
      "Ġever": 1564,
      "cent": 1565,
      "uss": 1566,
      "ves": 1567,
      "ĠQ": 1568,
      "].": 1569,
      "kay": 1570,
      "inal": 1571,
      "roid": 1572,
      "Ġsit": 1573,
      "oint": 1574,
      "ify": 1575,
      "Ġ--": 1576,
      "Ġreason": 1577,
      "ever,": 1578,
      "Ġele": 1579,
      "ĊĠĠ": 1580,
      "comm": 1581,
      "Ġmom": 1582,
      "ĠLet": 1583,
      "Ġuntil": 1584,
      "Ġwom": 1585,
      "4.": 1586,
      "ĠIt's": 1587,
      "hip": 1588,
      "ided": 1589,
      "Ġbad": 1590,
      "25": 1591,
      "ertain": 1592,
      "on't": 1593,
      "Ġhome": 1594,
      "Ġ,": 1595,
      "Ġprobably": 1596,
      "Ġlead": 1597,
      "rap": 1598,
      "gan": 1599,
      "15": 1600,
      "-f": 1601,
      "le.": 1602,
      "Ġind": 1603,
      "-m": 1604,
      "Ġlevel": 1605,
      "16": 1606,
      "Ġmark": 1607,
      "Ġbus": 1608,
      "ered": 1609,
      "Ġteam": 1610,
      "ĊĊĠ": 1611,
      "Ġobject": 1612,
      "AL": 1613,
      "ality": 1614,
      "ention": 1615,
      "inu": 1616,
      "ache": 1617,
      "Ġ\"You": 1618,
      "Ġleast": 1619,
      "Ġmess": 1620,
      "Ġworking": 1621,
      "ott": 1622,
      "let": 1623,
      "over": 1624,
      "Ġonce": 1625,
      "ĠCom": 1626,
      "Ġreport": 1627,
      "tain": 1628,
      "Ġbas": 1629,
      "?âĢĿ": 1630,
      "aj": 1631,
      "cript": 1632,
      "Ġpartic": 1633,
      "elt": 1634,
      "med": 1635,
      "Ġdri": 1636,
      "SE": 1637,
      "ices": 1638,
      "Ġseems": 1639,
      "Ġcap": 1640,
      "Ġless": 1641,
      "Ġpossible": 1642,
      "ĊThank": 1643,
      "p;": 1644,
      "Ġrest": 1645,
      "upp": 1646,
      "Con": 1647,
      "iter": 1648,
      "h,": 1649,
      "row": 1650,
      "Ġnight": 1651,
      "Ġev": 1652,
      "c.": 1653,
      "most": 1654,
      "ets": 1655,
      "Ċd": 1656,
      "ins": 1657,
      "Ġproper": 1658,
      "s://": 1659,
      "www.": 1660,
      "ĊĠĠĠĠ": 1661,
      "ished": 1662,
      "Ġ1.": 1663,
      "Ġhum": 1664,
      "ute": 1665,
      "ion,": 1666,
      "Ġlear": 1667,
      "Ġview": 1668,
      "uc": 1669,
      "Ð¾": 1670,
      "idd": 1671,
      "Ġterm": 1672,
      "Ġduring": 1673,
      "Ġanyone": 1674,
      "ched": 1675,
      "Ġpur": 1676,
      "Ġmult": 1677,
      "Ġart": 1678,
      "Ġfollowing": 1679,
      "Ġtext": 1680,
      "Ġprot": 1681,
      "ness": 1682,
      "this": 1683,
      "Ġprogram": 1684,
      "Ġproject": 1685,
      "uthor": 1686,
      "0000": 1687,
      "Ġdi": 1688,
      "nbs": 1689,
      "net": 1690,
      "load": 1691,
      "att": 1692,
      "nbsp;": 1693,
      "Ġjob": 1694,
      "Ġprocess": 1695,
      "ĠPro": 1696,
      "ember": 1697,
      "View": 1698,
      "Ġnothing": 1699,
      "'d": 1700,
      "Ġerror": 1701,
      "Ġschool": 1702,
      "Ġclass=\"": 1703,
      "Ġmodel": 1704,
      "Ġ\"The": 1705,
      "Re": 1706,
      "Ġcame": 1707,
      "ĠSe": 1708,
      "irl": 1709,
      "Ġmiss": 1710,
      "Ġfree": 1711,
      "Ġplan": 1712,
      "Ġsing": 1713,
      "reen": 1714,
      "i,": 1715,
      "Ġlight": 1716,
      "Ġself": 1717,
      "cur": 1718,
      "Ġvis": 1719,
      "meric": 1720,
      "ustom": 1721,
      "Ġmakes": 1722,
      "gether": 1723,
      "Ġequ": 1724,
      "ĠWh": 1725,
      "CT": 1726,
      "Ġroom": 1727,
      "Ġside": 1728,
      "Ġwent": 1729,
      "Ġmove": 1730,
      "Ġtried": 1731,
      "32": 1732,
      "me": 1733,
      "Ġlog": 1734,
      "Ġeffect": 1735,
      "s:": 1736,
      "land": 1737,
      "Ġmind": 1738,
      "Ċ//": 1739,
      "Ġthis.": 1740,
      "ering": 1741,
      "Ġuser": 1742,
      "chn": 1743,
      "Ġconnect": 1744,
      "date": 1745,
      "ush": 1746,
      "Ġcourse": 1747,
      "!!": 1748,
      "Ġes": 1749,
      "min": 1750,
      "Ġmaking": 1751,
      "Ex": 1752,
      "ital": 1753,
      "Ġadv": 1754,
      "Ġcalled": 1755,
      "Ġpick": 1756,
      "Name": 1757,
      "],": 1758,
      "19": 1759,
      "Ġtrue": 1760,
      "Ġcent": 1761,
      "&nbsp;": 1762,
      "Ġ15": 1763,
      "ĊThis": 1764,
      "oard": 1765,
      "Ġwanted": 1766,
      "Ġtold": 1767,
      "iting": 1768,
      "Ġappe": 1769,
      "ĠIâĢĻ": 1770,
      "ES": 1771,
      "Ġhour": 1772,
      "Ġpay": 1773,
      "ĠZ": 1774,
      "Ġwait": 1775,
      "ung": 1776,
      "30": 1777,
      "ĠCl": 1778,
      "alse": 1779,
      "ling": 1780,
      "Ġyet": 1781,
      "Ġid": 1782,
      "aut": 1783,
      "ĠÐ": 1784,
      "Ġpack": 1785,
      "Ġeverything": 1786,
      "-c": 1787,
      "Ġtook": 1788,
      "-2": 1789,
      "orn": 1790,
      "alf": 1791,
      "Ġtogether": 1792,
      "Ġsound": 1793,
      "Ġincre": 1794,
      "ĠBr": 1795,
      "s/": 1796,
      "ately": 1797,
      "cul": 1798,
      "aster": 1799,
      "Ġorder": 1800,
      "Ġeither": 1801,
      "3,": 1802,
      "g.": 1803,
      "rect": 1804,
      "Ġappro": 1805,
      "Ġpower": 1806,
      "raw": 1807,
      "ĠAll": 1808,
      "fr": 1809,
      "Pro": 1810,
      "ers.": 1811,
      "Ġvari": 1812,
      "Ġstarted": 1813,
      "Ġhold": 1814,
      "ured": 1815,
      "Ġface": 1816,
      "tend": 1817,
      "ĠAn": 1818,
      "def": 1819,
      "Ġaut": 1820,
      "Ġhope": 1821,
      "erg": 1822,
      "Ġfield": 1823,
      "Ġfamily": 1824,
      "Ġrepl": 1825,
      "čĊ": 1826,
      "Ġstring": 1827,
      "Ġansw": 1828,
      "Ġ12": 1829,
      "iness": 1830,
      "Ġwrong": 1831,
      "Ġmone": 1832,
      "_t": 1833,
      "**2": 1834,
      "Ġdoc": 1835,
      "14": 1836,
      "Ġproduct": 1837,
      "....": 1838,
      "lay": 1839,
      "ĠNew": 1840,
      "body": 1841,
      "Ġme.": 1842,
      "Ġinstall": 1843,
      "Ġperform": 1844,
      "Ġcomplete": 1845,
      "ional": 1846,
      "joy": 1847,
      "Ġkill": 1848,
      "r.": 1849,
      "Ġevent": 1850,
      "ĊĠĠĠĠĠĠĠĠĠĠĠĠĠĠĠĠ": 1851,
      "ĠAmeric": 1852,
      "Ġcommun": 1853,
      "Ġ)": 1854,
      "aring": 1855,
      "ers,": 1856,
      "ĊJ": 1857,
      "-d": 1858,
      "Id": 1859,
      "Ġrece": 1860,
      "Ġ\"O": 1861,
      "Ch": 1862,
      "Ġwhole": 1863,
      "Ġclos": 1864,
      "Ġdem": 1865,
      "Ġnon": 1866,
      "Ġkey": 1867,
      "ĊIt": 1868,
      "OM": 1869,
      "Ġversion": 1870,
      "Ġapplic": 1871,
      "aps": 1872,
      "ey": 1873,
      "Ġcreate": 1874,
      "Ġsol": 1875,
      "Ġmen": 1876,
      "opy": 1877,
      "ĠWhen": 1878,
      "back": 1879,
      "Ġtable": 1880,
      "vert": 1881,
      "Ġtem": 1882,
      "Ġinformation": 1883,
      "ised": 1884,
      "ref": 1885,
      "Ġseen": 1886,
      "Ġdefin": 1887,
      "lection": 1888,
      "olution": 1889,
      "OU": 1890,
      "Ġquick": 1891,
      "right": 1892,
      "ists": 1893,
      "Ġbelieve": 1894,
      "ains": 1895,
      "ms": 1896,
      "itive": 1897,
      "fect": 1898,
      "ccess": 1899,
      "Ġclear": 1900,
      "##": 1901,
      "Ġimportant": 1902,
      "Ġhim.": 1903,
      "or.": 1904,
      "Ġalmost": 1905,
      "18": 1906,
      "Ġ2.": 1907,
      "-t": 1908,
      "Ċc": 1909,
      "sc": 1910,
      "cial": 1911,
      "ĊG": 1912,
      "my": 1913,
      "âĢ¦": 1914,
      "head": 1915,
      "i.": 1916,
      "Ġwalk": 1917,
      "bers": 1918,
      "Ġsugg": 1919,
      "ently": 1920,
      "use": 1921,
      "Ġthere's": 1922,
      "Ġsuggest": 1923,
      "ava": 1924,
      "Ġ\"N": 1925,
      "IC": 1926,
      "LL": 1927,
      "----------------": 1928,
      "Ġisn't": 1929,
      "oice": 1930,
      "ories": 1931,
      "Ġokay": 1932,
      "used": 1933,
      "ĊĠĠĠĠĠĠĠĠĠĠĠĠĠĠĠĠĠĠĠ": 1934,
      "Ġcontrol": 1935,
      "Ġfore": 1936,
      "Ġwind": 1937,
      "by": 1938,
      "Ġshort": 1939,
      "ides": 1940,
      "String": 1941,
      "Ġpast": 1942,
      "Ġfour": 1943,
      "Ġinde": 1944,
      "Ġmar": 1945,
      "ilar": 1946,
      "ape": 1947,
      "Ġinc": 1948,
      "Ġquite": 1949,
      "Ġtoday": 1950,
      "ference": 1951,
      "Ġtimes": 1952,
      "full": 1953,
      "igure": 1954,
      "s)": 1955,
      "Ġidea": 1956,
      "fort": 1957,
      "ĊLet": 1958,
      "50": 1959,
      "Ġstop": 1960,
      "imes": 1961,
      "ified": 1962,
      "Ġgon": 1963,
      "ĠTHE": 1964,
      "Ġeyes": 1965,
      "ĊIf": 1966,
      "Ġ18": 1967,
      "Ġinstead": 1968,
      "onse": 1969,
      "99": 1970,
      "-p": 1971,
      "Ġoper": 1972,
      "ĊHow": 1973,
      "arget": 1974,
      "ĊU": 1975,
      "ule": 1976,
      "ĊĊĠĠĠĠĠĠĠ": 1977,
      "Ġclose": 1978,
      "Ġuh": 1979,
      "Ġrunning": 1980,
      "ailable": 1981,
      "Ġenjoy": 1982,
      "Ġthem.": 1983,
      "Ġbro": 1984,
      "Ġgiven": 1985,
      "Ġgover": 1986,
      "Cl": 1987,
      "Ġbreak": 1988,
      "ma": 1989,
      "Ċ$": 1990,
      "Ġmulti": 1991,
      "17": 1992,
      "Ġpop": 1993,
      "List": 1994,
      "Ġdiv": 1995,
      "ĊĠĠĠĠĠĠĠĠĠĠĠĠĠĠĠĠĠĠĠĠĠĠĠĠ": 1996,
      "hes": 1997,
      "Ġmaybe": 1998,
      "Ġopp": 1999,
      "Ġ*/": 2000,
      "/2": 2001,
      "Ġarg": 2002,
      "64": 2003,
      "age.": 2004,
      "Ġpull": 2005,
      "Ġnice": 2006,
      "Ġcertain": 2007,
      "html": 2008,
      "fl": 2009,
      "umn": 2010,
      "ception": 2011,
      "dit": 2012,
      "Ġfelt": 2013,
      "unt": 2014,
      "5.": 2015,
      "bed": 2016,
      "ike": 2017,
      "S.": 2018,
      "Ġcell": 2019,
      "ister": 2020,
      "Ġlink": 2021,
      "Ġfail": 2022,
      "Ġfix": 2023,
      "iversity": 2024,
      "ĠOr": 2025,
      "Ġlooked": 2026,
      "Ġvide": 2027,
      "Ġplac": 2028,
      "Ġanal": 2029,
      "13": 2030,
      "Ġserver": 2031,
      "Ġdeal": 2032,
      "Ġpresent": 2033,
      "Ġbased": 2034,
      "ĠFr": 2035,
      "aining": 2036,
      "action": 2037,
      "Ġfollow": 2038,
      "ateg": 2039,
      "Ġgirl": 2040,
      "Ġsaid.": 2041,
      "OT": 2042,
      "Ġprof": 2043,
      "Ġsays": 2044,
      "Ġwatch": 2045,
      "AM": 2046,
      "rivate": 2047,
      "Ġwin": 2048,
      "Ðµ": 2049,
      "abel": 2050,
      "IS": 2051,
      "Ġleg": 2052,
      "Ġ=>": 2053,
      "ET": 2054,
      "que": 2055,
      "Ġworks": 2056,
      "Ġhimself": 2057,
      "itch": 2058,
      "Ġmill": 2059,
      "Cont": 2060,
      "Ġaccess": 2061,
      "t;": 2062,
      "ron": 2063,
      "Ġsoft": 2064,
      "6.": 2065,
      "Ġfac": 2066,
      "Ġboy": 2067,
      "Ġprom": 2068,
      "for": 2069,
      "ĠâĢĵ": 2070,
      "unction": 2071,
      "Ġwithin": 2072,
      "Ġgovern": 2073,
      "ivity": 2074,
      "ĠBl": 2075,
      "Ġsize": 2076,
      "Ġspecific": 2077,
      "ane": 2078,
      "Ġlooks": 2079,
      "ology": 2080,
      "ision": 2081,
      "Ġtime.": 2082,
      "Ġsn": 2083,
      "ases": 2084,
      "Ġeveryone": 2085,
      "Ġcal": 2086,
      "\")": 2087,
      "ior": 2088,
      "Ġpage": 2089,
      "ĠEx": 2090,
      "Ġinvest": 2091,
      "ĠI'd": 2092,
      "oss": 2093,
      "5,": 2094,
      "Ġnear": 2095,
      "Ġaff": 2096,
      "Ġlow": 2097,
      "ĠCon": 2098,
      "Ġgonna": 2099,
      "ING": 2100,
      "Ġmeans": 2101,
      "ength": 2102,
      "Ġlarge": 2103,
      "ouble": 2104,
      "1)": 2105,
      "Ġwe're": 2106,
      "ps": 2107,
      "Ġstuff": 2108,
      "Ġ\"M": 2109,
      "ploy": 2110,
      "Ġmoment": 2111,
      "Ġsingle": 2112,
      "ural": 2113,
      "ization": 2114,
      "Ġdesign": 2115,
      "ĠNot": 2116,
      "cont": 2117,
      "itle": 2118,
      "oved": 2119,
      "Ġ>": 2120,
      "ment.": 2121,
      "ches": 2122,
      "Ċ(": 2123,
      "ants": 2124,
      "ice.": 2125,
      "cially": 2126,
      "Ġdescri": 2127,
      "Ġthank": 2128,
      "Ġve": 2129,
      "side": 2130,
      "ats": 2131,
      "Ġlim": 2132,
      "idth": 2133,
      "ĠUS": 2134,
      "Ġitem": 2135,
      "outh": 2136,
      "where": 2137,
      "Ġwond": 2138,
      "Ġallow": 2139,
      "Ġ\"B": 2140,
      "Ġmanag": 2141,
      "eter": 2142,
      "wh": 2143,
      "AP": 2144,
      "Ġhealth": 2145,
      "Ġstay": 2146,
      "âĢĻre": 2147,
      "ĠLe": 2148,
      "Ġ==": 2149,
      "sel": 2150,
      "Ġsuper": 2151,
      "...\"": 2152,
      "Ġkid": 2153,
      "ED": 2154,
      "ency": 2155,
      "Ġexp": 2156,
      "Ġbuy": 2157,
      "data": 2158,
      "Ġhist": 2159,
      "Ġorig": 2160,
      "oke": 2161,
      "ĠAt": 2162,
      "rist": 2163,
      "Ġcommon": 2164,
      "Ġmeet": 2165,
      "Ċin": 2166,
      "Ġyoung": 2167,
      "Ġseries": 2168,
      "ĠDo": 2169,
      "gle": 2170,
      "Ġhouse": 2171,
      "Ġrecord": 2172,
      "):": 2173,
      "org/": 2174,
      "This": 2175,
      "Val": 2176,
      "ĠI'll": 2177,
      "Ġrather": 2178,
      "Ġyeah": 2179,
      "Ġbegin": 2180,
      "var": 2181,
      "4,": 2182,
      "Ġalong": 2183,
      "new": 2184,
      "Ġcomes": 2185,
      "Ġ\"D": 2186,
      "Ġtechn": 2187,
      "import": 2188,
      "iron": 2189,
      "Ġhalf": 2190,
      "Ð°": 2191,
      "ohn": 2192,
      "yle": 2193,
      "Ġavailable": 2194,
      "********": 2195,
      "Ċ{": 2196,
      "ND": 2197,
      "Ċand": 2198,
      "Ġum": 2199,
      "Ġnet": 2200,
      "oud": 2201,
      "Ġmoney": 2202,
      "-l": 2203,
      "Ġ100": 2204,
      "Ġtot": 2205,
      "Ġsever": 2206,
      "pping": 2207,
      "type": 2208,
      "Ġlaw": 2209,
      "Ð¸": 2210,
      "Ġdays": 2211,
      "ĠOn": 2212,
      "Ġnorm": 2213,
      "Ġhe's": 2214,
      "Ġaction": 2215,
      "Ġbring": 2216,
      "Ġexact": 2217,
      "Ġmyself": 2218,
      "Ġtyp": 2219,
      "Type": 2220,
      "Ġabove": 2221,
      "Ġocc": 2222,
      "Ġlive": 2223,
      "Ġplease": 2224,
      "AS": 2225,
      "ged": 2226,
      "ler": 2227,
      "We": 2228,
      "Ġexist": 2229,
      "Ġheart": 2230,
      "ĊYou": 2231,
      "irt": 2232,
      "ĠBe": 2233,
      "Ġpain": 2234,
      "iet": 2235,
      "ĊĊĊĊ": 2236,
      "Ġlat": 2237,
      "ored": 2238,
      "ift": 2239,
      "Ġissue": 2240,
      "Ġest": 2241,
      "Ġsend": 2242,
      "ĊĠĠĠĠĠĠĠĠĠ": 2243,
      "Ġca": 2244,
      "Ġlearn": 2245,
      "Ġcharacter": 2246,
      "];": 2247,
      "Ġann": 2248,
      "ole": 2249,
      "Ġstep": 2250,
      "ĠGr": 2251,
      "ground": 2252,
      "Ġstrong": 2253,
      "Ġcorrect": 2254,
      "Ġlocal": 2255,
      "Ġcard": 2256,
      "Com": 2257,
      "Ġcut": 2258,
      "orry": 2259,
      "reg": 2260,
      "Ġabs": 2261,
      "7.": 2262,
      "ability": 2263,
      "ene": 2264,
      "Ġred": 2265,
      "\".": 2266,
      "Ċ2": 2267,
      "https://": 2268,
      "Ġcustom": 2269,
      "Ġhttp://": 2270,
      "oin": 2271,
      "commend": 2272,
      "face": 2273,
      ".j": 2274,
      "Ġsort": 2275,
      "ame.": 2276,
      "Ġexperience": 2277,
      "Ġconsider": 2278,
      "ply": 2279,
      "isk": 2280,
      "oun": 2281,
      "Ġinit": 2282,
      "cle": 2283,
      "Ġperfect": 2284,
      "duct": 2285,
      "plement": 2286,
      "Ġport": 2287,
      "ĠdonâĢĻt": 2288,
      "Music": 2289,
      "ajor": 2290,
      "Ġseveral": 2291,
      "][": 2292,
      "Ġmatter": 2293,
      "ium": 2294,
      "unch": 2295,
      "Ġopt": 2296,
      "Ġrese": 2297,
      "string": 2298,
      "ĠTo": 2299,
      "ived": 2300,
      "/(": 2301,
      "Ġsimilar": 2302,
      "aken": 2303,
      "40": 2304,
      "Ġpress": 2305,
      "Ġ!": 2306,
      "Ġ?": 2307,
      "Ġstruct": 2308,
      "Ġdat": 2309,
      "Ġop": 2310,
      "Ġfall": 2311,
      "Ġguy": 2312,
      "Ċ>": 2313,
      "Ġcountry": 2314,
      "Ġfre": 2315,
      "Ġ16": 2316,
      "iles": 2317,
      "Ġknew": 2318,
      "Music]": 2319,
      "class": 2320,
      "\");": 2321,
      "fe": 2322,
      "augh": 2323,
      "ror": 2324,
      "Ġ%": 2325,
      "Ġoften": 2326,
      "AC": 2327,
      "Ġwasn't": 2328,
      "key": 2329,
      "ION": 2330,
      "ential": 2331,
      "Ġminut": 2332,
      "pecially": 2333,
      "Ġhuman": 2334,
      "aid": 2335,
      "Ġeasy": 2336,
      "mit": 2337,
      "_s": 2338,
      "Ġdiff": 2339,
      "Ġcoming": 2340,
      "ained": 2341,
      "Ġwater": 2342,
      "Ġcost": 2343,
      "Ġenc": 2344,
      "Ġhig": 2345,
      "ĠâĪ": 2346,
      "ĠĠĠĠĠĠĠĠĠ": 2347,
      "Ġfuck": 2348,
      "Ġsent": 2349,
      "Ġdocument": 2350,
      ".m": 2351,
      "ral": 2352,
      "rew": 2353,
      "on,": 2354,
      "Ġ\"It": 2355,
      "Ġparent": 2356,
      "Ġsaw": 2357,
      "Ġcreat": 2358,
      "ĠMar": 2359,
      "Ġauthor": 2360,
      "Ġreview": 2361,
      "gt;": 2362,
      "Ġbehind": 2363,
      "Ġaw": 2364,
      "Ġpot": 2365,
      "_p": 2366,
      "Ġrequest": 2367,
      "wards": 2368,
      "8.": 2369,
      "Ġselect": 2370,
      "Ġtaking": 2371,
      "Ġsimple": 2372,
      "urther": 2373,
      "Ġparticular": 2374,
      "Ġvoid": 2375,
      "ctor": 2376,
      "angu": 2377,
      "Ġbody": 2378,
      "Ġme,": 2379,
      "arm": 2380,
      "ume": 2381,
      "ration": 2382,
      "aim": 2383,
      "80": 2384,
      "Ċh": 2385,
      "uture": 2386,
      "ording": 2387,
      "Data": 2388,
      "Ġpath": 2389,
      "ow,": 2390,
      "ĊHe": 2391,
      "Ġmor": 2392,
      "Ġdetail": 2393,
      "ĠSp": 2394,
      "Ġyou,": 2395,
      "Ġincluding": 2396,
      "âĢĶ": 2397,
      "_m": 2398,
      "Ġcontent": 2399,
      "Ġrecommend": 2400,
      "Ġstat": 2401,
      "leep": 2402,
      "Ġentire": 2403,
      "ients": 2404,
      "Ġsum": 2405,
      "Ġair": 2406,
      "Ġgets": 2407,
      ".c": 2408,
      "ĠNo": 2409,
      "log": 2410,
      "Ġexpress": 2411,
      "ĠMay": 2412,
      "ina": 2413,
      "Ġthey're": 2414,
      "Ġbusiness": 2415,
      "Ġthat,": 2416,
      "ĠCan": 2417,
      "Ġload": 2418,
      "Ġarray": 2419,
      "Ð½": 2420,
      "word": 2421,
      "Ġcouple": 2422,
      "Ġcannot": 2423,
      "Ġdam": 2424,
      "Ġ**": 2425,
      "22": 2426,
      "bject": 2427,
      "Ċt": 2428,
      "Ġsource": 2429,
      "Ġfav": 2430,
      "Ġreading": 2431,
      "Ġsaying": 2432,
      "Ġdepend": 2433,
      "opt": 2434,
      "Ġoption": 2435,
      "Ġinside": 2436,
      "](": 2437,
      "Ġident": 2438,
      "aving": 2439,
      "Ġtra": 2440,
      "Ġrele": 2441,
      "Ġwhether": 2442,
      "td": 2443,
      "Ġfront": 2444,
      "Ġrelations": 2445,
      "Ġbar": 2446,
      "ĠitâĢĻs": 2447,
      "fully": 2448,
      "itten": 2449,
      "Ġant": 2450,
      "Ġwon't": 2451,
      "_c": 2452,
      "empt": 2453,
      "osed": 2454,
      "oci": 2455,
      "Ġguys": 2456,
      "Ġfine": 2457,
      "Ġ[Music]": 2458,
      "Ġaccount": 2459,
      "Ġacross": 2460,
      "ĠPh": 2461,
      "ser": 2462,
      "though": 2463,
      "____": 2464,
      "miss": 2465,
      "Ġfoc": 2466,
      "uild": 2467,
      "Ġposition": 2468,
      "Ġsex": 2469,
      "Ġneeds": 2470,
      "ate.": 2471,
      "Ġleave": 2472,
      "ĠHowever,": 2473,
      "ĠInd": 2474,
      "Ġpract": 2475,
      "33": 2476,
      "Ġchildren": 2477,
      "Ġremember": 2478,
      "nes": 2479,
      "Ġ1,": 2480,
      "ÑĤ": 2481,
      "ried": 2482,
      "Ġbox": 2483,
      "Ġwomen": 2484,
      "px": 2485,
      "Ġ\"C": 2486,
      "Ġsitu": 2487,
      "Ar": 2488,
      "Ġconc": 2489,
      "Ġstudy": 2490,
      "Ġandroid": 2491,
      "fer": 2492,
      "Ġdue": 2493,
      "Ġasked": 2494,
      "Ġwrite": 2495,
      "Res": 2496,
      "itting": 2497,
      "Ġbecome": 2498,
      "Ġsoon": 2499,
      "Ġhit": 2500,
      "Ġtre": 2501,
      "Ġmajor": 2502,
      "Ġ3.": 2503,
      "file": 2504,
      "Ġlay": 2505,
      "čĊĠ": 2506,
      "Ċimport": 2507,
      "Ġsense": 2508,
      "Ġblack": 2509,
      "off": 2510,
      "Ġprint": 2511,
      "Ġcontin": 2512,
      "Ġthat.": 2513,
      "ĠâĢĶ": 2514,
      "itely": 2515,
      "fig": 2516,
      "olor": 2517,
      "ĠÎ": 2518,
      "Ġoffic": 2519,
      "eg": 2520,
      "icro": 2521,
      "an,": 2522,
      "Ġ30": 2523,
      "artment": 2524,
      "Ġguess": 2525,
      "Ġeng": 2526,
      "bt": 2527,
      "Ġ...": 2528,
      "AD": 2529,
      "Ġcompl": 2530,
      "ĠIN": 2531,
      "quest": 2532,
      "Ġyou.": 2533,
      "al.": 2534,
      "Ġvideo": 2535,
      "Ġimpro": 2536,
      "Ġcompany": 2537,
      "ĠÂ": 2538,
      "Ġdev": 2539,
      "Ġaddition": 2540,
      "odel": 2541,
      "60": 2542,
      "unk": 2543,
      "using": 2544,
      "Ġprotect": 2545,
      "Ġimplement": 2546,
      "')": 2547,
      "Ġhon": 2548,
      "resent": 2549,
      "icle": 2550,
      "Ġblock": 2551,
      "ele": 2552,
      "><": 2553,
      "Ġmultiple": 2554,
      "ĠThen": 2555,
      "Ġdiscuss": 2556,
      "Ġfiles": 2557,
      "Ġflo": 2558,
      "ĉ}": 2559,
      "ination": 2560,
      "Ġcomb": 2561,
      "viron": 2562,
      "clude": 2563,
      "Ġmag": 2564,
      "/s": 2565,
      "ĊBut": 2566,
      "Ġfight": 2567,
      "Ġhim,": 2568,
      "Ġur": 2569,
      "ies.": 2570,
      "ity.": 2571,
      "Ġlater": 2572,
      "lish": 2573,
      "ĠGod": 2574,
      "Ġimage": 2575,
      "Ġdisplay": 2576,
      "Ġhear": 2577,
      "ĠPr": 2578,
      "Ġgen": 2579,
      "ife": 2580,
      "book": 2581,
      "apter": 2582,
      "Ġgovernment": 2583,
      "Ġcommand": 2584,
      "ue.": 2585,
      "Ġfuture": 2586,
      "uro": 2587,
      "($": 2588,
      "UT": 2589,
      "Ġorgan": 2590,
      "Ġprivate": 2591,
      "Ġprevious": 2592,
      "Ġslow": 2593,
      "like": 2594,
      "Ġmarket": 2595,
      "ially": 2596,
      "++": 2597,
      "Ġ\"Y": 2598,
      "Ġtime,": 2599,
      "ĠHis": 2600,
      "Ġ\"What": 2601,
      "-h": 2602,
      "Ġparam": 2603,
      "Ġregard": 2604,
      "Ċth": 2605,
      "osp": 2606,
      "Ġstre": 2607,
      "list": 2608,
      "Ġfood": 2609,
      "itor": 2610,
      "Ġrelationship": 2611,
      "Ġtreat": 2612,
      "-in": 2613,
      "Ġsaid,": 2614,
      "ĠEng": 2615,
      "To": 2616,
      "ives": 2617,
      "icult": 2618,
      "ĠJust": 2619,
      "9.": 2620,
      "Ġvol": 2621,
      "ilt": 2622,
      "Ġ\"L": 2623,
      "conom": 2624,
      "Ġsal": 2625,
      "ĠdidnâĢĻt": 2626,
      "Ġsuccess": 2627,
      "7,": 2628,
      "atever": 2629,
      "ĠAd": 2630,
      "Ġheard": 2631,
      "ecut": 2632,
      "ell,": 2633,
      "Ġmention": 2634,
      "por": 2635,
      "-w": 2636,
      "ĠOF": 2637,
      "ots": 2638,
      "Ġworth": 2639,
      "light": 2640,
      "oogle": 2641,
      "II": 2642,
      "Ġbase": 2643,
      "ached": 2644,
      "Ġ0,": 2645,
      "Ġtakes": 2646,
      "onent": 2647,
      "Ġelect": 2648,
      "Ġ14": 2649,
      "ĠAlso": 2650,
      "return": 2651,
      "Ġsat": 2652,
      "Ġsetting": 2653,
      "itical": 2654,
      "Ġspace": 2655,
      "p.": 2656,
      "Ġbelow": 2657,
      "24": 2658,
      "Ġamount": 2659,
      "Ġhands": 2660,
      "Ġforward": 2661,
      "uk": 2662,
      "Ð¾Ð": 2663,
      "Ġanswer": 2664,
      "Ġinvol": 2665,
      "-0": 2666,
      "Ġfriends": 2667,
      "Ġexc": 2668,
      "ĊIs": 2669,
      "Ġtalking": 2670,
      "urs": 2671,
      "Ġaddress": 2672,
      "nal": 2673,
      "Ġfinal": 2674,
      "iver": 2675,
      "arr": 2676,
      "ĠSte": 2677,
      "Ġtarget": 2678,
      "ĊI'm": 2679,
      "Ċb": 2680,
      "Ġfive": 2681,
      "Text": 2682,
      "ĠIâĢĻm": 2683,
      "Ġimp": 2684,
      "ising": 2685,
      "Ġben": 2686,
      "oon": 2687,
      "čĊĠĠĠ": 2688,
      "Ġothers": 2689,
      "Ġlost": 2690,
      "ĊThanks": 2691,
      "_d": 2692,
      "Ġgeneral": 2693,
      "_C": 2694,
      "Ġgrow": 2695,
      "value": 2696,
      "aterial": 2697,
      "Ġdoor": 2698,
      "Ġsimply": 2699,
      "it.": 2700,
      "**3": 2701,
      "Ġgoes": 2702,
      "ging": 2703,
      "Ġstore": 2704,
      "Ġespecially": 2705,
      "========": 2706,
      "ies,": 2707,
      "Ġneeded": 2708,
      "Ġyourself": 2709,
      "ĠJohn": 2710,
      "Ġmeas": 2711,
      "Ġattack": 2712,
      "div>": 2713,
      "Ġknown": 2714,
      "Hi": 2715,
      "gress": 2716,
      "Ġland": 2717,
      "ĠOne": 2718,
      "Ġsearch": 2719,
      "Ġthird": 2720,
      "Ġturned": 2721,
      "Ġmessage": 2722,
      "reci": 2723,
      ".get": 2724,
      "Ġapplication": 2725,
      "Ġgave": 2726,
      "6,": 2727,
      "Ġmother": 2728,
      "Ġobs": 2729,
      "ĠAm": 2730,
      "Ġtool": 2731,
      "ĊAnd": 2732,
      "umb": 2733,
      "Ġcond": 2734,
      "Ġpie": 2735,
      "Ġservice": 2736,
      "rel": 2737,
      "ession": 2738,
      "SS": 2739,
      "34": 2740,
      "Ġinput": 2741,
      "ries": 2742,
      "ase.": 2743,
      "Ġpap": 2744,
      "Ġ\"G": 2745,
      "iddle": 2746,
      "ampl": 2747,
      "Ġfire": 2748,
      "Ġcomput": 2749,
      "comp": 2750,
      "rodu": 2751,
      "ison": 2752,
      "gs": 2753,
      "aph": 2754,
      "ouch": 2755,
      "orth": 2756,
      "iod": 2757,
      "ken": 2758,
      "OD": 2759,
      "ĠSc": 2760,
      "Ġpict": 2761,
      "\";": 2762,
      "uppose": 2763,
      "Ġredu": 2764,
      "ML": 2765,
      "oose": 2766,
      "ulation": 2767,
      "Ċto": 2768,
      "ĊWe": 2769,
      "Ġcolor": 2770,
      "Ġspecial": 2771,
      "Ġadded": 2772,
      "rc": 2773,
      "ĊâĢľI": 2774,
      "Ġthinking": 2775,
      "Ġfinally": 2776,
      "35": 2777,
      "_P": 2778,
      "ĠChrist": 2779,
      "Ġnull": 2780,
      "ĠThank": 2781,
      "ĠWith": 2782,
      "Ġresults": 2783,
      "Ġplaying": 2784,
      "Ġrespect": 2785,
      "Ġ(I": 2786,
      "Ġresponse": 2787,
      "Ġfalse": 2788,
      "oes": 2789,
      "8,": 2790,
      "Ġoh": 2791,
      "Ġcreated": 2792,
      "idence": 2793,
      "(x": 2794,
      "Ġweb": 2795,
      "Ġste": 2796,
      "Ñģ": 2797,
      "imal": 2798,
      "lex": 2799,
      "Ġra": 2800,
      "Ġdig": 2801,
      "Ġaccept": 2802,
      "Ġchanges": 2803,
      "Ġdeath": 2804,
      "Ġearly": 2805,
      "Ġhappy": 2806,
      "ables": 2807,
      "Ġfurther": 2808,
      "Ġmonths": 2809,
      "ĠRes": 2810,
      "ĠÃ": 2811,
      "Ġhaven": 2812,
      "inux": 2813,
      "apt": 2814,
      "Ġtaken": 2815,
      "Ġhair": 2816,
      "Ġbeaut": 2817,
      "af": 2818,
      "olute": 2819,
      "Ġphone": 2820,
      ".s": 2821,
      "Ġcomment": 2822,
      "Ġswe": 2823,
      "ien": 2824,
      "Ġetc.": 2825,
      "ibility": 2826,
      "thon": 2827,
      "Ġexactly": 2828,
      "able.": 2829,
      "2)": 2830,
      "(f": 2831,
      "Ġitself": 2832,
      "ÑĢ": 2833,
      "Ġlikely": 2834,
      "Ġlangu": 2835,
      "Ġserv": 2836,
      "Ġcharacters": 2837,
      "ĠApp": 2838,
      "Ġ0x": 2839,
      "ĊAs": 2840,
      "mon": 2841,
      "box": 2842,
      "Ġstandard": 2843,
      "Ġal.": 2844,
      "Ġnetwork": 2845,
      "Ġpercent": 2846,
      "Tr": 2847,
      "Ġdefinitely": 2848,
      "Ġprovide": 2849,
      "Ġsurpr": 2850,
      "Ġcir": 2851,
      "lu": 2852,
      "Ġusually": 2853,
      "ley": 2854,
      "ai": 2855,
      "Ġoutput": 2856,
      "Ġcopy": 2857,
      "Ġhot": 2858,
      "Ġvalues": 2859,
      "Ġlik": 2860,
      "Ġcouldn't": 2861,
      "Ġ17": 2862,
      "Ġphys": 2863,
      "ine.": 2864,
      "ate,": 2865,
      "Ġarm": 2866,
      "Ġ\"We": 2867,
      "ances": 2868,
      "lock": 2869,
      "Ġwritten": 2870,
      "Ġrequire": 2871,
      "ĠUniversity": 2872,
      "ĠAny": 2873,
      "Ġdefault": 2874,
      "Ġdifficult": 2875,
      "andom": 2876,
      "raph": 2877,
      "medi": 2878,
      "Ċ</": 2879,
      "irm": 2880,
      "ety": 2881,
      "ĠAfter": 2882,
      "Ġsocial": 2883,
      "Ġout.": 2884,
      "Ġcover": 2885,
      "\\n": 2886,
      "Ġsignific": 2887,
      "Ġhom": 2888,
      "ĠString": 2889,
      "Ġquality": 2890,
      "order": 2891,
      "Ġ25": 2892,
      "idual": 2893,
      "Ġ`": 2894,
      "Ġmach": 2895,
      "Ġimag": 2896,
      "Ġmillion": 2897,
      "ubl": 2898,
      "Ġcompletely": 2899,
      "oop": 2900,
      "Ġappreci": 2901,
      "Ċhttp://": 2902,
      "Ġshare": 2903,
      "Ġhistory": 2904,
      "acy": 2905,
      "Ġhur": 2906,
      "Ġfast": 2907,
      "Ġresearch": 2908,
      "Ġfill": 2909,
      "Ġconfig": 2910,
      "Ġscreen": 2911,
      "ity,": 2912,
      "ude": 2913,
      "Ġcontinu": 2914,
      "ance.": 2915,
      "Ġspeak": 2916,
      "Ġseason": 2917,
      "Ġwhite": 2918,
      "Ġla": 2919,
      "istic": 2920,
      "OP": 2921,
      "Ġscri": 2922,
      "AG": 2923,
      "_S": 2924,
      "Ġ\"He": 2925,
      "Ċ1": 2926,
      "ĠIm": 2927,
      "IG": 2928,
      "UR": 2929,
      "ili": 2930,
      "Ġmatch": 2931,
      "Ġbott": 2932,
      "></": 2933,
      "Ġnecess": 2934,
      "Ġfeeling": 2935,
      "Ġthis,": 2936,
      "ĊFor": 2937,
      "ffic": 2938,
      "App": 2939,
      "ari": 2940,
      "t.": 2941,
      "print": 2942,
      "ance,": 2943,
      "Ġminutes": 2944,
      "ĠâĢľI": 2945,
      "Ġoriginal": 2946,
      "Ġdom": 2947,
      "Ċ[": 2948,
      "Ġwell.": 2949,
      "gest": 2950,
      "Ġup.": 2951,
      "Ġcamp": 2952,
      "more": 2953,
      "Ġclick": 2954,
      "Ġsolution": 2955,
      "_id": 2956,
      "Ġ0;": 2957,
      "201": 2958,
      "Ġ13": 2959,
      "Ġdark": 2960,
      "Ġagain.": 2961,
      "asing": 2962,
      "ãģ": 2963,
      "Ġdead": 2964,
      "Ġage": 2965,
      "Ġdeep": 2966,
      "Ġwouldn't": 2967,
      "ĠTrump": 2968,
      "Ġfather": 2969,
      ".p": 2970,
      "ones": 2971,
      "ensive": 2972,
      "Ġeconom": 2973,
      "Value": 2974,
      "Ġder": 2975,
      "/m": 2976,
      "Ġcontr": 2977,
      "Ġclean": 2978,
      "go": 2979,
      "Ċ**": 2980,
      "Ġmot": 2981,
      "ysis": 2982,
      "Ġyes": 2983,
      "Ġsleep": 2984,
      "Ġmusic": 2985,
      "Ġsqu": 2986,
      "els": 2987,
      "Ġbreat": 2988,
      "Ġi'm": 2989,
      "ules": 2990,
      "Ġbill": 2991,
      "IM": 2992,
      "Ġhours": 2993,
      "isc": 2994,
      "iment": 2995,
      "Ġindiv": 2996,
      "OL": 2997,
      "Ġsil": 2998,
      "Ġoutside": 2999,
      "Ġ50": 3000,
      "ĊK": 3001,
      "come": 3002,
      "Ġdeterm": 3003,
      "Ġhost": 3004,
      "Ġscript": 3005,
      "Ġdep": 3006,
      "Ġ11": 3007,
      "Im": 3008,
      "/d": 3009,
      "70": 3010,
      "ips": 3011,
      "ruction": 3012,
      "Ċst": 3013,
      "uge": 3014,
      "Ġcompan": 3015,
      "Ġheav": 3016,
      "Ġtrack": 3017,
      "Ġhor": 3018,
      "ogn": 3019,
      "Ġrisk": 3020,
      "en,": 3021,
      "Ġnormal": 3022,
      "eb": 3023,
      "ql": 3024,
      "Ġfair": 3025,
      "Ġwhatever": 3026,
      "ification": 3027,
      "Ġfavor": 3028,
      "ĊĊĊ": 3029,
      "Ġsepar": 3030,
      "Ġphot": 3031,
      "vironment": 3032,
      "yl": 3033,
      "Ġdest": 3034,
      "Ġcolumn": 3035,
      "Ċ*": 3036,
      ".org/": 3037,
      "abase": 3038,
      "rror": 3039,
      "Ġwoman": 3040,
      "ĠâĢĺ": 3041,
      "iff": 3042,
      "ĠHar": 3043,
      "Ġhigher": 3044,
      "uration": 3045,
      "Qu": 3046,
      "PI": 3047,
      "span": 3048,
      "Ġall,": 3049,
      "Item": 3050,
      "Ġspend": 3051,
      "ique": 3052,
      "Ġinclude": 3053,
      "}{": 3054,
      "iding": 3055,
      "Ġwat": 3056,
      "Ġis,": 3057,
      "Ġ\"I'm": 3058,
      "ĠPl": 3059,
      "Ġbehav": 3060,
      "ython": 3061,
      "Ġmax": 3062,
      "Ġvoice": 3063,
      "item": 3064,
      "ension": 3065,
      "Ġfigure": 3066,
      "Ġneg": 3067,
      "ĊĠĠĠĠĠĠĠĠĠĠĠĠĠĠĠĠĠĠĠĠĠĠĠ": 3068,
      "Ġissues": 3069,
      "90": 3070,
      "Ġwonder": 3071,
      "one.": 3072,
      "erver": 3073,
      "Ġsym": 3074,
      "ĠMed": 3075,
      "Ċ_": 3076,
      "Ġlonger": 3077,
      "ally,": 3078,
      "Ġattempt": 3079,
      "-4": 3080,
      "He": 3081,
      "Ġemail": 3082,
      "Ġblood": 3083,
      "Ġcool": 3084,
      "Ġamong": 3085,
      "Ġlet's": 3086,
      "Ã©": 3087,
      "Ġrad": 3088,
      "////": 3089,
      "Object": 3090,
      "cell": 3091,
      "Ġq": 3092,
      "ster": 3093,
      "Ġdistribut": 3094,
      "num": 3095,
      "inter": 3096,
      "Ġupon": 3097,
      "Ġenerg": 3098,
      "Ġshows": 3099,
      "-y": 3100,
      "ources": 3101,
      "OS": 3102,
      "ney": 3103,
      "AB": 3104,
      "Ġcurrently": 3105,
      "pper": 3106,
      "bit": 3107,
      "Ġarea": 3108,
      "rite": 3109,
      "Ġcause": 3110,
      "fo": 3111,
      "Ġquestions": 3112,
      "amer": 3113,
      "ev": 3114,
      "tract": 3115,
      "ication": 3116,
      "Ġwants": 3117,
      "lib": 3118,
      "Ġple": 3119,
      "/p": 3120,
      "100": 3121,
      "Ġtotal": 3122,
      "Ġ-2": 3123,
      "38": 3124,
      "just": 3125,
      "ocal": 3126,
      "Ġsite": 3127,
      "resp": 3128,
      "antly": 3129,
      "Ġhappened": 3130,
      "Ġvia": 3131,
      "ĠAND": 3132,
      "_f": 3133,
      "Ġrout": 3134,
      "Ġperiod": 3135,
      "imate": 3136,
      "Ġfund": 3137,
      "iction": 3138,
      "obal": 3139,
      "board": 3140,
      "Ġground": 3141,
      "haps": 3142,
      "i-": 3143,
      "Ġsorry": 3144,
      "Ġher.": 3145,
      "ming": 3146,
      "9,": 3147,
      "iful": 3148,
      "ĠAmerican": 3149,
      "plate": 3150,
      "ĠTe": 3151,
      "et.": 3152,
      "Ċre": 3153,
      "Ġtowards": 3154,
      "leg": 3155,
      "no": 3156,
      "Ġclaim": 3157,
      "ĠCol": 3158,
      "ocr": 3159,
      "ervice": 3160,
      "atter": 3161,
      "Ġtrad": 3162,
      "aff": 3163,
      "en.": 3164,
      "ĠRep": 3165,
      "room": 3166,
      "Ġobvious": 3167,
      "ĠCal": 3168,
      "Ġproblems": 3169,
      "ĊSo": 3170,
      "Ġwriting": 3171,
      "icense": 3172,
      "Ġsus": 3173,
      "in,": 3174,
      "ĊThere": 3175,
      "Ġhaven't": 3176,
      "Ġsix": 3177,
      "arter": 3178,
      "75": 3179,
      "Ġnow,": 3180,
      "Ġvi": 3181,
      "ENT": 3182,
      "ted": 3183,
      "Ġlibr": 3184,
      "Ġgames": 3185,
      "Ġindividual": 3186,
      "36": 3187,
      "resh": 3188,
      "Ġrepresent": 3189,
      "Ġwords": 3190,
      "Ġloved": 3191,
      "Ġnod": 3192,
      "Ġreplac": 3193,
      "Ġbed": 3194,
      "Ġliter": 3195,
      "ama": 3196,
      "Ġstatic": 3197,
      "raft": 3198,
      "3)": 3199,
      "IL": 3200,
      "Ġstyle": 3201,
      "By": 3202,
      "or,": 3203,
      "ĠMan": 3204,
      "Ġdecided": 3205,
      "Ġ$\\": 3206,
      "ethod": 3207,
      "Ġinteresting": 3208,
      "../": 3209,
      "Ġmil": 3210,
      "Ġdifference": 3211,
      "Ġrelease": 3212,
      "Ġdevelopment": 3213,
      "Ġprice": 3214,
      "Ġterms": 3215,
      "Ġsubject": 3216,
      "Ġworked": 3217,
      "oe": 3218,
      "Ġpri": 3219,
      "Ġ(and": 3220,
      "Ġ\"P": 3221,
      "Ġwindow": 3222,
      "Ġrecent": 3223,
      "Ġfit": 3224,
      "ands": 3225,
      "Ġaccording": 3226,
      "Ġdraw": 3227,
      "Ġindex": 3228,
      "},": 3229,
      "nc": 3230,
      "itut": 3231,
      "amp;": 3232,
      "php": 3233,
      "But": 3234,
      "ĠInst": 3235,
      "ival": 3236,
      "roller": 3237,
      "US": 3238,
      "Ġabsolute": 3239,
      "Ġlisten": 3240,
      "Ġupdate": 3241,
      "Ġfing": 3242,
      "lement": 3243,
      "Ġassoci": 3244,
      "Ġnow.": 3245,
      "Ġ4.": 3246,
      ".S.": 3247,
      "().": 3248,
      "Ġbutton": 3249,
      "Ġsave": 3250,
      "Ġver": 3251,
      "Ġmaterial": 3252,
      "Ġpoints": 3253,
      "Ġgives": 3254,
      "ires": 3255,
      "Ġslight": 3256,
      "abl": 3257,
      "Ġclient": 3258,
      "ĠSome": 3259,
      "ĊWhen": 3260,
      "-st": 3261,
      "ying": 3262,
      "Ġ},": 3263,
      "Ġhref": 3264,
      "aught": 3265,
      "reme": 3266,
      "include": 3267,
      "astic": 3268,
      "cher": 3269,
      "Ġfoot": 3270,
      "Ġtax": 3271,
      "Ġroll": 3272,
      "mp": 3273,
      "Ġthem,": 3274,
      "Ġdate": 3275,
      "Ġwebs": 3276,
      "Ġconcern": 3277,
      "ated.": 3278,
      "Ġdrop": 3279,
      "Ġround": 3280,
      "Ġcult": 3281,
      "une": 3282,
      "clus": 3283,
      "Ġang": 3284,
      "param": 3285,
      "Ġmap": 3286,
      "culate": 3287,
      "irection": 3288,
      "Ġcontact": 3289,
      "Ġandroid:": 3290,
      "45": 3291,
      "Ġwon": 3292,
      "const": 3293,
      "Ġhonest": 3294,
      "amed": 3295,
      "Ġrange": 3296,
      "Ġthread": 3297,
      "Ġserious": 3298,
      "Ċ/": 3299,
      "Ġname=\"": 3300,
      "_D": 3301,
      "ia,": 3302,
      "Ġ2*": 3303,
      "Ġpred": 3304,
      "Ġbrother": 3305,
      "chie": 3306,
      "Ġavoid": 3307,
      "Ġmass": 3308,
      "Ġbooks": 3309,
      "Ġsection": 3310,
      "ĠFl": 3311,
      "Ġago": 3312,
      "ĠNow": 3313,
      "Ġhop": 3314,
      "user": 3315,
      "essage": 3316,
      "Ġrespons": 3317,
      "Ġaffect": 3318,
      "at.": 3319,
      "ament": 3320,
      "ĠThese": 3321,
      "Ġsometimes": 3322,
      "28": 3323,
      "Ġemploy": 3324,
      "ĠInt": 3325,
      "pose": 3326,
      "Ġ\"It's": 3327,
      "Ġrequired": 3328,
      "Ġpersonal": 3329,
      "mm": 3330,
      "uly": 3331,
      "cret": 3332,
      "Sh": 3333,
      "Ġelement": 3334,
      "čĊč": 3335,
      "Ġsens": 3336,
      "bar": 3337,
      "QL": 3338,
      "OW": 3339,
      "!âĢĿ": 3340,
      "Ġapproach": 3341,
      "/c": 3342,
      "now": 3343,
      "chan": 3344,
      "Ġseemed": 3345,
      "lege": 3346,
      "ĠSystem": 3347,
      "(t": 3348,
      "inary": 3349,
      "Ġ(s": 3350,
      "Ġaud": 3351,
      "Ġlate": 3352,
      "Ġmemory": 3353,
      "What": 3354,
      "Ġep": 3355,
      "CH": 3356,
      "Ġimm": 3357,
      "Ġweight": 3358,
      "Ċa": 3359,
      "Ġbenef": 3360,
      "Ġcontinue": 3361,
      "Ġ\"And": 3362,
      "Ċl": 3363,
      "Ġprim": 3364,
      "Ġones": 3365,
      "Ġup,": 3366,
      "cho": 3367,
      "Ġ(c": 3368,
      "raz": 3369,
      "tt": 3370,
      "My": 3371,
      "selves": 3372,
      "index": 3373,
      "Ġ\"F": 3374,
      "Ċ\\": 3375,
      "ribute": 3376,
      "Ġopin": 3377,
      "As": 3378,
      "Ġmorning": 3379,
      "atures": 3380,
      "Ġamaz": 3381,
      "Se": 3382,
      "Ġdeb": 3383,
      "Ġbi": 3384,
      "Ġwall": 3385,
      "orld": 3386,
      "itted": 3387,
      "Ġexpected": 3388,
      "Ġimmedi": 3389,
      "Ġgiving": 3390,
      "Ġpolic": 3391,
      "overed": 3392,
      "Ġeasily": 3393,
      "Ġbackground": 3394,
      "ony": 3395,
      "Ġupd": 3396,
      "ager": 3397,
      "Ġden": 3398,
      "Ġsoftware": 3399,
      "');": 3400,
      "Ġcity": 3401,
      "Ġsell": 3402,
      "File": 3403,
      "Ġign": 3404,
      "aged": 3405,
      "ortun": 3406,
      "Ġknows": 3407,
      "Ġstra": 3408,
      "nter": 3409,
      "Ġerr": 3410,
      "Ġassum": 3411,
      "ĠCent": 3412,
      "Ġbab": 3413,
      "ĠWind": 3414,
      "Ġ24": 3415,
      "lt": 3416,
      "Ġhere.": 3417,
      "Ġwish": 3418,
      "Ġappear": 3419,
      "AA": 3420,
      "valu": 3421,
      "Ġlower": 3422,
      "iced": 3423,
      "âĢĻd": 3424,
      "Ġ(b": 3425,
      "Ġcondition": 3426,
      "Ġready": 3427,
      "rem": 3428,
      "ively": 3429,
      "Ġyou'll": 3430,
      "Ġpatients": 3431,
      "Ġexecut": 3432,
      "37": 3433,
      "Ġstarting": 3434,
      "Ġfell": 3435,
      "sy": 3436,
      "Ġteac": 3437,
      "Ġproperty": 3438,
      "frac": 3439,
      "ites": 3440,
      "ĠTH": 3441,
      "ĠHer": 3442,
      "Ġsto": 3443,
      "Ġ/>": 3444,
      "ĠCar": 3445,
      "aughter": 3446,
      "Ġeffort": 3447,
      "Ġhref=\"": 3448,
      "(d": 3449,
      "~~": 3450,
      "ĠĠĠĠĠĠĠĠĠĠĠĠĠĠĠ": 3451,
      "Ġindic": 3452,
      "86": 3453,
      "ibly": 3454,
      "Ġpositive": 3455,
      "39": 3456,
      "Ġusers": 3457,
      "cer": 3458,
      "Ġchance": 3459,
      "ball": 3460,
      "Ġbuilding": 3461,
      "Ġsequ": 3462,
      "Ġball": 3463,
      "ury": 3464,
      "Ġvarious": 3465,
      "_{": 3466,
      "Gr": 3467,
      "oring": 3468,
      ".t": 3469,
      "Ġone.": 3470,
      "Not": 3471,
      "Un": 3472,
      "a)": 3473,
      "FF": 3474,
      "Ġcontext": 3475,
      "Ġpers": 3476,
      "TER": 3477,
      "an.": 3478,
      "you": 3479,
      "ledge": 3480,
      "iday": 3481,
      "Ġliving": 3482,
      "in.": 3483,
      "ide.": 3484,
      "Ġcompet": 3485,
      "Ġnon-": 3486,
      "ĠWill": 3487,
      "Ġextra": 3488,
      "annel": 3489,
      "uf": 3490,
      "26": 3491,
      "Ġwork.": 3492,
      "ief": 3493,
      "ological": 3494,
      "wise": 3495,
      "et,": 3496,
      "ha": 3497,
      "mat": 3498,
      "Ġtouch": 3499,
      "Ċg": 3500,
      "));": 3501,
      "ilities": 3502,
      "Ġdecl": 3503,
      "Ġcommunity": 3504,
      "Ġyou.\"": 3505,
      "ĠPer": 3506,
      "Ġstar": 3507,
      "izing": 3508,
      "Ġ2,": 3509,
      "Ġda": 3510,
      "27": 3511,
      "Ġhuge": 3512,
      "ĊMy": 3513,
      "Ġtask": 3514,
      "Ġut": 3515,
      "Ġnat": 3516,
      "Ġboard": 3517,
      ".d": 3518,
      "55": 3519,
      "Ġrelated": 3520,
      "200": 3521,
      "Ċĉĉĉ": 3522,
      "Ġchall": 3523,
      "Ġhell": 3524,
      "Ġextend": 3525,
      "Ġcross": 3526,
      "atform": 3527,
      "ĉif": 3528,
      "older": 3529,
      "Ġbecom": 3530,
      "Ċĉĉĉĉ": 3531,
      "Ġill": 3532,
      "perty": 3533,
      ".h": 3534,
      "Ġcat": 3535,
      "age,": 3536,
      "Ġkept": 3537,
      "Ġexample,": 3538,
      "-g": 3539,
      "oom": 3540,
      "Ġmis": 3541,
      "Ġdrink": 3542,
      "us,": 3543,
      "Ġeduc": 3544,
      "al,": 3545,
      "Ġonline": 3546,
      "ians": 3547,
      "Ġcy": 3548,
      "ze": 3549,
      "Ġfeature": 3550,
      "Ġfocus": 3551,
      "/>": 3552,
      "Ġund": 3553,
      "Ġcry": 3554,
      "And": 3555,
      "Ġshot": 3556,
      "Ġthere.": 3557,
      "Ġenvironment": 3558,
      "Ġstraight": 3559,
      "Ġvalid": 3560,
      "cing": 3561,
      "ean": 3562,
      "ties": 3563,
      "Ġcomfort": 3564,
      "Ċ\"I": 3565,
      "Ġenergy": 3566,
      "abor": 3567,
      "ĠâĪĴ": 3568,
      "Ċof": 3569,
      "group": 3570,
      "ure,": 3571,
      "urope": 3572,
      "bb": 3573,
      "ĠQu": 3574,
      "Ġdrive": 3575,
      "amb": 3576,
      "Ġ40": 3577,
      "anger": 3578,
      "Ġautom": 3579,
      "Ġbeautiful": 3580,
      "TR": 3581,
      "Ġ&gt;": 3582,
      "Ġpurch": 3583,
      "Ġshit": 3584,
      "Hell": 3585,
      "Ġgod": 3586,
      "88": 3587,
      "####": 3588,
      "Ġchanged": 3589,
      "Ġseeing": 3590,
      "_M": 3591,
      "Ġquickly": 3592,
      "Ġgone": 3593,
      "Ċpublic": 3594,
      "Ġimprove": 3595,
      "Ġlock": 3596,
      "Ġ->": 3597,
      "Ġtoo.": 3598,
      "Ġsituation": 3599,
      "aint": 3600,
      "inn": 3601,
      "Ġ!=": 3602,
      "Ġvot": 3603,
      "Ġheld": 3604,
      "Ġhy": 3605,
      "input": 3606,
      "Ġlack": 3607,
      "ams": 3608,
      "ospital": 3609,
      "ure.": 3610,
      "(p": 3611,
      "Ġreceived": 3612,
      "Ġrole": 3613,
      "Ġinterested": 3614,
      "CC": 3615,
      "(s": 3616,
      "29": 3617,
      "Ġintrodu": 3618,
      "Ġanalysis": 3619,
      "1/": 3620,
      "rugg": 3621,
      "Ġluck": 3622,
      "Ġinvestig": 3623,
      "Ġcoll": 3624,
      "Ġmembers": 3625,
      "Ġuses": 3626,
      "VE": 3627,
      "Ġtitle": 3628,
      "Ġsupposed": 3629,
      "ĠTw": 3630,
      "Ġsubs": 3631,
      "Ġhttps://": 3632,
      "Ġagre": 3633,
      "code": 3634,
      "Ġforce": 3635,
      "Ġideas": 3636,
      "Ġconvers": 3637,
      "amework": 3638,
      "Ġremain": 3639,
      "Ġcatch": 3640,
      "aves": 3641,
      "igned": 3642,
      "Ġdro": 3643,
      "Ġactiv": 3644,
      "m.": 3645,
      "IR": 3646,
      "Ġrandom": 3647,
      "Ġmedia": 3648,
      "eth": 3649,
      "imum": 3650,
      "amples": 3651,
      "Ġanyway": 3652,
      "Ġsy": 3653,
      "Ġindust": 3654,
      "Ġsong": 3655,
      "44": 3656,
      "curity": 3657,
      "epartment": 3658,
      "Ġpotential": 3659,
      "Ġexcept": 3660,
      "Get": 3661,
      "Ġaver": 3662,
      "Ġord": 3663,
      "ks": 3664,
      "Ġdou": 3665,
      "ĊY": 3666,
      "mber": 3667,
      "ators": 3668,
      "Ġweeks": 3669,
      "ĠCont": 3670,
      "col": 3671,
      "ĠChe": 3672,
      "Ġson": 3673,
      "Ġlength": 3674,
      "how": 3675,
      "Ġmiddle": 3676,
      "iled": 3677,
      "Ġactual": 3678,
      "oul": 3679,
      "ĠMr.": 3680,
      "ĠBy": 3681,
      "IP": 3682,
      "Ġparty": 3683,
      "ynam": 3684,
      "ho": 3685,
      "ĠU.S.": 3686,
      "Ġinitial": 3687,
      "Ġagain,": 3688,
      "Ġagree": 3689,
      "Ġ(or": 3690,
      "(m": 3691,
      "Set": 3692,
      "ero": 3693,
      "Ġplayed": 3694,
      "Int": 3695,
      "ĠRE": 3696,
      "Ġaren't": 3697,
      "plic": 3698,
      "Ġcontain": 3699,
      "Ġid=\"": 3700,
      "Ġachie": 3701,
      "arg": 3702,
      "Ġcomplex": 3703,
      "Ġnames": 3704,
      "zz": 3705,
      "Ġall.": 3706,
      "ecause": 3707,
      "Ġpan": 3708,
      "Class": 3709,
      "Ġnews": 3710,
      "Ġbegan": 3711,
      "ĠIS": 3712,
      "ĊAl": 3713,
      "Ġrate": 3714,
      "Ġrecently": 3715,
      "Ġout,": 3716,
      "Hi,": 3717,
      "ĠMc": 3718,
      "Ġself.": 3719,
      "ĠID": 3720,
      "Exception": 3721,
      "Ġalone": 3722,
      "Ġstri": 3723,
      "$.": 3724,
      "Ġbuilt": 3725,
      "ĠĠĠĠĠĠĠĠĠĠ": 3726,
      "met": 3727,
      "66": 3728,
      "ocument": 3729,
      "Ġskill": 3730,
      "Ġdouble": 3731,
      "agn": 3732,
      "pite": 3733,
      "Ġwhat's": 3734,
      "ags": 3735,
      "enn": 3736,
      "pec": 3737,
      "anced": 3738,
      "rix": 3739,
      "ĉreturn": 3740,
      "Ġjav": 3741,
      "Ġfeels": 3742,
      "Ġbrought": 3743,
      "Ġbought": 3744,
      "ĠEven": 3745,
      "math": 3746,
      "Ġshown": 3747,
      "Ġnovel": 3748,
      "Ġgun": 3749,
      "Ġ\"That": 3750,
      "Col": 3751,
      "Ġ(S": 3752,
      "Ġbook.": 3753,
      "Ġopportun": 3754,
      "Ġit.\"": 3755,
      "])": 3756,
      "Ġpolice": 3757,
      "Ġque": 3758,
      "Ġsmile": 3759,
      "ĠPe": 3760,
      "Ġregular": 3761,
      "Add": 3762,
      "itter": 3763,
      "Ġcred": 3764,
      "lim": 3765,
      "ĠMin": 3766,
      "ternal": 3767,
      "Ġdetect": 3768,
      "ober": 3769,
      "ards": 3770,
      "down": 3771,
      "Ġthis:": 3772,
      "Ġtown": 3773,
      "Th": 3774,
      "ĠEvery": 3775,
      "-r": 3776,
      "':": 3777,
      "Ġlimit": 3778,
      "Ġpropos": 3779,
      "Man": 3780,
      "frac{": 3781,
      "Ġobtain": 3782,
      "Ġemot": 3783,
      "Ġmoving": 3784,
      "Ġplayers": 3785,
      "td>": 3786,
      "Ġbasically": 3787,
      "eral": 3788,
      "Ġhandle": 3789,
      "Ġattention": 3790,
      "anch": 3791,
      "erc": 3792,
      "NS": 3793,
      "Ġexplain": 3794,
      "Ġkiss": 3795,
      "_F": 3796,
      "Ġrecogn": 3797,
      "Ġfeed": 3798,
      "Ġdatabase": 3799,
      "Ġdru": 3800,
      "Ġcod": 3801,
      "idered": 3802,
      "s?": 3803,
      "cription": 3804,
      "Ġviol": 3805,
      "Ġintegr": 3806,
      "Ġyou've": 3807,
      "oat": 3808,
      "Ġscen": 3809,
      "ATE": 3810,
      "ĠĠĠĠĠĠĠĠĠĠĠĠ": 3811,
      "ae": 3812,
      "Ġstudents": 3813,
      "Ġplug": 3814,
      "Ġremove": 3815,
      "lying": 3816,
      "Ġonto": 3817,
      "OC": 3818,
      "top": 3819,
      ":**": 3820,
      "sl": 3821,
      "/b": 3822,
      "Ġtrust": 3823,
      "Ċfor": 3824,
      "Ġon.": 3825,
      "ushed": 3826,
      "earch": 3827,
      "itions": 3828,
      "Ġearli": 3829,
      "uses": 3830,
      "urch": 3831,
      "ĊAny": 3832,
      "hich": 3833,
      "Ġeat": 3834,
      "aces": 3835,
      "Ġ(the": 3836,
      "Ġjump": 3837,
      "Ġmember": 3838,
      "-3": 3839,
      "Ġdirection": 3840,
      "PE": 3841,
      "0.0": 3842,
      "For": 3843,
      "Ġknow,": 3844,
      "[0": 3845,
      "mission": 3846,
      "Ġnote": 3847,
      "Ġincrease": 3848,
      "Ġroad": 3849,
      "Ġconsidered": 3850,
      "nces": 3851,
      "Ġ;": 3852,
      "ULL": 3853,
      "-to": 3854,
      "Ġrow": 3855,
      "^{": 3856,
      "Ġswitch": 3857,
      "Ġmix": 3858,
      "sing": 3859,
      "is,": 3860,
      "23": 3861,
      "</a": 3862,
      "Ġkids": 3863,
      "ace.": 3864,
      "ĠGu": 3865,
      "ĠGe": 3866,
      "Ġeye": 3867,
      "char": 3868,
      "Ġbank": 3869,
      "='": 3870,
      "Form": 3871,
      "Ġofficial": 3872,
      "time": 3873,
      "dev": 3874,
      "atory": 3875,
      "_T": 3876,
      "Ġmissing": 3877,
      "Ġway.": 3878,
      "Ġ3*": 3879,
      "Ġgrab": 3880,
      "Ġpiece": 3881,
      "Ġuseful": 3882,
      "itic": 3883,
      "define": 3884,
      "tes": 3885,
      "ava:": 3886,
      "Ċ#include": 3887,
      "ges": 3888,
      "olic": 3889,
      "Ġstick": 3890,
      ":\"": 3891,
      "arily": 3892,
      "Ġshe's": 3893,
      "erve": 3894,
      "Ġgrad": 3895,
      "uments": 3896,
      ":00": 3897,
      "ĠEurope": 3898,
      "band": 3899,
      "-year": 3900,
      "ta": 3901,
      "Ġbur": 3902,
      "Ġcollect": 3903,
      "Ġdownload": 3904,
      "NA": 3905,
      "Ġstream": 3906,
      "ĠWhy": 3907,
      "Ġlanguage": 3908,
      "21": 3909,
      "EM": 3910,
      "unc": 3911,
      "Ġlos": 3912,
      "';": 3913,
      "Ġlibrary": 3914,
      "ernel": 3915,
      "Ġblue": 3916,
      "AY": 3917,
      "ĠRed": 3918,
      "ync": 3919,
      "xx": 3920,
      "Ġmoved": 3921,
      "Fr": 3922,
      "ishing": 3923,
      "Ġpaper": 3924,
      "host": 3925,
      "oph": 3926,
      "ises": 3927,
      "Ġways": 3928,
      "95": 3929,
      "Ġess": 3930,
      "Ind": 3931,
      "ĠYork": 3932,
      "ague": 3933,
      "select": 3934,
      "Ġpair": 3935,
      "ĠAS": 3936,
      "ĠEm": 3937,
      "****************": 3938,
      "Ġobserv": 3939,
      "ceed": 3940,
      "ĠPres": 3941,
      "ĠHere": 3942,
      "Ġwatching": 3943,
      "65": 3944,
      "['": 3945,
      "rupt": 3946,
      "Ġdeg": 3947,
      "Ġpolitical": 3948,
      "Ġheight": 3949,
      "Ġmid": 3950,
      "px;": 3951,
      "Ġ(wh": 3952,
      "ĠBar": 3953,
      "âĢĻll": 3954,
      "Ġpubl": 3955,
      "Ġjoin": 3956,
      "Ġ&&": 3957,
      "Error": 3958,
      "Ġreported": 3959,
      "Ġdirectly": 3960,
      "_b": 3961,
      "Ġspeed": 3962,
      "Ġmouth": 3963,
      "Ġhappens": 3964,
      "fortun": 3965,
      "Ċ.": 3966,
      "Context": 3967,
      "Ġalthough": 3968,
      "Ġment": 3969,
      "Ġroot": 3970,
      "change": 3971,
      "VER": 3972,
      "Ġbottom": 3973,
      "Ġdream": 3974,
      "Ġwide": 3975,
      "ĠNe": 3976,
      "Ġlife.": 3977,
      "soft": 3978,
      "Ġmechan": 3979,
      "Ġpicked": 3980,
      "Ġperformance": 3981,
      "Ġsche": 3982,
      "able,": 3983,
      "script": 3984,
      "Ġdise": 3985,
      "Ġgam": 3986,
      "sequ": 3987,
      "Ġparents": 3988,
      "I.": 3989,
      "Ġability": 3990,
      "âĢĻve": 3991,
      "[i": 3992,
      "Key": 3993,
      "Path": 3994,
      "on.": 3995,
      "ences": 3996,
      "field": 3997,
      "path": 3998,
      "Ċbe": 3999,
      "void": 4000,
      "77": 4001,
      "ĊHere": 4002,
      "Ġplayer": 4003,
      "Ġextreme": 4004,
      "imin": 4005,
      "Ġmeant": 4006,
      "Ġstories": 4007,
      "Ġreference": 4008,
      "Time": 4009,
      "-8": 4010,
      "p>": 4011,
      "Ġnecessary": 4012,
      "Ġcompared": 4013,
      "config": 4014,
      "Ġjud": 4015,
      "gn": 4016,
      "Ġrepe": 4017,
      "aur": 4018,
      "ilter": 4019,
      "asc": 4020,
      "left": 4021,
      "1]": 4022,
      "Ġincluded": 4023,
      "udd": 4024,
      "map": 4025,
      "Ġlines": 4026,
      "Ġlearning": 4027,
      "Ġadmin": 4028,
      "Ġrespond": 4029,
      "Ġsun": 4030,
      "ĠAss": 4031,
      "ine,": 4032,
      "Ġmist": 4033,
      "a-": 4034,
      "eah,": 4035,
      "ĠThat's": 4036,
      "pace": 4037,
      "Ġtravel": 4038,
      "Ġcand": 4039,
      "Ġarticle": 4040,
      "ĠUnited": 4041,
      "Ġsudd": 4042,
      "Ġ(C": 4043,
      "-up": 4044,
      "tered": 4045,
      "atus": 4046,
      "test": 4047,
      "sem": 4048,
      "(n": 4049,
      "Ġbal": 4050,
      "Ġshoot": 4051,
      "ĠNOT": 4052,
      "ael": 4053,
      "Ġ\"\"": 4054,
      "bing": 4055,
      "irth": 4056,
      "attle": 4057,
      "ĠGet": 4058,
      "Ġsignificant": 4059,
      "Ġdevice": 4060,
      "Ġpatch": 4061,
      "undred": 4062,
      "Ġpoor": 4063,
      "Ġsoci": 4064,
      "48": 4065,
      "Ġdeli": 4066,
      "Ġboo": 4067,
      "Ġfactor": 4068,
      "ĠST": 4069,
      "Ġcases": 4070,
      "Ġ5.": 4071,
      "ride": 4072,
      "ĊV": 4073,
      "dered": 4074,
      "ĠdoesnâĢĻt": 4075,
      "Ġparticip": 4076,
      "Ġton": 4077,
      "Ġoccur": 4078,
      "Ġhere,": 4079,
      "Ġsafe": 4080,
      "Ġorg.": 4081,
      "Ġmail": 4082,
      "ĠÏ": 4083,
      "ent.": 4084,
      "Ġimpact": 4085,
      "img": 4086,
      "ĠMaybe": 4087,
      "Ġrev": 4088,
      "plit": 4089,
      "kend": 4090,
      "ĠPC": 4091,
      "Ġhowever,": 4092,
      "Ð»": 4093,
      "Ċvar": 4094,
      "vant": 4095,
      "Ġargument": 4096,
      "Ġmovie": 4097,
      "Ġbeginning": 4098,
      "Ġ<div": 4099,
      "verse": 4100,
      "Ġ});": 4101,
      "http://www.": 4102,
      "TP": 4103,
      "Ġstatement": 4104,
      "Ġherself": 4105,
      "Ġwidth": 4106,
      "Ġbecame": 4107,
      "aging": 4108,
      "Ġoffer": 4109,
      "_n": 4110,
      "ocol": 4111,
      "what": 4112,
      "acc": 4113,
      "ĊUn": 4114,
      "Ċex": 4115,
      "pty": 4116,
      "Ġknowledge": 4117,
      "Ġwell,": 4118,
      "m,": 4119,
      "ining": 4120,
      "ĠVal": 4121,
      "TH": 4122,
      "Ġprior": 4123,
      "Ġpatient": 4124,
      "as,": 4125,
      "Ġrelative": 4126,
      "Ġformat": 4127,
      "ada": 4128,
      "ĠWar": 4129,
      "with": 4130,
      "d::": 4131,
      "ĠEd": 4132,
      "olve": 4133,
      "Ġpresident": 4134,
      "Ġ:)": 4135,
      "ĠItâĢĻs": 4136,
      "com/": 4137,
      "Ġsuff": 4138,
      "Ġpicture": 4139,
      "Ġcop": 4140,
      "Ġcook": 4141,
      "grad": 4142,
      "Ġher,": 4143,
      "Ġconsum": 4144,
      "Ġhowever": 4145,
      "ĊĊĠĠĠĠĠĠĠĠĠĠĠ": 4146,
      "Ġdie": 4147,
      "Ġthere,": 4148,
      "ialog": 4149,
      "ĠcanâĢĻt": 4150,
      "']": 4151,
      "Ġsecurity": 4152,
      "Ġfem": 4153,
      "Ġfrequ": 4154,
      "Ċpro": 4155,
      "ĊTo": 4156,
      "eters": 4157,
      "Ġdefined": 4158,
      "*(": 4159,
      "oan": 4160,
      "avid": 4161,
      "Ġnotice": 4162,
      "Ġconnection": 4163,
      "Ġfan": 4164,
      "EL": 4165,
      "layout": 4166,
      "Ġjour": 4167,
      "Ġprep": 4168,
      "Ġoptions": 4169,
      "^2": 4170,
      "--------------------------------": 4171,
      "do": 4172,
      "Ġyears.": 4173,
      "Ġprevent": 4174,
      "Ġnearly": 4175,
      "check": 4176,
      "Ġsudden": 4177,
      "Ġthemselves": 4178,
      "ĊSt": 4179,
      "ĠDem": 4180,
      "Ġstock": 4181,
      "kn": 4182,
      "trans": 4183,
      "orrow": 4184,
      "Ġ(in": 4185,
      "ipe": 4186,
      "enty": 4187,
      "hood": 4188,
      "icon": 4189,
      "Ġmaintain": 4190,
      "Ġbug": 4191,
      "Ġfavorite": 4192,
      "Ġoffice": 4193,
      "&gt;": 4194,
      "aul": 4195,
      "ana": 4196,
      "Ġcollection": 4197,
      "Ġprovided": 4198,
      "Ġreve": 4199,
      "Ġspent": 4200,
      "Ġfucking": 4201,
      "Ġthous": 4202,
      "iqu": 4203,
      "Ġwaiting": 4204,
      "98": 4205,
      "Event": 4206,
      "Ġliked": 4207,
      "ic,": 4208,
      "umber": 4209,
      "Ġ(P": 4210,
      "ashing": 4211,
      "Ġarch": 4212,
      "open": 4213,
      "xml": 4214,
      "Ġchoose": 4215,
      "Ġformer": 4216,
      "Ġanymore": 4217,
      "Of": 4218,
      "Ġbound": 4219,
      "Ġabsolutely": 4220,
      "isf": 4221,
      "Ġprofess": 4222,
      "asp": 4223,
      "Ġwel": 4224,
      "as.": 4225,
      "Ġgraph": 4226,
      "Ġstrateg": 4227,
      "reate": 4228,
      "ĠwasnâĢĻt": 4229,
      "Ġstudent": 4230,
      "ations.": 4231,
      "b.": 4232,
      "Ġuns": 4233,
      "Ġetc": 4234,
      "I'm": 4235,
      "ram": 4236,
      "ris": 4237,
      "Ġallowed": 4238,
      "Ġsold": 4239,
      "iant": 4240,
      "cast": 4241,
      "Ġcold": 4242,
      "ara": 4243,
      "Ġon,": 4244,
      "ĠList": 4245,
      "HT": 4246,
      "wik": 4247,
      "Ġprogress": 4248,
      "Ġcirc": 4249,
      "Ġnumbers": 4250,
      "Ġrid": 4251,
      "enu": 4252,
      "Ġparts": 4253,
      "Ġasking": 4254,
      "equ": 4255,
      "Ġsurv": 4256,
      "??": 4257,
      "Ġboot": 4258,
      "OST": 4259,
      "Ġvariable": 4260,
      "Ġrock": 4261,
      "ĠOR": 4262,
      "Ġdecision": 4263,
      "ĠWhile": 4264,
      "itary": 4265,
      "_l": 4266,
      "Ġmode": 4267,
      "ĉ<": 4268,
      "Ġhate": 4269,
      "Ġworry": 4270,
      "inc": 4271,
      "Ġway,": 4272,
      "Ġpulled": 4273,
      "Ġshowed": 4274,
      "ĠEl": 4275,
      "Ġ\"s": 4276,
      "ĠAdd": 4277,
      "url": 4278,
      "ĠTO": 4279,
      "Ġlov": 4280,
      "Ġtype=\"": 4281,
      "Ġstrugg": 4282,
      "it,": 4283,
      "Ġnoticed": 4284,
      "Ġaware": 4285,
      "ĊCh": 4286,
      "Ġconv": 4287,
      "ĠyouâĢĻre": 4288,
      "Ġpackage": 4289,
      "Array": 4290,
      "ĠAb": 4291,
      "Ġpattern": 4292,
      "ĠYour": 4293,
      "A,": 4294,
      "aste": 4295,
      "ĠEnglish": 4296,
      "Ġgrowth": 4297,
      "dom": 4298,
      "Ġpow": 4299,
      "Ġbod": 4300,
      "Ġglobal": 4301,
      "/j": 4302,
      "ĠAlso,": 4303,
      "ĠWindows": 4304,
      "Ġmut": 4305,
      "67": 4306,
      "iam": 4307,
      "ategory": 4308,
      "Ġgoal": 4309,
      "Ġstructure": 4310,
      "ĊI've": 4311,
      "uper": 4312,
      "content": 4313,
      "upid": 4314,
      "(c": 4315,
      "Ġin.": 4316,
      "aling": 4317,
      "inding": 4318,
      "Ġprefer": 4319,
      "ĊĠĠĠĠĠĠ": 4320,
      "aved": 4321,
      "Ġvict": 4322,
      "ĠAct": 4323,
      "Ġcertainly": 4324,
      "Ġexpression": 4325,
      "Ġproduction": 4326,
      "-5": 4327,
      "ograph": 4328,
      "ĠOb": 4329,
      "On": 4330,
      "ĠPar": 4331,
      "ĠOf": 4332,
      "Test": 4333,
      "Ġfeatures": 4334,
      "ĠCor": 4335,
      "true": 4336,
      "ĊShe": 4337,
      "Ġforg": 4338,
      "Ġloss": 4339,
      "Ġquery": 4340,
      "Ġconsist": 4341,
      "4)": 4342,
      "Ġhang": 4343,
      "Ġtypes": 4344,
      "point": 4345,
      "Ġir": 4346,
      "ĠHT": 4347,
      "Ġhundred": 4348,
      "Ġplot": 4349,
      "ia.": 4350,
      "oly": 4351,
      "li>": 4352,
      "Ġlabel": 4353,
      "Ġbasic": 4354,
      "well": 4355,
      "Ġsounds": 4356,
      "\"/>": 4357,
      "Ġtransl": 4358,
      "ocation": 4359,
      "Ġdoll": 4360,
      "Ġthreat": 4361,
      "gl": 4362,
      "Ġengine": 4363,
      "Ġwebsite": 4364,
      "Ġlose": 4365,
      "Ġ/*": 4366,
      "Ġshut": 4367,
      "(),": 4368,
      "Ċ@": 4369,
      "ros": 4370,
      "An": 4371,
      "EX": 4372,
      "Ġthrow": 4373,
      "Ċthat": 4374,
      "Ġderiv": 4375,
      "ĠIntern": 4376,
      "Ġunless": 4377,
      "ive.": 4378,
      "Ġdriver": 4379,
      "Al": 4380,
      "0)": 4381,
      "Ġevents": 4382,
      "pre": 4383,
      "ails": 4384,
      "}}": 4385,
      "Ġgreen": 4386,
      "Ġaverage": 4387,
      "ĠChar": 4388,
      "Ġdog": 4389,
      "Ġesc": 4390,
      "Ġtend": 4391,
      "All": 4392,
      "Ġurl": 4393,
      "_st": 4394,
      "Ġfig": 4395,
      "ald": 4396,
      "Ġahead": 4397,
      "Ġcast": 4398,
      "rief": 4399,
      "lete": 4400,
      "Ġtree": 4401,
      "Ġadding": 4402,
      "Ġcamer": 4403,
      "\").": 4404,
      "[]": 4405,
      "Ġtrain": 4406,
      "With": 4407,
      "Comp": 4408,
      "Ġrelig": 4409,
      "Ġmeasure": 4410,
      "Ġforeign": 4411,
      "rible": 4412,
      "Ġ4*": 4413,
      "Ġtreatment": 4414,
      "abled": 4415,
      "ĊThanks,": 4416,
      "Ġcarry": 4417,
      "());": 4418,
      "Ġadditional": 4419,
      "Ġfollowed": 4420,
      "inst": 4421,
      "Ġ\"But": 4422,
      "ropri": 4423,
      "ighb": 4424,
      "Ġcontribut": 4425,
      "Ġge": 4426,
      "xy": 4427,
      "lear": 4428,
      "ĠSci": 4429,
      "Ġmur": 4430,
      "le,": 4431,
      "CE": 4432,
      "ĠheâĢĻs": 4433,
      "iny": 4434,
      "Ġgrand": 4435,
      "Ġ3,": 4436,
      "Ġchoice": 4437,
      "Ġday.": 4438,
      "Ġsaf": 4439,
      "_1": 4440,
      "Ġyear.": 4441,
      "Ġcomments": 4442,
      "uel": 4443,
      "o-": 4444,
      "Ġcommit": 4445,
      "Ġcapt": 4446,
      "reet": 4447,
      "Par": 4448,
      "That": 4449,
      "ĠSm": 4450,
      "Ġhurt": 4451,
      "ĠThanks": 4452,
      "BC": 4453,
      "Ġcas": 4454,
      "itional": 4455,
      "ic.": 4456,
      "width": 4457,
      "________": 4458,
      "Ġwhose": 4459,
      "ĠSam": 4460,
      "lean": 4461,
      "connect": 4462,
      "Ġran": 4463,
      "Act": 4464,
      "aign": 4465,
      "Ġtight": 4466,
      "hib": 4467,
      "SD": 4468,
      "ustr": 4469,
      "Ġme.\"": 4470,
      "het": 4471,
      "ar.": 4472,
      "idge": 4473,
      "Ġspot": 4474,
      "aries": 4475,
      "$,": 4476,
      "Ġdemon": 4477,
      "Ġband": 4478,
      "Ġmostly": 4479,
      "hel": 4480,
      "ĊĠĠĠĠĠĠĠĠĠĠĠĠĠ": 4481,
      "ĠGerm": 4482,
      "obile": 4483,
      "Ġactivity": 4484,
      "Ġanim": 4485,
      "Ġintern": 4486,
      "ĠEn": 4487,
      "Ġthanks": 4488,
      "Ġeasier": 4489,
      "Ġevidence": 4490,
      "Ġamazing": 4491,
      "Ġvisit": 4492,
      "ĠAg": 4493,
      "us.": 4494,
      "ales": 4495,
      "UN": 4496,
      "97": 4497,
      "ay,": 4498,
      "Ġ(d": 4499,
      "Ġpen": 4500,
      "Ġtruth": 4501,
      "gen": 4502,
      "Ġmachine": 4503,
      "Ġhttp://www.": 4504,
      "itory": 4505,
      "čĊĠĠĠĠĠĠĠ": 4506,
      "agon": 4507,
      "Ġter": 4508,
      "Ġhighly": 4509,
      "cy": 4510,
      "Ġslightly": 4511,
      "Ġmus": 4512,
      "Or": 4513,
      "ĠAf": 4514,
      "Ġfinished": 4515,
      "Ġnatural": 4516,
      "Ġperhaps": 4517,
      "Ġ1)": 4518,
      "Ġphysical": 4519,
      "Ġmeeting": 4520,
      "umm": 4521,
      "PL": 4522,
      ":0": 4523,
      "Ġnone": 4524,
      "ipp": 4525,
      "ĠOpen": 4526,
      "State": 4527,
      "Ġburn": 4528,
      "ĠGener": 4529,
      "Ġitems": 4530,
      "**(": 4531,
      "Ġenjoyed": 4532,
      "ened": 4533,
      "Ġinflu": 4534,
      "Ġworse": 4535,
      "Ġtag": 4536,
      "Ġ]": 4537,
      "Ġ__": 4538,
      "68": 4539,
      "Ġweird": 4540,
      "Ġquiet": 4541,
      "Ġsad": 4542,
      "Ġcells": 4543,
      "ĠReg": 4544,
      "47": 4545,
      "Ġ(M": 4546,
      "is.": 4547,
      "Ġpurpose": 4548,
      "Ġcomputer": 4549,
      "ooth": 4550,
      "ino": 4551,
      "-based": 4552,
      "Ġ\"J": 4553,
      "Ġweak": 4554,
      "Ġ:=": 4555,
      "Ġhero": 4556,
      "Ġreach": 4557,
      "result": 4558,
      "ĠKe": 4559,
      "Ġens": 4560,
      "ĠGoogle": 4561,
      "Ġhus": 4562,
      "Ġ\"R": 4563,
      "ĊTh": 4564,
      "idden": 4565,
      "respond": 4566,
      "ĠAPI": 4567,
      "Ġgold": 4568,
      "Ġwrote": 4569,
      "ij": 4570,
      "Ġpassed": 4571,
      "istr": 4572,
      "Ġflow": 4573,
      "Ġolder": 4574,
      "Ġ);": 4575,
      "Ġseparate": 4576,
      "Ġfactors": 4577,
      "Ġlatest": 4578,
      "upport": 4579,
      "Ġskin": 4580,
      "place": 4581,
      "entially": 4582,
      "Ġconcept": 4583,
      "Ġpush": 4584,
      "ĠSw": 4585,
      "ares": 4586,
      "ĠJack": 4587,
      "s\"": 4588,
      "Lay": 4589,
      "at,": 4590,
      "icated": 4591,
      "lication": 4592,
      "_N": 4593,
      "Ġmount": 4594,
      "\\\\": 4595,
      "Ġbrain": 4596,
      "Ġ\"E": 4597,
      "Def": 4598,
      "Ġmentioned": 4599,
      "Ġdo.": 4600,
      "Ġputting": 4601,
      "Ġ<<": 4602,
      "ĠNet": 4603,
      "df": 4604,
      "Ġhar": 4605,
      "vis": 4606,
      "ĠLicense": 4607,
      "Ġmicro": 4608,
      "Sc": 4609,
      "Ġlives": 4610,
      "Ġteacher": 4611,
      "arely": 4612,
      "ĠDes": 4613,
      "ĊSuppose": 4614,
      "Ġyears,": 4615,
      "CL": 4616,
      "Ċ#define": 4617,
      "ĠTV": 4618,
      "Ġconstruct": 4619,
      "Ġforget": 4620,
      "Ġaltern": 4621,
      "').": 4622,
      "ĠGl": 4623,
      "Ċn": 4624,
      "ĠRepublic": 4625,
      "Ġ-3": 4626,
      "Ġsolid": 4627,
      "ection": 4628,
      "Ġcraz": 4629,
      "Ġimmediately": 4630,
      "Ġweap": 4631,
      "Ġscore": 4632,
      "Ġten": 4633,
      "ĠSim": 4634,
      "Ġfully": 4635,
      "Ġcreating": 4636,
      "Ġer": 4637,
      "Ġtelling": 4638,
      "Ġ-1": 4639,
      "ĠSuppose": 4640,
      "run": 4641,
      "ancial": 4642,
      "Ġ60": 4643,
      "bol": 4644,
      "Ġcalling": 4645,
      "ously": 4646,
      "ĠState": 4647,
      "Ġtour": 4648,
      "Ġassociated": 4649,
      "ani": 4650,
      "Ġcheap": 4651,
      "Ġcourse,": 4652,
      "emplate": 4653,
      "a's": 4654,
      "valid": 4655,
      "atically": 4656,
      ".html": 4657,
      "aled": 4658,
      "Ġmethods": 4659,
      "object": 4660,
      "ĠCH": 4661,
      "idget": 4662,
      "Ġsitting": 4663,
      "Ġback.": 4664,
      "Field": 4665,
      "Ċe": 4666,
      "uh": 4667,
      "ĠIP": 4668,
      "amm": 4669,
      "k,": 4670,
      "ĠPR": 4671,
      "Ġinvolved": 4672,
      "Ġbag": 4673,
      "ĠMe": 4674,
      "Ġallows": 4675,
      "roy": 4676,
      "option": 4677,
      "aching": 4678,
      "Ġplatform": 4679,
      "Ġstarts": 4680,
      "Ċwith": 4681,
      "Ġleaving": 4682,
      "ĊReg": 4683,
      "IF": 4684,
      "omb": 4685,
      "Ġmeaning": 4686,
      "button": 4687,
      "Ġcontains": 4688,
      "Ġtemper": 4689,
      "struct": 4690,
      "Ġended": 4691,
      "Ġunique": 4692,
      "ĠWH": 4693,
      "ous.": 4694,
      "Ġstupid": 4695,
      "ux": 4696,
      "ĠFirst": 4697,
      "Ġwe'll": 4698,
      "Ġindustry": 4699,
      "ius": 4700,
      "apping": 4701,
      "Ġdaughter": 4702,
      "Ġ(which": 4703,
      "poss": 4704,
      "Ġlaug": 4705,
      "Ġinstance": 4706,
      "Ġchest": 4707,
      "Ġbiggest": 4708,
      "UL": 4709,
      "lied": 4710,
      "Ġstreng": 4711,
      "Ġfinding": 4712,
      "Ġreb": 4713,
      "Ġbrows": 4714,
      "ĠSystem.": 4715,
      "Ġdetails": 4716,
      "Ġloop": 4717,
      "Ġeffic": 4718,
      "Ġprec": 4719,
      "Ġthis?": 4720,
      "Ġoil": 4721,
      "Ġdamage": 4722,
      "lin": 4723,
      "UM": 4724,
      "sec": 4725,
      "ĊAn": 4726,
      "âĢĺ": 4727,
      "Ġdynam": 4728,
      "indow": 4729,
      "Ġcalcul": 4730,
      "Ġstopped": 4731,
      "ibr": 4732,
      "hest": 4733,
      "ĠPresident": 4734,
      "iving": 4735,
      "ued": 4736,
      "Ġwife": 4737,
      "ship": 4738,
      "Ġal.,": 4739,
      "irtual": 4740,
      "Ġwe've": 4741,
      "ar,": 4742,
      "ĠPart": 4743,
      "_name": 4744,
      "Ġcounter": 4745,
      "Ġnegative": 4746,
      "Ġkick": 4747,
      "Ġ(m": 4748,
      "Ġ(p": 4749,
      "ROM": 4750,
      "Ġpractice": 4751,
      "0x": 4752,
      "Ġtrouble": 4753,
      "Ġclearly": 4754,
      "Ġtick": 4755,
      "ĠFrom": 4756,
      "ĊTr": 4757,
      "Ġconso": 4758,
      "iling": 4759,
      "ube": 4760,
      "Ġstates": 4761,
      "ichael": 4762,
      "Ġ\"Oh,": 4763,
      "ky": 4764,
      "Ġshall": 4765,
      "Ġ-4": 4766,
      "Ġevalu": 4767,
      "asons": 4768,
      "Ġbehavior": 4769,
      "){": 4770,
      "Ġï": 4771,
      "Ġdoubt": 4772,
      "ment,": 4773,
      "Ġwork,": 4774,
      "Ġgroups": 4775,
      "Ġdirectory": 4776,
      "96": 4777,
      "Ġquarter": 4778,
      "aud": 4779,
      "Ġimages": 4780,
      "Ġsecret": 4781,
      "array": 4782,
      "Ġbuff": 4783,
      "ĠGood": 4784,
      "ĠDr": 4785,
      "RL": 4786,
      "Ġprime": 4787,
      "db": 4788,
      "ushing": 4789,
      "Ġprote": 4790,
      "ĠMark": 4791,
      "Ġtraining": 4792,
      "Ġdivided": 4793,
      "rec": 4794,
      "Ġthough,": 4795,
      "ĠAM": 4796,
      "Ġinj": 4797,
      "Ġstatus": 4798,
      "Ġneighb": 4799,
      "yond": 4800,
      "Ġservices": 4801,
      ".f": 4802,
      "omething": 4803,
      "istry": 4804,
      "Ġmore.": 4805,
      "see": 4806,
      "Request": 4807,
      "Ġaf": 4808,
      "Ġled": 4809,
      "ĠON": 4810,
      "Ġfilm": 4811,
      "Ġyear,": 4812,
      "Ġ-0.": 4813,
      "Ġtom": 4814,
      "query": 4815,
      "ĠPlease": 4816,
      "So": 4817,
      "Ġcalls": 4818,
      "ĠWorld": 4819,
      "Ċ$$": 4820,
      "Ġcollege": 4821,
      "ĠAust": 4822,
      "Ġday,": 4823,
      "Ġexception": 4824,
      "Ġanyth": 4825,
      "ĠRuss": 4826,
      "Ġ5*": 4827,
      "day,": 4828,
      "'.": 4829,
      "cel": 4830,
      "Ġappears": 4831,
      "Ġsatisf": 4832,
      "Ġpaid": 4833,
      "-M": 4834,
      "Ġelements": 4835,
      "Ġexisting": 4836,
      "Ġholding": 4837,
      "ĊOn": 4838,
      "Ġnational": 4839,
      "version": 4840,
      "Ġnode": 4841,
      "Ġearlier": 4842,
      "\\s": 4843,
      "Ġnature": 4844,
      "Ġ-5": 4845,
      "pack": 4846,
      "_L": 4847,
      "ĠAre": 4848,
      "iven": 4849,
      "Ġopened": 4850,
      "Ġwilling": 4851,
      "Ġcore": 4852,
      "A.": 4853,
      "Ġhusband": 4854,
      "Ġbroad": 4855,
      "Ġwondering": 4856,
      "init": 4857,
      "ess.": 4858,
      "Ġpopular": 4859,
      "Ġfilter": 4860,
      "Ġ(F": 4861,
      "Ġcompanies": 4862,
      "ass.": 4863,
      "Ġspir": 4864,
      "ive,": 4865,
      "ĠComm": 4866,
      "Ġlad": 4867,
      "inner": 4868,
      "(b": 4869,
      "Ġdescribed": 4870,
      "pg": 4871,
      "king": 4872,
      "ĠMon": 4873,
      "Ġbaby": 4874,
      "Ġrat": 4875,
      "Ġrom": 4876,
      "Ġcontract": 4877,
      "ĠJan": 4878,
      "PS": 4879,
      "Ġit?": 4880,
      "../../": 4881,
      "-C": 4882,
      "icrosoft": 4883,
      "ĠĠĠĠĠĠĠĠĠĠĠĠĠ": 4884,
      "/3": 4885,
      "current": 4886,
      "Ġwarm": 4887,
      "Ġclosed": 4888,
      "Ġbirth": 4889,
      "atur": 4890,
      "Over": 4891,
      "Ġ</div>": 4892,
      "ĠBrit": 4893,
      "ĠAng": 4894,
      "Ġmaster": 4895,
      "mark": 4896,
      "Ġfixed": 4897,
      "Ġneck": 4898,
      "Be": 4899,
      "Ġplaces": 4900,
      "/g": 4901,
      "Ġsomewhere": 4902,
      "Ġinstalled": 4903,
      "Ċif": 4904,
      "ĠLike": 4905,
      "ership": 4906,
      "Ġtransform": 4907,
      "rit": 4908,
      "hile": 4909,
      "Ġexperien": 4910,
      "Ġtotally": 4911,
      "gor": 4912,
      "Ġbroken": 4913,
      "Ġproblem.": 4914,
      "Ġ\"This": 4915,
      "ĠSouth": 4916,
      "Ġcampaign": 4917,
      "Ġmanagement": 4918,
      "Ġadvice": 4919,
      "Ġsolut": 4920,
      "Ġsetup": 4921,
      "/l": 4922,
      "k.": 4923,
      "Ġapply": 4924,
      "Ġeight": 4925,
      "Ġexperiment": 4926,
      "No": 4927,
      "ĠMore": 4928,
      "Ġstudies": 4929,
      "Ġkilled": 4930,
      "Ċ3": 4931,
      "Ġunderstanding": 4932,
      "Ġimpress": 4933,
      "Ġ~": 4934,
      ".C": 4935,
      "ĠAN": 4936,
      "Ġcenter": 4937,
      "85": 4938,
      "Ġ\"[": 4939,
      "Ġbeyond": 4940,
      "Ġspread": 4941,
      "Ġexam": 4942,
      "Ġobviously": 4943,
      "-n": 4944,
      "De": 4945,
      "Ġshowing": 4946,
      "Ġsec": 4947,
      "Ġ(f": 4948,
      "\"></": 4949,
      "Ġbreath": 4950,
      "pendent": 4951,
      "mail": 4952,
      "Ġfinish": 4953,
      "ĠHarry": 4954,
      "arest": 4955,
      "Ġderivative": 4956,
      "ĠComp": 4957,
      "/f": 4958,
      "RI": 4959,
      "urrent": 4960,
      "XX": 4961,
      "Ġsample": 4962,
      "Ġcase,": 4963,
      "Index": 4964,
      "ĊĠĠĠĠĠĠĠĠĠĠĠĠĠĠĠĠĠĠĠĠĠĠĠĠĠĠĠ": 4965,
      "Size": 4966,
      "Ġcaught": 4967,
      "ĠNorth": 4968,
      "appoint": 4969,
      "If": 4970,
      "sych": 4971,
      "ĠNULL": 4972,
      "edia": 4973,
      "Ġbeat": 4974,
      "iot": 4975,
      "t,": 4976,
      "Ġsister": 4977,
      "Ġmodule": 4978,
      "ĠMac": 4979,
      "Ġrefer": 4980,
      "(this": 4981,
      "Ġone,": 4982,
      "Ðº": 4983,
      "Button": 4984,
      "ades": 4985,
      "ĠSince": 4986,
      "Model": 4987,
      "pir": 4988,
      "iber": 4989,
      "Read": 4990,
      "ithub": 4991,
      "Ad": 4992,
      "Hand": 4993,
      "ops": 4994,
      "Ġsweet": 4995,
      "Date": 4996,
      "Ġsem": 4997,
      "Ph": 4998,
      "ĊĊĠĊ": 4999,
      "Ġenter": 5000,
      "rench": 5001,
      "Ġmer": 5002,
      "isplay": 5003,
      "Ġclot": 5004,
      "Ġunit": 5005,
      "Ġglad": 5006,
      "Ċ-1": 5007,
      "Ġheavy": 5008,
      "Ġfed": 5009,
      "create": 5010,
      "Ġlots": 5011,
      "Ġthroughout": 5012,
      "Ġlevels": 5013,
      "Ġrealize": 5014,
      "Ġinn": 5015,
      "gy": 5016,
      "hent": 5017,
      "Ġruns": 5018,
      "](https://": 5019,
      "itute": 5020,
      "Ġpark": 5021,
      "_B": 5022,
      "esome": 5023,
      "ĠData": 5024,
      "aa": 5025,
      ")/(": 5026,
      "Ġaim": 5027,
      "Ġedit": 5028,
      "s...": 5029,
      "ĠJava": 5030,
      ")\"": 5031,
      "ĠNote": 5032,
      "Ġadvant": 5033,
      "Ġfunctions": 5034,
      "User": 5035,
      "Ġdown.": 5036,
      "Ġreturns": 5037,
      "link": 5038,
      "Ġeventually": 5039,
      "ersion": 5040,
      "apan": 5041,
      "Ċis": 5042,
      "ese": 5043,
      "Ġcomponent": 5044,
      "round": 5045,
      "ned": 5046,
      "Ġis.": 5047,
      "aches": 5048,
      "Ġthough.": 5049,
      "OV": 5050,
      "Ġwalked": 5051,
      "\",\"": 5052,
      "Ġsmaller": 5053,
      "Ġoppos": 5054,
      "/t": 5055,
      "Ġachieve": 5056,
      "Ġturns": 5057,
      "Ġtruly": 5058,
      "ĠCount": 5059,
      "sg": 5060,
      "Ġhol": 5061,
      "ain,": 5062,
      "ports": 5063,
      "Ġfant": 5064,
      "Ġsubst": 5065,
      "Box": 5066,
      "itc": 5067,
      "())": 5068,
      "Ġwrit": 5069,
      "SON": 5070,
      "/5": 5071,
      "Ġdu": 5072,
      "Ġrac": 5073,
      "igr": 5074,
      "ĠthatâĢĻs": 5075,
      "ifi": 5076,
      "ards,": 5077,
      "Ġextremely": 5078,
      "Ġrules": 5079,
      "Ġelection": 5080,
      "Ġempty": 5081,
      "Ġdim": 5082,
      "ĠMost": 5083,
      "Ġfeet": 5084,
      "Ġconvert": 5085,
      "d.": 5086,
      "oto": 5087,
      "this->": 5088,
      "mitted": 5089,
      "-S": 5090,
      "bre": 5091,
      "Ġdress": 5092,
      "Ġreached": 5093,
      "Ġsrc": 5094,
      "Ġcompar": 5095,
      "Ġoverall": 5096,
      "Ġinterface": 5097,
      "Ġso,": 5098,
      "image": 5099,
      "ĠAp": 5100,
      "Ġtesting": 5101,
      "Ġletter": 5102,
      "ence,": 5103,
      "Ġreceive": 5104,
      "aven": 5105,
      "iliar": 5106,
      "Ġhelped": 5107,
      "Ġactive": 5108,
      "================": 5109,
      "Ġmedical": 5110,
      "wo": 5111,
      "Ċfrom": 5112,
      "ĊThat": 5113,
      "under": 5114,
      "orge": 5115,
      "ees": 5116,
      "Ġand,": 5117,
      "Ġvir": 5118,
      "Ġlocation": 5119,
      "ĊAfter": 5120,
      "Ġadult": 5121,
      "apped": 5122,
      "\"><": 5123,
      "ĉ//": 5124,
      "Ġwear": 5125,
      "Ġchannel": 5126,
      "istration": 5127,
      "}$": 5128,
      "untu": 5129,
      "Ġfear": 5130,
      "Ġto.": 5131,
      "icles": 5132,
      "ous,": 5133,
      "Ġecho": 5134,
      "ALL": 5135,
      "Ñĥ": 5136,
      "Ġthus": 5137,
      "actory": 5138,
      "ĠSE": 5139,
      "ordin": 5140,
      "Ġsmart": 5141,
      "Ġassume": 5142,
      "gorith": 5143,
      "Ġdespite": 5144,
      "Ġincludes": 5145,
      "Ġhospital": 5146,
      "Ġ80": 5147,
      "1:": 5148,
      "Ġgame.": 5149,
      "Pr": 5150,
      "da": 5151,
      "Ċ4": 5152,
      "ays": 5153,
      "ĠHouse": 5154,
      "Ġdemand": 5155,
      "Ġarms": 5156,
      "Ġassist": 5157,
      "ivil": 5158,
      "Ġsuck": 5159,
      "Ċ'": 5160,
      "Ġnot.": 5161,
      "Ġfailed": 5162,
      "Ġproducts": 5163,
      "Ġparticularly": 5164,
      "DE": 5165,
      "Ġpleas": 5166,
      "ĠWhich": 5167,
      "ise.": 5168,
      "ĠSet": 5169,
      "âĢĻm": 5170,
      "Ġ(N": 5171,
      "Ġgenerally": 5172,
      "ĠKing": 5173,
      "itude": 5174,
      "Ġtherefore": 5175,
      "Ġcandid": 5176,
      "Ġreact": 5177,
      "UE": 5178,
      "Ġdanger": 5179,
      "Ġreplacement": 5180,
      "s_": 5181,
      "Ġaccur": 5182,
      "ĊEx": 5183,
      "ditions": 5184,
      "Ġappropri": 5185,
      "Element": 5186,
      "Ġenem": 5187,
      "ham": 5188,
      "Ġinterview": 5189,
      "Ġyell": 5190,
      "Config": 5191,
      "Ġ\"No": 5192,
      "known": 5193,
      "Ġ\"Well,": 5194,
      "ĠPat": 5195,
      "Is": 5196,
      "x,": 5197,
      "Map": 5198,
      "i)": 5199,
      "Ġsett": 5200,
      "Ġprop": 5201,
      "Ġnamed": 5202,
      "Ġmanaged": 5203,
      "Ġ||": 5204,
      "Ċ5": 5205,
      "Ġconditions": 5206,
      "Ġ22": 5207,
      ".set": 5208,
      "ĊWith": 5209,
      "Ġprimary": 5210,
      "Ġchalleng": 5211,
      "cons": 5212,
      "osh": 5213,
      "web": 5214,
      "Ġquant": 5215,
      "ĠMr": 5216,
      "i/": 5217,
      "Ġopinion": 5218,
      "Ġdistr": 5219,
      "ĠTom": 5220,
      "Ġremind": 5221,
      "Ġdrug": 5222,
      "ence.": 5223,
      "Ġble": 5224,
      "mod": 5225,
      "Log": 5226,
      "length": 5227,
      "ĠCo": 5228,
      "Ġorigin": 5229,
      "rie": 5230,
      "Ġmilitary": 5231,
      "Ġrights": 5232,
      "Ġwee": 5233,
      "ĠOS": 5234,
      "ipped": 5235,
      "Ġsystems": 5236,
      "HP": 5237,
      "There": 5238,
      "Ġ\"f": 5239,
      "appe": 5240,
      "ulate": 5241,
      "height": 5242,
      "Ġpages": 5243,
      "Ġdad": 5244,
      "Ġapparent": 5245,
      "Query": 5246,
      "Ġreleased": 5247,
      "gu": 5248,
      "Ġnor": 5249,
      "Ġattend": 5250,
      "ica": 5251,
      "Ġtheory": 5252,
      "ech": 5253,
      "onents": 5254,
      "94": 5255,
      "Ġpublished": 5256,
      "-6": 5257,
      "LECT": 5258,
      "ĠDoes": 5259,
      "ĠĊĠĠĠ": 5260,
      "cellent": 5261,
      "ded": 5262,
      "ĠOther": 5263,
      "-re": 5264,
      "ounds": 5265,
      "Ġbook,": 5266,
      "Ġadjust": 5267,
      "mas": 5268,
      "Ġclin": 5269,
      "lling": 5270,
      "Le": 5271,
      "Ġfa": 5272,
      "rt": 5273,
      "Ġconduct": 5274,
      "Ġship": 5275,
      "ÂłÂł": 5276,
      "Ġrule": 5277,
      "Ġbrand": 5278,
      "Ġdisappoint": 5279,
      "avig": 5280,
      "Ġdescription": 5281,
      "Ġappreciate": 5282,
      "Ġfirm": 5283,
      "ĠSo,": 5284,
      "Ġplant": 5285,
      "Ġopportunity": 5286,
      "ounce": 5287,
      "Ġseven": 5288,
      "orage": 5289,
      "Ġremov": 5290,
      "Ċclass": 5291,
      "Ġsumm": 5292,
      "ening": 5293,
      "Ġchair": 5294,
      "Ġrub": 5295,
      "omin": 5296,
      "Ġletters": 5297,
      "Ġpoly": 5298,
      "ĠCD": 5299,
      "ANT": 5300,
      "inct": 5301,
      "asy": 5302,
      "Ġslowly": 5303,
      "Ġstood": 5304,
      "example": 5305,
      "ĠcouldnâĢĻt": 5306,
      "Ġexpos": 5307,
      "Ġkeeping": 5308,
      "}\\": 5309,
      "ERE": 5310,
      "Ġplus": 5311,
      "Ġbecomes": 5312,
      "Ġin,": 5313,
      "Ġlearned": 5314,
      "Ġ6.": 5315,
      "Ġincreased": 5316,
      "ĠIT": 5317,
      "Ġaway.": 5318,
      "Ġvote": 5319,
      "il.": 5320,
      "ecute": 5321,
      "Ġmad": 5322,
      "urb": 5323,
      "ĠSer": 5324,
      "ĠWest": 5325,
      "ocket": 5326,
      "ios": 5327,
      "Ġfinancial": 5328,
      "////////": 5329,
      "Ġhelps": 5330,
      "Ġsay,": 5331,
      "ifying": 5332,
      "x.": 5333,
      "Ġlip": 5334,
      "Ġpolicy": 5335,
      "Ġclasses": 5336,
      "Ġfat": 5337,
      "Ġwild": 5338,
      "Ġequal": 5339,
      "ated,": 5340,
      "Ġapart": 5341,
      "aybe": 5342,
      "conf": 5343,
      "PU": 5344,
      "ations,": 5345,
      "Ġpredict": 5346,
      "Ġintend": 5347,
      "Ġshared": 5348,
      "izes": 5349,
      "Ġfol": 5350,
      "KE": 5351,
      "Ġpeople.": 5352,
      "Ġbul": 5353,
      "Ġstd::": 5354,
      "start": 5355,
      "Ġconstant": 5356,
      "Ġtrig": 5357,
      "ĠEar": 5358,
      "ĊĊĠĠ": 5359,
      "ĊCal": 5360,
      "ĠDon": 5361,
      "Ġ21": 5362,
      "Ġnearest": 5363,
      "Table": 5364,
      "Ġglass": 5365,
      "Ġincreasing": 5366,
      "flow": 5367,
      "Ċ1.": 5368,
      "Ġcaused": 5369,
      "ĠNational": 5370,
      "Ġvalu": 5371,
      "Ġknowing": 5372,
      "ĠGo": 5373,
      "Ġpressure": 5374,
      "ite.": 5375,
      "Ġodd": 5376,
      "Image": 5377,
      "ĠFriday": 5378,
      "-old": 5379,
      "ĠDemocr": 5380,
      "Ġcoff": 5381,
      ".,": 5382,
      "android": 5383,
      "Ġeffects": 5384,
      "apache": 5385,
      "raid": 5386,
      "ĠSee": 5387,
      "isp": 5388,
      "ĠBecause": 5389,
      "Ġdel": 5390,
      "ender": 5391,
      "Ġincred": 5392,
      "Ġrestr": 5393,
      "Ġcharge": 5394,
      "Layout": 5395,
      "Ġscience": 5396,
      "Ġ((": 5397,
      "Ġ\"(": 5398,
      "Ġfresh": 5399,
      "possible": 5400,
      "ĠOur": 5401,
      "Ġstaff": 5402,
      "oken": 5403,
      "Ġlarger": 5404,
      "87": 5405,
      "Ġ23": 5406,
      "Ġmodern": 5407,
      "anged": 5408,
      "IB": 5409,
      "Ġreturned": 5410,
      "bly": 5411,
      "adem": 5412,
      "pm": 5413,
      "Ġanaly": 5414,
      "stream": 5415,
      "Ġcho": 5416,
      "Ġjava.": 5417,
      "(self": 5418,
      "ĠDE": 5419,
      "Ġdemonstr": 5420,
      "cd": 5421,
      "hern": 5422,
      "Ġreplace": 5423,
      "Ġresist": 5424,
      "Ġrank": 5425,
      "Ġaspect": 5426,
      "urg": 5427,
      "ĠAmerica": 5428,
      "Ġstack": 5429,
      "Ġ(B": 5430,
      "etch": 5431,
      "s;": 5432,
      "Ġchanging": 5433,
      "Ġback,": 5434,
      "uary": 5435,
      "Ġprovides": 5436,
      "Ġstress": 5437,
      "Ġweekend": 5438,
      "Ġsolve": 5439,
      "Ġsurface": 5440,
      "MS": 5441,
      "Ġinteract": 5442,
      "oz": 5443,
      "ancy": 5444,
      "Ġeconomic": 5445,
      "ĠLinux": 5446,
      "ĠOct": 5447,
      "ĠFin": 5448,
      "Ġblog": 5449,
      "Ġleading": 5450,
      "Ġstrength": 5451,
      "hold": 5452,
      "Ġlimited": 5453,
      "/*": 5454,
      "imately": 5455,
      "Ġliterally": 5456,
      "Ġareas": 5457,
      "bum": 5458,
      "ĠStud": 5459,
      "Ġdaily": 5460,
      "acter": 5461,
      "ĊĊĠĠĠĠĠĠĠĠĠĠĠĠĠĠĠĠ": 5462,
      "Ġult": 5463,
      "Ġlaugh": 5464,
      "Out": 5465,
      "ograp": 5466,
      "Ġotherwise": 5467,
      "arp": 5468,
      "Ġcorrespond": 5469,
      "Ġdeveloped": 5470,
      "Ġmargin": 5471,
      "Ġ0)": 5472,
      "co": 5473,
      "Ġfaster": 5474,
      "elebr": 5475,
      "Ġ\"That's": 5476,
      "vi": 5477,
      "Ġpal": 5478,
      "Ġsession": 5479,
      "Ġtrade": 5480,
      "Ġattract": 5481,
      "Ġ0.0": 5482,
      "Ġstuck": 5483,
      "Ġtele": 5484,
      "........": 5485,
      "Ġwood": 5486,
      "ĠBlack": 5487,
      "Ġgrowing": 5488,
      "Ġfont": 5489,
      "position": 5490,
      "=1": 5491,
      "Ġstrange": 5492,
      "Ġrot": 5493,
      "ĠEdit": 5494,
      "ĠĠĠĠĠĠĠĠĠĠĠĠĠĠĠĠĠĠĠĠĠĠĠĠĠĠĠĠĠĠĠĠĠĠĠĠĠĠĠĠĠĠĠĠĠĠĠĠ": 5495,
      "Stream": 5496,
      "ĠAc": 5497,
      "Ġchem": 5498,
      "Ġhoping": 5499,
      "Ġemerg": 5500,
      "({": 5501,
      "Ġ(n": 5502,
      "Ġhighest": 5503,
      "Ġcit": 5504,
      "Ġencour": 5505,
      "Ġrob": 5506,
      "Ġimagine": 5507,
      "uke": 5508,
      "ĊChe": 5509,
      "Ġemb": 5510,
      "Ġmine": 5511,
      "SP": 5512,
      "Ġloud": 5513,
      "Ġ7.": 5514,
      "anned": 5515,
      "Ġintr": 5516,
      "ĠCr": 5517,
      "Ġnot,": 5518,
      "ns": 5519,
      "lient": 5520,
      "label": 5521,
      ".g": 5522,
      "Ġcapital": 5523,
      "Ġgirls": 5524,
      "Ġhand,": 5525,
      "Ġ4,": 5526,
      "Ġgreater": 5527,
      "Ġrequires": 5528,
      "Ġwonderful": 5529,
      "/4": 5530,
      "Up": 5531,
      "Ġproperties": 5532,
      "ĠHigh": 5533,
      "Des": 5534,
      "ascript": 5535,
      "Ġbatter": 5536,
      "Ġrefere": 5537,
      "Ġwatched": 5538,
      "Ġinfo": 5539,
      "ĠFile": 5540,
      "Ġi.": 5541,
      "Ġshouldn't": 5542,
      "ĠChina": 5543,
      "Ġ\"d": 5544,
      "Ġcountries": 5545,
      "Ġbright": 5546,
      "anna": 5547,
      "/0": 5548,
      "tml": 5549,
      "Ġscr": 5550,
      "Ġspect": 5551,
      "Ġnil": 5552,
      "Ġbes": 5553,
      "Ġshock": 5554,
      "Ġsick": 5555,
      "Ġcourt": 5556,
      "ĠStates": 5557,
      "yr": 5558,
      "DIT": 5559,
      "Ġdisease": 5560,
      "Ġfingers": 5561,
      "Ġdied": 5562,
      "Ġoff.": 5563,
      "pected": 5564,
      "js": 5565,
      "Ġstory.": 5566,
      "Ġannoy": 5567,
      "(x)": 5568,
      "Pl": 5569,
      "Ġplaced": 5570,
      "usion": 5571,
      "Ġworld.": 5572,
      "ĠDavid": 5573,
      "Ċ0": 5574,
      "ĠOh": 5575,
      "ĠYOU": 5576,
      "Ġadvance": 5577,
      "Ġpossibly": 5578,
      "Ġthoughts": 5579,
      "Ġbunch": 5580,
      "Ġselected": 5581,
      "Ġlegal": 5582,
      "Ġinternet": 5583,
      "Ġ27": 5584,
      "Inst": 5585,
      "bug": 5586,
      "Ñı": 5587,
      "Ġ\"They": 5588,
      "Ġshape": 5589,
      "Ġgood.": 5590,
      "part": 5591,
      "Ġentry": 5592,
      "**4": 5593,
      "Ġ\"How": 5594,
      "oding": 5595,
      "ĠMarch": 5596,
      "ĠDef": 5597,
      "click": 5598,
      "Hello": 5599,
      "level": 5600,
      "product": 5601,
      "Ġtechnology": 5602,
      "Ġcontroll": 5603,
      "alt": 5604,
      "AME": 5605,
      "Ã³": 5606,
      "Ġproces": 5607,
      "Ġgas": 5608,
      "Ġfine.": 5609,
      "S,": 5610,
      "Ġwalking": 5611,
      "Ġ\"c": 5612,
      "Ġfloor": 5613,
      "Color": 5614,
      "ãĤ": 5615,
      "Ċ--": 5616,
      "Ġpun": 5617,
      "vey": 5618,
      "Ġ100%": 5619,
      "rm": 5620,
      "Ġusual": 5621,
      "ĠDon't": 5622,
      "Ġlife,": 5623,
      "ĠPM": 5624,
      "Ġlean": 5625,
      "Ġposted": 5626,
      "ĠGreat": 5627,
      "_2": 5628,
      "Code": 5629,
      "otal": 5630,
      "Ċit": 5631,
      "Ġwra": 5632,
      "Ġtab": 5633,
      "00,": 5634,
      ")?": 5635,
      "Ġreflect": 5636,
      "ĠWeb": 5637,
      "=0": 5638,
      "Ġbud": 5639,
      "Ġdrag": 5640,
      ":5": 5641,
      "Result": 5642,
      "ĠAug": 5643,
      "Ð²": 5644,
      "Ġveh": 5645,
      "Ġsequence": 5646,
      ".java:": 5647,
      "Ġborder": 5648,
      "Ġproced": 5649,
      "ooking": 5650,
      "ĠCON": 5651,
      "ime.": 5652,
      "ĊDepartment": 5653,
      "ions.": 5654,
      "Ġstanding": 5655,
      "unn": 5656,
      "oil": 5657,
      "Ġhistor": 5658,
      "_h": 5659,
      "Ġmenu": 5660,
      "grade": 5661,
      "ĠOver": 5662,
      "term": 5663,
      "uit": 5664,
      "Ġ($": 5665,
      "ĠLog": 5666,
      "Ġacqu": 5667,
      "sub": 5668,
      "Ġimpl": 5669,
      "89": 5670,
      "Ġshift": 5671,
      "Ġright,": 5672,
      "aker": 5673,
      "ĠAfric": 5674,
      ".)": 5675,
      "Ċhttps://": 5676,
      "It's": 5677,
      "encies": 5678,
      "rael": 5679,
      "Ġscient": 5680,
      "Ġtopic": 5681,
      "ormal": 5682,
      "Ġdont": 5683,
      "Ġreasons": 5684,
      "At": 5685,
      "PC": 5686,
      "Ġkernel": 5687,
      "Ġworst": 5688,
      "ccording": 5689,
      "Ġinternal": 5690,
      "Ġinsert": 5691,
      "Ġterr": 5692,
      "write": 5693,
      "Ġface.": 5694,
      "Ġassess": 5695,
      "Ġdecide": 5696,
      "Ġframe": 5697,
      "Ġoccas": 5698,
      "vere": 5699,
      "ounced": 5700,
      "Ġclub": 5701,
      "Ġdefine": 5702,
      "Ġ90": 5703,
      "Ġcompos": 5704,
      "/or": 5705,
      "Ġpassword": 5706,
      "Ġwelcome": 5707,
      "Us": 5708,
      "46": 5709,
      "default": 5710,
      "Ġpopulation": 5711,
      "ĠAR": 5712,
      "while": 5713,
      "ĠCity": 5714,
      "Ġtells": 5715,
      "Ġopening": 5716,
      "Ġe.": 5717,
      "ĠAlex": 5718,
      "Ġestim": 5719,
      "enge": 5720,
      "ĠSub": 5721,
      "ĠĊĊ": 5722,
      "Ġfamiliar": 5723,
      "Ġdiagn": 5724,
      "Ġrealized": 5725,
      "Line": 5726,
      "&nbsp;&nbsp;": 5727,
      "(new": 5728,
      "ario": 5729,
      "Ġ32": 5730,
      "alled": 5731,
      "ĊNow": 5732,
      "ĠIr": 5733,
      "Ġobjects": 5734,
      "Ġbroke": 5735,
      "Ġraised": 5736,
      "IV": 5737,
      "Ġcrazy": 5738,
      "that": 5739,
      "ĠRead": 5740,
      "Ġcredit": 5741,
      "Ġtrick": 5742,
      "s.âĢĿ": 5743,
      "icit": 5744,
      "ĠNS": 5745,
      "Ġgotten": 5746,
      "Ġedge": 5747,
      "Ġpowerful": 5748,
      "-se": 5749,
      "_r": 5750,
      "ĠMond": 5751,
      "rey": 5752,
      "orter": 5753,
      "Ġzero": 5754,
      "one,": 5755,
      "ĠPeople": 5756,
      "nding": 5757,
      "ĠĠĊ": 5758,
      "Ġì": 5759,
      "ĠApr": 5760,
      "Ċ2.": 5761,
      "izz": 5762,
      "Build": 5763,
      "Ċon": 5764,
      "arc": 5765,
      "Ġpeople,": 5766,
      "Ġsynt": 5767,
      "Ġcloser": 5768,
      "5)": 5769,
      "Ġdry": 5770,
      "Ġ\"m": 5771,
      "istics": 5772,
      "ĊCalculate": 5773,
      "GB": 5774,
      "ĠSund": 5775,
      "Ġearth": 5776,
      "Ċthis": 5777,
      "Ġdecre": 5778,
      "coming": 5779,
      "Ġrap": 5780,
      "OO": 5781,
      "eff": 5782,
      "icate": 5783,
      "ART": 5784,
      "Ent": 5785,
      "f.": 5786,
      "py": 5787,
      "Ġmajority": 5788,
      "Ġalgorith": 5789,
      "MA": 5790,
      "Ġbenefit": 5791,
      "Ġdefinition": 5792,
      "han": 5793,
      "Ġstage": 5794,
      "ĠLou": 5795,
      "Ġminute": 5796,
      "ĠIâĢĻve": 5797,
      "ĠRem": 5798,
      "Fl": 5799,
      "Ġflu": 5800,
      "Ġchapter": 5801,
      "orial": 5802,
      "wood": 5803,
      "Ġfact,": 5804,
      "ifier": 5805,
      "atives": 5806,
      "Ġtoward": 5807,
      "Ġ2016": 5808,
      "&amp;": 5809,
      "ulated": 5810,
      "Ġbillion": 5811,
      "Ġdesigned": 5812,
      "aked": 5813,
      "Ġpeace": 5814,
      "Ġdomain": 5815,
      "ĠLond": 5816,
      "Count": 5817,
      "-sh": 5818,
      "Ġyou'd": 5819,
      "out.": 5820,
      "Ġepis": 5821,
      "Ð¼": 5822,
      "Ġsen": 5823,
      "Controller": 5824,
      "Ġconcent": 5825,
      "Ġtoo,": 5826,
      "R.": 5827,
      "ĠMat": 5828,
      "Ġsteps": 5829,
      "Ġrace": 5830,
      "Ġtransfer": 5831,
      "Ġcelebr": 5832,
      "adow": 5833,
      "Ġ28": 5834,
      "ices.": 5835,
      "acebook": 5836,
      "ĠTrans": 5837,
      "Ġsoul": 5838,
      "Ġhyp": 5839,
      "Ġsomehow": 5840,
      "aly": 5841,
      "Ġtemperature": 5842,
      "Ġhappening": 5843,
      "ĊCan": 5844,
      "Ġheat": 5845,
      "ipping": 5846,
      "Ġfollows": 5847,
      "Message": 5848,
      "Ġrough": 5849,
      "Ġthen,": 5850,
      "ĊThey": 5851,
      "friend": 5852,
      "čĊĠĠĠĠĠ": 5853,
      "Ġ5,": 5854,
      "info": 5855,
      "ent,": 5856,
      "ĠTest": 5857,
      "((": 5858,
      "ĠAT": 5859,
      "omen": 5860,
      "ig.": 5861,
      "alle": 5862,
      "rs": 5863,
      "Ġbehavi": 5864,
      "ĠPark": 5865,
      "arrow": 5866,
      "Ġprin": 5867,
      "er's": 5868,
      "49": 5869,
      "](http://": 5870,
      "overy": 5871,
      "acity": 5872,
      "ufact": 5873,
      "Ġpsych": 5874,
      "-A": 5875,
      "Ġgent": 5876,
      "Info": 5877,
      "Ġdistance": 5878,
      ".S": 5879,
      "Ġcup": 5880,
      "ĠSan": 5881,
      "Group": 5882,
      "Ġturning": 5883,
      "rd": 5884,
      "Ġrelevant": 5885,
      "Ġsuddenly": 5886,
      "PD": 5887,
      "31": 5888,
      "Ġgift": 5889,
      "New": 5890,
      "Thank": 5891,
      "ĠĠĠĠĠĠĠĠĠĠĠĠĠĠ": 5892,
      "ummary": 5893,
      "iring": 5894,
      "Ġ(D": 5895,
      "Ġgro": 5896,
      "ĠOut": 5897,
      "Ġmir": 5898,
      "Ġtrip": 5899,
      "Ġminor": 5900,
      "Ġqual": 5901,
      "table": 5902,
      "Ġeffective": 5903,
      "Ġ26": 5904,
      "Ġ\"She": 5905,
      "n,": 5906,
      "ass,": 5907,
      "Ġoptim": 5908,
      "ĊAt": 5909,
      "Ċ/*": 5910,
      "etic": 5911,
      "Ġsuccessful": 5912,
      "Ġbigger": 5913,
      "Ġparameter": 5914,
      "ĠBen": 5915,
      "ĊHowever,": 5916,
      "ages.": 5917,
      "rive": 5918,
      "EE": 5919,
      "Ġbrief": 5920,
      "Ġ10.": 5921,
      "Ġseconds": 5922,
      "Ġ\"You're": 5923,
      "Ġforgot": 5924,
      "ATION": 5925,
      "Ġfold": 5926,
      "Ġfilled": 5927,
      "Trans": 5928,
      "eta": 5929,
      "Ġregarding": 5930,
      "ga": 5931,
      "Ġsuit": 5932,
      "Ġplans": 5933,
      "lam": 5934,
      "``": 5935,
      "night": 5936,
      "Ġlips": 5937,
      "âĪ": 5938,
      "rough": 5939,
      "Ġconnected": 5940,
      "Ġafraid": 5941,
      "Ġdiscussion": 5942,
      "Ġcontinued": 5943,
      "Ġforced": 5944,
      "Ġfairly": 5945,
      ">>": 5946,
      "angle": 5947,
      "Ġandroid:layout": 5948,
      "Ġ(c)": 5949,
      "ĠPol": 5950,
      "_type": 5951,
      ")/": 5952,
      "Ã¡": 5953,
      "estern": 5954,
      "Ġfault": 5955,
      "ĠAD": 5956,
      "Ġplanning": 5957,
      "ĠDean": 5958,
      "ĊPlease": 5959,
      "Ġago,": 5960,
      "Ġresources": 5961,
      "event": 5962,
      "/201": 5963,
      "Link": 5964,
      "fs": 5965,
      "Ġ\"If": 5966,
      "agement": 5967,
      "Ġsurprised": 5968,
      "stract": 5969,
      "Ġanywhere": 5970,
      "ately,": 5971,
      "Ġremote": 5972,
      "(function": 5973,
      "!!!": 5974,
      "Inter": 5975,
      "Select": 5976,
      "Ġvalue=\"": 5977,
      "Ġtal": 5978,
      "Ġ35": 5979,
      "assword": 5980,
      "-year-old": 5981,
      "ĠOnce": 5982,
      "Ġtests": 5983,
      "-9": 5984,
      "Ġawesome": 5985,
      "ÃŃ": 5986,
      "Ġflag": 5987,
      "Ġparameters": 5988,
      "Ġexcited": 5989,
      "ĠSteve": 5990,
      "antic": 5991,
      "ĠCap": 5992,
      "ĊOne": 5993,
      "ĠBro": 5994,
      "Ġfile.": 5995,
      "ĠSchool": 5996,
      "ĠSept": 5997,
      "Ġperformed": 5998,
      "Service": 5999,
      "Ġregion": 6000,
      "(int": 6001,
      "Ġarr": 6002,
      "Att": 6003,
      "Ġ///": 6004,
      "ednes": 6005,
      "Ġinstruction": 6006,
      "Ġcomfortable": 6007,
      "rl": 6008,
      "ores": 6009,
      "irty": 6010,
      "Ġ2017": 6011,
      "oman": 6012,
      "Ġeyes.": 6013,
      "Ġplace.": 6014,
      "Action": 6015,
      "Ġautomatically": 6016,
      "Ġ&amp;": 6017,
      "ĠURL": 6018,
      "terday": 6019,
      "Ġscale": 6020,
      "ĠUp": 6021,
      "ĊâĢľW": 6022,
      "Ã¤": 6023,
      "azon": 6024,
      "Ġ\"So": 6025,
      "ĠThere's": 6026,
      "Ġpet": 6027,
      "Ġconsidering": 6028,
      "]\"": 6029,
      "ula": 6030,
      "Ġ};": 6031,
      "Ġexerc": 6032,
      "Ġexpand": 6033,
      "Ġcrow": 6034,
      "Content": 6035,
      "Ġremoved": 6036,
      "Ġdo,": 6037,
      "Ġ's": 6038,
      "arant": 6039,
      "Ġdetermine": 6040,
      "force": 6041,
      "ĠSQL": 6042,
      "Method": 6043,
      "Ġpriv": 6044,
      "Ġbelong": 6045,
      "Ġensure": 6046,
      "Ġxml": 6047,
      "ĊâĢľYou": 6048,
      "Ġand/or": 6049,
      "Ġdoctor": 6050,
      "e.g.": 6051,
      "Ċbut": 6052,
      "fficient": 6053,
      "Ġsurround": 6054,
      "Ġissu": 6055,
      "AND": 6056,
      "._": 6057,
      "Ġkeeps": 6058,
      "adding": 6059,
      "Ġdocumentation": 6060,
      "Ġ\"b": 6061,
      "Ġgenerate": 6062,
      "Ġdown,": 6063,
      "Ġconfiguration": 6064,
      "ĠJes": 6065,
      "Ġperspect": 6066,
      "itchen": 6067,
      "ĠGeneral": 6068,
      "ITH": 6069,
      "ĠWork": 6070,
      "prot": 6071,
      "ĊAll": 6072,
      "</a>": 6073,
      "Ġsummer": 6074,
      "oper": 6075,
      "bling": 6076,
      "Ġdata.": 6077,
      "Ġsets": 6078,
      "Ġarriv": 6079,
      "ĠFOR": 6080,
      "ĠAustral": 6081,
      "Ġcheek": 6082,
      "ancing": 6083,
      "ora": 6084,
      "ĠMichael": 6085,
      "Ġunf": 6086,
      "ils": 6087,
      "ĠSen": 6088,
      "Property": 6089,
      "ĠPaul": 6090,
      "show": 6091,
      "Ġtomorrow": 6092,
      "ka": 6093,
      "inese": 6094,
      "From": 6095,
      "Ġcru": 6096,
      "00000000": 6097,
      "Ġthick": 6098,
      "Ġhere.\"": 6099,
      "ĠBill": 6100,
      "ress.": 6101,
      "Ġinternational": 6102,
      "Ċhttp://www.": 6103,
      "rypt": 6104,
      "ername": 6105,
      "pret": 6106,
      "Ġring": 6107,
      "ĠPal": 6108,
      "Ġ+=": 6109,
      "Ġmessages": 6110,
      "ids": 6111,
      "42": 6112,
      "How": 6113,
      "child": 6114,
      "Ġfields": 6115,
      "ias": 6116,
      "ls": 6117,
      "ĠHealth": 6118,
      "block": 6119,
      "Ġmean,": 6120,
      "rian": 6121,
      "Ġdestroy": 6122,
      "Ġsales": 6123,
      "Ġlib": 6124,
      "Ġproduce": 6125,
      "0,000": 6126,
      "Ġmarri": 6127,
      "Ġtonight": 6128,
      "ode.": 6129,
      "Ġmac": 6130,
      "-time": 6131,
      "Ġdegree": 6132,
      "Ġmonitor": 6133,
      "Ġassign": 6134,
      "osis": 6135,
      "Ġbattle": 6136,
      "Ġvolume": 6137,
      "ĠSch": 6138,
      "Ġmissed": 6139,
      "ĊSh": 6140,
      "Ġauto": 6141,
      "ronic": 6142,
      "-B": 6143,
      "Ġgar": 6144,
      "Ġblank": 6145,
      "Ġwearing": 6146,
      "pi": 6147,
      "DB": 6148,
      "formation": 6149,
      "Ġbull": 6150,
      "-7": 6151,
      "ĊPro": 6152,
      "uster": 6153,
      "ĠJapan": 6154,
      "=\\": 6155,
      "md": 6156,
      "iforn": 6157,
      "Ġextract": 6158,
      "Ġpool": 6159,
      "inf": 6160,
      "Ġapplied": 6161,
      "Ġexpensive": 6162,
      "Ġcamera": 6163,
      "Ġdesk": 6164,
      "Ġappropriate": 6165,
      "Ġlab": 6166,
      "Ġmodels": 6167,
      "Ġprofessional": 6168,
      "ĠView": 6169,
      "Ġ(R": 6170,
      "rep": 6171,
      "\"]": 6172,
      "ĠSy": 6173,
      "ners": 6174,
      "Ġmechanism": 6175,
      "Ġrul": 6176,
      "ico": 6177,
      "Ġ8.": 6178,
      "search": 6179,
      "active": 6180,
      "rip": 6181,
      "Ġgenerated": 6182,
      "Ġcovered": 6183,
      "next": 6184,
      "Ġvariables": 6185,
      "$$": 6186,
      "id.": 6187,
      "Ġborn": 6188,
      "ĊAlso": 6189,
      "Ġscene": 6190,
      "Ġeducation": 6191,
      "Ġimplementation": 6192,
      "Ġbe.": 6193,
      "ln": 6194,
      "Ġthing.": 6195,
      "ford": 6196,
      "(\\": 6197,
      "ighter": 6198,
      "Ġperfectly": 6199,
      "Ġtwice": 6200,
      "bon": 6201,
      "se.": 6202,
      "Ġsomebody": 6203,
      "ĠChapter": 6204,
      "clusion": 6205,
      "Ġspirit": 6206,
      "uzz": 6207,
      "Ġflat": 6208,
      "Ġtools": 6209,
      "Ġtired": 6210,
      "Ġsystem.": 6211,
      "client": 6212,
      "Ġ\"There": 6213,
      "_IN": 6214,
      "ashington": 6215,
      "Ġassert": 6216,
      "uffer": 6217,
      "Ġpreviously": 6218,
      "Ġthinks": 6219,
      "ĠIts": 6220,
      "Ġsomewhat": 6221,
      "state": 6222,
      "Ġdropped": 6223,
      "UI": 6224,
      "57": 6225,
      "ĠFeb": 6226,
      "contain": 6227,
      "Ġnumer": 6228,
      "cipl": 6229,
      "Ġvill": 6230,
      "ding": 6231,
      "github": 6232,
      "ĠSpe": 6233,
      "Ġru": 6234,
      "ĠPost": 6235,
      "Ġrich": 6236,
      "ĠCour": 6237,
      "Ċfunction": 6238,
      "ission": 6239,
      "ems": 6240,
      "berg": 6241,
      "kin": 6242,
      "Ġpure": 6243,
      "Ġknock": 6244,
      "vest": 6245,
      "ĠisnâĢĻt": 6246,
      "Ġbetter.": 6247,
      "ves.": 6248,
      "Ġsexual": 6249,
      "all,": 6250,
      "-de": 6251,
      "ABLE": 6252,
      "Ġcash": 6253,
      "Ġhook": 6254,
      "\":\"": 6255,
      "Override": 6256,
      "ĠFROM": 6257,
      "Ġstars": 6258,
      "Ġanimal": 6259,
      "Ġ't": 6260,
      "Ġshop": 6261,
      "Node": 6262,
      "Ġalbum": 6263,
      "pression": 6264,
      "Ġreduce": 6265,
      "ponse": 6266,
      "ĠBY": 6267,
      "post": 6268,
      "esh": 6269,
      "Ġdistribution": 6270,
      "ore.": 6271,
      "Ġprem": 6272,
      "IST": 6273,
      "Ġwa": 6274,
      "edom": 6275,
      "Ġscream": 6276,
      "Ġupdated": 6277,
      "Ġtit": 6278,
      "ĠUK": 6279,
      "Ġvictim": 6280,
      "ĠSO": 6281,
      "Ġexcellent": 6282,
      "ĠNove": 6283,
      "way,": 6284,
      "Ġhelp.": 6285,
      "Ġsmell": 6286,
      "(1": 6287,
      "vil": 6288,
      "-of": 6289,
      "Ġsplit": 6290,
      "llig": 6291,
      "aced": 6292,
      "Ġhelpful": 6293,
      "hell": 6294,
      "Ġcancer": 6295,
      "Ġculture": 6296,
      "Ġbow": 6297,
      "Ġimpossible": 6298,
      "Ġgain": 6299,
      "ĠSatur": 6300,
      "y.\"": 6301,
      "Ġif(": 6302,
      "Ġassuming": 6303,
      "Ġdigit": 6304,
      "Ġcorner": 6305,
      "Ġtrue,": 6306,
      "Ġded": 6307,
      "PR": 6308,
      "icine": 6309,
      "ge.": 6310,
      "NT": 6311,
      "Ġbuying": 6312,
      "/h": 6313,
      "Ġtemplate": 6314,
      "_R": 6315,
      "_H": 6316,
      "acing": 6317,
      "ĠTues": 6318,
      "ĠLord": 6319,
      "EW": 6320,
      "Ġprove": 6321,
      "Ġstret": 6322,
      "Ġax": 6323,
      "Ġhome.": 6324,
      "ĠWhite": 6325,
      "SQL": 6326,
      "Ġupload": 6327,
      "olar": 6328,
      "ĠJames": 6329,
      "Connect": 6330,
      "ĠCons": 6331,
      "FL": 6332,
      "itation": 6333,
      "Ġbranch": 6334,
      "Source": 6335,
      "Ġyou?\"": 6336,
      "ses": 6337,
      "ie.": 6338,
      "lor": 6339,
      "izer": 6340,
      "Ġcrack": 6341,
      "Ġknow.": 6342,
      "olf": 6343,
      "anel": 6344,
      "ĠFed": 6345,
      "Param": 6346,
      "Ġ2015": 6347,
      "Ġwarning": 6348,
      "''": 6349,
      "Ġauth": 6350,
      "########": 6351,
      "ĠFire": 6352,
      "odule": 6353,
      "Ġsight": 6354,
      "Ġ(1": 6355,
      "43": 6356,
      "[\"": 6357,
      "ĉ{": 6358,
      "ĠBE": 6359,
      "ĠApril": 6360,
      "ĠObject": 6361,
      "Ġ(A": 6362,
      "Ġ2014": 6363,
      "Ġcivil": 6364,
      "iation": 6365,
      "Ġseg": 6366,
      "Ġeverybody": 6367,
      "Ġresource": 6368,
      "cember": 6369,
      "Ġfaith": 6370,
      "Ġago.": 6371,
      "Ġvirtual": 6372,
      "D,": 6373,
      "/7": 6374,
      "(l": 6375,
      "title": 6376,
      "Ġdecis": 6377,
      "Ġprepared": 6378,
      "ĠAlthough": 6379,
      "Ġcritical": 6380,
      "Ċ|": 6381,
      "allow": 6382,
      "Ġdelay": 6383,
      "Ġwhom": 6384,
      "Ġtogether.": 6385,
      "1\"": 6386,
      "Ġmovement": 6387,
      "TE": 6388,
      "ĠFacebook": 6389,
      "Ġpresence": 6390,
      "pha": 6391,
      "Ġfans": 6392,
      "Ġhous": 6393,
      "Ġre-": 6394,
      "oor": 6395,
      "0\"": 6396,
      "Ġread.": 6397,
      "Ġplenty": 6398,
      "Ġsignal": 6399,
      "Ġconflic": 6400,
      "ĠEX": 6401,
      "Ġfemale": 6402,
      "Ġ2013": 6403,
      "Ġ(!": 6404,
      "Ġ(a": 6405,
      "itz": 6406,
      "Ġstreet": 6407,
      "Ġmobile": 6408,
      "compl": 6409,
      "Ġ2012": 6410,
      "Ġ70": 6411,
      "Ġbarely": 6412,
      "ĠIsrael": 6413,
      "Ġloves": 6414,
      "ĠJanuary": 6415,
      "Ñĭ": 6416,
      "aming": 6417,
      "ĠTable": 6418,
      "ates.": 6419,
      "Ġexternal": 6420,
      "ue,": 6421,
      "-10": 6422,
      "parent": 6423,
      "Ġsig": 6424,
      "eed": 6425,
      "Ġaccident": 6426,
      "GL": 6427,
      "Ġ$this->": 6428,
      ".m.": 6429,
      "ðŁ": 6430,
      "Ļª": 6431,
      "-the": 6432,
      "Ġmask": 6433,
      "Ġwindows": 6434,
      "Ġsaved": 6435,
      "Ġok": 6436,
      "cat": 6437,
      "ĠÐ¿": 6438,
      "Ċde": 6439,
      "Ġbath": 6440,
      "ĠPublic": 6441,
      "ĠThurs": 6442,
      "ĠCenter": 6443,
      "id,": 6444,
      "Activity": 6445,
      "Ġchecked": 6446,
      "ĠIM": 6447,
      "Ġentirely": 6448,
      "Ġlived": 6449,
      "!--": 6450,
      "Ġgreatest": 6451,
      "Ġshirt": 6452,
      "ette": 6453,
      "-pro": 6454,
      "APTER": 6455,
      "odes": 6456,
      "Ġmatrix": 6457,
      "Ġhead.": 6458,
      "itect": 6459,
      "(r": 6460,
      "Ġanybody": 6461,
      "Ġ2018": 6462,
      "ĠFrench": 6463,
      "overn": 6464,
      "ounter": 6465,
      "Ġproperly": 6466,
      "OG": 6467,
      "Ġhelping": 6468,
      "ĠRight": 6469,
      "span>": 6470,
      "URL": 6471,
      "Ġtrail": 6472,
      "Ġindependent": 6473,
      "la": 6474,
      "isher": 6475,
      "Ġtum": 6476,
      "Ġadvantage": 6477,
      "Ġspoke": 6478,
      "Ġnuc": 6479,
      "r/": 6480,
      "opyright": 6481,
      "icip": 6482,
      "Ġ(e.g.": 6483,
      "Ġchurch": 6484,
      "TC": 6485,
      "Ġfunny": 6486,
      "-D": 6487,
      "illa": 6488,
      "-and": 6489,
      "icul": 6490,
      ".D": 6491,
      "En": 6492,
      "ĠRec": 6493,
      "urance": 6494,
      "Ġnerv": 6495,
      "Ġdefend": 6496,
      "Ġdamn": 6497,
      "Ġchamp": 6498,
      "tr>": 6499,
      "ĠRob": 6500,
      "Ġvector": 6501,
      "Ġclim": 6502,
      "ĠChristian": 6503,
      "otes": 6504,
      "ĠWho": 6505,
      "Ġordered": 6506,
      "Ġreven": 6507,
      "ï¼": 6508,
      "ensity": 6509,
      "ĠHTML": 6510,
      "ess,": 6511,
      "Ġnation": 6512,
      "CK": 6513,
      "ĠMag": 6514,
      "Ġmuch.": 6515,
      "Ġtraffic": 6516,
      "ĠDet": 6517,
      "Ġattribut": 6518,
      "Ġharm": 6519,
      "_to": 6520,
      "ĠDay": 6521,
      "Ġ2)": 6522,
      "Ġremains": 6523,
      "Ġright.": 6524,
      "Ġ\"No,": 6525,
      "ĠUs": 6526,
      "ĠResearch": 6527,
      "eper": 6528,
      "&nbsp;]": 6529,
      "&nbsp;__": 6530,
      "Ġbudget": 6531,
      "&nbsp;__&nbsp;]": 6532,
      "Ġmanufact": 6533,
      "Ġmal": 6534,
      "_.": 6535,
      "ie,": 6536,
      "Ġ[&nbsp;__&nbsp;]": 6537,
      "ĠHe's": 6538,
      "69": 6539,
      "Ġdialog": 6540,
      "phone": 6541,
      "Ġremainder": 6542,
      "Ġexamples": 6543,
      "Ġrender": 6544,
      "Ġthings.": 6545,
      "Ġother.": 6546,
      "84": 6547,
      "Ċse": 6548,
      "Ġfamil": 6549,
      "Ġreports": 6550,
      "5%": 6551,
      "(S": 6552,
      "Ġcock": 6553,
      "ary,": 6554,
      "Ġcitiz": 6555,
      "Ġdelete": 6556,
      "Ġattached": 6557,
      "ĠOP": 6558,
      "Ġice": 6559,
      "ĉĉĉĉ": 6560,
      "10.": 6561,
      "urt": 6562,
      "ĠText": 6563,
      "Ġsimpl": 6564,
      "Ġsle": 6565,
      "Ġfolder": 6566,
      "Ġbefore.": 6567,
      ".b": 6568,
      "ĠSuper": 6569,
      "Ġkitchen": 6570,
      "Ġentertain": 6571,
      "Ġwhis": 6572,
      "Ġthro": 6573,
      "ashed": 6574,
      "Ġuint": 6575,
      "Ġfloat": 6576,
      "Ġprotein": 6577,
      "Ġfighting": 6578,
      "Ġconversation": 6579,
      "Ġalternative": 6580,
      "Ġnut": 6581,
      "ÑģÑĤ": 6582,
      "Ġdeploy": 6583,
      "pat": 6584,
      "ĠDis": 6585,
      "Ġproposed": 6586,
      "Ġterrible": 6587,
      "se,": 6588,
      "Ġ\"Why": 6589,
      "awn": 6590,
      "Ġtank": 6591,
      "Manager": 6592,
      "weight": 6593,
      "ĠJune": 6594,
      "root": 6595,
      "Ġus.": 6596,
      "ĠGroup": 6597,
      "Ġ/**": 6598,
      "Ġvo": 6599,
      "ĠWhere": 6600,
      "Input": 6601,
      "Ġanx": 6602,
      "pecific": 6603,
      "Ġincor": 6604,
      "Ġ(t": 6605,
      "Click": 6606,
      "erry": 6607,
      "ander": 6608,
      "UG": 6609,
      "Ġoffered": 6610,
      "Ġlaunch": 6611,
      "Ġloan": 6612,
      "ITY": 6613,
      "Ġpicking": 6614,
      "Ġroom.": 6615,
      "âĢ¬": 6616,
      "Ġdepending": 6617,
      "el,": 6618,
      "---": 6619,
      "_re": 6620,
      "Ġproof": 6621,
      "ĠSoc": 6622,
      "Ġafford": 6623,
      "Ġsyn": 6624,
      "Ġmanage": 6625,
      "Listener": 6626,
      "Ġprojects": 6627,
      "Ġcards": 6628,
      "Ġ()": 6629,
      "Ġerrors": 6630,
      "Ġdeck": 6631,
      "HA": 6632,
      "ulf": 6633,
      "Ġcentral": 6634,
      "ĠRich": 6635,
      "acle": 6636,
      "SC": 6637,
      "Ġwith.": 6638,
      "Ġtalked": 6639,
      "à¤": 6640,
      "Ġdriving": 6641,
      "Oh": 6642,
      "Ġobtained": 6643,
      "Ġcloud": 6644,
      "Ġactivities": 6645,
      "Ġandroid:layout_": 6646,
      "SL": 6647,
      "Ġmental": 6648,
      "Script": 6649,
      "Ġmale": 6650,
      "uns": 6651,
      "related": 6652,
      "Ġdebug": 6653,
      "ItâĢĻs": 6654,
      "size": 6655,
      "Ġtherap": 6656,
      "Ġthousands": 6657,
      "})": 6658,
      "Ġending": 6659,
      "rial": 6660,
      "ĠTime": 6661,
      "Ġsmooth": 6662,
      "'S": 6663,
      "Ġselection": 6664,
      "2/": 6665,
      "Ġpoint.": 6666,
      "number": 6667,
      "Ġ(a)": 6668,
      "DR": 6669,
      "iety": 6670,
      "IA": 6671,
      "airs": 6672,
      "ist,": 6673,
      "Ġdisappe": 6674,
      "dr": 6675,
      "ĉ\"": 6676,
      "Work": 6677,
      "Ġsuppose": 6678,
      "Start": 6679,
      "uy": 6680,
      "Ġguard": 6681,
      "ant,": 6682,
      "Ġis:": 6683,
      "ĠGerman": 6684,
      "Ġdecent": 6685,
      "ĠCanad": 6686,
      "Ġpushed": 6687,
      "github.com/": 6688,
      "Ġraise": 6689,
      "Ġsays,": 6690,
      "ptions": 6691,
      "AX": 6692,
      "format": 6693,
      "Ġrespective": 6694,
      "lation": 6695,
      "s(": 6696,
      "ĠWednes": 6697,
      "They": 6698,
      "2]": 6699,
      "ename": 6700,
      "Ġfederal": 6701,
      "Ġ(as": 6702,
      "clip": 6703,
      "script>": 6704,
      "ĠCong": 6705,
      "plete": 6706,
      "Ġapolog": 6707,
      "Ġleaves": 6708,
      "emp": 6709,
      "Ċ};": 6710,
      "typ": 6711,
      "E.": 6712,
      "Hello,": 6713,
      "Ġsending": 6714,
      "++)": 6715,
      "Ġiter": 6716,
      "Ġreality": 6717,
      "ĠĊĠ": 6718,
      "^^": 6719,
      "ste": 6720,
      "Ġrain": 6721,
      "ĠFree": 6722,
      "Ġdepends": 6723,
      "ĊĊĠĠĠĠĠ": 6724,
      "context": 6725,
      "oted": 6726,
      "ecur": 6727,
      "iance": 6728,
      "?)": 6729,
      "Ġunable": 6730,
      "heet": 6731,
      "Ġpoll": 6732,
      "Ġoperator": 6733,
      "ĠAugust": 6734,
      "actor": 6735,
      "claim": 6736,
      "ĠWashington": 6737,
      ":\\": 6738,
      "gend": 6739,
      "Ġto,": 6740,
      "OB": 6741,
      "sv": 6742,
      "Ġsupported": 6743,
      "_RE": 6744,
      "Ġcoffee": 6745,
      "append": 6746,
      "Ġmouse": 6747,
      "ĠNovember": 6748,
      "Ġseat": 6749,
      "Ġcustomer": 6750,
      "6)": 6751,
      "Ġ(b)": 6752,
      "ĊĠĠĠĠĠĠĠĠĠĠĠĠĠĠĠĠĠĠĠĠĠĠĠĠĠĠĠĠĠĠĠĠĠĠĠĠĠĠĠĠ": 6753,
      "Ġ500": 6754,
      "Ġcert": 6755,
      "Ġcausing": 6756,
      "Ġsuggested": 6757,
      "Ġpaying": 6758,
      "Sub": 6759,
      "Ġcompil": 6760,
      "Ġpresented": 6761,
      "ĠOK": 6762,
      "Ġcode.": 6763,
      "Ġframework": 6764,
      "Ġunc": 6765,
      "eturn": 6766,
      "Ġequival": 6767,
      "čĊĠĠĠĠĠĠĠĠĠĠĠ": 6768,
      "ically,": 6769,
      "Ġ1;": 6770,
      "ĊâĢ": 6771,
      "ĠOnly": 6772,
      "ĠBritish": 6773,
      "Ċ0.": 6774,
      "Ġhide": 6775,
      "Ġ45": 6776,
      "Ġyesterday": 6777,
      "atal": 6778,
      "ptr": 6779,
      "Ġmort": 6780,
      "âĶ": 6781,
      "Ġresponsible": 6782,
      "men": 6783,
      "Ġfeedback": 6784,
      "Ġwanting": 6785,
      "Ġdetermined": 6786,
      "ĠBel": 6787,
      "gar": 6788,
      "Ġmagic": 6789,
      "ĠOff": 6790,
      "Ġwhenever": 6791,
      "Ġconfirm": 6792,
      "Ġconsequ": 6793,
      "Ċint": 6794,
      "Ġexplan": 6795,
      "Ġsociety": 6796,
      "DF": 6797,
      "Ġgood,": 6798,
      "Ġserve": 6799,
      "ĠPlay": 6800,
      "Ġpartner": 6801,
      "Ġsho": 6802,
      "ĠAndroid": 6803,
      "Ġpray": 6804,
      "Ġestabl": 6805,
      "impl": 6806,
      "-on": 6807,
      "ĠClass": 6808,
      "okes": 6809,
      "ise,": 6810,
      "Ġteen": 6811,
      "ĠJim": 6812,
      "Ġwire": 6813,
      "Ġstom": 6814,
      "Ġchallenge": 6815,
      "Ġmanager": 6816,
      "ĊRegards,": 6817,
      "Ġintellig": 6818,
      "Ġ(T": 6819,
      "ĠCaliforn": 6820,
      "oles": 6821,
      "Ġ(G": 6822,
      "os.": 6823,
      "ĠEnd": 6824,
      "Ċwhich": 6825,
      "ates,": 6826,
      "Ġspell": 6827,
      "Ġsir": 6828,
      "ĠTim": 6829,
      "wr": 6830,
      "creen": 6831,
      "ĠObama": 6832,
      "olved": 6833,
      "ometimes": 6834,
      "Ġlaws": 6835,
      "ĠTR": 6836,
      "Ġ(L": 6837,
      "Ġforever": 6838,
      "Ã§": 6839,
      "Ġtill": 6840,
      "ruit": 6841,
      "Ġliber": 6842,
      "Ġjobs": 6843,
      "Ġsand": 6844,
      "Ġoff,": 6845,
      "Ġbecoming": 6846,
      "Author": 6847,
      "Ċusing": 6848,
      "Ã£": 6849,
      "rad": 6850,
      "Ġlosing": 6851,
      "plug": 6852,
      "Ġcareer": 6853,
      "Ġphase": 6854,
      "cles": 6855,
      "Ġ(e": 6856,
      "Ġflex": 6857,
      "Ġadvert": 6858,
      "Ġeating": 6859,
      "Ġstored": 6860,
      "Ġneither": 6861,
      "ptom": 6862,
      "Ġpulling": 6863,
      "Ġdigital": 6864,
      "Ġsty": 6865,
      "ĠApple": 6866,
      "y's": 6867,
      "ĠAut": 6868,
      "Ġsuspect": 6869,
      "Ġappeared": 6870,
      "ĠTechn": 6871,
      "iest": 6872,
      "ORT": 6873,
      "les,": 6874,
      "stood": 6875,
      "irk": 6876,
      "Ġpersonally": 6877,
      "ensions": 6878,
      "Load": 6879,
      "Ġwaste": 6880,
      "ĠAnt": 6881,
      "Ġvisual": 6882,
      "ÐµÐ½": 6883,
      "Ġcommer": 6884,
      "ĊCon": 6885,
      "ĠPeter": 6886,
      "Ġwave": 6887,
      "ĠMart": 6888,
      "s'": 6889,
      "Ġtested": 6890,
      "ÑĮ": 6891,
      "Ġwit": 6892,
      "ĠEngland": 6893,
      "Ġil": 6894,
      "ett": 6895,
      "case": 6896,
      "cal": 6897,
      "Column": 6898,
      "Ð´": 6899,
      "anted": 6900,
      "Ġspeech": 6901,
      "Ġpictures": 6902,
      "Ġadm": 6903,
      "Ġ\"I'll": 6904,
      "78": 6905,
      "Ċi": 6906,
      "Ġsafety": 6907,
      "Ġapprox": 6908,
      "begin": 6909,
      "Row": 6910,
      "Ġ29": 6911,
      "Ġpurchase": 6912,
      "ĠDid": 6913,
      "ĠThom": 6914,
      "Ġtransport": 6915,
      "Ġsock": 6916,
      "Default": 6917,
      "Ċsh": 6918,
      "ĠDepartment": 6919,
      "Ġsymbol": 6920,
      "Ġgame,": 6921,
      "Ġalert": 6922,
      "Ġaudio": 6923,
      "Ġ\"Come": 6924,
      "lig": 6925,
      "ĊDoes": 6926,
      "Ġexchange": 6927,
      "illing": 6928,
      "ĠSunday": 6929,
      "Ġit!": 6930,
      "Ġcontroller": 6931,
      "CP": 6932,
      "ĠFound": 6933,
      "Ġreserv": 6934,
      "ĠWould": 6935,
      "Ġlayer": 6936,
      "Ġdescribe": 6937,
      "Ġworried": 6938,
      "Ġyes,": 6939,
      "Ġje": 6940,
      "Ġregister": 6941,
      "ih": 6942,
      "Ġsrc=\"": 6943,
      "ogen": 6944,
      "lause": 6945,
      "Ġspecifically": 6946,
      "och": 6947,
      "Ġself-": 6948,
      "wered": 6949,
      "Ġpieces": 6950,
      "I've": 6951,
      "zen": 6952,
      "ĠJuly": 6953,
      "ĠDr.": 6954,
      "i.e.": 6955,
      "ĠFigure": 6956,
      "ĠEuropean": 6957,
      "ĠChinese": 6958,
      "section": 6959,
      "iously": 6960,
      "arian": 6961,
      "Ġtough": 6962,
      "Ġchain": 6963,
      "Ġcompare": 6964,
      "Ġbool": 6965,
      "Ġapplications": 6966,
      "Ġfif": 6967,
      "Ġends": 6968,
      "Window": 6969,
      "ãĢ": 6970,
      "Ġhighlight": 6971,
      "ĠMonday": 6972,
      "Ġcircum": 6973,
      "CA": 6974,
      "ĠName": 6975,
      "Ġefficient": 6976,
      "Ġrelax": 6977,
      "Ġ\"p": 6978,
      "ĠSher": 6979,
      "Ġcoordin": 6980,
      "ĠâĢľYou": 6981,
      "u.": 6982,
      "76": 6983,
      "ESS": 6984,
      "vision": 6985,
      "Ġ<-": 6986,
      "Ġmaximum": 6987,
      "Ġspring": 6988,
      "Ġspending": 6989,
      "les.": 6990,
      "Ġtreated": 6991,
      "Ġreader": 6992,
      "Ġ\"My": 6993,
      "Ġteams": 6994,
      "ĊĠĠĠĠĠĠĠĠĠĠĠĠ": 6995,
      "ĠDecember": 6996,
      "Ġ(not": 6997,
      "Ġguid": 6998,
      "ĠPort": 6999,
      "ĠPython": 7000,
      "Ġ<a": 7001,
      "ĠMiss": 7002,
      "Ġcritic": 7003,
      "Ġsuggestions": 7004,
      "ustration": 7005,
      "ĠFe": 7006,
      "Ġboyfriend": 7007,
      "Ġapparently": 7008,
      "Ġwrong.": 7009,
      "ĊRe": 7010,
      "Ġpossible.": 7011,
      "Ġtow": 7012,
      "ĠEast": 7013,
      "Ġhall": 7014,
      "Ġrelatively": 7015,
      "Reg": 7016,
      "','": 7017,
      "Ġdebt": 7018,
      "y)": 7019,
      "Point": 7020,
      "Ġvac": 7021,
      "ĠSeptember": 7022,
      "vention": 7023,
      "Ġactions": 7024,
      "Ġminimum": 7025,
      "ĠWell": 7026,
      "ĊThen": 7027,
      "ä¸": 7028,
      "ackage": 7029,
      "Ġboost": 7030,
      "Ġletting": 7031,
      "ctors": 7032,
      "500": 7033,
      "Ġbond": 7034,
      "Ġradio": 7035,
      "Ġjo": 7036,
      "CD": 7037,
      "uman": 7038,
      "urd": 7039,
      "ĠSl": 7040,
      "Ġrang": 7041,
      "Ġcorpor": 7042,
      "Ġunits": 7043,
      "coh": 7044,
      "hand": 7045,
      "ĠUI": 7046,
      "ĠSD": 7047,
      "pename": 7048,
      "rome": 7049,
      "Rec": 7050,
      "Ġ\"U": 7051,
      "ienc": 7052,
      "ĠServer": 7053,
      "Ġnormally": 7054,
      "_0": 7055,
      "Ġjournal": 7056,
      "gers": 7057,
      "FA": 7058,
      "Ġyounger": 7059,
      "ĠArray": 7060,
      "ĠPhil": 7061,
      "Ġinstitut": 7062,
      "hered": 7063,
      "Ġhearing": 7064,
      "win": 7065,
      "Ġunlike": 7066,
      "Ġlinks": 7067,
      "iki": 7068,
      "Number": 7069,
      "CTION": 7070,
      "ours": 7071,
      "Ġguarant": 7072,
      "Ġextends": 7073,
      "ĊTrue": 7074,
      "Ġi.e.": 7075,
      "istribut": 7076,
      "Ġversions": 7077,
      "Ġfeelings": 7078,
      "Ġ(H": 7079,
      "Ġfigured": 7080,
      "Ġfourth": 7081,
      "amily": 7082,
      "fortunately": 7083,
      "/n": 7084,
      "Ġking": 7085,
      "Ġ-->": 7086,
      "output": 7087,
      "agment": 7088,
      "Ġcosts": 7089,
      "_,": 7090,
      "ĠMor": 7091,
      "ĠCL": 7092,
      "yan": 7093,
      "aper": 7094,
      "UD": 7095,
      "Ġweek.": 7096,
      "mathbb": 7097,
      "Rep": 7098,
      "Ġheader": 7099,
      "aptop": 7100,
      "ĊĠĠĠĠĠĠĠĠĠĠ": 7101,
      "Ġrare": 7102,
      "56": 7103,
      "Ġhonestly": 7104,
      "Ġ199": 7105,
      "u,": 7106,
      "Ġus,": 7107,
      "ĠOctober": 7108,
      "oking": 7109,
      "ness,": 7110,
      "8)": 7111,
      "ĠWell,": 7112,
      "Ġans": 7113,
      "Ġ\"All": 7114,
      "ĠArt": 7115,
      "Ġfocused": 7116,
      "IO": 7117,
      "Ġtimes.": 7118,
      "Ġadmit": 7119,
      "ĠQue": 7120,
      "Ġclinical": 7121,
      "One": 7122,
      "Ġgrew": 7123,
      "uz": 7124,
      "Ġoffers": 7125,
      "0,0,": 7126,
      "ki": 7127,
      "IX": 7128,
      "Ġsignificantly": 7129,
      "Ġdiscovered": 7130,
      "E,": 7131,
      "Ġcase.": 7132,
      "iro": 7133,
      "Ġbuck": 7134,
      "Ġupper": 7135,
      "FT": 7136,
      "-th": 7137,
      "Ġconserv": 7138,
      "-01": 7139,
      "C,": 7140,
      "Ġcontaining": 7141,
      ".php": 7142,
      "else": 7143,
      "ĠIndian": 7144,
      "Ġfor.": 7145,
      "Ġthat.\"": 7146,
      "Ġlicense": 7147,
      "Ġprotocol": 7148,
      "ILE": 7149,
      "Ċdef": 7150,
      "Ċ\"W": 7151,
      "Ġguide": 7152,
      "Ġnarr": 7153,
      "ĠFrank": 7154,
      "Ġbother": 7155,
      "ĊWhich": 7156,
      "illed": 7157,
      "Ġannounced": 7158,
      "ĠBoth": 7159,
      "ry,": 7160,
      "Ġboys": 7161,
      "Ġcarried": 7162,
      "-P": 7163,
      "string>": 7164,
      "Ġvan": 7165,
      "el.": 7166,
      "Ġpassing": 7167,
      "river": 7168,
      "otic": 7169,
      "Ġanswers": 7170,
      "Ġdistributed": 7171,
      "Ġpill": 7172,
      "Ġ(2": 7173,
      "n.": 7174,
      "Ġpoint,": 7175,
      "Ġleads": 7176,
      "enses": 7177,
      "ĊFalse": 7178,
      "Ġdefense": 7179,
      "ban": 7180,
      "ant.": 7181,
      "Ġflash": 7182,
      "Ġidentify": 7183,
      "Ġarrest": 7184,
      "Ġanything.": 7185,
      "Ġorder.": 7186,
      "Ġwas,": 7187,
      "Ġso.": 7188,
      "Ġbasis": 7189,
      "Ġprompt": 7190,
      "Ġcauses": 7191,
      "Ġdays.": 7192,
      "={": 7193,
      "rawn": 7194,
      "FO": 7195,
      "Ġdepth": 7196,
      "Ġoperation": 7197,
      "Ġproduced": 7198,
      "Ġmere": 7199,
      "Ġhung": 7200,
      "ceived": 7201,
      "ado": 7202,
      "ĠEv": 7203,
      "Ġthousand": 7204,
      "Ġenh": 7205,
      "cient": 7206,
      "Ġtries": 7207,
      "Ġnative": 7208,
      "Ċ});": 7209,
      "ĠEarth": 7210,
      "Filter": 7211,
      "Ġworld,": 7212,
      "*p": 7213,
      "Factory": 7214,
      "ested": 7215,
      "Ġauthent": 7216,
      "Ġhun": 7217,
      "Ġjack": 7218,
      "Ġreaction": 7219,
      "Ġ64": 7220,
      "kay,": 7221,
      "ĠHill": 7222,
      "olly": 7223,
      "ness.": 7224,
      "Ġlike,": 7225,
      "ĠwouldnâĢĻt": 7226,
      "Do": 7227,
      "Ċor": 7228,
      "Ġinteger": 7229,
      "bian": 7230,
      "Ġman,": 7231,
      "ĠMal": 7232,
      "Ċnot": 7233,
      "ist.": 7234,
      "bin": 7235,
      "ĠJew": 7236,
      "Ġmistake": 7237,
      "Ġplays": 7238,
      "Ġsources": 7239,
      "iate": 7240,
      "ideo": 7241,
      "Ġregul": 7242,
      "Ċat": 7243,
      "_G": 7244,
      "Ġaccompl": 7245,
      "Ġtransition": 7246,
      "ĠBas": 7247,
      "Ġcustomers": 7248,
      "Ġcombination": 7249,
      "Ġdevices": 7250,
      "*t": 7251,
      "+1": 7252,
      "Ġeth": 7253,
      "System": 7254,
      "Ġfalse;": 7255,
      "Ġobserved": 7256,
      "_data": 7257,
      "ors.": 7258,
      "Ġhealthy": 7259,
      "Ġhardware": 7260,
      "Ġdraft": 7261,
      "Ġ\"Don't": 7262,
      "Ġpros": 7263,
      "Ġproud": 7264,
      "Ġplugin": 7265,
      "erial": 7266,
      "Ġ00": 7267,
      "le.log": 7268,
      "Ġmetal": 7269,
      "Ġsettings": 7270,
      "Ġmotiv": 7271,
      "Ġsquare": 7272,
      "amin": 7273,
      "*v": 7274,
      "Ġfinds": 7275,
      "Ġbusines": 7276,
      "Ġprofile": 7277,
      "Ġterror": 7278,
      "doc": 7279,
      "email": 7280,
      "ĊĠĠĠĠĠĠĠĠĠĠĠĠĠĠĠĠĠĠĠĠĠĠĠĠĠĠĠĠĠĠĠ": 7281,
      "ĠStr": 7282,
      "ERT": 7283,
      "project": 7284,
      "idents": 7285,
      "ĊBest": 7286,
      "*c": 7287,
      "Ñĩ": 7288,
      "hem": 7289,
      "ĠYou're": 7290,
      "Ġwanna": 7291,
      "Ġphoto": 7292,
      "Ġhtml": 7293,
      "day.": 7294,
      "Ġincome": 7295,
      "Ġexperienced": 7296,
      "Ġ\"Let": 7297,
      "cribe": 7298,
      "ĠChristmas": 7299,
      "ography": 7300,
      "Ġextension": 7301,
      "79": 7302,
      "buntu": 7303,
      "Client": 7304,
      "Ġnight.": 7305,
      "ĠEach": 7306,
      "Ġtip": 7307,
      "Ġbefore,": 7308,
      "Thread": 7309,
      "Ġconference": 7310,
      "ĠId": 7311,
      "ĠRober": 7312,
      "ĠPre": 7313,
      "Ġprotected": 7314,
      "-a": 7315,
      "Ġtraditional": 7316,
      "spring": 7317,
      "Ġmarried": 7318,
      "Ġwed": 7319,
      "Ġno,": 7320,
      "*x": 7321,
      "roph": 7322,
      "Head": 7323,
      "server": 7324,
      "ĠSur": 7325,
      "Control": 7326,
      "Ġyield": 7327,
      "Ġagreed": 7328,
      "ĊIt's": 7329,
      "Ġinfluence": 7330,
      "FC": 7331,
      "ĠDel": 7332,
      "Ġty": 7333,
      "Ġweapon": 7334,
      "UB": 7335,
      "Ġbalance": 7336,
      "Ġ1:": 7337,
      "Ġreli": 7338,
      "Ġissue.": 7339,
      "heck": 7340,
      "ĠTheir": 7341,
      "AV": 7342,
      "tee": 7343,
      "Ġhasn't": 7344,
      "Ċstatic": 7345,
      "Ġrates": 7346,
      "ooper": 7347,
      "ottom": 7348,
      "can": 7349,
      "Ġ[]": 7350,
      "ictionary": 7351,
      "ĊĊĠĠĠĠ": 7352,
      "ĊWhile": 7353,
      "ĠInstead": 7354,
      "ĊBy": 7355,
      "Ġpregn": 7356,
      "Ġisol": 7357,
      "ests": 7358,
      "Ġgreat.": 7359,
      "Ġhidden": 7360,
      "ĠInter": 7361,
      "ages,": 7362,
      "${": 7363,
      "Ġprison": 7364,
      "-to-": 7365,
      "Ġinterpret": 7366,
      "l.": 7367,
      "Ġkeys": 7368,
      "ĊSince": 7369,
      "mand": 7370,
      "Ġ$(": 7371,
      "Ġtempor": 7372,
      "Ġaway,": 7373,
      "ASE": 7374,
      "*s": 7375,
      "ĠBig": 7376,
      "Ġproviding": 7377,
      "=>": 7378,
      "Ċas": 7379,
      "Ġbon": 7380,
      "Ġcontinues": 7381,
      "Great": 7382,
      "requ": 7383,
      "Just": 7384,
      "Ġlikes": 7385,
      "frame": 7386,
      "secut": 7387,
      "A)": 7388,
      "*z": 7389,
      "Ġfrustr": 7390,
      "Ġweren't": 7391,
      "Ġsmiled": 7392,
      "Ġnotes": 7393,
      "ulti": 7394,
      "ĠUser": 7395,
      "Ġmassive": 7396,
      "Ġtiny": 7397,
      "Ġdynamic": 7398,
      "ĠLouis": 7399,
      "Ġlater,": 7400,
      "ĠGreen": 7401,
      "Ġeditor": 7402,
      "ĠLondon": 7403,
      "rum": 7404,
      "Ġwake": 7405,
      "eries": 7406,
      "-19": 7407,
      "Ġkinda": 7408,
      "P.": 7409,
      "ounc": 7410,
      "ĠAngel": 7411,
      "unity": 7412,
      "look": 7413,
      "local": 7414,
      "ĠA.": 7415,
      "close": 7416,
      "Ċj": 7417,
      "Ġsites": 7418,
      "Ċ6": 7419,
      "Ġfish": 7420,
      "Ġrepos": 7421,
      "*d": 7422,
      "Ġ(for": 7423,
      "Ġassem": 7424,
      "ĠAL": 7425,
      "Ġmiles": 7426,
      "Ġmedium": 7427,
      "Ġrows": 7428,
      "ĠBook": 7429,
      "ĠKore": 7430,
      "chang": 7431,
      "Ġdeveloping": 7432,
      "Ġrestaur": 7433,
      "Ġflight": 7434,
      "Ġelectric": 7435,
      "Ġ$f": 7436,
      "ĠDate": 7437,
      "Ġ\"Do": 7438,
      "Ġpointed": 7439,
      "Ġdirector": 7440,
      "Ġfirst,": 7441,
      "Ġspl": 7442,
      "Ġchief": 7443,
      "Ġhint": 7444,
      "Ġdomin": 7445,
      "Ġride": 7446,
      "ĠMet": 7447,
      "ĠLove": 7448,
      "ĠwonâĢĻt": 7449,
      "Ġlaughed": 7450,
      "Ġvideos": 7451,
      "Ġ\"Yeah,": 7452,
      "Applause": 7453,
      "OUT": 7454,
      "Ġ2010": 7455,
      "ixt": 7456,
      "Ġrecords": 7457,
      "ĠStar": 7458,
      "ĠSun": 7459,
      "Ġtong": 7460,
      "Ġamb": 7461,
      "*h": 7462,
      "ya": 7463,
      "ions,": 7464,
      "ĉp": 7465,
      "Ġban": 7466,
      "END": 7467,
      "ress,": 7468,
      "[0]": 7469,
      "Ġexists": 7470,
      "Ġadapt": 7471,
      "Ġremark": 7472,
      "Ġfarm": 7473,
      "Ġshell": 7474,
      "Ġspin": 7475,
      "base": 7476,
      "Ġforth": 7477,
      "*q": 7478,
      "Ġenable": 7479,
      "Ġfreedom": 7480,
      "ĠHope": 7481,
      "Ġprograms": 7482,
      "Ġleader": 7483,
      "([": 7484,
      "Ġbrowser": 7485,
      "sql": 7486,
      "Ġnobody": 7487,
      "less,": 7488,
      "FS": 7489,
      "ById": 7490,
      "Ġexplicit": 7491,
      "(&": 7492,
      "ize.": 7493,
      "Ġpython": 7494,
      "/w": 7495,
      "Ġadvent": 7496,
      "*j": 7497,
      "Ġhere:": 7498,
      "ui": 7499,
      "Ġbusy": 7500,
      "attr": 7501,
      "ĠMicrosoft": 7502,
      "Ġkilling": 7503,
      "Applause]": 7504,
      "*f": 7505,
      "Ġcategory": 7506,
      "ĠPHP": 7507,
      "Ġrestrict": 7508,
      "(s)": 7509,
      "72": 7510,
      "Ġ9.": 7511,
      "Ġsched": 7512,
      "Ġpin": 7513,
      "Ġfly": 7514,
      "etail": 7515,
      "Ġnight,": 7516,
      "ĠForm": 7517,
      "ĠâĢ«": 7518,
      "ĠheâĢĻd": 7519,
      "Are": 7520,
      "ĠDO": 7521,
      "osen": 7522,
      "Ġtaste": 7523,
      "Ġdut": 7524,
      "Ġsnow": 7525,
      "Ġagreement": 7526,
      "Ġend.": 7527,
      "Ġskills": 7528,
      "Ċ<div": 7529,
      "ĊWhy": 7530,
      "ĊâĢľY": 7531,
      "ĠMany": 7532,
      "ferent": 7533,
      "Ġclosest": 7534,
      "house": 7535,
      "</a></": 7536,
      "Ġdone.": 7537,
      "ker": 7538,
      "Ġfalling": 7539,
      "avascript": 7540,
      "_ST": 7541,
      "ery.": 7542,
      "ĠJon": 7543,
      "PT": 7544,
      "Ġsamples": 7545,
      "pc": 7546,
      "Ċhave": 7547,
      "*w": 7548,
      "Ġconver": 7549,
      "Ġsees": 7550,
      "ĊCom": 7551,
      "ĠUN": 7552,
      "ices,": 7553,
      "Ġreject": 7554,
      "Ġinfect": 7555,
      "Ã£o": 7556,
      "Ġ(with": 7557,
      "in'": 7558,
      "Ġfailure": 7559,
      "Ġignore": 7560,
      "*n": 7561,
      "tyle": 7562,
      "aped": 7563,
      "Bar": 7564,
      "Ġneighbor": 7565,
      "Ġconstruction": 7566,
      "cause": 7567,
      "Ġdifferences": 7568,
      "iat": 7569,
      "ĠScott": 7570,
      "irmed": 7571,
      "2:": 7572,
      "-1.": 7573,
      "Ġbird": 7574,
      "ĊĠĠĠĠĠĠĠĠĠĠĠĠĠĠĠĠĠ": 7575,
      "Ġscal": 7576,
      "ERS": 7577,
      "uccess": 7578,
      "Ġfro": 7579,
      "Ġpossibility": 7580,
      "bes": 7581,
      "Ġserial": 7582,
      "ĠProject": 7583,
      "Ġbringing": 7584,
      "request": 7585,
      "real": 7586,
      "-L": 7587,
      "Ġeyes,": 7588,
      "/L": 7589,
      "Ġweather": 7590,
      "Ċyou": 7591,
      "Ġorganiz": 7592,
      "Ġ[Applause]": 7593,
      "Ċfunc": 7594,
      "Ġhack": 7595,
      "Ġlets": 7596,
      "*m": 7597,
      "Ġconcerned": 7598,
      "Ġ(i.e.": 7599,
      "page": 7600,
      "PP": 7601,
      "Web": 7602,
      "ĠMax": 7603,
      "Ġscroll": 7604,
      "><a": 7605,
      "Ġnecessarily": 7606,
      "Ġmainly": 7607,
      "Sp": 7608,
      "Ġorganization": 7609,
      "ĠWITH": 7610,
      "2.0": 7611,
      "Ġhe'd": 7612,
      "Ġlin": 7613,
      "Ġallowing": 7614,
      "going": 7615,
      "last": 7616,
      "Ġfinger": 7617,
      "ĠType": 7618,
      "Ġyet.": 7619,
      "Ġspeaking": 7620,
      "IGHT": 7621,
      "Ġscope": 7622,
      "Ġdollars": 7623,
      "*b": 7624,
      "Ġe.g.": 7625,
      "Ġhyper": 7626,
      "Ġvariety": 7627,
      "atabase": 7628,
      "Ġtimes,": 7629,
      "json": 7630,
      "property": 7631,
      "000000": 7632,
      "Ċvoid": 7633,
      "Ġâī": 7634,
      "Ġstorage": 7635,
      "f,": 7636,
      "Ġweek,": 7637,
      "Ġfab": 7638,
      "Ġdesire": 7639,
      "es.\"": 7640,
      "74": 7641,
      "Ġsolutions": 7642,
      "oyal": 7643,
      "Ġlargest": 7644,
      "Ġdeliver": 7645,
      "Ġtoday.": 7646,
      "ady": 7647,
      "ruary": 7648,
      "fore,": 7649,
      "Ċr": 7650,
      "Ġequip": 7651,
      "Ġbutt": 7652,
      "lang": 7653,
      "Ġintroduced": 7654,
      "ĠthereâĢĻs": 7655,
      "Ġcrim": 7656,
      "Ġholds": 7657,
      "istered": 7658,
      "ĠLast": 7659,
      "Ġmo": 7660,
      "Ġ@Override": 7661,
      "Ġtwe": 7662,
      "YPE": 7663,
      "Ġ\"t": 7664,
      "Ġintended": 7665,
      "ILL": 7666,
      "Ġstation": 7667,
      "ĠTwitter": 7668,
      "Ġutil": 7669,
      "-T": 7670,
      "ĠXML": 7671,
      "?php": 7672,
      "ĠYes,": 7673,
      "Ġtrue;": 7674,
      "iden": 7675,
      "*l": 7676,
      "rier": 7677,
      "Ġclock": 7678,
      "*r": 7679,
      "arn": 7680,
      "aâĢĻs": 7681,
      "Ġscared": 7682,
      "CR": 7683,
      "Ġdesper": 7684,
      "Ċal": 7685,
      "ourc": 7686,
      "Ġworkers": 7687,
      "ĠIâĢĻll": 7688,
      "Ã¶": 7689,
      "Ċy": 7690,
      "Ġegg": 7691,
      "Ġspecies": 7692,
      "ap.": 7693,
      "Ġiron": 7694,
      "End": 7695,
      "ĠMS": 7696,
      "cr": 7697,
      "watch": 7698,
      "Ġbrings": 7699,
      "Ġothers.": 7700,
      "Ġescape": 7701,
      "ĠMer": 7702,
      "=\"@": 7703,
      "ĊSe": 7704,
      "Ġteaching": 7705,
      "Ġdb": 7706,
      "Ġcorrectly": 7707,
      "Ġproceed": 7708,
      "Ġgotta": 7709,
      "Response": 7710,
      "Ġemotional": 7711,
      "Ġstomach": 7712,
      "irectory": 7713,
      "sm": 7714,
      "Ġ\"Thank": 7715,
      "Ġgir": 7716,
      "ĠMus": 7717,
      "utorial": 7718,
      "Ġcart": 7719,
      "/lib": 7720,
      "ities.": 7721,
      "Ġplastic": 7722,
      "Ġseries.": 7723,
      "Ġalloc": 7724,
      "ĠInternet": 7725,
      "Ġharder": 7726,
      "Label": 7727,
      "ĊSo,": 7728,
      "*g": 7729,
      "pic": 7730,
      "[i]": 7731,
      "illy": 7732,
      "Ġconstantly": 7733,
      "Ġbreaking": 7734,
      "oney": 7735,
      "Ġphil": 7736,
      "Ġdid.": 7737,
      "Ġgentle": 7738,
      "59": 7739,
      "Ġcareful": 7740,
      "-term": 7741,
      "Ġtou": 7742,
      "Ġstrategy": 7743,
      "Create": 7744,
      "Ġattribute": 7745,
      "about": 7746,
      "ain.": 7747,
      "Ġlaptop": 7748,
      "dro": 7749,
      "54": 7750,
      "*y": 7751,
      "Ġexpert": 7752,
      "cular": 7753,
      "Ġlistening": 7754,
      "Ġcompile": 7755,
      "Ġgradu": 7756,
      "Ġboss": 7757,
      "Ġmoves": 7758,
      "(){": 7759,
      "ii": 7760,
      "ĠInstitute": 7761,
      "ĠBi": 7762,
      "des": 7763,
      "Ġpointer": 7764,
      "Ġsupply": 7765,
      "ĊSome": 7766,
      "lfriend": 7767,
      "Ġpromise": 7768,
      "Ġhand.": 7769,
      "Ġcomponents": 7770,
      "asm": 7771,
      "When": 7772,
      "Ċapp": 7773,
      "aine": 7774,
      "Ġanswered": 7775,
      "Ġtechnolog": 7776,
      "Ġnine": 7777,
      "/M": 7778,
      "Ġstable": 7779,
      "Ġtens": 7780,
      "Ġlist.": 7781,
      "Ġit?\"": 7782,
      "ĠAmericans": 7783,
      "aints": 7784,
      "Ġgear": 7785,
      "ĠRepublican": 7786,
      "EO": 7787,
      "Ġindeed": 7788,
      "Ġlegs": 7789,
      "Ġlie": 7790,
      "Ġ2011": 7791,
      "*k": 7792,
      "ĠANY": 7793,
      "Ġeveryth": 7794,
      "Ġname,": 7795,
      "Ġclar": 7796,
      "ĠAmazon": 7797,
      "*o": 7798,
      "iers": 7799,
      "*u": 7800,
      "ĠâĢ¢": 7801,
      "Ġchat": 7802,
      "[1]": 7803,
      "Ġupgrade": 7804,
      "iform": 7805,
      "Ġbenefits": 7806,
      "ĠAtt": 7807,
      "ĠHave": 7808,
      "Ċ3.": 7809,
      "vas": 7810,
      "Ġpolitic": 7811,
      "Ġlo": 7812,
      "Ġalcoh": 7813,
      "craft": 7814,
      "build": 7815,
      "Ġpage.": 7816,
      "uby": 7817,
      "Ġelse.": 7818,
      "Ġroom,": 7819,
      "hh": 7820,
      "z,": 7821,
      "Ġchick": 7822,
      "ĠPet": 7823,
      "Ġfle": 7824,
      "Ġdealing": 7825,
      "Ġsymptom": 7826,
      "Ġauthors": 7827,
      "ye": 7828,
      "Ġwis": 7829,
      "ua": 7830,
      "color": 7831,
      "Ġvisible": 7832,
      "Ġpa": 7833,
      "Ġstro": 7834,
      "Ġaudience": 7835,
      "Ġalgorithm": 7836,
      "ĠCalculate": 7837,
      "aks": 7838,
      "Ġseriously": 7839,
      "ĠII": 7840,
      "*a": 7841,
      "Ġeither.": 7842,
      "Ġthings,": 7843,
      "aze": 7844,
      "*i": 7845,
      "Call": 7846,
      "Ġannounce": 7847,
      "java:": 7848,
      "ftware": 7849,
      "Ġanti-": 7850,
      "align": 7851,
      "AGE": 7852,
      "r,": 7853,
      "ĠMedical": 7854,
      "eline": 7855,
      "ingly": 7856,
      "âĢ¦âĢĿ": 7857,
      "Ġsac": 7858,
      "Ġrent": 7859,
      "ression": 7860,
      "Ġhug": 7861,
      "Ġscrew": 7862,
      "Ġ@param": 7863,
      "ĠGold": 7864,
      "organ": 7865,
      "Ġproblem,": 7866,
      "obj": 7867,
      "Ġentered": 7868,
      "ĠHospital": 7869,
      "ida": 7870,
      "abs": 7871,
      "Ġhes": 7872,
      "ĠGeorge": 7873,
      "mar": 7874,
      "L,": 7875,
      "ĠInternational": 7876,
      "Ġarchitect": 7877,
      "_W": 7878,
      "Per": 7879,
      "Ġlogic": 7880,
      "Ġforces": 7881,
      "Ġridicul": 7882,
      "rant": 7883,
      "Ġreligious": 7884,
      "Ġ36": 7885,
      "ĠTony": 7886,
      "Ġsevere": 7887,
      "ĠAnother": 7888,
      "Ġ\"the": 7889,
      "Ġpushing": 7890,
      "Ġquestion.": 7891,
      "First": 7892,
      "IZ": 7893,
      "Ġinsight": 7894,
      "ĠNO": 7895,
      "Component": 7896,
      "ãĥ": 7897,
      "ĠCR": 7898,
      "Ġlocated": 7899,
      "Ġgo.": 7900,
      "otype": 7901,
      "Ġcommercial": 7902,
      "ĠAir": 7903,
      "rees": 7904,
      "ĊUniversity": 7905,
      "Instance": 7906,
      "Ġcute": 7907,
      "Ġsch": 7908,
      "Ġ\"In": 7909,
      "Ġgay": 7910,
      "Ġchecking": 7911,
      "Ġdemocr": 7912,
      "fix": 7913,
      "bo": 7914,
      "Ref": 7915,
      "ACK": 7916,
      "Ġfort": 7917,
      "Equ": 7918,
      "ĠMad": 7919,
      "oog": 7920,
      "Ġlinear": 7921,
      "Ġinvestment": 7922,
      "Ġ*)": 7923,
      "Cell": 7924,
      "Ġhel": 7925,
      "am,": 7926,
      "<T": 7927,
      "c,": 7928,
      "/v": 7929,
      "ĠTwo": 7930,
      "ĠTex": 7931,
      "Ġabout.": 7932,
      "Ġsays.": 7933,
      "Base": 7934,
      "Ġidentified": 7935,
      "bles": 7936,
      "ĠÐ²": 7937,
      "Ġupgrad": 7938,
      "Ġappreciated.": 7939,
      "!!!!": 7940,
      "~~~~": 7941,
      "ĠIndia": 7942,
      "Ã¼": 7943,
      "Ġmole": 7944,
      "Ġfash": 7945,
      "ĠSand": 7946,
      "Ġunderstood": 7947,
      "Ġeconomy": 7948,
      "Ġbinary": 7949,
      "AIN": 7950,
      "Ġrise": 7951,
      "example.com": 7952,
      "Ġpars": 7953,
      "Ġpanel": 7954,
      "Ġestablished": 7955,
      "Ġbrown": 7956,
      "ter,": 7957,
      "Ġthing,": 7958,
      "Ġalle": 7959,
      "Ġrepeated": 7960,
      "Ġ(\"": 7961,
      "ĠJSON": 7962,
      "Ġphen": 7963,
      "oday": 7964,
      "cknow": 7965,
      "Ġtoken": 7966,
      "eps": 7967,
      "Ġ(int": 7968,
      "Ġsides": 7969,
      "fast": 7970,
      "Ġtwist": 7971,
      "Ġuse.": 7972,
      "Ġstory,": 7973,
      "Ġvs": 7974,
      "Ġcab": 7975,
      "onym": 7976,
      "Ð¾Ð²": 7977,
      "ĠCheck": 7978,
      "Ġlisted": 7979,
      "Ġconfused": 7980,
      "ĠâĢľThe": 7981,
      "net/": 7982,
      "Ġsurprise": 7983,
      "Ċmy": 7984,
      "lies": 7985,
      "ĠAssoci": 7986,
      "Ġtechnical": 7987,
      "Ġrevealed": 7988,
      "ĠDB": 7989,
      "Ġawk": 7990,
      "EST": 7991,
      "control": 7992,
      "Ġeverywhere": 7993,
      "Ġresulting": 7994,
      "Ġupdates": 7995,
      "Ġsigned": 7996,
      "Ġbuffer": 7997,
      "Ċwhere": 7998,
      "Ġhopefully": 7999,
      "Ġhundreds": 8000,
      "Ġmore,": 8001,
      "Ġnoise": 8002,
      ".js": 8003,
      "Ġforms": 8004,
      "ĠSH": 8005,
      "Ġvent": 8006,
      "ba": 8007,
      "Ġofficials": 8008,
      "ĊNote": 8009,
      "ollow": 8010,
      "Ġroute": 8011,
      "Ġ\"Not": 8012,
      "ĊBe": 8013,
      "Ġsav": 8014,
      "Ġexplained": 8015,
      "emory": 8016,
      "Ġtruck": 8017,
      "Ġfootball": 8018,
      "Ġoccup": 8019,
      "Ġtypically": 8020,
      "chron": 8021,
      "Ġindividuals": 8022,
      "hens": 8023,
      "framework": 8024,
      "Ġcoach": 8025,
      "-R": 8026,
      "Ġprices": 8027,
      "Ġsust": 8028,
      "Ġremem": 8029,
      "Ġhat": 8030,
      "Edit": 8031,
      "Ġing": 8032,
      "Ġpurs": 8033,
      "Ġtiss": 8034,
      "Ġprocess.": 8035,
      "Ġresear": 8036,
      "-e": 8037,
      "ailed": 8038,
      "(v": 8039,
      "!)": 8040,
      "iger": 8041,
      "Ġ300": 8042,
      "ĊâĢľWe": 8043,
      "reddit": 8044,
      "Ġnavig": 8045,
      "Ġcrowd": 8046,
      "Ġmission": 8047,
      "Ġbattery": 8048,
      "ĠPS": 8049,
      "arl": 8050,
      "ecurity": 8051,
      "Ġstorm": 8052,
      "hetic": 8053,
      "ago": 8054,
      "etime": 8055,
      "Ġprepar": 8056,
      "Ċ7": 8057,
      "Ġgeneration": 8058,
      "Ġcomparison": 8059,
      "den": 8060,
      "Ġdiss": 8061,
      "(0,": 8062,
      "ching": 8063,
      "pered": 8064,
      "{\\": 8065,
      "%)": 8066,
      "ĠHel": 8067,
      "Ġcache": 8068,
      "Ġwas.": 8069,
      "Ġsystem,": 8070,
      "Ġhome,": 8071,
      "Ġfavour": 8072,
      "bered": 8073,
      "ĠLa": 8074,
      "ill,": 8075,
      "abilities": 8076,
      "UST": 8077,
      "Ġliqu": 8078,
      "Ġi've": 8079,
      "io.": 8080,
      "ERR": 8081,
      "ome.": 8082,
      "ector": 8083,
      "ĠUse": 8084,
      "Ġconstr": 8085,
      "LY": 8086,
      "Ġopposite": 8087,
      "Ġrapid": 8088,
      "Ġangry": 8089,
      "Good": 8090,
      "ĠSC": 8091,
      "83": 8092,
      "IES": 8093,
      "Ġpackages": 8094,
      "Page": 8095,
      "ifferent": 8096,
      "ĠHowever": 8097,
      "agram": 8098,
      "\"),": 8099,
      "Ġequivalent": 8100,
      "empl": 8101,
      "BS": 8102,
      "URE": 8103,
      "Ġtables": 8104,
      "ionally": 8105,
      "cos": 8106,
      "/C": 8107,
      "Ġthat?": 8108,
      "icing": 8109,
      "sd": 8110,
      "Ġlinked": 8111,
      "len": 8112,
      "Ġwho's": 8113,
      "andon": 8114,
      "Ġcrime": 8115,
      "Version": 8116,
      "Ġarrived": 8117,
      "Ġhim.\"": 8118,
      "Handler": 8119,
      "Ġviews": 8120,
      "ĠCOM": 8121,
      "Ġlayout": 8122,
      "Ġbind": 8123,
      "Ġce": 8124,
      "legal": 8125,
      "blog": 8126,
      "Ġcurious": 8127,
      "Ġsharp": 8128,
      "ĠCall": 8129,
      "oma": 8130,
      "Ġright?": 8131,
      "cluding": 8132,
      "ĠBre": 8133,
      "Ġhole": 8134,
      "est.": 8135,
      "Ġevil": 8136,
      "TS": 8137,
      "Ġwords,": 8138,
      "Hey": 8139,
      "atin": 8140,
      "eah.\"": 8141,
      "LD": 8142,
      "comfort": 8143,
      "ors,": 8144,
      "Ġdivide": 8145,
      "********************************": 8146,
      "Ġschedul": 8147,
      "ĠSk": 8148,
      "Ġicon": 8149,
      "Ġraw": 8150,
      "Em": 8151,
      "Ġfolks": 8152,
      "Ġvert": 8153,
      "Ġ$1": 8154,
      "ervices": 8155,
      "Ġloo": 8156,
      "Ġtears": 8157,
      "Ġessentially": 8158,
      "Ġplain": 8159,
      "Ġpipe": 8160,
      "arry": 8161,
      "road": 8162,
      "Ġandroid.": 8163,
      "Ġwealth": 8164,
      "rid": 8165,
      "Ġ..": 8166,
      "Ġ{}": 8167,
      "Ġsurger": 8168,
      "Ab": 8169,
      "fortunately,": 8170,
      "Ġ\"K": 8171,
      "Ġtechniqu": 8172,
      "Ġ\"Hey,": 8173,
      "ĠMike": 8174,
      "ter.": 8175,
      "Ġputs": 8176,
      "Ġcalm": 8177,
      "ĠLook": 8178,
      "Ġreduced": 8179,
      "Ġinner": 8180,
      "function": 8181,
      "ĠVis": 8182,
      "Ġpurchased": 8183,
      "Ġupset": 8184,
      "uing": 8185,
      "dule": 8186,
      "Ġtrial": 8187,
      "ĠService": 8188,
      "Ġconfidence": 8189,
      "arden": 8190,
      "ARE": 8191,
      "ĠSt.": 8192,
      "umer": 8193,
      "Ġ\"He's": 8194,
      "ords": 8195,
      "C.": 8196,
      "itty": 8197,
      "-like": 8198,
      "igration": 8199,
      "Ġdram": 8200,
      "ĠBank": 8201,
      "Ġlabor": 8202,
      "Ġblind": 8203,
      "82": 8204,
      "Phone": 8205,
      "ructure": 8206,
      "orough": 8207,
      "Ġmixed": 8208,
      "ĊJust": 8209,
      "itics": 8210,
      "adata": 8211,
      "Ġcorresponding": 8212,
      "Ġremaining": 8213,
      "ASS": 8214,
      "Ġloose": 8215,
      "ĊĊĠĠĠĠĠĠĠĠĠĠĠĠĠĠĠ": 8216,
      "-)": 8217,
      "ract": 8218,
      "igen": 8219,
      "Ġposts": 8220,
      "-201": 8221,
      "produ": 8222,
      "Ġpump": 8223,
      "Ġlic": 8224,
      "ading": 8225,
      "ĠGen": 8226,
      "OVID": 8227,
      "update": 8228,
      "-12": 8229,
      "Ġtypical": 8230,
      "Ġtrigger": 8231,
      "..\"": 8232,
      "Ġdinner": 8233,
      "Ġ2020": 8234,
      "Ġstated": 8235,
      "ics.": 8236,
      "NET": 8237,
      "/S": 8238,
      "Ġextended": 8239,
      "Ġline.": 8240,
      "ĠMary": 8241,
      "imgur": 8242,
      "63": 8243,
      "Ġsenior": 8244,
      "s,\"": 8245,
      "ĊFirst": 8246,
      "Ġchart": 8247,
      "Ġhadn't": 8248,
      "Ġpul": 8249,
      "Ġ1/": 8250,
      "v.": 8251,
      "Ġcateg": 8252,
      "uri": 8253,
      "Ġwriter": 8254,
      "Ġmanual": 8255,
      "Ġepisode": 8256,
      "Ġmoments": 8257,
      "ĠGovern": 8258,
      "ĠMake": 8259,
      "ually,": 8260,
      "Ġprofit": 8261,
      "rr": 8262,
      "ĠMill": 8263,
      "ĠNow,": 8264,
      "Ġsomething.": 8265,
      "Ġseed": 8266,
      "ĠDan": 8267,
      "Ġwell-": 8268,
      "Ġclaims": 8269,
      "ol.": 8270,
      "Ġindu": 8271,
      "Ġcircumst": 8272,
      "ablish": 8273,
      "Ġteach": 8274,
      "DS": 8275,
      "Ġgig": 8276,
      "endif": 8277,
      "Ġkeyboard": 8278,
      "Ġmoment,": 8279,
      "ucky": 8280,
      "ĠTor": 8281,
      "Ġ$('": 8282,
      "imgur.com/": 8283,
      "Ġscenario": 8284,
      "Ġside.": 8285,
      "Ġisland": 8286,
      "_in": 8287,
      "ĊâĢľThe": 8288,
      "Ġowner": 8289,
      "gent": 8290,
      "ĠVery": 8291,
      "Ġpopul": 8292,
      "aniel": 8293,
      "Ġ\"Is": 8294,
      ")(": 8295,
      "Ġ(W": 8296,
      "ĠSP": 8297,
      "Ġimmediate": 8298,
      "Ġshout": 8299,
      "Ġagent": 8300,
      "Ġbehaviour": 8301,
      "Ġfamilies": 8302,
      "istory": 8303,
      "ĠThose": 8304,
      "ĠSecond": 8305,
      "Ġcode,": 8306,
      "ano": 8307,
      ":30": 8308,
      "Ġend,": 8309,
      "Ġcris": 8310,
      "Ġhere's": 8311,
      "Ġtogether,": 8312,
      "Ġtype=\"text": 8313,
      "Ġhead,": 8314,
      "Ġmind.": 8315,
      "ĠUSB": 8316,
      "Ġgirlfriend": 8317,
      "](http://www.": 8318,
      "Ġthin": 8319,
      "Ġ\"h": 8320,
      "ĠHE": 8321,
      "ĠJ.": 8322,
      "âĶĢ": 8323,
      "allel": 8324,
      "Ġhey": 8325,
      "ĠBut,": 8326,
      "Ġsuccessfully": 8327,
      "1.0": 8328,
      "Ċk": 8329,
      "Ġdangerous": 8330,
      "INE": 8331,
      "Ġefforts": 8332,
      "ĠtheyâĢĻre": 8333,
      "Ġsighed": 8334,
      "Ġthrows": 8335,
      "Ġoperating": 8336,
      "Ġrating": 8337,
      "Ġarguments": 8338,
      "DA": 8339,
      "Ġdelet": 8340,
      "ĠLuc": 8341,
      "ĠCanada": 8342,
      "_w": 8343,
      "Ġgrown": 8344,
      "Ġover.": 8345,
      "Ġname.": 8346,
      "ĊâĢľS": 8347,
      "Ġfantastic": 8348,
      "sor": 8349,
      "Author's": 8350,
      "ĠLong": 8351,
      "Ġgreatly": 8352,
      "Ġprocedure": 8353,
      "omic": 8354,
      "response": 8355,
      "ĠScience": 8356,
      "Ġ(see": 8357,
      "Ġunivers": 8358,
      "ATH": 8359,
      "II.": 8360,
      "Ġprocessing": 8361,
      "onic": 8362,
      ".add": 8363,
      "TO": 8364,
      "Ġfellow": 8365,
      "Ġconven": 8366,
      "Ċ\"You": 8367,
      "imp": 8368,
      "Ċcon": 8369,
      "Ġ2019": 8370,
      "unning": 8371,
      "ĠNote:**": 8372,
      "enter": 8373,
      "Ġcycle": 8374,
      "untime": 8375,
      "ĠSaturday": 8376,
      "Ġreplaced": 8377,
      "Ġcant": 8378,
      "Ġliterature": 8379,
      "Ġsmoke": 8380,
      "ÑĢÐ°": 8381,
      "ĠâĢ¦": 8382,
      "Ġthey've": 8383,
      "Ġdisk": 8384,
      "Ġaccepted": 8385,
      "Ġquestion,": 8386,
      "tex": 8387,
      "Ġtall": 8388,
      "akers": 8389,
      "Ġacknow": 8390,
      "Ġinject": 8391,
      "Ġaside": 8392,
      "Ġvalue.": 8393,
      "Ġretrie": 8394,
      "Ġown.": 8395,
      "Ġdisag": 8396,
      "edy": 8397,
      "ĊInst": 8398,
      "Ġ2008": 8399,
      "Child": 8400,
      "ĠCopyright": 8401,
      "Ġ6,": 8402,
      "Ġmodify": 8403,
      "Ġshoulder": 8404,
      "ism,": 8405,
      "300": 8406,
      "ĠSmith": 8407,
      "Ġbathroom": 8408,
      "Ġgather": 8409,
      "Ġchose": 8410,
      "Ġsecure": 8411,
      "Pos": 8412,
      "ĠEs": 8413,
      "]]": 8414,
      "unte": 8415,
      "itud": 8416,
      "ĠJesus": 8417,
      "Off": 8418,
      "ĠCounty": 8419,
      "MP": 8420,
      "ĠGN": 8421,
      "standing": 8422,
      "Ġdepartment": 8423,
      "ĠÂ£": 8424,
      "Ġdays,": 8425,
      "Ġexport": 8426,
      "Ġcompetition": 8427,
      "over,": 8428,
      "________________": 8429,
      "b,": 8430,
      "ĠLaw": 8431,
      "ves,": 8432,
      "ĠSil": 8433,
      "Ġalign": 8434,
      "Ġhimself.": 8435,
      "Ġmurder": 8436,
      "Ġbo": 8437,
      "-H": 8438,
      "max": 8439,
      "ĊCol": 8440,
      "header": 8441,
      "sty": 8442,
      "Ġoperations": 8443,
      "perties": 8444,
      "Ġholiday": 8445,
      "Ġanimals": 8446,
      "Can": 8447,
      "bel": 8448,
      "EC": 8449,
      "ji": 8450,
      "Ġexpecting": 8451,
      "Ġlaun": 8452,
      "Ð·": 8453,
      "fess": 8454,
      "ĊNot": 8455,
      "Frame": 8456,
      "zed": 8457,
      "ownload": 8458,
      "bably": 8459,
      "call": 8460,
      ":(": 8461,
      "Ġcontrast": 8462,
      "Ġsmallest": 8463,
      "ĠStreet": 8464,
      "Ċ**Author's": 8465,
      "Ġdump": 8466,
      "BA": 8467,
      "Ġstrict": 8468,
      "Ġopens": 8469,
      "ORE": 8470,
      "ifact": 8471,
      "appy": 8472,
      "Ġlinux": 8473,
      "Ġtor": 8474,
      "ipedia": 8475,
      "ĠKey": 8476,
      "Ġbell": 8477,
      "ator.": 8478,
      "ena": 8479,
      "\\t": 8480,
      "Ġanymore.": 8481,
      "Format": 8482,
      "Ġneut": 8483,
      "Ġfine,": 8484,
      "/D": 8485,
      "ini": 8486,
      "ĠVer": 8487,
      "Ġjudge": 8488,
      "Ġflav": 8489,
      "Net": 8490,
      "Ġclients": 8491,
      "Ġrecommended": 8492,
      "Ġjson": 8493,
      "ĠFebruary": 8494,
      "ĊOr": 8495,
      "find": 8496,
      "ĠÂµ": 8497,
      "ĉ/*": 8498,
      "ĊĊĉ": 8499,
      "}\"": 8500,
      "Ġuniver": 8501,
      "omy": 8502,
      "ĠRel": 8503,
      "ĠÑģ": 8504,
      "Ġcompat": 8505,
      "ĠâĢľW": 8506,
      "Ġcommunication": 8507,
      "Ġpromot": 8508,
      "Ġintention": 8509,
      "Ġapartment": 8510,
      "annot": 8511,
      "ĠCourt": 8512,
      "Ġschools": 8513,
      "chem": 8514,
      "bal": 8515,
      "burg": 8516,
      "Ġenemy": 8517,
      "AST": 8518,
      "ĠCPU": 8519,
      "ingu": 8520,
      "Ġadopt": 8521,
      "ĠĊĠĠĠĠĠĠĠ": 8522,
      "Ġnorth": 8523,
      "Ġadds": 8524,
      "Ġyet,": 8525,
      "ĠEvent": 8526,
      "Ġpub": 8527,
      "Ġtail": 8528,
      "Id>": 8529,
      "Ġimplemented": 8530,
      "Ġlen": 8531,
      "crete": 8532,
      "shot": 8533,
      "hi": 8534,
      "Ġcomplet": 8535,
      "Ġbear": 8536,
      "ingle": 8537,
      "ĊSte": 8538,
      "Ext": 8539,
      "dir": 8540,
      "Ġdata,": 8541,
      "hab": 8542,
      "_set": 8543,
      "false": 8544,
      "ĠClint": 8545,
      "Ġacting": 8546,
      "ice,": 8547,
      "care": 8548,
      "umin": 8549,
      "Ġincredibly": 8550,
      "Aut": 8551,
      "Ċ...": 8552,
      "Ġsuc": 8553,
      "iders": 8554,
      "Ġ(w": 8555,
      "ĠMain": 8556,
      "rick": 8557,
      "s,âĢĿ": 8558,
      "Ġ[[": 8559,
      "Ġsport": 8560,
      "ĠC.": 8561,
      "Ġconfident": 8562,
      "Ġlogin": 8563,
      "</td>": 8564,
      "Ġunknown": 8565,
      "Ġreturning": 8566,
      "Ġanti": 8567,
      "yout": 8568,
      "cp": 8569,
      "Ġlunch": 8570,
      "edit": 8571,
      "7)": 8572,
      "Ġessential": 8573,
      "ĠBrown": 8574,
      "_V": 8575,
      "Ġsin": 8576,
      "ĠHam": 8577,
      "Ġinstr": 8578,
      "Ġdatab": 8579,
      "Ġfile,": 8580,
      "Ġfunctionality": 8581,
      "Ġacid": 8582,
      "ota": 8583,
      "Ġforum": 8584,
      "ĠweâĢĻre": 8585,
      "Ġdivis": 8586,
      "Ġfacing": 8587,
      "92": 8588,
      "Ġ(i": 8589,
      "Ġtrend": 8590,
      "Ġsli": 8591,
      "count": 8592,
      "ĠCS": 8593,
      ")$": 8594,
      "Ġcriter": 8595,
      "Ġ\"g": 8596,
      "93": 8597,
      "ĠNo.": 8598,
      "kg": 8599,
      "ĠWAR": 8600,
      "Ġsess": 8601,
      "Ġselling": 8602,
      "ĊFrom": 8603,
      "Ġdrunk": 8604,
      "Resource": 8605,
      "58": 8606,
      "imm": 8607,
      "Ġped": 8608,
      "âĪĴ": 8609,
      "h.": 8610,
      "ĠShould": 8611,
      "ĠSal": 8612,
      "rence": 8613,
      "Ġwet": 8614,
      "ĠHy": 8615,
      "Ġdefe": 8616,
      "Ġaround.": 8617,
      "/r": 8618,
      "Ġbreak;": 8619,
      "Ġdumb": 8620,
      "scope": 8621,
      "ĠCode": 8622,
      "izont": 8623,
      "ĠRussian": 8624,
      "Ġgrabbed": 8625,
      "Ġphilos": 8626,
      "id=": 8627,
      "Ġ\"w": 8628,
      "'),": 8629,
      "ĠBet": 8630,
      "outhern": 8631,
      "ed:": 8632,
      "Ġcrash": 8633,
      "arrass": 8634,
      "Ġtable.": 8635,
      "Ġleaders": 8636,
      "Ġshooting": 8637,
      "Ġ$x": 8638,
      "Ġjoy": 8639,
      "ĠHas": 8640,
      "ĠInc.": 8641,
      "Ġfuel": 8642,
      "Ġspecified": 8643,
      "ĠGive": 8644,
      "man,": 8645,
      "draw": 8646,
      "Ñħ": 8647,
      "Ġreasonable": 8648,
      "plot": 8649,
      "Ġaffected": 8650,
      "Ġchuck": 8651,
      "ary.": 8652,
      "Ġare,": 8653,
      "ĠJul": 8654,
      "-x": 8655,
      "Task": 8656,
      "anner": 8657,
      "ities,": 8658,
      "chers": 8659,
      "bi": 8660,
      "Ġjoined": 8661,
      "println": 8662,
      "Ġwinning": 8663,
      "Ġsharing": 8664,
      "Ġlaid": 8665,
      "Ġcode:": 8666,
      "Ġ31": 8667,
      "bled": 8668,
      "ivered": 8669,
      "Ġvul": 8670,
      "Ġvehicle": 8671,
      "Gener": 8672,
      "Ġlegis": 8673,
      "}.": 8674,
      "ĠBO": 8675,
      "Ġcars": 8676,
      "phas": 8677,
      "Ġsearching": 8678,
      "Ġcreates": 8679,
      "_i": 8680,
      "Ġawkward": 8681,
      "wiki/": 8682,
      "ications": 8683,
      "Ġinsurance": 8684,
      "Ġface,": 8685,
      "Ġratio": 8686,
      "Ġconsole": 8687,
      "Ġmel": 8688,
      "Ġalive": 8689,
      "Ġdrawn": 8690,
      "ĠEngine": 8691,
      "Ċ+": 8692,
      "ĠTeam": 8693,
      "Ġblow": 8694,
      "Ġ(if": 8695,
      "afe": 8696,
      "Ġinstant": 8697,
      "73": 8698,
      "Ġdistinct": 8699,
      "Ġ(h": 8700,
      "Ġ\"St": 8701,
      "ato": 8702,
      "\\\"": 8703,
      "Ġ(x": 8704,
      "pload": 8705,
      "anta": 8706,
      "ĠHell": 8707,
      "Ġpit": 8708,
      "Ġclothes": 8709,
      "(data": 8710,
      "usiness": 8711,
      "inking": 8712,
      "missions": 8713,
      "ube.": 8714,
      "ĠDi": 8715,
      "Ġtheore": 8716,
      "ard,": 8717,
      "Ġappoint": 8718,
      "ĠBack": 8719,
      "Ċconst": 8720,
      "Ġfundament": 8721,
      "Url": 8722,
      "Ġconsole.log": 8723,
      "Ġincident": 8724,
      "ura": 8725,
      "mathbb{": 8726,
      "Ġ^": 8727,
      "uts": 8728,
      "Ġhistorical": 8729,
      "(w": 8730,
      "icial": 8731,
      "Ġnull)": 8732,
      "rior": 8733,
      "icker": 8734,
      "Ġexit": 8735,
      "Ġdistrict": 8736,
      "Ġpand": 8737,
      "Ġbackup": 8738,
      "ccount": 8739,
      "ĠNews": 8740,
      "-v": 8741,
      "53": 8742,
      "ĠMod": 8743,
      "Ġ\\frac{": 8744,
      "Ġscan": 8745,
      "Ġextr": 8746,
      "Ġcapable": 8747,
      "Ġuniversity": 8748,
      "Ġcolumns": 8749,
      "ston": 8750,
      "VM": 8751,
      "Ġteeth": 8752,
      "ĠChris": 8753,
      "Ġsufficient": 8754,
      "ĠNone": 8755,
      "Ġcos": 8756,
      "Ġ\"Just": 8757,
      "Ġwww": 8758,
      "core": 8759,
      "Ġcompleted": 8760,
      "Ġ\"Who": 8761,
      "Ġtheme": 8762,
      "qrt": 8763,
      "62": 8764,
      "ĠMex": 8765,
      "Vis": 8766,
      "process": 8767,
      "fit": 8768,
      "ĊInt": 8769,
      "Ġphotos": 8770,
      "ism.": 8771,
      "Ġconfirmed": 8772,
      "Ċend": 8773,
      "ader": 8774,
      "son,": 8775,
      "Ġsan": 8776,
      "Ġmaterials": 8777,
      "âĢĿ.": 8778,
      "Ċ\"The": 8779,
      "style": 8780,
      "aver": 8781,
      "Ġtalent": 8782,
      "Ġsea": 8783,
      "Ġmoder": 8784,
      "Ġ1000": 8785,
      "Ġdollar": 8786,
      "ĠEdit:": 8787,
      "Ġprocesses": 8788,
      "raq": 8789,
      "ao": 8790,
      "Ġadministration": 8791,
      "Ġlawy": 8792,
      "ĠCast": 8793,
      "Bl": 8794,
      "ĠNY": 8795,
      "Ċv": 8796,
      "Ġseek": 8797,
      "Ġ7,": 8798,
      "Ġresponsibility": 8799,
      ")))": 8800,
      "Ġconcentr": 8801,
      "ĠMil": 8802,
      "anks": 8803,
      "Ġtast": 8804,
      "Ġthemsel": 8805,
      "ĊX": 8806,
      "etc": 8807,
      "Ġmoney.": 8808,
      "nav": 8809,
      "Ġjoint": 8810,
      "ambda": 8811,
      "ments.": 8812,
      "ĠTry": 8813,
      "/11": 8814,
      "PM": 8815,
      "exp": 8816,
      "ĠStart": 8817,
      "Ġevening": 8818,
      "Ġsouth": 8819,
      "Ġclass.": 8820,
      "Ġregret": 8821,
      "Ġadvanced": 8822,
      "Ġside,": 8823,
      "(M": 8824,
      "ĠBob": 8825,
      "Ġexpressed": 8826,
      "Ġbreast": 8827,
      "Ġ\"Look": 8828,
      "ifer": 8829,
      "ĠWin": 8830,
      "ĠSource": 8831,
      "clos": 8832,
      "Write": 8833,
      "Ġknow.\"": 8834,
      "ĠSM": 8835,
      "Ġerror:": 8836,
      "ĠMedicine": 8837,
      "âķ": 8838,
      "Ġabuse": 8839,
      "Ġbat": 8840,
      "Ġconsistent": 8841,
      "ĠCould": 8842,
      "@example.com": 8843,
      "(String": 8844,
      "Ġkinds": 8845,
      "Ġsucc": 8846,
      "Ġoffset": 8847,
      "ĠFranc": 8848,
      "_size": 8849,
      "undle": 8850,
      "ĠS.": 8851,
      "Ġlights": 8852,
      "line.": 8853,
      "Check": 8854,
      "ĠCollege": 8855,
      "52": 8856,
      "Ġmanually": 8857,
      "Ġ\"$": 8858,
      "ĠAnn": 8859,
      "ch,": 8860,
      "Ġcoupl": 8861,
      "\\n\",": 8862,
      "ĠApache": 8863,
      "Ġcombined": 8864,
      "Connection": 8865,
      "ala": 8866,
      "gex": 8867,
      "Ġbytes": 8868,
      "access": 8869,
      "Ġoriginally": 8870,
      "ĠSir": 8871,
      "Ġfuture.": 8872,
      "break": 8873,
      "Ġthrown": 8874,
      "ĠWhe": 8875,
      "ferences": 8876,
      "Ġacadem": 8877,
      "Ġsubmit": 8878,
      "Ġstead": 8879,
      "tings": 8880,
      "Ġsaving": 8881,
      "th,": 8882,
      "Ġanything,": 8883,
      "Ġ10,": 8884,
      "Ġattach": 8885,
      "expected": 8886,
      "Ġtear": 8887,
      "41": 8888,
      "%,": 8889,
      "Ġideal": 8890,
      "Ġobj": 8891,
      "Width": 8892,
      "Ġtaught": 8893,
      "Ġfirst.": 8894,
      "Â°": 8895,
      "ch.": 8896,
      "iel": 8897,
      "Ġpotentially": 8898,
      "Ġexperiences": 8899,
      "Ġdepress": 8900,
      "Ġinterrupt": 8901,
      "Back": 8902,
      "inte": 8903,
      "Ġother,": 8904,
      "Ċhe": 8905,
      "Ġtemp": 8906,
      "ĠTuesday": 8907,
      "Ġblame": 8908,
      "(h": 8909,
      "%%": 8910,
      "Ġserved": 8911,
      "Ġannual": 8912,
      "est,": 8913,
      "Ġloaded": 8914,
      "V.": 8915,
      "f(\"": 8916,
      "Status": 8917,
      "ournal": 8918,
      "Ġreply": 8919,
      "oked": 8920,
      "Ġinvent": 8921,
      "assert": 8922,
      "Ġwrapped": 8923,
      "Ġ$2": 8924,
      "Ġdelivery": 8925,
      "ĠCalifornia": 8926,
      "celer": 8927,
      "yy": 8928,
      "Ġexecute": 8929,
      "Ġinteraction": 8930,
      "cm": 8931,
      "Ġforest": 8932,
      "Ġwrt": 8933,
      "Ġsame.": 8934,
      "d,": 8935,
      "Ġchosen": 8936,
      "Ġfool": 8937,
      "Ġ\"n": 8938,
      "Dear": 8939,
      "Ġmeasured": 8940,
      "Ġnuclear": 8941,
      "Ġlas": 8942,
      "Ġenough.": 8943,
      "Ġbelieved": 8944,
      "Ġnic": 8945,
      "Ġoffering": 8946,
      "Ġdetailed": 8947,
      "Application": 8948,
      "Ġ\"Are": 8949,
      "Ġman.": 8950,
      "ester": 8951,
      "Ġwitness": 8952,
      "(i": 8953,
      "K,": 8954,
      "admin": 8955,
      "Don": 8956,
      "clipse": 8957,
      "Ġmath": 8958,
      "ĠDa": 8959,
      "Ġcolors": 8960,
      "itial": 8961,
      "entry": 8962,
      "Ġrecognize": 8963,
      "Ġ\"l": 8964,
      "Ġdoor.": 8965,
      ".M": 8966,
      "Ġnow.\"": 8967,
      "Ġjoke": 8968,
      "efined": 8969,
      "noon": 8970,
      "Ø§": 8971,
      "Ġ),": 8972,
      "ĠâĢľS": 8973,
      "Ġlater.": 8974,
      "Prov": 8975,
      "Ut": 8976,
      "Ġstands": 8977,
      "imple": 8978,
      "erk": 8979,
      "Ġsear": 8980,
      "Ġsigh": 8981,
      "ĊĠĠĠĠĠĠĠĠĠĠĠĠĠĠ": 8982,
      "ĊâĢľWhat": 8983,
      "Project": 8984,
      "Ċare": 8985,
      "Ċ/**": 8986,
      "Ġspecify": 8987,
      "ĠâĢľWe": 8988,
      "Ġchemical": 8989,
      "Ġsupports": 8990,
      "ĊHis": 8991,
      "_A": 8992,
      "Ġmotor": 8993,
      "Ġshook": 8994,
      "Ġbot": 8995,
      "\\frac{": 8996,
      "Ġpurpos": 8997,
      "Command": 8998,
      "rog": 8999,
      "ĠSoftware": 9000,
      "ĊAd": 9001,
      "Ġ<=": 9002,
      "Ġwound": 9003,
      "Ġhorrible": 9004,
      "ĠVir": 9005,
      "Ġjourney": 9006,
      "ĊDo": 9007,
      "ĠWas": 9008,
      "ĠIslam": 9009,
      "er:": 9010,
      "oong": 9011,
      "Ġfits": 9012,
      "Ġembarrass": 9013,
      "Ġweapons": 9014,
      "Ġmuch,": 9015,
      "ĊYour": 9016,
      "ĠWal": 9017,
      "Ġsociet": 9018,
      "Ġmm": 9019,
      "l,": 9020,
      "bert": 9021,
      "Ġthrew": 9022,
      "Ġ2009": 9023,
      "Ġmagnet": 9024,
      "Ġdrawing": 9025,
      "ria": 9026,
      "ĠNothing": 9027,
      "ĠFurther": 9028,
      "Ġmanip": 9029,
      "ixel": 9030,
      "Ġconsult": 9031,
      "Ġ>=": 9032,
      "edu": 9033,
      "sk": 9034,
      "Ġoccurred": 9035,
      "Ġbyte": 9036,
      "Ġmyst": 9037,
      "(k": 9038,
      "No,": 9039,
      "Ġ48": 9040,
      "Ġfasc": 9041,
      "ĠOh,": 9042,
      "Ġstaring": 9043,
      "Ġ(19": 9044,
      "Ġë": 9045,
      "Ġ2.0": 9046,
      "Ġembed": 9047,
      "Ġscientific": 9048,
      "anda": 9049,
      "Ġ<li": 9050,
      "Server": 9051,
      "Ġlucky": 9052,
      "oded": 9053,
      "ĠArch": 9054,
      "Ġrepository": 9055,
      "Ġmotion": 9056,
      "graph": 9057,
      "Char": 9058,
      "Ġsmil": 9059,
      "ĠDevelop": 9060,
      "Ġright.\"": 9061,
      "Ġgre": 9062,
      "-F": 9063,
      "Ġalright": 9064,
      "ĠTHIS": 9065,
      "ita": 9066,
      "Ġ===": 9067,
      "Ġske": 9068,
      "ĠC++": 9069,
      "Ġpassion": 9070,
      "o's": 9071,
      "Ġexclus": 9072,
      "ODE": 9073,
      "van": 9074,
      "LS": 9075,
      "Ġsurvey": 9076,
      "Ġrolled": 9077,
      "Ġanyway.": 9078,
      "nam": 9079,
      "Ġreceiving": 9080,
      "ĠThursday": 9081,
      "BI": 9082,
      "Open": 9083,
      "gun": 9084,
      "ĠM.": 9085,
      "(T": 9086,
      "Ġrecall": 9087,
      "ĠDec": 9088,
      "Ġillustr": 9089,
      "ĠFind": 9090,
      "sey": 9091,
      "EXT": 9092,
      "amespace": 9093,
      "Ġsubsequ": 9094,
      "war": 9095,
      "Ġare.": 9096,
      "Ġplanned": 9097,
      "ĠPerson": 9098,
      "ĠBay": 9099,
      "ĠALL": 9100,
      "Http": 9101,
      "Ġreviews": 9102,
      "resents": 9103,
      "Ġstayed": 9104,
      "Ġ2000": 9105,
      "Ġju": 9106,
      "Ġexpans": 9107,
      "Ġcandidate": 9108,
      "Ġcapacity": 9109,
      "ĠUSA": 9110,
      "-20": 9111,
      "Ġ(like": 9112,
      "Ġit'll": 9113,
      "Ġlaughing": 9114,
      "ĠNo,": 9115,
      "rehens": 9116,
      "Ġpressed": 9117,
      "_list": 9118,
      "Ġ[1": 9119,
      "iated": 9120,
      "-N": 9121,
      "ĠHen": 9122,
      "ĠLink": 9123,
      "Ċ8": 9124,
      "Ġbe,": 9125,
      "endar": 9126,
      "Ġpretend": 9127,
      "Ġservers": 9128,
      "Ġserver.": 9129,
      "gi": 9130,
      "Style": 9131,
      "04": 9132,
      "Ġcomplicated": 9133,
      "GE": 9134,
      "Ġplace,": 9135,
      "Ġbless": 9136,
      "ĠChurch": 9137,
      "OME": 9138,
      "whel": 9139,
      "ìĿ": 9140,
      "Ġdiscover": 9141,
      "ĠDNA": 9142,
      "/10": 9143,
      "Ġexhib": 9144,
      "Ġ})": 9145,
      "Ġexplore": 9146,
      "libr": 9147,
      "incip": 9148,
      "olid": 9149,
      "remove": 9150,
      "Ġsyntax": 9151,
      "indows": 9152,
      "Ġrequests": 9153,
      "Ġexcit": 9154,
      "ĊCl": 9155,
      "âĢĵ": 9156,
      "CS": 9157,
      "Ġaddition,": 9158,
      "Ġchange.": 9159,
      "Ġinfin": 9160,
      "Ġinformation.": 9161,
      "Ċ201": 9162,
      "(B": 9163,
      "ibrary": 9164,
      "ULT": 9165,
      "then": 9166,
      "@\"": 9167,
      "Ġplane": 9168,
      "eger": 9169,
      "Ġflaw": 9170,
      "Ġestablish": 9171,
      "Ġfrequency": 9172,
      "Ċ10": 9173,
      "Ġhits": 9174,
      "org.": 9175,
      "Ġ37": 9176,
      "Ġdatas": 9177,
      "Ġinterval": 9178,
      "OUR": 9179,
      "Ġdriv": 9180,
      "->get": 9181,
      "Ċso": 9182,
      "ĠJoe": 9183,
      "lder": 9184,
      "isation": 9185,
      "ĠPut": 9186,
      "Ġ(l": 9187,
      "Ġimproved": 9188,
      "Ġvirus": 9189,
      "Ġworks.": 9190,
      "Ġintent": 9191,
      "-3.": 9192,
      "esc": 9193,
      "lt;": 9194,
      "ifications": 9195,
      "Ġnarrow": 9196,
      "Ġmillions": 9197,
      "(g": 9198,
      "Ġlists": 9199,
      "isters": 9200,
      "Ġresolution": 9201,
      "um,": 9202,
      "Ġalcohol": 9203,
      "Ġnoted": 9204,
      "greg": 9205,
      "Ġangle": 9206,
      "haust": 9207,
      "_de": 9208,
      "ĠFore": 9209,
      "Ġtalks": 9210,
      "istent": 9211,
      "p,": 9212,
      "Ġcircle": 9213,
      "eless": 9214,
      "_g": 9215,
      "Ġp.m.": 9216,
      "Ġspark": 9217,
      "Ġcriminal": 9218,
      "âĢĺâĢĺ": 9219,
      "ĠPower": 9220,
      "Ġrecip": 9221,
      "Ġlit": 9222,
      "only": 9223,
      "Ġmigr": 9224,
      "Ġshoes": 9225,
      "ĊCheers,": 9226,
      "Ġlying": 9227,
      "VD": 9228,
      "1;": 9229,
      "Ġthrowing": 9230,
      "Ġinvolve": 9231,
      "Ġasks": 9232,
      "Ġhardly": 9233,
      "estic": 9234,
      "thread": 9235,
      "ĠIraq": 9236,
      "ycl": 9237,
      "Ġgenu": 9238,
      "Ġinsp": 9239,
      "ĠMethod": 9240,
      "Ġcow": 9241,
      "Ġtro": 9242,
      "jang": 9243,
      "Ġvision": 9244,
      "Ġpink": 9245,
      "center": 9246,
      "Ġusage": 9247,
      "ĠUsing": 9248,
      "ĠÎ±": 9249,
      "Ġ\"What's": 9250,
      "Ġtoday,": 9251,
      "Ġsentence": 9252,
      "ĠCongress": 9253,
      "Ġconvin": 9254,
      "Ġboolean": 9255,
      "Ġcountry.": 9256,
      "cs": 9257,
      "Ġspr": 9258,
      "Ġstyle=\"": 9259,
      "less.": 9260,
      "Ġvast": 9261,
      "Ġswit": 9262,
      "ĠAuthor": 9263,
      "Ġhumans": 9264,
      "status": 9265,
      "Ġsupporting": 9266,
      "ĊRes": 9267,
      "Ġgoals": 9268,
      "Ġregardless": 9269,
      "ĠDirect": 9270,
      "Br": 9271,
      "parse": 9272,
      "Ċan": 9273,
      "Ġ33": 9274,
      "Ġbegins": 9275,
      "Output": 9276,
      "ruck": 9277,
      "space": 9278,
      "ĠPL": 9279,
      "Ġprotection": 9280,
      "Ġmyster": 9281,
      "Ġng": 9282,
      "ĠGree": 9283,
      "rave": 9284,
      "Ġcontainer": 9285,
      "images": 9286,
      "Ċ11": 9287,
      "Î±": 9288,
      "Ġsnap": 9289,
      "Ġbedroom": 9290,
      "ager.": 9291,
      "Ġoverride": 9292,
      "xsl": 9293,
      "ĠFlor": 9294,
      "ĠCO": 9295,
      "erest": 9296,
      "a/": 9297,
      "ĠChapter:**": 9298,
      "Ġresolve": 9299,
      "Ġsurf": 9300,
      "Ġexercise": 9301,
      "layer": 9302,
      "ĠBefore": 9303,
      "duc": 9304,
      "ner.": 9305,
      "anguage": 9306,
      "ĠPerhaps": 9307,
      "olt": 9308,
      "Ġbt": 9309,
      "*)": 9310,
      "Ġbund": 9311,
      "Ä±": 9312,
      "ipher": 9313,
      "Ġ1.0": 9314,
      "Ġ2nd": 9315,
      "Ċĉĉĉĉĉ": 9316,
      "ictor": 9317,
      "Ġyellow": 9318,
      "Ġdelic": 9319,
      "ĠKen": 9320,
      "Ġwidth:": 9321,
      "Ċ12": 9322,
      "ilty": 9323,
      "vm": 9324,
      "Ġinterf": 9325,
      "Ġ(201": 9326,
      "Ġreaders": 9327,
      "Ġadministr": 9328,
      "Ġclimate": 9329,
      "ĠGR": 9330,
      "Ġmarriage": 9331,
      "Ġdocuments": 9332,
      "Ġplanet": 9333,
      "iments": 9334,
      "Ġrepeat": 9335,
      "ants.": 9336,
      "Ġasleep": 9337,
      "ONT": 9338,
      "Ġinstance,": 9339,
      "Ġleague": 9340,
      "ĠError": 9341,
      "Ġgym": 9342,
      "Ġdesktop": 9343,
      "api": 9344,
      "Ġnodes": 9345,
      "Ġhesit": 9346,
      "Ġmatches": 9347,
      "Ġperspective": 9348,
      "ĊAdd": 9349,
      "float": 9350,
      "Ġhabit": 9351,
      "Ġheavily": 9352,
      "rast": 9353,
      "Ġdiscussed": 9354,
      "-G": 9355,
      "Ġtone": 9356,
      "PA": 9357,
      "Ġemployees": 9358,
      "9)": 9359,
      "Ġmonths.": 9360,
      "ĠCounc": 9361,
      "(const": 9362,
      "util.": 9363,
      "Ċuse": 9364,
      "asure": 9365,
      "ĠIll": 9366,
      "ĠRobert": 9367,
      "cend": 9368,
      "bf": 9369,
      "ĠWilliam": 9370,
      "Ġstim": 9371,
      "101": 9372,
      "ĠER": 9373,
      "alloc": 9374,
      "iency": 9375,
      "Ċany": 9376,
      "Ġproblems.": 9377,
      "Ġphr": 9378,
      "Ġlatter": 9379,
      "Ġconducted": 9380,
      "Ġthey'll": 9381,
      "ometry": 9382,
      "google": 9383,
      "Ġdance": 9384,
      "Ġequation": 9385,
      "Ġsilver": 9386,
      "Ġreward": 9387,
      "Ġsigns": 9388,
      "Ġbike": 9389,
      "Ġinjur": 9390,
      "s[": 9391,
      "Ġgiant": 9392,
      "ics,": 9393,
      "ĠIâĢĻd": 9394,
      "(2": 9395,
      "Ġhanging": 9396,
      "Ġcollected": 9397,
      "Ġaggress": 9398,
      "mes": 9399,
      "etr": 9400,
      "ainer": 9401,
      "Ġticket": 9402,
      "Ġreduction": 9403,
      "Ġgit": 9404,
      "Ġthat?\"": 9405,
      "ĠYear": 9406,
      "Ġshares": 9407,
      "Ġ(E": 9408,
      "Ġindicate": 9409,
      "Ġshr": 9410,
      "chema": 9411,
      "ilit": 9412,
      "ĠModel": 9413,
      "400": 9414,
      "Ġinnoc": 9415,
      "Very": 9416,
      "Ġitself.": 9417,
      "Ċwe": 9418,
      "osc": 9419,
      "uan": 9420,
      "Ġp.": 9421,
      "SA": 9422,
      "(1)": 9423,
      "Ġalt": 9424,
      "ĠTherefore,": 9425,
      "(C": 9426,
      "Ġantib": 9427,
      "Collection": 9428,
      "ger.": 9429,
      "Ġplate": 9430,
      "Ġfamous": 9431,
      "Ġpadding": 9432,
      "ĠHD": 9433,
      "Ġmanif": 9434,
      ")).": 9435,
      "Ġmodified": 9436,
      "Ġfur": 9437,
      "Ġpod": 9438,
      "Ġcutting": 9439,
      "Ġmovies": 9440,
      "Ġtips": 9441,
      "Ġhotel": 9442,
      "čĊĉ": 9443,
      "ĠRad": 9444,
      "Ġcapture": 9445,
      "Ġvolunte": 9446,
      "ĠNever": 9447,
      "Ċcom": 9448,
      "ĠâĪĪ": 9449,
      "Ġafternoon": 9450,
      "Ġtutorial": 9451,
      "arge": 9452,
      "TF": 9453,
      "-W": 9454,
      "Ġdesired": 9455,
      "ved.": 9456,
      "Ġrelationships": 9457,
      "Ġgap": 9458,
      "Ġsector": 9459,
      "Ġdecisions": 9460,
      "GR": 9461,
      "Ġrounded": 9462,
      "Ċ#if": 9463,
      "Ġjob.": 9464,
      "Ġmemories": 9465,
      "Ñĸ": 9466,
      "Ġdrugs": 9467,
      "ĠGame": 9468,
      "Ġapps": 9469,
      "Ġ2:": 9470,
      "ifies": 9471,
      "Ġ8,": 9472,
      "Ġatm": 9473,
      "ĠCas": 9474,
      "Ġbits": 9475,
      "onth": 9476,
      "Ġparse": 9477,
      "ĠWednesday": 9478,
      "DIT:": 9479,
      "ĠUbuntu": 9480,
      "Ġbelow.": 9481,
      "////////////////": 9482,
      "ĠIsland": 9483,
      "Adapter": 9484,
      "ĠIR": 9485,
      "ĠCharl": 9486,
      "Ð¿": 9487,
      "1}{": 9488,
      "Ġfamily.": 9489,
      "Pre": 9490,
      "ĠsheâĢĻs": 9491,
      "ĠJun": 9492,
      "ĠSpring": 9493,
      "istan": 9494,
      "Ġcallback": 9495,
      "Ġfunction(": 9496,
      "Ġsole": 9497,
      "rection": 9498,
      "Ġfriends,": 9499,
      "Ġrepresents": 9500,
      "Ġlady": 9501,
      "ĠChic": 9502,
      "ĠConst": 9503,
      "ĠLife": 9504,
      "Ġcorrel": 9505,
      "txt": 9506,
      "Ill": 9507,
      "Ġtrue.": 9508,
      "ĠAccording": 9509,
      "âĻª": 9510,
      "asket": 9511,
      "Ġlegend": 9512,
      "Ġperman": 9513,
      "ition.": 9514,
      "Ġpractical": 9515,
      "ICE": 9516,
      "Attribute": 9517,
      "Ċwork": 9518,
      "ĠMel": 9519,
      "i's": 9520,
      "Ġ34": 9521,
      "ĠWil": 9522,
      "Ċby": 9523,
      "cluded": 9524,
      "begin{": 9525,
      "ĠChild": 9526,
      "Ġattacks": 9527,
[...]
