{
  "version": "1.0",
  "truncation": null,
  "padding": null,
  "added_tokens": [
    {
      "id": 0,
      "content": "[UNK]",
      "single_word": false,
      "lstrip": false,
      "rstrip": false,
      "normalized": false,
      "special": true
    },
    {
      "id": 1,
      "content": "[CLS]",
      "single_word": false,
      "lstrip": false,
      "rstrip": false,
      "normalized": false,
      "special": true
    },
    {
      "id": 2,
      "content": "[SEP]",
      "single_word": false,
      "lstrip": false,
      "rstrip": false,
      "normalized": false,
      "special": true
    },
    {
      "id": 3,
      "content": "[PAD]",
      "single_word": false,
      "lstrip": false,
      "rstrip": false,
      "normalized": false,
      "special": true
    },
    {
      "id": 4,
      "content": "[MASK]",
      "single_word": false,
      "lstrip": false,
      "rstrip": false,
      "normalized": false,
      "special": true
    }
  ],
  "normalizer": null,
  "pre_tokenizer": {
    "type": "ByteLevel",
    "add_prefix_space": false,
    "trim_offsets": true,
    "use_regex": false
  },
  "post_processor": null,
  "decoder": null,
  "model": {
    "type": "BPE",
    "dropout": null,
    "unk_token": "[UNK]",
    "continuing_subword_prefix": null,
    "end_of_word_suffix": null,
    "fuse_unk": false,
    "byte_fallback": false,
    "ignore_merges": false,
    "vocab": {
      "[UNK]": 0,
      "[CLS]": 1,
      "[SEP]": 2,
      "[PAD]": 3,
      "[MASK]": 4,
      "!": 5,
      "\"": 6,
      "#": 7,
      "$": 8,
      "%": 9,
      "&": 10,
      "'": 11,
      "(": 12,
      ")": 13,
      "*": 14,
      "+": 15,
      ",": 16,
      "-": 17,
      ".": 18,
      "/": 19,
      "0": 20,
      "1": 21,
      "2": 22,
      "3": 23,
      "4": 24,
      "5": 25,
      "6": 26,
      "7": 27,
      "8": 28,
      "9": 29,
      ":": 30,
      ";": 31,
      "<": 32,
      "=": 33,
      ">": 34,
      "?": 35,
      "@": 36,
      "A": 37,
      "B": 38,
      "C": 39,
      "D": 40,
      "E": 41,
      "F": 42,
      "G": 43,
      "H": 44,
      "I": 45,
      "J": 46,
      "K": 47,
      "L": 48,
      "M": 49,
      "N": 50,
      "O": 51,
      "P": 52,
      "Q": 53,
      "R": 54,
      "S": 55,
      "T": 56,
      "U": 57,
      "V": 58,
      "W": 59,
      "X": 60,
      "Y": 61,
      "Z": 62,
      "[": 63,
      "\\": 64,
      "]": 65,
      "^": 66,
      "_": 67,
      "`": 68,
      "a": 69,
      "b": 70,
      "c": 71,
      "d": 72,
      "e": 73,
      "f": 74,
      "g": 75,
      "h": 76,
      "i": 77,
      "j": 78,
      "k": 79,
      "l": 80,
      "m": 81,
      "n": 82,
      "o": 83,
      "p": 84,
      "q": 85,
      "r": 86,
      "s": 87,
      "t": 88,
      "u": 89,
      "v": 90,
      "w": 91,
      "x": 92,
      "y": 93,
      "z": 94,
      "{": 95,
      "|": 96,
      "}": 97,
      "~": 98,
      "¡": 99,
      "¢": 100,
      "£": 101,
      "¤": 102,
      "¥": 103,
      "¦": 104,
      "§": 105,
      "¨": 106,
      "©": 107,
      "ª": 108,
      "«": 109,
      "¬": 110,
      "®": 111,
      "¯": 112,
      "°": 113,
      "±": 114,
      "²": 115,
      "³": 116,
      "´": 117,
      "µ": 118,
      "¶": 119,
      "·": 120,
      "¸": 121,
      "¹": 122,
      "º": 123,
      "»": 124,
      "¼": 125,
      "½": 126,
      "¾": 127,
      "¿": 128,
      "Â": 129,
      "Ã": 130,
      "Ä": 131,
      "Å": 132,
      "Æ": 133,
      "Ç": 134,
      "È": 135,
      "É": 136,
      "Ê": 137,
      "Ë": 138,
      "Ì": 139,
      "Í": 140,
      "Î": 141,
      "Ï": 142,
      "Ð": 143,
      "Ñ": 144,
      "Ò": 145,
      "Ó": 146,
      "Ô": 147,
      "Õ": 148,
      "Ö": 149,
      "×": 150,
      "Ø": 151,
      "Ù": 152,
      "Ú": 153,
      "Û": 154,
      "Ü": 155,
      "Ý": 156,
      "Þ": 157,
      "ß": 158,
      "à": 159,
      "á": 160,
      "â": 161,
      "ã": 162,
      "ä": 163,
      "å": 164,
      "æ": 165,
      "ç": 166,
      "è": 167,
      "é": 168,
      "ê": 169,
      "ë": 170,
      "ì": 171,
      "í": 172,
      "î": 173,
      "ï": 174,
      "ð": 175,
      "ñ": 176,
      "ò": 177,
      "ó": 178,
      "ô": 179,
      "Ā": 180,
      "ā": 181,
      "Ă": 182,
      "ă": 183,
      "Ą": 184,
      "ą": 185,
      "Ć": 186,
      "ć": 187,
      "Ĉ": 188,
      "ĉ": 189,
      "Ċ": 190,
      "ċ": 191,
      "Č": 192,
      "č": 193,
      "Ď": 194,
      "ď": 195,
      "Đ": 196,
      "đ": 197,
      "Ē": 198,
      "ē": 199,
      "Ĕ": 200,
      "ĕ": 201,
      "Ė": 202,
      "ė": 203,
      "Ę": 204,
      "ę": 205,
      "Ě": 206,
      "ě": 207,
      "Ĝ": 208,
      "ĝ": 209,
      "Ğ": 210,
      "ğ": 211,
      "Ġ": 212,
      "ġ": 213,
      "Ģ": 214,
      "ģ": 215,
      "Ĥ": 216,
      "ĥ": 217,
      "Ħ": 218,
      "ħ": 219,
      "Ĩ": 220,
      "ĩ": 221,
      "Ī": 222,
      "ī": 223,
      "Ĭ": 224,
      "ĭ": 225,
      "Į": 226,
      "į": 227,
      "İ": 228,
      "ı": 229,
      "Ĳ": 230,
      "ĳ": 231,
      "Ĵ": 232,
      "ĵ": 233,
      "Ķ": 234,
      "ķ": 235,
      "ĸ": 236,
      "Ĺ": 237,
      "ĺ": 238,
      "Ļ": 239,
      "ļ": 240,
      "Ľ": 241,
      "ľ": 242,
      "Ŀ": 243,
      "ŀ": 244,
      "Ł": 245,
      "ł": 246,
      "Ń": 247,
      "eĠ": 248,
      "ĠĠ": 249,
      "Ġt": 250,
      "in": 251,
      "sĠ": 252,
      "tĠ": 253,
      "Ġth": 254,
      "er": 255,
      "an": 256,
      "dĠ": 257,
      "on": 258,
      "ĠĠĠĠ": 259,
      "en": 260,
      "or": 261,
      "ou": 262,
      "yĠ": 263,
      ",Ġ": 264,
      "ĠtheĠ": 265,
      "oĠ": 266,
      "at": 267,
      "re": 268,
      "ing": 269,
      "al": 270,
      "ar": 271,
      "th": 272,
      "st": 273,
      ".Ġ": 274,
      "aĠ": 275,
      "of": 276,
      "it": 277,
      "ingĠ": 278,
      "andĠ": 279,
      "om": 280,
      "isĠ": 281,
      "ic": 282,
      "le": 283,
      "ĠtoĠ": 284,
      "ion": 285,
      "ĠĠĠĠĠĠĠĠ": 286,
      "se": 287,
      "erĠ": 288,
      "ha": 289,
      "es": 290,
      "ac": 291,
      "edĠ": 292,
      "ĊĊ": 293,
      "ow": 294,
      "il": 295,
      "el": 296,
      "ofĠ": 297,
      "IĠ": 298,
      "for": 299,
      "is": 300,
      "as": 301,
      "you": 302,
      "atĠ": 303,
      "ed": 304,
      "inĠ": 305,
      "am": 306,
      "ch": 307,
      "ro": 308,
      "veĠ": 309,
      "lĠ": 310,
      "im": 311,
      "us": 312,
      "asĠ": 313,
      "Ġw": 314,
      "ent": 315,
      "ec": 316,
      "âĢ": 317,
      "id": 318,
      "heĠ": 319,
      "anĠ": 320,
      "esĠ": 321,
      "ig": 322,
      "\"Ġ": 323,
      "ur": 324,
      "lyĠ": 325,
      "ol": 326,
      "et": 327,
      "ad": 328,
      "em": 329,
      "un": 330,
      "ith": 331,
      "itĠ": 332,
      "ab": 333,
      "enĠ": 334,
      "lo": 335,
      "eĠth": 336,
      "kĠ": 337,
      "wh": 338,
      "pl": 339,
      "ver": 340,
      "if": 341,
      "ag": 342,
      "ir": 343,
      "Ġc": 344,
      "ex": 345,
      "and": 346,
      "Ġs": 347,
      "ĠthatĠ": 348,
      "no": 349,
      "bu": 350,
      "ay": 351,
      "ation": 352,
      "li": 353,
      "Ġm": 354,
      ".Ċ": 355,
      "alĠ": 356,
      "eĠt": 357,
      "op": 358,
      "ri": 359,
      "ap": 360,
      "con": 361,
      "oo": 362,
      "ul": 363,
      "with": 364,
      "pro": 365,
      "'sĠ": 366,
      "com": 367,
      "oul": 368,
      "\"Ġ\"": 369,
      "up": 370,
      "int": 371,
      "be": 372,
      "beĠ": 373,
      "onĠ": 374,
      "ne": 375,
      "tion": 376,
      "forĠ": 377,
      "igh": 378,
      "de": 379,
      "ereĠ": 380,
      "os": 381,
      "haveĠ": 382,
      "hĠ": 383,
      "ĊĠĠĠĠĠĠĠĠ": 384,
      "um": 385,
      "res": 386,
      "entĠ": 387,
      "fr": 388,
      "areĠ": 389,
      "ak": 390,
      "Th": 391,
      "Ġto": 392,
      "youĠ": 393,
      "orĠ": 394,
      "qu": 395,
      "sh": 396,
      ")Ġ": 397,
      "Ġthe": 398,
      "TheĠ": 399,
      "ouldĠ": 400,
      "ĊĠĠĠĠ": 401,
      "ofĠtheĠ": 402,
      "oun": 403,
      "ĠthisĠ": 404,
      "wasĠ": 405,
      "--": 406,
      ".ĊĊ": 407,
      "ut": 408,
      "leĠ": 409,
      "âĢĻ": 410,
      "di": 411,
      "ayĠ": 412,
      "notĠ": 413,
      "nĠ": 414,
      ":Ġ": 415,
      "=Ġ": 416,
      "'tĠ": 417,
      "all": 418,
      "outĠ": 419,
      "s,Ġ": 420,
      "oneĠ": 421,
      "from": 422,
      "od": 423,
      "our": 424,
      "do": 425,
      "est": 426,
      "now": 427,
      "inĠtheĠ": 428,
      ".\"Ġ\"": 429,
      "butĠ": 430,
      "00": 431,
      "e,Ġ": 432,
      "illĠ": 433,
      "etĠ": 434,
      "per": 435,
      "wor": 436,
      "ear": 437,
      "ĠandĠ": 438,
      "ant": 439,
      "uc": 440,
      "oth": 441,
      "soĠ": 442,
      "sp": 443,
      "lik": 444,
      "ter": 445,
      "allyĠ": 446,
      "go": 447,
      "ev": 448,
      "hisĠ": 449,
      "eĠtheĠ": 450,
      "withĠ": 451,
      "gr": 452,
      "str": 453,
      "eĠtoĠ": 454,
      "ceĠ": 455,
      "hatĠ": 456,
      "end": 457,
      "..": 458,
      "ep": 459,
      "oug": 460,
      "iv": 461,
      "mĠ": 462,
      "ustĠ": 463,
      "ain": 464,
      "allĠ": 465,
      ".ĠI": 466,
      "art": 467,
      "som": 468,
      "act": 469,
      "your": 470,
      "ect": 471,
      "out": 472,
      "su": 473,
      "tt": 474,
      "myĠ": 475,
      "cl": 476,
      ".ĠĠ": 477,
      "Ġtr": 478,
      "ateĠ": 479,
      "av": 480,
      "he": 481,
      "tr": 482,
      "fin": 483,
      "ang": 484,
      "pe": 485,
      "I'": 486,
      "fĠ": 487,
      ");": 488,
      "rec": 489,
      "po": 490,
      "**": 491,
      "iveĠ": 492,
      "ew": 493,
      "s.Ġ": 494,
      "we": 495,
      "ist": 496,
      "ationĠ": 497,
      "byĠ": 498,
      "icĠ": 499,
      "ack": 500,
      "ifĠ": 501,
      "por": 502,
      "pr": 503,
      "ong": 504,
      "Ġthat": 505,
      "âĢľ": 506,
      "//": 507,
      "e.Ġ": 508,
      "der": 509,
      "oc": 510,
      "chĠ": 511,
      ",ĠandĠ": 512,
      "âĢĿ": 513,
      "know": 514,
      "justĠ": 515,
      "herĠ": 516,
      "bl": 517,
      "sĠandĠ": 518,
      "edĠtoĠ": 519,
      "ightĠ": 520,
      "ot": 521,
      "iz": 522,
      "useĠ": 523,
      "eth": 524,
      "ĠĠĠĠĠĠĠĠĠĠĠĠĠĠĠĠ": 525,
      "fromĠ": 526,
      "ly": 527,
      "mor": 528,
      "get": 529,
      "ough": 530,
      "owĠ": 531,
      "her": 532,
      "ass": 533,
      "-Ġ": 534,
      "ight": 535,
      "ingĠtoĠ": 536,
      "anyĠ": 537,
      "af": 538,
      "ĠtheyĠ": 539,
      "ok": 540,
      "ingĠtheĠ": 541,
      "sedĠ": 542,
      "iĠ": 543,
      "adĠ": 544,
      "aw": 545,
      "vi": 546,
      "ĉĉ": 547,
      "Ġwith": 548,
      "ĊĠĠ": 549,
      "don": 550,
      "ple": 551,
      "ionĠ": 552,
      "weĠ": 553,
      "him": 554,
      "ess": 555,
      "new": 556,
      "ell": 557,
      "hasĠ": 558,
      "ment": 559,
      "ob": 560,
      "ameĠ": 561,
      "fer": 562,
      "ind": 563,
      "pleĠ": 564,
      "ever": 565,
      "yourĠ": 566,
      "idĠ": 567,
      "terĠ": 568,
      "ityĠ": 569,
      "In": 570,
      "sc": 571,
      "sĠofĠ": 572,
      "par": 573,
      "likeĠ": 574,
      "20": 575,
      "ard": 576,
      "ĠtoĠtheĠ": 577,
      "An": 578,
      "=\"": 579,
      "br": 580,
      "Ġwh": 581,
      "seĠ": 582,
      "ud": 583,
      "sĠtoĠ": 584,
      "pos": 585,
      "willĠ": 586,
      "enc": 587,
      "âĢĻsĠ": 588,
      "ov": 589,
      "tionĠ": 590,
      "doĠ": 591,
      "wouldĠ": 592,
      "stĠ": 593,
      "otherĠ": 594,
      "onĠtheĠ": 595,
      "ip": 596,
      "bec": 597,
      "ersĠ": 598,
      "n'tĠ": 599,
      "sel": 600,
      "akeĠ": 601,
      "ser": 602,
      "ast": 603,
      "estĠ": 604,
      "canĠ": 605,
      "ill": 606,
      "arĠ": 607,
      "dat": 608,
      "y,Ġ": 609,
      "St": 610,
      "ureĠ": 611,
      ",ĠtheĠ": 612,
      "lin": 613,
      "form": 614,
      "irĠ": 615,
      "pre": 616,
      "cont": 617,
      "fi": 618,
      "getĠ": 619,
      "hadĠ": 620,
      ".ĠĠĠĠĠĠĠĠ": 621,
      "whic": 622,
      "ult": 623,
      "Ġtim": 624,
      "aboutĠ": 625,
      "utĠ": 626,
      "Ġthem": 627,
      "ail": 628,
      "me": 629,
      "anc": 630,
      "are": 631,
      "read": 632,
      "dis": 633,
      "way": 634,
      "fe": 635,
      "reĠ": 636,
      "----": 637,
      "fir": 638,
      "ey": 639,
      "You": 640,
      "any": 641,
      "2Ġ": 642,
      "ageĠ": 643,
      "cre": 644,
      "?Ġ": 645,
      "Wh": 646,
      "au": 647,
      "work": 648,
      "10": 649,
      ".ĠIĠ": 650,
      "over": 651,
      "ext": 652,
      "eyĠ": 653,
      "+Ġ": 654,
      "pres": 655,
      "itt": 656,
      "inter": 657,
      ":ĊĊ": 658,
      "pĠ": 659,
      "own": 660,
      ",ĠbutĠ": 661,
      ".ĠTheĠ": 662,
      "boo": 663,
      "not": 664,
      "les": 665,
      "ĠthereĠ": 666,
      "noĠ": 667,
      "tĠofĠ": 668,
      "</": 669,
      "ound": 670,
      "whatĠ": 671,
      "Ġthin": 672,
      "og": 673,
      "iesĠ": 674,
      "fun": 675,
      "ellĠ": 676,
      "ThisĠ": 677,
      "val": 678,
      "beenĠ": 679,
      "someĠ": 680,
      "bo": 681,
      "ick": 682,
      "forĠtheĠ": 683,
      "elĠ": 684,
      "amĠ": 685,
      "ph": 686,
      "e.": 687,
      "ileĠ": 688,
      "iceĠ": 689,
      "andĠtheĠ": 690,
      "aĠs": 691,
      "dr": 692,
      "astĠ": 693,
      "ableĠ": 694,
      "year": 695,
      "meĠ": 696,
      "ef": 697,
      "ret": 698,
      "beca": 699,
      "ble": 700,
      "atĠtheĠ": 701,
      "lec": 702,
      "port": 703,
      "wereĠ": 704,
      "ust": 705,
      "atedĠ": 706,
      "low": 707,
      "ure": 708,
      "upĠ": 709,
      ".ĠH": 710,
      "ans": 711,
      "aseĠ": 712,
      "moreĠ": 713,
      "goo": 714,
      "sa": 715,
      "bet": 716,
      "Ch": 717,
      "so": 718,
      "ĊĠĠĠĠĠĠĠĠĠĠĠĠ": 719,
      "ackĠ": 720,
      "ainĠ": 721,
      "ach": 722,
      "1Ġ": 723,
      "ledĠ": 724,
      "sĠtheĠ": 725,
      "but": 726,
      "sheĠ": 727,
      "whenĠ": 728,
      "loc": 729,
      "elyĠ": 730,
      "oundĠ": 731,
      "ont": 732,
      "pp": 733,
      "sid": 734,
      "how": 735,
      "eĠthatĠ": 736,
      "don'tĠ": 737,
      ";Ġ": 738,
      "onlyĠ": 739,
      ".ĠS": 740,
      "ign": 741,
      "it'sĠ": 742,
      "ostĠ": 743,
      "antĠ": 744,
      "gu": 745,
      "mentĠ": 746,
      "ourĠ": 747,
      "ame": 748,
      "want": 749,
      "xĠ": 750,
      "duc": 751,
      "itsĠ": 752,
      "gre": 753,
      "s.": 754,
      "hel": 755,
      "aĠm": 756,
      "iteĠ": 757,
      "add": 758,
      "Al": 759,
      "thĠ": 760,
      "alsoĠ": 761,
      "ity": 762,
      "ase": 763,
      "acc": 764,
      "ate": 765,
      "ĊĠ": 766,
      "AĠ": 767,
      "att": 768,
      "whoĠ": 769,
      "0Ġ": 770,
      "aĠc": 771,
      "aĠf": 772,
      "veryĠ": 773,
      "comm": 774,
      "ĠwithĠ": 775,
      "rem": 776,
      "newĠ": 777,
      "peo": 778,
      "ĠtheirĠ": 779,
      "theĠ": 780,
      "*Ġ": 781,
      "app": 782,
      "by": 783,
      "I'mĠ": 784,
      "omeĠ": 785,
      "comp": 786,
      "EĠ": 787,
      "si": 788,
      "'reĠ": 789,
      "eseĠ": 790,
      "ĠĠĠ": 791,
      "SĠ": 792,
      "enceĠ": 793,
      "usĠ": 794,
      "ĠcanĠ": 795,
      "es,Ġ": 796,
      "dif": 797,
      "off": 798,
      "âĢĿĠ": 799,
      "ath": 800,
      "look": 801,
      "ere": 802,
      "whichĠ": 803,
      "wr": 804,
      "part": 805,
      "min": 806,
      "ttp": 807,
      "isĠtheĠ": 808,
      "ownĠ": 809,
      "reallyĠ": 810,
      "des": 811,
      "able": 812,
      "back": 813,
      "vid": 814,
      "urn": 815,
      "becauseĠ": 816,
      "yp": 817,
      "sion": 818,
      "arg": 819,
      "day": 820,
      "sed": 821,
      "ition": 822,
      "aceĠ": 823,
      "http": 824,
      "endĠ": 825,
      "col": 826,
      "was": 827,
      "aĠb": 828,
      "ank": 829,
      "toĠ": 830,
      "ug": 831,
      "ber": 832,
      "play": 833,
      "IĠhaveĠ": 834,
      "verĠ": 835,
      "stor": 836,
      "sĠinĠ": 837,
      "woĠ": 838,
      "intoĠ": 839,
      "peopleĠ": 840,
      "ue": 841,
      "ubl": 842,
      "edĠtheĠ": 843,
      "aĠl": 844,
      ".ĠTh": 845,
      "cr": 846,
      "ener": 847,
      "Ġthr": 848,
      "ish": 849,
      "ousĠ": 850,
      "chang": 851,
      "ial": 852,
      "0.": 853,
      "Re": 854,
      "://": 855,
      "can": 856,
      "inst": 857,
      "mu": 858,
      "set": 859,
      "yst": 860,
      "run": 861,
      "kingĠ": 862,
      "co": 863,
      "ueĠ": 864,
      "ĊĠĠĠĠĠĠĠĠĠĠĠĠĠĠĠĠ": 865,
      "couldĠ": 866,
      "ould": 867,
      "befor": 868,
      "3Ġ": 869,
      "cur": 870,
      "?\"Ġ\"": 871,
      "man": 872,
      "fl": 873,
      "ardĠ": 874,
      "oughĠ": 875,
      "dec": 876,
      "19": 877,
      ",ĠIĠ": 878,
      "IN": 879,
      "ĠthenĠ": 880,
      "âĢĻtĠ": 881,
      "ord": 882,
      "did": 883,
      "WhatĠ": 884,
      "func": 885,
      "]Ġ": 886,
      "aryĠ": 887,
      "arr": 888,
      ")Ċ": 889,
      "oldĠ": 890,
      "sĠareĠ": 891,
      "ĠwasĠ": 892,
      "ER": 893,
      "fromĠtheĠ": 894,
      ":Ċ": 895,
      "TĠ": 896,
      "ari": 897,
      "seeĠ": 898,
      "self": 899,
      "ject": 900,
      "son": 901,
      ">Ġ": 902,
      "==": 903,
      "llĠ": 904,
      "mostĠ": 905,
      "quest": 906,
      "anceĠ": 907,
      "ectĠ": 908,
      "rel": 909,
      "sup": 910,
      "oĠtheĠ": 911,
      "reg": 912,
      "atch": 913,
      "differ": 914,
      "fol": 915,
      "firstĠ": 916,
      "sĠthatĠ": 917,
      "icalĠ": 918,
      "oseĠ": 919,
      "ewĠ": 920,
      "Ġthis": 921,
      "}ĊĊ": 922,
      "under": 923,
      "stat": 924,
      "eng": 925,
      "vel": 926,
      "sm": 927,
      "thingĠ": 928,
      "12": 929,
      "goodĠ": 930,
      "mak": 931,
      ",Ċ": 932,
      "pt": 933,
      "?Ċ": 934,
      "makeĠ": 935,
      "ire": 936,
      "ub": 937,
      "ialĠ": 938,
      "ĠmyĠ": 939,
      "num": 940,
      "ous": 941,
      "5Ġ": 942,
      "every": 943,
      "err": 944,
      "withĠtheĠ": 945,
      "!Ġ": 946,
      "essĠ": 947,
      "tim": 948,
      "start": 949,
      "put": 950,
      ".ĠB": 951,
      "happ": 952,
      "isĠaĠ": 953,
      "stillĠ": 954,
      "evenĠ": 955,
      "WeĠ": 956,
      "age": 957,
      "Ġte": 958,
      "ens": 959,
      "abl": 960,
      ")Ġ{": 961,
      "about": 962,
      "ies": 963,
      "()": 964,
      "ing,Ġ": 965,
      "usingĠ": 966,
      "org": 967,
      "intĠ": 968,
      "again": 969,
      "berĠ": 970,
      "youĠw": 971,
      "adeĠ": 972,
      "publ": 973,
      "4Ġ": 974,
      "Un": 975,
      "mon": 976,
      "ystem": 977,
      "tingĠ": 978,
      ".ĠItĠ": 979,
      "pon": 980,
      "knowĠ": 981,
      "DĠ": 982,
      "ark": 983,
      "cor": 984,
      "other": 985,
      "1.": 986,
      "ĠthinkĠ": 987,
      "high": 988,
      "ful": 989,
      "eĠandĠ": 990,
      "achĠ": 991,
      "ingsĠ": 992,
      "rightĠ": 993,
      "exp": 994,
      "down": 995,
      "hand": 996,
      "'Ġ": 997,
      "bel": 998,
      "ww": 999,
      "overĠ": 1000,
      "say": 1001,
      "ile": 1002,
      "Ġcom": 1003,
      "Tr": 1004,
      "beingĠ": 1005,
      "16": 1006,
      "mo": 1007,
      "âĢĿĊ": 1008,
      "vers": 1009,
      "proble": 1010,
      "yĠtoĠ": 1011,
      "reeĠ": 1012,
      "mod": 1013,
      "ed,Ġ": 1014,
      ";Ċ": 1015,
      "__": 1016,
      "incl": 1017,
      "ke": 1018,
      "It": 1019,
      "howĠ": 1020,
      "uallyĠ": 1021,
      "goĠ": 1022,
      "shouldĠ": 1023,
      "\">": 1024,
      "long": 1025,
      "sub": 1026,
      "does": 1027,
      "let": 1028,
      "gĠ": 1029,
      "?ĊĊ": 1030,
      "ide": 1031,
      "ann": 1032,
      "hav": 1033,
      "eĠofĠ": 1034,
      "ON": 1035,
      "afterĠ": 1036,
      "someth": 1037,
      ".ĠA": 1038,
      "himĠ": 1039,
      "seem": 1040,
      "bleĠ": 1041,
      "backĠ": 1042,
      "ĠtheseĠ": 1043,
      "lif": 1044,
      "loo": 1045,
      "dayĠ": 1046,
      "ĊĠĠĠĠĠĠ": 1047,
      "AndĠ": 1048,
      "ount": 1049,
      "entsĠ": 1050,
      "edĠinĠ": 1051,
      "Ġcon": 1052,
      "inc": 1053,
      "ers": 1054,
      "whereĠ": 1055,
      "TH": 1056,
      "Pro": 1057,
      "15": 1058,
      "urnĠ": 1059,
      "sol": 1060,
      "Ġthough": 1061,
      "Ex": 1062,
      "mat": 1063,
      "pol": 1064,
      "18": 1065,
      "Ġ(": 1066,
      "ert": 1067,
      "sur": 1068,
      "e-": 1069,
      "everĠ": 1070,
      "),Ġ": 1071,
      "portĠ": 1072,
      "hear": 1073,
      "\"Ġ\"Ġ": 1074,
      "--------": 1075,
      "az": 1076,
      "ĠthemĠ": 1077,
      "char": 1078,
      "pri": 1079,
      "gl": 1080,
      "čĊ": 1081,
      "struc": 1082,
      "enĠtheĠ": 1083,
      "ittleĠ": 1084,
      "includ": 1085,
      "inv": 1086,
      "ask": 1087,
      "ax": 1088,
      "ĠtimeĠ": 1089,
      "old": 1090,
      "extĠ": 1091,
      "ff": 1092,
      "(\"": 1093,
      "ĠthanĠ": 1094,
      "vic": 1095,
      "En": 1096,
      "ItĠ": 1097,
      "edĠbyĠ": 1098,
      "indĠ": 1099,
      "HeĠ": 1100,
      "rol": 1101,
      "ific": 1102,
      "plic": 1103,
      ".com": 1104,
      "Con": 1105,
      "didĠ": 1106,
      "plac": 1107,
      "book": 1108,
      "On": 1109,
      ".ĊâĢľ": 1110,
      "...": 1111,
      "produc": 1112,
      "rect": 1113,
      "\"Ċ": 1114,
      "ĠtoĠbeĠ": 1115,
      "right": 1116,
      "Ġsh": 1117,
      "had": 1118,
      "assĠ": 1119,
      "gotĠ": 1120,
      "workĠ": 1121,
      "cal": 1122,
      "fa": 1123,
      "11": 1124,
      "AN": 1125,
      "lear": 1126,
      "buil": 1127,
      "point": 1128,
      "ik": 1129,
      "ineĠ": 1130,
      "Ar": 1131,
      "leg": 1132,
      "wayĠ": 1133,
      "fig": 1134,
      "ĠtwoĠ": 1135,
      "help": 1136,
      "spec": 1137,
      "Fr": 1138,
      "eĊ": 1139,
      "er,Ġ": 1140,
      "ek": 1141,
      "itĠisĠ": 1142,
      "istĠ": 1143,
      "YouĠ": 1144,
      "ort": 1145,
      "bre": 1146,
      "http://": 1147,
      "Ġ=Ġ": 1148,
      "Com": 1149,
      "clo": 1150,
      "sameĠ": 1151,
      "ulĠ": 1152,
      "defin": 1153,
      "unt": 1154,
      "oryĠ": 1155,
      "my": 1156,
      "cri": 1157,
      "ĠthatĠtheĠ": 1158,
      "beforeĠ": 1159,
      "ĠweĠ": 1160,
      "inĠaĠ": 1161,
      "ingĠaĠ": 1162,
      "nowĠ": 1163,
      "fac": 1164,
      "gener": 1165,
      "putĠ": 1166,
      "hereĠ": 1167,
      "ea": 1168,
      "omĠ": 1169,
      "aĠt": 1170,
      "goingĠtoĠ": 1171,
      "list": 1172,
      "betwe": 1173,
      "No": 1174,
      "sesĠ": 1175,
      "follow": 1176,
      "both": 1177,
      "jo": 1178,
      "200": 1179,
      "fri": 1180,
      "mis": 1181,
      "view": 1182,
      "lat": 1183,
      "mer": 1184,
      "exam": 1185,
      "vo": 1186,
      "need": 1187,
      "rat": 1188,
      "which": 1189,
      "2.": 1190,
      "ningĠ": 1191,
      "requ": 1192,
      "bod": 1193,
      "eas": 1194,
      "proc": 1195,
      "AR": 1196,
      "13": 1197,
      "opĠ": 1198,
      "lect": 1199,
      "neverĠ": 1200,
      "I'veĠ": 1201,
      "lookĠ": 1202,
      "nam": 1203,
      "secon": 1204,
      "sim": 1205,
      "Ġtak": 1206,
      "said": 1207,
      "ally": 1208,
      "stand": 1209,
      "byĠtheĠ": 1210,
      "pat": 1211,
      "giv": 1212,
      "ype": 1213,
      "17": 1214,
      "det": 1215,
      "vis": 1216,
      "doc": 1217,
      "A:ĊĊ": 1218,
      "aveĠ": 1219,
      ".ĠL": 1220,
      "olog": 1221,
      "14": 1222,
      "sl": 1223,
      "edi": 1224,
      "a,Ġ": 1225,
      "itĠwasĠ": 1226,
      "youĠcanĠ": 1227,
      "aĠlo": 1228,
      "led": 1229,
      "oreĠ": 1230,
      ".ĠHeĠ": 1231,
      "epĠ": 1232,
      "ie": 1233,
      "wantĠtoĠ": 1234,
      "'t": 1235,
      "cep": 1236,
      "OR": 1237,
      "needĠtoĠ": 1238,
      "derĠ": 1239,
      "wellĠ": 1240,
      "For": 1241,
      "issu": 1242,
      "name": 1243,
      "ilĠ": 1244,
      "bab": 1245,
      "ĠthoseĠ": 1246,
      ");ĊĊ": 1247,
      ".ĠM": 1248,
      "Str": 1249,
      ")ĊĊ": 1250,
      "fact": 1251,
      "ickĠ": 1252,
      "//Ġ": 1253,
      "eĠthisĠ": 1254,
      "ativeĠ": 1255,
      "doesĠ": 1256,
      "alway": 1257,
      "s.Ċ": 1258,
      "function": 1259,
      "ship": 1260,
      "one": 1261,
      "head": 1262,
      "IĠwasĠ": 1263,
      "ST": 1264,
      "ash": 1265,
      "IfĠ": 1266,
      "ys": 1267,
      "nâĢĻtĠ": 1268,
      "grou": 1269,
      "ĠĠĠĠĠ": 1270,
      "oft": 1271,
      "possi": 1272,
      "\",Ġ": 1273,
      "log": 1274,
      "allĠtheĠ": 1275,
      "muchĠ": 1276,
      "asedĠ": 1277,
      "LĠ": 1278,
      "umĠ": 1279,
      "Ġthink": 1280,
      "ableĠtoĠ": 1281,
      "->": 1282,
      "ĠtakeĠ": 1283,
      "lastĠ": 1284,
      "ros": 1285,
      "returnĠ": 1286,
      "yĠandĠ": 1287,
      "respon": 1288,
      "usedĠ": 1289,
      "lef": 1290,
      "inceĠ": 1291,
      "sear": 1292,
      "ict": 1293,
      "artĠ": 1294,
      "show": 1295,
      "esĠandĠ": 1296,
      "somethingĠ": 1297,
      "ationsĠ": 1298,
      "eachĠ": 1299,
      "some": 1300,
      "Ac": 1301,
      "EN": 1302,
      "****": 1303,
      "fect": 1304,
      ";ĊĊ": 1305,
      "file": 1306,
      "findĠ": 1307,
      "atingĠ": 1308,
      "aĠh": 1309,
      "problem": 1310,
      ">Ċ": 1311,
      "manyĠ": 1312,
      "arm": 1313,
      "forĠm": 1314,
      "setĠ": 1315,
      "Ġtoo": 1316,
      "Ġthere": 1317,
      "saidĠ": 1318,
      "madeĠ": 1319,
      "ansĠ": 1320,
      "exper": 1321,
      "dep": 1322,
      "Ġcl": 1323,
      "reas": 1324,
      "gh": 1325,
      "feel": 1326,
      "sĊ": 1327,
      "dd": 1328,
      "s/": 1329,
      "aut": 1330,
      "loveĠ": 1331,
      "real": 1332,
      "chec": 1333,
      "giveĠ": 1334,
      "entlyĠ": 1335,
      "te": 1336,
      "odeĠ": 1337,
      "100": 1338,
      ");Ċ": 1339,
      "haveĠtoĠ": 1340,
      "AT": 1341,
      "RE": 1342,
      "differentĠ": 1343,
      "Q:ĊĊ": 1344,
      "Cl": 1345,
      "lessĠ": 1346,
      "to": 1347,
      "just": 1348,
      "you'reĠ": 1349,
      "Ġwor": 1350,
      "amil": 1351,
      "nec": 1352,
      "asĠtheĠ": 1353,
      ".ĠĠĠĠĠĠĠĠĠ": 1354,
      "pa": 1355,
      "alk": 1356,
      "s,": 1357,
      "didn'tĠ": 1358,
      "ce": 1359,
      "order": 1360,
      "::": 1361,
      "Ġtry": 1362,
      "ingĠandĠ": 1363,
      "CĠ": 1364,
      "letĠ": 1365,
      "bookĠ": 1366,
      "Cont": 1367,
      "everyĠ": 1368,
      "comple": 1369,
      "anotherĠ": 1370,
      "uck": 1371,
      "sĠ(": 1372,
      "downĠ": 1373,
      "fil": 1374,
      "cha": 1375,
      "mayĠ": 1376,
      "asĠaĠ": 1377,
      "ical": 1378,
      "ingĠthatĠ": 1379,
      "ost": 1380,
      "IĠamĠ": 1381,
      "('": 1382,
      "alwaysĠ": 1383,
      "net": 1384,
      "chil": 1385,
      "ref": 1386,
      "data": 1387,
      ".com/": 1388,
      "sy": 1389,
      "sk": 1390,
      "happen": 1391,
      "ideĠ": 1392,
      "bĠ": 1393,
      "doesn'tĠ": 1394,
      "ĠtooĠ": 1395,
      "comeĠ": 1396,
      "curr": 1397,
      "'veĠ": 1398,
      "vari": 1399,
      "25": 1400,
      "Gr": 1401,
      "selfĠ": 1402,
      "ern": 1403,
      "stud": 1404,
      "person": 1405,
      "ĊĠĠĠĠĠĠĠĠĠĠĠĠĠĠĠĠĠĠĠĠĠĠĠĠ": 1406,
      "ĠsoĠ": 1407,
      "ualĠ": 1408,
      "ĠwillĠ": 1409,
      "whileĠ": 1410,
      "!\"Ġ\"": 1411,
      "sĠforĠ": 1412,
      "suchĠ": 1413,
      "aroundĠ": 1414,
      "hop": 1415,
      "dri": 1416,
      "greatĠ": 1417,
      "ButĠ": 1418,
      ".ĠâĢľ": 1419,
      "oodĠ": 1420,
      "readĠ": 1421,
      "PĠ": 1422,
      "lineĠ": 1423,
      "div": 1424,
      "won": 1425,
      "return": 1426,
      "worl": 1427,
      "edĠandĠ": 1428,
      "pow": 1429,
      "Ġthrough": 1430,
      "ankĠ": 1431,
      "ary": 1432,
      "ator": 1433,
      "'llĠ": 1434,
      "ual": 1435,
      "ome": 1436,
      "devel": 1437,
      "Br": 1438,
      "beg": 1439,
      "}Ċ": 1440,
      "well": 1441,
      "...Ġ": 1442,
      ";ĊĠĠĠĠ": 1443,
      "ses": 1444,
      "How": 1445,
      "friend": 1446,
      "fulĠ": 1447,
      "ml": 1448,
      "publicĠ": 1449,
      "ongĠ": 1450,
      "what": 1451,
      "ated": 1452,
      "class": 1453,
      "equ": 1454,
      "provid": 1455,
      "dist": 1456,
      "alread": 1457,
      "sch": 1458,
      "Vi": 1459,
      "icallyĠ": 1460,
      "post": 1461,
      "ĠĠĠĠĠĠ": 1462,
      "sec": 1463,
      "He": 1464,
      "orr": 1465,
      "forĠaĠ": 1466,
      "ichĠ": 1467,
      ".ĠThisĠ": 1468,
      "siz": 1469,
      "fiel": 1470,
      "result": 1471,
      "question": 1472,
      "eĠto": 1473,
      "inform": 1474,
      "-2": 1475,
      ").": 1476,
      "willĠbeĠ": 1477,
      "erĠandĠ": 1478,
      "Col": 1479,
      "actuallyĠ": 1480,
      "ementĠ": 1481,
      "intoĠtheĠ": 1482,
      "ĠwhatĠ": 1483,
      "esĠtoĠ": 1484,
      "acter": 1485,
      "ma": 1486,
      "Ġtri": 1487,
      "ush": 1488,
      "I'm": 1489,
      "disc": 1490,
      "ultĠ": 1491,
      "isĠnotĠ": 1492,
      "IĠdon'tĠ": 1493,
      "wer": 1494,
      "s.ĊĊ": 1495,
      "nor": 1496,
      "load": 1497,
      "lock": 1498,
      "stu": 1499,
      "ve": 1500,
      "d,Ġ": 1501,
      "ument": 1502,
      ");ĊĠĠĠĠ": 1503,
      "ident": 1504,
      "ele": 1505,
      "ich": 1506,
      "Thank": 1507,
      "s,ĠandĠ": 1508,
      "action": 1509,
      "Ġtheir": 1510,
      "used": 1511,
      "ishĠ": 1512,
      ".ĠT": 1513,
      "ofĠaĠ": 1514,
      "big": 1515,
      "We": 1516,
      "3.": 1517,
      "use": 1518,
      "bro": 1519,
      "dro": 1520,
      "ĠtheĊ": 1521,
      "famil": 1522,
      "system": 1523,
      "jectĠ": 1524,
      "pec": 1525,
      "dataĠ": 1526,
      "heĠwasĠ": 1527,
      "Sh": 1528,
      "actĠ": 1529,
      "cent": 1530,
      "ory": 1531,
      "probab": 1532,
      "gam": 1533,
      ".âĢĿĊ": 1534,
      "ifĠyouĠ": 1535,
      "30": 1536,
      "open": 1537,
      "ull": 1538,
      "augh": 1539,
      "pert": 1540,
      "youĠc": 1541,
      "find": 1542,
      "gg": 1543,
      "bestĠ": 1544,
      "pi": 1545,
      "appro": 1546,
      "develop": 1547,
      "pack": 1548,
      "wouldĠbeĠ": 1549,
      "âĢĶ": 1550,
      "Or": 1551,
      "ifi": 1552,
      "bi": 1553,
      "e.Ċ": 1554,
      "serv": 1555,
      ".ĠIt": 1556,
      "cap": 1557,
      "key": 1558,
      "item": 1559,
      "\",": 1560,
      "6Ġ": 1561,
      "dur": 1562,
      "SE": 1563,
      "iseĠ": 1564,
      "sureĠ": 1565,
      "fic": 1566,
      "Ġthey": 1567,
      "Ġwe": 1568,
      "Ġthat'sĠ": 1569,
      "&Ġ": 1570,
      "oolĠ": 1571,
      "e(": 1572,
      "De": 1573,
      "oveĠ": 1574,
      "withoutĠ": 1575,
      "sign": 1576,
      "lookingĠ": 1577,
      "esĠofĠ": 1578,
      "MyĠ": 1579,
      ":Ġ\"": 1580,
      "|Ġ": 1581,
      "sideĠ": 1582,
      "LE": 1583,
      "oh": 1584,
      "o,Ġ": 1585,
      "====": 1586,
      "ID": 1587,
      "amp": 1588,
      "1,Ġ": 1589,
      "eĠtr": 1590,
      "MĠ": 1591,
      "first": 1592,
      "sayĠ": 1593,
      "vent": 1594,
      "ifĠ(": 1595,
      "prett": 1596,
      "OĠ": 1597,
      "odĠ": 1598,
      "needĠ": 1599,
      "esĠtheĠ": 1600,
      "bothĠ": 1601,
      "WhenĠ": 1602,
      "%Ġ": 1603,
      "er.": 1604,
      "rele": 1605,
      "inu": 1606,
      "sum": 1607,
      "import": 1608,
      "itionĠ": 1609,
      "ock": 1610,
      "Ser": 1611,
      "interest": 1612,
      "sw": 1613,
      "fort": 1614,
      "direct": 1615,
      "mem": 1616,
      "betweenĠ": 1617,
      "after": 1618,
      "valu": 1619,
      "IT": 1620,
      "incre": 1621,
      "numberĠ": 1622,
      "ution": 1623,
      "orsĠ": 1624,
      "inn": 1625,
      "8Ġ": 1626,
      "auth": 1627,
      "car": 1628,
      "otĠ": 1629,
      "',Ġ": 1630,
      "www": 1631,
      "offĠ": 1632,
      "expect": 1633,
      "ra": 1634,
      "word": 1635,
      "coun": 1636,
      "Âł": 1637,
      "red": 1638,
      "sha": 1639,
      "roll": 1640,
      "it,Ġ": 1641,
      "eĠtheyĠ": 1642,
      "lesĠ": 1643,
      "la": 1644,
      "redĠ": 1645,
      "ireĠ": 1646,
      "foundĠ": 1647,
      "struct": 1648,
      "scri": 1649,
      "SoĠ": 1650,
      ".ĊTheĠ": 1651,
      "abil": 1652,
      "nameĠ": 1653,
      "indow": 1654,
      "mightĠ": 1655,
      "much": 1656,
      "pur": 1657,
      "prot": 1658,
      "AL": 1659,
      "therĠ": 1660,
      "character": 1661,
      "can'tĠ": 1662,
      "ouldn'tĠ": 1663,
      "singĠ": 1664,
      "alth": 1665,
      "aĠlittleĠ": 1666,
      "ink": 1667,
      "uĠ": 1668,
      "alreadyĠ": 1669,
      "haveĠaĠ": 1670,
      ",ĊĊ": 1671,
      "ular": 1672,
      "YĠ": 1673,
      "sit": 1674,
      "forĠs": 1675,
      "imeĠ": 1676,
      "ĠwhenĠ": 1677,
      "group": 1678,
      "vir": 1679,
      ",\"Ġ": 1680,
      "kindĠ": 1681,
      "ĉĉĉĉ": 1682,
      "here": 1683,
      "Se": 1684,
      "nextĠ": 1685,
      "Pr": 1686,
      "ly,Ġ": 1687,
      "ĠtryingĠtoĠ": 1688,
      "eith": 1689,
      "partic": 1690,
      "ĠĠĠĠĠĠĠĠĠĠĠĠĠĠĠĠĠĠĠĠĠĠĠĠĠĠĠĠĠĠĠĠ": 1691,
      "InĠ": 1692,
      "betterĠ": 1693,
      "Dat": 1694,
      "Ob": 1695,
      "ribut": 1696,
      "oper": 1697,
      "www.": 1698,
      "mov": 1699,
      "Ġtyp": 1700,
      "perĠ": 1701,
      "bodyĠ": 1702,
      "playĠ": 1703,
      "aboutĠtheĠ": 1704,
      "a.": 1705,
      "liv": 1706,
      "FĠ": 1707,
      "prettyĠ": 1708,
      ",âĢĿĠ": 1709,
      "ienc": 1710,
      "progr": 1711,
      "manĠ": 1712,
      "ationĠofĠ": 1713,
      "IĠcanĠ": 1714,
      "this": 1715,
      "gettingĠ": 1716,
      ".Ċ\"": 1717,
      "job": 1718,
      "writ": 1719,
      "tern": 1720,
      "US": 1721,
      "iallyĠ": 1722,
      "inĠthisĠ": 1723,
      "50": 1724,
      "feelĠ": 1725,
      "withĠaĠ": 1726,
      ".ĠF": 1727,
      "allow": 1728,
      ".ĠN": 1729,
      "nb": 1730,
      ".ĠIfĠ": 1731,
      "haveĠbeenĠ": 1732,
      ".ĠD": 1733,
      "iaĠ": 1734,
      ".ĠP": 1735,
      "aph": 1736,
      "ethod": 1737,
      "ump": 1738,
      "wa": 1739,
      "))": 1740,
      "even": 1741,
      "sonĠ": 1742,
      "yearsĠ": 1743,
      "hasĠbeenĠ": 1744,
      "7Ġ": 1745,
      "ream": 1746,
      "error": 1747,
      "del": 1748,
      "ĠwouldĠ": 1749,
      "https": 1750,
      "ht": 1751,
      "AP": 1752,
      "whyĠ": 1753,
      "reat": 1754,
      ");ĊĠĠĠĠĠĠĠĠ": 1755,
      "IâĢĻ": 1756,
      "AsĠ": 1757,
      "-1": 1758,
      "se,Ġ": 1759,
      "fileĠ": 1760,
      "cle": 1761,
      "emp": 1762,
      "lim": 1763,
      "cour": 1764,
      "headĠ": 1765,
      "With": 1766,
      "https://": 1767,
      "hum": 1768,
      "ĠthroughĠ": 1769,
      "Ġthen": 1770,
      ".Ġ\"": 1771,
      "valueĠ": 1772,
      "secondĠ": 1773,
      "jav": 1774,
      "goingĠ": 1775,
      "dem": 1776,
      "basedĠ": 1777,
      "bus": 1778,
      "non": 1779,
      "aybeĠ": 1780,
      "Ð¾": 1781,
      "example": 1782,
      "canĠbeĠ": 1783,
      "32": 1784,
      "faceĠ": 1785,
      "Ċĉ": 1786,
      "orĠs": 1787,
      "ool": 1788,
      "adv": 1789,
      "pass": 1790,
      "ThereĠ": 1791,
      "andĠthenĠ": 1792,
      "outĠofĠ": 1793,
      "e,ĠandĠ": 1794,
      "wat": 1795,
      "probablyĠ": 1796,
      "'s": 1797,
      "nbsp": 1798,
      "Ġcont": 1799,
      "itch": 1800,
      "iter": 1801,
      "complet": 1802,
      "0000": 1803,
      "ĠthisĠisĠ": 1804,
      "e_": 1805,
      "fre": 1806,
      "eĠthat": 1807,
      "imag": 1808,
      "room": 1809,
      "sĠofĠtheĠ": 1810,
      "Ġtrans": 1811,
      "lead": 1812,
      "oci": 1813,
      "It'sĠ": 1814,
      "sam": 1815,
      "List": 1816,
      "Val": 1817,
      "sinceĠ": 1818,
      ".ĠIn": 1819,
      "activ": 1820,
      "gameĠ": 1821,
      "helpĠ": 1822,
      "##": 1823,
      "ulti": 1824,
      "ĠĠĠĠĠĠĠ": 1825,
      "ieveĠ": 1826,
      "eĠthanĠ": 1827,
      "ĊĊĊ": 1828,
      "applic": 1829,
      "idd": 1830,
      "hard": 1831,
      "usic": 1832,
      "medi": 1833,
      "0,Ġ": 1834,
      "great": 1835,
      ".ĠButĠ": 1836,
      "ib": 1837,
      "ivers": 1838,
      "yĠofĠ": 1839,
      "met": 1840,
      "sionĠ": 1841,
      "tsĠ": 1842,
      "expl": 1843,
      "pointĠ": 1844,
      "Res": 1845,
      "ativ": 1846,
      "ĠisĠ": 1847,
      "option": 1848,
      "reason": 1849,
      "meric": 1850,
      "IĠwouldĠ": 1851,
      "ine": 1852,
      "itedĠ": 1853,
      "ement": 1854,
      "RO": 1855,
      "lab": 1856,
      "good": 1857,
      "gon": 1858,
      "ru": 1859,
      "ingĠinĠ": 1860,
      "&nbsp": 1861,
      "depend": 1862,
      "ely": 1863,
      "lov": 1864,
      "24": 1865,
      "CH": 1866,
      "build": 1867,
      "descri": 1868,
      "Americ": 1869,
      "consid": 1870,
      "bas": 1871,
      "geĠ": 1872,
      "tĠtheĠ": 1873,
      "And": 1874,
      "gir": 1875,
      ")ĠandĠ": 1876,
      "chn": 1877,
      "mark": 1878,
      "check": 1879,
      "stop": 1880,
      "ĠtoĠt": 1881,
      "ook": 1882,
      "oleĠ": 1883,
      "}Ġ": 1884,
      "âĢ¦": 1885,
      "ood": 1886,
      "ĊL": 1887,
      ".\"Ġ\"Ġ": 1888,
      "ĊĠĠĠ": 1889,
      "keep": 1890,
      "user": 1891,
      "h,Ġ": 1892,
      "ofĠthisĠ": 1893,
      "air": 1894,
      "wom": 1895,
      "present": 1896,
      "Im": 1897,
      "View": 1898,
      "hou": 1899,
      "IĠw": 1900,
      "Is": 1901,
      "onĠaĠ": 1902,
      "youĠm": 1903,
      "atesĠ": 1904,
      "cul": 1905,
      "search": 1906,
      "inf": 1907,
      "du": 1908,
      "ther": 1909,
      "prof": 1910,
      "ward": 1911,
      "week": 1912,
      "deĠ": 1913,
      "startĠ": 1914,
      "refer": 1915,
      "ianĠ": 1916,
      "{ĊĠĠĠĠ": 1917,
      "SheĠ": 1918,
      "pop": 1919,
      "becaus": 1920,
      "itiesĠ": 1921,
      "ge": 1922,
      "wid": 1923,
      "eĠtoĠtheĠ": 1924,
      "init": 1925,
      "ient": 1926,
      "sett": 1927,
      ".ĠC": 1928,
      "caseĠ": 1929,
      "Ġturn": 1930,
      "awayĠ": 1931,
      "enseĠ": 1932,
      "require": 1933,
      "sty": 1934,
      "*/": 1935,
      "Ġthing": 1936,
      "placeĠ": 1937,
      "AM": 1938,
      "value": 1939,
      "doingĠ": 1940,
      "urr": 1941,
      "etc": 1942,
      "larg": 1943,
      "TheyĠ": 1944,
      "functionĠ": 1945,
      "when": 1946,
      "99": 1947,
      "ityĠofĠ": 1948,
      "hal": 1949,
      "IĠthinkĠ": 1950,
      "Mar": 1951,
      "AS": 1952,
      "divid": 1953,
      "around": 1954,
      "edĠthatĠ": 1955,
      "dam": 1956,
      "longĠ": 1957,
      "(-": 1958,
      "ck": 1959,
      "light": 1960,
      "Ap": 1961,
      "sĠwereĠ": 1962,
      "Ph": 1963,
      "ger": 1964,
      "spe": 1965,
      "call": 1966,
      "mean": 1967,
      "event": 1968,
      "prom": 1969,
      "howĠtoĠ": 1970,
      "rece": 1971,
      "ilyĠ": 1972,
      "anythingĠ": 1973,
      "arri": 1974,
      "4.": 1975,
      "anyoneĠ": 1976,
      "ation,Ġ": 1977,
      "exc": 1978,
      "âĢĵ": 1979,
      "feat": 1980,
      "yingĠ": 1981,
      "sĠinĠtheĠ": 1982,
      "bin": 1983,
      "Ġter": 1984,
      "partĠ": 1985,
      "youĠareĠ": 1986,
      "gen": 1987,
      "fix": 1988,
      "kindĠofĠ": 1989,
      "CO": 1990,
      "inste": 1991,
      "enough": 1992,
      "ignĠ": 1993,
      "path": 1994,
      "priv": 1995,
      "awĠ": 1996,
      "sist": 1997,
      "sever": 1998,
      "oneĠofĠtheĠ": 1999,
      "ationalĠ": 2000,
      "she": 2001,
      "vide": 2002,
      "elseĠ": 2003,
      "UR": 2004,
      "thing": 2005,
      "againstĠ": 2006,
      "iousĠ": 2007,
      "aim": 2008,
      "emĠ": 2009,
      "littleĠ": 2010,
      "avail": 2011,
      "report": 2012,
      "ustr": 2013,
      "object": 2014,
      "_Ġ": 2015,
      "ĠwithĠtheĠ": 2016,
      "anal": 2017,
      "empt": 2018,
      "perform": 2019,
      "ner": 2020,
      "string": 2021,
      "Ġtest": 2022,
      "codeĠ": 2023,
      "pect": 2024,
      "GĠ": 2025,
      "fel": 2026,
      "wayĠtoĠ": 2027,
      "he'sĠ": 2028,
      "sing": 2029,
      "itĠtoĠ": 2030,
      "AC": 2031,
      "emberĠ": 2032,
      "40": 2033,
      "qual": 2034,
      "leftĠ": 2035,
      "edĠaĠ": 2036,
      "lifeĠ": 2037,
      "ortĠ": 2038,
      "Ġtw": 2039,
      "ĠshouldĠ": 2040,
      "hap": 2041,
      "antĠtoĠ": 2042,
      "earĠ": 2043,
      "formĠ": 2044,
      "sour": 2045,
      "'dĠ": 2046,
      "che": 2047,
      ".ĠE": 2048,
      ")ĊĠĠĠĠ": 2049,
      "gover": 2050,
      "doneĠ": 2051,
      "'mĠ": 2052,
      "ĉĉĉ": 2053,
      "ĊĠĠĠĠĠĠĠĠĠĠĠĠĠĠĠĠĠĠĠĠ": 2054,
      "ouslyĠ": 2055,
      "andro": 2056,
      "igin": 2057,
      ".ĠLetĠ": 2058,
      "/Ġ": 2059,
      "changeĠ": 2060,
      "----------------": 2061,
      "only": 2062,
      "Ġthan": 2063,
      "10Ġ": 2064,
      "DE": 2065,
      "THEĠ": 2066,
      "ng": 2067,
      "ularĠ": 2068,
      "en'tĠ": 2069,
      "Par": 2070,
      "print": 2071,
      "Ġser": 2072,
      "ĠthingsĠ": 2073,
      "ĊtheĠ": 2074,
      "inĠmyĠ": 2075,
      "wher": 2076,
      "âĪ": 2077,
      "norm": 2078,
      "atĠle": 2079,
      "row": 2080,
      "Ġther": 2081,
      "butt": 2082,
      "hour": 2083,
      "22": 2084,
      "ĠthreeĠ": 2085,
      ".ĠĊĠ": 2086,
      "ĠmoreĠ": 2087,
      "isĠthatĠ": 2088,
      "likeĠtoĠ": 2089,
      "But": 2090,
      "ix": 2091,
      "cess": 2092,
      "ance": 2093,
      "ĠĠĠĠĠĠĠĠĠĠĠĠ": 2094,
      "link": 2095,
      "apĠ": 2096,
      "IS": 2097,
      "poseĠ": 2098,
      "enjo": 2099,
      "Qu": 2100,
      "Id": 2101,
      "9Ġ": 2102,
      "vol": 2103,
      "hy": 2104,
      "param": 2105,
      "propert": 2106,
      "sĠlikeĠ": 2107,
      "overĠtheĠ": 2108,
      "mess": 2109,
      "en,Ġ": 2110,
      "box": 2111,
      "yearĠ": 2112,
      "edĠinĠtheĠ": 2113,
      "sĠonĠ": 2114,
      "ris": 2115,
      "importĠ": 2116,
      "butĠtheĠ": 2117,
      "offic": 2118,
      "index": 2119,
      "Ġme": 2120,
      "yĠtheĠ": 2121,
      "program": 2122,
      "ept": 2123,
      "ste": 2124,
      "at'sĠ": 2125,
      "dom": 2126,
      "exist": 2127,
      "etherĠ": 2128,
      "lip": 2129,
      "believeĠ": 2130,
      "web": 2131,
      "und": 2132,
      "ieĠ": 2133,
      "case": 2134,
      "ustom": 2135,
      "sĠwithĠ": 2136,
      "bit": 2137,
      "String": 2138,
      "cop": 2139,
      "Ð¸": 2140,
      "onceĠ": 2141,
      "ĊS": 2142,
      "_t": 2143,
      "cert": 2144,
      "flo": 2145,
      "esĠthatĠ": 2146,
      "underĠ": 2147,
      "Ġtog": 2148,
      "\"ĊĊ": 2149,
      "sĠaĠ": 2150,
      "Ċth": 2151,
      "oughtĠ": 2152,
      "IC": 2153,
      "ever,Ġ": 2154,
      "Ðµ": 2155,
      "classĠ": 2156,
      "vert": 2157,
      "Ġsa": 2158,
      ".ĊĊTheĠ": 2159,
      "imple": 2160,
      "found": 2161,
      ".ĠInĠ": 2162,
      "dev": 2163,
      "quiteĠ": 2164,
      ".ĠWeĠ": 2165,
      "Ad": 2166,
      "beĠtheĠ": 2167,
      "someoneĠ": 2168,
      "80": 2169,
      "hist": 2170,
      ">ĊĊ": 2171,
      "iel": 2172,
      "#Ġ": 2173,
      "ia": 2174,
      "mp": 2175,
      "his": 2176,
      "rit": 2177,
      "ateg": 2178,
      ",ĠsoĠ": 2179,
      "guy": 2180,
      "android": 2181,
      "break": 2182,
      "Pl": 2183,
      "dou": 2184,
      "mustĠ": 2185,
      "eryĠ": 2186,
      "almostĠ": 2187,
      "html": 2188,
      "edĠwithĠ": 2189,
      "64": 2190,
      "Op": 2191,
      "$Ġ": 2192,
      "loy": 2193,
      "config": 2194,
      "ĠwhoĠ": 2195,
      "Name": 2196,
      "Er": 2197,
      "ven": 2198,
      "-t": 2199,
      "!!": 2200,
      "underst": 2201,
      "been": 2202,
      "rang": 2203,
      "Be": 2204,
      "keepĠ": 2205,
      "manag": 2206,
      ")Ġ=Ġ": 2207,
      "-3": 2208,
      "everythingĠ": 2209,
      "Not": 2210,
      "document": 2211,
      "I'dĠ": 2212,
      "naĠ": 2213,
      "ĠwhichĠ": 2214,
      "aĠlotĠofĠ": 2215,
      "ienceĠ": 2216,
      "BĠ": 2217,
      "olv": 2218,
      "esĠinĠ": 2219,
      "runĠ": 2220,
      "continu": 2221,
      "ThatĠ": 2222,
      "timeĠ": 2223,
      "Le": 2224,
      "ah": 2225,
      "ĠsomeĠ": 2226,
      "0x": 2227,
      "yea": 2228,
      "....": 2229,
      "bar": 2230,
      "better": 2231,
      "version": 2232,
      "Ġmon": 2233,
      "plan": 2234,
      "followingĠ": 2235,
      "watch": 2236,
      "Wor": 2237,
      "govern": 2238,
      "on,Ġ": 2239,
      "aredĠ": 2240,
      "s)": 2241,
      "effect": 2242,
      "adi": 2243,
      "commun": 2244,
      "youĠhaveĠ": 2245,
      "sugg": 2246,
      "atur": 2247,
      "s.ĠĠ": 2248,
      "graph": 2249,
      "org/": 2250,
      "AllĠ": 2251,
      "aleĠ": 2252,
      "1/": 2253,
      "suc": 2254,
      ".S": 2255,
      "calledĠ": 2256,
      "gt": 2257,
      "23": 2258,
      "origin": 2259,
      "Ð°": 2260,
      "war": 2261,
      "second": 2262,
      "pick": 2263,
      "level": 2264,
      "ingĠthisĠ": 2265,
      "mom": 2266,
      "I'llĠ": 2267,
      "Ed": 2268,
      "outĠtheĠ": 2269,
      "count": 2270,
      "esĠareĠ": 2271,
      "has": 2272,
      "havingĠ": 2273,
      "e,ĠbutĠ": 2274,
      "lookedĠ": 2275,
      "ĊWhatĠ": 2276,
      "2,Ġ": 2277,
      "busin": 2278,
      "varĠ": 2279,
      ">ĊĠĠĠĠ": 2280,
      "[M": 2281,
      "voidĠ": 2282,
      "aĠfewĠ": 2283,
      "lang": 2284,
      "problemĠ": 2285,
      ".get": 2286,
      "ĠthereĠisĠ": 2287,
      "ateĠtheĠ": 2288,
      "deal": 2289,
      "ode": 2290,
      "rist": 2291,
      "ometh": 2292,
      "ember": 2293,
      "updat": 2294,
      "invest": 2295,
      "&nbsp;": 2296,
      ".ĠSheĠ": 2297,
      "Man": 2298,
      "1,": 2299,
      "hom": 2300,
      "night": 2301,
      ",ĠitĠ": 2302,
      "{ĊĠĠĠĠĠĠĠĠ": 2303,
      "consider": 2304,
      "etim": 2305,
      "ES": 2306,
      "econ": 2307,
      "dĠtoĠ": 2308,
      "land": 2309,
      ",ĠtheyĠ": 2310,
      "bor": 2311,
      ",ĠthatĠ": 2312,
      "askĠ": 2313,
      "ism": 2314,
      "http://www.": 2315,
      "atelyĠ": 2316,
      "alse": 2317,
      "ll": 2318,
      "?ĠĠ": 2319,
      "aĠbitĠ": 2320,
      "ca": 2321,
      ".ĠTheyĠ": 2322,
      "code": 2323,
      "againĠ": 2324,
      "ailĠ": 2325,
      "==Ġ": 2326,
      "(Ġ": 2327,
      "istr": 2328,
      "versionĠ": 2329,
      "ise": 2330,
      "public": 2331,
      ".\"Ċ": 2332,
      "ox": 2333,
      "posit": 2334,
      "project": 2335,
      "cĠ": 2336,
      "extr": 2337,
      "isĠtoĠ": 2338,
      "s.ĠTheĠ": 2339,
      "60": 2340,
      "********": 2341,
      "storyĠ": 2342,
      "izeĠ": 2343,
      "aĊ": 2344,
      "ally,Ġ": 2345,
      "sĊĊ": 2346,
      "plyĠ": 2347,
      "nes": 2348,
      "Ð½": 2349,
      "osĠ": 2350,
      "doesĠnotĠ": 2351,
      "def": 2352,
      "ĠĠĠĠĠĠĠĠĠ": 2353,
      "i.": 2354,
      "asĠwellĠ": 2355,
      "akĠ": 2356,
      "Reg": 2357,
      "iqu": 2358,
      ".ĠWh": 2359,
      "text": 2360,
      "Ġmin": 2361,
      "wĠ": 2362,
      "To": 2363,
      "izedĠ": 2364,
      ".ĠAndĠ": 2365,
      "e.\"Ġ\"": 2366,
      "ĠsheĠ": 2367,
      "position": 2368,
      "ForĠ": 2369,
      "conn": 2370,
      "pag": 2371,
      "--Ġ": 2372,
      "workingĠ": 2373,
      "got": 2374,
      "Per": 2375,
      "andĠt": 2376,
      "irdĠ": 2377,
      "shouldĠbeĠ": 2378,
      "addres": 2379,
      "=>Ġ": 2380,
      "sequ": 2381,
      "hon": 2382,
      "ery": 2383,
      "untilĠ": 2384,
      "ekĠ": 2385,
      "expres": 2386,
      "s(": 2387,
      "foo": 2388,
      "âĢĺ": 2389,
      "Joh": 2390,
      "icsĠ": 2391,
      "relation": 2392,
      "getĠtheĠ": 2393,
      "field": 2394,
      "isn'tĠ": 2395,
      "ĠthoughtĠ": 2396,
      "grow": 2397,
      "scre": 2398,
      "whichĠisĠ": 2399,
      "ople": 2400,
      "eitherĠ": 2401,
      "yout": 2402,
      "pan": 2403,
      "Univers": 2404,
      "',": 2405,
      "stateĠ": 2406,
      "prov": 2407,
      "alkĠ": 2408,
      "beh": 2409,
      "rĠ": 2410,
      "makesĠ": 2411,
      "ĊĠĠĠĠĠ": 2412,
      "cam": 2413,
      "bal": 2414,
      "lection": 2415,
      "less": 2416,
      "pot": 2417,
      "<Ġ": 2418,
      "As": 2419,
      "NotĠ": 2420,
      ".âĢĿĠ": 2421,
      "000": 2422,
      "sĠtoĠbeĠ": 2423,
      ".ĠIt'sĠ": 2424,
      "ThisĠisĠ": 2425,
      "asĠheĠ": 2426,
      "NO": 2427,
      "ground": 2428,
      "worldĠ": 2429,
      "excep": 2430,
      "yn": 2431,
      "Tim": 2432,
      "{Ġ": 2433,
      "ĠthingĠ": 2434,
      "pul": 2435,
      "fat": 2436,
      "velĠ": 2437,
      "uchĠ": 2438,
      "defa": 2439,
      "nothingĠ": 2440,
      "ToĠ": 2441,
      "clear": 2442,
      "27": 2443,
      "ĊĠ*Ġ": 2444,
      "next": 2445,
      "Ġclass": 2446,
      "âĢĻreĠ": 2447,
      "childr": 2448,
      "insteadĠ": 2449,
      "includeĠ": 2450,
      "IĠam": 2451,
      "sor": 2452,
      "ĊLetĠ": 2453,
      "][": 2454,
      "00Ġ": 2455,
      "exec": 2456,
      "openĠ": 2457,
      "support": 2458,
      "fectĠ": 2459,
      "ace": 2460,
      "tionĠofĠ": 2461,
      "'sĠtheĠ": 2462,
      "wholeĠ": 2463,
      "-4": 2464,
      ".ĠO": 2465,
      "Ġthere'sĠ": 2466,
      "**2Ġ": 2467,
      "likeĠtheĠ": 2468,
      "JustĠ": 2469,
      "NewĠ": 2470,
      "conf": 2471,
      ";ĊĠĠĠĠĠĠĠĠ": 2472,
      "addĠ": 2473,
      "ingĠitĠ": 2474,
      "select": 2475,
      "[Music": 2476,
      "-0": 2477,
      ")/": 2478,
      "ookĠ": 2479,
      "grad": 2480,
      "ben": 2481,
      "hold": 2482,
      "homeĠ": 2483,
      "ION": 2484,
      "searchĠ": 2485,
      "forc": 2486,
      ",ĠheĠ": 2487,
      "pli": 2488,
      "ryĠ": 2489,
      "ice": 2490,
      "Bl": 2491,
      "left": 2492,
      "uteĠ": 2493,
      "numberĠofĠ": 2494,
      "Gre": 2495,
      ".\"Ġ": 2496,
      "ength": 2497,
      "contain": 2498,
      "5.": 2499,
      "step": 2500,
      "aĠandĠ": 2501,
      "recomm": 2502,
      "farĠ": 2503,
      "eĠthereĠ": 2504,
      "will": 2505,
      "28": 2506,
      "s,ĠbutĠ": 2507,
      "RĠ": 2508,
      "foc": 2509,
      "s-": 2510,
      "acros": 2511,
      "runningĠ": 2512,
      "ĠthereĠareĠ": 2513,
      "handĠ": 2514,
      "understand": 2515,
      "organ": 2516,
      "pay": 2517,
      "&gt": 2518,
      "ingĠofĠ": 2519,
      "n't": 2520,
      "pit": 2521,
      "II": 2522,
      "Sc": 2523,
      "cameĠ": 2524,
      "feltĠ": 2525,
      "pract": 2526,
      ">ĊĠĠĠĠĠĠĠĠ": 2527,
      "createĠ": 2528,
      "OneĠ": 2529,
      ".ĠWhatĠ": 2530,
      "appear": 2531,
      "eter": 2532,
      "Well": 2533,
      ".ĠYou": 2534,
      "callĠ": 2535,
      "star": 2536,
      "zĠ": 2537,
      "33": 2538,
      "lib": 2539,
      "IL": 2540,
      "people": 2541,
      "mentsĠ": 2542,
      "bitĠ": 2543,
      "ense": 2544,
      ",Ġt": 2545,
      "s:Ġ": 2546,
      ",ĠthenĠ": 2547,
      "cho": 2548,
      "AD": 2549,
      "ypeĠ": 2550,
      "Af": 2551,
      "seenĠ": 2552,
      "quick": 2553,
      "CT": 2554,
      "ym": 2555,
      "liveĠ": 2556,
      "i-": 2557,
      "eĠtim": 2558,
      ",Ġand": 2559,
      "lot": 2560,
      "decid": 2561,
      "along": 2562,
      "userĠ": 2563,
      "tĠandĠ": 2564,
      "uth": 2565,
      "atĠleastĠ": 2566,
      "kid": 2567,
      "py": 2568,
      "Don": 2569,
      "26": 2570,
      "Mod": 2571,
      "IĠjustĠ": 2572,
      "power": 2573,
      "ian": 2574,
      "Type": 2575,
      "is,Ġ": 2576,
      "viewĠ": 2577,
      ".ĠĊ": 2578,
      "Ġmod": 2579,
      "ifĠtheĠ": 2580,
      "artic": 2581,
      "Bu": 2582,
      "product": 2583,
      "wasĠtheĠ": 2584,
      "fullĠ": 2585,
      "Rep": 2586,
      "apt": 2587,
      "number": 2588,
      "areĠtheĠ": 2589,
      "Cal": 2590,
      "e.ĊĊ": 2591,
      "privateĠ": 2592,
      "eirĠ": 2593,
      "ĠtheyĠareĠ": 2594,
      "($": 2595,
      "rolĠ": 2596,
      "](": 2597,
      "last": 2598,
      "realĠ": 2599,
      "iver": 2600,
      "aj": 2601,
      "usedĠtoĠ": 2602,
      "thisĠ": 2603,
      "lightĠ": 2604,
      "ures": 2605,
      "dateĠ": 2606,
      "LO": 2607,
      "wrong": 2608,
      "!ĊĊ": 2609,
      "each": 2610,
      ".,Ġ": 2611,
      "alkingĠ": 2612,
      "los": 2613,
      "ether": 2614,
      "fur": 2615,
      "edĠhisĠ": 2616,
      "map": 2617,
      "fav": 2618,
      "edĠbyĠtheĠ": 2619,
      "upĠtoĠ": 2620,
      "discus": 2621,
      "itor": 2622,
      "____": 2623,
      "polit": 2624,
      "If": 2625,
      "suggest": 2626,
      "KĠ": 2627,
      "UL": 2628,
      "ins": 2629,
      "moreĠthanĠ": 2630,
      "learn": 2631,
      "access": 2632,
      "replac": 2633,
      "ĠthroughĠtheĠ": 2634,
      "onĠmyĠ": 2635,
      "men": 2636,
      "ERĠ": 2637,
      "Dr": 2638,
      "eyesĠ": 2639,
      "gres": 2640,
      "arkĠ": 2641,
      "seas": 2642,
      "ÑĤ": 2643,
      "UN": 2644,
      "IM": 2645,
      "Ġtow": 2646,
      "mun": 2647,
      "uredĠ": 2648,
      "ouch": 2649,
      "2*": 2650,
      "aĠgoodĠ": 2651,
      "experienc": 2652,
      "iev": 2653,
      "far": 2654,
      "dition": 2655,
      "endingĠ": 2656,
      "ideaĠ": 2657,
      "alĠs": 2658,
      "ĠwereĠ": 2659,
      "ED": 2660,
      "youĠs": 2661,
      "empl": 2662,
      "receiv": 2663,
      "else": 2664,
      "ationĠandĠ": 2665,
      "()Ġ": 2666,
      ".\"Ġ\"IĠ": 2667,
      "direc": 2668,
      "athĠ": 2669,
      "likeĠth": 2670,
      "ity,Ġ": 2671,
      ".ĠG": 2672,
      "care": 2673,
      "request": 2674,
      ".ĠĠIĠ": 2675,
      ",ĠthisĠ": 2676,
      "non-": 2677,
      "fut": 2678,
      "espec": 2679,
      "ugg": 2680,
      "es.": 2681,
      "dig": 2682,
      ").ĊĊ": 2683,
      "regard": 2684,
      "draw": 2685,
      "color": 2686,
      "near": 2687,
      "sex": 2688,
      "youĠknow": 2689,
      "Hi": 2690,
      "highĠ": 2691,
      "0,": 2692,
      "IĠthink": 2693,
      "ĠtellĠ": 2694,
      "edĠasĠ": 2695,
      "previ": 2696,
      "girl": 2697,
      "identĠ": 2698,
      "Data": 2699,
      "currentĠ": 2700,
      "donâĢĻtĠ": 2701,
      "aĠp": 2702,
      "doĠnotĠ": 2703,
      "design": 2704,
      "29": 2705,
      "world": 2706,
      "ingĊ": 2707,
      "o-": 2708,
      "=Ġ\"": 2709,
      "inkĠ": 2710,
      "erĠofĠ": 2711,
      "careĠ": 2712,
      "input": 2713,
      "inte": 2714,
      "charg": 2715,
      "Text": 2716,
      "a-": 2717,
      "inĠhisĠ": 2718,
      "useĠtheĠ": 2719,
      "ĠtookĠ": 2720,
      "aĠsm": 2721,
      "umn": 2722,
      "agre": 2723,
      "informationĠ": 2724,
      "uro": 2725,
      "multi": 2726,
      "ung": 2727,
      "><": 2728,
      "model": 2729,
      "čĊĠĠ": 2730,
      "rest": 2731,
      "showĠ": 2732,
      "haveĠtheĠ": 2733,
      "gonnaĠ": 2734,
      "atorĠ": 2735,
      ",ĠweĠ": 2736,
      "startedĠ": 2737,
      "ientĠ": 2738,
      "Yea": 2739,
      "notĠbeĠ": 2740,
      "ĠtheĠt": 2741,
      "law": 2742,
      "cli": 2743,
      "cat": 2744,
      "arch": 2745,
      "itâĢĻsĠ": 2746,
      "away": 2747,
      "Can": 2748,
      "ethodĠ": 2749,
      "Mon": 2750,
      "sle": 2751,
      "System": 2752,
      "aster": 2753,
      "reci": 2754,
      "bott": 2755,
      "oupleĠ": 2756,
      "ingĠhisĠ": 2757,
      "All": 2758,
      "uresĠ": 2759,
      "45": 2760,
      "questionĠ": 2761,
      "parent": 2762,
      "addition": 2763,
      "see": 2764,
      "relationship": 2765,
      "ountĠ": 2766,
      "oll": 2767,
      "ere'sĠ": 2768,
      "viron": 2769,
      "self.": 2770,
      ".ĠW": 2771,
      "var": 2772,
      "Stat": 2773,
      "pleaseĠ": 2774,
      "uckĠ": 2775,
      "Get": 2776,
      ".ĠHow": 2777,
      "\",Ġ\"": 2778,
      "sn": 2779,
      "Ġtechn": 2780,
      "edĠforĠ": 2781,
      "}ĊĠĠĠĠ": 2782,
      "exact": 2783,
      "e.ĠTheĠ": 2784,
      "array": 2785,
      "ĠtryĠtoĠ": 2786,
      ",Ġ\"": 2787,
      "vot": 2788,
      "cas": 2789,
      "body": 2790,
      "edĠtoĠtheĠ": 2791,
      "\":Ġ\"": 2792,
      "sem": 2793,
      "ĠÐ": 2794,
      "35": 2795,
      "onĠs": 2796,
      "alĠc": 2797,
      "everyoneĠ": 2798,
      "fullyĠ": 2799,
      "author": 2800,
      "remain": 2801,
      "čĊĠĠĠĠ": 2802,
      "ermin": 2803,
      "alsĠ": 2804,
      "venĠ": 2805,
      "I'mĠnotĠ": 2806,
      "=ĠnewĠ": 2807,
      "AB": 2808,
      "ofĠhisĠ": 2809,
      "necess": 2810,
      "method": 2811,
      "hadĠtoĠ": 2812,
      ",ĠM": 2813,
      "record": 2814,
      "usingĠtheĠ": 2815,
      "countr": 2816,
      "process": 2817,
      "ĠthatĠisĠ": 2818,
      "content": 2819,
      "anim": 2820,
      "ingĠtoĠtheĠ": 2821,
      "health": 2822,
      "bed": 2823,
      "ĠthoughĠ": 2824,
      "piec": 2825,
      "rot": 2826,
      "ension": 2827,
      "begin": 2828,
      "pap": 2829,
      ".j": 2830,
      "intern": 2831,
      "leav": 2832,
      "ct": 2833,
      "Ġwork": 2834,
      "tersĠ": 2835,
      "different": 2836,
      "moveĠ": 2837,
      "definit": 2838,
      "fron": 2839,
      "ptĠ": 2840,
      "Dep": 2841,
      "detail": 2842,
      "keyĠ": 2843,
      "badĠ": 2844,
      "den": 2845,
      "ounc": 2846,
      "iledĠ": 2847,
      "thatĠ": 2848,
      "answer": 2849,
      "ourc": 2850,
      "andĠIĠ": 2851,
      "groupĠ": 2852,
      "ton": 2853,
      "sil": 2854,
      "1)": 2855,
      "$\\": 2856,
      "getsĠ": 2857,
      "0.0": 2858,
      "givenĠ": 2859,
      "comingĠ": 2860,
      "âĢĵĠ": 2861,
      "listĠ": 2862,
      ",ĠtoĠ": 2863,
      "restĠ": 2864,
      "ĠmeĠ": 2865,
      "ofĠmyĠ": 2866,
      "posed": 2867,
      "...\"Ġ\"": 2868,
      "Am": 2869,
      "we'reĠ": 2870,
      "ificĠ": 2871,
      "ore": 2872,
      "enter": 2873,
      "nightĠ": 2874,
      "Ð¾Ð": 2875,
      "connect": 2876,
      "aĠlotĠ": 2877,
      "whenĠIĠ": 2878,
      "uk": 2879,
      "90": 2880,
      "()Ġ{": 2881,
      "Ġtot": 2882,
      "mentĠofĠ": 2883,
      ".ĠR": 2884,
      "assum": 2885,
      "Hel": 2886,
      "saf": 2887,
      "offer": 2888,
      "month": 2889,
      "aboveĠ": 2890,
      "itle": 2891,
      ".ĠĠTheĠ": 2892,
      ".Ġ(": 2893,
      "s_": 2894,
      "lockĠ": 2895,
      "Ġteam": 2896,
      "NoĠ": 2897,
      "match": 2898,
      "========": 2899,
      "maybeĠ": 2900,
      ".ĠThereĠ": 2901,
      "selv": 2902,
      "servic": 2903,
      "36": 2904,
      "ifĠIĠ": 2905,
      "edĠitĠ": 2906,
      "mag": 2907,
      "atureĠ": 2908,
      "stit": 2909,
      "pageĠ": 2910,
      "s.\"Ġ\"": 2911,
      "Inter": 2912,
      "implement": 2913,
      "itingĠ": 2914,
      "script": 2915,
      "langu": 2916,
      "stringĠ": 2917,
      ".ĠSoĠ": 2918,
      "iredĠ": 2919,
      "UT": 2920,
      "flu": 2921,
      "Ġwhat": 2922,
      "remov": 2923,
      ").Ċ": 2924,
      "s:": 2925,
      "HowĠ": 2926,
      "y-": 2927,
      "backĠtoĠ": 2928,
      ".t": 2929,
      "push": 2930,
      "XĠ": 2931,
      "3,Ġ": 2932,
      "Window": 2933,
      "uhĠ": 2934,
      "leaveĠ": 2935,
      "gaveĠ": 2936,
      "issueĠ": 2937,
      "libr": 2938,
      "ities": 2939,
      "Te": 2940,
      "ier": 2941,
      "prim": 2942,
      "answ": 2943,
      "wordĠ": 2944,
      "ffer": 2945,
      "ning": 2946,
      "block": 2947,
      "bug": 2948,
      "akingĠ": 2949,
      "wasĠaĠ": 2950,
      "andĊ": 2951,
      "becomeĠ": 2952,
      "ardsĠ": 2953,
      "ĊĊĠĠĠĠ": 2954,
      "null": 2955,
      "Int": 2956,
      ",ĊĠĠĠĠ": 2957,
      "worksĠ": 2958,
      "fieldĠ": 2959,
      "stra": 2960,
      "reduc": 2961,
      "makingĠ": 2962,
      "HT": 2963,
      "ityĠtoĠ": 2964,
      "(t": 2965,
      "main": 2966,
      "Add": 2967,
      "Act": 2968,
      "Do": 2969,
      ",ĠaĠ": 2970,
      "fail": 2971,
      "++": 2972,
      "spect": 2973,
      "exampleĠ": 2974,
      "okayĠ": 2975,
      "37": 2976,
      "(x": 2977,
      "yĊ": 2978,
      "review": 2979,
      "AG": 2980,
      "ĊĊĊĊ": 2981,
      "mainĠ": 2982,
      "beaut": 2983,
      "ention": 2984,
      "phot": 2985,
      "ett": 2986,
      "levelĠ": 2987,
      "?\"Ġ\"Ġ": 2988,
      "looksĠ": 2989,
      "could": 2990,
      "don't": 2991,
      "ĠcouldĠ": 2992,
      "buildĠ": 2993,
      "aĠfew": 2994,
      "endedĠ": 2995,
      "stre": 2996,
      "ed.Ċ": 2997,
      "most": 2998,
      "hor": 2999,
      "niceĠ": 3000,
      "freeĠ": 3001,
      "mad": 3002,
      "oftw": 3003,
      ",ĠorĠ": 3004,
      "_P": 3005,
      "wantedĠtoĠ": 3006,
      "Mic": 3007,
      "button": 3008,
      "rc": 3009,
      "bersĠ": 3010,
      "uh": 3011,
      "ĠthatĠIĠ": 3012,
      "arget": 3013,
      "lingĠ": 3014,
      "tionsĠ": 3015,
      "conc": 3016,
      "etĠal": 3017,
      "Nor": 3018,
      "',Ġ'": 3019,
      "-5": 3020,
      "Chin": 3021,
      "IsĠ": 3022,
      "By": 3023,
      "wasn'tĠ": 3024,
      "wonder": 3025,
      "VĠ": 3026,
      "pict": 3027,
      "unch": 3028,
      "claim": 3029,
      "didĠnotĠ": 3030,
      "Ñģ": 3031,
      "e.ĠIĠ": 3032,
      "youĠtoĠ": 3033,
      "io": 3034,
      "elec": 3035,
      "base": 3036,
      "Dis": 3037,
      "ender": 3038,
      "<div": 3039,
      "Ġclass=\"": 3040,
      "ror": 3041,
      "illionĠ": 3042,
      "datab": 3043,
      "6.": 3044,
      "strong": 3045,
      "Ġcan": 3046,
      "upposeĠ": 3047,
      "38": 3048,
      "didnâĢĻtĠ": 3049,
      "</div": 3050,
      "lowĠ": 3051,
      "bur": 3052,
      "20Ġ": 3053,
      ")ĊĠĠĠĠĠĠĠĠ": 3054,
      "âĢĿĊâĢľ": 3055,
      "ric": 3056,
      "writt": 3057,
      "edic": 3058,
      "imp": 3059,
      "diffic": 3060,
      "ive": 3061,
      "mind": 3062,
      "clas": 3063,
      "availableĠ": 3064,
      "lay": 3065,
      "Sch": 3066,
      "ET": 3067,
      "econom": 3068,
      ");ĊĠĠĠĠĠĠĠĠĠĠĠĠ": 3069,
      "cover": 3070,
      "illion": 3071,
      "possibleĠ": 3072,
      "WhyĠ": 3073,
      "finish": 3074,
      "includingĠ": 3075,
      "utionĠ": 3076,
      "sĠfromĠ": 3077,
      "td": 3078,
      "appreci": 3079,
      "OS": 3080,
      "rac": 3081,
      "ÑĢ": 3082,
      "unĠ": 3083,
      "sal": 3084,
      ":Ġ'": 3085,
      "boy": 3086,
      "px": 3087,
      "false": 3088,
      "firm": 3089,
      "server": 3090,
      "understandĠ": 3091,
      "pedĠ": 3092,
      "enn": 3093,
      "Mr": 3094,
      "sound": 3095,
      "suchĠasĠ": 3096,
      "enjoy": 3097,
      "host": 3098,
      "DoĠ": 3099,
      "who": 3100,
      "bil": 3101,
      "kill": 3102,
      "Of": 3103,
      "especiallyĠ": 3104,
      "youĠcan": 3105,
      "ofĠtheseĠ": 3106,
      "ilar": 3107,
      "notic": 3108,
      "UĠ": 3109,
      "hardĠ": 3110,
      "erc": 3111,
      "igĠ": 3112,
      "ĠtoldĠ": 3113,
      "70": 3114,
      "display": 3115,
      "OFĠ": 3116,
      "application": 3117,
      "Pres": 3118,
      "wantĠ": 3119,
      "agesĠ": 3120,
      "\\n": 3121,
      "ĠtoĠaĠ": 3122,
      "tedĠ": 3123,
      "erĠisĠ": 3124,
      "Ġcol": 3125,
      "Christ": 3126,
      "class=\"": 3127,
      "sav": 3128,
      "reach": 3129,
      "separ": 3130,
      "Sp": 3131,
      "itĠandĠ": 3132,
      "ĠwhereĠ": 3133,
      "youĠknowĠ": 3134,
      "oftenĠ": 3135,
      "environ": 3136,
      "syn": 3137,
      "onĠhisĠ": 3138,
      "ech": 3139,
      "ibleĠ": 3140,
      "ies,Ġ": 3141,
      "determin": 3142,
      "ule": 3143,
      "heav": 3144,
      "Ã©": 3145,
      "leaseĠ": 3146,
      "local": 3147,
      "mou": 3148,
      "involv": 3149,
      ",Ġbut": 3150,
      "howĠm": 3151,
      "very": 3152,
      "story": 3153,
      "accord": 3154,
      "centĠ": 3155,
      "fiveĠ": 3156,
      "onesĠ": 3157,
      ",ĠwhichĠ": 3158,
      "havi": 3159,
      "File": 3160,
      "wentĠ": 3161,
      "yetĠ": 3162,
      "obvi": 3163,
      "actionĠ": 3164,
      "phys": 3165,
      "p.": 3166,
      "twoĠ": 3167,
      "34": 3168,
      "ence": 3169,
      "pas": 3170,
      "polic": 3171,
      "ray": 3172,
      "supportĠ": 3173,
      "studi": 3174,
      "loadĠ": 3175,
      "Object": 3176,
      "wardĠ": 3177,
      "mm": 3178,
      ";ĊĠĠ": 3179,
      "fore": 3180,
      "baseĠ": 3181,
      "videoĠ": 3182,
      "ision": 3183,
      "earlyĠ": 3184,
      "Ċĉĉ": 3185,
      "also": 3186,
      "Ġthey'reĠ": 3187,
      "yet": 3188,
      ");Ġ": 3189,
      "constĠ": 3190,
      "Rec": 3191,
      "ordĠ": 3192,
      "educ": 3193,
      "checkĠ": 3194,
      "imĠ": 3195,
      "upĠtheĠ": 3196,
      "StringĠ": 3197,
      "ifyĠ": 3198,
      "ikeĠ": 3199,
      "ry": 3200,
      "meanĠ": 3201,
      "],Ġ": 3202,
      "potent": 3203,
      "IG": 3204,
      "pastĠ": 3205,
      "importantĠ": 3206,
      "individ": 3207,
      "peri": 3208,
      "New": 3209,
      "phoneĠ": 3210,
      "que": 3211,
      "usuallyĠ": 3212,
      "element": 3213,
      "ingĠt": 3214,
      "?âĢĿĠ": 3215,
      ".ĠAĠ": 3216,
      "smallĠ": 3217,
      "har": 3218,
      "couldĠbeĠ": 3219,
      ".ĊĊĊ": 3220,
      "_S": 3221,
      "dest": 3222,
      "NS": 3223,
      "roduc": 3224,
      "netĠ": 3225,
      "sinc": 3226,
      "mail": 3227,
      "Car": 3228,
      "secur": 3229,
      "irc": 3230,
      "Des": 3231,
      "familyĠ": 3232,
      "orĠm": 3233,
      "bedĠ": 3234,
      "My": 3235,
      "comput": 3236,
      "ĠtoĠgetĠ": 3237,
      "indic": 3238,
      "style": 3239,
      "IP": 3240,
      "definitelyĠ": 3241,
      "rand": 3242,
      "ãģ": 3243,
      "âĢĻĠ": 3244,
      "cod": 3245,
      "ĠĠĊ": 3246,
      "Excep": 3247,
      "url": 3248,
      "dy": 3249,
      "AnyĠ": 3250,
      "Ġthought": 3251,
      "âĪĴ": 3252,
      "glo": 3253,
      "flow": 3254,
      "7.": 3255,
      "window": 3256,
      "knownĠ": 3257,
      "ifiedĠ": 3258,
      "uleĠ": 3259,
      ",ĠasĠ": 3260,
      "Fir": 3261,
      "rout": 3262,
      "eptĠ": 3263,
      "energ": 3264,
      "slow": 3265,
      "ers,Ġ": 3266,
      "NĠ": 3267,
      ".c": 3268,
      "sĠisĠ": 3269,
      "meas": 3270,
      "[Music]Ġ": 3271,
      "enoughĠ": 3272,
      "Any": 3273,
      "Engl": 3274,
      "upĠandĠ": 3275,
      "aver": 3276,
      "whenĠtheĠ": 3277,
      "nessĠ": 3278,
      "mission": 3279,
      "max": 3280,
      "situ": 3281,
      "ribu": 3282,
      "encyĠ": 3283,
      "Po": 3284,
      "Ab": 3285,
      "blyĠ": 3286,
      "IĠwantĠtoĠ": 3287,
      "door": 3288,
      "Co": 3289,
      "3*": 3290,
      "Item": 3291,
      "Jo": 3292,
      "['": 3293,
      "staticĠ": 3294,
      "IĠhadĠ": 3295,
      "notĠtheĠ": 3296,
      "ogn": 3297,
      "tri": 3298,
      "into": 3299,
      "////": 3300,
      ".ĠI'mĠ": 3301,
      "name=\"": 3302,
      "Ġtell": 3303,
      "onĠm": 3304,
      "ĊĠĠĠĠĠĠĠĠĠĠ": 3305,
      "21": 3306,
      "comment": 3307,
      "ond": 3308,
      "}{": 3309,
      "resultĠ": 3310,
      ",ĠS": 3311,
      "absol": 3312,
      "ez": 3313,
      "employ": 3314,
      "bt": 3315,
      "severalĠ": 3316,
      "respect": 3317,
      "ingĠto": 3318,
      "}ĊĊĠĠĠĠ": 3319,
      "rid": 3320,
      "ainingĠ": 3321,
      "nic": 3322,
      "Gu": 3323,
      "asĠwell": 3324,
      "brok": 3325,
      "\":Ġ": 3326,
      "000Ġ": 3327,
      "bigĠ": 3328,
      "urĠ": 3329,
      "\")": 3330,
      "powerĠ": 3331,
      "Di": 3332,
      ".org/": 3333,
      "hasĠaĠ": 3334,
      "ĠtimesĠ": 3335,
      "></": 3336,
      "rap": 3337,
      "against": 3338,
      "youĠwantĠtoĠ": 3339,
      "Up": 3340,
      "Ġtalk": 3341,
      "scen": 3342,
      "umpĠ": 3343,
      "Ġtype": 3344,
      "hol": 3345,
      "associ": 3346,
      "ĠthatĠtheyĠ": 3347,
      "sent": 3348,
      "ing.": 3349,
      "daysĠ": 3350,
      "soc": 3351,
      "kind": 3352,
      "ater": 3353,
      "sĠtoĠtheĠ": 3354,
      "respond": 3355,
      "finallyĠ": 3356,
      "maj": 3357,
      "would": 3358,
      "ityĠandĠ": 3359,
      "trans": 3360,
      ".ĊĊA:ĊĊ": 3361,
      "8.": 3362,
      "Ġmonth": 3363,
      "ho": 3364,
      "../": 3365,
      "comesĠ": 3366,
      "friendĠ": 3367,
      "othersĠ": 3368,
      "bad": 3369,
      "SS": 3370,
      "La": 3371,
      "75": 3372,
      "afterĠtheĠ": 3373,
      "nection": 3374,
      "fall": 3375,
      "control": 3376,
      "behavi": 3377,
      "cell": 3378,
      "s,Ċ": 3379,
      "atter": 3380,
      "ization": 3381,
      "correct": 3382,
      "=Ġ0": 3383,
      "etimesĠ": 3384,
      "Also": 3385,
      "Ro": 3386,
      "meet": 3387,
      "becom": 3388,
      "ĠsaidĠ": 3389,
      "holdĠ": 3390,
      "Ġsup": 3391,
      "hadĠbeenĠ": 3392,
      "edĠonĠ": 3393,
      "won'tĠ": 3394,
      "outĠofĠtheĠ": 3395,
      "omethingĠ": 3396,
      "rom": 3397,
      ">Ċ<": 3398,
      "ild": 3399,
      "android:": 3400,
      "groundĠ": 3401,
      "IâĢĻmĠ": 3402,
      "line": 3403,
      "proces": 3404,
      "past": 3405,
      "39": 3406,
      "?ĊĊA:ĊĊ": 3407,
      "round": 3408,
      "arryĠ": 3409,
      "ection": 3410,
      "test": 3411,
      "amaz": 3412,
      "ply": 3413,
      "until": 3414,
      "install": 3415,
      "irt": 3416,
      "avo": 3417,
      "gle": 3418,
      "hur": 3419,
      "ANDĠ": 3420,
      "Cor": 3421,
      "experienceĠ": 3422,
      "stuff": 3423,
      "liter": 3424,
      "(c": 3425,
      "čĊčĊ": 3426,
      "edĠto": 3427,
      "top": 3428,
      "ift": 3429,
      "peopl": 3430,
      "User": 3431,
      "lectĠ": 3432,
      "edĊ": 3433,
      "math": 3434,
      "lex": 3435,
      "Bo": 3436,
      "ofĠt": 3437,
      "this.": 3438,
      "Cre": 3439,
      "ismĠ": 3440,
      "orderĠ": 3441,
      "mitt": 3442,
      "ache": 3443,
      "particular": 3444,
      "it.": 3445,
      "angĠ": 3446,
      "compl": 3447,
      "HiĠ": 3448,
      "an,Ġ": 3449,
      "andĠthatĠ": 3450,
      "s,ĠtheĠ": 3451,
      "patch": 3452,
      "ron": 3453,
      "fourĠ": 3454,
      "Now": 3455,
      "ThankĠ": 3456,
      ".âĢĿĊâĢľ": 3457,
      "ought": 3458,
      "2/": 3459,
      "âĢĶĠ": 3460,
      "personĠ": 3461,
      "listen": 3462,
      "youĠwillĠ": 3463,
      "cy": 3464,
      "win": 3465,
      "ofĠthem": 3466,
      "askedĠ": 3467,
      "audi": 3468,
      "Ġtrue": 3469,
      "projectĠ": 3470,
      "edĠthisĠ": 3471,
      "ption": 3472,
      "custom": 3473,
      "FF": 3474,
      "underĠtheĠ": 3475,
      "edĠatĠ": 3476,
      "radi": 3477,
      "cut": 3478,
      "partĠofĠ": 3479,
      "Sup": 3480,
      "Fl": 3481,
      "12Ġ": 3482,
      "es.Ċ": 3483,
      "erg": 3484,
      "plug": 3485,
      "objectĠ": 3486,
      "butĠIĠ": 3487,
      "localĠ": 3488,
      "landĠ": 3489,
      "ĠĠĠĠĠĠĠĠĠĠ": 3490,
      "al,Ġ": 3491,
      "sĠ=Ġ": 3492,
      "48": 3493,
      "What": 3494,
      "mit": 3495,
      "orĠofĠ": 3496,
      "Dec": 3497,
      "brow": 3498,
      ",âĢĿ": 3499,
      "represent": 3500,
      "db": 3501,
      "ingĠwithĠ": 3502,
      "imageĠ": 3503,
      "controlĠ": 3504,
      "ester": 3505,
      "5,Ġ": 3506,
      "**Ġ": 3507,
      "_Ċ": 3508,
      "ession": 3509,
      "completelyĠ": 3510,
      "duringĠ": 3511,
      "fair": 3512,
      "finalĠ": 3513,
      "((": 3514,
      "houseĠ": 3515,
      "let'sĠ": 3516,
      "provideĠ": 3517,
      "isedĠ": 3518,
      "duringĠtheĠ": 3519,
      "ffĠ": 3520,
      "$$": 3521,
      "humanĠ": 3522,
      "{ĊĠĠĠĠĠĠĠĠĠĠĠĠ": 3523,
      ".ĠĊĊ": 3524,
      "Ġwhich": 3525,
      "possibl": 3526,
      "seeĠtheĠ": 3527,
      "young": 3528,
      "withĠs": 3529,
      "saysĠ": 3530,
      "ofĠcour": 3531,
      "Ġterm": 3532,
      "laugh": 3533,
      "approach": 3534,
      "isĠanĠ": 3535,
      "simplyĠ": 3536,
      "Ġtime": 3537,
      "rough": 3538,
      "That'sĠ": 3539,
      "blackĠ": 3540,
      "andĠtheyĠ": 3541,
      "id=\"": 3542,
      "ield": 3543,
      "fromĠaĠ": 3544,
      ".ĠItĠwasĠ": 3545,
      "mention": 3546,
      "siteĠ": 3547,
      "util": 3548,
      "E_": 3549,
      "governmentĠ": 3550,
      "ofĊ": 3551,
      "execut": 3552,
      "valid": 3553,
      "moneyĠ": 3554,
      "fing": 3555,
      "IR": 3556,
      "defineĠ": 3557,
      "condition": 3558,
      "insteadĠofĠ": 3559,
      "onĠthisĠ": 3560,
      "emo": 3561,
      "Fe": 3562,
      "forĠthisĠ": 3563,
      "antlyĠ": 3564,
      "sq": 3565,
      "TR": 3566,
      "Log": 3567,
      "ainedĠ": 3568,
      "pha": 3569,
      "walk": 3570,
      "Ġwas": 3571,
      "MA": 3572,
      "errorĠ": 3573,
      "beautif": 3574,
      "Ġminut": 3575,
      "ORĠ": 3576,
      "sĠasĠ": 3577,
      "rup": 3578,
      "ago": 3579,
      "heardĠ": 3580,
      "aĠcoupleĠ": 3581,
      "vĠ": 3582,
      "frame": 3583,
      ",ĠbutĠIĠ": 3584,
      "favor": 3585,
      "studyĠ": 3586,
      "Test": 3587,
      "weĠhaveĠ": 3588,
      "devic": 3589,
      "EL": 3590,
      ".ĠYouĠ": 3591,
      "in-": 3592,
      "ologyĠ": 3593,
      "writeĠ": 3594,
      "guyĠ": 3595,
      "one,Ġ": 3596,
      "opin": 3597,
      "y.": 3598,
      "Char": 3599,
      "WĠ": 3600,
      "postĠ": 3601,
      "alleng": 3602,
      "couldn'tĠ": 3603,
      "plat": 3604,
      "Key": 3605,
      "yourĠc": 3606,
      "Value": 3607,
      "omat": 3608,
      "stayĠ": 3609,
      "betweenĠtheĠ": 3610,
      "width": 3611,
      "attr": 3612,
      "Ge": 3613,
      "forward": 3614,
      "std": 3615,
      "i,Ġ": 3616,
      "imin": 3617,
      "PC": 3618,
      "commonĠ": 3619,
      "guysĠ": 3620,
      "weekĠ": 3621,
      "ospit": 3622,
      "erv": 3623,
      "edit": 3624,
      "ING": 3625,
      "readingĠ": 3626,
      "EX": 3627,
      "yourĠs": 3628,
      "ingleĠ": 3629,
      "goesĠ": 3630,
      "electr": 3631,
      "ockĠ": 3632,
      "uch": 3633,
      "\":": 3634,
      "e:Ġ": 3635,
      "pet": 3636,
      "immedi": 3637,
      "himself": 3638,
      "ationĠofĠtheĠ": 3639,
      "a:": 3640,
      "best": 3641,
      "Over": 3642,
      "tor": 3643,
      "success": 3644,
      "board": 3645,
      "qĠ": 3646,
      "roomĠ": 3647,
      "stri": 3648,
      "?\"Ġ": 3649,
      "mayĠbeĠ": 3650,
      "agĠ": 3651,
      "contr": 3652,
      "hair": 3653,
      "ullĠ": 3654,
      "aĠnewĠ": 3655,
      "IĠcouldĠ": 3656,
      "information": 3657,
      "gerĠ": 3658,
      "ref=\"": 3659,
      "ensiveĠ": 3660,
      "four": 3661,
      "payĠ": 3662,
      "entireĠ": 3663,
      "44": 3664,
      "Min": 3665,
      "sĠonĠtheĠ": 3666,
      "choo": 3667,
      "short": 3668,
      "eĠtwoĠ": 3669,
      "ĊWhatĠisĠtheĠ": 3670,
      "structĠ": 3671,
      "yeahĠ": 3672,
      "},": 3673,
      "mil": 3674,
      "s)Ġ": 3675,
      "const": 3676,
      "day,Ġ": 3677,
      "below": 3678,
      "gott": 3679,
      "enĠandĠ": 3680,
      "65": 3681,
      "sĠorĠ": 3682,
      "AA": 3683,
      "sens": 3684,
      "exactlyĠ": 3685,
      "axĠ": 3686,
      "ĊĊTheĠ": 3687,
      "benef": 3688,
      "sĠt": 3689,
      "wit": 3690,
      "presentĠ": 3691,
      "attempt": 3692,
      "Ok": 3693,
      "Ġtru": 3694,
      "email": 3695,
      "sĠatĠ": 3696,
      "ious": 3697,
      "YouĠcanĠ": 3698,
      "frac": 3699,
      "AmericanĠ": 3700,
      "behindĠ": 3701,
      "unc": 3702,
      "insid": 3703,
      "rather": 3704,
      "specific": 3705,
      "haven'tĠ": 3706,
      "ĊĊĠĠ": 3707,
      "ashĠ": 3708,
      "kis": 3709,
      "Manag": 3710,
      "2,": 3711,
      "althĠ": 3712,
      "WithĠ": 3713,
      "forĠmyĠ": 3714,
      "):": 3715,
      "analys": 3716,
      "fortun": 3717,
      "label": 3718,
      "cript": 3719,
      "onĠandĠ": 3720,
      "ldĠ": 3721,
      "SQ": 3722,
      "esĠ(": 3723,
      "Gener": 3724,
      "aff": 3725,
      "close": 3726,
      "CON": 3727,
      "charact": 3728,
      "aroundĠtheĠ": 3729,
      "\"/": 3730,
      "height": 3731,
      "ĠwithĠaĠ": 3732,
      "Ċ#": 3733,
      "waterĠ": 3734,
      "account": 3735,
      ".ĠThatĠ": 3736,
      "stream": 3737,
      "withĠm": 3738,
      "fo": 3739,
      "ofĠtheirĠ": 3740,
      "CL": 3741,
      "Class": 3742,
      "/*Ġ": 3743,
      "Bar": 3744,
      "protect": 3745,
      "HĠ": 3746,
      ",Ġ20": 3747,
      "),": 3748,
      "alĠm": 3749,
      "alĠandĠ": 3750,
      "So": 3751,
      "sym": 3752,
      "ux": 3753,
      "ushĠ": 3754,
      "endsĠ": 3755,
      "pric": 3756,
      "fast": 3757,
      ">ĊĠĠĠĠ<": 3758,
      "Jav": 3759,
      "summ": 3760,
      "buyĠ": 3761,
      "likeĠaĠ": 3762,
      "[1": 3763,
      "ingĠforĠ": 3764,
      "ource": 3765,
      "hopeĠ": 3766,
      "Ind": 3767,
      "attack": 3768,
      "esĊ": 3769,
      "**3Ġ": 3770,
      ",ĠandĠtheĠ": 3771,
      "natur": 3772,
      "&gt;": 3773,
      "Ġsch": 3774,
      "boardĠ": 3775,
      "88": 3776,
      "YourĠ": 3777,
      "$(": 3778,
      "you'llĠ": 3779,
      "Lo": 3780,
      "ĠĊ": 3781,
      "neg": 3782,
      "alt": 3783,
      "home": 3784,
      "AfterĠ": 3785,
      "introduc": 3786,
      "OO": 3787,
      "fineĠ": 3788,
      "ather": 3789,
      "Ger": 3790,
      "hadĠaĠ": 3791,
      "Ġtop": 3792,
      ".ĠIf": 3793,
      "companyĠ": 3794,
      "sus": 3795,
      "spr": 3796,
      "blo": 3797,
      "~~": 3798,
      "mach": 3799,
      "i'mĠ": 3800,
      "sizeĠ": 3801,
      ");ĊĠĠ": 3802,
      "Auth": 3803,
      "swe": 3804,
      "Li": 3805,
      "66": 3806,
      "eterĠ": 3807,
      "limit": 3808,
      "anch": 3809,
      "engthĠ": 3810,
      "ister": 3811,
      "####": 3812,
      "remember": 3813,
      "challeng": 3814,
      "orĠtheĠ": 3815,
      "you,Ġ": 3816,
      "processĠ": 3817,
      "Indi": 3818,
      "deriv": 3819,
      "purcha": 3820,
      "DO": 3821,
      "eĠtimeĠ": 3822,
      "seriesĠ": 3823,
      "furtherĠ": 3824,
      "ĠtogetherĠ": 3825,
      "zer": 3826,
      "ML": 3827,
      ")Ġ{ĊĠĠĠĠĠĠĠĠ": 3828,
      "activeĠ": 3829,
      "4*": 3830,
      "bul": 3831,
      "15Ġ": 3832,
      "Dav": 3833,
      "IĠknow": 3834,
      "iddleĠ": 3835,
      "largeĠ": 3836,
      "lostĠ": 3837,
      "Read": 3838,
      "ms": 3839,
      "1)Ġ": 3840,
      "businessĠ": 3841,
      "click": 3842,
      "Cent": 3843,
      "Ġsp": 3844,
      "rateĠ": 3845,
      "MP": 3846,
      "95": 3847,
      "stopĠ": 3848,
      "himselfĠ": 3849,
      "bir": 3850,
      "meĠtoĠ": 3851,
      "sheĠwasĠ": 3852,
      "in,Ġ": 3853,
      "iment": 3854,
      "figureĠ": 3855,
      "es/": 3856,
      "sourceĠ": 3857,
      "spir": 3858,
      "signific": 3859,
      "the": 3860,
      "illi": 3861,
      "ittingĠ": 3862,
      "laterĠ": 3863,
      "serverĠ": 3864,
      "Out": 3865,
      "partĠofĠtheĠ": 3866,
      "I'mĠs": 3867,
      "sun": 3868,
      "ordin": 3869,
      "ientsĠ": 3870,
      "integr": 3871,
      "weĠareĠ": 3872,
      "yl": 3873,
      "youĠdon'tĠ": 3874,
      ".h": 3875,
      "U.S": 3876,
      "ĠtryĠ": 3877,
      "Ġcour": 3878,
      "ioĠ": 3879,
      "popul": 3880,
      "auseĠ": 3881,
      "Fig": 3882,
      "4,Ġ": 3883,
      "halfĠ": 3884,
      "IV": 3885,
      ".ĠMyĠ": 3886,
      "30Ġ": 3887,
      "SP": 3888,
      "guessĠ": 3889,
      "length": 3890,
      "Pol": 3891,
      "recommend": 3892,
      "intoĠaĠ": 3893,
      "Ele": 3894,
      "ĠthanĠtheĠ": 3895,
      "proveĠ": 3896,
      "Ġthank": 3897,
      "antsĠ": 3898,
      "default": 3899,
      "ĠtakesĠ": 3900,
      "alle": 3901,
      "small": 3902,
      "mindĠ": 3903,
      "movi": 3904,
      "inĠthatĠ": 3905,
      "ause": 3906,
      "matterĠ": 3907,
      "umentĠ": 3908,
      "pingĠ": 3909,
      "chan": 3910,
      "Ġtrad": 3911,
      "lic": 3912,
      "ĠtoĊ": 3913,
      "mus": 3914,
      "positionĠ": 3915,
      "possible": 3916,
      "WH": 3917,
      "Mo": 3918,
      "Error": 3919,
      ">ĊĠĠĠĠĠĠĠĠĠĠĠĠ": 3920,
      "OP": 3921,
      "improv": 3922,
      "notĠtoĠ": 3923,
      "From": 3924,
      ".ĊS": 3925,
      "perfect": 3926,
      "zz": 3927,
      "ĠmayĠ": 3928,
      "Euro": 3929,
      "_{": 3930,
      "ngĠ": 3931,
      "methodĠ": 3932,
      "Ġsystem": 3933,
      "progres": 3934,
      "ierĠ": 3935,
      "createdĠ": 3936,
      "reasonĠ": 3937,
      "âĢĻdĠ": 3938,
      "agoĠ": 3939,
      "ÂłĠ": 3940,
      "fight": 3941,
      "ipĠ": 3942,
      "research": 3943,
      "nav": 3944,
      "inĠyourĠ": 3945,
      "investig": 3946,
      "ham": 3947,
      "HisĠ": 3948,
      "accept": 3949,
      "Ne": 3950,
      "Servic": 3951,
      "hitĠ": 3952,
      "CanĠ": 3953,
      "imm": 3954,
      "Depart": 3955,
      "Ġso": 3956,
      "cannotĠ": 3957,
      "&amp": 3958,
      "aint": 3959,
      "alledĠ": 3960,
      "Set": 3961,
      "Sou": 3962,
      "admin": 3963,
      "soci": 3964,
      "55": 3965,
      "atĠall": 3966,
      "portun": 3967,
      "lotĠ": 3968,
      "mater": 3969,
      "goingĠtoĠbeĠ": 3970,
      "ENT": 3971,
      "s.ĠIĠ": 3972,
      ".ĠWhenĠ": 3973,
      "oneĠofĠ": 3974,
      "ofĠthemĠ": 3975,
      "Sec": 3976,
      "pris": 3977,
      "jobĠ": 3978,
      "ually": 3979,
      "likeĠthis": 3980,
      "voiceĠ": 3981,
      "InĠtheĠ": 3982,
      "wik": 3983,
      "playingĠ": 3984,
      "akesĠ": 3985,
      "enceĠofĠ": 3986,
      "previousĠ": 3987,
      "Att": 3988,
      "php": 3989,
      "asĠwellĠasĠ": 3990,
      "ballĠ": 3991,
      "attribut": 3992,
      "9.": 3993,
      "10.": 3994,
      "spaceĠ": 3995,
      "Oh": 3996,
      "sen": 3997,
      "Fin": 3998,
      "ofĠthatĠ": 3999,
      "agg": 4000,
      "</a": 4001,
      "difficult": 4002,
      "etyĠ": 4003,
      ";Ċ}ĊĊ": 4004,
      "Event": 4005,
      "eĠthatĠtheĠ": 4006,
      "INGĠ": 4007,
      "saveĠ": 4008,
      "absolut": 4009,
      "mic": 4010,
      "Rob": 4011,
      "usesĠ": 4012,
      "er-": 4013,
      "nerĠ": 4014,
      "[0": 4015,
      "CP": 4016,
      "jud": 4017,
      "heart": 4018,
      "Me": 4019,
      "PleaseĠ": 4020,
      "ISĠ": 4021,
      "recogn": 4022,
      "observ": 4023,
      "ĊĊA:ĊĊ": 4024,
      "ĠthatĠheĠ": 4025,
      "pred": 4026,
      "2)": 4027,
      "olution": 4028,
      "youĠcouldĠ": 4029,
      "ude": 4030,
      "ratherĠ": 4031,
      "ansp": 4032,
      "-0.": 4033,
      "givesĠ": 4034,
      "ensĠ": 4035,
      "solution": 4036,
      "compan": 4037,
      "-8": 4038,
      "effic": 4039,
      "lyĠtheĠ": 4040,
      "inĠandĠ": 4041,
      "should": 4042,
      "df": 4043,
      "compet": 4044,
      "ĠtakingĠ": 4045,
      "ĠthinkingĠ": 4046,
      "okeĠ": 4047,
      "Grou": 4048,
      "enoughĠtoĠ": 4049,
      "Cr": 4050,
      "factor": 4051,
      "weĠcanĠ": 4052,
      "comfort": 4053,
      "eful": 4054,
      "itĠtheĠ": 4055,
      "orderĠtoĠ": 4056,
      "11Ġ": 4057,
      "speak": 4058,
      "ifĠitĠ": 4059,
      "query": 4060,
      "Mc": 4061,
      "='": 4062,
      "obt": 4063,
      "appe": 4064,
      "kil": 4065,
      "school": 4066,
      "rectĠ": 4067,
      "believ": 4068,
      "variousĠ": 4069,
      "referenc": 4070,
      "NE": 4071,
      "App": 4072,
      "Array": 4073,
      "Ag": 4074,
      "dueĠtoĠ": 4075,
      "ĠtypeĠ": 4076,
      "inj": 4077,
      "usion": 4078,
      "stay": 4079,
      "shipĠ": 4080,
      "3/": 4081,
      "viol": 4082,
      "wel": 4083,
      "opportun": 4084,
      "specificĠ": 4085,
      "\\\\": 4086,
      ".ĠBut": 4087,
      "whil": 4088,
      "unchĠ": 4089,
      "Oh,Ġ": 4090,
      "beĠableĠtoĠ": 4091,
      "wif": 4092,
      "prec": 4093,
      "']": 4094,
      "78": 4095,
      "seĠtoĠ": 4096,
      "forĠc": 4097,
      "aneĠ": 4098,
      "**2Ġ+Ġ": 4099,
      "Pe": 4100,
      "aĠsim": 4101,
      "lean": 4102,
      "omeoneĠ": 4103,
      "viaĠ": 4104,
      "whiteĠ": 4105,
      "iction": 4106,
      "rememberĠ": 4107,
      "ugeĠ": 4108,
      "ĠĊĊ": 4109,
      "Dev": 4110,
      "peopleĠwhoĠ": 4111,
      "ourceĠ": 4112,
      "stuffĠ": 4113,
      "chann": 4114,
      "ify": 4115,
      "Goo": 4116,
      "_id": 4117,
      "atĠaĠ": 4118,
      "boxĠ": 4119,
      "prefer": 4120,
      "reli": 4121,
      "it'sĠnotĠ": 4122,
      "xml": 4123,
      "page": 4124,
      "repe": 4125,
      "inĠanĠ": 4126,
      "schoolĠ": 4127,
      "recentĠ": 4128,
      "child": 4129,
      "e.ĠĠ": 4130,
      "certain": 4131,
      "HereĠ": 4132,
      "girlĠ": 4133,
      "eĠtheirĠ": 4134,
      "Ġthre": 4135,
      ".ĠItĠisĠ": 4136,
      "knowled": 4137,
      "offĠtheĠ": 4138,
      "istic": 4139,
      "âĢĻt": 4140,
      "ifĠtheyĠ": 4141,
      "me,Ġ": 4142,
      "System.": 4143,
      "}ĊĠĠĠĠĠĠĠĠ": 4144,
      "Sub": 4145,
      "org.": 4146,
      "ating": 4147,
      "ay,Ġ": 4148,
      ".\"": 4149,
      "1Ċ": 4150,
      "yourĠm": 4151,
      "foodĠ": 4152,
      "knew": 4153,
      "IĠhaveĠaĠ": 4154,
      "At": 4155,
      "house": 4156,
      ".ĠAsĠ": 4157,
      "edĠfromĠ": 4158,
      "jĠ": 4159,
      "unk": 4160,
      "ingĠisĠ": 4161,
      ";Ċĉ": 4162,
      "John": 4163,
      "a'sĠ": 4164,
      "surv": 4165,
      "Sam": 4166,
      "ĠwithoutĠ": 4167,
      "seemsĠ": 4168,
      "cast": 4169,
      "itĠwillĠ": 4170,
      "layout": 4171,
      "delet": 4172,
      "driv": 4173,
      "eĠthem": 4174,
      "CC": 4175,
      "compon": 4176,
      "Ġthes": 4177,
      "gleĠ": 4178,
      "sure": 4179,
      "aĠsmallĠ": 4180,
      "writtenĠ": 4181,
      "decision": 4182,
      "JohnĠ": 4183,
      "beĠt": 4184,
      "areaĠ": 4185,
      "knewĠ": 4186,
      "maint": 4187,
      "edĠoutĠ": 4188,
      "]Ġ=Ġ": 4189,
      "makeĠitĠ": 4190,
      "shortĠ": 4191,
      "systemĠ": 4192,
      "combin": 4193,
      "Num": 4194,
      "ingĠonĠ": 4195,
      "ishedĠ": 4196,
      "crit": 4197,
      "eeĠ": 4198,
      "characterĠ": 4199,
      "lookĠatĠ": 4200,
      "cros": 4201,
      ",ĠinĠ": 4202,
      "squ": 4203,
      "againstĠtheĠ": 4204,
      "half": 4205,
      "ĊĠ*": 4206,
      "Lic": 4207,
      "strang": 4208,
      "secre": 4209,
      "ĠthereĠwasĠ": 4210,
      "sole": 4211,
      "pull": 4212,
      "oftwareĠ": 4213,
      "Web": 4214,
      "soundĠ": 4215,
      "TheseĠ": 4216,
      "earli": 4217,
      "inglyĠ": 4218,
      "sawĠ": 4219,
      "Ġwr": 4220,
      "IĠwillĠ": 4221,
      "e'sĠ": 4222,
      "plann": 4223,
      "Doc": 4224,
      "\"Ċ\"": 4225,
      "releaseĠ": 4226,
      "XX": 4227,
      "you'veĠ": 4228,
      "spac": 4229,
      "ializ": 4230,
      "soonĠ": 4231,
      "img": 4232,
      "super": 4233,
      "frac{": 4234,
      "orryĠ": 4235,
      "age,Ġ": 4236,
      "Yor": 4237,
      "aĠsingleĠ": 4238,
      "s\"Ġ": 4239,
      "oud": 4240,
      "grab": 4241,
      "UI": 4242,
      "Ġthemselv": 4243,
      "sĠand": 4244,
      "ograph": 4245,
      "God": 4246,
      "release": 4247,
      "IĠcan'tĠ": 4248,
      "loodĠ": 4249,
      "98": 4250,
      "perfectĠ": 4251,
      ")Ġ{ĊĠĠĠĠ": 4252,
      "udeĠ": 4253,
      "happyĠ": 4254,
      "bon": 4255,
      "similar": 4256,
      "Ju": 4257,
      "INĠ": 4258,
      "output": 4259,
      "!Ċ": 4260,
      "jour": 4261,
      "Net": 4262,
      "77": 4263,
      "HO": 4264,
      "foreĠ": 4265,
      "chem": 4266,
      "sendĠ": 4267,
      "MS": 4268,
      "edĠherĠ": 4269,
      "ohĠ": 4270,
      "orĠc": 4271,
      "(S": 4272,
      "ivelyĠ": 4273,
      "68": 4274,
      "Ġsaid": 4275,
      "UnitedĠ": 4276,
      "aĠlong": 4277,
      "appoint": 4278,
      "him,Ġ": 4279,
      "whetherĠ": 4280,
      "myself": 4281,
      "ahĠ": 4282,
      "band": 4283,
      ".ĠForĠ": 4284,
      "session": 4285,
      "xx": 4286,
      "ĠĠĠĠĠĠĠĠĠĠĠĠĠĠĠĠĠĠĠĠĠĠĠĠ": 4287,
      "defĠ": 4288,
      "fra": 4289,
      "ren": 4290,
      "1-": 4291,
      "insideĠ": 4292,
      "drug": 4293,
      "ature": 4294,
      "meansĠ": 4295,
      "causeĠ": 4296,
      "ance,Ġ": 4297,
      "ed.ĊĊ": 4298,
      "ussi": 4299,
      "beĠaĠ": 4300,
      "realiz": 4301,
      "scal": 4302,
      "higherĠ": 4303,
      "ared": 4304,
      "ofĠthoseĠ": 4305,
      "equal": 4306,
      "linkĠ": 4307,
      "eventĠ": 4308,
      "Lab": 4309,
      "whereĠtheĠ": 4310,
      "ablyĠ": 4311,
      "really": 4312,
      "futureĠ": 4313,
      "itiveĠ": 4314,
      "inputĠ": 4315,
      "ersĠandĠ": 4316,
      "frontĠ": 4317,
      "Ver": 4318,
      "(a": 4319,
      "moment": 4320,
      "currentlyĠ": 4321,
      "uniqu": 4322,
      "spl": 4323,
      "asĠIĠ": 4324,
      "yĠisĠ": 4325,
      "join": 4326,
      "ountĠofĠ": 4327,
      "ĠtoĠtakeĠ": 4328,
      ".ĠĠĠĠ": 4329,
      ",Ġwhich": 4330,
      "sĠhaveĠ": 4331,
      "Well,Ġ": 4332,
      "edĠupĠ": 4333,
      "ThenĠ": 4334,
      "(b": 4335,
      "resourc": 4336,
      "eval": 4337,
      "standardĠ": 4338,
      "es.Ġ": 4339,
      "heldĠ": 4340,
      "image": 4341,
      "drop": 4342,
      "sat": 4343,
      "goĠtoĠ": 4344,
      "Em": 4345,
      "quot": 4346,
      "youngĠ": 4347,
      "Yeah": 4348,
      "patientsĠ": 4349,
      "16Ġ": 4350,
      "ai": 4351,
      "childĠ": 4352,
      "ali": 4353,
      "gett": 4354,
      "**Ċ": 4355,
      "es,ĠandĠ": 4356,
      "originalĠ": 4357,
      "heartĠ": 4358,
      "analy": 4359,
      "format": 4360,
      "Mess": 4361,
      "asĠanĠ": 4362,
      "erĠtoĠ": 4363,
      "gn": 4364,
      "^{": 4365,
      "pain": 4366,
      "Ġweek": 4367,
      "fewĠ": 4368,
      "t.": 4369,
      "e,": 4370,
      "dim": 4371,
      "children": 4372,
      "Regard": 4373,
      "differenceĠ": 4374,
      "consist": 4375,
      "heĠhadĠ": 4376,
      "gun": 4377,
      "abilityĠ": 4378,
      "ball": 4379,
      "inĠtheirĠ": 4380,
      "Py": 4381,
      "ignor": 4382,
      "soĠthatĠ": 4383,
      "oudĠ": 4384,
      "isĊ": 4385,
      "road": 4386,
      "still": 4387,
      "section": 4388,
      "tonĠ": 4389,
      "likeĠthisĠ": 4390,
      "<divĠclass=\"": 4391,
      "IsĠthereĠ": 4392,
      "Hand": 4393,
      "es.ĊĊ": 4394,
      "?ĠĠĠĠĠĠĠĠ": 4395,
      "centr": 4396,
      "thon": 4397,
      "Bec": 4398,
      "cost": 4399,
      "background": 4400,
      "death": 4401,
      "node": 4402,
      "orĠandĠ": 4403,
      "'r": 4404,
      "IĠknowĠ": 4405,
      "occur": 4406,
      "y'sĠ": 4407,
      "ingĠherĠ": 4408,
      "e.g": 4409,
      "aĠtr": 4410,
      "span": 4411,
      "****************": 4412,
      "java:": 4413,
      "beforeĠtheĠ": 4414,
      "TE": 4415,
      "r/": 4416,
      "command": 4417,
      "perhap": 4418,
      "supposed": 4419,
      "umb": 4420,
      "esĠinĠtheĠ": 4421,
      ";ĊĠĠĠĠĠĠĠĠĠĠĠĠ": 4422,
      "becauseĠtheĠ": 4423,
      "eder": 4424,
      "one.Ġ": 4425,
      "...Ċ": 4426,
      "ness": 4427,
      "cult": 4428,
      "ationĠisĠ": 4429,
      "asp": 4430,
      "Off": 4431,
      "type": 4432,
      "ed.": 4433,
      "heâĢĻsĠ": 4434,
      "[]": 4435,
      "Mat": 4436,
      "recentlyĠ": 4437,
      "season": 4438,
      ",ĠwhoĠ": 4439,
      "mar": 4440,
      "particip": 4441,
      "scop": 4442,
      "čĊĠĠĠĠĠĠĠĠ": 4443,
      ".set": 4444,
      "Map": 4445,
      "LI": 4446,
      "where": 4447,
      "region": 4448,
      "Ġthat,Ġ": 4449,
      "vision": 4450,
      "multipleĠ": 4451,
      "Count": 4452,
      "y.\"Ġ\"": 4453,
      "send": 4454,
      ");ĊĊĠĠĠĠ": 4455,
      "aĠd": 4456,
      "sleep": 4457,
      "asĠitĠ": 4458,
      "entĠtoĠ": 4459,
      "oftĠ": 4460,
      "wear": 4461,
      "dog": 4462,
      "Chang": 4463,
      "esp": 4464,
      "5*": 4465,
      "[i": 4466,
      "defaultĠ": 4467,
      "Jam": 4468,
      "sometimesĠ": 4469,
      "fire": 4470,
      "Ġtoday": 4471,
      "whatĠIĠ": 4472,
      "priceĠ": 4473,
      "such": 4474,
      "lateĠ": 4475,
      "CD": 4476,
      "#includeĠ": 4477,
      "2)Ġ": 4478,
      "src": 4479,
      "TO": 4480,
      ".ĠOn": 4481,
      "downĠtheĠ": 4482,
      "quicklyĠ": 4483,
      "youĠshouldĠ": 4484,
      "Ġtext": 4485,
      "asĠtheyĠ": 4486,
      "m_": 4487,
      "ely,Ġ": 4488,
      "bound": 4489,
      "El": 4490,
      "lett": 4491,
      "answerĠ": 4492,
      "anything": 4493,
      "uckingĠ": 4494,
      "deep": 4495,
      "keptĠ": 4496,
      "ram": 4497,
      "said,Ġ": 4498,
      "longerĠ": 4499,
      "SO": 4500,
      "e:": 4501,
      "ification": 4502,
      "removeĠ": 4503,
      "ues": 4504,
      "ĠthankĠ": 4505,
      "killĠ": 4506,
      "ĠwillĠbeĠ": 4507,
      "issuesĠ": 4508,
      ".Ġ.Ġ": 4509,
      "arrayĠ": 4510,
      "Trans": 4511,
      "degre": 4512,
      "outputĠ": 4513,
      "qui": 4514,
      "market": 4515,
      ";ĊimportĠ": 4516,
      "current": 4517,
      "explain": 4518,
      "Loc": 4519,
      "responsi": 4520,
      "Date": 4521,
      "You'reĠ": 4522,
      "getĠaĠ": 4523,
      "deb": 4524,
      "dise": 4525,
      "many": 4526,
      ".html": 4527,
      "eĠisĠ": 4528,
      "AlsoĠ": 4529,
      "frequ": 4530,
      "sĠforĠtheĠ": 4531,
      "worth": 4532,
      "allĠofĠ": 4533,
      "mand": 4534,
      "serviceĠ": 4535,
      "yourself": 4536,
      "Propert": 4537,
      "ME": 4538,
      "later": 4539,
      "okay": 4540,
      "alog": 4541,
      "column": 4542,
      "mlĠ": 4543,
      "Path": 4544,
      "filter": 4545,
      "e/": 4546,
      "kern": 4547,
      "shar": 4548,
      "foot": 4549,
      ";ĊĊĠĠĠĠ": 4550,
      "PS": 4551,
      "posedĠ": 4552,
      "us,Ġ": 4553,
      "istĠofĠ": 4554,
      "luck": 4555,
      "s?Ġ": 4556,
      "Publ": 4557,
      "estim": 4558,
      ".ĠHisĠ": 4559,
      "Sm": 4560,
      "files": 4561,
      "_F": 4562,
      "Ste": 4563,
      ".ĠI'veĠ": 4564,
      "âĢĻveĠ": 4565,
      "important": 4566,
      "Jan": 4567,
      "IfĠyouĠ": 4568,
      ")ĠĠĠĠĠĠĠĠ": 4569,
      "financ": 4570,
      "strateg": 4571,
      "Index": 4572,
      "IĠloveĠ": 4573,
      "Run": 4574,
      "re-": 4575,
      "Dem": 4576,
      "bol": 4577,
      "avel": 4578,
      "root": 4579,
      "likelyĠ": 4580,
      "known": 4581,
      "Ð»": 4582,
      "typ": 4583,
      "ically": 4584,
      "while": 4585,
      "eĠthing": 4586,
      "49": 4587,
      "aughtĠ": 4588,
      "attach": 4589,
      "Sun": 4590,
      "].": 4591,
      "âĢ¦Ġ": 4592,
      "areĠyouĠ": 4593,
      "concern": 4594,
      "givingĠ": 4595,
      "circ": 4596,
      "increas": 4597,
      "possibleĠtoĠ": 4598,
      "emper": 4599,
      "outsid": 4600,
      "whenĠheĠ": 4601,
      "47": 4602,
      "ĠclassĠ": 4603,
      "breath": 4604,
      "aren'tĠ": 4605,
      "announc": 4606,
      "USĠ": 4607,
      "mal": 4608,
      "Hello": 4609,
      "prep": 4610,
      "or,Ġ": 4611,
      "ĠthatĠwasĠ": 4612,
      "!=Ġ": 4613,
      "ĠtoĠdoĠ": 4614,
      "productĠ": 4615,
      "pleas": 4616,
      "anyway": 4617,
      "Sha": 4618,
      "ItĠisĠ": 4619,
      "chanc": 4620,
      "shoo": 4621,
      "percentĠ": 4622,
      "hearĠ": 4623,
      "compar": 4624,
      "NowĠ": 4625,
      "state": 4626,
      "fastĠ": 4627,
      "evid": 4628,
      "environment": 4629,
      "Rem": 4630,
      "Ġsay": 4631,
      "ĠwhileĠ": 4632,
      "stepĠ": 4633,
      "rightĠnow": 4634,
      "anceĠofĠ": 4635,
      "\"Ġ/": 4636,
      "daugh": 4637,
      "}Ċ}ĊĊ": 4638,
      "**2Ġ-Ġ": 4639,
      "easilyĠ": 4640,
      "')": 4641,
      "it.\"Ġ\"": 4642,
      "may": 4643,
      "topĠ": 4644,
      "s.ĠĠĠĠĠĠĠĠ": 4645,
      "feed": 4646,
      "cau": 4647,
      "vect": 4648,
      "Def": 4649,
      "ing-": 4650,
      "Inst": 4651,
      "Don'tĠ": 4652,
      "fund": 4653,
      "consum": 4654,
      "card": 4655,
      "JS": 4656,
      "inser": 4657,
      "Ġwhen": 4658,
      "Ġman": 4659,
      "Ġmor": 4660,
      "packageĠ": 4661,
      "diag": 4662,
      "fill": 4663,
      "easyĠ": 4664,
      "seemsĠtoĠ": 4665,
      "esĠforĠ": 4666,
      "erĠthanĠ": 4667,
      "hot": 4668,
      "ĠtriedĠtoĠ": 4669,
      "Let": 4670,
      "IO": 4671,
      "ld": 4672,
      "Ġsm": 4673,
      "between": 4674,
      "CE": 4675,
      "lowerĠ": 4676,
      "ictĠ": 4677,
      "ItĠwasĠ": 4678,
      "gar": 4679,
      "allowĠ": 4680,
      "yeah": 4681,
      "{ĊĠĠ": 4682,
      "contentĠ": 4683,
      "Trump": 4684,
      "idea": 4685,
      "airĠ": 4686,
      "ing.Ċ": 4687,
      "sou": 4688,
      "ĠtodayĠ": 4689,
      "game": 4690,
      "loseĠ": 4691,
      "sĠitĠ": 4692,
      "serĠ": 4693,
      "guid": 4694,
      "eĠthemĠ": 4695,
      "ertĠ": 4696,
      "'m": 4697,
      "GodĠ": 4698,
      "affect": 4699,
      "olĠ": 4700,
      "std::": 4701,
      "calcul": 4702,
      "another": 4703,
      "--------------------------------": 4704,
      "handl": 4705,
      "pen": 4706,
      "amountĠofĠ": 4707,
      "IĠthoughtĠ": 4708,
      "bandĠ": 4709,
      "Ġway": 4710,
      "->Ġ": 4711,
      "]Ċ": 4712,
      ">ĊĠĠĠĠĠĠĠĠ<": 4713,
      "someĠofĠtheĠ": 4714,
      "youĠwant": 4715,
      "extrem": 4716,
      "67": 4717,
      "letĠmeĠ": 4718,
      "ĠtoĠthisĠ": 4719,
      "...ĊĊ": 4720,
      "qualityĠ": 4721,
      "completeĠ": 4722,
      "cutĠ": 4723,
      "effort": 4724,
      "pickĠ": 4725,
      "anger": 4726,
      "butĠitĠ": 4727,
      "ĠtoĠseeĠ": 4728,
      "gri": 4729,
      "pair": 4730,
      "mut": 4731,
      "rop": 4732,
      "screen": 4733,
      "sortĠofĠ": 4734,
      "ressĠ": 4735,
      "policeĠ": 4736,
      "lad": 4737,
      "eĠtooĠ": 4738,
      "context": 4739,
      "Ġsub": 4740,
      "NUL": 4741,
      "cc": 4742,
      "Open": 4743,
      "historyĠ": 4744,
      "Color": 4745,
      "ilarĠ": 4746,
      "edicalĠ": 4747,
      "(andĠ": 4748,
      "2017": 4749,
      "relig": 4750,
      "insĠ": 4751,
      "sentĠ": 4752,
      "itself": 4753,
      "generalĠ": 4754,
      "easyĠtoĠ": 4755,
      "mightĠbeĠ": 4756,
      "fallĠ": 4757,
      "up,Ġ": 4758,
      "CA": 4759,
      "dynam": 4760,
      "2Ċ": 4761,
      "NewĠYor": 4762,
      "shot": 4763,
      "driveĠ": 4764,
      "whatĠtheĠ": 4765,
      "storeĠ": 4766,
      "virt": 4767,
      "eringĠ": 4768,
      "Work": 4769,
      "volum": 4770,
      "ThereĠareĠ": 4771,
      ").Ġ": 4772,
      "interestĠ": 4773,
      "ite": 4774,
      "IDĠ": 4775,
      "bringĠ": 4776,
      "Ġtogether": 4777,
      "igr": 4778,
      "honest": 4779,
      "leyĠ": 4780,
      "seemĠtoĠ": 4781,
      "decl": 4782,
      "Chec": 4783,
      "inĊ": 4784,
      "ages": 4785,
      "areĠnotĠ": 4786,
      "matter": 4787,
      "PD": 4788,
      "TOĠ": 4789,
      "IE": 4790,
      "ait": 4791,
      "ingĠthemĠ": 4792,
      "AreĠ": 4793,
      "opinion": 4794,
      "worthĠ": 4795,
      "âĢĻllĠ": 4796,
      "Ġtre": 4797,
      "onĠc": 4798,
      "itĠinĠ": 4799,
      "onlineĠ": 4800,
      "Config": 4801,
      "dead": 4802,
      "MO": 4803,
      "response": 4804,
      "roleĠ": 4805,
      "Ġshow": 4806,
      "ĠteamĠ": 4807,
      "asterĠ": 4808,
      "doĠtheĠ": 4809,
      ".ĠIĠhaveĠ": 4810,
      "iff": 4811,
      ",ĠbutĠitĠ": 4812,
      "variable": 4813,
      "ĠtheyĠwereĠ": 4814,
      "whatĠisĠ": 4815,
      "siveĠ": 4816,
      "knowĠwhatĠ": 4817,
      "discover": 4818,
      "Sim": 4819,
      "client": 4820,
      "bigg": 4821,
      "2-": 4822,
      "forceĠ": 4823,
      "Controll": 4824,
      "Jun": 4825,
      "reve": 4826,
      "energyĠ": 4827,
      "structureĠ": 4828,
      "le,Ġ": 4829,
      "True": 4830,
      "T_": 4831,
      "doesnâĢĻtĠ": 4832,
      "table": 4833,
      "Hou": 4834,
      "3,": 4835,
      "{Ċ": 4836,
      "personalĠ": 4837,
      "stick": 4838,
      ".ĠAf": 4839,
      "IĠhaveĠtoĠ": 4840,
      "len": 4841,
      "NA": 4842,
      "on-": 4843,
      "slight": 4844,
      "Mac": 4845,
      "byt": 4846,
      "neyĠ": 4847,
      "Form": 4848,
      "info": 4849,
      "Nam": 4850,
      "aĠlarg": 4851,
      "Pre": 4852,
      "ed.Ġ": 4853,
      "saw": 4854,
      "aĠgreatĠ": 4855,
      "capt": 4856,
      "a_": 4857,
      "wouldn'tĠ": 4858,
      "self-": 4859,
      "ONĠ": 4860,
      "reportĠ": 4861,
      "GreatĠ": 4862,
      "ĠmillionĠ": 4863,
      "DB": 4864,
      "soĠIĠ": 4865,
      "wouldĠhaveĠ": 4866,
      "fem": 4867,
      "CS": 4868,
      "absolutelyĠ": 4869,
      "sudd": 4870,
      "alĠofĠ": 4871,
      "correctĠ": 4872,
      "Element": 4873,
      "childrenĠ": 4874,
      "princ": 4875,
      "minut": 4876,
      "PO": 4877,
      "edĠtoĠbeĠ": 4878,
      "ageĠofĠ": 4879,
      "normal": 4880,
      "inĠt": 4881,
      "13Ġ": 4882,
      "aur": 4883,
      "ostĠofĠ": 4884,
      ",ĠB": 4885,
      "demon": 4886,
      "selectĠ": 4887,
      "Model": 4888,
      "Ġcomp": 4889,
      "Edit": 4890,
      "positiveĠ": 4891,
      "interestingĠ": 4892,
      "friendsĠ": 4893,
      "basicallyĠ": 4894,
      "VER": 4895,
      "heĠisĠ": 4896,
      "edĠmyĠ": 4897,
      "iesĠandĠ": 4898,
      ":0": 4899,
      "optionĠ": 4900,
      "doing": 4901,
      "PH": 4902,
      "opt": 4903,
      "strongĠ": 4904,
      "individual": 4905,
      "Yes,Ġ": 4906,
      "date": 4907,
      "sourc": 4908,
      "asc": 4909,
      "14Ġ": 4910,
      "installĠ": 4911,
      "styleĠ": 4912,
      "usersĠ": 4913,
      "\\frac{": 4914,
      "riskĠ": 4915,
      "focusĠ": 4916,
      "himĠtoĠ": 4917,
      "viceĠ": 4918,
      "altern": 4919,
      "prior": 4920,
      "Nov": 4921,
      "bind": 4922,
      "However,Ġ": 4923,
      "clean": 4924,
      "subject": 4925,
      "]ĊĊ": 4926,
      "attention": 4927,
      "optim": 4928,
      "cred": 4929,
      "programĠ": 4930,
      "Republ": 4931,
      "boot": 4932,
      "nation": 4933,
      "knowsĠ": 4934,
      "simpleĠ": 4935,
      "Cop": 4936,
      "bb": 4937,
      "endĠofĠtheĠ": 4938,
      "doĠyouĠ": 4939,
      "pg": 4940,
      "wo": 4941,
      "fatherĠ": 4942,
      "gamesĠ": 4943,
      "emotion": 4944,
      "time": 4945,
      "ately": 4946,
      "size": 4947,
      ".ĠK": 4948,
      "withĠmyĠ": 4949,
      "olveĠ": 4950,
      "advant": 4951,
      "feelingĠ": 4952,
      "location": 4953,
      "anĠandĠ": 4954,
      "waitĠ": 4955,
      "download": 4956,
      ",ĠnotĠ": 4957,
      "evalu": 4958,
      "Ġtime,Ġ": 4959,
      "Ġcr": 4960,
      "ĠtestĠ": 4961,
      "s\"": 4962,
      "Yes": 4963,
      "hardĠtoĠ": 4964,
      "shareĠ": 4965,
      "formerĠ": 4966,
      "uralĠ": 4967,
      "myselfĠ": 4968,
      "influ": 4969,
      "hun": 4970,
      "6,Ġ": 4971,
      "OrĠ": 4972,
      "ingĠupĠ": 4973,
      "riesĠ": 4974,
      "}}": 4975,
      "sayingĠ": 4976,
      "oĠandĠ": 4977,
      "student": 4978,
      "IF": 4979,
      "ondĠ": 4980,
      "atĠthisĠ": 4981,
      "wind": 4982,
      "ĠthatĠitĠ": 4983,
      "yingĠtoĠ": 4984,
      "ĠthatĠthisĠ": 4985,
      "199": 4986,
      "partyĠ": 4987,
      "exceptĠ": 4988,
      ");Ċ}ĊĊ": 4989,
      "().": 4990,
      "behind": 4991,
      "sort": 4992,
      "categ": 4993,
      "hib": 4994,
      "hus": 4995,
      "urb": 4996,
      "________": 4997,
      "aĠhref=\"": 4998,
      "proper": 4999,
      "normalĠ": 5000,
      "doll": 5001,
      "AnĠ": 5002,
      "ingĠmyĠ": 5003,
      "ologicalĠ": 5004,
      "ponent": 5005,
      "argetĠ": 5006,
      "GoodĠ": 5007,
      "Ġtype=\"": 5008,
      "makeĠtheĠ": 5009,
      "switch": 5010,
      "bey": 5011,
      "establ": 5012,
      "stup": 5013,
      "StateĠ": 5014,
      "regul": 5015,
      "few": 5016,
      "fitĠ": 5017,
      "developmentĠ": 5018,
      "menĠ": 5019,
      "ane": 5020,
      "among": 5021,
      "acrossĠtheĠ": 5022,
      "align": 5023,
      "dropp": 5024,
      "atchĠ": 5025,
      "Fil": 5026,
      "automat": 5027,
      "SomeĠ": 5028,
      "iĠw": 5029,
      "configur": 5030,
      "java.": 5031,
      "font": 5032,
      "describ": 5033,
      "&amp;": 5034,
      "batt": 5035,
      "a/": 5036,
      "ratherĠthanĠ": 5037,
      ".ĠJ": 5038,
      "middleĠ": 5039,
      "face": 5040,
      "true": 5041,
      "controll": 5042,
      "canc": 5043,
      "ifĠweĠ": 5044,
      "ionĠofĠ": 5045,
      "ĠtopĠ": 5046,
      "appropri": 5047,
      "ĠcanĠbeĠ": 5048,
      "youâĢĻreĠ": 5049,
      "mid": 5050,
      "lient": 5051,
      "valuesĠ": 5052,
      "izationĠ": 5053,
      "nearlyĠ": 5054,
      "loop": 5055,
      "edĠup": 5056,
      "keĠ": 5057,
      "you.\"Ġ\"": 5058,
      "SD": 5059,
      ">ĊĠĠ": 5060,
      "enderĠ": 5061,
      "ingĠinĠtheĠ": 5062,
      "Her": 5063,
      "NameĠ": 5064,
      ".ĠInĠtheĠ": 5065,
      "alg": 5066,
      "italĠ": 5067,
      "arter": 5068,
      "69": 5069,
      "handsĠ": 5070,
      "AV": 5071,
      "shotĠ": 5072,
      "boyĠ": 5073,
      "ocrat": 5074,
      "film": 5075,
      "all,Ġ": 5076,
      "gent": 5077,
      "sych": 5078,
      "ital": 5079,
      "acheĠ": 5080,
      "withĠthisĠ": 5081,
      "etsĠ": 5082,
      "researchĠ": 5083,
      "distribu": 5084,
      "eĠthingsĠ": 5085,
      "bloodĠ": 5086,
      "ĠtimeĠtoĠ": 5087,
      ")*": 5088,
      "playersĠ": 5089,
      "propertyĠ": 5090,
      "ranĠ": 5091,
      "Russi": 5092,
      "aĠth": 5093,
      "&gt;Ġ": 5094,
      "ird": 5095,
      "rowĠ": 5096,
      "atherĠ": 5097,
      "areĠt": 5098,
      "mot": 5099,
      "Ċ(": 5100,
      "ilityĠ": 5101,
      "aĠbigĠ": 5102,
      "Produc": 5103,
      "ival": 5104,
      "Image": 5105,
      "iftĠ": 5106,
      "to-": 5107,
      "ĊWhatĠisĠ": 5108,
      "going": 5109,
      "dieĠ": 5110,
      "broughtĠ": 5111,
      "pret": 5112,
      "withinĠ": 5113,
      "?âĢĿĊâĢľ": 5114,
      "standĠ": 5115,
      "War": 5116,
      "ize": 5117,
      "money": 5118,
      "CR": 5119,
      "ĠwhyĠ": 5120,
      "contin": 5121,
      "ible": 5122,
      "AtĠ": 5123,
      "/*": 5124,
      "doĠitĠ": 5125,
      "Context": 5126,
      "company": 5127,
      "doubleĠ": 5128,
      "meetĠ": 5129,
      "Exception": 5130,
      "s'Ġ": 5131,
      "profession": 5132,
      ",ĠyouĠ": 5133,
      "directlyĠ": 5134,
      "burn": 5135,
      "umm": 5136,
      "marri": 5137,
      "Canad": 5138,
      "inĠS": 5139,
      "Ġtool": 5140,
      "Field": 5141,
      "network": 5142,
      "gram": 5143,
      "2018": 5144,
      "olderĠ": 5145,
      "acrossĠ": 5146,
      "sĠthisĠ": 5147,
      "ackĠofĠ": 5148,
      "pal": 5149,
      "industr": 5150,
      "edĠintoĠ": 5151,
      "neigh": 5152,
      "hospit": 5153,
      "OnĠ": 5154,
      ",000Ġ": 5155,
      "Ġtrou": 5156,
      "performanceĠ": 5157,
      "aĠisĠ": 5158,
      "PL": 5159,
      "histor": 5160,
      "isterĠ": 5161,
      "becauseĠtheyĠ": 5162,
      "associatedĠ": 5163,
      "iorĠ": 5164,
      "=Ġ(": 5165,
      "basedĠonĠ": 5166,
      "builtĠ": 5167,
      ">Ċ</": 5168,
      "1.0": 5169,
      "prote": 5170,
      "balĠ": 5171,
      "conv": 5172,
      "onc": 5173,
      "relatedĠ": 5174,
      "ĊTheĠ": 5175,
      "roughĠ": 5176,
      "printĠ": 5177,
      ",ĠĠ": 5178,
      "Ġcurr": 5179,
      "ASĠ": 5180,
      "ers.Ġ": 5181,
      "\"ĠandĠ": 5182,
      "becameĠ": 5183,
      "er'sĠ": 5184,
      "ake": 5185,
      "whenĠyouĠ": 5186,
      "Rev": 5187,
      "i/": 5188,
      "setĠofĠ": 5189,
      ",âĢĿĠheĠ": 5190,
      "closeĠ": 5191,
      "beautifulĠ": 5192,
      "ency": 5193,
      "cs": 5194,
      "concep": 5195,
      "highlyĠ": 5196,
      "ifĠheĠ": 5197,
      "distribut": 5198,
      "uff": 5199,
      "50Ġ": 5200,
      "shop": 5201,
      "breakĠ": 5202,
      "ed,ĠandĠ": 5203,
      "https://www.": 5204,
      "UniversityĠofĠ": 5205,
      "Ġtable": 5206,
      "assign": 5207,
      "she'sĠ": 5208,
      "connection": 5209,
      ".p": 5210,
      "securityĠ": 5211,
      "arilyĠ": 5212,
      "mi": 5213,
      "struction": 5214,
      "oneĠtoĠ": 5215,
      "1:": 5216,
      "ĠthemĠtoĠ": 5217,
      "Go": 5218,
      "feelĠlikeĠ": 5219,
      "plication": 5220,
      "t,Ġ": 5221,
      "narr": 5222,
      "either": 5223,
      "Brit": 5224,
      "forĠanĠ": 5225,
      "relev": 5226,
      "ault": 5227,
      "echoĠ": 5228,
      "onsĠ": 5229,
      "driver": 5230,
      "Comp": 5231,
      "Har": 5232,
      "ĠtrueĠ": 5233,
      "100Ġ": 5234,
      "findĠtheĠ": 5235,
      "ectionĠ": 5236,
      "resh": 5237,
      "edd": 5238,
      "ing,ĠandĠ": 5239,
      "metĠ": 5240,
      "communic": 5241,
      "random": 5242,
      "!ĠĠ": 5243,
      "independ": 5244,
      "Activ": 5245,
      "father": 5246,
      "otherw": 5247,
      "Method": 5248,
      "onyĠ": 5249,
      "itleĠ": 5250,
      "eat": 5251,
      "atedĠtoĠ": 5252,
      "eĠtheĠt": 5253,
      "YO": 5254,
      "ingĠtheirĠ": 5255,
      "ingĠoutĠ": 5256,
      "impres": 5257,
      "ernĠ": 5258,
      "senseĠ": 5259,
      "aloneĠ": 5260,
      "Every": 5261,
      "hund": 5262,
      "''": 5263,
      "IĠdidn'tĠ": 5264,
      "WindowsĠ": 5265,
      "getĠtoĠ": 5266,
      "fuck": 5267,
      "innerĠ": 5268,
      "obj": 5269,
      "ĠworkingĠ": 5270,
      "IĠneedĠtoĠ": 5271,
      "ĠtakenĠ": 5272,
      "excl": 5273,
      "aĠw": 5274,
      "],": 5275,
      "Hi,ĊĊ": 5276,
      "DepartmentĠofĠ": 5277,
      "numer": 5278,
      "quickĠ": 5279,
      "accur": 5280,
      "hasĠtheĠ": 5281,
      "passĠ": 5282,
      "2016": 5283,
      "uaryĠ": 5284,
      "aren": 5285,
      "elloĠ": 5286,
      "analysisĠ": 5287,
      "../../": 5288,
      "ingĠatĠ": 5289,
      "udi": 5290,
      "ĊtoĠ": 5291,
      ".ĊHeĠ": 5292,
      ".ĠHowever,Ġ": 5293,
      "schem": 5294,
      "funn": 5295,
      "oteĠ": 5296,
      "ĠtoĠmakeĠ": 5297,
      "aĠveryĠ": 5298,
      "istsĠ": 5299,
      "Result": 5300,
      "scor": 5301,
      "mur": 5302,
      "(C": 5303,
      "EC": 5304,
      "ĊĠĠĠĠĠĠ<": 5305,
      "4/": 5306,
      ".\"Ġ\"YouĠ": 5307,
      "singleĠ": 5308,
      "gi": 5309,
      "surpri": 5310,
      ")Ċĉ": 5311,
      "adm": 5312,
      "pulledĠ": 5313,
      "Ġtreat": 5314,
      "actualĠ": 5315,
      "58": 5316,
      "imateĠ": 5317,
      "askingĠ": 5318,
      "s,ĊĊ": 5319,
      "quant": 5320,
      "Ġthrow": 5321,
      "changesĠ": 5322,
      "etĠal.,Ġ": 5323,
      ",ĠsheĠ": 5324,
      "youĠwouldĠ": 5325,
      "ĠwouldĠbeĠ": 5326,
      "ines": 5327,
      "sho": 5328,
      "urs": 5329,
      "High": 5330,
      "7,Ġ": 5331,
      "Vis": 5332,
      "youĠwereĠ": 5333,
      "amb": 5334,
      "IĠgotĠ": 5335,
      "period": 5336,
      "border": 5337,
      "ItâĢĻsĠ": 5338,
      "Ġtwo": 5339,
      "playerĠ": 5340,
      "languageĠ": 5341,
      "andid": 5342,
      "edĠout": 5343,
      "appĠ": 5344,
      "cup": 5345,
      "mix": 5346,
      "thingĠtoĠ": 5347,
      "asses": 5348,
      "darkĠ": 5349,
      "hadĠtheĠ": 5350,
      "scriptĠ": 5351,
      "itĠofĠ": 5352,
      ")Ġ{ĊĠĠĠĠĠĠĠĠĠĠĠĠ": 5353,
      "youĠwantĠ": 5354,
      "URL": 5355,
      "hat": 5356,
      "something": 5357,
      "queĠ": 5358,
      "certainlyĠ": 5359,
      "ĠtalkingĠ": 5360,
      "/**": 5361,
      "oulder": 5362,
      ".ĠSupposeĠ": 5363,
      "latestĠ": 5364,
      "Ðº": 5365,
      "forĠsomeĠ": 5366,
      "Che": 5367,
      "').": 5368,
      "questionsĠ": 5369,
      "black": 5370,
      "Fre": 5371,
      "funĠ": 5372,
      "Also,Ġ": 5373,
      "mustĠbeĠ": 5374,
      "âĢ¢": 5375,
      "andĠtoĠ": 5376,
      "networkĠ": 5377,
      "if(": 5378,
      "oph": 5379,
      "FirstĠ": 5380,
      "roy": 5381,
      "eachĠother": 5382,
      "doorĠ": 5383,
      "Alth": 5384,
      "(R": 5385,
      "ey'reĠ": 5386,
      "\"ĊĠĠĠĠ": 5387,
      "46": 5388,
      "itĠwouldĠ": 5389,
      "3-": 5390,
      "ief": 5391,
      "iou": 5392,
      "essent": 5393,
      "dark": 5394,
      "ingĠanĠ": 5395,
      "front": 5396,
      "That": 5397,
      "OK": 5398,
      "lengthĠ": 5399,
      "favoriteĠ": 5400,
      "aboutĠit": 5401,
      "Ear": 5402,
      "[\"": 5403,
      "pathĠ": 5404,
      "mechan": 5405,
      "Ġmodel": 5406,
      "becauseĠofĠ": 5407,
      "asĠsheĠ": 5408,
      "edĠit": 5409,
      "render": 5410,
      "motherĠ": 5411,
      "relativ": 5412,
      "this->": 5413,
      "ledĠtheĠ": 5414,
      "weightĠ": 5415,
      "howĠtheĠ": 5416,
      "here,Ġ": 5417,
      ".ĠThisĠisĠ": 5418,
      "youĠthinkĠ": 5419,
      "escap": 5420,
      "bag": 5421,
      ")Ġ+Ġ": 5422,
      "databaseĠ": 5423,
      ".\"Ġ\"S": 5424,
      "fuckingĠ": 5425,
      "ates": 5426,
      "DoesĠ": 5427,
      "Request": 5428,
      "goneĠ": 5429,
      "oriesĠ": 5430,
      "flag": 5431,
      "agreeĠ": 5432,
      "ench": 5433,
      "sell": 5434,
      "Author": 5435,
      "Part": 5436,
      "articleĠ": 5437,
      "Ċ<": 5438,
      "human": 5439,
      "Jap": 5440,
      "alityĠ": 5441,
      "ĊandĠ": 5442,
      "Republic": 5443,
      "IĠreallyĠ": 5444,
      "ure,Ġ": 5445,
      "lap": 5446,
      "addedĠ": 5447,
      "legeĠ": 5448,
      "19Ġ": 5449,
      ",ĠthereĠ": 5450,
      "esĠofĠtheĠ": 5451,
      "likeĠthat": 5452,
      "eyes": 5453,
      "dream": 5454,
      "example,Ġ": 5455,
      "NULL": 5456,
      "imagin": 5457,
      "factĠthatĠ": 5458,
      "Linu": 5459,
      "acyĠ": 5460,
      "particularĠ": 5461,
      "bri": 5462,
      "learningĠ": 5463,
      "blueĠ": 5464,
      "Hol": 5465,
      "channel": 5466,
      "eĠthan": 5467,
      "updateĠ": 5468,
      "ilesĠ": 5469,
      "buy": 5470,
      "ĊĠĠĠĠĠĠĠĠĠĠĠĠĠĠĠĠĠĠĠĠĠĠĠĠĠĠĠĠ": 5471,
      "guess": 5472,
      "arelyĠ": 5473,
      "Param": 5474,
      "!\"Ġ": 5475,
      "ingĠonĠtheĠ": 5476,
      "advanc": 5477,
      "special": 5478,
      "please": 5479,
      "distr": 5480,
      "increaseĠ": 5481,
      "PM": 5482,
      "dir": 5483,
      "amer": 5484,
      "responseĠ": 5485,
      "unlessĠ": 5486,
      "ĊSupposeĠ": 5487,
      "Andro": 5488,
      "paramet": 5489,
      "Mis": 5490,
      "Fact": 5491,
      "omin": 5492,
      "y.Ċ": 5493,
      "itĠis": 5494,
      "brid": 5495,
      "biggestĠ": 5496,
      "omet": 5497,
      "material": 5498,
      "recordĠ": 5499,
      "esĠaĠ": 5500,
      "Stre": 5501,
      "decidedĠtoĠ": 5502,
      "EDĠ": 5503,
      "();ĊĠĠĠĠ": 5504,
      "inĠherĠ": 5505,
      "awes": 5506,
      "anyĠotherĠ": 5507,
      "bank": 5508,
      ".ĠToĠ": 5509,
      "},Ġ": 5510,
      "edĠin": 5511,
      "icĠandĠ": 5512,
      "&nbsp;Ġ": 5513,
      "aid": 5514,
      "them": 5515,
      "averageĠ": 5516,
      "Met": 5517,
      "Content": 5518,
      "atoryĠ": 5519,
      "fireĠ": 5520,
      "filesĠ": 5521,
      "weight": 5522,
      "deepĠ": 5523,
      "hic": 5524,
      "s'": 5525,
      "variableĠ": 5526,
      "readĠtheĠ": 5527,
      "(n": 5528,
      "Time": 5529,
      "grand": 5530,
      "practic": 5531,
      "cleĠ": 5532,
      "healthĠ": 5533,
      "Ġmy": 5534,
      "convers": 5535,
      "2015": 5536,
      "ByĠ": 5537,
      "57": 5538,
      "Mark": 5539,
      "\",\"": 5540,
      "jump": 5541,
      "modelĠ": 5542,
      ".ĠWhatĠisĠtheĠ": 5543,
      "ing.Ġ": 5544,
      "e.ĠHeĠ": 5545,
      "hoursĠ": 5546,
      "arriv": 5547,
      "Ġsc": 5548,
      "enem": 5549,
      "wrongĠ": 5550,
      "forwardĠ": 5551,
      "-m": 5552,
      "_T": 5553,
      "Pat": 5554,
      "DA": 5555,
      "accordingĠtoĠ": 5556,
      ");ĊĊĠĠĠĠĠĠĠĠ": 5557,
      "rangeĠ": 5558,
      "Wid": 5559,
      "IB": 5560,
      "59": 5561,
      "bes": 5562,
      "argu": 5563,
      "full": 5564,
      "d.": 5565,
      "ithub": 5566,
      "pose": 5567,
      "wait": 5568,
      "Group": 5569,
      "statement": 5570,
      "ferĠ": 5571,
      "accessĠ": 5572,
      "fric": 5573,
      "andĠthisĠ": 5574,
      "(B": 5575,
      "Ġtoward": 5576,
      "situation": 5577,
      "entic": 5578,
      "ativeĠofĠ": 5579,
      "ence,Ġ": 5580,
      "novel": 5581,
      "requestĠ": 5582,
      "univers": 5583,
      "messageĠ": 5584,
      "com.": 5585,
      "argument": 5586,
      "eatĠ": 5587,
      "Frid": 5588,
      "create": 5589,
      "major": 5590,
      "aâĢĻsĠ": 5591,
      "publish": 5592,
      "bos": 5593,
      "aĠmon": 5594,
      ");ĊĠĠĠĠĠĠĠĠĠĠĠĠĠĠĠĠ": 5595,
      "packag": 5596,
      "Ċt": 5597,
      "certainĠ": 5598,
      "acqu": 5599,
      "marketĠ": 5600,
      "ĠĠĠĠĠĠĠĠĠĠĠ": 5601,
      ",Ġthough": 5602,
      "orrow": 5603,
      "ertainĠ": 5604,
      ").ĠTheĠ": 5605,
      "abilityĠtoĠ": 5606,
      "womenĠ": 5607,
      "(i": 5608,
      "applicationĠ": 5609,
      "susp": 5610,
      "arc": 5611,
      "yourselfĠ": 5612,
      "=Ġ'": 5613,
      "livingĠ": 5614,
      "eg": 5615,
      "86": 5616,
      "(p": 5617,
      "Del": 5618,
      "confirm": 5619,
      "Ġwom": 5620,
      "patient": 5621,
      "youĠhaveĠtoĠ": 5622,
      "construct": 5623,
      "uint": 5624,
      "problemsĠ": 5625,
      "ptionĠ": 5626,
      "youĠneedĠtoĠ": 5627,
      "mostlyĠ": 5628,
      "althoughĠ": 5629,
      "inesĠ": 5630,
      "allĠofĠtheĠ": 5631,
      "unit": 5632,
      "forĠyou": 5633,
      "eĠtoĠbeĠ": 5634,
      "and,Ġ": 5635,
      "rock": 5636,
      "eĠtheseĠ": 5637,
      "music": 5638,
      "ckĠ": 5639,
      "ĠtoĠhaveĠ": 5640,
      ".C": 5641,
      "creat": 5642,
      "mouth": 5643,
      "),ĠandĠ": 5644,
      "emplate": 5645,
      "eĠthingĠ": 5646,
      "ventĠ": 5647,
      "False": 5648,
      "immediatelyĠ": 5649,
      "why": 5650,
      ".ĊĠ": 5651,
      "oil": 5652,
      "noĠoneĠ": 5653,
      "existingĠ": 5654,
      "\").": 5655,
      "ViewĠ": 5656,
      "Post": 5657,
      "May": 5658,
      "government": 5659,
      "countryĠ": 5660,
      "Sw": 5661,
      "atedĠbyĠ": 5662,
      ".ĊĊIĠ": 5663,
      "direction": 5664,
      "fixĠ": 5665,
      "aĠlittleĠbitĠ": 5666,
      "andĠthen": 5667,
      "I'veĠbeenĠ": 5668,
      "water": 5669,
      "general": 5670,
      "marg": 5671,
      "rix": 5672,
      "=Ġc": 5673,
      "accountĠ": 5674,
      "aredĠtoĠ": 5675,
      "queryĠ": 5676,
      "================": 5677,
      "becauseĠitĠ": 5678,
      "Table": 5679,
      "ATĠ": 5680,
      "requiredĠ": 5681,
      "doĠthisĠ": 5682,
      "andĠitĠ": 5683,
      "logĠ": 5684,
      "deviceĠ": 5685,
      "minim": 5686,
      "ultipleĠ": 5687,
      "deadĠ": 5688,
      "NationalĠ": 5689,
      "3Ċ": 5690,
      "?âĢĿĊ": 5691,
      "TrumpĠ": 5692,
      "edĠonĠtheĠ": 5693,
      "useĠofĠ": 5694,
      ")ĠtoĠ": 5695,
      "oneĠthatĠ": 5696,
      "MaybeĠ": 5697,
      "ster": 5698,
      "boughtĠ": 5699,
      "busines": 5700,
      "edg": 5701,
      "parentsĠ": 5702,
      "2014": 5703,
      "outsideĠ": 5704,
      "Acc": 5705,
      "term": 5706,
      "deliver": 5707,
      "means": 5708,
      "satis": 5709,
      ".\"ĊĊ": 5710,
      "database": 5711,
      "sĠthatĠareĠ": 5712,
      "WhileĠ": 5713,
      "aterĠ": 5714,
      "forĠyourĠ": 5715,
      "Ir": 5716,
      "conduc": 5717,
      "offe": 5718,
      "Button": 5719,
      "learnĠ": 5720,
      "voic": 5721,
      "mother": 5722,
      "{Ċĉ": 5723,
      "charactersĠ": 5724,
      "Ang": 5725,
      "Europe": 5726,
      "ĠtriedĠ": 5727,
      "buildingĠ": 5728,
      "Ret": 5729,
      "FRO": 5730,
      "platform": 5731,
      "plant": 5732,
      "There'sĠ": 5733,
      "given": 5734,
      "percent": 5735,
      "elyĠtoĠ": 5736,
      "launch": 5737,
      "mist": 5738,
      "IĠdoĠ": 5739,
      "ferenceĠ": 5740,
      "UM": 5741,
      "Ñĥ": 5742,
      "aĠmin": 5743,
      "encesĠ": 5744,
      "way,Ġ": 5745,
      "orith": 5746,
      "rub": 5747,
      "ed_": 5748,
      "likeĠthatĠ": 5749,
      "reveal": 5750,
      "<<Ġ": 5751,
      "detect": 5752,
      "fromĠs": 5753,
      "Calcul": 5754,
      "restr": 5755,
      "soĠmuchĠ": 5756,
      "me.Ġ": 5757,
      "politicalĠ": 5758,
      "chest": 5759,
      "extremelyĠ": 5760,
      "wasnâĢĻtĠ": 5761,
      "leag": 5762,
      "rob": 5763,
      "receiveĠ": 5764,
      "HowĠtoĠ": 5765,
      "pattern": 5766,
      "anĠun": 5767,
      "ĠtalkĠ": 5768,
      "bud": 5769,
      "PE": 5770,
      "uringĠ": 5771,
      "upĠwithĠ": 5772,
      "sectionĠ": 5773,
      "uryĠ": 5774,
      "ings": 5775,
      "however,Ġ": 5776,
      "State": 5777,
      "choic": 5778,
      "momentĠ": 5779,
      "asĠmuchĠ": 5780,
      "tyĠ": 5781,
      "member": 5782,
      "google": 5783,
      "soĠtheĠ": 5784,
      "Ġcor": 5785,
      "isticĠ": 5786,
      "iled": 5787,
      "DR": 5788,
      ".ĊĊThank": 5789,
      "GoogleĠ": 5790,
      "Ġwon": 5791,
      "exĠ": 5792,
      "aboutĠthisĠ": 5793,
      "effectĠ": 5794,
      "designĠ": 5795,
      "sedĠtheĠ": 5796,
      "blog": 5797,
      "resultsĠ": 5798,
      "becauseĠIĠ": 5799,
      "famili": 5800,
      "ildĠ": 5801,
      "Mag": 5802,
      "womanĠ": 5803,
      ".ĠItâĢĻsĠ": 5804,
      "extern": 5805,
      "periodĠ": 5806,
      "NOTĠ": 5807,
      "craz": 5808,
      "god": 5809,
      "``": 5810,
      "github": 5811,
      "whateverĠ": 5812,
      "Instit": 5813,
      "bow": 5814,
      "umnĠ": 5815,
      "itaryĠ": 5816,
      "Chr": 5817,
      "sĠhisĠ": 5818,
      "-9": 5819,
      "void": 5820,
      "ĠworkĠ": 5821,
      "k,Ġ": 5822,
      "IĊ": 5823,
      "stack": 5824,
      ".ĠIĠwasĠ": 5825,
      "ĠthenĠtheĠ": 5826,
      "peĠ": 5827,
      "24Ġ": 5828,
      "official": 5829,
      ":ĊĠĠĠĠ": 5830,
      "isĠnoĠ": 5831,
      "oken": 5832,
      "2013": 5833,
      "erĠ(": 5834,
      "WI": 5835,
      "hasĠtoĠ": 5836,
      "bugĠ": 5837,
      ">ĊĠĠĠĠĠĠĠĠĠĠĠĠĠĠĠĠ": 5838,
      "planĠ": 5839,
      "Ġsur": 5840,
      "etch": 5841,
      "studentsĠ": 5842,
      "Back": 5843,
      "directĠ": 5844,
      "Aug": 5845,
      "Ġthos": 5846,
      "Cha": 5847,
      "potentialĠ": 5848,
      "Start": 5849,
      "edĠmeĠ": 5850,
      "appli": 5851,
      "yesĠ": 5852,
      "The": 5853,
      "[Ġ": 5854,
      "79": 5855,
      "onĠyourĠ": 5856,
      ",ĠwithĠ": 5857,
      "Ġmess": 5858,
      "howeverĠ": 5859,
      "kn": 5860,
      "Micha": 5861,
      "thirdĠ": 5862,
      "aĠ(": 5863,
      "-6": 5864,
      "Aut": 5865,
      "redd": 5866,
      "changeĠtheĠ": 5867,
      "////////": 5868,
      "whenĠitĠ": 5869,
      "\"><": 5870,
      "Ġspec": 5871,
      "wish": 5872,
      "ently": 5873,
      ".ĠĠĠ": 5874,
      "deathĠ": 5875,
      "endĠofĠ": 5876,
      "negativeĠ": 5877,
      "empor": 5878,
      "hotĠ": 5879,
      "ĠcanĠIĠ": 5880,
      "what'sĠ": 5881,
      "seeingĠ": 5882,
      "expectedĠ": 5883,
      "family": 5884,
      "=Ġ$": 5885,
      "don'tĠthinkĠ": 5886,
      "(d": 5887,
      "Lin": 5888,
      "itiz": 5889,
      "acher": 5890,
      "?ĊĊThank": 5891,
      "pressĠ": 5892,
      "aĠcoupleĠofĠ": 5893,
      "contribut": 5894,
      "straightĠ": 5895,
      "avoidĠ": 5896,
      "ountr": 5897,
      "Box": 5898,
      "Ġtrack": 5899,
      "anymor": 5900,
      "series": 5901,
      "specialĠ": 5902,
      "Dan": 5903,
      "IĠcan": 5904,
      "Action": 5905,
      "apart": 5906,
      "Apr": 5907,
      "sched": 5908,
      ":00": 5909,
      "ĠtheĠsameĠ": 5910,
      "lectionĠ": 5911,
      ".\"Ċ\"": 5912,
      "teĠ": 5913,
      "ones": 5914,
      "Sk": 5915,
      "officeĠ": 5916,
      "recommendĠ": 5917,
      "U.S.Ġ": 5918,
      "JĠ": 5919,
      ")Ġ-Ġ": 5920,
      "never": 5921,
      "&&Ġ": 5922,
      "lyingĠ": 5923,
      "featureĠ": 5924,
      "installedĠ": 5925,
      "fightĠ": 5926,
      "appl": 5927,
      "inkingĠ": 5928,
      "edĠthatĠtheĠ": 5929,
      "Ke": 5930,
      "publicĠvoidĠ": 5931,
      "operation": 5932,
      "da": 5933,
      "backĠandĠ": 5934,
      "cu": 5935,
      "_B": 5936,
      "camer": 5937,
      "2012": 5938,
      "collect": 5939,
      "comeĠtoĠ": 5940,
      "six": 5941,
      "wall": 5942,
      "considerĠ": 5943,
      "opleĠ": 5944,
      "ingĠofĠtheĠ": 5945,
      "apache": 5946,
      "common": 5947,
      "dail": 5948,
      "efĠ": 5949,
      "\"ĊĠĠĠĠĠĠĠĠ": 5950,
      "ipp": 5951,
      "Mor": 5952,
      "emerg": 5953,
      "ifĠyou'reĠ": 5954,
      "25Ġ": 5955,
      "ocol": 5956,
      "soft": 5957,
      "withinĠtheĠ": 5958,
      "s:Ċ": 5959,
      "Ġwrit": 5960,
      "Det": 5961,
      "Oct": 5962,
      "LetĠ": 5963,
      "expression": 5964,
      "carri": 5965,
      ".java:": 5966,
      "memoryĠ": 5967,
      "elementĠ": 5968,
      "notherĠ": 5969,
      "}\\": 5970,
      "resist": 5971,
      "separateĠ": 5972,
      "year-": 5973,
      "verseĠ": 5974,
      "anno": 5975,
      "encod": 5976,
      "administr": 5977,
      "asĠtoĠ": 5978,
      ")ĠisĠ": 5979,
      "VeryĠ": 5980,
      "ontoĠ": 5981,
      "erĠinĠ": 5982,
      "himĠandĠ": 5983,
      "avoid": 5984,
      "booksĠ": 5985,
      "ersĠareĠ": 5986,
      "anti": 5987,
      "56": 5988,
      "aheadĠ": 5989,
      "${": 5990,
      "*Ġ@": 5991,
      "31": 5992,
      "500": 5993,
      "!âĢĿĠ": 5994,
      "Select": 5995,
      "forĠ(": 5996,
      "*/Ċ": 5997,
      ");Ċĉ": 5998,
      "ĠturnĠ": 5999,
      "valĠ": 6000,
      "aa": 6001,
      "itselfĠ": 6002,
      "morningĠ": 6003,
      "watchĠ": 6004,
      "whoseĠ": 6005,
      "communityĠ": 6006,
      "{ĊĠĠĠĠĠĠĠĠĠĠĠĠĠĠĠĠ": 6007,
      "assert": 6008,
      "commandĠ": 6009,
      "spentĠ": 6010,
      "PR": 6011,
      "pullĠ": 6012,
      "displayĠ": 6013,
      "ComeĠ": 6014,
      "intend": 6015,
      "'Ċ": 6016,
      "ksĠ": 6017,
      "Ġcommun": 6018,
      "ison": 6019,
      "ideasĠ": 6020,
      "demonstr": 6021,
      "excit": 6022,
      "wordsĠ": 6023,
      "ingĠfromĠ": 6024,
      "Code": 6025,
      "No,Ġ": 6026,
      "=Ġm": 6027,
      "woman": 6028,
      "DS": 6029,
      "winĠ": 6030,
      "clickĠ": 6031,
      "antic": 6032,
      "missionĠ": 6033,
      "it'sĠaĠ": 6034,
      "Ġthis.": 6035,
      "FA": 6036,
      "ĊĠĠĠĠ\"": 6037,
      "Isl": 6038,
      "TERĠ": 6039,
      "ANĠ": 6040,
      "OfĠcour": 6041,
      "offerĠ": 6042,
      "Ð²": 6043,
      "backĠtoĠtheĠ": 6044,
      "Pal": 6045,
      "experiment": 6046,
      "eĠthe": 6047,
      "json": 6048,
      "kno": 6049,
      "eachĠotherĠ": 6050,
      "description": 6051,
      "(M": 6052,
      "ainsĠ": 6053,
      "disappoint": 6054,
      "GL": 6055,
      "proced": 6056,
      "gro": 6057,
      "doĠIĠ": 6058,
      "ĠtowardsĠ": 6059,
      "ÂłÂł": 6060,
      "receivedĠ": 6061,
      "weak": 6062,
      "Just": 6063,
      "vention": 6064,
      "linux": 6065,
      "workedĠ": 6066,
      "aĊĊ": 6067,
      "enjoyĠ": 6068,
      "shoulder": 6069,
      "oot": 6070,
      "s.ĠHeĠ": 6071,
      "adem": 6072,
      "began": 6073,
      "frontĠofĠ": 6074,
      "chron": 6075,
      "^2": 6076,
      "shad": 6077,
      "ride": 6078,
      "contactĠ": 6079,
      "factĠ": 6080,
      "everything": 6081,
      ".ĠĠItĠ": 6082,
      "et,Ġ": 6083,
      ".ĠTheseĠ": 6084,
      "paidĠ": 6085,
      "eĠthenĠ": 6086,
      "ousand": 6087,
      "esĠwereĠ": 6088,
      "happenĠ": 6089,
      ".ĠAfterĠ": 6090,
      "soĠmuch": 6091,
      "buttonĠ": 6092,
      "soon": 6093,
      "encour": 6094,
      "belowĠ": 6095,
      "killedĠ": 6096,
      "exception": 6097,
      "hang": 6098,
      "goal": 6099,
      "eĠte": 6100,
      "p>": 6101,
      "dres": 6102,
      "ourĠc": 6103,
      "icon": 6104,
      "Ġtouch": 6105,
      "obviouslyĠ": 6106,
      "();ĊĠĠĠĠĠĠĠĠ": 6107,
      "particularlyĠ": 6108,
      "PresidentĠ": 6109,
      "video": 6110,
      "ate,Ġ": 6111,
      "Row": 6112,
      "Play": 6113,
      "TV": 6114,
      "derivativeĠofĠ": 6115,
      ".ĊĊ\"": 6116,
      "Func": 6117,
      "Intern": 6118,
      "chap": 6119,
      "Que": 6120,
      "Ġcomple": 6121,
      "birth": 6122,
      "pairĠ": 6123,
      "ingĠthem": 6124,
      "shownĠ": 6125,
      "eĠtryingĠtoĠ": 6126,
      "pc": 6127,
      "spanĠ": 6128,
      "Ġtime.Ġ": 6129,
      "android.": 6130,
      "MayĠ": 6131,
      "status": 6132,
      "UTĠ": 6133,
      "pu": 6134,
      "aĠlargeĠ": 6135,
      ";čĊ": 6136,
      "rig": 6137,
      "assist": 6138,
      "itchĠ": 6139,
      "wantsĠtoĠ": 6140,
      "youĠgetĠ": 6141,
      "Georg": 6142,
      "iefĠ": 6143,
      "âĢĻs": 6144,
      "_C": 6145,
      "nearĠ": 6146,
      "suff": 6147,
      "itemĠ": 6148,
      "register": 6149,
      "5/": 6150,
      "depart": 6151,
      "leanĠ": 6152,
      "primeĠ": 6153,
      "ittl": 6154,
      "aftĠ": 6155,
      "layout_": 6156,
      "ĠthereĠisĠnoĠ": 6157,
      "vehic": 6158,
      "van": 6159,
      "sql": 6160,
      "improveĠ": 6161,
      "song": 6162,
      ")Ġ(": 6163,
      "ntĠ": 6164,
      "neĠ": 6165,
      "forĠthatĠ": 6166,
      "ling": 6167,
      "amm": 6168,
      ",ĠandĠIĠ": 6169,
      "sĠandĠtheĠ": 6170,
      "WhereĠ": 6171,
      "fram": 6172,
      "excell": 6173,
      "outĠandĠ": 6174,
      "domin": 6175,
      "msg": 6176,
      "UE": 6177,
      "lyĠandĠ": 6178,
      "justĠtheĠ": 6179,
      "ationĠinĠ": 6180,
      "cellĠ": 6181,
      "rt": 6182,
      "fal": 6183,
      "///Ġ": 6184,
      "So,Ġ": 6185,
      "diagno": 6186,
      "amaĠ": 6187,
      "neededĠ": 6188,
      "INT": 6189,
      "ensionĠ": 6190,
      "plusĠ": 6191,
      "generallyĠ": 6192,
      "-10": 6193,
      "[Music]": 6194,
      "it.Ċ": 6195,
      "validĠ": 6196,
      "ĠmanyĠ": 6197,
      ",Ċĉ": 6198,
      "Ġweb": 6199,
      "hairĠ": 6200,
      "fellĠ": 6201,
      "Writ": 6202,
      "yĠthatĠ": 6203,
      "withĠhisĠ": 6204,
      "additionalĠ": 6205,
      "interestedĠinĠ": 6206,
      "Head": 6207,
      "iouslyĠ": 6208,
      "First": 6209,
      "Respon": 6210,
      "ooth": 6211,
      "now,Ġ": 6212,
      "kernel": 6213,
      "Curr": 6214,
      "ni": 6215,
      "expectĠ": 6216,
      "ĠĠĠĠ*Ġ": 6217,
      "makeĠaĠ": 6218,
      "we'veĠ": 6219,
      "Rel": 6220,
      "}ĊĠĠ": 6221,
      "**3Ġ+Ġ": 6222,
      "hero": 6223,
      "superĠ": 6224,
      "engine": 6225,
      "SELE": 6226,
      "[2": 6227,
      "it.Ġ": 6228,
      "CTĠ": 6229,
      "ean": 6230,
      "Afric": 6231,
      "??": 6232,
      "âĪĴĠ": 6233,
      "MM": 6234,
      "Pan": 6235,
      "Bro": 6236,
      "gotĠtheĠ": 6237,
      "Hop": 6238,
      "sample": 6239,
      "blockĠ": 6240,
      "handleĠ": 6241,
      "clearĠ": 6242,
      "algorith": 6243,
      "painĠ": 6244,
      "criptĠ": 6245,
      "WAR": 6246,
      "elect": 6247,
      "shitĠ": 6248,
      "commentĠ": 6249,
      "module": 6250,
      "cardĠ": 6251,
      "ancesĠ": 6252,
      "Sen": 6253,
      "ofĠherĠ": 6254,
      "Yeah,Ġ": 6255,
      "enu": 6256,
      "incredi": 6257,
      "_D": 6258,
      "suggestion": 6259,
      "requireĠ": 6260,
      "passedĠ": 6261,
      "judg": 6262,
      "bottomĠ": 6263,
      "mob": 6264,
      "fant": 6265,
      "occas": 6266,
      ":\"Ġ\"": 6267,
      "sudden": 6268,
      "Ġwher": 6269,
      "append": 6270,
      "Rom": 6271,
      "ju": 6272,
      "itĊ": 6273,
      "bottom": 6274,
      "foreignĠ": 6275,
      "inĠorderĠtoĠ": 6276,
      ".ĠIfĠyouĠ": 6277,
      "feelsĠ": 6278,
      "youĠmayĠ": 6279,
      "HaveĠ": 6280,
      "SH": 6281,
      "cool": 6282,
      "as,Ġ": 6283,
      "rollĠ": 6284,
      "screenĠ": 6285,
      "54": 6286,
      "firstĠtimeĠ": 6287,
      "extraĠ": 6288,
      "inaĠ": 6289,
      "inno": 6290,
      "linesĠ": 6291,
      "area": 6292,
      "forĠmeĠ": 6293,
      "restĠofĠtheĠ": 6294,
      "ixĠ": 6295,
      "leastĠ": 6296,
      "justĠaĠ": 6297,
      ".ĠThenĠ": 6298,
      ",ĊĠĠ": 6299,
      "xt": 6300,
      "Phil": 6301,
      ").ĠĠ": 6302,
      "batter": 6303,
      "18Ġ": 6304,
      "complex": 6305,
      "ĠtoĠmyĠ": 6306,
      "WhichĠ": 6307,
      "Ġco": 6308,
      "isĠinĠ": 6309,
      "lessĠthanĠ": 6310,
      "Ã³": 6311,
      "conver": 6312,
      "ertain": 6313,
      "edĠwithĠtheĠ": 6314,
      "ĠthoseĠwhoĠ": 6315,
      "Ã¤": 6316,
      "ĠmightĠ": 6317,
      "authorĠ": 6318,
      "isĠitĠ": 6319,
      "---": 6320,
      "He'sĠ": 6321,
      "letter": 6322,
      "writingĠ": 6323,
      "ing.\"Ġ\"": 6324,
      "32Ġ": 6325,
      "puttingĠ": 6326,
      "agon": 6327,
      "numbersĠ": 6328,
      "pointsĠ": 6329,
      "ITĠ": 6330,
      "Direct": 6331,
      ",ĠC": 6332,
      "explor": 6333,
      "Face": 6334,
      "warm": 6335,
      "Node": 6336,
      "haveĠanyĠ": 6337,
      ".ĠNoĠ": 6338,
      "paint": 6339,
      "libraryĠ": 6340,
      "Ñı": 6341,
      "place": 6342,
      "dollar": 6343,
      "fear": 6344,
      "clin": 6345,
      "onĠherĠ": 6346,
      "grat": 6347,
      "suchĠaĠ": 6348,
      "RA": 6349,
      "lovedĠ": 6350,
      "message": 6351,
      "amongĠ": 6352,
      "hi": 6353,
      "ofĠanĠ": 6354,
      "ForĠtheĠ": 6355,
      "y,ĠandĠ": 6356,
      "women": 6357,
      "-7": 6358,
      "concl": 6359,
      "ĠthatĠweĠ": 6360,
      "Austr": 6361,
      "seen": 6362,
      "like": 6363,
      "Ġtrain": 6364,
      "ifĠs": 6365,
      "lawĠ": 6366,
      "sd": 6367,
      "=0": 6368,
      "alloc": 6369,
      ",Ġthen": 6370,
      "psych": 6371,
      "primaryĠ": 6372,
      "cityĠ": 6373,
      "choiceĠ": 6374,
      "til": 6375,
      ":=Ġ": 6376,
      "chur": 6377,
      "Lev": 6378,
      "ãĤ": 6379,
      "\\math": 6380,
      "Ġtransp": 6381,
      "food": 6382,
      "danger": 6383,
      "GetĠ": 6384,
      "ed:Ġ": 6385,
      "SQL": 6386,
      "aĠmom": 6387,
      "ableĠandĠ": 6388,
      "........": 6389,
      "withĠanĠ": 6390,
      "social": 6391,
      "epis": 6392,
      "reviewĠ": 6393,
      "clearlyĠ": 6394,
      "anti-": 6395,
      ".ĠAnd": 6396,
      "na": 6397,
      "ĠminutesĠ": 6398,
      "PRO": 6399,
      "(T": 6400,
      "$$Ċ": 6401,
      "IĠwantĠ": 6402,
      "haveĠanĠ": 6403,
      "Bel": 6404,
      "ĠwellĠ": 6405,
      "expressionĠ": 6406,
      "isĠthereĠ": 6407,
      "youĠcan'tĠ": 6408,
      "compil": 6409,
      "erĠforĠ": 6410,
      "heavyĠ": 6411,
      "feature": 6412,
      "heĠcouldĠ": 6413,
      "ability": 6414,
      "ellig": 6415,
      "onĠthatĠ": 6416,
      "edĠaboutĠ": 6417,
      "yes": 6418,
      "ĠtotallyĠ": 6419,
      "Jack": 6420,
      "infl": 6421,
      "usingĠaĠ": 6422,
      "urg": 6423,
      "ired": 6424,
      "source": 6425,
      "sinceĠtheĠ": 6426,
      "?ĠIĠ": 6427,
      "ieldĠ": 6428,
      "y,ĠbutĠ": 6429,
      "x.": 6430,
      "aft": 6431,
      "WorldĠ": 6432,
      "ive,Ġ": 6433,
      "Info": 6434,
      "itĠwouldĠbeĠ": 6435,
      "/0": 6436,
      "ĉĉĉĉĉ": 6437,
      "perhapsĠ": 6438,
      "possiblyĠ": 6439,
      "ic,Ġ": 6440,
      "dropĠ": 6441,
      "Î±": 6442,
      "namedĠ": 6443,
      "icĠm": 6444,
      "ae": 6445,
      "seasonĠ": 6446,
      "We'reĠ": 6447,
      "stead": 6448,
      "Ð¼": 6449,
      "Spec": 6450,
      "lotsĠofĠ": 6451,
      "Ġton": 6452,
      "doĠthis": 6453,
      "hateĠ": 6454,
      "Link": 6455,
      "somethingĠthatĠ": 6456,
      "missingĠ": 6457,
      "ALL": 6458,
      "orĠnot": 6459,
      "coverĠ": 6460,
      "Tom": 6461,
      "(theĠ": 6462,
      "Stream": 6463,
      "IâĢĻveĠ": 6464,
      "utr": 6465,
      "torĠ": 6466,
      "feetĠ": 6467,
      "89": 6468,
      "Load": 6469,
      "yr": 6470,
      "/t": 6471,
      "WhoĠ": 6472,
      "bring": 6473,
      "IĠwouldĠlikeĠtoĠ": 6474,
      "entire": 6475,
      ",\"": 6476,
      "youĠandĠ": 6477,
      "corpor": 6478,
      "dialog": 6479,
      "wideĠ": 6480,
      "Layout": 6481,
      "newsĠ": 6482,
      "};ĊĊ": 6483,
      "BestĠ": 6484,
      ",ĊĠĠĠĠĠĠĠĠ": 6485,
      "entr": 6486,
      "</td": 6487,
      "BecauseĠ": 6488,
      "drink": 6489,
      "SouthĠ": 6490,
      "component": 6491,
      "inner": 6492,
      ")ĊĠĠĠĠĠĠĠĠĠĠĠĠ": 6493,
      "_1": 6494,
      "beginningĠ": 6495,
      "Message": 6496,
      "abĠ": 6497,
      "fromĠmyĠ": 6498,
      "plot": 6499,
      "rule": 6500,
      "uniqueĠ": 6501,
      "DataĠ": 6502,
      "suit": 6503,
      "weap": 6504,
      "future": 6505,
      "idesĠ": 6506,
      "programm": 6507,
      "alcul": 6508,
      "solveĠ": 6509,
      "aitĠ": 6510,
      "Eng": 6511,
      "regularĠ": 6512,
      "TL": 6513,
      "tool": 6514,
      "replacementĠ": 6515,
      ".ĠIĠamĠ": 6516,
      "Ġtimes": 6517,
      "sv": 6518,
      "physicalĠ": 6519,
      "pre-": 6520,
      "utor": 6521,
      "MLĠ": 6522,
      "soĠmanyĠ": 6523,
      "ĠtextĠ": 6524,
      "cook": 6525,
      "highestĠ": 6526,
      "ALĠ": 6527,
      "intĠofĠ": 6528,
      "Ã¡": 6529,
      "Right": 6530,
      "abov": 6531,
      "atĠleast": 6532,
      "piteĠ": 6533,
      "easier": 6534,
      "noĠlongerĠ": 6535,
      "}$": 6536,
      "quarter": 6537,
      "predict": 6538,
      "âĶ": 6539,
      "whenĠtheyĠ": 6540,
      "Copy": 6541,
      "out,Ġ": 6542,
      "one-": 6543,
      "isĠalsoĠ": 6544,
      "atingĠtheĠ": 6545,
      "cheap": 6546,
      "statementĠ": 6547,
      "âĻ": 6548,
      "regular": 6549,
      "fit": 6550,
      "emptyĠ": 6551,
      "OSĠ": 6552,
      "title": 6553,
      "awareĠ": 6554,
      "framework": 6555,
      "ityĊ": 6556,
      "ediaĠ": 6557,
      "#includeĠ<": 6558,
      "orĠaĠ": 6559,
      "DidĠ": 6560,
      "playedĠ": 6561,
      "downĠtoĠ": 6562,
      "Cour": 6563,
      "android:layout_": 6564,
      "upgrad": 6565,
      "OurĠ": 6566,
      "releasedĠ": 6567,
      ".âĢĿ": 6568,
      "possibil": 6569,
      "kick": 6570,
      "hidd": 6571,
      "IĠdon'tĠknowĠ": 6572,
      "sĠto": 6573,
      "usĠtoĠ": 6574,
      "čĊĠĠĠĠĠĠĠĠĠĠĠĠ": 6575,
      "Gen": 6576,
      "gottenĠ": 6577,
      "mount": 6578,
      "appar": 6579,
      "=Ġs": 6580,
      "300": 6581,
      "inde": 6582,
      "KE": 6583,
      "sole.": 6584,
      "âĢ¢Ġ": 6585,
      "contact": 6586,
      "allowsĠ": 6587,
      "unn": 6588,
      "rank": 6589,
      "ĠmonthsĠ": 6590,
      "usefulĠ": 6591,
      "definedĠ": 6592,
      "Prof": 6593,
      "likelyĠtoĠ": 6594,
      "interfaceĠ": 6595,
      ".ĠĠĠĠĠĠĠĠĠĠ": 6596,
      "inyĠ": 6597,
      "PA": 6598,
      "DavidĠ": 6599,
      "ĊĊĠĠĠĠĠĠĠĠ": 6600,
      "ior": 6601,
      "statusĠ": 6602,
      "FromĠ": 6603,
      "wast": 6604,
      "copy": 6605,
      "maĠ": 6606,
      "haveĠth": 6607,
      "Exec": 6608,
      "isingĠ": 6609,
      "again,Ġ": 6610,
      "setting": 6611,
      "Option": 6612,
      "**Ċ>Ġ": 6613,
      "journ": 6614,
      "awayĠfromĠ": 6615,
      "pm": 6616,
      "ed.ĠĠ": 6617,
      "kin": 6618,
      "value=\"": 6619,
      ">ĊĠĠĠĠĠĠĠĠĠĠĠĠ<": 6620,
      "achiev": 6621,
      "slightlyĠ": 6622,
      "omb": 6623,
      "eakĠ": 6624,
      "paperĠ": 6625,
      "labor": 6626,
      "buffer": 6627,
      "earn": 6628,
      "oftware": 6629,
      "nothing": 6630,
      ",\"ĠheĠ": 6631,
      "knowĠthatĠ": 6632,
      "sĠwillĠ": 6633,
      "Ġmillion": 6634,
      "ively": 6635,
      "_M": 6636,
      "we'llĠ": 6637,
      ":ĠĠ": 6638,
      "development": 6639,
      "ĠtermĠ": 6640,
      ".ĠSt": 6641,
      "countĠ": 6642,
      "Ur": 6643,
      "Lou": 6644,
      "wareĠ": 6645,
      "emplateĠ": 6646,
      "iĠwasĠ": 6647,
      "bum": 6648,
      "ainĠtheĠ": 6649,
      "uel": 6650,
      "looksĠlikeĠ": 6651,
      "aug": 6652,
      "afra": 6653,
      "76": 6654,
      "ifeĠ": 6655,
      "er(": 6656,
      "storiesĠ": 6657,
      "icĠc": 6658,
      "blood": 6659,
      "TP": 6660,
      "engag": 6661,
      ".\"Ġ\"TheĠ": 6662,
      "com/": 6663,
      "ofĠcourseĠ": 6664,
      "IĠgetĠ": 6665,
      "Ġwhe": 6666,
      "TypeĠ": 6667,
      "ables": 6668,
      "exerc": 6669,
      "ustomĠ": 6670,
      "Amaz": 6671,
      "wrap": 6672,
      "andĠaĠ": 6673,
      "net/": 6674,
      "eventuallyĠ": 6675,
      "socialĠ": 6676,
      "fell": 6677,
      "sĠfor": 6678,
      "_c": 6679,
      "](http://": 6680,
      "showsĠ": 6681,
      "}ĠelseĠ": 6682,
      "name,Ġ": 6683,
      "ufact": 6684,
      "Democrat": 6685,
      "increasedĠ": 6686,
      "Ġsign": 6687,
      ",Ġtoo": 6688,
      "akenĠ": 6689,
      "softwareĠ": 6690,
      "committ": 6691,
      "quer": 6692,
      "forĠhisĠ": 6693,
      "EM": 6694,
      "rad": 6695,
      "spot": 6696,
      "filledĠ": 6697,
      "roadĠ": 6698,
      "dividedĠbyĠ": 6699,
      "yester": 6700,
      "olutionĠ": 6701,
      "coolĠ": 6702,
      "available": 6703,
      "Micros": 6704,
      "Found": 6705,
      "shallĠ": 6706,
      "Pos": 6707,
      "peopleĠareĠ": 6708,
      "kne": 6709,
      "roundĠ": 6710,
      "isionĠ": 6711,
      "legalĠ": 6712,
      "grav": 6713,
      "hostĠ": 6714,
      ".ĠIĠdon'tĠ": 6715,
      "ĠthatâĢĻsĠ": 6716,
      "eticĠ": 6717,
      "appreciated": 6718,
      "bear": 6719,
      "adjust": 6720,
      "edĠwith": 6721,
      "(c)Ġ": 6722,
      "ementsĠ": 6723,
      "occasion": 6724,
      "howĠmuchĠ": 6725,
      "using": 6726,
      "stret": 6727,
      "effectiveĠ": 6728,
      "damageĠ": 6729,
      "ricĠ": 6730,
      "sĠaboutĠ": 6731,
      "Ġsim": 6732,
      "ashing": 6733,
      "isĠveryĠ": 6734,
      "ATION": 6735,
      "ÃŃ": 6736,
      "OL": 6737,
      "40Ġ": 6738,
      "untilĠtheĠ": 6739,
      "waitingĠ": 6740,
      "ederalĠ": 6741,
      ",ĠbutĠtheĠ": 6742,
      "norĠ": 6743,
      "NorthĠ": 6744,
      "Ġtarget": 6745,
      "youĠmightĠ": 6746,
      "went": 6747,
      "-basedĠ": 6748,
      "seemedĠ": 6749,
      "notĠaĠ": 6750,
      "emat": 6751,
      "c.": 6752,
      "eĠthis": 6753,
      "ednes": 6754,
      "s.ĠâĢľ": 6755,
      "ĠwayĠ": 6756,
      "uponĠ": 6757,
      "needsĠ": 6758,
      "Input": 6759,
      "unkĠ": 6760,
      ";ĠandĠ": 6761,
      "ĠĠĠĠĠĠĠĠĠĠĠĠĠĠĠĠĠĠĠĠ": 6762,
      "xim": 6763,
      "seriousĠ": 6764,
      "figureĠoutĠ": 6765,
      "ty": 6766,
      "costĠ": 6767,
      "Ġcre": 6768,
      ";čĊĠĠ": 6769,
      "roĠ": 6770,
      "secret": 6771,
      "wantedĠ": 6772,
      "serveĠ": 6773,
      "enameĠ": 6774,
      "s;Ġ": 6775,
      "ribleĠ": 6776,
      "FigureĠ": 6777,
      "ĠmustĠ": 6778,
      "spendĠ": 6779,
      "Hey,Ġ": 6780,
      "hellĠ": 6781,
      ".ĊIĠ": 6782,
      "sĠinĠaĠ": 6783,
      "dp": 6784,
      "perspect": 6785,
      "gotĠtoĠ": 6786,
      "caughtĠ": 6787,
      "pictureĠ": 6788,
      "high-": 6789,
      "ed-": 6790,
      "Handl": 6791,
      "asticĠ": 6792,
      "sĠof": 6793,
      "prevent": 6794,
      "ounter": 6795,
      "IâĢĻm": 6796,
      "</span": 6797,
      "eyeĠ": 6798,
      "desk": 6799,
      "Ġsit": 6800,
      "Cap": 6801,
      "dimension": 6802,
      "(f": 6803,
      "ĠthereĠisĠaĠ": 6804,
      "chos": 6805,
      "itherĠ": 6806,
      "interview": 6807,
      "suffer": 6808,
      "gradeĠ": 6809,
      "scient": 6810,
      "seemĠ": 6811,
      "ubĠ": 6812,
      "subscri": 6813,
      "succ": 6814,
      "floor": 6815,
      ",ĠT": 6816,
      ".ĠIĠthinkĠ": 6817,
      "buck": 6818,
      "yâĢĻsĠ": 6819,
      "sĠbutĠ": 6820,
      "ationĠ(": 6821,
      "USA": 6822,
      "hoodĠ": 6823,
      ".ĠAllĠ": 6824,
      "pickedĠ": 6825,
      "sĠon": 6826,
      "lookingĠforĠ": 6827,
      "ingĠyourĠ": 6828,
      "hourĠ": 6829,
      "nod": 6830,
      "overallĠ": 6831,
      "0)": 6832,
      "domain": 6833,
      ",\"Ġ\"": 6834,
      "barĠ": 6835,
      "risk": 6836,
      "ĠtakeĠtheĠ": 6837,
      "necessaryĠ": 6838,
      "carĠ": 6839,
      "ĊM": 6840,
      "however": 6841,
      "rain": 6842,
      "you'dĠ": 6843,
      "instead": 6844,
      "ing.ĊĊ": 6845,
      "x_": 6846,
      "Bi": 6847,
      "3)": 6848,
      "=>": 6849,
      "namesp": 6850,
      "armĠ": 6851,
      "greenĠ": 6852,
      "literallyĠ": 6853,
      "properĠ": 6854,
      "explo": 6855,
      ")Ċ{ĊĠĠĠĠ": 6856,
      "1ĠandĠ": 6857,
      "ories": 6858,
      "00000000": 6859,
      "Property": 6860,
      "ENĠ": 6861,
      "significantĠ": 6862,
      "infoĠ": 6863,
      "coreĠ": 6864,
      "ba": 6865,
      "aĠlot": 6866,
      "stoppedĠ": 6867,
      "aĠcol": 6868,
      "versionĠofĠ": 6869,
      "lookingĠatĠ": 6870,
      "Ġï": 6871,
      "signedĠ": 6872,
      "guar": 6873,
      "years,Ġ": 6874,
      "le-": 6875,
      "Chap": 6876,
      "changedĠ": 6877,
      "leadĠ": 6878,
      "ariesĠ": 6879,
      "satĠ": 6880,
      "naturalĠ": 6881,
      "kidsĠ": 6882,
      "logg": 6883,
      "yell": 6884,
      "TS": 6885,
      "amazingĠ": 6886,
      "well-": 6887,
      "wonderĠ": 6888,
      ",ĠD": 6889,
      "Ġmethod": 6890,
      "2010": 6891,
      "age.Ġ": 6892,
      "ersĠtoĠ": 6893,
      "BE": 6894,
      "notĠsureĠ": 6895,
      "reflect": 6896,
      ".\"Ġ\"You": 6897,
      "tot": 6898,
      "(orĠ": 6899,
      "s[": 6900,
      "Rich": 6901,
      "ational": 6902,
      "List<": 6903,
      "{Ċĉĉ": 6904,
      "backgroundĠ": 6905,
      "Base": 6906,
      "ĠÃ": 6907,
      "Tues": 6908,
      "needsĠtoĠ": 6909,
      "Isra": 6910,
      "poorĠ": 6911,
      "sevenĠ": 6912,
      "emailĠ": 6913,
      "wood": 6914,
      "stres": 6915,
      "vill": 6916,
      "beĊ": 6917,
      "WhenĠIĠ": 6918,
      "UG": 6919,
      "[1]": 6920,
      "Jes": 6921,
      "recover": 6922,
      "dontĠ": 6923,
      "itĠhasĠ": 6924,
      "readyĠtoĠ": 6925,
      "ee": 6926,
      "er_": 6927,
      "clientĠ": 6928,
      "Call": 6929,
      "onlyĠoneĠ": 6930,
      "pressureĠ": 6931,
      ",Ġit'sĠ": 6932,
      "sitĠ": 6933,
      "catch": 6934,
      "global": 6935,
      "globalĠ": 6936,
      "plent": 6937,
      "counter": 6938,
      "startingĠ": 6939,
      "igg": 6940,
      "stoodĠ": 6941,
      "icul": 6942,
      "ĊĠĠĠĠĠĠ\"": 6943,
      "ĠtrulyĠ": 6944,
      "dĠtheĠ": 6945,
      "Ġthere,Ġ": 6946,
      "ouchĠ": 6947,
      "ĠtoĠtellĠ": 6948,
      "strength": 6949,
      "castĠ": 6950,
      "However": 6951,
      "edĠatĠtheĠ": 6952,
      "neededĠtoĠ": 6953,
      ",000": 6954,
      "ĠĠ<": 6955,
      "ample": 6956,
      "mir": 6957,
      "eĠinĠ": 6958,
      "8,Ġ": 6959,
      "ously": 6960,
      "Application": 6961,
      "Art": 6962,
      "riv": 6963,
      "thĠofĠ": 6964,
      "I'mĠtryingĠtoĠ": 6965,
      "Look": 6966,
      "itĠwas": 6967,
      "ium": 6968,
      "standingĠ": 6969,
      "edĠt": 6970,
      "aĠwayĠtoĠ": 6971,
      "practiceĠ": 6972,
      "y.Ġ": 6973,
      "IĠdon'tĠknow": 6974,
      "iles": 6975,
      "menu": 6976,
      ".\"Ġ\"It'sĠ": 6977,
      "grap": 6978,
      "ailedĠ": 6979,
      "ĠthusĠ": 6980,
      "ially": 6981,
      "out.": 6982,
      "2011": 6983,
      "});ĊĊ": 6984,
      "3)Ġ": 6985,
      "17Ġ": 6986,
      "Ġthread": 6987,
      "heĠhasĠ": 6988,
      "Thurs": 6989,
      "mas": 6990,
      "Pow": 6991,
      "forĠallĠ": 6992,
      "nerv": 6993,
      "mode": 6994,
      "setĠtheĠ": 6995,
      "Check": 6996,
      "broad": 6997,
      "ations,Ġ": 6998,
      "frameĠ": 6999,
      "formul": 7000,
      "aĠcr": 7001,
      "charĠ": 7002,
      "Inte": 7003,
      "readyĠ": 7004,
      "bledĠ": 7005,
      "mac": 7006,
      "s:ĊĊ": 7007,
      "\"TheĠ": 7008,
      "patientĠ": 7009,
      "fle": 7010,
      "Query": 7011,
      "operator": 7012,
      "entionĠ": 7013,
      "environmentĠ": 7014,
      "42": 7015,
      "yĠt": 7016,
      "whatĠhappen": 7017,
      "SQLĠ": 7018,
      "password": 7019,
      "beĠth": 7020,
      "chooseĠ": 7021,
      "6/": 7022,
      "sĠbyĠ": 7023,
      "get_": 7024,
      ":ĠTheĠ": 7025,
      "familiar": 7026,
      "lookĠatĠtheĠ": 7027,
      "induc": 7028,
      "ine,Ġ": 7029,
      "x,Ġ": 7030,
      "Sty": 7031,
      "BS": 7032,
      "inĠterm": 7033,
      "ss": 7034,
      "affor": 7035,
      "-12": 7036,
      "rootĠ": 7037,
      "victim": 7038,
      "nuc": 7039,
      ">>": 7040,
      "library": 7041,
      ".ĠHeĠwasĠ": 7042,
      "aĠsimpleĠ": 7043,
      "politic": 7044,
      "Create": 7045,
      "Gl": 7046,
      "etĠal.Ġ": 7047,
      ":Ġ0": 7048,
      "studentĠ": 7049,
      "courseĠ": 7050,
      "visit": 7051,
      "hash": 7052,
      "_tĠ": 7053,
      "Sal": 7054,
      "election": 7055,
      "Thread": 7056,
      "Default": 7057,
      "edĠfromĠtheĠ": 7058,
      "areasĠ": 7059,
      "stro": 7060,
      "and/": 7061,
      "sittingĠ": 7062,
      "solv": 7063,
      "static": 7064,
      "padd": 7065,
      "one'sĠ": 7066,
      "eventsĠ": 7067,
      "float": 7068,
      "Alex": 7069,
      "anx": 7070,
      "seg": 7071,
      "Bas": 7072,
      "organiz": 7073,
      "inĠM": 7074,
      "sigh": 7075,
      "resp": 7076,
      "Frame": 7077,
      "$this->": 7078,
      "}ĊĊĠĠĠĠĠĠĠĠ": 7079,
      "inessĠ": 7080,
      "utter": 7081,
      "md": 7082,
      "WeĠareĠ": 7083,
      "ifor": 7084,
      "2Ġ+Ġ": 7085,
      "belong": 7086,
      "adviceĠ": 7087,
      "ary,Ġ": 7088,
      "GO": 7089,
      "erveĠ": 7090,
      "sheet": 7091,
      "FL": 7092,
      "pression": 7093,
      "sayĠthatĠ": 7094,
      "thes": 7095,
      "6*": 7096,
      "e,ĠtheĠ": 7097,
      ",ĠL": 7098,
      "ĠtoĠhisĠ": 7099,
      "NewĠYorkĠ": 7100,
      "standard": 7101,
      "mes": 7102,
      "Austral": 7103,
      "presidentĠ": 7104,
      "Willi": 7105,
      "-to-": 7106,
      "being": 7107,
      "branch": 7108,
      "85": 7109,
      "Satur": 7110,
      "strugg": 7111,
      "seemsĠtoĠbeĠ": 7112,
      "mentalĠ": 7113,
      "share": 7114,
      "CHAP": 7115,
      "indexĠ": 7116,
      "AND": 7117,
      "iansĠ": 7118,
      "nectionĠ": 7119,
      "article": 7120,
      "\"]": 7121,
      "majorĠ": 7122,
      "sequenc": 7123,
      "individualĠ": 7124,
      "Stor": 7125,
      "nâĢĻt": 7126,
      "ogen": 7127,
      "colorĠ": 7128,
      "thonĠ": 7129,
      "HelloĠ": 7130,
      "ped": 7131,
      "Ġtend": 7132,
      "simple": 7133,
      "ised": 7134,
      "examin": 7135,
      "}Ċĉ": 7136,
      "'Ġ=>Ġ": 7137,
      "attackĠ": 7138,
      "oneĠt": 7139,
      "efullyĠ": 7140,
      "useĠaĠ": 7141,
      "solutionĠ": 7142,
      "faith": 7143,
      "lettersĠ": 7144,
      "createĠaĠ": 7145,
      "uit": 7146,
      "insur": 7147,
      "it's": 7148,
      "sĠtheyĠ": 7149,
      "paign": 7150,
      "driverĠ": 7151,
      "mostĠofĠtheĠ": 7152,
      "couldnâĢĻtĠ": 7153,
      "skill": 7154,
      "eâĢĻsĠ": 7155,
      "simpl": 7156,
      "onĠtheirĠ": 7157,
      ".ĠNotĠ": 7158,
      "-2*": 7159,
      "GP": 7160,
      "ANT": 7161,
      "########": 7162,
      "GeneralĠ": 7163,
      "havingĠaĠ": 7164,
      "Arg": 7165,
      "sequenceĠ": 7166,
      "areĠth": 7167,
      "notĠonlyĠ": 7168,
      "visionĠ": 7169,
      "sixĠ": 7170,
      "pip": 7171,
      "aidĠ": 7172,
      "several": 7173,
      "ĠsinceĠ": 7174,
      "iss": 7175,
      "rev": 7176,
      "pock": 7177,
      "nodd": 7178,
      "Port": 7179,
      "ĊĠĠĠĠĠĠĠĠĠĠĠĠĠĠĠĠĠĠĠĠĠĠĠĠĠĠĠĠĠĠĠĠ": 7180,
      "**(": 7181,
      "atĠallĠ": 7182,
      "Ent": 7183,
      "HarryĠ": 7184,
      "1Ġ+Ġ": 7185,
      "**3Ġ-Ġ": 7186,
      "GE": 7187,
      "Us": 7188,
      "=Ġ[": 7189,
      "rideĠ": 7190,
      "ationĠtoĠ": 7191,
      "Unfortun": 7192,
      "Ġservic": 7193,
      "aĠhugeĠ": 7194,
      "randomĠ": 7195,
      "closedĠ": 7196,
      "APIĠ": 7197,
      "Rang": 7198,
      "final": 7199,
      "github.com/": 7200,
      "betterĠthanĠ": 7201,
      "4,": 7202,
      "upload": 7203,
      ".\"Ġ\"AndĠ": 7204,
      "\":\"": 7205,
      "frustr": 7206,
      "ofĠtheĊ": 7207,
      "outĠtoĠ": 7208,
      "7/": 7209,
      "Source": 7210,
      "ofĠyourĠ": 7211,
      "TableĠ": 7212,
      "achieveĠ": 7213,
      "thernĠ": 7214,
      "ingĠmeĠ": 7215,
      "HerĠ": 7216,
      "();": 7217,
      "isĠstillĠ": 7218,
      "streamĠ": 7219,
      "rupt": 7220,
      "pun": 7221,
      "ĊthatĠ": 7222,
      "reachĠ": 7223,
      "function(": 7224,
      "maxim": 7225,
      "Ġmark": 7226,
      "lost": 7227,
      "m.": 7228,
      "wrapp": 7229,
      "SteveĠ": 7230,
      "Ġcall": 7231,
      "movingĠ": 7232,
      "Ġwe'reĠ": 7233,
      "Mus": 7234,
      "ij": 7235,
      "stock": 7236,
      "mineĠ": 7237,
      "exactĠ": 7238,
      "ln": 7239,
      "DI": 7240,
      "ERR": 7241,
      "propos": 7242,
      "dot": 7243,
      "stageĠ": 7244,
      "lease": 7245,
      "Ġmem": 7246,
      "referenceĠ": 7247,
      "saidĠtheĠ": 7248,
      "*)": 7249,
      "wayĠofĠ": 7250,
      "here.Ġ": 7251,
      "ube": 7252,
      "hurtĠ": 7253,
      "fromĠhisĠ": 7254,
      "Ġword": 7255,
      "fuckĠ": 7256,
      "frag": 7257,
      "yt": 7258,
      "erĊ": 7259,
      "advert": 7260,
      "assem": 7261,
      "ThankĠyou": 7262,
      "e)": 7263,
      "sellĠ": 7264,
      "ivil": 7265,
      "walkĠ": 7266,
      "BO": 7267,
      "Thom": 7268,
      "permission": 7269,
      "Ġì": 7270,
      "]\"Ġ\"": 7271,
      "roteĠ": 7272,
      "ellsĠ": 7273,
      "{\"": 7274,
      "ityĠofĠtheĠ": 7275,
      "buff": 7276,
      "ĊĠĠĠĠĠĠĠĠ\"": 7277,
      "increase": 7278,
      "basicĠ": 7279,
      "IsĠitĠ": 7280,
      "approachĠ": 7281,
      "End": 7282,
      "ĠtheĠotherĠ": 7283,
      ",Ġthat'sĠ": 7284,
      "isĠjustĠ": 7285,
      ".0": 7286,
      "Ital": 7287,
      "UP": 7288,
      "aĠman": 7289,
      "byĠaĠ": 7290,
      "Http": 7291,
      "Ġthreat": 7292,
      "lotĠofĠ": 7293,
      ",ĠjustĠ": 7294,
      "raisedĠ": 7295,
      "lastĠyear": 7296,
      "ExceptionĠ": 7297,
      "ue,Ġ": 7298,
      "consideredĠ": 7299,
      "Ġtele": 7300,
      "sock": 7301,
      "godĠ": 7302,
      "establish": 7303,
      "explainĠ": 7304,
      "ĠthatĊ": 7305,
      "crimin": 7306,
      "fortĠ": 7307,
      "allĠrightĠ": 7308,
      "Wednes": 7309,
      "IĠdidĠ": 7310,
      "fli": 7311,
      "flowĠ": 7312,
      "enh": 7313,
      "AnotherĠ": 7314,
      "eĠtrans": 7315,
      ",ĠâĢľ": 7316,
      "ateĠandĠ": 7317,
      ":ĠĠĠĠĠĠĠĠ": 7318,
      "ungĠ": 7319,
      "ubeĠ": 7320,
      "s.ĠThisĠ": 7321,
      "(r": 7322,
      "al-": 7323,
      "s.ĠS": 7324,
      "nect": 7325,
      "cele": 7326,
      "ï¼": 7327,
      "anaĠ": 7328,
      "becomesĠ": 7329,
      "doub": 7330,
      "pac": 7331,
      "instit": 7332,
      "Click": 7333,
      "ridĠ": 7334,
      "Japan": 7335,
      "basedĠonĠtheĠ": 7336,
      "2.0": 7337,
      "propertiesĠ": 7338,
      "spok": 7339,
      "wav": 7340,
      "values": 7341,
      "prop": 7342,
      "ificationĠ": 7343,
      "\"Ġ+Ġ": 7344,
      "laĠ": 7345,
      "evenĠthoughĠ": 7346,
      "emb": 7347,
      "THĠ": 7348,
      "unchĠofĠ": 7349,
      "whether": 7350,
      "runn": 7351,
      "straight": 7352,
      "Point": 7353,
      "discussion": 7354,
      "year-oldĠ": 7355,
      "GR": 7356,
      "Medic": 7357,
      "umentsĠ": 7358,
      "webĠ": 7359,
      "often": 7360,
      "aĠfri": 7361,
      "vector": 7362,
      ">čĊ": 7363,
      "Max": 7364,
      "-th": 7365,
      "itĠforĠ": 7366,
      "There": 7367,
      "Mart": 7368,
      "eĊĊ": 7369,
      "Let'sĠ": 7370,
      "lieĠ": 7371,
      "ptr": 7372,
      "WillĠ": 7373,
      "eĠthrough": 7374,
      "Kar": 7375,
      "y_": 7376,
      "beginn": 7377,
      "..Ġ": 7378,
      "HE": 7379,
      "whis": 7380,
      "fan": 7381,
      "heĠt": 7382,
      "brainĠ": 7383,
      "esĠwithĠ": 7384,
      "immun": 7385,
      "2020": 7386,
      "jok": 7387,
      "Harr": 7388,
      "!\"Ġ\"Ġ": 7389,
      "ingĠup": 7390,
      "voteĠ": 7391,
      "Bre": 7392,
      "lackĠofĠ": 7393,
      "ent,Ġ": 7394,
      "ily": 7395,
      "iĠhaveĠ": 7396,
      "Washing": 7397,
      "resid": 7398,
      "said.Ċ": 7399,
      "clos": 7400,
      "anĊ": 7401,
      "Techn": 7402,
      "rich": 7403,
      "=Ġ-": 7404,
      "liber": 7405,
      "bath": 7406,
      "relationshipĠ": 7407,
      "peak": 7408,
      "canâĢĻtĠ": 7409,
      "membersĠ": 7410,
      "natureĠ": 7411,
      "astic": 7412,
      ".ĠYouĠcanĠ": 7413,
      "Jim": 7414,
      "herself": 7415,
      "picture": 7416,
      "sĠoutĠ": 7417,
      "intellig": 7418,
      "\\\"": 7419,
      "formatĠ": 7420,
      "Override": 7421,
      "ĠtheirĠc": 7422,
      "2019": 7423,
      "Ñĭ": 7424,
      "parameter": 7425,
      "ology": 7426,
      "ewhatĠ": 7427,
      "sĠfromĠtheĠ": 7428,
      "extension": 7429,
      "okĠ": 7430,
      "ðŁ": 7431,
      "python": 7432,
      "When": 7433,
      "gonn": 7434,
      "med": 7435,
      "\"Ġclass=\"": 7436,
      "beautiful": 7437,
      "bodi": 7438,
      "âĻª": 7439,
      "listĠofĠ": 7440,
      "patchĠ": 7441,
      "reposit": 7442,
      "folder": 7443,
      "hundred": 7444,
      "idi": 7445,
      "doĠthatĠ": 7446,
      "Ġcent": 7447,
      "Luc": 7448,
      "ed.ĠTheĠ": 7449,
      "ifyĠtheĠ": 7450,
      "disease": 7451,
      "onĠtoĠ": 7452,
      "comb": 7453,
      "Califor": 7454,
      "Attribut": 7455,
      "LikeĠ": 7456,
      "initial": 7457,
      "behavior": 7458,
      "atom": 7459,
      "gotĠaĠ": 7460,
      "TwoĠ": 7461,
      "isĠthisĠ": 7462,
      "NAĠ": 7463,
      "mort": 7464,
      "nodeĠ": 7465,
      "Column": 7466,
      "atĠtheĠsam": 7467,
      "butĠnotĠ": 7468,
      "itĠdoesn'tĠ": 7469,
      "hit": 7470,
      "blank": 7471,
      "lyĠtoĠ": 7472,
      "Ġwid": 7473,
      "s.ĊâĢľ": 7474,
      "amin": 7475,
      "becauseĠofĠtheĠ": 7476,
      "whenĠweĠ": 7477,
      "();ĊĊ": 7478,
      "withĠc": 7479,
      "valueĠofĠ": 7480,
      "(th": 7481,
      "stockĠ": 7482,
      "center": 7483,
      "=1": 7484,
      "o.": 7485,
      "sync": 7486,
      "hugeĠ": 7487,
      "sad": 7488,
      "Ċ\"": 7489,
      "(N": 7490,
      "ypt": 7491,
      "Sol": 7492,
      "activityĠ": 7493,
      "pointĠofĠ": 7494,
      "argumentĠ": 7495,
      "followĠ": 7496,
      "youĠjustĠ": 7497,
      "demand": 7498,
      "allĠthatĠ": 7499,
      "Ġteach": 7500,
      "i.e.Ġ": 7501,
      "HouseĠ": 7502,
      "87": 7503,
      "neighbor": 7504,
      "previouslyĠ": 7505,
      "farm": 7506,
      "remeĠ": 7507,
      "sport": 7508,
      "**2": 7509,
      "distinc": 7510,
      "ql": 7511,
      "her,Ġ": 7512,
      "):Ġ": 7513,
      "kitch": 7514,
      "(),Ġ": 7515,
      "addressĠ": 7516,
      "ĠtheirĠs": 7517,
      "wonderingĠ": 7518,
      "hes": 7519,
      "earth": 7520,
      "nationalĠ": 7521,
      "enable": 7522,
      "43": 7523,
      "ThankĠyouĠ": 7524,
      "publicĠclassĠ": 7525,
      "othĠ": 7526,
      "}ĊĠĠĠĠĠĠĠĠĠĠĠĠ": 7527,
      "equival": 7528,
      "Ben": 7529,
      "edlyĠ": 7530,
      "Av": 7531,
      "pieceĠofĠ": 7532,
      "poly": 7533,
      "mult": 7534,
      "isc": 7535,
      "Ġcan'tĠ": 7536,
      "amount": 7537,
      "agedĠ": 7538,
      ".ĠJustĠ": 7539,
      "jack": 7540,
      "actually": 7541,
      "websit": 7542,
      "ustri": 7543,
      "English": 7544,
      ".ĠHowever": 7545,
      "alongĠtheĠ": 7546,
      "inĠL": 7547,
      "Ry": 7548,
      "JamesĠ": 7549,
      "\"></": 7550,
      "hip": 7551,
      "TA": 7552,
      "S_": 7553,
      "[]Ġ": 7554,
      "0*": 7555,
      "beatĠ": 7556,
      ")\"Ġ\"": 7557,
      "phil": 7558,
      "explan": 7559,
      "EDIT": 7560,
      "personal": 7561,
      "production": 7562,
      "-f": 7563,
      "inĠsomeĠ": 7564,
      "ofĠthis": 7565,
      "worryĠ": 7566,
      "aĠ\"": 7567,
      "auto": 7568,
      "explic": 7569,
      "musicĠ": 7570,
      "ATE": 7571,
      "eightĠ": 7572,
      "Ġtravel": 7573,
      "wasĠnotĠ": 7574,
      "typeĠ": 7575,
      "Ġtechniqu": 7576,
      "whichĠareĠ": 7577,
      "closeĠtoĠ": 7578,
      "[&nbsp;": 7579,
      "ThisĠisĠaĠ": 7580,
      "edĠhimĠ": 7581,
      "instanceĠ": 7582,
      "__&nbsp;": 7583,
      "[&nbsp;__&nbsp;": 7584,
      "Server": 7585,
      "stĠtoĠ": 7586,
      "5,": 7587,
      "EvenĠ": 7588,
      ".add": 7589,
      "itionĠofĠ": 7590,
      "Okay": 7591,
      "shr": 7592,
      "appropriateĠ": 7593,
      "comfortableĠ": 7594,
      "inher": 7595,
      "(1": 7596,
      "SC": 7597,
      "Ho": 7598,
      ".php": 7599,
      "inĠC": 7600,
      "bornĠ": 7601,
      "ility": 7602,
      "Step": 7603,
      "positeĠ": 7604,
      "similarĠ": 7605,
      "shit": 7606,
      "daughterĠ": 7607,
      "GB": 7608,
      "Down": 7609,
      ")ĊĠĠ": 7610,
      "coffe": 7611,
      "ia,Ġ": 7612,
      "UB": 7613,
      "dailyĠ": 7614,
      "knowĠtheĠ": 7615,
      "Ext": 7616,
      "Ã§": 7617,
      "ance.Ġ": 7618,
      "inĠourĠ": 7619,
      "Control": 7620,
      ",ĠforĠ": 7621,
      "MostĠ": 7622,
      "oneĠisĠ": 7623,
      "Defin": 7624,
      "MarchĠ": 7625,
      "p_": 7626,
      "history": 7627,
      "aboutĠitĠ": 7628,
      ".ĠĠĠĠĠĠĠĠIĠ": 7629,
      "myst": 7630,
      "1000": 7631,
      "studiesĠ": 7632,
      "clim": 7633,
      "remainderĠ": 7634,
      "butĠtheyĠ": 7635,
      "edĠby": 7636,
      "economicĠ": 7637,
      "youĠthink": 7638,
      "dre": 7639,
      "aiĠ": 7640,
      "ÑģÑĤ": 7641,
      "dueĠtoĠtheĠ": 7642,
      "cons": 7643,
      "Octob": 7644,
      "(P": 7645,
      "impactĠ": 7646,
      "plugin": 7647,
      "OhĠ": 7648,
      "@Override": 7649,
      "(m": 7650,
      ">ĊĠĠĠĠ</": 7651,
      "employe": 7652,
      "STR": 7653,
      "After": 7654,
      "cer": 7655,
      "zeroĠ": 7656,
      "es.ĠĠ": 7657,
      ".ĊĠĠ": 7658,
      "ookingĠ": 7659,
      "remind": 7660,
      "ission": 7661,
      ".ĠSomeĠ": 7662,
      "4Ġ+Ġ": 7663,
      "uration": 7664,
      "ĊF": 7665,
      "slowlyĠ": 7666,
      ";ĠtheĠ": 7667,
      "ellingĠ": 7668,
      "âĢ¬": 7669,
      "sense": 7670,
      "generatedĠ": 7671,
      "%ĠofĠ": 7672,
      "EnglishĠ": 7673,
      "vac": 7674,
      "1Ġ-Ġ": 7675,
      "IĠshouldĠ": 7676,
      "morning": 7677,
      "9,Ġ": 7678,
      "aldĠ": 7679,
      "*/ĊĠĠĠĠ": 7680,
      "erĠofĠtheĠ": 7681,
      "yĠofĠtheĠ": 7682,
      "entalĠ": 7683,
      "mass": 7684,
      "complic": 7685,
      "rum": 7686,
      "igger": 7687,
      "','": 7688,
      "96": 7689,
      "leep": 7690,
      "ĊR": 7691,
      "camp": 7692,
      "EV": 7693,
      "woodĠ": 7694,
      "starĠ": 7695,
      "entĠandĠ": 7696,
      "decad": 7697,
      "ing/": 7698,
      "appreciateĠ": 7699,
      "Ġtherap": 7700,
      "untu": 7701,
      "navig": 7702,
      "crow": 7703,
      "Sy": 7704,
      "je": 7705,
      "celebr": 7706,
      "surviv": 7707,
      "usionĠ": 7708,
      "IĠwas": 7709,
      "nil": 7710,
      "computerĠ": 7711,
      "includesĠ": 7712,
      "angr": 7713,
      "eĠthat'sĠ": 7714,
      "brotherĠ": 7715,
      "addingĠ": 7716,
      "4-": 7717,
      ".ĠI'm": 7718,
      "à¤": 7719,
      ",ĠwhichĠisĠ": 7720,
      "ationsĠofĠ": 7721,
      "age.": 7722,
      "gradu": 7723,
      "ĠtheirĠm": 7724,
      "Tod": 7725,
      "stant": 7726,
      "I'dĠlikeĠtoĠ": 7727,
      "isĠmyĠ": 7728,
      "life": 7729,
      "Number": 7730,
      "Ġwant": 7731,
      "sĠyouĠ": 7732,
      "consc": 7733,
      ",ĠifĠ": 7734,
      "otherwiseĠ": 7735,
      "Client": 7736,
      "panel": 7737,
      "initialĠ": 7738,
      "SELECTĠ": 7739,
      "knowledg": 7740,
      "holder": 7741,
      "whileĠtheĠ": 7742,
      "Sur": 7743,
      "ing.ĠĠ": 7744,
      "fullĠofĠ": 7745,
      ",ĠP": 7746,
      "flex": 7747,
      "aĠcertainĠ": 7748,
      "Tri": 7749,
      "sĠ-Ġ": 7750,
      "LL": 7751,
      "hid": 7752,
      "inch": 7753,
      "role": 7754,
      "inĠtheĠfirstĠ": 7755,
      "ses,Ġ": 7756,
      "Ð´": 7757,
      ",ĠthisĠisĠ": 7758,
      "97": 7759,
      "IPĠ": 7760,
      "ĠtableĠ": 7761,
      "armsĠ": 7762,
      "Oper": 7763,
      "_name": 7764,
      "remainĠ": 7765,
      "I'mĠgoingĠtoĠ": 7766,
      "authentic": 7767,
      "mel": 7768,
      "willingĠtoĠ": 7769,
      "Ġserver": 7770,
      "HTML": 7771,
      "âĢ«": 7772,
      "FileĠ": 7773,
      ".g": 7774,
      "aĠmod": 7775,
      "causedĠ": 7776,
      "forĠanyĠ": 7777,
      "JuneĠ": 7778,
      "worri": 7779,
      "directoryĠ": 7780,
      "ledĠtoĠ": 7781,
      "Ġwell": 7782,
      "javas": 7783,
      "structure": 7784,
      "SA": 7785,
      "ĠschoolĠ": 7786,
      "intoĠhisĠ": 7787,
      "Ċ//Ġ": 7788,
      "stom": 7789,
      "whatĠtheyĠ": 7790,
      "Activity": 7791,
      "FO": 7792,
      ".ĠĠĠĠĠĠĠĠĠĠĠĠ": 7793,
      ":\\": 7794,
      "react": 7795,
      "paramĠ": 7796,
      "micro": 7797,
      "supposedĠtoĠ": 7798,
      "^^": 7799,
      "ĠturnedĠ": 7800,
      "continueĠtoĠ": 7801,
      "impl": 7802,
      ")$": 7803,
      "beat": 7804,
      "yĠinĠ": 7805,
      "andĠtheirĠ": 7806,
      "smok": 7807,
      "Jer": 7808,
      "hook": 7809,
      "Java": 7810,
      "ĠwhichĠisĠ": 7811,
      "reshĠ": 7812,
      "ĊĊIĠhaveĠ": 7813,
      "CK": 7814,
      ",Ġetc": 7815,
      "seeĠthatĠ": 7816,
      "Nav": 7817,
      "ĊCalcul": 7818,
      "enĠtoĠ": 7819,
      "2Ġ-Ġ": 7820,
      "interfac": 7821,
      "III": 7822,
      "rorĠ": 7823,
      "animal": 7824,
      "package": 7825,
      "sĠthereĠ": 7826,
      "didn't": 7827,
      "initi": 7828,
      "SeeĠ": 7829,
      "measure": 7830,
      "cou": 7831,
      "related": 7832,
      "API": 7833,
      "right,Ġ": 7834,
      "!ĠIĠ": 7835,
      "wallĠ": 7836,
      "edgeĠ": 7837,
      "itionalĠ": 7838,
      "catchĠ": 7839,
      "udd": 7840,
      "needĠtoĠbeĠ": 7841,
      "Mal": 7842,
      "desc": 7843,
      "(a)Ġ": 7844,
      "ĠthankĠyouĠ": 7845,
      "fromĠm": 7846,
      "users": 7847,
      "CHAPTERĠ": 7848,
      "it.ĠĠ": 7849,
      "cheek": 7850,
      "reaction": 7851,
      "isĠthatĠtheĠ": 7852,
      "greatestĠ": 7853,
      "WellĠ": 7854,
      ":ĊĠĠĠĠĠĠĠĠ": 7855,
      ".\"Ġ\"WhatĠ": 7856,
      "ately,Ġ": 7857,
      "stair": 7858,
      "icket": 7859,
      "400": 7860,
      "NAM": 7861,
      "EE": 7862,
      "||": 7863,
      "aticĠ": 7864,
      "UniversityĠ": 7865,
      "groupĠofĠ": 7866,
      "player": 7867,
      "phpĠ": 7868,
      "meĠthatĠ": 7869,
      "distanceĠ": 7870,
      "ĠtakeĠaĠ": 7871,
      "-r": 7872,
      "despiteĠ": 7873,
      "s!": 7874,
      "onlyĠtheĠ": 7875,
      "master": 7876,
      "correspond": 7877,
      "able,Ġ": 7878,
      "tionĠofĠtheĠ": 7879,
      "learĠ": 7880,
      "LEĠ": 7881,
      "chargeĠ": 7882,
      "awk": 7883,
      "matchĠ": 7884,
      "Fol": 7885,
      "perfectlyĠ": 7886,
      "analyz": 7887,
      "knowledgeĠ": 7888,
      "forĊ": 7889,
      "brother": 7890,
      "business": 7891,
      "aintĠ": 7892,
      "(\\": 7893,
      "hisĠt": 7894,
      "whol": 7895,
      "FROMĠ": 7896,
      "convert": 7897,
      ");Ċĉĉ": 7898,
      "Ru": 7899,
      "ĠthemselvesĠ": 7900,
      "phen": 7901,
      "barelyĠ": 7902,
      "settingĠ": 7903,
      "weĠwereĠ": 7904,
      "||Ġ": 7905,
      "()ĊĠĠĠĠ": 7906,
      "iumĠ": 7907,
      "coldĠ": 7908,
      "SER": 7909,
      "startedĠtoĠ": 7910,
      "earsĠ": 7911,
      "isonĠ": 7912,
      "alpha": 7913,
      "ART": 7914,
      "isĠandĠ": 7915,
      "itect": 7916,
      "putĠtheĠ": 7917,
      "e.\"Ġ\"Ġ": 7918,
      "ĠtimeĠandĠ": 7919,
      "double": 7920,
      "destroy": 7921,
      "appearĠ": 7922,
      "esĠtoĠtheĠ": 7923,
      "growthĠ": 7924,
      "Inv": 7925,
      "aĠbadĠ": 7926,
      "id,Ġ": 7927,
      "Ã£": 7928,
      ">ĊĠĠĠĠĠĠ<": 7929,
      "aĠcop": 7930,
      "iddle": 7931,
      "on'tĠ": 7932,
      "difficultĠ": 7933,
      "growingĠ": 7934,
      "inĠtheĠsameĠ": 7935,
      "reserv": 7936,
      "ft": 7937,
      "candid": 7938,
      "edĠanĠ": 7939,
      "gasĠ": 7940,
      "it.ĊĊ": 7941,
      "freed": 7942,
      "pressedĠ": 7943,
      "aulĠ": 7944,
      ".ĠY": 7945,
      "quiet": 7946,
      "Ġthro": 7947,
      "ThisĠisĠtheĠ": 7948,
      "(b)Ġ": 7949,
      "Ġtook": 7950,
      "expand": 7951,
      "cept": 7952,
      "UD": 7953,
      "doĠthat": 7954,
      "mapĠ": 7955,
      "Init": 7956,
      "policyĠ": 7957,
      "boolĠ": 7958,
      "sĠwhoĠ": 7959,
      "Ref": 7960,
      "dram": 7961,
      "useful": 7962,
      "Sept": 7963,
      "TimeĠ": 7964,
      "(A": 7965,
      "ĊĊIĠ": 7966,
      "raĠ": 7967,
      "confl": 7968,
      "Arch": 7969,
      "street": 7970,
      "ĊC": 7971,
      "Command": 7972,
      "mos": 7973,
      "quart": 7974,
      "boost": 7975,
      "husbandĠ": 7976,
      "ÐµÐ½": 7977,
      "thingĠthatĠ": 7978,
      "guil": 7979,
      "aboutĠaĠ": 7980,
      "ing:Ġ": 7981,
      "edĠinĠaĠ": 7982,
      "sĠofĠaĠ": 7983,
      "'llĠbeĠ": 7984,
      "differenc": 7985,
      "Buil": 7986,
      "produceĠ": 7987,
      "Appl": 7988,
      "identifi": 7989,
      "Ġwill": 7990,
      ".ĊĠĠĠĠ": 7991,
      "lt": 7992,
      ",ĊĠĠĠĠĠĠĠĠĠĠĠĠ": 7993,
      "isol": 7994,
      "sĠthatĠtheĠ": 7995,
      "automaticallyĠ": 7996,
      "ĠĠĠĠĠĠĠĠĠĠĠĠĠ": 7997,
      "ÑĮ": 7998,
      "bill": 7999,
      "seat": 8000,
      "equip": 8001,
      "Filter": 8002,
      "life.Ġ": 8003,
      "excellentĠ": 8004,
      "relevantĠ": 8005,
      "ĠtrustĠ": 8006,
      "sĠmeĠ": 8007,
      "\",ĊĠĠĠĠ\"": 8008,
      "Pack": 8009,
      "makeĠsureĠ": 8010,
      "Fire": 8011,
      "âī": 8012,
      "ateĠtoĠ": 8013,
      "angleĠ": 8014,
      "efulĠ": 8015,
      "en-": 8016,
      "Listener": 8017,
      "uct": 8018,
      "country": 8019,
      "Secon": 8020,
      "apolog": 8021,
      "lib/": 8022,
      "brand": 8023,
      "WeĠhaveĠ": 8024,
      "potential": 8025,
      "lower": 8026,
      "soĠfar": 8027,
      "Div": 8028,
      "IdĠ": 8029,
      "fingersĠ": 8030,
      "bĠofĠ": 8031,
      "Red": 8032,
      "Ill": 8033,
      "actingĠ": 8034,
      "margin": 8035,
      "mitĠ": 8036,
      "features": 8037,
      "compat": 8038,
      "orĊ": 8039,
      "ChineseĠ": 8040,
      "recip": 8041,
      "uccess": 8042,
      "inĠ19": 8043,
      "leader": 8044,
      "orn": 8045,
      "unableĠtoĠ": 8046,
      "park": 8047,
      "sĠinĠadv": 8048,
      "e,ĠIĠ": 8049,
      "heĠwouldĠ": 8050,
      "clust": 8051,
      "aus": 8052,
      ".ĠHerĠ": 8053,
      "Ġtom": 8054,
      "MB": 8055,
      "asĠlongĠ": 8056,
      "`Ġ": 8057,
      "](https://": 8058,
      "powerfulĠ": 8059,
      "chair": 8060,
      "guarant": 8061,
      "forĠtheirĠ": 8062,
      "gold": 8063,
      "aboutĠtoĠ": 8064,
      "yaĠ": 8065,
      "uggl": 8066,
      "heatĠ": 8067,
      ">(": 8068,
      "Franc": 8069,
      "s.ĊTheĠ": 8070,
      "es.ĠTheĠ": 8071,
      "putĠitĠ": 8072,
      "entirelyĠ": 8073,
      "ĠtotalĠ": 8074,
      "Jew": 8075,
      "*Ċ": 8076,
      "fromĠthisĠ": 8077,
      "proce": 8078,
      "JulyĠ": 8079,
      "suddenlyĠ": 8080,
      "photo": 8081,
      "brokenĠ": 8082,
      "atĠhisĠ": 8083,
      ".ĠĠĠĠĠ": 8084,
      "WestĠ": 8085,
      "pushĠ": 8086,
      ")ĊĠĠĠĠ{ĊĠĠĠĠĠĠĠĠ": 8087,
      "ãĢ": 8088,
      "ĠtypeĠofĠ": 8089,
      "Hy": 8090,
      "fairlyĠ": 8091,
      "providesĠ": 8092,
      "ĠthrowĠ": 8093,
      "insideĠtheĠ": 8094,
      "beĠtoĠ": 8095,
      ",ĠbecauseĠ": 8096,
      "aĠnew": 8097,
      "doctor": 8098,
      "Wal": 8099,
      "Cheers": 8100,
      "estion": 8101,
      "stupidĠ": 8102,
      "suggestĠ": 8103,
      "heâĢĻdĠ": 8104,
      "ourĠs": 8105,
      "dut": 8106,
      "skinĠ": 8107,
      "LA": 8108,
      "100%": 8109,
      "fish": 8110,
      ")Ċĉĉ": 8111,
      "Ġthousand": 8112,
      "UseĠ": 8113,
      "60Ġ": 8114,
      "scr": 8115,
      "downĠandĠ": 8116,
      "PublicĠ": 8117,
      "e?Ġ": 8118,
      "21Ġ": 8119,
      "5-": 8120,
      "city": 8121,
      "ĠserverĠ": 8122,
      ";Ċĉĉ": 8123,
      "paper": 8124,
      "annaĠ": 8125,
      "sessionĠ": 8126,
      ")(": 8127,
      ",ĠisĠ": 8128,
      "he'dĠ": 8129,
      "pregn": 8130,
      "apply": 8131,
      "entryĠ": 8132,
      "goalĠ": 8133,
      "earlierĠ": 8134,
      "ware": 8135,
      ".ĠThereĠareĠ": 8136,
      "recogniz": 8137,
      ".ĠOneĠ": 8138,
      "yearsĠofĠ": 8139,
      "property": 8140,
      "nextĠtoĠ": 8141,
      "_Ċ_": 8142,
      "whit": 8143,
      "WhiteĠ": 8144,
      "Version": 8145,
      "ingĠhimĠ": 8146,
      "sir": 8147,
      "alongĠwithĠ": 8148,
      "FORĠ": 8149,
      "Â·": 8150,
      "etic": 8151,
      "arrang": 8152,
      "includedĠ": 8153,
      "iĠs": 8154,
      "documentĠ": 8155,
      "plotĠ": 8156,
      "Ġtransform": 8157,
      "continueĠ": 8158,
      "enz": 8159,
      "seemedĠtoĠ": 8160,
      ";ĊĠĠĠĠ}ĊĊĠĠĠĠ": 8161,
      "ooĠ": 8162,
      "Twit": 8163,
      "Service": 8164,
      "Project": 8165,
      "ations": 8166,
      "ĠÐ¿": 8167,
      "WouldĠ": 8168,
      "ajorĠ": 8169,
      "focusedĠ": 8170,
      "herĠtoĠ": 8171,
      "stretch": 8172,
      "ä¸": 8173,
      "Inc": 8174,
      "prepar": 8175,
      "president": 8176,
      "sli": 8177,
      "responsibleĠ": 8178,
      "UK": 8179,
      "BC": 8180,
      "kidĠ": 8181,
      "machineĠ": 8182,
      "expensiveĠ": 8183,
      "odd": 8184,
      "somewhatĠ": 8185,
      "honestĠ": 8186,
      "ifĠ(!": 8187,
      "peopleĠtoĠ": 8188,
      "Typ": 8189,
      "Sher": 8190,
      "mpion": 8191,
      "2n": 8192,
      "LoveĠ": 8193,
      "relativelyĠ": 8194,
      "ĠthatĠyouĠ": 8195,
      "Main": 8196,
      "cond": 8197,
      "speakĠ": 8198,
      "thĠandĠ": 8199,
      "FT": 8200,
      "Mad": 8201,
      "aterial": 8202,
      "surround": 8203,
      ",ĠhisĠ": 8204,
      "noticeĠ": 8205,
      "its": 8206,
      "asĊ": 8207,
      "LIN": 8208,
      "s.ĠTheyĠ": 8209,
      "flash": 8210,
      "(newĠ": 8211,
      "closer": 8212,
      "ings,Ġ": 8213,
      "phon": 8214,
      "-c": 8215,
      "ivesĠ": 8216,
      "iedĠ": 8217,
      "orry": 8218,
      "asĠyouĠ": 8219,
      "PeopleĠ": 8220,
      "suffic": 8221,
      ":(": 8222,
      "ugĠ": 8223,
      "nur": 8224,
      "diseaseĠ": 8225,
      "kĠandĠ": 8226,
      "princi": 8227,
      "Asi": 8228,
      "ation.": 8229,
      "warĠ": 8230,
      "Commun": 8231,
      "herselfĠ": 8232,
      "xy": 8233,
      "guys": 8234,
      "etĠandĠ": 8235,
      "</p": 8236,
      "omen": 8237,
      "AreĠyouĠ": 8238,
      "emperatureĠ": 8239,
      "requiresĠ": 8240,
      "masĠ": 8241,
      "whoĠisĠ": 8242,
      "weirdĠ": 8243,
      "ternĠ": 8244,
      "generateĠ": 8245,
      "Fig.Ġ": 8246,
      "poll": 8247,
      "irk": 8248,
      "ĠwasĠtheĠ": 8249,
      "FI": 8250,
      "čĊĠĠĠĠĠĠ": 8251,
      "willĠnotĠ": 8252,
      "all,ĊĊ": 8253,
      "IĠamĠtryingĠtoĠ": 8254,
      "Libr": 8255,
      "butĠthisĠ": 8256,
      "team": 8257,
      "same": 8258,
      "whe": 8259,
      "featuresĠ": 8260,
      "findĠoutĠ": 8261,
      "levelĠofĠ": 8262,
      "Provid": 8263,
      "ovi": 8264,
      "$('": 8265,
      "itud": 8266,
      "\">ĊĠĠĠĠ": 8267,
      "asĠweĠ": 8268,
      "financialĠ": 8269,
      "Scot": 8270,
      "occup": 8271,
      "ed.ĠâĢľ": 8272,
      "fillĠ": 8273,
      "extend": 8274,
      ")/(-": 8275,
      "setup": 8276,
      "Ċ}ĊĊ": 8277,
      "m,Ġ": 8278,
      "haveĠnoĠ": 8279,
      "?\"Ċ\"": 8280,
      "Day": 8281,
      "ometimesĠ": 8282,
      "Good": 8283,
      "Then": 8284,
      "b.": 8285,
      "destin": 8286,
      "uni": 8287,
      "ObjectĠ": 8288,
      "iĠdon'tĠ": 8289,
      "itĠisĠnotĠ": 8290,
      "Accord": 8291,
      "sterĠ": 8292,
      "Q:ĊĊHowĠtoĠ": 8293,
      "domainĠ": 8294,
      "usr/": 8295,
      "inĠB": 8296,
      "ĠthereforeĠ": 8297,
      "ancedĠ": 8298,
      "restaur": 8299,
      "Ġmov": 8300,
      "errĠ": 8301,
      "partner": 8302,
      "accessĠtoĠ": 8303,
      "EuropeanĠ": 8304,
      "whenĠsheĠ": 8305,
      ".ĠNow": 8306,
      "collection": 8307,
      "withĠherĠ": 8308,
      "existĠ": 8309,
      "accompl": 8310,
      "inĠoneĠ": 8311,
      "ed,ĠbutĠ": 8312,
      "suck": 8313,
      "QĠ": 8314,
      "although": 8315,
      "decre": 8316,
      "ationĠforĠ": 8317,
      "Mem": 8318,
      "2008": 8319,
      "IfĠtheĠ": 8320,
      "termĠ": 8321,
      ",ĠIĠwasĠ": 8322,
      "f.": 8323,
      "htmlĠ": 8324,
      "AprilĠ": 8325,
      "gather": 8326,
      "isn't": 8327,
      "s,ĠIĠ": 8328,
      ".ĠAtĠ": 8329,
      "scenari": 8330,
      "</div>": 8331,
      "setĠupĠ": 8332,
      ",ĠmyĠ": 8333,
      "imagineĠ": 8334,
      "ety": 8335,
      "abledĠ": 8336,
      "independentĠ": 8337,
      "meĠandĠ": 8338,
      "speedĠ": 8339,
      "ed(": 8340,
      "2ĠandĠ": 8341,
      ";ĊĠĠĠĠĠĠĠĠĠĠĠĠĠĠĠĠ": 8342,
      "ideaĠofĠ": 8343,
      "Vol": 8344,
      ")ĊĠĠĠĠatĠ": 8345,
      "Febr": 8346,
      "withĠsomeĠ": 8347,
      "shouldn'tĠ": 8348,
      "ĠtoĠthatĠ": 8349,
      "uesĠ": 8350,
      "repli": 8351,
      "Ġthere.Ġ": 8352,
      "anceĠandĠ": 8353,
      "ĊofĠ": 8354,
      "companiesĠ": 8355,
      "howĠmanyĠ": 8356,
      "butĠthatĠ": 8357,
      "lack": 8358,
      "':Ġ": 8359,
      "Ċ#defineĠ": 8360,
      "IA": 8361,
      "Scienc": 8362,
      "whatĠyouĠ": 8363,
      "threeĠ": 8364,
      "ceed": 8365,
      "MichaelĠ": 8366,
      "goldĠ": 8367,
      "anĠin": 8368,
      "adult": 8369,
      "findĠaĠ": 8370,
      "fully": 8371,
      "managementĠ": 8372,
      "Mari": 8373,
      "anybodyĠ": 8374,
      "instanc": 8375,
      "omething": 8376,
      "giveĠmeĠ": 8377,
      "CM": 8378,
      "0,0,": 8379,
      "Ċ//": 8380,
      "Âµ": 8381,
      "odyĠ": 8382,
      "Ġclo": 8383,
      "Associ": 8384,
      "remark": 8385,
      "edĠbyĠaĠ": 8386,
      "unfortun": 8387,
      ",ĠR": 8388,
      "purpose": 8389,
      "4Ġ-Ġ": 8390,
      "Institut": 8391,
      "Ġschool": 8392,
      "responsibil": 8393,
      "iĠandĠ": 8394,
      "ative": 8395,
      "Spr": 8396,
      "dadĠ": 8397,
      "chanceĠtoĠ": 8398,
      "it'sĠtheĠ": 8399,
      "agingĠ": 8400,
      "ofĠtheĠt": 8401,
      "asset": 8402,
      "inĠanyĠ": 8403,
      "keepĠtheĠ": 8404,
      "smileĠ": 8405,
      "{{": 8406,
      "?ĊFalse": 8407,
      "Sear": 8408,
      "alleg": 8409,
      "ĠtooĠmuchĠ": 8410,
      "Pet": 8411,
      "84": 8412,
      "howĠitĠ": 8413,
      "sĠsoĠ": 8414,
      "parse": 8415,
      "enth": 8416,
      "ifĠthisĠ": 8417,
      "usualĠ": 8418,
      "websiteĠ": 8419,
      "OnceĠ": 8420,
      "Ã¶": 8421,
      "brain": 8422,
      "SinceĠ": 8423,
      "Ev": 8424,
      "Ġtag": 8425,
      "en.": 8426,
      "daĠ": 8427,
      "consol": 8428,
      "ending": 8429,
      "g/": 8430,
      "required": 8431,
      "smile": 8432,
      "aĠbit": 8433,
      "try": 8434,
      "TT": 8435,
      "preh": 8436,
      "cott": 8437,
      "VID": 8438,
      "Ñĩ": 8439,
      "babyĠ": 8440,
      "Custom": 8441,
      "deploy": 8442,
      "export": 8443,
      "Studi": 8444,
      "internal": 8445,
      "Hospit": 8446,
      "managedĠtoĠ": 8447,
      "already": 8448,
      "edĠ(": 8449,
      "gin": 8450,
      "<?": 8451,
      "rush": 8452,
      "nowled": 8453,
      "muchĠmoreĠ": 8454,
      "cleanĠ": 8455,
      "editor": 8456,
      "aĠsign": 8457,
      "Ġcondition": 8458,
      "er:Ġ": 8459,
      "Ġcase": 8460,
      "22Ġ": 8461,
      "andĠheĠ": 8462,
      "welcom": 8463,
      "ed.\"Ġ\"": 8464,
      "beyondĠ": 8465,
      "?ĊTrue": 8466,
      "noteĠ": 8467,
      "Tex": 8468,
      "ĠĠĠĠĠĠĠĠĠĠĠĠĠĠ": 8469,
      "thing,Ġ": 8470,
      "74": 8471,
      "enterĠ": 8472,
      "ave": 8473,
      "aspect": 8474,
      "e.g.Ġ": 8475,
      "Ġwatch": 8476,
      "hasĠnoĠ": 8477,
      "lookedĠatĠ": 8478,
      "highlight": 8479,
      "eĠtheir": 8480,
      "dealĠ": 8481,
      "inĠfrontĠofĠ": 8482,
      "imagesĠ": 8483,
      "monitor": 8484,
      "onĠanĠ": 8485,
      "heightĠ": 8486,
      ".ĠIĠwouldĠ": 8487,
      "orient": 8488,
      "hadĠnoĠ": 8489,
      "accordingĠtoĠtheĠ": 8490,
      "ĠwhenĠtheĠ": 8491,
      "productsĠ": 8492,
      "priseĠ": 8493,
      "noĠmatterĠ": 8494,
      ",ĠwhereĠ": 8495,
      "usual": 8496,
      "stuckĠ": 8497,
      "Ġwar": 8498,
      "needsĠtoĠbeĠ": 8499,
      "Lat": 8500,
      "nothingĠtoĠ": 8501,
      "cel": 8502,
      "community": 8503,
      "worstĠ": 8504,
      "pool": 8505,
      "isnâĢĻtĠ": 8506,
      "Mer": 8507,
      "Wr": 8508,
      "pand": 8509,
      "64Ġ": 8510,
      "spanĠclass=\"": 8511,
      "ancyĠ": 8512,
      "\"\"": 8513,
      "retri": 8514,
      "dict": 8515,
      "120": 8516,
      "IfĠIĠ": 8517,
      "havingĠtoĠ": 8518,
      "DeanĠ": 8519,
      "couldĠhaveĠ": 8520,
      "CityĠ": 8521,
      "overĠandĠ": 8522,
      "ĠtoĠtr": 8523,
      "waysĠ": 8524,
      "whatĠheĠ": 8525,
      "inĠtermsĠofĠ": 8526,
      "scaleĠ": 8527,
      "Secur": 8528,
      "wash": 8529,
      "movieĠ": 8530,
      "ondon": 8531,
      "and-": 8532,
      "sexĠ": 8533,
      "ĠtooĠmuch": 8534,
      "approxim": 8535,
      "(self": 8536,
      "manufact": 8537,
      "ĠthatĠwillĠ": 8538,
      "staff": 8539,
      "alco": 8540,
      "2009": 8541,
      "LicenseĠ": 8542,
      "forĠeachĠ": 8543,
      "s=": 8544,
      ");ĊĠĠĠĠĠĠ": 8545,
      "oilĠ": 8546,
      "limitedĠ": 8547,
      "gainĠ": 8548,
      "wifeĠ": 8549,
      "ĠtĠ": 8550,
      "ifĠyouĠareĠ": 8551,
      "decentĠ": 8552,
      "heal": 8553,
      "life,Ġ": 8554,
      "comesĠtoĠ": 8555,
      "brokeĠ": 8556,
      "Component": 8557,
      "Hey": 8558,
      "Tre": 8559,
      "Andre": 8560,
      "fab": 8561,
      "Ġtax": 8562,
      "ment,Ġ": 8563,
      "s?ĊĊ": 8564,
      "relax": 8565,
      "ĠĠĠĠĠĠĠĠĠĠĠĠĠĠĠĠĠĠĠĠĠĠĠĠĠĠĠĠĠĠĠĠĠĠĠĠĠĠĠĠĠĠĠĠĠĠĠĠ": 8566,
      "journal": 8567,
      "militaryĠ": 8568,
      "popularĠ": 8569,
      "sole.log": 8570,
      "ruleĠ": 8571,
      ">ĊĠĠ<": 8572,
      "advent": 8573,
      "Win": 8574,
      "ethĠ": 8575,
      "surfaceĠ": 8576,
      "&&": 8577,
      "brandĠ": 8578,
      ",ĠandĠheĠ": 8579,
      "c_": 8580,
      "medic": 8581,
      "ĠmadeĠ": 8582,
      "}ĊĊĠĠ": 8583,
      "FOR": 8584,
      ")ĠĠ": 8585,
      "signĠ": 8586,
      ",ĠthoughĠ": 8587,
      "aĠbunchĠofĠ": 8588,
      "EREĠ": 8589,
      "joinĠ": 8590,
      "somewhereĠ": 8591,
      "Task": 8592,
      "properlyĠ": 8593,
      "amountĠ": 8594,
      "0.5": 8595,
      "poor": 8596,
      "ĠthatĠsheĠ": 8597,
      "behindĠtheĠ": 8598,
      "UnitedĠStat": 8599,
      "wonderfulĠ": 8600,
      "original": 8601,
      "Cell": 8602,
      "annoy": 8603,
      "scream": 8604,
      "o'sĠ": 8605,
      "volunt": 8606,
      "Ġtask": 8607,
      "formĠofĠ": 8608,
      "Applause": 8609,
      "aul": 8610,
      "xĠ=Ġ": 8611,
      "preventĠ": 8612,
      "productionĠ": 8613,
      "Person": 8614,
      "ĠcodeĠ": 8615,
      "ACT": 8616,
      "greg": 8617,
      "commentsĠ": 8618,
      "ValueĠ": 8619,
      "evidenceĠ": 8620,
      "zip": 8621,
      "iverĠ": 8622,
      ".ĠThere": 8623,
      "SM": 8624,
      "windowĠ": 8625,
      "s,ĠsoĠ": 8626,
      "ole": 8627,
      "I'mĠnotĠsureĠ": 8628,
      "cos": 8629,
      ".ĠĠThisĠ": 8630,
      "Devel": 8631,
      "i++": 8632,
      "Israel": 8633,
      "youĠguysĠ": 8634,
      "fam": 8635,
      "facil": 8636,
      "AtĠtheĠ": 8637,
      "lipsĠ": 8638,
      "adapt": 8639,
      "sexualĠ": 8640,
      "ĠshouldĠbeĠ": 8641,
      "arestĠ": 8642,
      "Gam": 8643,
      "shown": 8644,
      "AlthoughĠ": 8645,
      "straint": 8646,
      "rightĠnowĠ": 8647,
      "ourĠm": 8648,
      "Grid": 8649,
      "[Applause": 8650,
      "horr": 8651,
      "fro": 8652,
      "yearsĠago": 8653,
      "(D": 8654,
      "alert": 8655,
      "ĠtowardsĠtheĠ": 8656,
      "ARĠ": 8657,
      ":-": 8658,
      "ĠtrainingĠ": 8659,
      "liqu": 8660,
      "understandĠtheĠ": 8661,
      "registr": 8662,
      "that": 8663,
      "carryĠ": 8664,
      "-3*": 8665,
      ",ĠandĠitĠ": 8666,
      "([": 8667,
      "handle": 8668,
      "relatedĠtoĠ": 8669,
      "applyĠ": 8670,
      "(v": 8671,
      ".ĠWhichĠ": 8672,
      "nap": 8673,
      "s.ĠItĠ": 8674,
      "Ċĉĉĉ": 8675,
      "Ġtogeth": 8676,
      "crash": 8677,
      "merg": 8678,
      "Ã¼": 8679,
      "loveĠtoĠ": 8680,
      "Flor": 8681,
      "evenĠmoreĠ": 8682,
      "coordin": 8683,
      "Ġconfig": 8684,
      "slid": 8685,
      "pray": 8686,
      "ATEĠ": 8687,
      ":5": 8688,
      "NY": 8689,
      "pant": 8690,
      "remainderĠwhenĠ": 8691,
      "\"ĊĠĠĠĠĠĠĠĠĠĠĠĠ": 8692,
      "Pass": 8693,
      ".ĊButĠ": 8694,
      ",ĠbutĠheĠ": 8695,
      "prettyĠmuchĠ": 8696,
      "helpĠmeĠ": 8697,
      "relativeĠ": 8698,
      "doĠisĠ": 8699,
      "Ġtitle": 8700,
      "Connection": 8701,
      "SchoolĠ": 8702,
      ".ĠFor": 8703,
      "officialĠ": 8704,
      "Ġwindow": 8705,
      "basic": 8706,
      "lapt": 8707,
      "ĠthereĠwereĠ": 8708,
      "placesĠ": 8709,
      "ps": 8710,
      "giveĠyouĠ": 8711,
      "Â£": 8712,
      "actual": 8713,
      "{ĊĠĠĠĠĠĠ": 8714,
      "whatĠweĠ": 8715,
      "2Ġ=Ġ": 8716,
      "mostĠofĠ": 8717,
      "co-": 8718,
      "electron": 8719,
      ",\"ĠsaidĠ": 8720,
      "constantĠ": 8721,
      "beganĠ": 8722,
      "hurt": 8723,
      "protectedĠ": 8724,
      "Label": 8725,
      "forwardĠtoĠ": 8726,
      "walkingĠ": 8727,
      "extendsĠ": 8728,
      "What'sĠ": 8729,
      "interaction": 8730,
      "unsignedĠ": 8731,
      "i_": 8732,
      ",âĢĿĠsaidĠ": 8733,
      "IĠwant": 8734,
      "include": 8735,
      "0Ċ": 8736,
      "ThereĠisĠ": 8737,
      "JanuaryĠ": 8738,
      "doubt": 8739,
      "neck": 8740,
      ".ĠĠĠĠĠĠĠĠTheĠ": 8741,
      "fold": 8742,
      "switchĠ": 8743,
      "ResearchĠ": 8744,
      "normallyĠ": 8745,
      "resolv": 8746,
      "ulation": 8747,
      "orĠtoĠ": 8748,
      "useĠthisĠ": 8749,
      "sometim": 8750,
      "shut": 8751,
      "autom": 8752,
      "ontoĠtheĠ": 8753,
      "conserv": 8754,
      "dogĠ": 8755,
      "Ġtast": 8756,
      "catĠ": 8757,
      "embr": 8758,
      "Cong": 8759,
      "ardi": 8760,
      "entry": 8761,
      "#defineĠ": 8762,
      "Build": 8763,
      "Glo": 8764,
      "accident": 8765,
      "Gover": 8766,
      "proposedĠ": 8767,
      "difficultĠtoĠ": 8768,
      "header": 8769,
      "apter": 8770,
      "youĠtheĠ": 8771,
      "conven": 8772,
      "popular": 8773,
      "Ġcomput": 8774,
      "izingĠ": 8775,
      "e.âĢĿĊ": 8776,
      "!ĠĠĠĠĠĠĠĠ": 8777,
      "ById": 8778,
      "ĠthirdĠ": 8779,
      "A-": 8780,
      "lientĠ": 8781,
      "visitĠ": 8782,
      "eatingĠ": 8783,
      "desper": 8784,
      "_H": 8785,
      "parentĠ": 8786,
      "enchĠ": 8787,
      "izz": 8788,
      "blow": 8789,
      "hospital": 8790,
      "spotĠ": 8791,
      "replaceĠ": 8792,
      "They": 8793,
      "strangeĠ": 8794,
      ";ĊĠĠĠĠĠĠ": 8795,
      "before": 8796,
      "CG": 8797,
      "UniversityĊ": 8798,
      "This": 8799,
      "Anim": 8800,
      "more": 8801,
      "haveĠtoĠbeĠ": 8802,
      "Requ": 8803,
      "?\"Ċ": 8804,
      "Bit": 8805,
      "ageĠandĠ": 8806,
      "BR": 8807,
      "n,Ġ": 8808,
      "rolledĠ": 8809,
      "egg": 8810,
      "asĠsoonĠ": 8811,
      "âĢ¬Ġ": 8812,
      "daughter": 8813,
      "()Ġ{ĊĠĠĠĠ": 8814,
      "ring": 8815,
      "pix": 8816,
      "onĠtopĠ": 8817,
      "algorithm": 8818,
      "doĠit": 8819,
      "internetĠ": 8820,
      "hyp": 8821,
      "0.00": 8822,
      "th,Ġ": 8823,
      "ĠĠĠĠĠĠĠ*": 8824,
      "data-": 8825,
      "illustr": 8826,
      "pĠ=Ġ": 8827,
      ",ĠthereĠareĠ": 8828,
      "forĠmoreĠ": 8829,
      "Ġtransl": 8830,
      "CopyrightĠ": 8831,
      "pill": 8832,
      "atedĠtheĠ": 8833,
      "eff": 8834,
      "tableĠ": 8835,
      "startsĠ": 8836,
      "discussionĠ": 8837,
      "protectĠ": 8838,
      "oneĠofĠmyĠ": 8839,
      "an'sĠ": 8840,
      "orm": 8841,
      "@\"": 8842,
      "(s": 8843,
      "1Ġ=Ġ": 8844,
      "ideas": 8845,
      "dayĠandĠ": 8846,
      "JSON": 8847,
      "VM": 8848,
      "s.ĠButĠ": 8849,
      "long-": 8850,
      "Bob": 8851,
      "shock": 8852,
      "JO": 8853,
      "aud": 8854,
      "attend": 8855,
      "Californ": 8856,
      ")ĠinĠ": 8857,
      "mentĠandĠ": 8858,
      "liĠ": 8859,
      "appearedĠ": 8860,
      "upĠinĠ": 8861,
      "forĠthis": 8862,
      "useĠtoĠ": 8863,
      "usĠandĠ": 8864,
      "healthyĠ": 8865,
      ".ĠThat'sĠ": 8866,
      "{\\": 8867,
      ".ĠIâĢĻ": 8868,
      "ation:Ġ": 8869,
      "'SĠ": 8870,
      "hasn'tĠ": 8871,
      "ĪĠ": 8872,
      "alsoĠbeĠ": 8873,
      "Wil": 8874,
      "remoteĠ": 8875,
      "-b": 8876,
      "distribution": 8877,
      "Star": 8878,
      "ralĠ": 8879,
      "green": 8880,
      "columnĠ": 8881,
      "BlackĠ": 8882,
      "Process": 8883,
      "<T": 8884,
      "namesĠ": 8885,
      "Su": 8886,
      "justĠtoĠ": 8887,
      "reven": 8888,
      "XML": 8889,
      "goingĠonĠ": 8890,
      "mediaĠ": 8891,
      "layĠ": 8892,
      "erm": 8893,
      "beganĠtoĠ": 8894,
      "elsĠ": 8895,
      "monthĠ": 8896,
      "downloadĠ": 8897,
      "Hon": 8898,
      "avingĠ": 8899,
      "iesĠtoĠ": 8900,
      "ĊĠĠĠĠĠĠĠĠĠ": 8901,
      "[3": 8902,
      ",ĠK": 8903,
      "browser": 8904,
      "²Ġ": 8905,
      "runsĠ": 8906,
      "livesĠ": 8907,
      "ifyingĠ": 8908,
      "delay": 8909,
      "you'r": 8910,
      "raceĠ": 8911,
      "She": 8912,
      "Page": 8913,
      "RES": 8914,
      "called": 8915,
      "(L": 8916,
      "sider": 8917,
      "sharedĠ": 8918,
      "onĊ": 8919,
      "xmlĠ": 8920,
      ".ĠInĠthisĠ": 8921,
      "Note:": 8922,
      "Sand": 8923,
      "genĠ": 8924,
      "ney": 8925,
      "ESĠ": 8926,
      "coll": 8927,
      "femaleĠ": 8928,
      "Function": 8929,
      "whichĠtheĠ": 8930,
      "publicĠstaticĠ": 8931,
      "+1": 8932,
      "glas": 8933,
      "[0]": 8934,
      "AndroidĠ": 8935,
      "shel": 8936,
      ".ĊInĠ": 8937,
      "ensur": 8938,
      "bookĠisĠ": 8939,
      "lu": 8940,
      "</a></": 8941,
      "happenedĠ": 8942,
      "Access": 8943,
      "spring": 8944,
      "variet": 8945,
      "Tor": 8946,
      "appingĠ": 8947,
      "alternativeĠ": 8948,
      "gaz": 8949,
      "nut": 8950,
      "pic": 8951,
      "leadingĠ": 8952,
      ">ĊĠĠĠĠĠĠĠĠĠĠĠĠĠĠĠĠĠĠĠĠĠĠĠĠ": 8953,
      "Wik": 8954,
      "following": 8955,
      "whichĠwasĠ": 8956,
      "atĠthatĠ": 8957,
      "missedĠ": 8958,
      "Ġcell": 8959,
      "is_": 8960,
      "sideĠofĠtheĠ": 8961,
      "station": 8962,
      ",Ġ$": 8963,
      ".ĊM": 8964,
      "ureĠofĠ": 8965,
      "HowĠcanĠIĠ": 8966,
      "Cam": 8967,
      "cir": 8968,
      "locatedĠ": 8969,
      "atterĠ": 8970,
      "Noth": 8971,
      "(0": 8972,
      "i'veĠ": 8973,
      "Ġteacher": 8974,
      "./": 8975,
      "-1.": 8976,
      "areĠyou": 8977,
      "hood": 8978,
      "back,Ġ": 8979,
      "organization": 8980,
      "eĠthoseĠ": 8981,
      "inĠtoĠ": 8982,
      "scap": 8983,
      "cloth": 8984,
      "hack": 8985,
      "Jon": 8986,
      "One": 8987,
      "nullĠ": 8988,
      "reportedĠ": 8989,
      "ence.Ġ": 8990,
      "erryĠ": 8991,
      "ii": 8992,
      "internalĠ": 8993,
      "IĠhaveĠnoĠ": 8994,
      "WA": 8995,
      "hous": 8996,
      "UsingĠ": 8997,
      "ago,Ġ": 8998,
      "\")Ġ": 8999,
      "esternĠ": 9000,
      "aryĠtoĠ": 9001,
      "DM": 9002,
      "StatesĠ": 9003,
      "aĠtoĠ": 9004,
      "-19": 9005,
      "exic": 9006,
      ".\"Ġ\"WeĠ": 9007,
      "I'mĠjustĠ": 9008,
      "CouldĠ": 9009,
      "example.com": 9010,
      "alli": 9011,
      "club": 9012,
      "data.": 9013,
      "running": 9014,
      "ais": 9015,
      "largestĠ": 9016,
      "ban": 9017,
      "ribution": 9018,
      "yes,Ġ": 9019,
      "ĊDepartmentĠofĠ": 9020,
      "working": 9021,
      "expos": 9022,
      "ableĠto": 9023,
      "THE": 9024,
      "fixedĠ": 9025,
      "soundsĠ": 9026,
      "ed.ĊâĢľ": 9027,
      "nearestĠ": 9028,
      "EndĠ": 9029,
      "losingĠ": 9030,
      "e\"Ġ": 9031,
      "apparentlyĠ": 9032,
      "Dist": 9033,
      "osh": 9034,
      "becauseĠheĠ": 9035,
      "0,Ġ0,Ġ": 9036,
      "ĊĠĠĠĠĠĠĠ": 9037,
      "bugg": 9038,
      "Contain": 9039,
      "ed,ĠtheĠ": 9040,
      ")/(": 9041,
      "ersĠinĠ": 9042,
      "restĠofĠ": 9043,
      "obviousĠ": 9044,
      "ĠwhateverĠ": 9045,
      "sin": 9046,
      "Output": 9047,
      "injur": 9048,
      "quickly": 9049,
      "more,Ġ": 9050,
      "architect": 9051,
      "GN": 9052,
      "Â°": 9053,
      "finishedĠ": 9054,
      "meĠtheĠ": 9055,
      "=Ġ0;Ġ": 9056,
      "definition": 9057,
      "maintain": 9058,
      "industryĠ": 9059,
      "commerc": 9060,
      ".ĠMaybeĠ": 9061,
      "evenĠtheĠ": 9062,
      "nativeĠ": 9063,
      "fault": 9064,
      "ĠtheĠfirstĠ": 9065,
      ",Ċĉĉ": 9066,
      "ageĠtoĠ": 9067,
      "awesomeĠ": 9068,
      "Collection": 9069,
      "YOUĠ": 9070,
      "likeĠthis:Ċ": 9071,
      "deli": 9072,
      "faster": 9073,
      "stim": 9074,
      "s?": 9075,
      "gain": 9076,
      "filterĠ": 9077,
      "-of": 9078,
      "rul": 9079,
      "08": 9080,
      "-h": 9081,
      "Top": 9082,
      "IĠfoundĠ": 9083,
      "collegeĠ": 9084,
      "WOR": 9085,
      "sampleĠ": 9086,
      "Hum": 9087,
      "extract": 9088,
      "ButĠtheĠ": 9089,
      "GoĠ": 9090,
      "!!!!": 9091,
      "everybodyĠ": 9092,
      "7*": 9093,
      "believeĠthatĠ": 9094,
      "ocialĠ": 9095,
      "creen": 9096,
      "useĠitĠ": 9097,
      "somethingĠtoĠ": 9098,
      "icaĠ": 9099,
      "enciesĠ": 9100,
      "rightsĠ": 9101,
      "umst": 9102,
      "Comple": 9103,
      "critic": 9104,
      "scienceĠ": 9105,
      ",Ġ'": 9106,
      "withoutĠreplacementĠ": 9107,
      "ridicul": 9108,
      "probĠofĠ": 9109,
      "ive.Ġ": 9110,
      "LastĠ": 9111,
      "drawĠ": 9112,
      "stableĠ": 9113,
      "namespaceĠ": 9114,
      "hr": 9115,
      "leavingĠ": 9116,
      "goĠtoĠtheĠ": 9117,
      "games": 9118,
      "lettersĠpickedĠ": 9119,
      "FC": 9120,
      ".ĠIsĠ": 9121,
      "110": 9122,
      "watchingĠ": 9123,
      ")\\": 9124,
      "to_": 9125,
      "s!Ġ": 9126,
      "nĠ=Ġ": 9127,
      "amĠIĠ": 9128,
      "nest": 9129,
      "sĠthat": 9130,
      "lettersĠpickedĠwithoutĠreplacementĠ": 9131,
      "endor": 9132,
      "anyĠofĠtheĠ": 9133,
      "200Ġ": 9134,
      "pointer": 9135,
      "growĠ": 9136,
      "MedicalĠ": 9137,
      "ãĥ": 9138,
      "PeterĠ": 9139,
      "-w": 9140,
      "triedĠ": 9141,
      "parameterĠ": 9142,
      "feeling": 9143,
      "afterno": 9144,
      "bothĠtheĠ": 9145,
      "1ĊĊ": 9146,
      "makeĠsur": 9147,
      "King": 9148,
      "ponentĠ": 9149,
      "approv": 9150,
      "sĠwithĠtheĠ": 9151,
      "IâĢĻllĠ": 9152,
      "billionĠ": 9153,
      "IĠguessĠ": 9154,
      "aĠsup": 9155,
      "ontĠ": 9156,
      "filmĠ": 9157,
      "id=": 9158,
      "ampleĠ": 9159,
      "Sil": 9160,
      "ĠtoĠtheirĠ": 9161,
      "Leg": 9162,
      "isĠofĠ": 9163,
      "debug": 9164,
      "study": 9165,
      "motiv": 9166,
      "-year-oldĠ": 9167,
      ":)": 9168,
      "lor": 9169,
      "farĠasĠ": 9170,
      "ios": 9171,
      "church": 9172,
      "FR": 9173,
      "chart": 9174,
      "requirement": 9175,
      "safeĠ": 9176,
      "e)Ġ": 9177,
      "pad": 9178,
      "Stud": 9179,
      "aĠbig": 9180,
      "Ġtheor": 9181,
      "d_": 9182,
      "intention": 9183,
      ",ĠH": 9184,
      "Book": 9185,
      "sĠwith": 9186,
      "icĠs": 9187,
      "bund": 9188,
      "inĠwhichĠ": 9189,
      ":ĊĠĠĠĠĠĠĠĠĠĠĠĠ": 9190,
      "aĠg": 9191,
      "IĠseeĠ": 9192,
      "efficientĠ": 9193,
      "/usr/": 9194,
      "hereĠtoĠ": 9195,
      "aĠfullĠ": 9196,
      "Tur": 9197,
      "ectĠofĠ": 9198,
      "BOO": 9199,
      "ĠĠ(c)Ġ": 9200,
      "ureĠandĠ": 9201,
      "Size": 9202,
      "movedĠ": 9203,
      "-M": 9204,
      "itudeĠ": 9205,
      "u/": 9206,
      "whoĠareĠ": 9207,
      "~~~~": 9208,
      "ĊIsĠ": 9209,
      "ĠĠ(b)Ġ": 9210,
      "aĠbitĠofĠ": 9211,
      "whoĠwasĠ": 9212,
      "sĠareĠnotĠ": 9213,
      "dens": 9214,
      "eĠtyp": 9215,
      "?ĠĠ(a)Ġ": 9216,
      "Tot": 9217,
      "IZ": 9218,
      "Format": 9219,
      ",âĢĿĠsheĠ": 9220,
      "Ub": 9221,
      "coupleĠ": 9222,
      "sĠanĠ": 9223,
      "interpret": 9224,
      "whisper": 9225,
      "brightĠ": 9226,
      "END": 9227,
      "IĠhaveĠbeenĠ": 9228,
      "0Ġ=Ġ": 9229,
      "Ġtechnolog": 9230,
      "<divĠ": 9231,
      "sĠwasĠ": 9232,
      "acherĠ": 9233,
      "ultim": 9234,
      "Phot": 9235,
      "%ĠofĠtheĠ": 9236,
      "rep": 9237,
      "Vir": 9238,
      "Ros": 9239,
      "9/": 9240,
      "setĠtoĠ": 9241,
      "HeyĠ": 9242,
      "creatingĠ": 9243,
      "|Ċ": 9244,
      "CI": 9245,
      "RedĠ": 9246,
      "stain": 9247,
      "()Ġ{ĊĠĠĠĠĠĠĠĠ": 9248,
      "23Ġ": 9249,
      "asyn": 9250,
      "rulesĠ": 9251,
      ".ĊĊĠĠ": 9252,
      "bedd": 9253,
      "Park": 9254,
      "Document": 9255,
      "rip": 9256,
      "GET": 9257,
      "4Ċ": 9258,
      "greaterĠ": 9259,
      "eĠturn": 9260,
      "Response": 9261,
      "paralle": 9262,
      "viv": 9263,
      "directory": 9264,
      "ĠthroughoutĠtheĠ": 9265,
      "cloud": 9266,
      "knowingĠ": 9267,
      "))Ġ": 9268,
      "-S": 9269,
      "haveĊ": 9270,
      "million": 9271,
      "goingĠon": 9272,
      "outĠthereĠ": 9273,
      "software": 9274,
      "href=\"": 9275,
      "holdingĠ": 9276,
      "expected": 9277,
      "pin": 9278,
      "IĠamĠnotĠ": 9279,
      "justĠasĠ": 9280,
      "agueĠ": 9281,
      "Buffer": 9282,
      ".d": 9283,
      "YP": 9284,
      "inĠitsĠ": 9285,
      "Ġmis": 9286,
      "eĠthroughĠ": 9287,
      "upĠwith": 9288,
      "esĠonĠ": 9289,
      "-1/": 9290,
      "font-": 9291,
      "eye": 9292,
      "summary": 9293,
      "angu": 9294,
      ",ĠIĠdon'tĠ": 9295,
      "meant": 9296,
      "issues": 9297,
      "unitĠ": 9298,
      "rever": 9299,
      ",ĠIĠwouldĠ": 9300,
      "ingĠthis": 9301,
      "!!Ġ": 9302,
      "fash": 9303,
      "BA": 9304,
      "\"Ġ(": 9305,
      "2000": 9306,
      "Descri": 9307,
      "avelĠ": 9308,
      "billion": 9309,
      "shir": 9310,
      "LinuxĠ": 9311,
      "mentionedĠ": 9312,
      "afterĠaĠ": 9313,
      "grid": 9314,
      "personallyĠ": 9315,
      "findingĠ": 9316,
      "machin": 9317,
      "150": 9318,
      "said.ĠâĢľ": 9319,
      "broth": 9320,
      "ated,Ġ": 9321,
      "contextĠ": 9322,
      "ities,Ġ": 9323,
      "shor": 9324,
      "lovesĠ": 9325,
      "struggl": 9326,
      ".ĠWhatĠisĠ": 9327,
      "blingĠ": 9328,
      "Ã£oĠ": 9329,
      "vas": 9330,
      "hell": 9331,
      "ailsĠ": 9332,
      "earlier": 9333,
      "ano": 9334,
      "olar": 9335,
      "-1Ġ": 9336,
      "s\\": 9337,
      "Ġtold": 9338,
      "ĠtroubleĠ": 9339,
      "YouĠareĠ": 9340,
      "anywhereĠ": 9341,
      "aĠtheĠ": 9342,
      "carr": 9343,
      "knowĠhowĠtoĠ": 9344,
      "belief": 9345,
      "modu": 9346,
      "ate.Ġ": 9347,
      "aĠC": 9348,
      "memberĠ": 9349,
      "assumingĠ": 9350,
      "doubtĠ": 9351,
      "/g": 9352,
      "commit": 9353,
      "ureĠtoĠ": 9354,
      "Anal": 9355,
      "isĠsoĠ": 9356,
      "1_": 9357,
      "Frank": 9358,
      "aĠhal": 9359,
      ",ĠN": 9360,
      "enedĠ": 9361,
      "gladĠ": 9362,
      "eveĠ": 9363,
      "prompt": 9364,
      "esĠforĠtheĠ": 9365,
      "elin": 9366,
      "Factory": 9367,
      "forĠthem": 9368,
      "DecemberĠ": 9369,
      "volumeĠ": 9370,
      "institution": 9371,
      "\"S": 9372,
      "BB": 9373,
      "]]": 9374,
      "moduleĠ": 9375,
      "me.\"Ġ\"": 9376,
      "(2": 9377,
      "Bal": 9378,
      "chip": 9379,
      "ServerĠ": 9380,
      "Tool": 9381,
      "surpris": 9382,
      "ise,Ġ": 9383,
      "hereĠandĠ": 9384,
      "âĢ¬ĠâĢ«": 9385,
      "chick": 9386,
      "noneĠ": 9387,
      "ĊĠĊ": 9388,
      "ifĠsheĠ": 9389,
      "s,ĠorĠ": 9390,
      "usiveĠ": 9391,
      ".ĠNowĠ": 9392,
      "edia": 9393,
      "sĠupĠ": 9394,
      ")ĊĊĠĠĠĠ": 9395,
      "ires": 9396,
      "HA": 9397,
      "VAL": 9398,
      "helpedĠ": 9399,
      "ourn": 9400,
      "markĠ": 9401,
      "Boo": 9402,
      "ERS": 9403,
      "withĠnoĠ": 9404,
      "IĠdonâĢĻtĠ": 9405,
      "âĢĻsĠtheĠ": 9406,
      "shouldĠhaveĠ": 9407,
      "sĠherĠ": 9408,
      "alongĠ": 9409,
      "adat": 9410,
      "instruction": 9411,
      "tract": 9412,
      "pok": 9413,
      "damnĠ": 9414,
      "implementĠ": 9415,
      "s,ĠwhichĠ": 9416,
      "erĠwasĠ": 9417,
      "Ġtrust": 9418,
      "weĠwillĠ": 9419,
      "btn": 9420,
      "(&": 9421,
      "seemsĠlikeĠ": 9422,
      "contract": 9423,
      "brief": 9424,
      "td>": 9425,
      "awn": 9426,
      ".ĠCalcul": 9427,
      "Updat": 9428,
      "$ĠandĠ": 9429,
      "dryĠ": 9430,
      "ĠthisĠyear": 9431,
      "InternationalĠ": 9432,
      "andĠhisĠ": 9433,
      "*Ġ*Ġ": 9434,
      "(4": 9435,
      "change": 9436,
      "Ġmak": 9437,
      "statesĠ": 9438,
      "haven": 9439,
      "Hist": 9440,
      "bran": 9441,
      "Pop": 9442,
      "like,Ġ": 9443,
      "Ċ**": 9444,
      "WE": 9445,
      "loanĠ": 9446,
      "legal": 9447,
      "=\\": 9448,
      "LordĠ": 9449,
      "honestlyĠ": 9450,
      "sleepĠ": 9451,
      "acceptĠ": 9452,
      "doz": 9453,
      "attemptĠtoĠ": 9454,
      "Ġcount": 9455,
      "advic": 9456,
      "digitĠofĠ": 9457,
      "Bri": 9458,
      "#includeĠ\"": 9459,
      "beginĠ": 9460,
      "ofĠallĠ": 9461,
      "ĠmakesĠ": 9462,
      "promot": 9463,
      "glad": 9464,
      "edĠtheirĠ": 9465,
      "moreĠthan": 9466,
      "ingĠ(": 9467,
      "sĠin": 9468,
      "forĠherĠ": 9469,
      "chanceĠ": 9470,
[...]
