{
  "version": "1.0",
  "truncation": null,
  "padding": null,
  "added_tokens": [
    {
      "id": 0,
      "content": "[UNK]",
      "single_word": false,
      "lstrip": false,
      "rstrip": false,
      "normalized": false,
      "special": true
    },
    {
      "id": 1,
      "content": "[CLS]",
      "single_word": false,
      "lstrip": false,
      "rstrip": false,
      "normalized": false,
      "special": true
    },
    {
      "id": 2,
      "content": "[SEP]",
      "single_word": false,
      "lstrip": false,
      "rstrip": false,
      "normalized": false,
      "special": true
    },
    {
      "id": 3,
      "content": "[PAD]",
      "single_word": false,
      "lstrip": false,
      "rstrip": false,
      "normalized": false,
      "special": true
    },
    {
      "id": 4,
      "content": "[MASK]",
      "single_word": false,
      "lstrip": false,
      "rstrip": false,
      "normalized": false,
      "special": true
    }
  ],
  "normalizer": null,
  "pre_tokenizer": {
    "type": "Sequence",
    "pretokenizers": [
      {
        "type": "Split",
        "pattern": {
          "Regex": "'s|'t|'re|'ve|'m|'ll|'d| ?\\p{L}+| ?\\p{N}+| ?[^\\s\\p{L}\\p{N}]+|\\s+(?!\\S)|\\s+"
        },
        "behavior": "MergedWithNext",
        "invert": false
      },
      {
        "type": "ByteLevel",
        "add_prefix_space": false,
        "trim_offsets": true,
        "use_regex": false
      }
    ]
  },
  "post_processor": null,
  "decoder": null,
  "model": {
    "type": "BPE",
    "dropout": null,
    "unk_token": "[UNK]",
    "continuing_subword_prefix": null,
    "end_of_word_suffix": null,
    "fuse_unk": false,
    "byte_fallback": false,
    "ignore_merges": false,
    "vocab": {
      "[UNK]": 0,
      "[CLS]": 1,
      "[SEP]": 2,
      "[PAD]": 3,
      "[MASK]": 4,
      "!": 5,
      "\"": 6,
      "#": 7,
      "$": 8,
      "%": 9,
      "&": 10,
      "'": 11,
      "(": 12,
      ")": 13,
      "*": 14,
      "+": 15,
      ",": 16,
      "-": 17,
      ".": 18,
      "/": 19,
      "0": 20,
      "1": 21,
      "2": 22,
      "3": 23,
      "4": 24,
      "5": 25,
      "6": 26,
      "7": 27,
      "8": 28,
      "9": 29,
      ":": 30,
      ";": 31,
      "<": 32,
      "=": 33,
      ">": 34,
      "?": 35,
      "@": 36,
      "A": 37,
      "B": 38,
      "C": 39,
      "D": 40,
      "E": 41,
      "F": 42,
      "G": 43,
      "H": 44,
      "I": 45,
      "J": 46,
      "K": 47,
      "L": 48,
      "M": 49,
      "N": 50,
      "O": 51,
      "P": 52,
      "Q": 53,
      "R": 54,
      "S": 55,
      "T": 56,
      "U": 57,
      "V": 58,
      "W": 59,
      "X": 60,
      "Y": 61,
      "Z": 62,
      "[": 63,
      "\\": 64,
      "]": 65,
      "^": 66,
      "_": 67,
      "`": 68,
      "a": 69,
      "b": 70,
      "c": 71,
      "d": 72,
      "e": 73,
      "f": 74,
      "g": 75,
      "h": 76,
      "i": 77,
      "j": 78,
      "k": 79,
      "l": 80,
      "m": 81,
      "n": 82,
      "o": 83,
      "p": 84,
      "q": 85,
      "r": 86,
      "s": 87,
      "t": 88,
      "u": 89,
      "v": 90,
      "w": 91,
      "x": 92,
      "y": 93,
      "z": 94,
      "{": 95,
      "|": 96,
      "}": 97,
      "~": 98,
      "¡": 99,
      "¢": 100,
      "£": 101,
      "¤": 102,
      "¥": 103,
      "¦": 104,
      "§": 105,
      "¨": 106,
      "©": 107,
      "ª": 108,
      "«": 109,
      "¬": 110,
      "®": 111,
      "¯": 112,
      "°": 113,
      "±": 114,
      "²": 115,
      "³": 116,
      "´": 117,
      "µ": 118,
      "¶": 119,
      "·": 120,
      "¸": 121,
      "¹": 122,
      "º": 123,
      "»": 124,
      "¼": 125,
      "½": 126,
      "¾": 127,
      "¿": 128,
      "Â": 129,
      "Ã": 130,
      "Ä": 131,
      "Å": 132,
      "Æ": 133,
      "Ç": 134,
      "È": 135,
      "É": 136,
      "Ê": 137,
      "Ë": 138,
      "Ì": 139,
      "Í": 140,
      "Î": 141,
      "Ï": 142,
      "Ð": 143,
      "Ñ": 144,
      "Ò": 145,
      "Ó": 146,
      "Ô": 147,
      "Õ": 148,
      "Ö": 149,
      "×": 150,
      "Ø": 151,
      "Ù": 152,
      "Ú": 153,
      "Û": 154,
      "Ü": 155,
      "Ý": 156,
      "Þ": 157,
      "ß": 158,
      "à": 159,
      "á": 160,
      "â": 161,
      "ã": 162,
      "ä": 163,
      "å": 164,
      "æ": 165,
      "ç": 166,
      "è": 167,
      "é": 168,
      "ê": 169,
      "ë": 170,
      "ì": 171,
      "í": 172,
      "î": 173,
      "ï": 174,
      "ð": 175,
      "ñ": 176,
      "ò": 177,
      "ó": 178,
      "ô": 179,
      "Ā": 180,
      "ā": 181,
      "Ă": 182,
      "ă": 183,
      "Ą": 184,
      "ą": 185,
      "Ć": 186,
      "ć": 187,
      "Ĉ": 188,
      "ĉ": 189,
      "Ċ": 190,
      "ċ": 191,
      "Č": 192,
      "č": 193,
      "Ď": 194,
      "ď": 195,
      "Đ": 196,
      "đ": 197,
      "Ē": 198,
      "ē": 199,
      "Ĕ": 200,
      "ĕ": 201,
      "Ė": 202,
      "ė": 203,
      "Ę": 204,
      "ę": 205,
      "Ě": 206,
      "ě": 207,
      "Ĝ": 208,
      "ĝ": 209,
      "Ğ": 210,
      "ğ": 211,
      "Ġ": 212,
      "ġ": 213,
      "Ģ": 214,
      "ģ": 215,
      "Ĥ": 216,
      "ĥ": 217,
      "Ħ": 218,
      "ħ": 219,
      "Ĩ": 220,
      "ĩ": 221,
      "Ī": 222,
      "ī": 223,
      "Ĭ": 224,
      "ĭ": 225,
      "Į": 226,
      "į": 227,
      "İ": 228,
      "ı": 229,
      "Ĳ": 230,
      "ĳ": 231,
      "Ĵ": 232,
      "ĵ": 233,
      "Ķ": 234,
      "ķ": 235,
      "ĸ": 236,
      "Ĺ": 237,
      "ĺ": 238,
      "Ļ": 239,
      "ļ": 240,
      "Ľ": 241,
      "ľ": 242,
      "Ŀ": 243,
      "ŀ": 244,
      "Ł": 245,
      "ł": 246,
      "Ń": 247,
      "Ġt": 248,
      "ĠĠ": 249,
      "Ġa": 250,
      "he": 251,
      "in": 252,
      "re": 253,
      "Ġs": 254,
      "on": 255,
      "Ġthe": 256,
      "er": 257,
      "Ġw": 258,
      "at": 259,
      "ou": 260,
      "ĠĠĠĠ": 261,
      "it": 262,
      "Ġc": 263,
      "or": 264,
      "is": 265,
      "nd": 266,
      "Ġb": 267,
      "ing": 268,
      "Ġf": 269,
      "en": 270,
      "es": 271,
      "Ġm": 272,
      "Ġo": 273,
      "ed": 274,
      "Ġp": 275,
      "Ġto": 276,
      "an": 277,
      "Ġd": 278,
      "al": 279,
      "Ġh": 280,
      "Ġth": 281,
      "ar": 282,
      "le": 283,
      "Ġin": 284,
      "Ġand": 285,
      "as": 286,
      "Ġof": 287,
      "ĠI": 288,
      "om": 289,
      "ic": 290,
      "Ġl": 291,
      "Ġn": 292,
      "ion": 293,
      "ll": 294,
      "Ġg": 295,
      "et": 296,
      "st": 297,
      "ve": 298,
      "Ġe": 299,
      "Ġy": 300,
      "Ġre": 301,
      "ly": 302,
      "ot": 303,
      "ow": 304,
      "ct": 305,
      "ent": 306,
      "Ġis": 307,
      "Ġbe": 308,
      "id": 309,
      "Ġyou": 310,
      "ut": 311,
      "se": 312,
      "Ġit": 313,
      "Ġu": 314,
      "ĠĠĠ": 315,
      "ro": 316,
      "ĠĠĠĠĠĠĠĠ": 317,
      "im": 318,
      "Ġon": 319,
      "Ġthat": 320,
      "ay": 321,
      "ad": 322,
      "Ġhe": 323,
      "am": 324,
      "Ġ\"": 325,
      "Ġfor": 326,
      "âĢ": 327,
      "ld": 328,
      "ac": 329,
      "ver": 330,
      "ig": 331,
      "ĠT": 332,
      "Ġst": 333,
      "ith": 334,
      "ĠS": 335,
      "if": 336,
      "ke": 337,
      "Ġha": 338,
      "Ġwh": 339,
      "ĠA": 340,
      "Ġwith": 341,
      "Ġan": 342,
      "oo": 343,
      "Ġwe": 344,
      "ce": 345,
      "out": 346,
      "ur": 347,
      "ir": 348,
      "Ġas": 349,
      "ch": 350,
      "Ġ(": 351,
      "ation": 352,
      "ter": 353,
      "il": 354,
      "ĠC": 355,
      "Ġwas": 356,
      "'s": 357,
      "ht": 358,
      "Ġthis": 359,
      "Ġr": 360,
      "ag": 361,
      "Ġse": 362,
      "pe": 363,
      "ate": 364,
      "ill": 365,
      "ol": 366,
      "her": 367,
      "ould": 368,
      "ri": 369,
      "em": 370,
      "ĠM": 371,
      "ul": 372,
      "ab": 373,
      "pp": 374,
      "Ġnot": 375,
      "Ġcon": 376,
      "Ġhave": 377,
      "un": 378,
      "ore": 379,
      "Ġ1": 380,
      "ĠĠĠĠĠĠĠ": 381,
      "Ġne": 382,
      "Ġare": 383,
      "Ġdo": 384,
      "Ġat": 385,
      "est": 386,
      "od": 387,
      ".\"": 388,
      "um": 389,
      "us": 390,
      "Ġv": 391,
      "ain": 392,
      "th": 393,
      "ĠB": 394,
      "Ġcom": 395,
      "Ġde": 396,
      "qu": 397,
      "ust": 398,
      "ĠH": 399,
      "ers": 400,
      "Ġbut": 401,
      "'t": 402,
      "Ġpro": 403,
      "Ġor": 404,
      "ess": 405,
      "Ġex": 406,
      "ant": 407,
      "rom": 408,
      "Ġk": 409,
      "ist": 410,
      "Ġ=": 411,
      "Ġj": 412,
      "ĠP": 413,
      "Ġsh": 414,
      "el": 415,
      "ight": 416,
      "--": 417,
      "op": 418,
      "Ġli": 419,
      "ĠW": 420,
      "Ġso": 421,
      "âĢĻ": 422,
      "nt": 423,
      "ĊĊ": 424,
      "ally": 425,
      "Ġ2": 426,
      "ĠThe": 427,
      "Ġme": 428,
      "Ġcan": 429,
      "Ġmy": 430,
      "and": 431,
      "..": 432,
      "ome": 433,
      "ĠD": 434,
      "Ġal": 435,
      "Ġsu": 436,
      "os": 437,
      "res": 438,
      "art": 439,
      "our": 440,
      "ame": 441,
      "Ġ-": 442,
      "Ġfrom": 443,
      "00": 444,
      "ack": 445,
      "ie": 446,
      "ort": 447,
      "Ġab": 448,
      "Ġch": 449,
      "all": 450,
      "ap": 451,
      "ĠL": 452,
      "Ġle": 453,
      "Ġhis": 454,
      "ĊĠĠĠ": 455,
      "ive": 456,
      "Ġtr": 457,
      "ĠF": 458,
      "ĠR": 459,
      "Ġall": 460,
      "Ġwhe": 461,
      "oc": 462,
      "Ġwor": 463,
      "ment": 464,
      "ity": 465,
      "ĠN": 466,
      "ook": 467,
      "ect": 468,
      "ind": 469,
      "Ġby": 470,
      "ard": 471,
      "pt": 472,
      "one": 473,
      "Ġus": 474,
      "oug": 475,
      "Ġup": 476,
      "act": 477,
      "Ġif": 478,
      "red": 479,
      "Ġlike": 480,
      "ĊĠĠĠĠĠĠĠĠ": 481,
      "te": 482,
      "Ġout": 483,
      "ĠG": 484,
      "pl": 485,
      "ĠE": 486,
      "iv": 487,
      "Ġthey": 488,
      "ak": 489,
      "ue": 490,
      "Ġyour": 491,
      "ine": 492,
      "Ġget": 493,
      "ost": 494,
      "Ġpl": 495,
      "ge": 496,
      "ide": 497,
      "ĠO": 498,
      "Ġgo": 499,
      "Ġcl": 500,
      "age": 501,
      "ies": 502,
      "ound": 503,
      "very": 504,
      "Ġjust": 505,
      "ast": 506,
      "Ġwill": 507,
      "Ġone": 508,
      "Ġkn": 509,
      "ass": 510,
      ");": 511,
      "ime": 512,
      "**": 513,
      "Ġher": 514,
      "Ġwould": 515,
      "ich": 516,
      "ud": 517,
      "Ġsome": 518,
      "able": 519,
      "ake": 520,
      "ile": 521,
      "Ġthere": 522,
      "Ġany": 523,
      "The": 524,
      "au": 525,
      "ong": 526,
      "Ġabout": 527,
      "ure": 528,
      "âĢľ": 529,
      "//": 530,
      "ink": 531,
      "ther": 532,
      "Ġhas": 533,
      "ice": 534,
      "Ġwhat": 535,
      "âĢĿ": 536,
      "ĠJ": 537,
      "ff": 538,
      "to": 539,
      "ction": 540,
      "iz": 541,
      "are": 542,
      "ase": 543,
      "per": 544,
      "ough": 545,
      "ple": 546,
      "Ġar": 547,
      "Ġad": 548,
      "Ġknow": 549,
      "og": 550,
      "ĊĠĠĠĠĠĠĠ": 551,
      "av": 552,
      "Ġhad": 553,
      "Ġ{": 554,
      "ood": 555,
      "Ġfe": 556,
      "Ġmore": 557,
      "Ġwhen": 558,
      "ks": 559,
      "ated": 560,
      "Ġqu": 561,
      "ub": 562,
      "ble": 563,
      "Ġte": 564,
      "ult": 565,
      "ous": 566,
      "Ġim": 567,
      "int": 568,
      "ite": 569,
      "ace": 570,
      "Ġi": 571,
      "Ġ<": 572,
      "xt": 573,
      ").": 574,
      "so": 575,
      "Ġen": 576,
      "cl": 577,
      "hat": 578,
      "Ġhim": 579,
      "Ġwho": 580,
      "ial": 581,
      "Ġ3": 582,
      "Ġthem": 583,
      "Ġsa": 584,
      "ry": 585,
      "hing": 586,
      "orm": 587,
      "ans": 588,
      "Ġwhich": 589,
      "Ġshe": 590,
      "'m": 591,
      "=\"": 592,
      "con": 593,
      "Ġno": 594,
      "Ġwere": 595,
      "ĠĠĠĠĠĠĠĠĠĠĠĠĠĠĠĠ": 596,
      "ions": 597,
      "Ġtime": 598,
      "Ġwant": 599,
      "ĊĠ": 600,
      "com": 601,
      "Ġ$": 602,
      "ep": 603,
      "Ġother": 604,
      "own": 605,
      "Ġ*": 606,
      "ven": 607,
      "ear": 608,
      "ick": 609,
      "ck": 610,
      "ĠU": 611,
      "ose": 612,
      "Ġman": 613,
      "Ġgr": 614,
      "ere": 615,
      "urn": 616,
      "Ġag": 617,
      "ause": 618,
      "Ġres": 619,
      "Ġtheir": 620,
      "Ġdon": 621,
      "ra": 622,
      "Ġcont": 623,
      "ays": 624,
      "ip": 625,
      "Ġ0": 626,
      "Ġun": 627,
      "Ġhow": 628,
      "ire": 629,
      "ĠIt": 630,
      "Ġ[": 631,
      "Ġwork": 632,
      "ber": 633,
      "Ġbeen": 634,
      "ail": 635,
      "ove": 636,
      "Ġam": 637,
      "Ġ'": 638,
      "Ġ+": 639,
      "Ġsc": 640,
      "Ġbec": 641,
      "ang": 642,
      "ance": 643,
      "cc": 644,
      "reat": 645,
      "Ġlook": 646,
      "Ġpe": 647,
      "Ġnew": 648,
      "Ġpr": 649,
      "ress": 650,
      "ĠY": 651,
      "Ġcould": 652,
      "Ġthan": 653,
      "ory": 654,
      "----": 655,
      "Ġdid": 656,
      "his": 657,
      "Ġover": 658,
      "Ġinto": 659,
      "Ġneed": 660,
      "ach": 661,
      "ign": 662,
      "Ġthink": 663,
      "ings": 664,
      "Ġdis": 665,
      "Ġback": 666,
      "Ġ}": 667,
      "ord": 668,
      "ary": 669,
      "ĠK": 670,
      "lf": 671,
      "Ġthen": 672,
      "Ġoff": 673,
      "Ġonly": 674,
      "end": 675,
      "ru": 676,
      "itt": 677,
      "ople": 678,
      "irst": 679,
      "port": 680,
      "Ġper": 681,
      "Ġcomp": 682,
      "ree": 683,
      "Ġpre": 684,
      "ode": 685,
      "Ġsee": 686,
      "lic": 687,
      "Ġuse": 688,
      "?\"": 689,
      "ia": 690,
      "ull": 691,
      "ject": 692,
      "Ġapp": 693,
      "get": 694,
      "fter": 695,
      "ount": 696,
      "01": 697,
      "ens": 698,
      "tr": 699,
      "ty": 700,
      "Ġtw": 701,
      "Ġsaid": 702,
      "ĠHe": 703,
      "Ġbecause": 704,
      "ata": 705,
      "Ġ4": 706,
      "ical": 707,
      "Ġsp": 708,
      "Ġpeople": 709,
      "ations": 710,
      "Ġalso": 711,
      "du": 712,
      "...": 713,
      "Ġnow": 714,
      "ence": 715,
      "Ġpart": 716,
      "nder": 717,
      "Ġway": 718,
      "vel": 719,
      "ild": 720,
      "we": 721,
      "Ġevery": 722,
      "omet": 723,
      "form": 724,
      "ob": 725,
      "fere": 726,
      "Ġbet": 727,
      "Ġdoes": 728,
      "ĠIn": 729,
      "vers": 730,
      "Ġspe": 731,
      "ĠV": 732,
      "Ġshould": 733,
      "li": 734,
      "de": 735,
      "gr": 736,
      "Ġyear": 737,
      "ĠâĢľ": 738,
      "Ġbl": 739,
      "ne": 740,
      "hed": 741,
      "'re": 742,
      "iew": 743,
      "ĠĠĠĠĠ": 744,
      "ov": 745,
      "ft": 746,
      "Ġfirst": 747,
      "Ġbr": 748,
      "Ġser": 749,
      "),": 750,
      "Ġ5": 751,
      "Ġreally": 752,
      "ents": 753,
      "fore": 754,
      "ition": 755,
      "Ġpo": 756,
      "uch": 757,
      "Ġgood": 758,
      "Ġro": 759,
      "Ġhere": 760,
      "ĊĠĠĠĠĠĠĠĠĠĠĠ": 761,
      "Ġright": 762,
      "Ġmake": 763,
      "ade": 764,
      "ell": 765,
      "other": 766,
      "ath": 767,
      "Ġour": 768,
      "Ġthr": 769,
      "Ġtoo": 770,
      "Ġread": 771,
      "ps": 772,
      "oy": 773,
      "ĉĉ": 774,
      "Ġwr": 775,
      "ious": 776,
      "Ġeven": 777,
      "Ġvery": 778,
      "ors": 779,
      "Ġtwo": 780,
      "Ġset": 781,
      "Ġbu": 782,
      "ting": 783,
      "ock": 784,
      "Ġadd": 785,
      "Ġact": 786,
      "Ġdown": 787,
      "Ġdif": 788,
      "Ġmuch": 789,
      "</": 790,
      "Ġsm": 791,
      "Ġafter": 792,
      "Ġke": 793,
      "'ve": 794,
      "Ġsomet": 795,
      "self": 796,
      "ning": 797,
      "ark": 798,
      "be": 799,
      "Ġgoing": 800,
      "ĠĊ": 801,
      "In": 802,
      "oll": 803,
      "Ġwhere": 804,
      "()": 805,
      "Ġret": 806,
      "Ġagain": 807,
      "Ġunder": 808,
      "Ġwell": 809,
      "Ġgu": 810,
      "iss": 811,
      "bs": 812,
      "Ġfl": 813,
      "ys": 814,
      "old": 815,
      "Ġfun": 816,
      "Ġstart": 817,
      "://": 818,
      "Ġthese": 819,
      "read": 820,
      "Ġcomm": 821,
      "Ġmay": 822,
      "Ġsay": 823,
      "Ġtry": 824,
      "Ġclass": 825,
      "Ġhel": 826,
      "\",": 827,
      "Ġinst": 828,
      "Ġgot": 829,
      "Ġval": 830,
      "Ġbook": 831,
      "Ġdes": 832,
      "Ġplay": 833,
      "ish": 834,
      "ex": 835,
      "ĠCh": 836,
      "ange": 837,
      "the": 838,
      "Ġits": 839,
      "ool": 840,
      "Ġdef": 841,
      "Ġbefore": 842,
      "ows": 843,
      "Ġusing": 844,
      "ont": 845,
      "ond": 846,
      "wn": 847,
      "ually": 848,
      "Ġrem": 849,
      "Ġcall": 850,
      "atch": 851,
      "pect": 852,
      "It": 853,
      "ize": 854,
      "Ġhand": 855,
      "Ġstill": 856,
      "Ġstr": 857,
      "lect": 858,
      "ĠSt": 859,
      "ual": 860,
      "ci": 861,
      "ces": 862,
      "Ġpos": 863,
      "igh": 864,
      "ER": 865,
      "==": 866,
      "yst": 867,
      "Ġend": 868,
      "ater": 869,
      "Ġsomething": 870,
      ".âĢĿ": 871,
      "ĠThis": 872,
      "ought": 873,
      "thing": 874,
      "Ġmost": 875,
      "Ġthrough": 876,
      "Ġrec": 877,
      "ict": 878,
      "ert": 879,
      "ener": 880,
      "Ġem": 881,
      "ah": 882,
      "Ġbeing": 883,
      "Ġfind": 884,
      "Ġdiffere": 885,
      "ms": 886,
      "Ġsame": 887,
      "oth": 888,
      "ates": 889,
      "Ġhelp": 890,
      "ons": 891,
      "Ġacc": 892,
      "alk": 893,
      "ix": 894,
      "Ġfeel": 895,
      "ific": 896,
      "ise": 897,
      "Ġass": 898,
      "Ġrun": 899,
      "way": 900,
      "Ġlong": 901,
      "ib": 902,
      "ave": 903,
      "Ġlet": 904,
      "les": 905,
      "ublic": 906,
      "han": 907,
      "Ġche": 908,
      "ily": 909,
      "clud": 910,
      "ian": 911,
      "ng": 912,
      "ype": 913,
      "up": 914,
      "Ġinter": 915,
      "ars": 916,
      "Ġcol": 917,
      "aking": 918,
      "You": 919,
      "ating": 920,
      "pro": 921,
      "err": 922,
      "Ġ6": 923,
      "ible": 924,
      "ystem": 925,
      "Ġreturn": 926,
      "ife": 927,
      "Ġhapp": 928,
      "cri": 929,
      "cept": 930,
      "cess": 931,
      "Ġrel": 932,
      "vent": 933,
      "ĠYou": 934,
      "tp": 935,
      "ittle": 936,
      "ving": 937,
      "hen": 938,
      "ince": 939,
      "ss": 940,
      "ĠIf": 941,
      "cre": 942,
      "Ġchar": 943,
      "put": 944,
      "Ġ:": 945,
      "ax": 946,
      "pen": 947,
      "pr": 948,
      "Ġmod": 949,
      "Ġcons": 950,
      "Ġ.": 951,
      "IN": 952,
      "__": 953,
      "Ġsupp": 954,
      "but": 955,
      "\">": 956,
      "ful": 957,
      "ww": 958,
      "Ġgreat": 959,
      "Ġph": 960,
      "ew": 961,
      "Ġmet": 962,
      "Ġpoint": 963,
      "Ġsim": 964,
      "Ġob": 965,
      "ĠBut": 966,
      "'ll": 967,
      "Ġ&": 968,
      "ĠAnd": 969,
      "ĠâĢ": 970,
      "ative": 971,
      "Ġproble": 972,
      "Ġsl": 973,
      "Ġlittle": 974,
      "ph": 975,
      "Ġinte": 976,
      "ug": 977,
      "Ġtake": 978,
      "Ġmany": 979,
      "Ġused": 980,
      "Ġthose": 981,
      "Ġseem": 982,
      "str": 983,
      "ec": 984,
      "Ġaround": 985,
      "ĠWe": 986,
      "Ġatt": 987,
      "Ġdidn": 988,
      "Ġreg": 989,
      "ced": 990,
      "10": 991,
      "hes": 992,
      "Ġac": 993,
      "ĊĠĠĠĠĠ": 994,
      "ues": 995,
      "Ġcr": 996,
      "day": 997,
      "Ġbel": 998,
      "Ġdata": 999,
      "uck": 1000,
      "ased": 1001,
      "Ġ201": 1002,
      "Ġfin": 1003,
      "Ġ/": 1004,
      "What": 1005,
      "Ġlast": 1006,
      "Ġcur": 1007,
      "oad": 1008,
      "Ġnum": 1009,
      "ever": 1010,
      "ied": 1011,
      "Ġwhile": 1012,
      "ward": 1013,
      "Ġmade": 1014,
      "mer": 1015,
      "ments": 1016,
      "--------": 1017,
      "Ġlot": 1018,
      "Ġco": 1019,
      "cond": 1020,
      "owing": 1021,
      "Ġyears": 1022,
      "ody": 1023,
      "Ġown": 1024,
      "Ġint": 1025,
      "Ġthings": 1026,
      "Ġdifferent": 1027,
      "Ġfunction": 1028,
      "!\"": 1029,
      "erson": 1030,
      "led": 1031,
      "ower": 1032,
      "imes": 1033,
      "ox": 1034,
      "aw": 1035,
      "Ġlist": 1036,
      "ular": 1037,
      "ON": 1038,
      "riend": 1039,
      "Ġent": 1040,
      "its": 1041,
      "Ġfoll": 1042,
      "Ġ_": 1043,
      "val": 1044,
      "Ġel": 1045,
      "Ġnever": 1046,
      "Ġvar": 1047,
      "nce": 1048,
      "ork": 1049,
      "ĊĊĠĠĠ": 1050,
      "ved": 1051,
      "Ġreal": 1052,
      "Ġmin": 1053,
      "ote": 1054,
      "(\"": 1055,
      "Ġput": 1056,
      "ways": 1057,
      "Ġ10": 1058,
      "ics": 1059,
      "Ġname": 1060,
      "Ġeach": 1061,
      "ead": 1062,
      "rent": 1063,
      "ield": 1064,
      "Ġfr": 1065,
      "io": 1066,
      "lease": 1067,
      "Ġ7": 1068,
      "Ġtri": 1069,
      "akes": 1070,
      "Ġsuch": 1071,
      "ween": 1072,
      "Ġday": 1073,
      "Ġsub": 1074,
      "ages": 1075,
      "sh": 1076,
      "Ġdec": 1077,
      "vice": 1078,
      "This": 1079,
      "',": 1080,
      "app": 1081,
      "Ġquest": 1082,
      "St": 1083,
      "Ġ\\": 1084,
      "Ġins": 1085,
      "Ġsure": 1086,
      "Ġmon": 1087,
      "Ġhead": 1088,
      "Ġspec": 1089,
      "air": 1090,
      "ather": 1091,
      "erm": 1092,
      "Ġfound": 1093,
      "olog": 1094,
      "ient": 1095,
      "Ġ8": 1096,
      "Ġcre": 1097,
      "Ġ//": 1098,
      "Ġlove": 1099,
      "ef": 1100,
      "Ġthing": 1101,
      "ample": 1102,
      "Ġstud": 1103,
      "ason": 1104,
      "Ġbetter": 1105,
      "Ġbetween": 1106,
      "Ġ|": 1107,
      "ident": 1108,
      "Ġfew": 1109,
      "ility": 1110,
      "Ġdoesn": 1111,
      "rest": 1112,
      "Ġboth": 1113,
      "tern": 1114,
      "Ġcor": 1115,
      "11": 1116,
      "Ġrequ": 1117,
      "der": 1118,
      "Ġinv": 1119,
      "Ġconf": 1120,
      "ically": 1121,
      "ery": 1122,
      "gg": 1123,
      "ĠĠĠĠĠĠĠĠĠĠĠ": 1124,
      "Ġx": 1125,
      "He": 1126,
      "amp": 1127,
      "Ġsur": 1128,
      "20": 1129,
      "Ġcode": 1130,
      "ĊĠĠĠĠĠĠĠĠĠĠĠĠĠĠĠ": 1131,
      "Ġlife": 1132,
      "arch": 1133,
      "Ġap": 1134,
      "br": 1135,
      "Ġwithout": 1136,
      "Ġfile": 1137,
      "Ġask": 1138,
      "olut": 1139,
      "Ġtrans": 1140,
      "Ġbit": 1141,
      "pos": 1142,
      "Ġform": 1143,
      "Ġanother": 1144,
      "'d": 1145,
      "uth": 1146,
      "Ġfact": 1147,
      "We": 1148,
      "ames": 1149,
      "oup": 1150,
      "Ġet": 1151,
      "ny": 1152,
      "als": 1153,
      "Ġtest": 1154,
      "AT": 1155,
      "Ġwhy": 1156,
      "az": 1157,
      "ml": 1158,
      "ves": 1159,
      "Ġthought": 1160,
      "Ġproblem": 1161,
      "ĠShe": 1162,
      "ner": 1163,
      "Ġcome": 1164,
      ",\"": 1165,
      "Ġprodu": 1166,
      "Ġsince": 1167,
      "Ġgener": 1168,
      "Ġsecond": 1169,
      "any": 1170,
      "Ġgl": 1171,
      "Ġinclud": 1172,
      "oot": 1173,
      "Ġalways": 1174,
      "ash": 1175,
      "ope": 1176,
      "hod": 1177,
      "Ġperson": 1178,
      "ably": 1179,
      "Ġhigh": 1180,
      "irect": 1181,
      "Ġvalue": 1182,
      "text": 1183,
      "Ġpres": 1184,
      "ton": 1185,
      "ST": 1186,
      "ared": 1187,
      "Ġkeep": 1188,
      "Ġsystem": 1189,
      "Ġdet": 1190,
      "Ġwee": 1191,
      "ense": 1192,
      "ruct": 1193,
      "ures": 1194,
      "set": 1195,
      "Ġeff": 1196,
      "Ġmight": 1197,
      "Ġgiv": 1198,
      ",âĢĿ": 1199,
      "Ġfil": 1200,
      "div": 1201,
      "->": 1202,
      "000": 1203,
      "ĠSo": 1204,
      "Ġturn": 1205,
      "Ġnext": 1206,
      "cy": 1207,
      "12": 1208,
      "pend": 1209,
      "Ġhard": 1210,
      "Ġopen": 1211,
      "ger": 1212,
      "Ġ9": 1213,
      "Ġtell": 1214,
      "here": 1215,
      "oid": 1216,
      "Ġresult": 1217,
      "Ġfriend": 1218,
      "ern": 1219,
      "cript": 1220,
      "****": 1221,
      "dd": 1222,
      "RE": 1223,
      "Ġbest": 1224,
      "Ġgame": 1225,
      "less": 1226,
      "ities": 1227,
      "Ġcle": 1228,
      "view": 1229,
      "Ġey": 1230,
      "Ġcase": 1231,
      "))": 1232,
      "hy": 1233,
      "uring": 1234,
      "Ġposs": 1235,
      "Ġshow": 1236,
      "Ġpublic": 1237,
      "ale": 1238,
      "Ġcar": 1239,
      "ribut": 1240,
      "ray": 1241,
      "Ġcount": 1242,
      "Ġeas": 1243,
      "Ġtrying": 1244,
      "();": 1245,
      "ren": 1246,
      "Ġcomple": 1247,
      "ĠAl": 1248,
      "uff": 1249,
      "Ġold": 1250,
      "ource": 1251,
      "Ġiss": 1252,
      "Ġ19": 1253,
      "ĠUn": 1254,
      "Ġgive": 1255,
      "Ġbig": 1256,
      "Ġide": 1257,
      "ank": 1258,
      "Ġkind": 1259,
      "ins": 1260,
      "ts": 1261,
      "na": 1262,
      "ited": 1263,
      "und": 1264,
      "Ċĉ": 1265,
      "Ġexper": 1266,
      "ters": 1267,
      "Ġworld": 1268,
      "velop": 1269,
      "Ġdoing": 1270,
      "::": 1271,
      "nect": 1272,
      "stand": 1273,
      "ĠX": 1274,
      "Ċĉĉ": 1275,
      "Ġtalk": 1276,
      "Ġcharact": 1277,
      "ee": 1278,
      "not": 1279,
      "Ġpol": 1280,
      "Ġmean": 1281,
      "Ġsmall": 1282,
      "ĠThey": 1283,
      "Ġthough": 1284,
      "Ġactually": 1285,
      "ator": 1286,
      "ouse": 1287,
      "Ġprov": 1288,
      "Ġpass": 1289,
      "Ġelse": 1290,
      "press": 1291,
      "Ġear": 1292,
      "ĠRe": 1293,
      "AR": 1294,
      "Ġsign": 1295,
      "Ġnumber": 1296,
      "line": 1297,
      "iting": 1298,
      "ik": 1299,
      "Ġpost": 1300,
      "ices": 1301,
      "ines": 1302,
      "ok": 1303,
      "\":": 1304,
      "Ġmem": 1305,
      "('": 1306,
      "ready": 1307,
      "Ġaway": 1308,
      "Ġdist": 1309,
      "Re": 1310,
      "ument": 1311,
      "Ġmat": 1312,
      "of": 1313,
      "Ġstate": 1314,
      "Ġprob": 1315,
      "Ġloc": 1316,
      "Ġtype": 1317,
      "EN": 1318,
      "ream": 1319,
      "Ġdr": 1320,
      "http": 1321,
      "Ġstory": 1322,
      "Ġfam": 1323,
      "par": 1324,
      "aug": 1325,
      "Ġerr": 1326,
      "ĠWhat": 1327,
      "Ġinterest": 1328,
      "Ġcour": 1329,
      "ĠAs": 1330,
      "Ġfar": 1331,
      "Ġanything": 1332,
      "ump": 1333,
      "Ġable": 1334,
      "Ġinf": 1335,
      "Than": 1336,
      "ier": 1337,
      "org": 1338,
      "ĠHow": 1339,
      "ized": 1340,
      "Ġline": 1341,
      "ĠThere": 1342,
      "Ġpat": 1343,
      "ĠĠĠĠĠĠ": 1344,
      "eah": 1345,
      "Ġthree": 1346,
      "If": 1347,
      "man": 1348,
      "ret": 1349,
      "ets": 1350,
      "rol": 1351,
      "IT": 1352,
      "atic": 1353,
      "eng": 1354,
      "OR": 1355,
      "Ġconst": 1356,
      "tring": 1357,
      "ined": 1358,
      "Ġenough": 1359,
      "Ġmain": 1360,
      "Ġed": 1361,
      "Ġplace": 1362,
      "ness": 1363,
      "Ġmov": 1364,
      "Ġlooking": 1365,
      "Ġgetting": 1366,
      "ired": 1367,
      "Ġpar": 1368,
      "Ġsupport": 1369,
      "Ġcare": 1370,
      "AN": 1371,
      "Ġalready": 1372,
      "arent": 1373,
      "Ġhappen": 1374,
      "Ġtop": 1375,
      "Ġav": 1376,
      "Ġchange": 1377,
      "Ġagainst": 1378,
      "formation": 1379,
      "HE": 1380,
      "Ġopt": 1381,
      "LE": 1382,
      "Ġbuild": 1383,
      "chool": 1384,
      "Ġsomeone": 1385,
      "version": 1386,
      "Ġsk": 1387,
      "Ġht": 1388,
      "ider": 1389,
      "Ġdone": 1390,
      "And": 1391,
      "gin": 1392,
      "Ġresp": 1393,
      "Ġleft": 1394,
      "work": 1395,
      "Ġcurrent": 1396,
      "Ġexpl": 1397,
      "gram": 1398,
      "Ġimport": 1399,
      "ĠTh": 1400,
      "Ġhome": 1401,
      "Ġchang": 1402,
      "But": 1403,
      "Ġunt": 1404,
      "Ġ20": 1405,
      "Ġbelie": 1406,
      "ither": 1407,
      "ling": 1408,
      "Ġmonth": 1409,
      "Ġquestion": 1410,
      "Ġ@": 1411,
      "Ġcou": 1412,
      "ross": 1413,
      "fr": 1414,
      "me": 1415,
      "Ġchild": 1416,
      "ately": 1417,
      "Ġz": 1418,
      "ational": 1419,
      "Ġdevelop": 1420,
      "name": 1421,
      "ĠThat": 1422,
      "vious": 1423,
      "usic": 1424,
      "Ġsw": 1425,
      "Ġ</": 1426,
      "Ġunderstand": 1427,
      "pped": 1428,
      "Ġbeh": 1429,
      "Con": 1430,
      "ĠIs": 1431,
      "for": 1432,
      "Ġdisc": 1433,
      "ault": 1434,
      "Ġstand": 1435,
      "Ġmethod": 1436,
      "Ġhaving": 1437,
      "15": 1438,
      "Ġâ": 1439,
      "ature": 1440,
      "alth": 1441,
      "yn": 1442,
      "Ġword": 1443,
      "ĠTr": 1444,
      "yp": 1445,
      "ĠĠĠĠĠĠĠĠĠĠĠĠĠĠĠĠĠĠĠĠĠĠĠĠĠĠĠĠĠĠĠĠ": 1446,
      "ĠFor": 1447,
      "Ġprocess": 1448,
      "sw": 1449,
      "Ġexpect": 1450,
      "ted": 1451,
      "Ġbre": 1452,
      "ience": 1453,
      "Pro": 1454,
      "ten": 1455,
      "ement": 1456,
      "ards": 1457,
      "Ġpret": 1458,
      "Ġmust": 1459,
      "roll": 1460,
      "Ġfull": 1461,
      "How": 1462,
      "====": 1463,
      "sp": 1464,
      "16": 1465,
      "ĠMy": 1466,
      "SE": 1467,
      "Ġext": 1468,
      "ify": 1469,
      "ute": 1470,
      "Ġmed": 1471,
      "Ġwar": 1472,
      "Ex": 1473,
      "Ġworking": 1474,
      "hip": 1475,
      "sc": 1476,
      "ivers": 1477,
      "Ġref": 1478,
      "Ġpri": 1479,
      "ided": 1480,
      "Ġexample": 1481,
      "ID": 1482,
      "ĠAr": 1483,
      "add": 1484,
      "comm": 1485,
      "med": 1486,
      "uss": 1487,
      "ware": 1488,
      "Ġdri": 1489,
      "ext": 1490,
      "Ġcheck": 1491,
      "ĠDe": 1492,
      "oh": 1493,
      "ava": 1494,
      "Âł": 1495,
      "Ġpretty": 1496,
      "Ġlar": 1497,
      "Ġ#": 1498,
      "ird": 1499,
      "Ġdirect": 1500,
      "ention": 1501,
      "Ġever": 1502,
      "Ġappro": 1503,
      "ĠQ": 1504,
      "19": 1505,
      "].": 1506,
      "kay": 1507,
      "roid": 1508,
      "Ġrep": 1509,
      "32": 1510,
      "Ġwa": 1511,
      "oint": 1512,
      "Ġeyes": 1513,
      "ĠSh": 1514,
      "Ġev": 1515,
      "Ġ--": 1516,
      "Ġele": 1517,
      "ĊĠĠ": 1518,
      "Ġmom": 1519,
      "iter": 1520,
      "cent": 1521,
      "50": 1522,
      "Ġuntil": 1523,
      "Ġwom": 1524,
      "Ġ200": 1525,
      "Ġmess": 1526,
      "AL": 1527,
      "Ġbad": 1528,
      "iness": 1529,
      "uc": 1530,
      "ists": 1531,
      "Ġbus": 1532,
      "ertain": 1533,
      "So": 1534,
      "Ġprobably": 1535,
      "Ġless": 1536,
      "inal": 1537,
      "ĠLet": 1538,
      "cial": 1539,
      "Ġ,": 1540,
      "Ġface": 1541,
      "Ġlead": 1542,
      "ym": 1543,
      "Ch": 1544,
      "rap": 1545,
      "Ġbas": 1546,
      "Ġplan": 1547,
      "Ġside": 1548,
      "www": 1549,
      "Ġtimes": 1550,
      "Ġind": 1551,
      "gan": 1552,
      "Ġsays": 1553,
      "Ġlevel": 1554,
      "Ġ12": 1555,
      "gs": 1556,
      "Ġteam": 1557,
      "ĊĊĠ": 1558,
      "Ġobject": 1559,
      "ality": 1560,
      "ains": 1561,
      "Ġcontin": 1562,
      "Ġleast": 1563,
      "els": 1564,
      "Ġseems": 1565,
      "Ġonce": 1566,
      "my": 1567,
      "tps": 1568,
      "Ġorder": 1569,
      "oney": 1570,
      "most": 1571,
      "play": 1572,
      "ered": 1573,
      "ĠCom": 1574,
      "Ġreport": 1575,
      "ism": 1576,
      "14": 1577,
      "?âĢĿ": 1578,
      "13": 1579,
      "Ġanyone": 1580,
      "ering": 1581,
      "Ġpartic": 1582,
      "aj": 1583,
      "aps": 1584,
      "over": 1585,
      "Ġeverything": 1586,
      "ently": 1587,
      "Ġpossible": 1588,
      "Ġsit": 1589,
      "Ġrest": 1590,
      "upp": 1591,
      "Ġreason": 1592,
      "Ġtrue": 1593,
      "Ġinformation": 1594,
      "Ġfollowing": 1595,
      "ĠPro": 1596,
      "Ġnight": 1597,
      "ser": 1598,
      "Ġproper": 1599,
      "ĊĠĠĠĠ": 1600,
      "Ġfree": 1601,
      "bsp": 1602,
      "ished": 1603,
      "Let": 1604,
      "Ġhum": 1605,
      "Ġwon": 1606,
      "elt": 1607,
      "ched": 1608,
      "min": 1609,
      "Ġlear": 1610,
      "Ġworks": 1611,
      "Ġview": 1612,
      "Ð¾": 1613,
      "Ġduring": 1614,
      "Thanks": 1615,
      "bl": 1616,
      "idd": 1617,
      "Ġpur": 1618,
      "row": 1619,
      "Ġmult": 1620,
      "Ġtext": 1621,
      "Ġprot": 1622,
      "this": 1623,
      "Ġprogram": 1624,
      "Ġproject": 1625,
      "Ġmark": 1626,
      "nbsp": 1627,
      "Ġisn": 1628,
      "load": 1629,
      "Ġart": 1630,
      "bers": 1631,
      "net": 1632,
      "Ġjob": 1633,
      "Ġcalled": 1634,
      "Ġcap": 1635,
      "ases": 1636,
      "Name": 1637,
      "Ġtried": 1638,
      "Ġcame": 1639,
      "Ġmiss": 1640,
      "View": 1641,
      "Ġnothing": 1642,
      "ional": 1643,
      "30": 1644,
      "Ġpower": 1645,
      "Ġschool": 1646,
      "ush": 1647,
      "Ġwanted": 1648,
      "wh": 1649,
      "Ġsing": 1650,
      "0000": 1651,
      "Ġdays": 1652,
      "ember": 1653,
      "body": 1654,
      "Ġmakes": 1655,
      "Ġlight": 1656,
      "olution": 1657,
      "Ġself": 1658,
      "ants": 1659,
      "CT": 1660,
      "cur": 1661,
      "Ġvis": 1662,
      "by": 1663,
      "ott": 1664,
      "meric": 1665,
      "ustom": 1666,
      "gether": 1667,
      "Ġequ": 1668,
      "ides": 1669,
      "date": 1670,
      "Ġroom": 1671,
      "uthor": 1672,
      "Ġstarted": 1673,
      "ained": 1674,
      "Ġwent": 1675,
      "Ġmove": 1676,
      "iet": 1677,
      "ĠSe": 1678,
      "reen": 1679,
      "Is": 1680,
      "Ġuser": 1681,
      "Ġlog": 1682,
      "aining": 1683,
      "Ġeffect": 1684,
      "land": 1685,
      "ats": 1686,
      "Ġmaking": 1687,
      "Ġmind": 1688,
      "As": 1689,
      "ĠWh": 1690,
      "irl": 1691,
      "Ġgroup": 1692,
      "Ġconnect": 1693,
      "chn": 1694,
      "oice": 1695,
      "ised": 1696,
      "Ġes": 1697,
      "Ġcourse": 1698,
      "!!": 1699,
      "Hi": 1700,
      "Ġidea": 1701,
      "Ġversion": 1702,
      "att": 1703,
      "ology": 1704,
      "],": 1705,
      "used": 1706,
      "Ġwasn": 1707,
      "##": 1708,
      "25": 1709,
      "ric": 1710,
      "....": 1711,
      "Ġweek": 1712,
      "ES": 1713,
      "Ġtold": 1714,
      "Ġappe": 1715,
      "Ġhour": 1716,
      "(-": 1717,
      "aring": 1718,
      "ĠZ": 1719,
      "ĠBr": 1720,
      "18": 1721,
      "ccess": 1722,
      "ital": 1723,
      "Ġerror": 1724,
      "alse": 1725,
      "Ġyet": 1726,
      "ĠCl": 1727,
      "Ġid": 1728,
      "Ġcent": 1729,
      "let": 1730,
      "raw": 1731,
      "ĠÐ": 1732,
      "ma": 1733,
      "Ġpack": 1734,
      "Cl": 1735,
      "Ġtook": 1736,
      "aut": 1737,
      "son": 1738,
      "alf": 1739,
      "Ġtogether": 1740,
      "Ġsound": 1741,
      "Ġincre": 1742,
      "ches": 1743,
      "Ġadv": 1744,
      "ule": 1745,
      "cul": 1746,
      "ified": 1747,
      "Ġeither": 1748,
      "osed": 1749,
      "rect": 1750,
      "Ġkey": 1751,
      "opy": 1752,
      "ails": 1753,
      "Ġdoc": 1754,
      "back": 1755,
      "ĠAll": 1756,
      "cont": 1757,
      "Ġhold": 1758,
      "Ġcomplete": 1759,
      "ured": 1760,
      "My": 1761,
      "tend": 1762,
      "fl": 1763,
      "Ġrepl": 1764,
      "Ġaut": 1765,
      "Ġpay": 1766,
      "ĠAn": 1767,
      "To": 1768,
      "Ġhope": 1769,
      "def": 1770,
      "Ġfield": 1771,
      "Ġfamily": 1772,
      "čĊ": 1773,
      "Ġansw": 1774,
      "aster": 1775,
      "Id": 1776,
      "Ġwrong": 1777,
      "Ġpick": 1778,
      "Ġmoney": 1779,
      "Ġproduct": 1780,
      "oss": 1781,
      "Ġwhole": 1782,
      "lication": 1783,
      "ĠNew": 1784,
      "che": 1785,
      "gy": 1786,
      "Ġinstall": 1787,
      "ctions": 1788,
      "Ġperform": 1789,
      "joy": 1790,
      "Ġkill": 1791,
      "Ġmar": 1792,
      "ĊĠĠĠĠĠĠĠĠĠĠĠĠĠĠĠĠ": 1793,
      "ĠAmeric": 1794,
      "Ġcommun": 1795,
      "Ġ)": 1796,
      "Ġpage": 1797,
      "17": 1798,
      "ully": 1799,
      "OM": 1800,
      "Ġdem": 1801,
      "ization": 1802,
      "ask": 1803,
      "No": 1804,
      "Ġcreate": 1805,
      "Ġmen": 1806,
      "Ġsol": 1807,
      "dit": 1808,
      "bed": 1809,
      "orn": 1810,
      "Ġuh": 1811,
      "ency": 1812,
      "action": 1813,
      "ĠWhen": 1814,
      "ane": 1815,
      "201": 1816,
      "OU": 1817,
      "Ġnon": 1818,
      "illion": 1819,
      "Ġtable": 1820,
      "Ġtem": 1821,
      "For": 1822,
      "List": 1823,
      "que": 1824,
      "Ġseen": 1825,
      "ung": 1826,
      "where": 1827,
      "ref": 1828,
      "oard": 1829,
      "Ġnice": 1830,
      "Ġbelieve": 1831,
      "Ġquick": 1832,
      "itive": 1833,
      "Ġ15": 1834,
      "fect": 1835,
      "right": 1836,
      "lay": 1837,
      "64": 1838,
      "Ġrunning": 1839,
      "Ġimportant": 1840,
      "Ġalmost": 1841,
      "aces": 1842,
      "String": 1843,
      "Ġclear": 1844,
      "Ġinc": 1845,
      "IC": 1846,
      "âĢ¦": 1847,
      "Ġrece": 1848,
      "head": 1849,
      "ision": 1850,
      "ned": 1851,
      "Ġsugg": 1852,
      "use": 1853,
      "rop": 1854,
      "Ġsuggest": 1855,
      "fe": 1856,
      "----------------": 1857,
      "ories": 1858,
      "Ġokay": 1859,
      "ĠNo": 1860,
      "ĊĠĠĠĠĠĠĠĠĠĠĠĠĠĠĠĠĠĠĠ": 1861,
      "Ġcontrol": 1862,
      "Ġdefin": 1863,
      "Ġfore": 1864,
      "Ġwind": 1865,
      "LL": 1866,
      "Ġshort": 1867,
      "Ġfour": 1868,
      "Ġinde": 1869,
      "Ġquite": 1870,
      "ilar": 1871,
      "ape": 1872,
      "fort": 1873,
      "Ġpast": 1874,
      "Ġissue": 1875,
      "time": 1876,
      "Ġsize": 1877,
      "ference": 1878,
      "...\"": 1879,
      "That": 1880,
      "Com": 1881,
      "ler": 1882,
      "ged": 1883,
      "Ġstop": 1884,
      "data": 1885,
      "side": 1886,
      "ĠTHE": 1887,
      "Ġtoday": 1888,
      ".,": 1889,
      "Ġ18": 1890,
      "Ġinstead": 1891,
      "erv": 1892,
      "Ġoper": 1893,
      "arget": 1894,
      "onse": 1895,
      "ĊĊĠĠĠĠĠĠĠ": 1896,
      "Ġclose": 1897,
      "Ġmaybe": 1898,
      "Ġeveryone": 1899,
      "Ġmeans": 1900,
      "ailable": 1901,
      "Ġenjoy": 1902,
      "gle": 1903,
      "yle": 1904,
      "22": 1905,
      "file": 1906,
      "Ġbro": 1907,
      "Ġdi": 1908,
      "Ġgiven": 1909,
      "Ġgover": 1910,
      "oved": 1911,
      "ED": 1912,
      "Ġaccess": 1913,
      "Ġcharacter": 1914,
      "IS": 1915,
      "There": 1916,
      "99": 1917,
      "Ġmulti": 1918,
      "Ġfine": 1919,
      "Ġpop": 1920,
      "eter": 1921,
      "igure": 1922,
      "Cont": 1923,
      "Ġdiv": 1924,
      "ĊĠĠĠĠĠĠĠĠĠĠĠĠĠĠĠĠĠĠĠĠĠĠĠĠ": 1925,
      "ache": 1926,
      "outh": 1927,
      "Ġopp": 1928,
      "Ġ*/": 1929,
      "Ġpull": 1930,
      "onna": 1931,
      "Ġbreak": 1932,
      "html": 1933,
      "Ġcertain": 1934,
      "Ġlater": 1935,
      "ior": 1936,
      "Ġbody": 1937,
      "Ġlooked": 1938,
      "Ġevent": 1939,
      "Ġfelt": 1940,
      "Ġwater": 1941,
      "umn": 1942,
      "Ġbased": 1943,
      "oes": 1944,
      "ike": 1945,
      "Ġcell": 1946,
      "ina": 1947,
      "Ġlink": 1948,
      "Ġfix": 1949,
      "):": 1950,
      "iversity": 1951,
      "owed": 1952,
      "ĠOr": 1953,
      "ene": 1954,
      "AM": 1955,
      "col": 1956,
      "Ġvide": 1957,
      "Ġlooks": 1958,
      "ĠFr": 1959,
      "OT": 1960,
      "Ġanal": 1961,
      "vate": 1962,
      "ux": 1963,
      "Ġetc": 1964,
      "fun": 1965,
      "iles": 1966,
      "Ġgirl": 1967,
      "face": 1968,
      "itle": 1969,
      "Ġwatch": 1970,
      "Ðµ": 1971,
      "Ġpresent": 1972,
      "ception": 1973,
      "ĠCon": 1974,
      "Ġ=>": 1975,
      "Ġdeal": 1976,
      "Ġstring": 1977,
      "Tr": 1978,
      "24": 1979,
      "Ġasked": 1980,
      "Ġhimself": 1981,
      "Ġhttp": 1982,
      "pping": 1983,
      "Ġlarge": 1984,
      "itch": 1985,
      "Ġsoft": 1986,
      "ĠUS": 1987,
      "AS": 1988,
      "Ġboy": 1989,
      "Ġprom": 1990,
      "Ġwalk": 1991,
      "ister": 1992,
      "ĠâĢĵ": 1993,
      "Ġwithin": 1994,
      "ivity": 1995,
      "ĠBl": 1996,
      "ients": 1997,
      "Ġspecific": 1998,
      "Ġbusiness": 1999,
      "Ġsn": 2000,
      "cle": 2001,
      "Ġcal": 2002,
      "ET": 2003,
      "Ġothers": 2004,
      "ĠEx": 2005,
      "Ġinvest": 2006,
      "AP": 2007,
      "ouble": 2008,
      "Ġaff": 2009,
      "Ġgonna": 2010,
      "ING": 2011,
      "Ġnear": 2012,
      "Ġbuy": 2013,
      "ron": 2014,
      "Ġsingle": 2015,
      "ength": 2016,
      "wards": 2017,
      "Ġvari": 2018,
      "Ġstuff": 2019,
      "ploy": 2020,
      "Ġserver": 2021,
      "\")": 2022,
      "Ġwin": 2023,
      "Ġfriends": 2024,
      "Ġdesign": 2025,
      "ural": 2026,
      "fully": 2027,
      "Ġgovern": 2028,
      "ĠNot": 2029,
      "Ġ>": 2030,
      "cially": 2031,
      "Ġve": 2032,
      "Ġago": 2033,
      "idth": 2034,
      "Ġlim": 2035,
      "Ġitem": 2036,
      "Ġwond": 2037,
      "key": 2038,
      "Ġeasy": 2039,
      "vert": 2040,
      "Ġmodel": 2041,
      "Ġmanag": 2042,
      "Ġplease": 2043,
      "Ġhealth": 2044,
      "Ġlow": 2045,
      "Ġcomes": 2046,
      "Ġ==": 2047,
      "ole": 2048,
      "lection": 2049,
      "Ġguys": 2050,
      "Ġsuper": 2051,
      "Ġkid": 2052,
      "ĠBe": 2053,
      "ots": 2054,
      "Type": 2055,
      "Ġstudy": 2056,
      "Ġhist": 2057,
      "Ġorig": 2058,
      "ann": 2059,
      "Ġter": 2060,
      "sel": 2061,
      "ĠAt": 2062,
      "new": 2063,
      "type": 2064,
      "Ar": 2065,
      "ĠLe": 2066,
      "Ġexp": 2067,
      "Ġcommon": 2068,
      "Ġyoung": 2069,
      "Ġseries": 2070,
      "Ġmeet": 2071,
      "Ġhouse": 2072,
      "Ġrecord": 2073,
      "ĠHowever": 2074,
      "gt": 2075,
      "Val": 2076,
      "rist": 2077,
      "ration": 2078,
      "Ġrather": 2079,
      "Ġyeah": 2080,
      "oke": 2081,
      "Ġalong": 2082,
      "Ġtechn": 2083,
      "cing": 2084,
      "import": 2085,
      "Ġhalf": 2086,
      "Ð°": 2087,
      "var": 2088,
      "iron": 2089,
      "Ġ16": 2090,
      "ohn": 2091,
      "ived": 2092,
      "Ġavailable": 2093,
      "utes": 2094,
      "ume": 2095,
      "********": 2096,
      "Ġarg": 2097,
      "Ġmoment": 2098,
      "Ġum": 2099,
      "class": 2100,
      "Ġsever": 2101,
      "Ġnet": 2102,
      "Ġtot": 2103,
      "Ġlaw": 2104,
      "Ð¸": 2105,
      "Ġfiles": 2106,
      "Ġca": 2107,
      "Ġnorm": 2108,
      "40": 2109,
      "Ġexact": 2110,
      "Ġmyself": 2111,
      "Ġabove": 2112,
      "80": 2113,
      "Ġocc": 2114,
      "Ġlive": 2115,
      "ply": 2116,
      "oud": 2117,
      "Ġtyp": 2118,
      "ĠOn": 2119,
      "Ġcouldn": 2120,
      "Ġ100": 2121,
      "Al": 2122,
      "Ġheart": 2123,
      "ĠGr": 2124,
      "Ġcompany": 2125,
      "Res": 2126,
      "ĊĊĊĊ": 2127,
      "ored": 2128,
      "co": 2129,
      "Ġcoming": 2130,
      "Ġest": 2131,
      "Ġsend": 2132,
      "ĊĠĠĠĠĠĠĠĠĠ": 2133,
      "https": 2134,
      "ives": 2135,
      "ĠCan": 2136,
      "];": 2137,
      "Ġstep": 2138,
      "Ġann": 2139,
      "Ġmonths": 2140,
      "ground": 2141,
      "Ġstrong": 2142,
      "Ġsaying": 2143,
      "Ġcorrect": 2144,
      "Ġabs": 2145,
      "Ġmor": 2146,
      "Ġreading": 2147,
      "orry": 2148,
      "Ġpress": 2149,
      "Ġconsider": 2150,
      "ND": 2151,
      "Ġpain": 2152,
      "Ġred": 2153,
      "ror": 2154,
      "ability": 2155,
      "Sh": 2156,
      "\".": 2157,
      "ctor": 2158,
      "augh": 2159,
      "Ġhands": 2160,
      "Ġlocal": 2161,
      "Ġcustom": 2162,
      "Music": 2163,
      "ried": 2164,
      "oun": 2165,
      "commend": 2166,
      "plement": 2167,
      "reg": 2168,
      "Un": 2169,
      "Ġsort": 2170,
      "abel": 2171,
      "Ġexperience": 2172,
      "Data": 2173,
      "Ġneeds": 2174,
      "irt": 2175,
      "Ġinit": 2176,
      "ajor": 2177,
      "Ġperfect": 2178,
      "Ġ30": 2179,
      "Ġport": 2180,
      "Ġfail": 2181,
      "Ġstay": 2182,
      "Ġseveral": 2183,
      "AC": 2184,
      "Ġop": 2185,
      "][": 2186,
      "ries": 2187,
      "unch": 2188,
      "ium": 2189,
      "ĠTo": 2190,
      "Ġrese": 2191,
      "Ġanswer": 2192,
      "mod": 2193,
      "ination": 2194,
      "Ġsimilar": 2195,
      "33": 2196,
      "Wh": 2197,
      "Ġinside": 2198,
      "Ġ!": 2199,
      "aken": 2200,
      "Ġ?": 2201,
      "Ġstruct": 2202,
      "Ġtra": 2203,
      "Ġfall": 2204,
      ")/": 2205,
      "Col": 2206,
      "Ġcountry": 2207,
      "Ġknew": 2208,
      "rew": 2209,
      "\");": 2210,
      "Ġguess": 2211,
      "fer": 2212,
      "Ġ%": 2213,
      "Ġoften": 2214,
      "Ġcharacters": 2215,
      "ION": 2216,
      "ential": 2217,
      "Ġsaw": 2218,
      "ift": 2219,
      "Ġexist": 2220,
      "requ": 2221,
      "pecially": 2222,
      "uation": 2223,
      "ey": 2224,
      "Ġcost": 2225,
      "Ġhig": 2226,
      "aid": 2227,
      "ĠâĪ": 2228,
      "ĠĠĠĠĠĠĠĠĠ": 2229,
      "Ġsent": 2230,
      "ging": 2231,
      "60": 2232,
      "Ġparent": 2233,
      "Ġcut": 2234,
      "Ġtaking": 2235,
      "log": 2236,
      "ral": 2237,
      "Ġ14": 2238,
      "Ġcreat": 2239,
      "duct": 2240,
      "Ġenc": 2241,
      "Ġreview": 2242,
      "Ġprof": 2243,
      "Ġbehind": 2244,
      "Ġrequest": 2245,
      "Ġresults": 2246,
      "Ġselect": 2247,
      "Ġsimple": 2248,
      "urther": 2249,
      "Ġeng": 2250,
      "string": 2251,
      "ands": 2252,
      "Ġneeded": 2253,
      "Ġgets": 2254,
      "Ġaw": 2255,
      "angu": 2256,
      "empt": 2257,
      "Ġvoid": 2258,
      "mit": 2259,
      "Ġyes": 2260,
      "Th": 2261,
      "Ġincluding": 2262,
      "ording": 2263,
      "Ġfuck": 2264,
      "When": 2265,
      "aim": 2266,
      "Ġpath": 2267,
      "cer": 2268,
      "She": 2269,
      "Ġparticular": 2270,
      "aving": 2271,
      "Ġmatter": 2272,
      "Ġguy": 2273,
      "Ġexpress": 2274,
      "word": 2275,
      "âĢĶ": 2276,
      "Ġpot": 2277,
      "atus": 2278,
      "Ġair": 2279,
      "uture": 2280,
      "leep": 2281,
      "mon": 2282,
      "Ġrecommend": 2283,
      "aper": 2284,
      "Ġdat": 2285,
      "Ġentire": 2286,
      "icle": 2287,
      "23": 2288,
      "ables": 2289,
      "Ġsum": 2290,
      "Ġsoon": 2291,
      "miss": 2292,
      "Ġrelations": 2293,
      "Ġwords": 2294,
      "ĠMay": 2295,
      "itting": 2296,
      "td": 2297,
      "arr": 2298,
      "Ġload": 2299,
      "Ġ**": 2300,
      "Ð½": 2301,
      "Ġauthor": 2302,
      "Ġcouple": 2303,
      "Ġcannot": 2304,
      "Ġacross": 2305,
      "Ġdocument": 2306,
      "Ġhuman": 2307,
      "Ġsuccess": 2308,
      "Ġdam": 2309,
      "bject": 2310,
      "Ġimage": 2311,
      "Ġsource": 2312,
      "Ġfav": 2313,
      "Ġdepend": 2314,
      "Ġspace": 2315,
      "ĠPh": 2316,
      "Ġident": 2317,
      "](": 2318,
      "Ġleg": 2319,
      "Ġwhether": 2320,
      "Ġcontent": 2321,
      "artment": 2322,
      "Ġfront": 2323,
      "ession": 2324,
      "oogle": 2325,
      "ude": 2326,
      "Ġhours": 2327,
      "Ġvideo": 2328,
      "Ġwrite": 2329,
      "ien": 2330,
      "itten": 2331,
      "oci": 2332,
      "ances": 2333,
      "top": 2334,
      "Ġant": 2335,
      "Ġaccount": 2336,
      "De": 2337,
      "using": 2338,
      "though": 2339,
      "____": 2340,
      "Ġdiff": 2341,
      "Ġ13": 2342,
      "Not": 2343,
      "uild": 2344,
      "Ġdoor": 2345,
      "Ġbegin": 2346,
      "itely": 2347,
      "Ġfoc": 2348,
      "Ġsex": 2349,
      "At": 2350,
      "Ġleave": 2351,
      "ĠInd": 2352,
      "Ġpract": 2353,
      "An": 2354,
      "Oh": 2355,
      "Ġchildren": 2356,
      "Im": 2357,
      "Ġbecome": 2358,
      "aced": 2359,
      "px": 2360,
      "ÑĤ": 2361,
      "umb": 2362,
      "Ġdue": 2363,
      "Ġwouldn": 2364,
      "Ġremember": 2365,
      "Ġbox": 2366,
      "Ġminutes": 2367,
      "Ġwomen": 2368,
      "AD": 2369,
      "Ġandroid": 2370,
      "isk": 2371,
      "fig": 2372,
      "ming": 2373,
      "Ġadded": 2374,
      "Ġ11": 2375,
      "Ġaddress": 2376,
      "oin": 2377,
      "ley": 2378,
      "ones": 2379,
      "Ġmajor": 2380,
      "unt": 2381,
      "Ġchanges": 2382,
      "acy": 2383,
      "ĠMar": 2384,
      "Ġgovernment": 2385,
      "čĊĠ": 2386,
      "Ġsense": 2387,
      "By": 2388,
      "Ġblack": 2389,
      "Ġprint": 2390,
      "Se": 2391,
      "Ġhappy": 2392,
      "ĠâĢĶ": 2393,
      "Ġmessage": 2394,
      "ĠÎ": 2395,
      "Ġservice": 2396,
      "Ġissues": 2397,
      "Ġbed": 2398,
      "icro": 2399,
      "Ġproblems": 2400,
      "ateg": 2401,
      "Ġclos": 2402,
      "ising": 2403,
      "book": 2404,
      "Ġvalues": 2405,
      "ples": 2406,
      "Ġ...": 2407,
      "urs": 2408,
      "list": 2409,
      "Ġhowever": 2410,
      "Ġposition": 2411,
      "Ġcompl": 2412,
      "Ġimplement": 2413,
      "Ġbase": 2414,
      "vices": 2415,
      "Ġdiscuss": 2416,
      "Ġarea": 2417,
      "Ġimpro": 2418,
      "ĠÂ": 2419,
      "gress": 2420,
      "Ġapplication": 2421,
      "off": 2422,
      "Ġoffic": 2423,
      "ĠIN": 2424,
      "Ġbelow": 2425,
      "Ġbring": 2426,
      "Ġprotect": 2427,
      "no": 2428,
      "Ġhon": 2429,
      "><": 2430,
      "Ġbar": 2431,
      "Ġhit": 2432,
      "')": 2433,
      "All": 2434,
      "Ġmultiple": 2435,
      "Ġaddition": 2436,
      "clude": 2437,
      "Ġlay": 2438,
      "ĠThen": 2439,
      "ĠPr": 2440,
      "Ġflo": 2441,
      "ulation": 2442,
      "ams": 2443,
      "ules": 2444,
      "itor": 2445,
      "resent": 2446,
      "ively": 2447,
      "Ġ17": 2448,
      "with": 2449,
      "Ġgames": 2450,
      "27": 2451,
      "Ġcomb": 2452,
      "viron": 2453,
      "Ġfight": 2454,
      "Ġur": 2455,
      "Ġgoes": 2456,
      "Ġarray": 2457,
      "Ġmag": 2458,
      "ĠGod": 2459,
      "uro": 2460,
      "lish": 2461,
      "Ġthinking": 2462,
      "Ġprevious": 2463,
      "($": 2464,
      "Ġphone": 2465,
      "Ġtalking": 2466,
      "ips": 2467,
      "iddle": 2468,
      "Ġgeneral": 2469,
      "Ġquestions": 2470,
      "like": 2471,
      "ially": 2472,
      "++": 2473,
      "Ġfuture": 2474,
      "ĠHis": 2475,
      "UT": 2476,
      "code": 2477,
      "Ġrele": 2478,
      "met": 2479,
      "Ġprivate": 2480,
      "osp": 2481,
      "Ġstre": 2482,
      "ĠMr": 2483,
      "Ġtre": 2484,
      "Ġfood": 2485,
      "Ġgen": 2486,
      "On": 2487,
      "comp": 2488,
      "Ġrelationship": 2489,
      "Ġtreat": 2490,
      "ources": 2491,
      "ĠEng": 2492,
      "Ġorgan": 2493,
      "Ġslow": 2494,
      "light": 2495,
      "icult": 2496,
      "ĠJust": 2497,
      "DE": 2498,
      "ĠAd": 2499,
      "Ġvol": 2500,
      "Ġhear": 2501,
      "conom": 2502,
      "Ġterm": 2503,
      "Ġtakes": 2504,
      "por": 2505,
      "value": 2506,
      "App": 2507,
      "atever": 2508,
      "ison": 2509,
      "Ġheard": 2510,
      "Text": 2511,
      "Ġmention": 2512,
      "28": 2513,
      "bt": 2514,
      "Ġbooks": 2515,
      "ĠOF": 2516,
      "Ġhappened": 2517,
      "Ġworth": 2518,
      "Ġmillion": 2519,
      "45": 2520,
      "ai": 2521,
      "apter": 2522,
      "ached": 2523,
      "return": 2524,
      "Ġsolution": 2525,
      "Ġelect": 2526,
      "ĠAlso": 2527,
      "Ġsimply": 2528,
      "box": 2529,
      "opt": 2530,
      "Ġ25": 2531,
      "Ġsat": 2532,
      "itical": 2533,
      "SS": 2534,
      "test": 2535,
      "Ġamount": 2536,
      ".)": 2537,
      "Ġwait": 2538,
      "Ġplaying": 2539,
      "Ġearly": 2540,
      "Well": 2541,
      "Ð¾Ð": 2542,
      "II": 2543,
      "Ġinvol": 2544,
      "Ġconc": 2545,
      "ĠSp": 2546,
      "abase": 2547,
      "Ġturned": 2548,
      "lement": 2549,
      "ĠSte": 2550,
      "Ġben": 2551,
      "Ġforward": 2552,
      "uk": 2553,
      "Ġtarget": 2554,
      "order": 2555,
      "Ġfive": 2556,
      "ĠOne": 2557,
      "21": 2558,
      "čĊĠĠĠ": 2559,
      "Ġlost": 2560,
      "come": 2561,
      "Ġimp": 2562,
      "ken": 2563,
      "aterial": 2564,
      "ĠThan": 2565,
      "Ġfinal": 2566,
      "Ġmarket": 2567,
      "Ġstore": 2568,
      "Ġespecially": 2569,
      "========": 2570,
      "fo": 2571,
      "Ġyourself": 2572,
      "Ġmeas": 2573,
      "ĠJohn": 2574,
      "Ġdescri": 2575,
      "Ġattack": 2576,
      "Ġknown": 2577,
      "Ġsal": 2578,
      "Ġpoints": 2579,
      "Ġoh": 2580,
      "rc": 2581,
      "Ġsearch": 2582,
      "more": 2583,
      "Ġthird": 2584,
      "go": 2585,
      "reci": 2586,
      "Ġpie": 2587,
      "Ġobs": 2588,
      "Ġgave": 2589,
      "Ġmother": 2590,
      "rel": 2591,
      "aph": 2592,
      "selves": 2593,
      "They": 2594,
      "ecut": 2595,
      "Ġtool": 2596,
      "atter": 2597,
      "Ġgrow": 2598,
      "Ġexc": 2599,
      "Ser": 2600,
      "ilt": 2601,
      "bit": 2602,
      "Ġcopy": 2603,
      "ued": 2604,
      "uration": 2605,
      "Ġinput": 2606,
      "iver": 2607,
      "Ġexactly": 2608,
      "roller": 2609,
      "thon": 2610,
      "CH": 2611,
      "ĠCol": 2612,
      "200": 2613,
      "ML": 2614,
      "With": 2615,
      "Ġcompletely": 2616,
      "ouch": 2617,
      "Ġlikely": 2618,
      "iod": 2619,
      "ians": 2620,
      "Ġpict": 2621,
      "\";": 2622,
      "ification": 2623,
      "ĠNow": 2624,
      "uppose": 2625,
      "Ġredu": 2626,
      "tain": 2627,
      "Ġcolor": 2628,
      "pri": 2629,
      "Ġaction": 2630,
      "cription": 2631,
      "oose": 2632,
      "Ġ50": 2633,
      "ĠAm": 2634,
      "Ġage": 2635,
      "Ġspecial": 2636,
      "oop": 2637,
      "ĠDo": 2638,
      "35": 2639,
      "Ġfinally": 2640,
      "ĠChrist": 2641,
      "ique": 2642,
      "Ġcomput": 2643,
      "Ġnull": 2644,
      "Ġfire": 2645,
      "ĠSc": 2646,
      "26": 2647,
      "orth": 2648,
      "ĠWith": 2649,
      "Ġdate": 2650,
      "Ġrespect": 2651,
      "Ġresponse": 2652,
      "Ġfalse": 2653,
      "Ġsite": 2654,
      "Ġvoice": 2655,
      "Ġcreated": 2656,
      "ĠRes": 2657,
      "Ġra": 2658,
      "idence": 2659,
      "Ġste": 2660,
      "ager": 2661,
      "Ġwriting": 2662,
      "lex": 2663,
      "29": 2664,
      "olute": 2665,
      "vironment": 2666,
      "Ñģ": 2667,
      "Ġdisplay": 2668,
      "Ġdig": 2669,
      "Ġweb": 2670,
      "ney": 2671,
      "Ġaccept": 2672,
      "unk": 2673,
      "Ġdeath": 2674,
      "antly": 2675,
      "Ġinteresting": 2676,
      "Ġfurther": 2677,
      "ĠÃ": 2678,
      "Ġhaven": 2679,
      "Ġparam": 2680,
      "Ġhair": 2681,
      "inux": 2682,
      "Ġtaken": 2683,
      "function": 2684,
      "Ġlonger": 2685,
      "Ġbeaut": 2686,
      "anguage": 2687,
      "Ġprovide": 2688,
      "Ġswe": 2689,
      "ibility": 2690,
      "ury": 2691,
      "medi": 2692,
      "js": 2693,
      "nal": 2694,
      "Ġitself": 2695,
      "Ġwhite": 2696,
      "Ġdefinitely": 2697,
      "ÑĢ": 2698,
      "asing": 2699,
      "onent": 2700,
      "ĠApp": 2701,
      "Ġwoman": 2702,
      "Ġprice": 2703,
      "ama": 2704,
      "pper": 2705,
      "Ġpercent": 2706,
      "ĠTe": 2707,
      "Ġoutside": 2708,
      "Ġexpected": 2709,
      "inter": 2710,
      "Ġsurpr": 2711,
      "></": 2712,
      "Ġones": 2713,
      "Ġcir": 2714,
      "iction": 2715,
      "Ġusually": 2716,
      "ĠPl": 2717,
      "RO": 2718,
      "Ġoutput": 2719,
      "Ġnormal": 2720,
      "pre": 2721,
      "Ġla": 2722,
      "Ġhot": 2723,
      "Ġphys": 2724,
      "Ġlik": 2725,
      "Get": 2726,
      "ĠAny": 2727,
      "arm": 2728,
      "Ġwritten": 2729,
      "public": 2730,
      "ĠUniversity": 2731,
      "Ġdefault": 2732,
      "Ġdifficult": 2733,
      "andom": 2734,
      "IM": 2735,
      "._": 2736,
      "ĠAfter": 2737,
      "Ġsocial": 2738,
      "Value": 2739,
      "Ġclean": 2740,
      "ĠSer": 2741,
      "Ġquality": 2742,
      "atures": 2743,
      "imal": 2744,
      "Ġsignific": 2745,
      "idual": 2746,
      "Ġ`": 2747,
      "Ġrequire": 2748,
      "Ġmach": 2749,
      "ubl": 2750,
      "Ġcard": 2751,
      "Ġappreci": 2752,
      "Ġhistory": 2753,
      "java": 2754,
      "AG": 2755,
      "ication": 2756,
      "Ġhur": 2757,
      "Ġfast": 2758,
      "Ġresearch": 2759,
      "70": 2760,
      "Ġfill": 2761,
      "Ġconfig": 2762,
      "IG": 2763,
      "},": 2764,
      "ires": 2765,
      "ster": 2766,
      "Ġscri": 2767,
      "plate": 2768,
      "ĠString": 2769,
      "90": 2770,
      "ĠIm": 2771,
      "100": 2772,
      "Ġrelease": 2773,
      "Ġland": 2774,
      "Ġcomment": 2775,
      "Ġmatch": 2776,
      "ograp": 2777,
      "ension": 2778,
      "UR": 2779,
      "Ġbott": 2780,
      "Ġfeeling": 2781,
      "Ġcity": 2782,
      "Ġnecess": 2783,
      "Ġcover": 2784,
      "Ġshows": 2785,
      "Ġweeks": 2786,
      "une": 2787,
      "print": 2788,
      "Ġblock": 2789,
      "tract": 2790,
      "ffic": 2791,
      "Ġscreen": 2792,
      "Be": 2793,
      "gest": 2794,
      "uge": 2795,
      "Ġcommand": 2796,
      "oe": 2797,
      "lt": 2798,
      "Ġdom": 2799,
      "Ġcommunity": 2800,
      "Ġshare": 2801,
      "Ġoriginal": 2802,
      "ãģ": 2803,
      "Ġdead": 2804,
      "Ġdeep": 2805,
      "haps": 2806,
      "ites": 2807,
      "iding": 2808,
      "Ġoption": 2809,
      "Ġdark": 2810,
      "Ġfather": 2811,
      "Ġeconom": 2812,
      "Int": 2813,
      "that": 2814,
      "Ġder": 2815,
      "Ġcontr": 2816,
      "Ġterms": 2817,
      "Ġsleep": 2818,
      "rodu": 2819,
      "Ġsqu": 2820,
      "Ġmot": 2821,
      "ython": 2822,
      "Ġworked": 2823,
      "ysis": 2824,
      "ĠTrump": 2825,
      "ety": 2826,
      "Ġwants": 2827,
      "Ġbreat": 2828,
      "Ġmusic": 2829,
      "ari": 2830,
      "Ġstyle": 2831,
      "part": 2832,
      "Ġindiv": 2833,
      "Ġsil": 2834,
      "ribute": 2835,
      "path": 2836,
      "rror": 2837,
      "Ġobvious": 2838,
      "Item": 2839,
      "Ġdeterm": 2840,
      "Ġfavor": 2841,
      "Ġscript": 2842,
      "Ġhost": 2843,
      "Now": 2844,
      "Ġdevelopment": 2845,
      "Ġusers": 2846,
      "Ġseason": 2847,
      "user": 2848,
      "span": 2849,
      "Ġhor": 2850,
      "Object": 2851,
      "86": 2852,
      "Ġinclude": 2853,
      "ili": 2854,
      "do": 2855,
      "Ġlearn": 2856,
      "Ġtrack": 2857,
      "af": 2858,
      "ĠHar": 2859,
      "ql": 2860,
      "$$": 2861,
      "Ġquickly": 2862,
      "wr": 2863,
      "bug": 2864,
      "Ġheav": 2865,
      "Ġener": 2866,
      "ogn": 2867,
      "Ġfair": 2868,
      "Ġwhatever": 2869,
      "34": 2870,
      "lling": 2871,
      "ĊĊĊ": 2872,
      "AB": 2873,
      "Ġsepar": 2874,
      "Ġphot": 2875,
      "Gr": 2876,
      "Ġsometimes": 2877,
      "ges": 2878,
      "ze": 2879,
      "loc": 2880,
      "Ġdest": 2881,
      "which": 2882,
      "Ġcolumn": 2883,
      "}{": 2884,
      "ĠâĢĺ": 2885,
      "Ġhigher": 2886,
      "Ġcurrently": 2887,
      "Any": 2888,
      "size": 2889,
      "Ġspend": 2890,
      "Qu": 2891,
      "Ġfollow": 2892,
      "Ġsituation": 2893,
      "75": 2894,
      "////": 2895,
      "ĠMed": 2896,
      "iff": 2897,
      "OL": 2898,
      "down": 2899,
      "raft": 2900,
      "indows": 2901,
      "ags": 2902,
      "Ġpatients": 2903,
      "Ġspeak": 2904,
      "OS": 2905,
      "amer": 2906,
      "../": 2907,
      "Ġbehav": 2908,
      "zy": 2909,
      "Ġmax": 2910,
      "item": 2911,
      "36": 2912,
      "US": 2913,
      "Ġneg": 2914,
      "ĊĠĠĠĠĠĠĠĠĠĠĠĠĠĠĠĠĠĠĠĠĠĠĠ": 2915,
      "Ġwonder": 2916,
      "ental": 2917,
      "Ġtotal": 2918,
      "Ġupon": 2919,
      "ties": 2920,
      "Ġfit": 2921,
      "sub": 2922,
      "Ġsym": 2923,
      "Ġattempt": 2924,
      "Ġcamp": 2925,
      "Ġ24": 2926,
      "mp": 2927,
      "Ġrange": 2928,
      "Ġloved": 2929,
      "ek": 2930,
      "older": 2931,
      "Ġblood": 2932,
      "Ġmorning": 2933,
      "Ġcool": 2934,
      "Ġamong": 2935,
      "ello": 2936,
      "ony": 2937,
      "obal": 2938,
      "ĠMan": 2939,
      "Ã©": 2940,
      "Ġserious": 2941,
      "Ġrad": 2942,
      "num": 2943,
      "imate": 2944,
      "Ġq": 2945,
      "resp": 2946,
      "ators": 2947,
      "icy": 2948,
      "Ġcond": 2949,
      "acing": 2950,
      "from": 2951,
      "reed": 2952,
      "IL": 2953,
      "just": 2954,
      "Ġcause": 2955,
      "Add": 2956,
      "OP": 2957,
      "doc": 2958,
      "wise": 2959,
      "php": 2960,
      "ocr": 2961,
      "Ġvia": 2962,
      "ĠAND": 2963,
      "cell": 2964,
      "lib": 2965,
      "Ġlisten": 2966,
      "how": 2967,
      "Ġrout": 2968,
      "Ġtowards": 2969,
      "Ġfund": 2970,
      "Here": 2971,
      "uly": 2972,
      "Ġperiod": 2973,
      "ills": 2974,
      "Ġallow": 2975,
      "Ġclick": 2976,
      "usion": 2977,
      "include": 2978,
      "Ġground": 2979,
      "Ġsorry": 2980,
      "Ġimag": 2981,
      "iful": 2982,
      "itted": 2983,
      "istic": 2984,
      "Ġvi": 2985,
      "lege": 2986,
      "Ġclaim": 2987,
      "Ġdecided": 2988,
      "ying": 2989,
      "Yeah": 2990,
      "Yes": 2991,
      "cher": 2992,
      "sy": 2993,
      "ival": 2994,
      "Set": 2995,
      "Mod": 2996,
      "ĠCal": 2997,
      "Ġfigure": 2998,
      "resh": 2999,
      "Ġthank": 3000,
      "ĠRep": 3001,
      "room": 3002,
      "amed": 3003,
      "icense": 3004,
      "Ġchanged": 3005,
      "bar": 3006,
      "Ġsus": 3007,
      "Ġlate": 3008,
      "aged": 3009,
      "Ġdro": 3010,
      "Ġsix": 3011,
      "essage": 3012,
      "ENT": 3013,
      "oring": 3014,
      "Ġlibr": 3015,
      "Ġindividual": 3016,
      "ensive": 3017,
      "Hello": 3018,
      "Ġdraw": 3019,
      "Ġ$\\": 3020,
      "Ġready": 3021,
      "Or": 3022,
      "pack": 3023,
      "lock": 3024,
      "oups": 3025,
      "Ġliter": 3026,
      "PI": 3027,
      "Ġknows": 3028,
      "Ġwindow": 3029,
      "Ġchance": 3030,
      "sl": 3031,
      "Ġstatic": 3032,
      "ĠFl": 3033,
      "Ġrepresent": 3034,
      "mat": 3035,
      "Ġalone": 3036,
      "enc": 3037,
      "oon": 3038,
      "leg": 3039,
      "Ġparty": 3040,
      "Ġabsolute": 3041,
      "Ġdifference": 3042,
      "aff": 3043,
      "Ġmass": 3044,
      "Ġsubject": 3045,
      "iced": 3046,
      "irm": 3047,
      "Ġaren": 3048,
      "Ġaccording": 3049,
      "Ġindex": 3050,
      "ĠInst": 3051,
      "iled": 3052,
      "Ġsett": 3053,
      "Ġupdate": 3054,
      "Ġfing": 3055,
      "curity": 3056,
      "Ġassoci": 3057,
      "Ġtrad": 3058,
      "Ġbuilding": 3059,
      "dis": 3060,
      "Ġgives": 3061,
      "().": 3062,
      "File": 3063,
      "38": 3064,
      "Ġsave": 3065,
      "Ġver": 3066,
      "Ġcases": 3067,
      "inst": 3068,
      "Ġmaterial": 3069,
      "ero": 3070,
      "Ġslight": 3071,
      "ĠSome": 3072,
      "itions": 3073,
      "Ġways": 3074,
      "amples": 3075,
      "Ġcontinue": 3076,
      "ĠAmerican": 3077,
      "now": 3078,
      "Ġkids": 3079,
      "Ġnews": 3080,
      "Can": 3081,
      "Ġshit": 3082,
      "Ġ},": 3083,
      "Ġgone": 3084,
      "aves": 3085,
      "aught": 3086,
      "Ġenergy": 3087,
      "Ġhref": 3088,
      "Ġfoot": 3089,
      "55": 3090,
      "board": 3091,
      "anger": 3092,
      "Ġtax": 3093,
      "Why": 3094,
      "ĠCar": 3095,
      "culate": 3096,
      "Ġwebs": 3097,
      "Ġround": 3098,
      "Ġcult": 3099,
      "ilit": 3100,
      "astic": 3101,
      "Ġconcern": 3102,
      "ption": 3103,
      "Ġmembers": 3104,
      "amb": 3105,
      "Ġnetwork": 3106,
      "quest": 3107,
      "Ġcontact": 3108,
      "tes": 3109,
      "const": 3110,
      "Ġpersonal": 3111,
      "Ġhonest": 3112,
      "chie": 3113,
      "Ġthread": 3114,
      "Ġple": 3115,
      "Ġpred": 3116,
      "Ġbrother": 3117,
      "reme": 3118,
      "Ġavoid": 3119,
      "37": 3120,
      "Ġdistribut": 3121,
      "uses": 3122,
      "Ġteac": 3123,
      "Ġseemed": 3124,
      "chan": 3125,
      "));": 3126,
      "44": 3127,
      "cho": 3128,
      "pose": 3129,
      "Ġhop": 3130,
      "Ġrespons": 3131,
      "Ġaffect": 3132,
      "ĠThese": 3133,
      "field": 3134,
      "39": 3135,
      "year": 3136,
      "Ġemploy": 3137,
      "Ġ40": 3138,
      "Ġliving": 3139,
      "ĠInt": 3140,
      "Ġenvironment": 3141,
      "Ġrate": 3142,
      "Ġrequired": 3143,
      "Ġlower": 3144,
      "Ġonline": 3145,
      "Ġsens": 3146,
      "Ġbi": 3147,
      "čĊč": 3148,
      "mm": 3149,
      "QL": 3150,
      "Fr": 3151,
      "Ġinfl": 3152,
      "Ġregard": 3153,
      "Ġpaper": 3154,
      "!âĢĿ": 3155,
      "ledge": 3156,
      "Ġapproach": 3157,
      "ball": 3158,
      "Man": 3159,
      "sole": 3160,
      "Of": 3161,
      "ĠSystem": 3162,
      "inary": 3163,
      "unity": 3164,
      "Ġcoun": 3165,
      "Ġaud": 3166,
      "Ġnames": 3167,
      "Ġmemory": 3168,
      "Ġplayers": 3169,
      "uments": 3170,
      "ica": 3171,
      "Ġlanguage": 3172,
      "Ġinterested": 3173,
      "azing": 3174,
      "Ġweight": 3175,
      "you": 3176,
      "Ġep": 3177,
      "Ġbenef": 3178,
      "Ġrecently": 3179,
      "Ġcy": 3180,
      "Ġgiving": 3181,
      "Ġbutton": 3182,
      "index": 3183,
      "izing": 3184,
      "Ġimm": 3185,
      "Ġopin": 3186,
      "ibly": 3187,
      "Ġrisk": 3188,
      "Ġwall": 3189,
      "orld": 3190,
      "cret": 3191,
      "rem": 3192,
      "Ġden": 3193,
      "Ġstandard": 3194,
      "88": 3195,
      "Ġimmedi": 3196,
      "hel": 3197,
      "Ġthemselves": 3198,
      "Ġstudents": 3199,
      "overed": 3200,
      "Ġeasily": 3201,
      "Ġbackground": 3202,
      "['": 3203,
      "Ġelement": 3204,
      "Ġupd": 3205,
      "Reg": 3206,
      "input": 3207,
      "Ġexcept": 3208,
      "Ġeye": 3209,
      "Ind": 3210,
      "ĠDr": 3211,
      "Ġprim": 3212,
      "');": 3213,
      "Ġsoftware": 3214,
      "AA": 3215,
      "ae": 3216,
      "Ġdatabase": 3217,
      "Ġhappens": 3218,
      "Ġign": 3219,
      "Ġstarting": 3220,
      "ĠDon": 3221,
      "Ġmap": 3222,
      "Ġnod": 3223,
      "icated": 3224,
      "Ġbab": 3225,
      "ĠCent": 3226,
      "Do": 3227,
      "Ġpers": 3228,
      "error": 3229,
      "Ġstra": 3230,
      "Ġwish": 3231,
      "/*": 3232,
      "Ġparents": 3233,
      "Ġnote": 3234,
      "Ġarm": 3235,
      "Ġperformance": 3236,
      "Ġattention": 3237,
      "Ġclient": 3238,
      "nces": 3239,
      "frac": 3240,
      "Ġproperty": 3241,
      "ises": 3242,
      "Ġfell": 3243,
      "Class": 3244,
      "Ġ/>": 3245,
      "Ġassum": 3246,
      "ĠTH": 3247,
      "Ġsto": 3248,
      "ĠMe": 3249,
      "point": 3250,
      "Ġoptions": 3251,
      "verage": 3252,
      "Ġeffort": 3253,
      "ences": 3254,
      "map": 3255,
      "~~": 3256,
      "ĠĠĠĠĠĠĠĠĠĠĠĠĠĠĠ": 3257,
      "ha": 3258,
      "ternal": 3259,
      "Ġmedia": 3260,
      "Ġrelated": 3261,
      "Ġhuge": 3262,
      "Ġemail": 3263,
      "Ġpositive": 3264,
      "Ġson": 3265,
      "FF": 3266,
      "Ġsequ": 3267,
      "Ġreceived": 3268,
      "Ġvarious": 3269,
      "_{": 3270,
      "Ġball": 3271,
      "TER": 3272,
      "ĠEn": 3273,
      "Ġtitle": 3274,
      "Ġrole": 3275,
      "Ġcross": 3276,
      "Ġcontext": 3277,
      "mission": 3278,
      "Ġpan": 3279,
      "Ġorg": 3280,
      "lier": 3281,
      "abor": 3282,
      "Ġkiss": 3283,
      "Ġcompet": 3284,
      "Ġang": 3285,
      "Ġextra": 3286,
      "uf": 3287,
      "Ġinstance": 3288,
      "Ġframe": 3289,
      "ada": 3290,
      "ological": 3291,
      "ief": 3292,
      "/>": 3293,
      "Ġlines": 3294,
      "Ġagree": 3295,
      "Ġtouch": 3296,
      "='": 3297,
      "mail": 3298,
      "Ġda": 3299,
      "ilities": 3300,
      "Ġdecl": 3301,
      "icate": 3302,
      "ĠWill": 3303,
      "####": 3304,
      "ĠPer": 3305,
      "Ġplayer": 3306,
      "66": 3307,
      "aughter": 3308,
      "Ġut": 3309,
      "Ġnat": 3310,
      "bb": 3311,
      "Ġappear": 3312,
      "igned": 3313,
      "ube": 3314,
      "Ċĉĉĉ": 3315,
      "Ġchall": 3316,
      "Ġextend": 3317,
      "ta": 3318,
      "Ġhell": 3319,
      "ainer": 3320,
      "Ġuses": 3321,
      "wo": 3322,
      "Ġbo": 3323,
      "atform": 3324,
      "Hey": 3325,
      "ĠNe": 3326,
      "ades": 3327,
      "Ġseeing": 3328,
      "Ċĉĉĉĉ": 3329,
      "what": 3330,
      "perty": 3331,
      "CC": 3332,
      "Ġhttps": 3333,
      "mb": 3334,
      "can": 3335,
      "Ġkept": 3336,
      "arter": 3337,
      "Ġmis": 3338,
      "script": 3339,
      "Ġdrink": 3340,
      "Ġeduc": 3341,
      "Ġill": 3342,
      "Ġrecent": 3343,
      "Ġsafe": 3344,
      "One": 3345,
      "eters": 3346,
      "Ġund": 3347,
      "Ġcry": 3348,
      "Ġstraight": 3349,
      "Ġvalid": 3350,
      "IP": 3351,
      "sing": 3352,
      "Ġplayed": 3353,
      "Che": 3354,
      "Ġcat": 3355,
      "Ġcomfort": 3356,
      "orks": 3357,
      "Ġmissing": 3358,
      "ĠâĪĴ": 3359,
      "urope": 3360,
      "Ġdrive": 3361,
      "iki": 3362,
      "itut": 3363,
      "ĠQu": 3364,
      "Ġexecut": 3365,
      "Ġautom": 3366,
      "Ġbeautiful": 3367,
      "Ġspeed": 3368,
      "En": 3369,
      "Ġpurch": 3370,
      "ait": 3371,
      "Ġgod": 3372,
      "Ġbecom": 3373,
      "Ġmiddle": 3374,
      "Time": 3375,
      "OW": 3376,
      "Ġfan": 3377,
      "Ġhy": 3378,
      "Ġlat": 3379,
      "Ġimprove": 3380,
      "Ġ->": 3381,
      "ĠHer": 3382,
      "Ġnumbers": 3383,
      "Ġmoving": 3384,
      "epartment": 3385,
      "Ġheld": 3386,
      "Ġ!=": 3387,
      "Ġsupposed": 3388,
      "Ġlack": 3389,
      "Ġskin": 3390,
      "IR": 3391,
      "ection": 3392,
      "Ġevents": 3393,
      "Ġdev": 3394,
      "95": 3395,
      "Ġpolice": 3396,
      "Ġdetails": 3397,
      "lim": 3398,
      "Ġmouth": 3399,
      "Ġintrodu": 3400,
      "Ġanalysis": 3401,
      "rugg": 3402,
      "ls": 3403,
      "Ġinvestig": 3404,
      "Ġcoll": 3405,
      "Ġluck": 3406,
      "VE": 3407,
      "Ġforce": 3408,
      "Ġideas": 3409,
      "df": 3410,
      "Ġcatch": 3411,
      "Error": 3412,
      "Ġdirectly": 3413,
      "Ġactiv": 3414,
      "Ġpackage": 3415,
      "Ġrandom": 3416,
      "48": 3417,
      "pec": 3418,
      "imum": 3419,
      "ĠPe": 3420,
      "Ġmer": 3421,
      "Ġindust": 3422,
      "Ġsong": 3423,
      "Ġpotential": 3424,
      "math": 3425,
      "aries": 3426,
      "$.": 3427,
      "Just": 3428,
      "Ġdou": 3429,
      "Ġfeels": 3430,
      "link": 3431,
      "count": 3432,
      "ĠBy": 3433,
      "mber": 3434,
      "Ġlength": 3435,
      "aint": 3436,
      "Form": 3437,
      "Ġactual": 3438,
      "Ġdire": 3439,
      "Exception": 3440,
      "Key": 3441,
      "eth": 3442,
      "Ad": 3443,
      "ynam": 3444,
      "cks": 3445,
      "host": 3446,
      "Ġinitial": 3447,
      "Ġhandle": 3448,
      "Ġcompan": 3449,
      "SP": 3450,
      "Ġsetting": 3451,
      "Don": 3452,
      "65": 3453,
      "Ġstri": 3454,
      "Ġformat": 3455,
      "Ġmachine": 3456,
      "Ġsubs": 3457,
      "icks": 3458,
      "ĠRE": 3459,
      "ague": 3460,
      "Ġshot": 3461,
      "ospital": 3462,
      "Ġfocus": 3463,
      "Ġdevice": 3464,
      "pty": 3465,
      "py": 3466,
      "asons": 3467,
      "31": 3468,
      "men": 3469,
      "Ġachie": 3470,
      "Ph": 3471,
      "Ġreported": 3472,
      "Ġfeatures": 3473,
      "dom": 3474,
      "Ġcells": 3475,
      "Ġcomplex": 3476,
      "Ġparts": 3477,
      "lying": 3478,
      "ecause": 3479,
      "ĠST": 3480,
      "su": 3481,
      "Ġmovie": 3482,
      "Ġbegan": 3483,
      "Ġfeed": 3484,
      "ĠMin": 3485,
      "erved": 3486,
      "Ġincluded": 3487,
      "ĠMc": 3488,
      "ceed": 3489,
      "db": 3490,
      "Ġque": 3491,
      "TH": 3492,
      "OD": 3493,
      "Ġbuilt": 3494,
      "ĠĠĠĠĠĠĠĠĠĠ": 3495,
      "Ġitems": 3496,
      "Ġlives": 3497,
      "Ġdouble": 3498,
      "char": 3499,
      "Ġoffice": 3500,
      "77": 3501,
      "Ġopport": 3502,
      "aging": 3503,
      "Ġcomments": 3504,
      "pite": 3505,
      "rix": 3506,
      "Ġbrought": 3507,
      "Ġbought": 3508,
      "ĠEven": 3509,
      "change": 3510,
      "Ġshown": 3511,
      "Ġnovel": 3512,
      "Ġgun": 3513,
      "Ġsmile": 3514,
      "agn": 3515,
      "run": 3516,
      "des": 3517,
      "eral": 3518,
      "struct": 3519,
      "ev": 3520,
      "cast": 3521,
      "Ġcred": 3522,
      "param": 3523,
      "Ġgroups": 3524,
      "iety": 3525,
      "Ġsy": 3526,
      "']": 3527,
      "Ġdie": 3528,
      "airs": 3529,
      "Ġdrop": 3530,
      "Ġloss": 3531,
      "Ġtown": 3532,
      "ync": 3533,
      "Ġincrease": 3534,
      ":**": 3535,
      "NS": 3536,
      "nes": 3537,
      "ober": 3538,
      "ĠEvery": 3539,
      "Ġpropos": 3540,
      "Ġvot": 3541,
      "ils": 3542,
      "Ġroll": 3543,
      "Ġremain": 3544,
      "Ġran": 3545,
      "':": 3546,
      "Ġemot": 3547,
      "Ġsecurity": 3548,
      "Ġvariable": 3549,
      "Ġarticle": 3550,
      "05": 3551,
      "Ġamazing": 3552,
      "Ġregular": 3553,
      "Thank": 3554,
      "Ġblue": 3555,
      "Ġoffer": 3556,
      "Ġdep": 3557,
      "Ġbasically": 3558,
      "Ġstatement": 3559,
      "ara": 3560,
      "Ġmode": 3561,
      "Ġmoved": 3562,
      "ĠFe": 3563,
      "Ġrecogn": 3564,
      "Ġdru": 3565,
      "itter": 3566,
      "Ġmethods": 3567,
      "idered": 3568,
      "Ġviol": 3569,
      "pace": 3570,
      ")*": 3571,
      "Ġintegr": 3572,
      "iday": 3573,
      "Ġpoor": 3574,
      "ATE": 3575,
      "ĠĠĠĠĠĠĠĠĠĠĠĠ": 3576,
      "Ġwebsite": 3577,
      "Ġwatching": 3578,
      "CL": 3579,
      "Ġplug": 3580,
      "Ġremove": 3581,
      "Ġonto": 3582,
      "attle": 3583,
      "ales": 3584,
      "aste": 3585,
      "ĠCont": 3586,
      "Ġexperien": 3587,
      "ĠWhy": 3588,
      "Ġtrust": 3589,
      "Ġtypes": 3590,
      "ana": 3591,
      "earch": 3592,
      "ushed": 3593,
      "ns": 3594,
      "yl": 3595,
      "ounds": 3596,
      "ops": 3597,
      "band": 3598,
      "Ġservices": 3599,
      "After": 3600,
      "Ġprogress": 3601,
      "Ġsection": 3602,
      "Ġhom": 3603,
      "98": 3604,
      "bing": 3605,
      "mar": 3606,
      "Ġwide": 3607,
      "urch": 3608,
      "Ġchoice": 3609,
      "lected": 3610,
      "Ġboard": 3611,
      ":\"": 3612,
      "Ġconnection": 3613,
      "vant": 3614,
      "Please": 3615,
      "table": 3616,
      "ners": 3617,
      "gn": 3618,
      "Ġroad": 3619,
      "Ġconsidered": 3620,
      "ĠRed": 3621,
      "Ġ;": 3622,
      "Ġeat": 3623,
      "ULL": 3624,
      "width": 3625,
      "ened": 3626,
      "^{": 3627,
      "Ġswitch": 3628,
      "Test": 3629,
      "Ġmix": 3630,
      "ring": 3631,
      "Act": 3632,
      "ĠThanks": 3633,
      "Ġlo": 3634,
      "Ġofficial": 3635,
      "ĠGu": 3636,
      "gen": 3637,
      "define": 3638,
      "Ġgrab": 3639,
      "Ġpiece": 3640,
      "Ġuseful": 3641,
      "Ġlearning": 3642,
      "cal": 3643,
      "atory": 3644,
      "Ġrow": 3645,
      "Ġanyway": 3646,
      "ĠGe": 3647,
      "Ġquery": 3648,
      "apt": 3649,
      "Pr": 3650,
      "Ġexpression": 3651,
      "ĠEurope": 3652,
      "ĠWindows": 3653,
      "Ġvers": 3654,
      "Ġknowledge": 3655,
      "Ġdownload": 3656,
      "AY": 3657,
      "Ġlock": 3658,
      "arily": 3659,
      "ruction": 3660,
      "xx": 3661,
      "Ġstream": 3662,
      "Ġstructure": 3663,
      "Ġlibrary": 3664,
      "imin": 3665,
      "Ġextreme": 3666,
      "';": 3667,
      "Ġwife": 3668,
      "HT": 3669,
      "Ġcomputer": 3670,
      "ĠChe": 3671,
      "ishing": 3672,
      "anch": 3673,
      "Context": 3674,
      "Ġpicture": 3675,
      "rupt": 3676,
      "04": 3677,
      "Path": 3678,
      "Ġthanks": 3679,
      "Ġess": 3680,
      "Ġbeginning": 3681,
      "base": 3682,
      "Ġdeg": 3683,
      "abled": 3684,
      "Ġdefined": 3685,
      "NA": 3686,
      "****************": 3687,
      "ously": 3688,
      "Met": 3689,
      "ĠHere": 3690,
      "Le": 3691,
      "Inst": 3692,
      "Ġpolitical": 3693,
      "State": 3694,
      "Ġheight": 3695,
      "Ġmid": 3696,
      "Ġpicked": 3697,
      "Ġpubl": 3698,
      "Ġ&&": 3699,
      "ĠIS": 3700,
      "sequ": 3701,
      "Ġnotice": 3702,
      "anced": 3703,
      "Ġstates": 3704,
      "lete": 3705,
      "soft": 3706,
      "Ġalthough": 3707,
      "reet": 3708,
      "ining": 3709,
      "VER": 3710,
      "Ġbottom": 3711,
      "ĠAmerica": 3712,
      "Ġdream": 3713,
      "ernel": 3714,
      "Ġwat": 3715,
      "Ġadvance": 3716,
      "fortun": 3717,
      "EM": 3718,
      "Ġimmediately": 3719,
      "Ġprovided": 3720,
      "Ġdise": 3721,
      "Ġmechan": 3722,
      "ĠBar": 3723,
      "Ġdamage": 3724,
      "Ġsche": 3725,
      "Ġcondition": 3726,
      "Ġtree": 3727,
      "iment": 3728,
      "67": 3729,
      "img": 3730,
      "Ġability": 3731,
      "dden": 3732,
      "Ġbur": 3733,
      "group": 3734,
      "void": 3735,
      "Ġplaces": 3736,
      "aling": 3737,
      "Ġce": 3738,
      "Ġmeant": 3739,
      "Ġeasier": 3740,
      "Ġsun": 3741,
      "ĠUnited": 3742,
      "ĠYork": 3743,
      "Ġlimit": 3744,
      "erve": 3745,
      "Ġjoin": 3746,
      "Ġstories": 3747,
      "start": 3748,
      "Ġreference": 3749,
      "Ġsystems": 3750,
      "Par": 3751,
      "post": 3752,
      "Ġnecessary": 3753,
      "plit": 3754,
      "Ġcompared": 3755,
      "based": 3756,
      "inally": 3757,
      "config": 3758,
      "Ġjud": 3759,
      "Ġrepe": 3760,
      "ament": 3761,
      "ports": 3762,
      "Ġslightly": 3763,
      "From": 3764,
      "uz": 3765,
      "idge": 3766,
      "Ġwaiting": 3767,
      "PS": 3768,
      "ded": 3769,
      "ĠAss": 3770,
      "gl": 3771,
      "Ġallowed": 3772,
      "Ġdecision": 3773,
      "Ġaverage": 3774,
      "trans": 3775,
      "Ġrespond": 3776,
      "Ġengine": 3777,
      "ĠMaybe": 3778,
      "icon": 3779,
      "Ġfunctions": 3780,
      "Ġinvolved": 3781,
      "Ġmist": 3782,
      "Ġtravel": 3783,
      "Ġnoticed": 3784,
      "Ġcand": 3785,
      "left": 3786,
      "Ġarri": 3787,
      "iny": 3788,
      "PE": 3789,
      "Ġadmin": 3790,
      "annel": 3791,
      "Ġfeet": 3792,
      "xy": 3793,
      "tem": 3794,
      "query": 3795,
      "Ġsudden": 3796,
      "Ġfavorite": 3797,
      "Ġprior": 3798,
      "Over": 3799,
      "Ġasking": 3800,
      "Ġshoot": 3801,
      "ĠNOT": 3802,
      "Ġ\"\"": 3803,
      "Comp": 3804,
      "47": 3805,
      "ride": 3806,
      "state": 3807,
      "ĠGet": 3808,
      "irth": 3809,
      "Ġliked": 3810,
      "aved": 3811,
      "Ġarms": 3812,
      "call": 3813,
      "ius": 3814,
      "Ġpatch": 3815,
      "Ġbal": 3816,
      "undred": 3817,
      "Ġmentioned": 3818,
      "aur": 3819,
      "Ġsoci": 3820,
      "Def": 3821,
      "Ġdeli": 3822,
      "Ġboo": 3823,
      "sum": 3824,
      "Ġfeature": 3825,
      "ilter": 3826,
      "dered": 3827,
      "udd": 3828,
      "Ġearlier": 3829,
      "Ġparticip": 3830,
      "verse": 3831,
      "Ġcra": 3832,
      "ĠÏ": 3833,
      "Ġsounds": 3834,
      "Ġhate": 3835,
      "Ġimpact": 3836,
      "Ġroot": 3837,
      "Ġrev": 3838,
      "97": 3839,
      "Ġbecame": 3840,
      "kend": 3841,
      "gu": 3842,
      "Ð»": 3843,
      "ĠPres": 3844,
      "ael": 3845,
      "dev": 3846,
      "ris": 3847,
      "Event": 3848,
      "enty": 3849,
      "iling": 3850,
      "Ġ});": 3851,
      "ocol": 3852,
      "Ġfactors": 3853,
      "Ġherself": 3854,
      "Ġwidth": 3855,
      "inding": 3856,
      "inner": 3857,
      "ares": 3858,
      "Ġopinion": 3859,
      "Ġproducts": 3860,
      "content": 3861,
      "build": 3862,
      "Ġformer": 3863,
      "Ġton": 3864,
      "ĠOh": 3865,
      "Ġjava": 3866,
      "Ġimages": 3867,
      "Ġstatus": 3868,
      "Ġrelative": 3869,
      "ĠPC": 3870,
      "ditions": 3871,
      "Ġlevels": 3872,
      "ĠVal": 3873,
      "Ġsuff": 3874,
      "[]": 3875,
      "olve": 3876,
      "xml": 3877,
      "Ġ:)": 3878,
      "ino": 3879,
      "oph": 3880,
      "Ġcook": 3881,
      "Ġgraph": 3882,
      "Ġanim": 3883,
      "Ġtreatment": 3884,
      "Ġspent": 3885,
      "Ġconditions": 3886,
      "Ġten": 3887,
      "Ġmeeting": 3888,
      "ĊĊĠĠĠĠĠĠĠĠĠĠĠ": 3889,
      "96": 3890,
      "ores": 3891,
      "CE": 3892,
      "ialog": 3893,
      "Ġfem": 3894,
      "ees": 3895,
      "Ġfrequ": 3896,
      "bol": 3897,
      "Ġfac": 3898,
      "ĠEd": 3899,
      "Ġpresident": 3900,
      "Ġabsolutely": 3901,
      "avid": 3902,
      "Ġnearly": 3903,
      "Ġjour": 3904,
      "layout": 3905,
      "Ġfucking": 3906,
      "Ġpen": 3907,
      "Ġsignificant": 3908,
      "hand": 3909,
      "mas": 3910,
      "Ġpassed": 3911,
      "((": 3912,
      "--------------------------------": 3913,
      "Ġstar": 3914,
      "Ġtraining": 3915,
      "Ġfig": 3916,
      "Ġprevent": 3917,
      "hood": 3918,
      "Ġconsum": 3919,
      "reate": 3920,
      "Ġjump": 3921,
      "ults": 3922,
      "frame": 3923,
      "Ġbaby": 3924,
      "Ġelements": 3925,
      "ĠDem": 3926,
      "ĠID": 3927,
      "Ġfloor": 3928,
      "Ġfactor": 3929,
      "Ġ21": 3930,
      "ipe": 3931,
      "Ġfollowed": 3932,
      "SD": 3933,
      "Cal": 3934,
      "ĠWar": 3935,
      "Ġperhaps": 3936,
      "RI": 3937,
      "85": 3938,
      "orrow": 3939,
      "Ġreve": 3940,
      "ĠPar": 3941,
      "Ġshowed": 3942,
      "acement": 3943,
      "Ġthous": 3944,
      "Ġlif": 3945,
      "true": 3946,
      "Ġarch": 3947,
      "Ġprep": 3948,
      "Ġdetail": 3949,
      "??": 3950,
      "Ġapplic": 3951,
      "Ġchoose": 3952,
      "Ġwel": 3953,
      "Ġanymore": 3954,
      "asp": 3955,
      "Ġolder": 3956,
      "oom": 3957,
      "het": 3958,
      "kn": 3959,
      "oul": 3960,
      "oly": 3961,
      "aul": 3962,
      "isf": 3963,
      "ĠTO": 3964,
      "Ġpulled": 3965,
      "ashing": 3966,
      "Ġcalls": 3967,
      "Ġsold": 3968,
      "Ġrules": 3969,
      "Ġspot": 3970,
      "Ġgoal": 3971,
      "Are": 3972,
      "ky": 3973,
      "Ġ(-": 3974,
      "Ġpages": 3975,
      "Read": 3976,
      "Array": 3977,
      "Ġban": 3978,
      "Ġsurv": 3979,
      "Ġboot": 3980,
      "ĠChar": 3981,
      "Ġcompanies": 3982,
      "ĠWhile": 3983,
      "Ġclosed": 3984,
      "Ġvisit": 3985,
      "Ġexplain": 3986,
      "PL": 3987,
      "Ġcold": 3988,
      "ĠList": 3989,
      "ocks": 3990,
      "ĠState": 3991,
      "Ġmail": 3992,
      "Ġcertainly": 3993,
      "Date": 3994,
      "Ġglobal": 3995,
      "Ġworry": 3996,
      "Image": 3997,
      "OST": 3998,
      "umber": 3999,
      "Ġpractice": 4000,
      "tered": 4001,
      "Ġbug": 4002,
      "ĠOR": 4003,
      "Ġstrugg": 4004,
      "Ġprefer": 4005,
      "Ġconv": 4006,
      "Ġaware": 4007,
      "Ġstopped": 4008,
      "Ġhurt": 4009,
      "ĠYour": 4010,
      "ĠAb": 4011,
      "OC": 4012,
      "Ġpattern": 4013,
      "rs": 4014,
      "Ġstick": 4015,
      "ĠEnglish": 4016,
      "Ġplot": 4017,
      "Ġgrowth": 4018,
      "Ġstudies": 4019,
      "aled": 4020,
      "Ġ60": 4021,
      "init": 4022,
      "idden": 4023,
      "fs": 4024,
      "ategory": 4025,
      "Ġtim": 4026,
      "pression": 4027,
      "ĠAdd": 4028,
      "Ġconvers": 4029,
      "){": 4030,
      "ĠCor": 4031,
      "open": 4032,
      "Ġimpl": 4033,
      "Ġstarts": 4034,
      "TP": 4035,
      "upid": 4036,
      "Ġoccur": 4037,
      "ĊĠĠĠĠĠĠ": 4038,
      "Ġnode": 4039,
      "Ġvict": 4040,
      "Ġwrote": 4041,
      "ĠAct": 4042,
      "ĠWell": 4043,
      "Ġsell": 4044,
      "Des": 4045,
      "UN": 4046,
      "}}": 4047,
      "Ġforg": 4048,
      "place": 4049,
      "da": 4050,
      "Ġinstalled": 4051,
      "ĠOf": 4052,
      "Ġmut": 4053,
      "Ġir": 4054,
      "MA": 4055,
      "Ġadding": 4056,
      "ĠHT": 4057,
      "Ġconsist": 4058,
      "Sc": 4059,
      "Ġunique": 4060,
      "Ġhundred": 4061,
      "Ġbehavior": 4062,
      "Then": 4063,
      "Ġcommit": 4064,
      "check": 4065,
      "oding": 4066,
      "Ġthoughts": 4067,
      "\"/>": 4068,
      "agon": 4069,
      "Ġgrad": 4070,
      "Ġcapt": 4071,
      "ĠCo": 4072,
      "Ġunless": 4073,
      "Ġdoll": 4074,
      "Ġthreat": 4075,
      "itional": 4076,
      "Ġlose": 4077,
      "Ġtransl": 4078,
      "Ġ/*": 4079,
      "inc": 4080,
      "Ġshut": 4081,
      "(),": 4082,
      "ĠOb": 4083,
      "Ġnone": 4084,
      "Up": 4085,
      "lied": 4086,
      "Ġended": 4087,
      "ĠEm": 4088,
      "Ġhang": 4089,
      "apping": 4090,
      "cs": 4091,
      "iant": 4092,
      "ĠIntern": 4093,
      "oves": 4094,
      "Ġbasic": 4095,
      "Ġmostly": 4096,
      "length": 4097,
      "Ġmeasure": 4098,
      "ĠSam": 4099,
      "Ġtend": 4100,
      "Ġlips": 4101,
      "Ġcenter": 4102,
      "New": 4103,
      "icles": 4104,
      "Ġscen": 4105,
      "equ": 4106,
      "esome": 4107,
      "};": 4108,
      "Ġer": 4109,
      "Ġahead": 4110,
      "Ġlocation": 4111,
      "amera": 4112,
      "EX": 4113,
      "rief": 4114,
      "Ġcirc": 4115,
      "Ġadditional": 4116,
      "asc": 4117,
      "Ġcast": 4118,
      "\").": 4119,
      "reak": 4120,
      "Ġclasses": 4121,
      "02": 4122,
      "iving": 4123,
      "Ġrelig": 4124,
      "Ġthrow": 4125,
      "Ġfilm": 4126,
      "Ġmur": 4127,
      "Ġforeign": 4128,
      "rible": 4129,
      "Ġcarry": 4130,
      "Ġadvice": 4131,
      "Ġmine": 4132,
      "());": 4133,
      "ady": 4134,
      "ighb": 4135,
      "\\\\": 4136,
      "ĠSci": 4137,
      "Out": 4138,
      "ĠEl": 4139,
      "Ġempty": 4140,
      "Ġbreath": 4141,
      "icit": 4142,
      "Ġstd": 4143,
      "Ġgreen": 4144,
      "Ġgrand": 4145,
      "Ġenjoyed": 4146,
      "color": 4147,
      "Ġcountries": 4148,
      "Ġmeaning": 4149,
      "parent": 4150,
      "Ġprofess": 4151,
      "url": 4152,
      "Ġproduction": 4153,
      "Ġfixed": 4154,
      "ĠStates": 4155,
      "Ġmember": 4156,
      "bin": 4157,
      "Ġquiet": 4158,
      "Ġ]": 4159,
      "Ġargument": 4160,
      "Ġtesting": 4161,
      "ĠGoogle": 4162,
      "page": 4163,
      "Ġseconds": 4164,
      "Ġloop": 4165,
      "Ġcollege": 4166,
      "________": 4167,
      "Ġwhose": 4168,
      "Pl": 4169,
      "connect": 4170,
      "Ġleaving": 4171,
      "Ġtight": 4172,
      "aign": 4173,
      "Ġhighly": 4174,
      "itic": 4175,
      "valu": 4176,
      "Ġrid": 4177,
      "ĠSm": 4178,
      "Ġreasons": 4179,
      "hib": 4180,
      "king": 4181,
      "Ġdescribed": 4182,
      "46": 4183,
      "ĊĠĠĠĠĠĠĠĠĠĠĠĠĠ": 4184,
      "Ġcontribut": 4185,
      "Ġderiv": 4186,
      "anc": 4187,
      "ĠKe": 4188,
      "obile": 4189,
      "Ġactivity": 4190,
      "Lay": 4191,
      "ĠGerm": 4192,
      "$,": 4193,
      "Ġ22": 4194,
      "Ġrights": 4195,
      "Ġdog": 4196,
      "Ġevidence": 4197,
      "Ġslowly": 4198,
      "ros": 4199,
      "Ġdemon": 4200,
      "Ġtruth": 4201,
      "Ġkilled": 4202,
      "Ġfully": 4203,
      "ĠAS": 4204,
      "itory": 4205,
      "Ġsitting": 4206,
      "User": 4207,
      "arely": 4208,
      "čĊĠĠĠĠĠĠĠ": 4209,
      "Ġflow": 4210,
      "IF": 4211,
      "yond": 4212,
      "Ġtask": 4213,
      "Ġpolicy": 4214,
      "49": 4215,
      "onents": 4216,
      "itude": 4217,
      "Ġtal": 4218,
      "Ġfinished": 4219,
      "mary": 4220,
      "Ġunderstanding": 4221,
      "Ġphysical": 4222,
      "ĠDis": 4223,
      "Ġcalling": 4224,
      "Ġnatural": 4225,
      "iam": 4226,
      "Ġpush": 4227,
      "Ġstat": 4228,
      "ald": 4229,
      "fortunately": 4230,
      "Ġburn": 4231,
      "ĠGener": 4232,
      "ĠChina": 4233,
      "istration": 4234,
      "Field": 4235,
      "ĠOpen": 4236,
      "Ġmodule": 4237,
      "ani": 4238,
      "ustr": 4239,
      "uel": 4240,
      "well": 4241,
      "Ġworse": 4242,
      "Ġsad": 4243,
      "Ġ__": 4244,
      "Ġsweet": 4245,
      "Ġclearly": 4246,
      "cut": 4247,
      "ĠReg": 4248,
      "MS": 4249,
      "Your": 4250,
      "Ġpurpose": 4251,
      "Ġweak": 4252,
      "ĠJan": 4253,
      "Ġweird": 4254,
      "Ġtelling": 4255,
      "Ġareas": 4256,
      "Ġ:=": 4257,
      "Ġreach": 4258,
      "roy": 4259,
      "title": 4260,
      "Ġdirection": 4261,
      "apan": 4262,
      "respond": 4263,
      "Ġgold": 4264,
      "Ġlos": 4265,
      "BC": 4266,
      "Ġwarm": 4267,
      "Ġhus": 4268,
      "Ġintern": 4269,
      "Ġhelps": 4270,
      "Ġhero": 4271,
      "Ġconcept": 4272,
      "Ġ);": 4273,
      "Ġopened": 4274,
      "md": 4275,
      "Ġlatest": 4276,
      "upport": 4277,
      "Ġurl": 4278,
      "entially": 4279,
      "Suppose": 4280,
      "sure": 4281,
      "ĠSw": 4282,
      "mark": 4283,
      "orage": 4284,
      "Ġmus": 4285,
      "ĠJack": 4286,
      "lear": 4287,
      "ese": 4288,
      "ĠGl": 4289,
      "image": 4290,
      "Ġcreating": 4291,
      "ĠNet": 4292,
      "\"></": 4293,
      "Ġmilit": 4294,
      "])": 4295,
      "Ġmount": 4296,
      "Ġfinan": 4297,
      "Ġcontains": 4298,
      "Ġputting": 4299,
      "Ġ<<": 4300,
      "lean": 4301,
      "ĠLicense": 4302,
      "Ġmicro": 4303,
      ")\"": 4304,
      "see": 4305,
      "Ġteacher": 4306,
      "EL": 4307,
      "ĠSu": 4308,
      "aven": 4309,
      "ĠDes": 4310,
      "odes": 4311,
      "ĠTV": 4312,
      "Ġconstruct": 4313,
      "Ġforget": 4314,
      "Ġaltern": 4315,
      "').": 4316,
      "cr": 4317,
      "ĠRepublic": 4318,
      "Ġmodels": 4319,
      "ids": 4320,
      "Ġweap": 4321,
      "Ġruns": 4322,
      "Ġfailed": 4323,
      "ĠSim": 4324,
      "Ġobjects": 4325,
      "Ġassociated": 4326,
      "oving": 4327,
      "ij": 4328,
      "pg": 4329,
      "Ġallows": 4330,
      "ĠSuppose": 4331,
      "Ġdetect": 4332,
      "Table": 4333,
      "Ġobviously": 4334,
      "Ġband": 4335,
      "Ġge": 4336,
      "First": 4337,
      "Ġtour": 4338,
      "pass": 4339,
      "Ġinterface": 4340,
      "Ġappears": 4341,
      "ROM": 4342,
      ";&": 4343,
      "Ġbrows": 4344,
      "Ġ2016": 4345,
      "object": 4346,
      "atically": 4347,
      "ĠCH": 4348,
      "idget": 4349,
      "lin": 4350,
      "Ġeffects": 4351,
      "ram": 4352,
      "mitted": 4353,
      "valid": 4354,
      "Ġheavy": 4355,
      "Ġfear": 4356,
      "Ġwondering": 4357,
      "Ġinflu": 4358,
      "itute": 4359,
      "aching": 4360,
      ">>": 4361,
      "Ġplatform": 4362,
      "Ġdress": 4363,
      "pat": 4364,
      "Ġhar": 4365,
      "Some": 4366,
      "Ġdriver": 4367,
      "True": 4368,
      "ĠAg": 4369,
      "Ġtemper": 4370,
      "Ġprec": 4371,
      "aches": 4372,
      "Ġgirls": 4373,
      "aming": 4374,
      "ĠWH": 4375,
      "Ġstupid": 4376,
      "UL": 4377,
      "ĠFirst": 4378,
      "Size": 4379,
      "Ġindustry": 4380,
      "bo": 4381,
      "Ġbound": 4382,
      "Ġapply": 4383,
      "Ġchest": 4384,
      "Ġbiggest": 4385,
      "Ġcollection": 4386,
      "Ġstreng": 4387,
      "Ġsolid": 4388,
      "while": 4389,
      "87": 4390,
      "poss": 4391,
      "ĠJava": 4392,
      "Ġreturns": 4393,
      "'.": 4394,
      "Ġseparate": 4395,
      "Ġbrain": 4396,
      "sm": 4397,
      "ga": 4398,
      "enn": 4399,
      "web": 4400,
      "Ġdied": 4401,
      "Ġtrouble": 4402,
      "Ġeffic": 4403,
      "Ġ23": 4404,
      "button": 4405,
      "apped": 4406,
      "Request": 4407,
      "core": 4408,
      "âĢĺ": 4409,
      "Ġdynam": 4410,
      "select": 4411,
      "../../": 4412,
      "Ġtechnology": 4413,
      "oto": 4414,
      "RL": 4415,
      "ĠPlease": 4416,
      "Ġprime": 4417,
      "pm": 4418,
      "irtual": 4419,
      "istance": 4420,
      "ĠPresident": 4421,
      "ĠYes": 4422,
      "ĠPart": 4423,
      "Ġestab": 4424,
      "Ġcalcul": 4425,
      "Ġnegative": 4426,
      "Ġreleased": 4427,
      "Ġpair": 4428,
      "indow": 4429,
      "ĠFrom": 4430,
      "Ġdivided": 4431,
      "Log": 4432,
      "Ġstage": 4433,
      "Ġconsole": 4434,
      "UM": 4435,
      "pring": 4436,
      "ĠMet": 4437,
      "asy": 4438,
      "ibr": 4439,
      "Ġshall": 4440,
      "Ġanti": 4441,
      "Ġarr": 4442,
      "actions": 4443,
      "Ġdeb": 4444,
      "grad": 4445,
      "Ġï": 4446,
      "ocket": 4447,
      "Ġdirectory": 4448,
      "Ġsmaller": 4449,
      "ichael": 4450,
      "Ġled": 4451,
      "Ġshouldn": 4452,
      "Ġproperties": 4453,
      "Ġexisting": 4454,
      "Ġactive": 4455,
      "Ġbuff": 4456,
      "ĠGood": 4457,
      "ushing": 4458,
      "Ġprote": 4459,
      "ender": 4460,
      "Ġinfo": 4461,
      "Ġ$(": 4462,
      "Ġholding": 4463,
      "iven": 4464,
      "urg": 4465,
      "uh": 4466,
      "hest": 4467,
      "Ġbeat": 4468,
      "ĠIP": 4469,
      "Ġ27": 4470,
      "Ġbank": 4471,
      "Ġinj": 4472,
      "Query": 4473,
      "Ġunit": 4474,
      "Ġneighb": 4475,
      "Ġwilling": 4476,
      "Ġcounter": 4477,
      "omething": 4478,
      "istry": 4479,
      "emy": 4480,
      "pha": 4481,
      "edia": 4482,
      "Index": 4483,
      "iliar": 4484,
      "Ġturns": 4485,
      "Ġfingers": 4486,
      "ĠON": 4487,
      "ĠRuss": 4488,
      "ĠSouth": 4489,
      "However": 4490,
      "Ġdaughter": 4491,
      "ios": 4492,
      "Fl": 4493,
      "Service": 4494,
      "89": 4495,
      "ĠWorld": 4496,
      "ĠMon": 4497,
      "ĠAust": 4498,
      "Code": 4499,
      "Ġsecret": 4500,
      "cat": 4501,
      "Ġdanger": 4502,
      "Ġinn": 4503,
      "ening": 4504,
      "ograph": 4505,
      "look": 4506,
      "Ġsatisf": 4507,
      "Ġpaid": 4508,
      "Hand": 4509,
      "rie": 4510,
      "info": 4511,
      "ĠCity": 4512,
      "gor": 4513,
      "friend": 4514,
      "Ġshowing": 4515,
      "Ġesc": 4516,
      "cd": 4517,
      "Ġfinding": 4518,
      "stream": 4519,
      "03": 4520,
      "ersion": 4521,
      "Ġhappening": 4522,
      "Look": 4523,
      "TR": 4524,
      "Ġbroad": 4525,
      "Ġnature": 4526,
      "vis": 4527,
      "Ġpressure": 4528,
      "Ġpopular": 4529,
      "oles": 4530,
      "Ġspir": 4531,
      "Ġnational": 4532,
      "ĠKing": 4533,
      "aly": 4534,
      "Ġrom": 4535,
      "label": 4536,
      "icrosoft": 4537,
      "ĠĠĠĠĠĠĠĠĠĠĠĠĠ": 4538,
      "Ġtotally": 4539,
      "07": 4540,
      "ivil": 4541,
      "current": 4542,
      "Ġsession": 4543,
      "ĠBrit": 4544,
      "Dis": 4545,
      "ĠMark": 4546,
      "Ġthus": 4547,
      "Ġhelped": 4548,
      "Ġbirth": 4549,
      "ĠAng": 4550,
      "Ġenter": 4551,
      "Ġglass": 4552,
      "array": 4553,
      ".'": 4554,
      "Ġsomewhere": 4555,
      "Ġstars": 4556,
      "Ġtag": 4557,
      "ĠLike": 4558,
      "Element": 4559,
      "Ġfields": 4560,
      "Ġbroken": 4561,
      "Ġhusband": 4562,
      "Ġbag": 4563,
      "Ġstock": 4564,
      "Ġ2017": 4565,
      "option": 4566,
      "Ġcampaign": 4567,
      "Ġotherwise": 4568,
      "Ġmanagement": 4569,
      "Ġrock": 4570,
      "ĠComm": 4571,
      "Controller": 4572,
      "izes": 4573,
      "Good": 4574,
      "Ġletters": 4575,
      "erc": 4576,
      "Ġminute": 4577,
      "Ġeight": 4578,
      "Ġvote": 4579,
      "Ġ2012": 4580,
      "57": 4581,
      "Model": 4582,
      "ĠAPI": 4583,
      "Ġcrazy": 4584,
      "round": 4585,
      "Ġ\"[": 4586,
      "omb": 4587,
      "ĠMore": 4588,
      "Ġtests": 4589,
      "Ġ~": 4590,
      "ferences": 4591,
      "Ġdel": 4592,
      "ĠAN": 4593,
      "Ġopportunity": 4594,
      "Ġbeyond": 4595,
      "Ġ26": 4596,
      "Ġspread": 4597,
      "aa": 4598,
      "iring": 4599,
      "atives": 4600,
      "Ġreturned": 4601,
      "pendent": 4602,
      "atur": 4603,
      "42": 4604,
      "Ġfinish": 4605,
      "ĠHarry": 4606,
      "create": 4607,
      "Ġderivative": 4608,
      "arest": 4609,
      "Button": 4610,
      "Ġlots": 4611,
      "Ġfed": 4612,
      "XX": 4613,
      "Ġstudent": 4614,
      "urrent": 4615,
      "Ġtick": 4616,
      ")?": 4617,
      "active": 4618,
      "Ġsample": 4619,
      "ĊĠĠĠĠĠĠĠĠĠĠĠĠĠĠĠĠĠĠĠĠĠĠĠĠĠĠĠ": 4620,
      "rite": 4621,
      "ĠAre": 4622,
      "Ġcaught": 4623,
      "ĠNorth": 4624,
      "example": 4625,
      "appoint": 4626,
      "ooth": 4627,
      "Ġrealize": 4628,
      "ĠNULL": 4629,
      "ipped": 4630,
      "Ġrule": 4631,
      "Info": 4632,
      "Ġoil": 4633,
      "la": 4634,
      "Ġmaster": 4635,
      "main": 4636,
      "Ġwalked": 4637,
      "Ġwear": 4638,
      "Ġvac": 4639,
      "works": 4640,
      "Ġcontract": 4641,
      "Ġquarter": 4642,
      "Ġ2015": 4643,
      "Ġsteps": 4644,
      "Ġtruly": 4645,
      "Ðº": 4646,
      "Ġ\"(": 4647,
      "Ġneck": 4648,
      "ĠSince": 4649,
      "arg": 4650,
      "Ġ2014": 4651,
      "Ġ2013": 4652,
      "Box": 4653,
      "ithub": 4654,
      "}\\": 4655,
      "Ġreceive": 4656,
      "Ġsec": 4657,
      "encies": 4658,
      "Ġsurface": 4659,
      "local": 4660,
      "Ġsummer": 4661,
      "Ġcloser": 4662,
      "ĊĊĠĊ": 4663,
      "istics": 4664,
      "rench": 4665,
      "ALL": 4666,
      "Map": 4667,
      "some": 4668,
      "Ġdoubt": 4669,
      "Ġclot": 4670,
      "erg": 4671,
      "ĠNote": 4672,
      "May": 4673,
      "Ġthroughout": 4674,
      "hent": 4675,
      "Ġ28": 4676,
      "Ġglad": 4677,
      "Ġlaug": 4678,
      "Ġresources": 4679,
      "Ġdisease": 4680,
      "ocation": 4681,
      "Ġgenerally": 4682,
      "Ġsrc": 4683,
      "Ġstress": 4684,
      "ĠData": 4685,
      "Ġaim": 4686,
      "Ġadvant": 4687,
      "Ġeducation": 4688,
      "Ġexam": 4689,
      "ĠMac": 4690,
      "Ġassume": 4691,
      "Ġeventually": 4692,
      "Ġfat": 4693,
      "ĠGo": 4694,
      "Manager": 4695,
      "Ġfilter": 4696,
      "cellent": 4697,
      "ĠPat": 4698,
      "SON": 4699,
      "Ġaf": 4700,
      "android": 4701,
      "Ġwelcome": 4702,
      "Ġpopulation": 4703,
      "ĠSee": 4704,
      "Ġcharge": 4705,
      "\",\"": 4706,
      "Ġkit": 4707,
      "Ġachieve": 4708,
      "Ġsetup": 4709,
      "ĠCount": 4710,
      "Ġpatient": 4711,
      "Ġfant": 4712,
      "ems": 4713,
      "ulate": 4714,
      "imately": 4715,
      "Ġextremely": 4716,
      "anged": 4717,
      "ifying": 4718,
      "azon": 4719,
      "08": 4720,
      "osh": 4721,
      "Ġtom": 4722,
      "Ġsem": 4723,
      "06": 4724,
      "arently": 4725,
      "Ġdu": 4726,
      "Ġsubst": 4727,
      "orge": 4728,
      "Ġlab": 4729,
      "Ġoppos": 4730,
      "ĠMost": 4731,
      "56": 4732,
      "sych": 4733,
      "())": 4734,
      "Ġscene": 4735,
      "Ġreached": 4736,
      "iber": 4737,
      "ĠTw": 4738,
      "Ġfa": 4739,
      "Ġrat": 4740,
      "Ġoverall": 4741,
      "Ġnamed": 4742,
      "Ġcourt": 4743,
      "Ġecho": 4744,
      "ĠComp": 4745,
      "Ġparameters": 4746,
      "Color": 4747,
      "Ġcompar": 4748,
      "style": 4749,
      "Ġlaugh": 4750,
      "Ġincludes": 4751,
      "ran": 4752,
      "Config": 4753,
      "Ġdistance": 4754,
      "================": 4755,
      "Ġmedical": 4756,
      "osis": 4757,
      "iler": 4758,
      "Ġincreased": 4759,
      "Ġregion": 4760,
      "lient": 4761,
      "Ġvir": 4762,
      "Ġmanaged": 4763,
      "\"><": 4764,
      "Ġlimited": 4765,
      "ĠAM": 4766,
      "Ġplus": 4767,
      "untu": 4768,
      "Ġdim": 4769,
      "Ġlearned": 4770,
      "ĠOS": 4771,
      "Ġproperly": 4772,
      "tained": 4773,
      "static": 4774,
      "Ñĥ": 4775,
      "actory": 4776,
      "ĠSE": 4777,
      "Ġparticularly": 4778,
      "cel": 4779,
      "pi": 4780,
      "Ġequal": 4781,
      "Ġsmart": 4782,
      "oken": 4783,
      "gorith": 4784,
      "iot": 4785,
      "Ġdespite": 4786,
      "Ġleaders": 4787,
      "Ġdeveloped": 4788,
      "Ġok": 4789,
      "Ġtools": 4790,
      "ĠHouse": 4791,
      "ĠPol": 4792,
      "Ġappreciated": 4793,
      "Ġyell": 4794,
      "case": 4795,
      "Ġkick": 4796,
      "ĠMod": 4797,
      "ĠSet": 4798,
      "ights": 4799,
      "max": 4800,
      "43": 4801,
      "dr": 4802,
      "flow": 4803,
      "PC": 4804,
      "Ġmill": 4805,
      "Trans": 4806,
      "ĠWhich": 4807,
      "Ġcomfortable": 4808,
      "Ġsister": 4809,
      "ham": 4810,
      "illa": 4811,
      "UE": 4812,
      "Okay": 4813,
      "Run": 4814,
      "Ġtherefore": 4815,
      "Per": 4816,
      "Ġ80": 4817,
      "Ġtopic": 4818,
      "Ġcandid": 4819,
      "Ġlarger": 4820,
      "Ġaccur": 4821,
      "Ġappropri": 4822,
      "under": 4823,
      "bum": 4824,
      "Ġselected": 4825,
      "Ġinterview": 4826,
      "Ġchanging": 4827,
      "ordin": 4828,
      "Ġzero": 4829,
      "known": 4830,
      "ecute": 4831,
      "Ġappreciate": 4832,
      "find": 4833,
      "istr": 4834,
      "Ġcore": 4835,
      "Ġlap": 4836,
      "Ġ||": 4837,
      "Ġprojects": 4838,
      "Us": 4839,
      "raph": 4840,
      "HP": 4841,
      "Ġprimary": 4842,
      "Ġbillion": 4843,
      "Ġimagine": 4844,
      "Ġquant": 4845,
      "Ġdistr": 4846,
      "ondon": 4847,
      "ĠTom": 4848,
      "Ġble": 4849,
      "Ġremind": 4850,
      "Ġreplacement": 4851,
      "pected": 4852,
      "itable": 4853,
      "Ġ32": 4854,
      "ka": 4855,
      "Ġplans": 4856,
      "Ġmilitary": 4857,
      "asure": 4858,
      "Ġcontinued": 4859,
      "vey": 4860,
      "Ġnor": 4861,
      "rec": 4862,
      "Count": 4863,
      "Sub": 4864,
      "Ġfunny": 4865,
      "appe": 4866,
      "Ġcamera": 4867,
      "Ġmessages": 4868,
      "Ġtrade": 4869,
      "Ġperfectly": 4870,
      "Ġawesome": 4871,
      "Ġerrors": 4872,
      "LECT": 4873,
      "Ġdad": 4874,
      "Ġattend": 4875,
      "Ġtheory": 4876,
      "Me": 4877,
      "ĠDoes": 4878,
      "Ġpublished": 4879,
      "Ġcontinu": 4880,
      "Ġcop": 4881,
      "ĠĊĠĠĠ": 4882,
      "write": 4883,
      "aker": 4884,
      "Ġsequence": 4885,
      "////////": 4886,
      "ĠOther": 4887,
      "Ġbecomes": 4888,
      "Ġfresh": 4889,
      "clus": 4890,
      "height": 4891,
      "Ġincreasing": 4892,
      "Ġgas": 4893,
      "Ġdocumentation": 4894,
      "Ġadjust": 4895,
      "iqu": 4896,
      "Ġclin": 4897,
      "rey": 4898,
      "Regards": 4899,
      "Ġsociety": 4900,
      "Ġcollect": 4901,
      "Line": 4902,
      "Ġscale": 4903,
      "Where": 4904,
      "Ġdiscussion": 4905,
      "Ġstrange": 4906,
      "Ġparameter": 4907,
      "Ġgrowing": 4908,
      "Ġkeeping": 4909,
      "ÂłÂł": 4910,
      "KE": 4911,
      "source": 4912,
      "Ġdisappoint": 4913,
      "Ġknowing": 4914,
      "Ġpoly": 4915,
      "Ġfollows": 4916,
      "avig": 4917,
      "ANT": 4918,
      "Ġvariables": 4919,
      "Ġremoved": 4920,
      "node": 4921,
      "ounce": 4922,
      "Ab": 4923,
      "acity": 4924,
      "ipp": 4925,
      "Ġseven": 4926,
      "ico": 4927,
      "anted": 4928,
      "Ġcaused": 4929,
      "enge": 4930,
      "Ġrub": 4931,
      "server": 4932,
      "ora": 4933,
      "Ġborder": 4934,
      "ula": 4935,
      "Ġlabel": 4936,
      "Ġwalking": 4937,
      "inct": 4938,
      "Ġstood": 4939,
      "Ġexpos": 4940,
      "ĠCD": 4941,
      "Ġcancer": 4942,
      "pective": 4943,
      "Ġrace": 4944,
      "ERE": 4945,
      "Build": 4946,
      "Ġmo": 4947,
      "Does": 4948,
      "acter": 4949,
      "Ġdemand": 4950,
      "Ġvs": 4951,
      "ui": 4952,
      "ech": 4953,
      "ĠIT": 4954,
      "nding": 4955,
      "ĠWest": 4956,
      "Ġfol": 4957,
      "Ġfinancial": 4958,
      "UI": 4959,
      "olutions": 4960,
      "Ġhospital": 4961,
      "igr": 4962,
      "Ġprovides": 4963,
      "Ġwild": 4964,
      "Ġpredict": 4965,
      "Ġshared": 4966,
      "conf": 4967,
      "Ġinform": 4968,
      "Ġcards": 4969,
      "ounced": 4970,
      "Ġbul": 4971,
      "terday": 4972,
      "ĠJe": 4973,
      "ĠCO": 4974,
      "Ġtrig": 4975,
      "ĊĊĠĠ": 4976,
      "Ġliterally": 4977,
      "Ġposted": 4978,
      "ipping": 4979,
      "Ġdesk": 4980,
      "Ġedge": 4981,
      "iation": 4982,
      "Ġreplace": 4983,
      "Ġheat": 4984,
      "result": 4985,
      "Ġreality": 4986,
      "Layout": 4987,
      "chen": 4988,
      "Att": 4989,
      "lebr": 4990,
      "Ġnearest": 4991,
      "ĠEar": 4992,
      "onday": 4993,
      "grade": 4994,
      "Ġlegal": 4995,
      "abs": 4996,
      "Ġscr": 4997,
      "oms": 4998,
      "ĠDemocr": 4999,
      "Ġcoff": 5000,
      "iously": 5001,
      "hold": 5002,
      "apache": 5003,
      "Ġodd": 5004,
      "ĠBecause": 5005,
      "Ġ2018": 5006,
      "ĠNational": 5007,
      "Ġincred": 5008,
      "Ġrestr": 5009,
      "Ġscience": 5010,
      "possible": 5011,
      "Ġstaff": 5012,
      "Ġvolume": 5013,
      "api": 5014,
      "ĠOur": 5015,
      "Ġmodern": 5016,
      "product": 5017,
      "izer": 5018,
      "Ġfamiliar": 5019,
      "Ġanaly": 5020,
      "CON": 5021,
      "ĠDE": 5022,
      "Ġdescription": 5023,
      "Ġdemonstr": 5024,
      "Ġleading": 5025,
      "Ġdistribution": 5026,
      "isions": 5027,
      "Ġjobs": 5028,
      "itation": 5029,
      "59": 5030,
      "FL": 5031,
      "Ġpark": 5032,
      "CP": 5033,
      "Ġculture": 5034,
      "avas": 5035,
      "Ġaspect": 5036,
      "Ġstack": 5037,
      "Method": 5038,
      "Ġgreater": 5039,
      "etch": 5040,
      "Stream": 5041,
      "uffer": 5042,
      "Message": 5043,
      "09": 5044,
      "uary": 5045,
      "ĠCr": 5046,
      "unction": 5047,
      "Ġconduct": 5048,
      "Ġweekend": 5049,
      "Ġsettings": 5050,
      "Ġsolve": 5051,
      "Ġstanding": 5052,
      "OK": 5053,
      "68": 5054,
      "Ġult": 5055,
      "ĠLinux": 5056,
      "ĠOct": 5057,
      "Ġblog": 5058,
      "Ġstrength": 5059,
      "Ste": 5060,
      "Ġhoping": 5061,
      "Ġfirm": 5062,
      "ship": 5063,
      "Ġsurprised": 5064,
      "Br": 5065,
      "Ġcontain": 5066,
      "ĠStud": 5067,
      "........": 5068,
      "arp": 5069,
      "Ġdaily": 5070,
      "Also": 5071,
      "ĊĊĠĠĠĠĠĠĠĠĠĠĠĠĠĠĠĠ": 5072,
      "Ġrequires": 5073,
      "Ġcorrectly": 5074,
      "Ġpeace": 5075,
      "Ġconversation": 5076,
      "Ġrot": 5077,
      "Ġsuddenly": 5078,
      "Ġcorrespond": 5079,
      "Ġplaced": 5080,
      "Link": 5081,
      "raid": 5082,
      "Ġsets": 5083,
      "hern": 5084,
      "ulated": 5085,
      "Ġraised": 5086,
      "Ġfaster": 5087,
      ")(": 5088,
      "ĠFriday": 5089,
      "Ġtele": 5090,
      "Ġnil": 5091,
      "otal": 5092,
      "ĠDean": 5093,
      "Ġwood": 5094,
      "ĠBlack": 5095,
      "uke": 5096,
      "Ġcredit": 5097,
      "Ġstuck": 5098,
      "Ġeconomic": 5099,
      "Ġship": 5100,
      "Ġfont": 5101,
      "Ġchem": 5102,
      "Node": 5103,
      "Ġimplementation": 5104,
      "Ġsales": 5105,
      "Department": 5106,
      "ĠĠĠĠĠĠĠĠĠĠĠĠĠĠĠĠĠĠĠĠĠĠĠĠĠĠĠĠĠĠĠĠĠĠĠĠĠĠĠĠĠĠĠĠĠĠĠĠ": 5107,
      "iers": 5108,
      "ifier": 5109,
      "ĠJapan": 5110,
      "anks": 5111,
      "Ġchannel": 5112,
      "Ġexception": 5113,
      "Ġopening": 5114,
      "Ġhighest": 5115,
      "ormal": 5116,
      "Ġhadn": 5117,
      "Ġencour": 5118,
      "illy": 5119,
      "Ġbrand": 5120,
      "she": 5121,
      "ĠEdit": 5122,
      "Ġintend": 5123,
      "Ġrealized": 5124,
      "Ġpossibly": 5125,
      "TE": 5126,
      "Ġintr": 5127,
      "Ġletter": 5128,
      "Ġord": 5129,
      "({": 5130,
      "ses": 5131,
      "Ġconfiguration": 5132,
      "Ġfolder": 5133,
      "document": 5134,
      "Inter": 5135,
      "AND": 5136,
      "angle": 5137,
      "alt": 5138,
      "Ġwonderful": 5139,
      "win": 5140,
      "first": 5141,
      "Ġsomehow": 5142,
      "ĠHigh": 5143,
      "Ġwatched": 5144,
      "ĠFile": 5145,
      "Ġfans": 5146,
      "pril": 5147,
      "Ġuns": 5148,
      "Ġbatter": 5149,
      "clusion": 5150,
      "ĠAc": 5151,
      "avascript": 5152,
      "Ġbigger": 5153,
      "Ġspect": 5154,
      "position": 5155,
      "Ġbright": 5156,
      "Ġbes": 5157,
      "uster": 5158,
      "Ġsaf": 5159,
      "Ġindic": 5160,
      "Ġsick": 5161,
      "Ġedit": 5162,
      "ding": 5163,
      "ĠWeb": 5164,
      "Ġcapital": 5165,
      "Ġlean": 5166,
      "Ġpun": 5167,
      "Ġattract": 5168,
      "Ġemb": 5169,
      "Ġcomponent": 5170,
      "Ġreports": 5171,
      "Ġdecide": 5172,
      "wiki": 5173,
      "ario": 5174,
      "Ġconnected": 5175,
      "Ġannoy": 5176,
      "Ġmajority": 5177,
      "Ġshoulder": 5178,
      "block": 5179,
      "Ġchalleng": 5180,
      "icine": 5181,
      "Ent": 5182,
      "ĠDavid": 5183,
      "ĠYOU": 5184,
      "Ġactions": 5185,
      "emic": 5186,
      "Ġbunch": 5187,
      "txt": 5188,
      "PD": 5189,
      "Ñı": 5190,
      "Ġapplications": 5191,
      "Ġshape": 5192,
      "Ġinternet": 5193,
      "Ġwindows": 5194,
      "False": 5195,
      "Ġentry": 5196,
      "ĠMarch": 5197,
      "Ġpow": 5198,
      "ĠSen": 5199,
      "ĠDef": 5200,
      "SQL": 5201,
      "Ġexcited": 5202,
      "Source": 5203,
      "level": 5204,
      "Ġ90": 5205,
      "System": 5206,
      "AME": 5207,
      "Ã³": 5208,
      "ategy": 5209,
      "oat": 5210,
      "ãĤ": 5211,
      "Bl": 5212,
      "Ġapart": 5213,
      "Ġbill": 5214,
      "omin": 5215,
      "Ġcorner": 5216,
      "github": 5217,
      "Ġtrain": 5218,
      "Ġusual": 5219,
      "Ġperformed": 5220,
      "dat": 5221,
      "IB": 5222,
      "ĠGreat": 5223,
      "ille": 5224,
      "term": 5225,
      "ĠThank": 5226,
      "ĠCenter": 5227,
      "Ġwra": 5228,
      "ĠAfr": 5229,
      "Ġbud": 5230,
      "Ġeffective": 5231,
      "Ġtrip": 5232,
      "Ġdont": 5233,
      "Ġdefine": 5234,
      "Ġrob": 5235,
      "anna": 5236,
      "Ġcareer": 5237,
      "Ġveh": 5238,
      "SC": 5239,
      "ĠAug": 5240,
      "Ð²": 5241,
      "Ġreb": 5242,
      "Content": 5243,
      "ĠOver": 5244,
      "Ġdesigned": 5245,
      "Ġproced": 5246,
      "ĠCON": 5247,
      "asks": 5248,
      "Ġhistor": 5249,
      "coming": 5250,
      "Ġmenu": 5251,
      "Ġ29": 5252,
      "ocal": 5253,
      "aked": 5254,
      "ĠLog": 5255,
      "ups": 5256,
      "Ġacqu": 5257,
      "Ġbeg": 5258,
      "54": 5259,
      "ĠPM": 5260,
      "Rec": 5261,
      "dir": 5262,
      "Ġ($": 5263,
      "rael": 5264,
      "Ġscient": 5265,
      "Ġdrag": 5266,
      "Ġterr": 5267,
      "ests": 5268,
      "---": 5269,
      "{\\": 5270,
      "Ġloud": 5271,
      "Ġassess": 5272,
      "click": 5273,
      "DB": 5274,
      "yr": 5275,
      "IV": 5276,
      "ias": 5277,
      "Ġtells": 5278,
      ")$": 5279,
      "Ġworst": 5280,
      "ccording": 5281,
      "ĠBen": 5282,
      "Ġinsert": 5283,
      "Ġtwice": 5284,
      "wood": 5285,
      "});": 5286,
      "unday": 5287,
      "Ġoccas": 5288,
      "Ġconver": 5289,
      "Did": 5290,
      "Ġclub": 5291,
      "vere": 5292,
      "Ġinternal": 5293,
      "Ġauto": 5294,
      "only": 5295,
      "Ġpassword": 5296,
      "oman": 5297,
      "Calculate": 5298,
      "omen": 5299,
      "pir": 5300,
      "Ġconstant": 5301,
      "Sim": 5302,
      "Ġpal": 5303,
      "ĠAp": 5304,
      "ĠAlex": 5305,
      "Ġ2010": 5306,
      "Ġflat": 5307,
      "default": 5308,
      "ĠAR": 5309,
      "GB": 5310,
      "ĠĊĊ": 5311,
      "Ġnation": 5312,
      "ĠSub": 5313,
      "=\\": 5314,
      "Ġdiagn": 5315,
      "urance": 5316,
      "night": 5317,
      "Ġreader": 5318,
      "Ġapplied": 5319,
      "Ġ2011": 5320,
      "Ġbroke": 5321,
      "ĠRead": 5322,
      "gers": 5323,
      "Come": 5324,
      "Ġcompos": 5325,
      "func": 5326,
      "Ġdevices": 5327,
      "Ġgotten": 5328,
      "Ġmovement": 5329,
      "Ġpowerful": 5330,
      "Ġshock": 5331,
      "Ġprin": 5332,
      "ii": 5333,
      "Ġdegree": 5334,
      "show": 5335,
      "Ġbasis": 5336,
      "Ġfilled": 5337,
      "ĠPeople": 5338,
      "ART": 5339,
      "ĠĠĊ": 5340,
      "Ġì": 5341,
      "Ġbattle": 5342,
      "ancy": 5343,
      "antic": 5344,
      "Ġthinks": 5345,
      "Ġring": 5346,
      "ensions": 5347,
      "Ġscore": 5348,
      "Ġsmiled": 5349,
      "Ġsynt": 5350,
      "Ġtemplate": 5351,
      "Ġdry": 5352,
      "Ġcoffee": 5353,
      "Ġeverybody": 5354,
      "Ġupdated": 5355,
      "Ġearth": 5356,
      "sk": 5357,
      "Ġdomain": 5358,
      "cles": 5359,
      "84": 5360,
      "rt": 5361,
      "Ġturning": 5362,
      "ools": 5363,
      "Ġkernel": 5364,
      "Ġending": 5365,
      "Rep": 5366,
      "Ġdecre": 5367,
      "war": 5368,
      "Ġplanning": 5369,
      "Ġalgorith": 5370,
      "Ġminor": 5371,
      "free": 5372,
      "gener": 5373,
      "Ġrap": 5374,
      "len": 5375,
      "ĠLou": 5376,
      "Ġepis": 5377,
      "Ġanswers": 5378,
      "Ġflu": 5379,
      "Ġforced": 5380,
      "ya": 5381,
      "orial": 5382,
      "eed": 5383,
      "itiz": 5384,
      "ĠTrans": 5385,
      "Ġmanager": 5386,
      "json": 5387,
      "These": 5388,
      "std": 5389,
      "Edit": 5390,
      "has": 5391,
      "esus": 5392,
      "Ġcosts": 5393,
      "Ð¼": 5394,
      "Ġauth": 5395,
      "google": 5396,
      "semb": 5397,
      "Ġconcent": 5398,
      "Ġappropriate": 5399,
      "Ġmissed": 5400,
      "Ġsen": 5401,
      "Ġcelebr": 5402,
      "project": 5403,
      "ptions": 5404,
      "ĠMat": 5405,
      "rees": 5406,
      "inese": 5407,
      "Ġhyp": 5408,
      "Ġexamples": 5409,
      "Ġrough": 5410,
      "force": 5411,
      "čĊĠĠĠĠĠ": 5412,
      "ĠNS": 5413,
      "ĠJune": 5414,
      "illed": 5415,
      "pret": 5416,
      "Ġweren": 5417,
      "ications": 5418,
      "While": 5419,
      "ĠAT": 5420,
      "Ġremote": 5421,
      "Ġcheap": 5422,
      "IA": 5423,
      "msg": 5424,
      "Ġpreviously": 5425,
      "Create": 5426,
      "Ġpresence": 5427,
      "ufact": 5428,
      "Ġestim": 5429,
      "rd": 5430,
      "gment": 5431,
      "Ġrelevant": 5432,
      "Ġtoward": 5433,
      "ĠFace": 5434,
      "Ġgenerated": 5435,
      "Ġ35": 5436,
      "ĠLondon": 5437,
      "Bar": 5438,
      "ĠĠĠĠĠĠĠĠĠĠĠĠĠĠ": 5439,
      "Ġpsych": 5440,
      "za": 5441,
      "Ġdropped": 5442,
      "Ġgro": 5443,
      "ĠOut": 5444,
      "Ġfairly": 5445,
      "Ġmir": 5446,
      "Who": 5447,
      "Ġqual": 5448,
      "Ġboys": 5449,
      "Ġdrug": 5450,
      "uesday": 5451,
      "berg": 5452,
      "Ġsimpl": 5453,
      "Ġsuccessful": 5454,
      "ĠJames": 5455,
      "ican": 5456,
      "Ġtransfer": 5457,
      "sql": 5458,
      "oices": 5459,
      "Ġbrief": 5460,
      "adding": 5461,
      "Ġforgot": 5462,
      "ATION": 5463,
      "94": 5464,
      "Ġentirely": 5465,
      "ĠSan": 5466,
      "Ġchair": 5467,
      "Every": 5468,
      "Ġadvantage": 5469,
      "phone": 5470,
      ".--": 5471,
      "Ġregarding": 5472,
      "have": 5473,
      "gar": 5474,
      "ĠRem": 5475,
      "``": 5476,
      "Ġskills": 5477,
      "rough": 5478,
      "inn": 5479,
      "âĪ": 5480,
      "rip": 5481,
      "install": 5482,
      "Ġafraid": 5483,
      "ulations": 5484,
      "rome": 5485,
      "search": 5486,
      "Ġconsidering": 5487,
      "cons": 5488,
      "ensity": 5489,
      "acle": 5490,
      "src": 5491,
      "Ġcivil": 5492,
      "/(-": 5493,
      "rian": 5494,
      "Ã¡": 5495,
      "estern": 5496,
      "Ġfault": 5497,
      "alle": 5498,
      "Ġcontroller": 5499,
      "arrow": 5500,
      "Ġfemale": 5501,
      "Ġoptim": 5502,
      "ĠGeneral": 5503,
      "ername": 5504,
      "Ġfeelings": 5505,
      "ĠMonday": 5506,
      "ban": 5507,
      "Ġmagic": 5508,
      "Ġanywhere": 5509,
      "SH": 5510,
      "ours": 5511,
      "rm": 5512,
      "Ġevalu": 5513,
      "!!!": 5514,
      "Ġoperation": 5515,
      "Ġpictures": 5516,
      "Ġhasn": 5517,
      "ĠOnce": 5518,
      "arsh": 5519,
      "Ġpriv": 5520,
      "ÃŃ": 5521,
      "Ġwearing": 5522,
      "Ġprograms": 5523,
      "Ġspirit": 5524,
      "Ġdefinition": 5525,
      "event": 5526,
      "ĠSteve": 5527,
      "cil": 5528,
      "aturday": 5529,
      "(\\": 5530,
      "Ġexcellent": 5531,
      "Ġdetermine": 5532,
      "css": 5533,
      "ĠSchool": 5534,
      "]\"": 5535,
      "ĠSept": 5536,
      "Which": 5537,
      "was": 5538,
      "agement": 5539,
      "Ġ///": 5540,
      "otes": 5541,
      "Ġje": 5542,
      "Property": 5543,
      "EE": 5544,
      "Ġgenerate": 5545,
      "Ġteams": 5546,
      "Ġseat": 5547,
      "Click": 5548,
      "Ġstreet": 5549,
      "Ġsafety": 5550,
      "Ġsources": 5551,
      "Ġcustomers": 5552,
      "FA": 5553,
      "oper": 5554,
      "ĠAD": 5555,
      "ursday": 5556,
      "Ġautomatically": 5557,
      "ĠURL": 5558,
      "Group": 5559,
      "inte": 5560,
      "Ã¤": 5561,
      "}$": 5562,
      "Ġhook": 5563,
      "Connect": 5564,
      "Ġtransform": 5565,
      "etic": 5566,
      "Ġprop": 5567,
      "bon": 5568,
      "ĠUp": 5569,
      "Since": 5570,
      "Ġ};": 5571,
      "Ġexerc": 5572,
      "41": 5573,
      "Ġeconomy": 5574,
      "ander": 5575,
      "Ġensure": 5576,
      "Ġxml": 5577,
      "Ġmonitor": 5578,
      "ĠSQL": 5579,
      "Ġkeeps": 5580,
      "Ġbelong": 5581,
      "long": 5582,
      "Ġmargin": 5583,
      "\"]": 5584,
      "Ġpet": 5585,
      "Ġlib": 5586,
      "ography": 5587,
      "ĠCap": 5588,
      "ission": 5589,
      "Ġtemperature": 5590,
      "ITH": 5591,
      "arant": 5592,
      "76": 5593,
      "Ġsomebody": 5594,
      "Ġdoctor": 5595,
      "Start": 5596,
      "})": 5597,
      "Client": 5598,
      "CA": 5599,
      "_.": 5600,
      "Call": 5601,
      "ctors": 5602,
      "58": 5603,
      "Ġpure": 5604,
      "Ġexists": 5605,
      "iance": 5606,
      "rep": 5607,
      "Ġdestroy": 5608,
      "Ġbenefit": 5609,
      "riage": 5610,
      "Ġends": 5611,
      "Ġcrow": 5612,
      "Ġrecords": 5613,
      "Ġlayer": 5614,
      "ĠFOR": 5615,
      "ĠAustral": 5616,
      "Ġlegs": 5617,
      "itics": 5618,
      "Ġchecked": 5619,
      "Ġwhis": 5620,
      "Ġ+=": 5621,
      "ĠPaul": 5622,
      "Ġsaved": 5623,
      "real": 5624,
      "Ġexpand": 5625,
      "ĠApril": 5626,
      "Ġtomorrow": 5627,
      "Ġyesterday": 5628,
      "Ġcru": 5629,
      "ette": 5630,
      "ĠCP": 5631,
      "Ġmale": 5632,
      "ĠPark": 5633,
      "Ġthick": 5634,
      "ĠDan": 5635,
      "Sp": 5636,
      "png": 5637,
      "stract": 5638,
      "ĠPal": 5639,
      "Ġinternational": 5640,
      "package": 5641,
      "rypt": 5642,
      "Ġpieces": 5643,
      "00000000": 5644,
      "child": 5645,
      "Ġsites": 5646,
      "ln": 5647,
      "ĠMichael": 5648,
      "ednes": 5649,
      "olved": 5650,
      "CD": 5651,
      "Ġgar": 5652,
      "ĠHealth": 5653,
      "esh": 5654,
      "Ġbrowser": 5655,
      "Ġproduce": 5656,
      "End": 5657,
      "Am": 5658,
      ")/(-": 5659,
      "ĠTest": 5660,
      "ĠSunday": 5661,
      "Ġtonight": 5662,
      "ĠSch": 5663,
      "Ġlinks": 5664,
      "cor": 5665,
      "ĠLook": 5666,
      "format": 5667,
      "Ġlived": 5668,
      "Ġmac": 5669,
      "Ġsmell": 5670,
      "fix": 5671,
      "Ġsuggestions": 5672,
      "actor": 5673,
      "500": 5674,
      "enses": 5675,
      "iforn": 5676,
      "Ġbuying": 5677,
      "Ġchapter": 5678,
      "Ġfighting": 5679,
      "Ġleaves": 5680,
      "model": 5681,
      "ĠView": 5682,
      "ford": 5683,
      "Ġexpensive": 5684,
      "process": 5685,
      "compl": 5686,
      "there": 5687,
      "Ġpurchase": 5688,
      "Ġsplit": 5689,
      "fficient": 5690,
      "Ġcovered": 5691,
      "next": 5692,
      "Ġhonestly": 5693,
      "Web": 5694,
      "Ġ31": 5695,
      "Frame": 5696,
      "ĠII": 5697,
      "Ġborn": 5698,
      "prot": 5699,
      "Ġunf": 5700,
      "Ġcustomer": 5701,
      "ĠJuly": 5702,
      "Ġrefer": 5703,
      "aud": 5704,
      "Ġdriving": 5705,
      "olf": 5706,
      "last": 5707,
      "ĠSO": 5708,
      "Ġrank": 5709,
      "Ġsurprise": 5710,
      "Action": 5711,
      "/(": 5712,
      "Override": 5713,
      "Ġax": 5714,
      "vention": 5715,
      "Ġtired": 5716,
      "Ġnumer": 5717,
      "ĠChapter": 5718,
      "ashington": 5719,
      "51": 5720,
      "Ġassert": 5721,
      "ĠIts": 5722,
      "Ġkeys": 5723,
      "Ġmaintain": 5724,
      "Ġsomewhat": 5725,
      "Ġimpress": 5726,
      "NT": 5727,
      "Ġloves": 5728,
      "ords": 5729,
      "Ġsuggested": 5730,
      "ednesday": 5731,
      "pc": 5732,
      "olic": 5733,
      "ĠFeb": 5734,
      "Ġanybody": 5735,
      "lor": 5736,
      "ĠPost": 5737,
      "Ġrich": 5738,
      "Ġsurround": 5739,
      "ado": 5740,
      "GL": 5741,
      "ometimes": 5742,
      "creen": 5743,
      "ĠSy": 5744,
      "ĠBro": 5745,
      "ĠCour": 5746,
      "Ġsupported": 5747,
      "ĠSpe": 5748,
      "Ġremains": 5749,
      "Ġassign": 5750,
      "Ġsexual": 5751,
      "IST": 5752,
      "adow": 5753,
      "ABLE": 5754,
      "Ġ((": 5755,
      "Ġcash": 5756,
      "Ġelection": 5757,
      "\":\"": 5758,
      "ĠWhite": 5759,
      "ĠFROM": 5760,
      "Ġchallenge": 5761,
      "message": 5762,
      "Ġunits": 5763,
      "ste": 5764,
      "irty": 5765,
      "Author": 5766,
      "vision": 5767,
      "Ġversions": 5768,
      "Ġalbum": 5769,
      "Ġreduce": 5770,
      "oted": 5771,
      "idents": 5772,
      "ĠDay": 5773,
      "ĠBY": 5774,
      "oz": 5775,
      "ponse": 5776,
      "Ġassuming": 5777,
      "ttp": 5778,
      "orter": 5779,
      "oking": 5780,
      "Ġscream": 5781,
      "spec": 5782,
      "arc": 5783,
      "Ġsignal": 5784,
      "''": 5785,
      "ĠIndia": 5786,
      "[\"": 5787,
      "ĠUK": 5788,
      "Ġvictim": 5789,
      "Ġice": 5790,
      "########": 5791,
      "Great": 5792,
      "Load": 5793,
      "ĠNove": 5794,
      "request": 5795,
      "Ġnotes": 5796,
      "**(-": 5797,
      "llig": 5798,
      "Ġhelping": 5799,
      "vest": 5800,
      "Ġhelpful": 5801,
      "Ġextract": 5802,
      "client": 5803,
      "Input": 5804,
      "Ġimpossible": 5805,
      "52": 5806,
      "Right": 5807,
      "ĠTable": 5808,
      "false": 5809,
      "53": 5810,
      "urt": 5811,
      "Ġded": 5812,
      "git": 5813,
      "RA": 5814,
      "Ġrates": 5815,
      "ĠFed": 5816,
      "ifornia": 5817,
      ":\\": 5818,
      "Listener": 5819,
      "Ġseriously": 5820,
      "rl": 5821,
      "ologies": 5822,
      "Ġplenty": 5823,
      "Ġprem": 5824,
      "Ġprove": 5825,
      "Ġstret": 5826,
      "tings": 5827,
      "Ġobtained": 5828,
      "His": 5829,
      "amm": 5830,
      "ilies": 5831,
      "Ġblank": 5832,
      "URL": 5833,
      "78": 5834,
      "EW": 5835,
      "ĠCons": 5836,
      "okes": 5837,
      "ua": 5838,
      "Ġupload": 5839,
      "lee": 5840,
      "ĠObama": 5841,
      "Ġheader": 5842,
      "tee": 5843,
      "ulous": 5844,
      "Ġmanage": 5845,
      "Ġtab": 5846,
      "zen": 5847,
      "ĠUI": 5848,
      "Ġbranch": 5849,
      "begin": 5850,
      "See": 5851,
      "BA": 5852,
      "Ġcrack": 5853,
      "Ġconvert": 5854,
      "Ġmarried": 5855,
      "Ġproposed": 5856,
      "92": 5857,
      "FI": 5858,
      "home": 5859,
      "SL": 5860,
      "Ġregards": 5861,
      "Ġindeed": 5862,
      "Note": 5863,
      "ĠFire": 5864,
      "bet": 5865,
      "Ġbarely": 5866,
      "ĠBE": 5867,
      "Ġsymbol": 5868,
      "ĠObject": 5869,
      "Ġvill": 5870,
      "aze": 5871,
      "ributes": 5872,
      "Ġresource": 5873,
      "Activity": 5874,
      "Ġfaith": 5875,
      "cember": 5876,
      "Ġ70": 5877,
      "Ġhealthy": 5878,
      "Back": 5879,
      "Ġvirtual": 5880,
      "bel": 5881,
      "Result": 5882,
      "Ġexternal": 5883,
      "Ġplant": 5884,
      "Ġworried": 5885,
      "Ġleader": 5886,
      "Ġprepared": 5887,
      "ĠAlthough": 5888,
      "Ġ2008": 5889,
      "Ġcritical": 5890,
      "Ġpresented": 5891,
      "Ġdetermined": 5892,
      "Ġpartner": 5893,
      "ronic": 5894,
      "Ġwhom": 5895,
      "CK": 5896,
      "Ġeating": 5897,
      "ĠFacebook": 5898,
      "Ġsig": 5899,
      "Script": 5900,
      "Ġhous": 5901,
      "related": 5902,
      "then": 5903,
      "Ġconfused": 5904,
      "draw": 5905,
      "ĠChristmas": 5906,
      "ki": 5907,
      "INT": 5908,
      "Ġrac": 5909,
      "Ġconflic": 5910,
      "Best": 5911,
      "ĠEX": 5912,
      "venue": 5913,
      "Ġ(!": 5914,
      "Ġtested": 5915,
      "ida": 5916,
      "93": 5917,
      "Ġmobile": 5918,
      "Ġdecent": 5919,
      "ĠWho": 5920,
      "Go": 5921,
      "ĠCanada": 5922,
      "ĠIsrael": 5923,
      "ĠJanuary": 5924,
      "Ñĭ": 5925,
      "ĠTuesday": 5926,
      "ĠPeter": 5927,
      "ĠInc": 5928,
      "omas": 5929,
      "Ġflag": 5930,
      "house": 5931,
      "Ġspecifically": 5932,
      "Ġ500": 5933,
      "ĠTime": 5934,
      "Ġyounger": 5935,
      "ðŁ": 5936,
      "Ġphase": 5937,
      "Ġconcerned": 5938,
      "dri": 5939,
      "Ļª": 5940,
      "Ġpersonally": 5941,
      "plete": 5942,
      "nel": 5943,
      "anel": 5944,
      "illing": 5945,
      "ĠÐ¿": 5946,
      "Ġcontroll": 5947,
      "Ġbath": 5948,
      "ĠPublic": 5949,
      "Ġprofessional": 5950,
      "aints": 5951,
      "ĠSaturday": 5952,
      "Ġhall": 5953,
      "Ġsolutions": 5954,
      "urity": 5955,
      "Ġdigit": 5956,
      "Check": 5957,
      "Ġdamn": 5958,
      "Ġthousands": 5959,
      "Ġforms": 5960,
      "DA": 5961,
      "Ġgreatest": 5962,
      "ds": 5963,
      "APTER": 5964,
      "itz": 5965,
      "Ġgain": 5966,
      "Ġmatrix": 5967,
      "ighter": 5968,
      "itect": 5969,
      "overn": 5970,
      "section": 5971,
      ";]": 5972,
      "lam": 5973,
      "Ġgent": 5974,
      "ĠFrench": 5975,
      "Ġviews": 5976,
      "ĠIM": 5977,
      "dp": 5978,
      "Ġ[&": 5979,
      "Ġfloat": 5980,
      "Ġhol": 5981,
      "Ġworkers": 5982,
      "Ġalive": 5983,
      "Ġstation": 5984,
      "rial": 5985,
      "Ġstrategy": 5986,
      "Ġdelete": 5987,
      "den": 5988,
      "Ġspoke": 5989,
      "Ġnuc": 5990,
      "icip": 5991,
      "opyright": 5992,
      "isher": 5993,
      "Ġchurch": 5994,
      "Ġtalked": 5995,
      "Ġdepends": 5996,
      "Ġspecies": 5997,
      "Ġvector": 5998,
      "Ġbalance": 5999,
      "!--": 6000,
      "Ġvideos": 6001,
      "ĠRob": 6002,
      "Ġprotein": 6003,
      "Ġspeaking": 6004,
      "PP": 6005,
      "__&": 6006,
      "Number": 6007,
      "tw": 6008,
      "ĠDet": 6009,
      "oday": 6010,
      "Ġremainder": 6011,
      "Ġcute": 6012,
      "Ġordered": 6013,
      "ï¼": 6014,
      "names": 6015,
      "ĠHTML": 6016,
      "ĠApple": 6017,
      "Ġfolks": 6018,
      "Ġknock": 6019,
      "Ġapparently": 6020,
      "ker": 6021,
      "Ġtraffic": 6022,
      "Ġindependent": 6023,
      "DR": 6024,
      "Em": 6025,
      "Ġreflect": 6026,
      "Ġscan": 6027,
      "ĠResearch": 6028,
      ";__&": 6029,
      "Ġbudget": 6030,
      "files": 6031,
      "Ġmanufact": 6032,
      "Ġshop": 6033,
      "ĠLord": 6034,
      "Ġdialog": 6035,
      "when": 6036,
      "$(": 6037,
      "Ġmental": 6038,
      "DS": 6039,
      "Ġsamples": 6040,
      "Ġbusy": 6041,
      "Ġrows": 6042,
      "layer": 6043,
      "hi": 6044,
      "Maybe": 6045,
      "Ġobserv": 6046,
      "uto": 6047,
      "Ġcitiz": 6048,
      "Ġsides": 6049,
      "vi": 6050,
      "Ġattached": 6051,
      "cp": 6052,
      "Handler": 6053,
      "ĉĉĉĉ": 6054,
      "THE": 6055,
      "Ġdollars": 6056,
      "private": 6057,
      "Ġrender": 6058,
      "ename": 6059,
      "','": 6060,
      "Ġlie": 6061,
      "ĠText": 6062,
      "Ġfailure": 6063,
      "ĠMag": 6064,
      "Ġpicking": 6065,
      "FS": 6066,
      "Ġrain": 6067,
      "ĠThursday": 6068,
      "TO": 6069,
      "ĠClass": 6070,
      "Ġment": 6071,
      "UG": 6072,
      "Ġentertain": 6073,
      "Ġkitchen": 6074,
      "ishes": 6075,
      "Ġthro": 6076,
      "ĠSuper": 6077,
      "ĠEv": 6078,
      "Ġuint": 6079,
      "Ġspending": 6080,
      "isted": 6081,
      "Default": 6082,
      "Ġalternative": 6083,
      "ÑģÑĤ": 6084,
      "Ġdeploy": 6085,
      "ĠRec": 6086,
      "Ġterrible": 6087,
      "Ġhun": 6088,
      "Ġdefend": 6089,
      "template": 6090,
      "Ġcomponents": 6091,
      "Ġnut": 6092,
      "det": 6093,
      "Ġnoise": 6094,
      "IO": 6095,
      "ulf": 6096,
      "Ġ/**": 6097,
      "?)": 6098,
      "reedom": 6099,
      "ĠWhere": 6100,
      "Ass": 6101,
      "Ġhide": 6102,
      "Param": 6103,
      "Ġschools": 6104,
      "Ġanx": 6105,
      "Ġincor": 6106,
      "Ġdepending": 6107,
      "Ġwaste": 6108,
      "ITY": 6109,
      "Ġplays": 6110,
      "Ġclothes": 6111,
      "Ġtrail": 6112,
      "zz": 6113,
      "Ġoffered": 6114,
      "Ġlaunch": 6115,
      "olly": 6116,
      "Ġaccident": 6117,
      "bes": 6118,
      "âĢ¬": 6119,
      "Ġexperim": 6120,
      "FO": 6121,
      "ago": 6122,
      "Ġraise": 6123,
      "Ġboss": 6124,
      "Ġtrick": 6125,
      "Ġproof": 6126,
      "mem": 6127,
      "Ġtears": 6128,
      "Ġagreed": 6129,
      "ĠSoc": 6130,
      "Ġtum": 6131,
      "ca": 6132,
      "rad": 6133,
      "ĠMer": 6134,
      "Ġbutt": 6135,
      "vas": 6136,
      "Ġstorage": 6137,
      "ounter": 6138,
      "aine": 6139,
      "Ġcentral": 6140,
      "ĠRich": 6141,
      "Ġfederal": 6142,
      "uns": 6143,
      "Ġpool": 6144,
      "Ġbow": 6145,
      "Ġ()": 6146,
      "ala": 6147,
      "à¤": 6148,
      "Ġiter": 6149,
      "Ġcloud": 6150,
      "Ġactivities": 6151,
      "typ": 6152,
      "Ġbehavi": 6153,
      "ĠChinese": 6154,
      "Ġpaying": 6155,
      "Ġdebug": 6156,
      "Ġtherap": 6157,
      "Ġking": 6158,
      "Ġobserved": 6159,
      "ĠAmericans": 6160,
      "Ġsmooth": 6161,
      "Ġsending": 6162,
      "Ġ64": 6163,
      "produ": 6164,
      "irk": 6165,
      "Ġhearing": 6166,
      "status": 6167,
      "ĠOP": 6168,
      "ĠFree": 6169,
      "make": 6170,
      "awn": 6171,
      "Ġexchange": 6172,
      "Ġhey": 6173,
      "Ġdisappe": 6174,
      "overy": 6175,
      "Ġshirt": 6176,
      "Ġsuppose": 6177,
      "Ġlosing": 6178,
      "dy": 6179,
      "Ġannounced": 6180,
      "Ġreaction": 6181,
      "Ġcontinues": 6182,
      "Ġdinner": 6183,
      "Rem": 6184,
      "Ġcas": 6185,
      "ĠPython": 6186,
      "Ġmad": 6187,
      "Ġgift": 6188,
      "Ġwanting": 6189,
      "Ġpushed": 6190,
      "ruit": 6191,
      "Column": 6192,
      "Ġoffers": 6193,
      "Net": 6194,
      "ptr": 6195,
      "Ġexplained": 6196,
      "Point": 6197,
      "Ġharder": 6198,
      "ĠOnly": 6199,
      "ashion": 6200,
      "ancing": 6201,
      "Ġanimals": 6202,
      "Doc": 6203,
      "dro": 6204,
      "Ġbenefits": 6205,
      "ideo": 6206,
      "Ġprices": 6207,
      "ĠStr": 6208,
      "ĠCong": 6209,
      "odies": 6210,
      "Ġsitu": 6211,
      "Ġtables": 6212,
      "91": 6213,
      "apers": 6214,
      "Base": 6215,
      "Ġunable": 6216,
      "^^": 6217,
      "++)": 6218,
      "ĠĊĠ": 6219,
      "ĊĊĠĠĠĠĠ": 6220,
      "inf": 6221,
      "Ġloan": 6222,
      "Open": 6223,
      "context": 6224,
      "yan": 6225,
      "ĠDepartment": 6226,
      "Ġplugin": 6227,
      "Ġpray": 6228,
      "Cheers": 6229,
      "Head": 6230,
      "Ġmoments": 6231,
      "ĠAugust": 6232,
      "after": 6233,
      "gend": 6234,
      "Ġcausing": 6235,
      "claim": 6236,
      "clip": 6237,
      "ums": 6238,
      "ĠWashington": 6239,
      "Ġpromise": 6240,
      "Ġafford": 6241,
      "lang": 6242,
      "Ġaudio": 6243,
      "itution": 6244,
      "Ġlogic": 6245,
      "ĠChristian": 6246,
      "Ġmouse": 6247,
      "ĠNovember": 6248,
      "spe": 6249,
      "number": 6250,
      "Ġcert": 6251,
      "ĊĠĠĠĠĠĠĠĠĠĠĠĠĠĠĠĠĠĠĠĠĠĠĠĠĠĠĠĠĠĠĠĠĠĠĠĠĠĠĠĠ": 6252,
      "Select": 6253,
      "ulti": 6254,
      "append": 6255,
      "ESS": 6256,
      "Ġwit": 6257,
      "FT": 6258,
      "Ġsuck": 6259,
      "ĠOK": 6260,
      "Ġoperations": 6261,
      "Ġnodded": 6262,
      "Ġevening": 6263,
      "eturn": 6264,
      "Ġequival": 6265,
      "Ġsignificantly": 6266,
      "Ġsyn": 6267,
      "rier": 6268,
      "čĊĠĠĠĠĠĠĠĠĠĠĠ": 6269,
      "Ġwhenever": 6270,
      "Ġperspective": 6271,
      "ĠStreet": 6272,
      "Ġmiles": 6273,
      "ĠOff": 6274,
      "Ġguide": 6275,
      "Ġincome": 6276,
      "Ġbuffer": 6277,
      "ĠBritish": 6278,
      "swe": 6279,
      "Ġapprox": 6280,
      "align": 6281,
      "icker": 6282,
      "ĠUs": 6283,
      "Ġtreated": 6284,
      "Ġmort": 6285,
      "ĠLouis": 6286,
      "oma": 6287,
      "âĶ": 6288,
      "Ġresponsible": 6289,
      "Ġfeedback": 6290,
      "Our": 6291,
      "Last": 6292,
      "BS": 6293,
      "Ġdescribe": 6294,
      "ĠBel": 6295,
      "Ġconsequ": 6296,
      "root": 6297,
      "Ġpoll": 6298,
      "Ġ45": 6299,
      "agment": 6300,
      "ĠAmazon": 6301,
      "Ġride": 6302,
      "Ġexplan": 6303,
      "Ġserve": 6304,
      "Ġchamp": 6305,
      "Ġcock": 6306,
      "ĠAndroid": 6307,
      "ria": 6308,
      "Ġpulling": 6309,
      "Ġestabl": 6310,
      "Ġbecoming": 6311,
      "Ġindividuals": 6312,
      "jpg": 6313,
      "Ġfamilies": 6314,
      "Gener": 6315,
      "Ġclim": 6316,
      ".*": 6317,
      "Ġru": 6318,
      "72": 6319,
      "ĠWednesday": 6320,
      "Ġsoul": 6321,
      "Page": 6322,
      "Ġjo": 6323,
      "mt": 6324,
      "Ġsight": 6325,
      "stood": 6326,
      "Ġintellig": 6327,
      "bi": 6328,
      "CO": 6329,
      "Ġposts": 6330,
      "icing": 6331,
      "Ġ2020": 6332,
      "enu": 6333,
      "reement": 6334,
      "Char": 6335,
      "Ġreply": 6336,
      "Ġradio": 6337,
      "Ġproduced": 6338,
      "Ġextension": 6339,
      "anges": 6340,
      "ĠEnd": 6341,
      "Ġinfluence": 6342,
      "Ġdifferences": 6343,
      "Ġguard": 6344,
      "usr": 6345,
      "Ġsir": 6346,
      "eline": 6347,
      "Ġstom": 6348,
      "ructions": 6349,
      "Ġtaste": 6350,
      "Cell": 6351,
      "Ġmil": 6352,
      "Ã§": 6353,
      "Ġforever": 6354,
      "ĠED": 6355,
      "Ġpassing": 6356,
      "Ġliber": 6357,
      "Ġfocused": 6358,
      "Ġcauses": 6359,
      "pers": 6360,
      "ustration": 6361,
      "tyle": 6362,
      "ba": 6363,
      "Ġfinger": 6364,
      "Ġsurg": 6365,
      "bian": 6366,
      "Tem": 6367,
      "oor": 6368,
      ")\\": 6369,
      "sche": 6370,
      "Ã£": 6371,
      "plug": 6372,
      "ĠUSA": 6373,
      "Ġnormally": 6374,
      "yles": 6375,
      "Ġroute": 6376,
      "ORT": 6377,
      "Row": 6378,
      "Ġflex": 6379,
      "Ġmetal": 6380,
      "Ġpackages": 6381,
      "Te": 6382,
      "uled": 6383,
      "Ġstored": 6384,
      "Ġneither": 6385,
      "Ġdigital": 6386,
      "eps": 6387,
      "Ġty": 6388,
      "lig": 6389,
      "ression": 6390,
      "SI": 6391,
      "Ġasks": 6392,
      "Ġappeared": 6393,
      "ĠTechn": 6394,
      "Ġpin": 6395,
      "Ġdirector": 6396,
      "Ġexperienced": 6397,
      "Ġleads": 6398,
      "Comm": 6399,
      "sim": 6400,
      "ĠName": 6401,
      "ĠAnt": 6402,
      "Ġadvert": 6403,
      "Ġvisual": 6404,
      "Ġil": 6405,
      "ÐµÐ½": 6406,
      "Ġcommer": 6407,
      "Ġ<-": 6408,
      "Ġauthors": 6409,
      "Ġwave": 6410,
      "ĠMart": 6411,
      "Ġ2009": 6412,
      "Ġtill": 6413,
      "Ġphoto": 6414,
      "FC": 6415,
      "ÑĮ": 6416,
      "urb": 6417,
      "ĠEngland": 6418,
      "weight": 6419,
      "null": 6420,
      "ĠInternet": 6421,
      "Ġconfir": 6422,
      "Ġsand": 6423,
      "ĠMiss": 6424,
      "Ð´": 6425,
      "Ġchat": 6426,
      "Ġspeech": 6427,
      "Ġstable": 6428,
      "ĠDid": 6429,
      "Ġteen": 6430,
      "sembly": 6431,
      "eper": 6432,
      "ĠSH": 6433,
      "target": 6434,
      "TY": 6435,
      "Ġupdates": 6436,
      "linux": 6437,
      "Ġalert": 6438,
      "iest": 6439,
      "Ġdraft": 6440,
      "Ġhidden": 6441,
      "sd": 6442,
      "Ġcup": 6443,
      "ĠFound": 6444,
      "Ġdistributed": 6445,
      "Ġmission": 6446,
      "ĠUser": 6447,
      "ĠWould": 6448,
      "ingly": 6449,
      "Ġspell": 6450,
      "ceived": 6451,
      "Ġrespectively": 6452,
      "Ġtow": 6453,
      "util": 6454,
      "ogen": 6455,
      "uman": 6456,
      "Ġdangerous": 6457,
      "dule": 6458,
      "Ġtransport": 6459,
      "Ġinteger": 6460,
      "69": 6461,
      "care": 6462,
      "63": 6463,
      "lause": 6464,
      "Ġattribute": 6465,
      "pename": 6466,
      "Ġcars": 6467,
      "etime": 6468,
      "Ġvan": 6469,
      "ĠSun": 6470,
      ",'": 6471,
      "Ġgeneration": 6472,
      "Ġtough": 6473,
      "iverse": 6474,
      "ĠPhil": 6475,
      "/**": 6476,
      "Ġfif": 6477,
      "ãĢ": 6478,
      "ERS": 6479,
      "Ġhighlight": 6480,
      "Ġprotected": 6481,
      "ĠEuropean": 6482,
      "module": 6483,
      "Ġefficient": 6484,
      "Ġrelax": 6485,
      "ĠSher": 6486,
      "ĠFigure": 6487,
      "Ġcompare": 6488,
      "Ġforces": 6489,
      "Ġbool": 6490,
      ".</": 6491,
      "ĠCalifornia": 6492,
      "ĠGroup": 6493,
      "Ġclients": 6494,
      "Ġmaximum": 6495,
      "Ġeditor": 6496,
      "eds": 6497,
      "Ġcolumns": 6498,
      "Ġsuspect": 6499,
      "Ġchain": 6500,
      "Ġtries": 6501,
      "Thread": 6502,
      "ĊĠĠĠĠĠĠĠĠĠĠĠĠ": 6503,
      "sq": 6504,
      "ĠDecember": 6505,
      "Ġarguments": 6506,
      "ĠPort": 6507,
      "coh": 6508,
      "_,": 6509,
      "Ġarrived": 6510,
      "Ġrelatively": 6511,
      "VID": 6512,
      "sg": 6513,
      "Ġwire": 6514,
      "Ġboyfriend": 6515,
      "bec": 6516,
      "Ġintended": 6517,
      "79": 6518,
      "iate": 6519,
      "Ġstated": 6520,
      "ĠEast": 6521,
      "74": 6522,
      "Ġgrew": 6523,
      "support": 6524,
      "icted": 6525,
      "fast": 6526,
      "erry": 6527,
      "ads": 6528,
      "ashed": 6529,
      "Ġidentify": 6530,
      "ĠSeptember": 6531,
      "acket": 6532,
      "SELECT": 6533,
      "ĠCounty": 6534,
      "Ġminimum": 6535,
      "ä¸": 6536,
      "Ġtiny": 6537,
      "lation": 6538,
      "else": 6539,
      "Ġbond": 6540,
      "otic": 6541,
      "Ġletting": 6542,
      "Ã£o": 6543,
      "Filter": 6544,
      "Ġtun": 6545,
      "Ġcorpor": 6546,
      "Ġextends": 6547,
      "spring": 6548,
      "Ġsupply": 6549,
      "Ġjournal": 6550,
      "PA": 6551,
      "ĠSl": 6552,
      "they": 6553,
      ")).": 6554,
      "Ġcircum": 6555,
      "ruary": 6556,
      "GR": 6557,
      "nings": 6558,
      "Ġorganization": 6559,
      "Ġcarried": 6560,
      "Ref": 6561,
      "ictionary": 6562,
      "Ġupper": 6563,
      "Ġcombination": 6564,
      "osen": 6565,
      "hered": 6566,
      "Phone": 6567,
      "Ġunlike": 6568,
      "CTION": 6569,
      "=\"#": 6570,
      "Ġguarant": 6571,
      "Ġboost": 6572,
      "Ġselection": 6573,
      "Ġfigured": 6574,
      "Ġfourth": 6575,
      "lies": 6576,
      "Ġmoves": 6577,
      "Ġ2019": 6578,
      "Ġowner": 6579,
      "amily": 6580,
      "Ġlikes": 6581,
      "ĠDate": 6582,
      "Factory": 6583,
      "ĠJim": 6584,
      "cient": 6585,
      "Ġ-->": 6586,
      "output": 6587,
      "Ġspin": 6588,
      "ĠServer": 6589,
      "Ġcolle": 6590,
      "Ġofficials": 6591,
      "ĠQue": 6592,
      "ested": 6593,
      "ĠYeah": 6594,
      "ffect": 6595,
      "Ġcoordin": 6596,
      "John": 6597,
      "ĠCL": 6598,
      "mathbb": 6599,
      "ĊĠĠĠĠĠĠĠĠĠĠ": 6600,
      "Ġefforts": 6601,
      "sv": 6602,
      "property": 6603,
      "ĠOctober": 6604,
      "Ġfly": 6605,
      "Ġprison": 6606,
      "Ġshift": 6607,
      "SA": 6608,
      "ota": 6609,
      "Ġclinical": 6610,
      "Ġoperator": 6611,
      "istribut": 6612,
      "ĠMor": 6613,
      "Ġcontaining": 6614,
      "Ġdiscovered": 6615,
      "AGE": 6616,
      "Ġadm": 6617,
      "ĠInstitute": 6618,
      "outs": 6619,
      "ĠBO": 6620,
      "uzz": 6621,
      "uby": 6622,
      "Ġdelay": 6623,
      "ena": 6624,
      "Ġregister": 6625,
      "Ġtit": 6626,
      "nav": 6627,
      "Ġlicense": 6628,
      "Ġprotocol": 6629,
      "aped": 6630,
      "Ġbother": 6631,
      "ĠBoth": 6632,
      "<?": 6633,
      "watch": 6634,
      "ini": 6635,
      "Ġfinds": 6636,
      "Ġmaterials": 6637,
      "Work": 6638,
      "Ġbattery": 6639,
      "TC": 6640,
      "Control": 6641,
      "Ġpros": 6642,
      "Ġlaws": 6643,
      "Ġobtain": 6644,
      "Ġcentury": 6645,
      "Ġexperiment": 6646,
      "Ġdefense": 6647,
      "Ġlistening": 6648,
      "Pre": 6649,
      "Ġwriter": 6650,
      "Ġflash": 6651,
      "Ġarrest": 6652,
      "omy": 6653,
      "Ġfalling": 6654,
      "cribe": 6655,
      "83": 6656,
      "Ġfarm": 6657,
      "Ġprompt": 6658,
      "iders": 6659,
      "Because": 6660,
      "Ġnarr": 6661,
      "rawn": 6662,
      "ucky": 6663,
      "Ġdepth": 6664,
      "Ġdebt": 6665,
      "Ġmere": 6666,
      "Ġtraditional": 6667,
      "arian": 6668,
      "Ġnative": 6669,
      "Ġenemy": 6670,
      "ĠEarth": 6671,
      "Ġauthent": 6672,
      "Ġintroduced": 6673,
      "Ġmassive": 6674,
      "Ġguid": 6675,
      "Ġshif": 6676,
      "och": 6677,
      "Ġshoes": 6678,
      "Ġaccompl": 6679,
      "ĠSD": 6680,
      "${": 6681,
      "Ġfold": 6682,
      "Det": 6683,
      "ĠJew": 6684,
      "Ġvariety": 6685,
      "Ġmistake": 6686,
      "ĠDO": 6687,
      "ĠBas": 6688,
      "itty": 6689,
      "Ġlaptop": 6690,
      "Ġcritic": 6691,
      "Ġconstantly": 6692,
      "UB": 6693,
      "([": 6694,
      "Ġwanna": 6695,
      "Ġsuit": 6696,
      "break": 6697,
      "Gu": 6698,
      "Ġdeveloping": 6699,
      "Ġhardware": 6700,
      "sor": 6701,
      "Ġrise": 6702,
      "Ġproceed": 6703,
      "Ġpanel": 6704,
      "Ġdb": 6705,
      "Ġproud": 6706,
      "Ġsnow": 6707,
      "Ġeth": 6708,
      "going": 6709,
      "cos": 6710,
      "Ġprocesses": 6711,
      "Ġsea": 6712,
      "Ġprofile": 6713,
      "porary": 6714,
      "Two": 6715,
      "Ġ00": 6716,
      "Ġadmit": 6717,
      "ĊĠĠĠĠĠĠĠĠĠĠĠĠĠĠĠĠĠĠĠĠĠĠĠĠĠĠĠĠĠĠĠ": 6718,
      "={": 6719,
      "Ġpython": 6720,
      "font": 6721,
      "Ġrare": 6722,
      "Ġhtml": 6723,
      "Ġanimal": 6724,
      "Ñĩ": 6725,
      "Ġthin": 6726,
      "Ġgrin": 6727,
      "Ġcolors": 6728,
      "Ġholds": 6729,
      "Sorry": 6730,
      "Ġwed": 6731,
      "Ġgentle": 6732,
      "ĠFrank": 6733,
      "Ġservers": 6734,
      "buntu": 6735,
      "Ġupgrade": 6736,
      "Ġterror": 6737,
      "anda": 6738,
      "rib": 6739,
      "akers": 6740,
      "ĠEach": 6741,
      "Ġconference": 6742,
      "olar": 6743,
      "Ġdrugs": 6744,
      "afe": 6745,
      "ĠRober": 6746,
      "ĠTony": 6747,
      "ĠDel": 6748,
      "ading": 6749,
      "Ġweapons": 6750,
      "ĠPD": 6751,
      "Current": 6752,
      "Ġrepos": 6753,
      "Ġcrime": 6754,
      "CM": 6755,
      "Ġexplicit": 6756,
      "Ġyield": 6757,
      "UD": 6758,
      "asm": 6759,
      "Ġalgorithm": 6760,
      "Ke": 6761,
      "chers": 6762,
      "Ġnobody": 6763,
      "Ġproviding": 6764,
      "Ġprocessing": 6765,
      "iden": 6766,
      "ĠTheir": 6767,
      "Ġclaims": 6768,
      "Ġreli": 6769,
      "Ġ[]": 6770,
      "Ġcurious": 6771,
      "email": 6772,
      "Ġpointed": 6773,
      "Ġkinda": 6774,
      "inated": 6775,
      "izations": 6776,
      "73": 6777,
      "ĠMal": 6778,
      "ĊĊĠĠĠĠ": 6779,
      "Ġbull": 6780,
      "Ġ36": 6781,
      "ĠInstead": 6782,
      "Ġkilling": 6783,
      "Ġpregn": 6784,
      "Ġisol": 6785,
      "oub": 6786,
      "ailed": 6787,
      "hetic": 6788,
      "ĠBook": 6789,
      "ĠBig": 6790,
      "aws": 6791,
      "Ġidentified": 6792,
      "BO": 6793,
      "tt": 6794,
      "arser": 6795,
      "ĠInter": 6796,
      "Ġprinci": 6797,
      "wide": 6798,
      "Ġwarning": 6799,
      "fg": 6800,
      "sey": 6801,
      "=>": 6802,
      "Ġcris": 6803,
      "Ġignore": 6804,
      "pic": 6805,
      "ooper": 6806,
      "Ġreviews": 6807,
      "ferent": 6808,
      "OUT": 6809,
      "PR": 6810,
      "ĠPre": 6811,
      "car": 6812,
      "Ġrequests": 6813,
      "ura": 6814,
      "Ġangry": 6815,
      "ecurity": 6816,
      "ĠAngel": 6817,
      "Ġdynamic": 6818,
      "Ġcontainer": 6819,
      "ĠArt": 6820,
      "Ġtransition": 6821,
      "Application": 6822,
      "igration": 6823,
      "craft": 6824,
      "Ġwake": 6825,
      "Ġsees": 6826,
      "Ġmanner": 6827,
      "ĠId": 6828,
      "(&": 6829,
      "filter": 6830,
      "Ġenable": 6831,
      "ĠNews": 6832,
      "Pos": 6833,
      "Ġspl": 6834,
      "ĠArray": 6835,
      "ottom": 6836,
      "close": 6837,
      "Ġhole": 6838,
      "Mr": 6839,
      "Ġmovies": 6840,
      "secut": 6841,
      "Ġwal": 6842,
      "system": 6843,
      "Ġinvestment": 6844,
      "Ġbreaking": 6845,
      "ĠStar": 6846,
      "Ġfish": 6847,
      "Ġexperiences": 6848,
      "Ġhat": 6849,
      "ĠBet": 6850,
      "Format": 6851,
      "Ġmedium": 6852,
      "ĠAL": 6853,
      "zed": 6854,
      "ĠKore": 6855,
      "arts": 6856,
      "ĠGreen": 6857,
      "Ġtone": 6858,
      "Ġrepeated": 6859,
      "Ġrestaur": 6860,
      "University": 6861,
      "ĠIndian": 6862,
      "ji": 6863,
      "will": 6864,
      "Ġgoals": 6865,
      "attr": 6866,
      "ĠJesus": 6867,
      "Applause": 6868,
      "Instance": 6869,
      "Ġchief": 6870,
      "Ġhint": 6871,
      "Ġelectric": 6872,
      "Ġhung": 6873,
      "oded": 6874,
      "ĠLove": 6875,
      "Ġlaughed": 6876,
      "82": 6877,
      "Ġrevealed": 6878,
      "Ġsquare": 6879,
      "Ġmotiv": 6880,
      "Ġrelationships": 6881,
      "000000": 6882,
      "ixt": 6883,
      "cket": 6884,
      "ĠMany": 6885,
      "Ġtong": 6886,
      "range": 6887,
      "oyal": 6888,
      "match": 6889,
      "ĠTwo": 6890,
      "legal": 6891,
      "Version": 6892,
      "Ġmarriage": 6893,
      "Ġtrial": 6894,
      "Ġcycle": 6895,
      "Ġcalm": 6896,
      "Ġforth": 6897,
      "]]": 6898,
      "ĠNO": 6899,
      "Response": 6900,
      "Ġmurder": 6901,
      "perties": 6902,
      "ĠHope": 6903,
      "Ġshell": 6904,
      "gi": 6905,
      "display": 6906,
      "Str": 6907,
      "mes": 6908,
      "ById": 6909,
      "Ġlists": 6910,
      "arden": 6911,
      "Ġthousand": 6912,
      "uit": 6913,
      "clipse": 6914,
      "ching": 6915,
      "Ġadvent": 6916,
      "Ġnine": 6917,
      "Ġlocated": 6918,
      "Ġlisted": 6919,
      "ĠMicrosoft": 6920,
      "ĠLO": 6921,
      "Ġstrateg": 6922,
      "Ġcategory": 6923,
      "Ġowners": 6924,
      "CR": 6925,
      "boot": 6926,
      "ĠCA": 6927,
      "Ġopposite": 6928,
      "kin": 6929,
      "Ġsilence": 6930,
      "Ġsched": 6931,
      "ĠPHP": 6932,
      "ĠTR": 6933,
      "Server": 6934,
      "etc": 6935,
      "ĠâĢ«": 6936,
      "Ġneighbor": 6937,
      "ĠForm": 6938,
      "Ġreplaced": 6939,
      "Ġthroat": 6940,
      "Ġframework": 6941,
      "Ġskill": 6942,
      "Ġtall": 6943,
      "Ġmainly": 6944,
      "ĠTim": 6945,
      "Ġlip": 6946,
      "Ġdut": 6947,
      "fa": 6948,
      "Ġinterpret": 6949,
      "Ġgay": 6950,
      "Ġsuccessfully": 6951,
      "hh": 6952,
      "ĠCall": 6953,
      "Equ": 6954,
      "Ġclosest": 6955,
      "tag": 6956,
      "Ġhumans": 6957,
      "organ": 6958,
      "Ġaccepted": 6959,
      "Ġphotos": 6960,
      "Ġattacks": 6961,
      "Ext": 6962,
      "Ġviolence": 6963,
      "ĠUN": 6964,
      "Ġreject": 6965,
      "Ġrecommended": 6966,
      "Ġridic": 6967,
      "ĠScott": 6968,
      "Ġinsurance": 6969,
      "Ġbringing": 6970,
      "Ġevil": 6971,
      "Hel": 6972,
      "Ġspring": 6973,
      "Ġreligious": 6974,
      "Ġbird": 6975,
      "ĊĠĠĠĠĠĠĠĠĠĠĠĠĠĠĠĠĠ": 6976,
      "Ġfro": 6977,
      "Ġapps": 6978,
      "fit": 6979,
      "Ġpossibility": 6980,
      "Ġserial": 6981,
      "ĠProject": 6982,
      "=\"@": 6983,
      "Ġhack": 6984,
      "Ġadministration": 6985,
      "Ġweather": 6986,
      "Ġbrings": 6987,
      "Post": 6988,
      "Ġlights": 6989,
      "Ġlets": 6990,
      ">(": 6991,
      "ĠKen": 6992,
      "should": 6993,
      "Ġamb": 6994,
      "ĠCourt": 6995,
      "Ġdisk": 6996,
      "Ġunc": 6997,
      "GE": 6998,
      "Ġreaders": 6999,
      "ĠMax": 7000,
      "LD": 7001,
      "Ġallowing": 7002,
      "iger": 7003,
      "Ġhopefully": 7004,
      "Ġ300": 7005,
      "TS": 7006,
      "Ġnecessarily": 7007,
      "ĠWITH": 7008,
      "IGHT": 7009,
      "isters": 7010,
      "allel": 7011,
      "Ġscroll": 7012,
      "Ġassist": 7013,
      "ILL": 7014,
      "Ġtheme": 7015,
      "ĠType": 7016,
      "Ġscope": 7017,
      "Ġchecking": 7018,
      "ructure": 7019,
      "istan": 7020,
      "non": 7021,
      "Ġhyper": 7022,
      "amps": 7023,
      "Ġsky": 7024,
      "ifications": 7025,
      "ipment": 7026,
      "Ġâī": 7027,
      "ector": 7028,
      "INE": 7029,
      "Ġsentence": 7030,
      "gent": 7031,
      "Off": 7032,
      "Ġmel": 7033,
      "Ġconserv": 7034,
      "Ġreplied": 7035,
      "ango": 7036,
      "Ġmyst": 7037,
      "Ġlargest": 7038,
      "%)": 7039,
      "aks": 7040,
      "istered": 7041,
      "ĠScience": 7042,
      "ĠBi": 7043,
      "anta": 7044,
      "Ġdecisions": 7045,
      "ĠLast": 7046,
      "cular": 7047,
      "Ġnerv": 7048,
      "Ġlabor": 7049,
      "Ġromance": 7050,
      "ĠXML": 7051,
      "62": 7052,
      "ĠTwitter": 7053,
      "Ġcomparison": 7054,
      "Ġlinear": 7055,
      "Ġcompleted": 7056,
      "eger": 7057,
      "Ġfab": 7058,
      "Ġscared": 7059,
      "ionally": 7060,
      "Ġdesper": 7061,
      "bal": 7062,
      "Ġepisode": 7063,
      "Ġsigned": 7064,
      "missions": 7065,
      "Ã¶": 7066,
      "swered": 7067,
      "ye": 7068,
      "Ġegg": 7069,
      "ville": 7070,
      "Ġgotta": 7071,
      "Ġescape": 7072,
      "uri": 7073,
      "ĠGeorge": 7074,
      "Ġreact": 7075,
      "Ġteaching": 7076,
      "Ġdeliver": 7077,
      "Ġemotional": 7078,
      "Ġstomach": 7079,
      "irectory": 7080,
      "ĠMus": 7081,
      "Ġgir": 7082,
      "utorial": 7083,
      "Ġstrings": 7084,
      "Ġtwe": 7085,
      "Ġiron": 7086,
      "Ġphil": 7087,
      "More": 7088,
      "ona": 7089,
      "\"),": 7090,
      "anging": 7091,
      "Ġcareful": 7092,
      "Ġbytes": 7093,
      "standing": 7094,
      "omic": 7095,
      "framework": 7096,
      "Ġtou": 7097,
      "llo": 7098,
      "yes": 7099,
      "81": 7100,
      "roph": 7101,
      "ikip": 7102,
      "Ġjourney": 7103,
      "Ġcompile": 7104,
      "Ġ2000": 7105,
      "Ġapartment": 7106,
      "Ġdocuments": 7107,
      "Pe": 7108,
      "noon": 7109,
      "ĠTherefore": 7110,
      "Ġrecall": 7111,
      "(){": 7112,
      "LO": 7113,
      "lfriend": 7114,
      "Ġsecure": 7115,
      "Ġreduced": 7116,
      "Status": 7117,
      "Ġimplemented": 7118,
      "header": 7119,
      "ita": 7120,
      "Ġanswered": 7121,
      "Ġpa": 7122,
      "uing": 7123,
      "Ġmask": 7124,
      "lands": 7125,
      "Have": 7126,
      "hem": 7127,
      "Ġgear": 7128,
      "Ġadds": 7129,
      "Connection": 7130,
      "Ġscrew": 7131,
      "Ġclar": 7132,
      "Another": 7133,
      "Ġwet": 7134,
      "Ġsac": 7135,
      "NET": 7136,
      "Ġyours": 7137,
      "Ġequivalent": 7138,
      "foo": 7139,
      "viously": 7140,
      "ĠANY": 7141,
      "enter": 7142,
      "oked": 7143,
      "300": 7144,
      "ĠâĢ¢": 7145,
      "method": 7146,
      "ected": 7147,
      "Ġsympt": 7148,
      "iform": 7149,
      "Ġloaded": 7150,
      "Ġconstruction": 7151,
      "ĠHave": 7152,
      "ĠAtt": 7153,
      "Ġhundreds": 7154,
      "ĠService": 7155,
      "Ġplastic": 7156,
      "Ġalcoh": 7157,
      "Ġweapon": 7158,
      "Ġplane": 7159,
      "Ġcommunication": 7160,
      "Ġdealing": 7161,
      "icity": 7162,
      "Ġexpert": 7163,
      "Ġstro": 7164,
      "Ġvisible": 7165,
      "Ġaudience": 7166,
      "Ġlady": 7167,
      "ĠCalculate": 7168,
      "ashes": 7169,
      "CS": 7170,
      "ĠFebruary": 7171,
      "ston": 7172,
      "ano": 7173,
      "TA": 7174,
      "Ġannounce": 7175,
      "avigation": 7176,
      "ĠMedical": 7177,
      "appy": 7178,
      "âĢ¦âĢĿ": 7179,
      "Ġpurchased": 7180,
      "END": 7181,
      "Ġrent": 7182,
      "Ġconfirm": 7183,
      "ftware": 7184,
      "vider": 7185,
      "Ġlinked": 7186,
      "ĠGold": 7187,
      "ACK": 7188,
      "ader": 7189,
      "Update": 7190,
      "MO": 7191,
      "Ġentered": 7192,
      "Ġsin": 7193,
      "iro": 7194,
      "SER": 7195,
      "101": 7196,
      ":(": 7197,
      "Ġhes": 7198,
      "hens": 7199,
      "Ġarchitect": 7200,
      "ĠGerman": 7201,
      "ĠInternational": 7202,
      "EO": 7203,
      "Ġicon": 7204,
      "Ġsevere": 7205,
      "ĠAnother": 7206,
      "Ġpushing": 7207,
      "Ġinsp": 7208,
      "Ġmotion": 7209,
      "ĠNone": 7210,
      "Ġtrigger": 7211,
      "Ġadult": 7212,
      "Vis": 7213,
      "andon": 7214,
      "*(": 7215,
      "obby": 7216,
      "ĠGermany": 7217,
      "ĠBill": 7218,
      "ĠAir": 7219,
      "ãĥ": 7220,
      "lines": 7221,
      "Ġaside": 7222,
      "obj": 7223,
      "ĠGen": 7224,
      "otype": 7225,
      "ĠHospital": 7226,
      "Ġcommercial": 7227,
      "update": 7228,
      "Ġexpecting": 7229,
      "Part": 7230,
      "iques": 7231,
      "expected": 7232,
      "Like": 7233,
      "Component": 7234,
      "NO": 7235,
      "Ġspecified": 7236,
      "Ġremem": 7237,
      "Ġsch": 7238,
      "Ġpolic": 7239,
      "ĠCongress": 7240,
      "ĠMary": 7241,
      "Ġfreedom": 7242,
      "ĠMA": 7243,
      "Ġdemocr": 7244,
      "Ġemployees": 7245,
      "Ġfort": 7246,
      "Ġnodes": 7247,
      "Ġlucky": 7248,
      "Output": 7249,
      "erves": 7250,
      "iency": 7251,
      "fil": 7252,
      "atin": 7253,
      "Ġlogin": 7254,
      "Ġteeth": 7255,
      "Ġmole": 7256,
      "Ġalloc": 7257,
      "Ġprocedure": 7258,
      "ĠTex": 7259,
      "Ġrequirements": 7260,
      "service": 7261,
      "iller": 7262,
      "Ġaffected": 7263,
      "âĢ¢": 7264,
      "Ġvent": 7265,
      "Ġvision": 7266,
      "Ġremaining": 7267,
      "ĠÐ²": 7268,
      "Ġfails": 7269,
      "Ġreasonable": 7270,
      "Ġprotection": 7271,
      "!!!!": 7272,
      "~~~~": 7273,
      "âĢĵ": 7274,
      "lla": 7275,
      "Ã¼": 7276,
      "thread": 7277,
      "ikipedia": 7278,
      "Ġunderstood": 7279,
      "isation": 7280,
      "Ġbinary": 7281,
      "Ġplain": 7282,
      "Ġawk": 7283,
      "lets": 7284,
      "Child": 7285,
      "61": 7286,
      "ĠUse": 7287,
      "Ġestablished": 7288,
      "Ġbrown": 7289,
      "Ġcapacity": 7290,
      "}.": 7291,
      "Ġmodify": 7292,
      "avor": 7293,
      "aniel": 7294,
      "Ġtypically": 7295,
      "Ġ(\"": 7296,
      "blog": 7297,
      "card": 7298,
      "ĠJSON": 7299,
      "Style": 7300,
      "Ġusage": 7301,
      "Ġsongs": 7302,
      "Ġphen": 7303,
      "Ġnoted": 7304,
      "cknow": 7305,
      "Ġdeck": 7306,
      "ho": 7307,
      "Label": 7308,
      "Ġtrees": 7309,
      "even": 7310,
      "tex": 7311,
      "Ġutil": 7312,
      "Ġvehicle": 7313,
      "Ġagreement": 7314,
      "!)": 7315,
      "ĠRun": 7316,
      "Ġmixed": 7317,
      "Ġexercise": 7318,
      "Mat": 7319,
      "Ġnose": 7320,
      "control": 7321,
      "ĠMad": 7322,
      "Ġalle": 7323,
      "Ð¾Ð²": 7324,
      "71": 7325,
      "ĠHall": 7326,
      "ĠLa": 7327,
      "Ġcab": 7328,
      "Window": 7329,
      "]:": 7330,
      "Ġrapid": 7331,
      "Ġshooting": 7332,
      "ĠAssoci": 7333,
      "Ġresulting": 7334,
      "Ġtechnical": 7335,
      "Ġinstructions": 7336,
      "Ġeverywhere": 7337,
      "Ġtank": 7338,
      "Ġpartners": 7339,
      "patch": 7340,
      "rum": 7341,
      "endar": 7342,
      "chron": 7343,
      "ĠPR": 7344,
      "Ġfootball": 7345,
      "ĠSand": 7346,
      "Ġ1000": 7347,
      "Ġoccup": 7348,
      "Ġextended": 7349,
      "Ġing": 7350,
      "Ġinner": 7351,
      "Ġratio": 7352,
      "Ġcoach": 7353,
      "Ġgreatly": 7354,
      "menu": 7355,
      "Ġcart": 7356,
      "Ġsust": 7357,
      "ĠMS": 7358,
      "Write": 7359,
      "ypes": 7360,
      "Ġvirus": 7361,
      "LY": 7362,
      "Ġfrustr": 7363,
      "normal": 7364,
      "issue": 7365,
      "Dear": 7366,
      "Ġresear": 7367,
      "Ġbits": 7368,
      "Ġplanet": 7369,
      "blem": 7370,
      "cluding": 7371,
      "Ġcandidate": 7372,
      "Ġdesire": 7373,
      "Ġtongue": 7374,
      "Ġdepartment": 7375,
      "Ġapolog": 7376,
      "Ġstorm": 7377,
      "Ġparties": 7378,
      "ĠHel": 7379,
      "Ġstands": 7380,
      "greg": 7381,
      "Ġprepar": 7382,
      "Ġdivide": 7383,
      "UST": 7384,
      "bered": 7385,
      "iteria": 7386,
      "igen": 7387,
      "abilities": 7388,
      "alog": 7389,
      "Will": 7390,
      "Ġsharing": 7391,
      "Ġliqu": 7392,
      "Ġfashion": 7393,
      "Ġmatters": 7394,
      "Ġconstr": 7395,
      ")/(": 7396,
      "eless": 7397,
      "URE": 7398,
      "had": 7399,
      "Ġlayout": 7400,
      "Mark": 7401,
      "Ġ*)": 7402,
      "ifferent": 7403,
      "Ġidentity": 7404,
      "your": 7405,
      "ĠRepublican": 7406,
      "va": 7407,
      "Ġspr": 7408,
      "eries": 7409,
      "opping": 7410,
      "Ġinvestigation": 7411,
      "uries": 7412,
      "don": 7413,
      "Fe": 7414,
      "Find": 7415,
      "Ġacting": 7416,
      "Ġopens": 7417,
      "Ġresolution": 7418,
      "ĠCOM": 7419,
      "Use": 7420,
      "%,": 7421,
      "Ġfavour": 7422,
      "column": 7423,
      "about": 7424,
      "Ġputs": 7425,
      "Ġsituations": 7426,
      "Ġacid": 7427,
      "Ġ2007": 7428,
      "gex": 7429,
      "efined": 7430,
      "Ġtalent": 7431,
      "Ġshoulders": 7432,
      "pered": 7433,
      "ĠFrance": 7434,
      "Ġmatches": 7435,
      "faces": 7436,
      "comfort": 7437,
      "********************************": 7438,
      "GA": 7439,
      "Ġofficer": 7440,
      "reddit": 7441,
      "Ġ$('": 7442,
      "Ġessentially": 7443,
      "ĠFin": 7444,
      "Ġpipe": 7445,
      "Ġindu": 7446,
      "IES": 7447,
      "Ġjudge": 7448,
      "Ġexplanation": 7449,
      "lo": 7450,
      "Ġbear": 7451,
      "Ġgig": 7452,
      "Ġwealth": 7453,
      "Ġagent": 7454,
      "ira": 7455,
      "Ġbon": 7456,
      "ĠRight": 7457,
      "Ġscenario": 7458,
      "Ġraw": 7459,
      "Ġvert": 7460,
      "ĠJon": 7461,
      "ĠMike": 7462,
      "pol": 7463,
      "Ġthrows": 7464,
      "Mar": 7465,
      "Ġgoogle": 7466,
      "Ġpassion": 7467,
      "ansion": 7468,
      "game": 7469,
      "dim": 7470,
      "Ġdisappointed": 7471,
      "Ġcache": 7472,
      "Options": 7473,
      "burg": 7474,
      "Ġupset": 7475,
      "Ġintent": 7476,
      "ĠWork": 7477,
      "Ġconfidence": 7478,
      "Ġconfirmed": 7479,
      "usiness": 7480,
      "Ġplate": 7481,
      "cm": 7482,
      "Ġreligion": 7483,
      "ĠVis": 7484,
      "rant": 7485,
      "ĠVery": 7486,
      "Even": 7487,
      "400": 7488,
      "orough": 7489,
      "PO": 7490,
      "IX": 7491,
      "GET": 7492,
      "ements": 7493,
      "adata": 7494,
      "rr": 7495,
      "Ġloose": 7496,
      "ĊĊĠĠĠĠĠĠĠĠĠĠĠĠĠĠĠ": 7497,
      "Dr": 7498,
      "Ġconcerns": 7499,
      "Ġlic": 7500,
      "Project": 7501,
      "Ġpleasure": 7502,
      "Ġtypical": 7503,
      "Ġtip": 7504,
      "ĠMedicine": 7505,
      "ERR": 7506,
      "Ġaccounts": 7507,
      "Ġclock": 7508,
      "Ġemerg": 7509,
      "kins": 7510,
      "Ġcorresponding": 7511,
      "Ġmm": 7512,
      "ĠTor": 7513,
      "]);": 7514,
      "Ġhits": 7515,
      "Ġchick": 7516,
      "Ġsearching": 7517,
      "imgur": 7518,
      "Ġdrivers": 7519,
      "Ġoperating": 7520,
      "Ġcities": 7521,
      "Ġcateg": 7522,
      "PM": 7523,
      "Ġmanual": 7524,
      "Ġpul": 7525,
      "ĠMake": 7526,
      "ĠGovern": 7527,
      "kg": 7528,
      "ĠCheck": 7529,
      "crete": 7530,
      "ima": 7531,
      "Ġdevelopers": 7532,
      "Ġblind": 7533,
      "Ġhug": 7534,
      "may": 7535,
      "Ġequipment": 7536,
      "Ġtips": 7537,
      "Ġretrie": 7538,
      "Ġcircumst": 7539,
      "Ġteach": 7540,
      "Ġplanned": 7541,
      "isms": 7542,
      "Ġpointer": 7543,
      "ĠHE": 7544,
      "BI": 7545,
      "endif": 7546,
      "Ġcitizens": 7547,
      "Ġafternoon": 7548,
      "ĠStill": 7549,
      "AV": 7550,
      "ervices": 7551,
      "ibrary": 7552,
      "Ne": 7553,
      "bably": 7554,
      "Mon": 7555,
      "Ġsale": 7556,
      "III": 7557,
      "jar": 7558,
      "Ġreturning": 7559,
      "scope": 7560,
      "Ġcant": 7561,
      "Ġbat": 7562,
      "ambda": 7563,
      "Ġfellow": 7564,
      "ĠSecond": 7565,
      "istory": 7566,
      "ĠThose": 7567,
      "Ġcarefully": 7568,
      "Ġ37": 7569,
      "rid": 7570,
      "Ġsharp": 7571,
      "undle": 7572,
      "Ġgirlfriend": 7573,
      "RC": 7574,
      "ĠUSB": 7575,
      "ĠPS": 7576,
      "Ġlatter": 7577,
      "ĠJo": 7578,
      "âĶĢ": 7579,
      "reens": 7580,
      "ATH": 7581,
      "inking": 7582,
      "Ġorigin": 7583,
      "Ġcombined": 7584,
      "Ġselling": 7585,
      "Ġsighed": 7586,
      "Ġequation": 7587,
      "umbled": 7588,
      "Many": 7589,
      "Ġtoken": 7590,
      "Ġ..": 7591,
      "Ġbegins": 7592,
      "iat": 7593,
      "Ġexit": 7594,
      "Ġzone": 7595,
      "Ġgrown": 7596,
      "Co": 7597,
      "Next": 7598,
      "Ġdance": 7599,
      "Ġfantastic": 7600,
      "Builder": 7601,
      "ĠLong": 7602,
      "Ġ48": 7603,
      "agram": 7604,
      "PT": 7605,
      "Ġfrequency": 7606,
      "response": 7607,
      "Ġunivers": 7608,
      "Ġfacing": 7609,
      "Ġcomplicated": 7610,
      "ĠThus": 7611,
      "Ġmechanism": 7612,
      "Ġconven": 7613,
      "ĠRussia": 7614,
      "Ġtens": 7615,
      "ĠPet": 7616,
      "ARE": 7617,
      "Ġsenior": 7618,
      "Ġdiet": 7619,
      "Init": 7620,
      "Ġpolitics": 7621,
      "ĠCode": 7622,
      "ÑĢÐ°": 7623,
      "ifer": 7624,
      "ĠâĢ¦": 7625,
      "sec": 7626,
      "Ġchosen": 7627,
      "oder": 7628,
      "Ġlad": 7629,
      "exp": 7630,
      "Ġ33": 7631,
      "Ġinject": 7632,
      "Ġacknow": 7633,
      "Ġimproved": 7634,
      "Ġlying": 7635,
      "onym": 7636,
      "Ġideal": 7637,
      "Ġsouth": 7638,
      "Ġliterature": 7639,
      "Ġdisag": 7640,
      "ĠCopyright": 7641,
      "Ġwinter": 7642,
      "store": 7643,
      "-)": 7644,
      "ĠSmith": 7645,
      "Ġbathroom": 7646,
      "bre": 7647,
      "Ġsports": 7648,
      "Ġgather": 7649,
      "Ġchose": 7650,
      "Ġdele": 7651,
      "Ġdude": 7652,
      "imer": 7653,
      "essions": 7654,
      "unte": 7655,
      "ĠÂ£": 7656,
      "Ġstores": 7657,
      "istent": 7658,
      "ĠGN": 7659,
      "poses": 7660,
      "________________": 7661,
      "access": 7662,
      "float": 7663,
      "ĠVer": 7664,
      "Ġaccurate": 7665,
      "Ġtemp": 7666,
      "vm": 7667,
      "Ġtalks": 7668,
      "ĠPRO": 7669,
      "Ġstatements": 7670,
      "ĠSil": 7671,
      "Ġmanually": 7672,
      "Ġsmallest": 7673,
      "Ġextr": 7674,
      "yy": 7675,
      "ĠFig": 7676,
      "summary": 7677,
      "ĠSk": 7678,
      "velopment": 7679,
      "master": 7680,
      "Ġlaun": 7681,
      "ĠKey": 7682,
      "Ġannoying": 7683,
      "Ð·": 7684,
      "Ġadvanced": 7685,
      "Ġbehaviour": 7686,
      "yout": 7687,
      "Ġsurvey": 7688,
      "Ġbind": 7689,
      "cluded": 7690,
      "Ġdecades": 7691,
      "nam": 7692,
      "ĠTeam": 7693,
      "ĠHam": 7694,
      "ato": 7695,
      "Ġwinning": 7696,
      "umer": 7697,
      "Ġcontrast": 7698,
      "}\"": 7699,
      "anguages": 7700,
      "Ġtor": 7701,
      "person": 7702,
      "Ġsmoke": 7703,
      "Ġtea": 7704,
      "Rel": 7705,
      "Ġstrict": 7706,
      "Ġlinux": 7707,
      "ĠDB": 7708,
      "unities": 7709,
      "Resource": 7710,
      "ifact": 7711,
      "Ġgently": 7712,
      "mo": 7713,
      "ĠChris": 7714,
      "Ġbottle": 7715,
      "Ġconsistent": 7716,
      "Ġdear": 7717,
      "before": 7718,
      "Ġ34": 7719,
      "Ġjoined": 7720,
      "ĠPlay": 7721,
      "Ġcompat": 7722,
      "yer": 7723,
      "ĠCollege": 7724,
      "Ġdiscussed": 7725,
      "ĠÂµ": 7726,
      "ĊĊĉ": 7727,
      "Ġjson": 7728,
      "ĠRel": 7729,
      "Ġincredibly": 7730,
      "amin": 7731,
      "kes": 7732,
      "sem": 7733,
      "ĠÑģ": 7734,
      "Ġcrowd": 7735,
      "ĠEngine": 7736,
      "Ġleague": 7737,
      "Ġ[[": 7738,
      "bert": 7739,
      "Ġpill": 7740,
      "fire": 7741,
      "/)": 7742,
      "Ġcapable": 7743,
      "Ġprogramming": 7744,
      "Ġcircle": 7745,
      "ĠHill": 7746,
      "who": 7747,
      "would": 7748,
      "ĠĊĠĠĠĠĠĠĠ": 7749,
      "Ġnorth": 7750,
      "ingu": 7751,
      "Ġtasks": 7752,
      "Ġpub": 7753,
      "ĠSC": 7754,
      "raz": 7755,
      "tion": 7756,
      "ĠPri": 7757,
      "Ġsigns": 7758,
      "Ġinstallation": 7759,
      "kit": 7760,
      "Ġdogs": 7761,
      "Ġblame": 7762,
      "Ġcontrols": 7763,
      "IE": 7764,
      "ĠClint": 7765,
      "Ġdetailed": 7766,
      "ao": 7767,
      "phas": 7768,
      "Ġcreates": 7769,
      "cap": 7770,
      "Ġserved": 7771,
      "Ġfacts": 7772,
      "bits": 7773,
      "Ġuniverse": 7774,
      "Ġinstr": 7775,
      "Ġblocks": 7776,
      "Ġconfident": 7777,
      "'),": 7778,
      "Ġwitness": 7779,
      "Ġunknown": 7780,
      "Ġkinds": 7781,
      "inity": 7782,
      "element": 7783,
      "Ġlunch": 7784,
      "Down": 7785,
      "Ġessential": 7786,
      "ĠBrown": 7787,
      "ournal": 7788,
      "Ġsuc": 7789,
      "Ġcro": 7790,
      "Very": 7791,
      "Car": 7792,
      "Ġfunctionality": 7793,
      "power": 7794,
      "Ġalcohol": 7795,
      "Ġbell": 7796,
      "Ġemer": 7797,
      "ĠWin": 7798,
      "Ġregardless": 7799,
      "NAME": 7800,
      "VM": 7801,
      "Ut": 7802,
      "Ġexecute": 7803,
      "inger": 7804,
      "rate": 7805,
      "Ġgrabbed": 7806,
      "docs": 7807,
      "Ġbelieved": 7808,
      "Ġneut": 7809,
      "Ġsli": 7810,
      "eks": 7811,
      "ĠAustralia": 7812,
      "ĠStep": 7813,
      "LS": 7814,
      "WH": 7815,
      "ĠWAR": 7816,
      "acks": 7817,
      "itors": 7818,
      "Ġtrend": 7819,
      "Ġ^": 7820,
      "orters": 7821,
      "icial": 7822,
      "clear": 7823,
      "âĪĴ": 7824,
      "rence": 7825,
      "ĠShould": 7826,
      "Ġgit": 7827,
      "ĠHas": 7828,
      "Ġmachines": 7829,
      "rying": 7830,
      "Ġpressed": 7831,
      "Ġdefe": 7832,
      "Ġalign": 7833,
      "Ġped": 7834,
      "Ġcontents": 7835,
      "ĠMem": 7836,
      "Ġpit": 7837,
      "MP": 7838,
      "push": 7839,
      "Ġarticles": 7840,
      "arrass": 7841,
      "izont": 7842,
      "Ġwalls": 7843,
      "Ġphilos": 7844,
      "IND": 7845,
      "options": 7846,
      "Su": 7847,
      "Ġcrash": 7848,
      "Ġfre": 7849,
      "Ġdumb": 7850,
      "OME": 7851,
      "Ġlies": 7852,
      "Ġourselves": 7853,
      "ĠGive": 7854,
      "umps": 7855,
      "Ġsupports": 7856,
      "Ġheads": 7857,
      "Ġexistence": 7858,
      "Ġjoy": 7859,
      "Ġexpressed": 7860,
      "ĠHy": 7861,
      "Ġangle": 7862,
      "Ġcompetition": 7863,
      "Ġschedule": 7864,
      "ĠAP": 7865,
      "center": 7866,
      "Ñħ": 7867,
      "Ġmeat": 7868,
      "iel": 7869,
      "gly": 7870,
      "Ġmotor": 7871,
      "shot": 7872,
      "iminal": 7873,
      "***": 7874,
      "otion": 7875,
      "rit": 7876,
      "ĠEvent": 7877,
      "entry": 7878,
      "Ġbirthday": 7879,
      "password": 7880,
      "println": 7881,
      "essed": 7882,
      "ĠLu": 7883,
      "remove": 7884,
      "olid": 7885,
      "Http": 7886,
      "hab": 7887,
      "Ġshares": 7888,
      "ĠLife": 7889,
      "Ġstandards": 7890,
      "site": 7891,
      "Ġlaid": 7892,
      "Ġmeasures": 7893,
      "ivered": 7894,
      "Ġvul": 7895,
      "Ġfits": 7896,
      "python": 7897,
      "Ġlegis": 7898,
      "Ġcreation": 7899,
      "Ġchoices": 7900,
      "Ġmystery": 7901,
      "Ġawkward": 7902,
      "Ġsurgery": 7903,
      "imp": 7904,
      "ollow": 7905,
      "ĠDi": 7906,
      "application": 7907,
      "Ġdrawn": 7908,
      "Ġcable": 7909,
      "edu": 7910,
      "ĠJoe": 7911,
      "ĠFoundation": 7912,
      "Ġcrisis": 7913,
      "lder": 7914,
      "ĠJul": 7915,
      "Ġplants": 7916,
      "aser": 7917,
      "Ġtail": 7918,
      "Ġillustr": 7919,
      "Ġdistinct": 7920,
      "Ġchuck": 7921,
      "Ġpositions": 7922,
      "Ġ\"/": 7923,
      "pload": 7924,
      "args": 7925,
      "Ġstaring": 7926,
      "ĠCoun": 7927,
      "wing": 7928,
      "Ġtheore": 7929,
      "images": 7930,
      "Ġappoint": 7931,
      "Ġparticipants": 7932,
      "ATA": 7933,
      "Ġcos": 7934,
      "uate": 7935,
      "Ġdebate": 7936,
      "outhern": 7937,
      "Ġscenes": 7938,
      "Ġreferences": 7939,
      "Ġhistorical": 7940,
      "Ġconvin": 7941,
      "Ġlol": 7942,
      "Access": 7943,
      "Ġdistrict": 7944,
      "ccount": 7945,
      "Ob": 7946,
      "fess": 7947,
      "ACE": 7948,
      "Ġoriginally": 7949,
      "plot": 7950,
      "ja": 7951,
      "Ġuniversity": 7952,
      "Ġteachers": 7953,
      "Ġclimate": 7954,
      "ĠBay": 7955,
      "iveness": 7956,
      "\\\"": 7957,
      "Ġcollected": 7958,
      "Ġhotel": 7959,
      "Ġsufficient": 7960,
      "Ġdrinking": 7961,
      "ighs": 7962,
      "sign": 7963,
      "ĠSur": 7964,
      "ĠBack": 7965,
      "VD": 7966,
      "comes": 7967,
      ".âĢĻ": 7968,
      "raq": 7969,
      "Ġbuttons": 7970,
      "good": 7971,
      "Ġpatches": 7972,
      "ĠMex": 7973,
      "Ill": 7974,
      "Ġappearance": 7975,
      "Ġdiss": 7976,
      "Ġwww": 7977,
      "Ġpocket": 7978,
      "Ġmillions": 7979,
      "Ġacad": 7980,
      "Ġgrid": 7981,
      "Ġpants": 7982,
      "custom": 7983,
      "Width": 7984,
      "Ġmoder": 7985,
      "ĠTrue": 7986,
      "pay": 7987,
      "ĠCast": 7988,
      "ĠNY": 7989,
      "ĠAfrica": 7990,
      "ĠUnfortunately": 7991,
      "Ġresponsibility": 7992,
      "Ġlen": 7993,
      "WE": 7994,
      "Ġfaces": 7995,
      "life": 7996,
      "ĠTexas": 7997,
      "Ġrecognize": 7998,
      "âĢĿ.": 7999,
      "pop": 8000,
      "Ġwrapped": 8001,
      "ĠHD": 8002,
      "Ġjoint": 8003,
      "LC": 8004,
      "Ġdrawing": 8005,
      "bra": 8006,
      "Ġinjury": 8007,
      "Ġinteraction": 8008,
      "Ġoffering": 8009,
      "Ġkeyboard": 8010,
      ")*(": 8011,
      "send": 8012,
      "wall": 8013,
      "Ġinterrupt": 8014,
      "Mode": 8015,
      "Ġbreast": 8016,
      "ĠMain": 8017,
      "ĠLaw": 8018,
      "ĠSource": 8019,
      "van": 8020,
      "âķ": 8021,
      "Ġabuse": 8022,
      "ogy": 8023,
      "Ġbra": 8024,
      "arn": 8025,
      "fall": 8026,
      "ĠCould": 8027,
      "icago": 8028,
      "avy": 8029,
      "Grid": 8030,
      "Ġoffset": 8031,
      "ĠRussian": 8032,
      "vol": 8033,
      "pet": 8034,
      "aded": 8035,
      "Ġna": 8036,
      "izz": 8037,
      "ĠBer": 8038,
      "ORD": 8039,
      "Ġbusinesses": 8040,
      "ometry": 8041,
      "%.": 8042,
      "ĠSometimes": 8043,
      "ĠArch": 8044,
      "ĠThomas": 8045,
      "tle": 8046,
      "Using": 8047,
      "Ġfuel": 8048,
      "Ġflight": 8049,
      "Ġthrown": 8050,
      "Wr": 8051,
      "ĠApache": 8052,
      "Ġstead": 8053,
      "ĠSP": 8054,
      "Ġblow": 8055,
      "second": 8056,
      "ĠSir": 8057,
      "Ġseek": 8058,
      "Ġdisplayed": 8059,
      "world": 8060,
      "Ġattach": 8061,
      "ĠWhe": 8062,
      "Ġpermission": 8063,
      "/.": 8064,
      "Ġbyte": 8065,
      "Ġspecify": 8066,
      "BE": 8067,
      "Ġintention": 8068,
      "iable": 8069,
      "graph": 8070,
      "Ġgrade": 8071,
      "Token": 8072,
      "Ġsurprising": 8073,
      "Ġtaught": 8074,
      "Â°": 8075,
      "Ġsubmit": 8076,
      "Ġpotentially": 8077,
      "ĠCanad": 8078,
      "alpha": 8079,
      "ester": 8080,
      "Main": 8081,
      "Ġwrt": 8082,
      "Max": 8083,
      "aren": 8084,
      "Ġstayed": 8085,
      "ICE": 8086,
      "%%": 8087,
      "Ġannual": 8088,
      "obe": 8089,
      "vin": 8090,
      "Ġmodified": 8091,
      "Ġnic": 8092,
      "Ġinstant": 8093,
      "Ah": 8094,
      "assert": 8095,
      "isco": 8096,
      "Ġnervous": 8097,
      "Ġadults": 8098,
      "Ġdelivery": 8099,
      "bro": 8100,
      "Ġobj": 8101,
      "Ġ75": 8102,
      "Ġforest": 8103,
      "rout": 8104,
      "wa": 8105,
      "Ġbugs": 8106,
      "Ġtherapy": 8107,
      "Ġexport": 8108,
      "uous": 8109,
      "MT": 8110,
      "Ġmeasured": 8111,
      "Ġnuclear": 8112,
      "Ġexplore": 8113,
      "Ġchallenges": 8114,
      "Ġsav": 8115,
      "resents": 8116,
      "Ġsucceed": 8117,
      "Ġreceiving": 8118,
      "Ġpowers": 8119,
      "Ġwedding": 8120,
      "{{": 8121,
      "celer": 8122,
      "ĠSal": 8123,
      "Attribute": 8124,
      "Ġlit": 8125,
      "del": 8126,
      "Task": 8127,
      "ĠMrs": 8128,
      "Ġpand": 8129,
      "Ġmath": 8130,
      "Command": 8131,
      "Ġpleased": 8132,
      "lie": 8133,
      "POST": 8134,
      "Ġimportance": 8135,
      "ĠCas": 8136,
      "parse": 8137,
      "address": 8138,
      "Min": 8139,
      "Url": 8140,
      "ĠDa": 8141,
      "ONE": 8142,
      "Ġstruggle": 8143,
      "Ġiniti": 8144,
      "ĠBank": 8145,
      "cean": 8146,
      "ĠTHIS": 8147,
      "Ġpolicies": 8148,
      "Ø§": 8149,
      "1000": 8150,
      "uy": 8151,
      "Ġ),": 8152,
      "depend": 8153,
      "Ġrolled": 8154,
      "ucks": 8155,
      "*/": 8156,
      "Ġfriendly": 8157,
      "ĠPower": 8158,
      "Other": 8159,
      "Ġshout": 8160,
      "usted": 8161,
      "ĊĠĠĠĠĠĠĠĠĠĠĠĠĠĠ": 8162,
      "Ġclassic": 8163,
      "Ġ<=": 8164,
      "reek": 8165,
      "admin": 8166,
      "Ġsan": 8167,
      "Ġchemical": 8168,
      "ĠWas": 8169,
      "apes": 8170,
      "Ġjoke": 8171,
      "Ġpump": 8172,
      "arks": 8173,
      "Ġshook": 8174,
      "Ġ>=": 8175,
      "Ġemotions": 8176,
      "icked": 8177,
      "Ġsear": 8178,
      "Ġbodies": 8179,
      "Ġdoub": 8180,
      "pense": 8181,
      "ws": 8182,
      "ĠSoftware": 8183,
      "Ġhorrible": 8184,
      "ĠPerhaps": 8185,
      "Ġstronger": 8186,
      "Ġgender": 8187,
      "Ġthrew": 8188,
      "Gl": 8189,
      "ampl": 8190,
      "arry": 8191,
      "ASS": 8192,
      "VI": 8193,
      "imation": 8194,
      "Ġembarrass": 8195,
      "ĠIslam": 8196,
      "lessly": 8197,
      "common": 8198,
      "erring": 8199,
      "Ge": 8200,
      "ĠAgain": 8201,
      "Ġfunctional": 8202,
      "clusive": 8203,
      "Ġembed": 8204,
      "Ġharm": 8205,
      "Ġmal": 8206,
      "eding": 8207,
      "Pass": 8208,
      "Ġorders": 8209,
      "ĠVir": 8210,
      "Length": 8211,
      "Ġfamous": 8212,
      "sys": 8213,
      "ĠNothing": 8214,
      "ĠFurther": 8215,
      "Ġmanip": 8216,
      "ictor": 8217,
      "Ġyellow": 8218,
      "ĠDec": 8219,
      "Ġdomin": 8220,
      "Ġoccurred": 8221,
      "thanks": 8222,
      "ĠStart": 8223,
      "Make": 8224,
      "Ġfasc": 8225,
      "hesis": 8226,
      "Ġresistance": 8227,
      "Ġroutine": 8228,
      "Ġdupl": 8229,
      "Ġconducted": 8230,
      "Ġë": 8231,
      "Ġdump": 8232,
      "Ġaspects": 8233,
      "Ġlocked": 8234,
      "Ġscientific": 8235,
      "foot": 8236,
      "RS": 8237,
      "EXT": 8238,
      "rency": 8239,
      "Ġtech": 8240,
      "Ġrepository": 8241,
      "ĠPhys": 8242,
      "oong": 8243,
      "ked": 8244,
      "bf": 8245,
      "Ġalright": 8246,
      "Ġ2006": 8247,
      "Ġ===": 8248,
      "MB": 8249,
      "Ġske": 8250,
      "**(": 8251,
      "HA": 8252,
      "full": 8253,
      "ĠPlus": 8254,
      "Ġincident": 8255,
      "atabase": 8256,
      "Ġpaint": 8257,
      "lar": 8258,
      "Ġdiscover": 8259,
      "Ġrecorded": 8260,
      "Ġcommitted": 8261,
      "Ġinvent": 8262,
      "Top": 8263,
      "Address": 8264,
      "Ġboolean": 8265,
      "Product": 8266,
      "Ġextent": 8267,
      "ĠFind": 8268,
      "Ġsector": 8269,
      "Spe": 8270,
      "Ġsubsequ": 8271,
      "%;": 8272,
      "Ġconsult": 8273,
      "inet": 8274,
      "ĠALL": 8275,
      "ĠPut": 8276,
      ")))": 8277,
      "Ġmaps": 8278,
      "Ġconflict": 8279,
      "Ġsaving": 8280,
      "Ġmarketing": 8281,
      "Ġenabled": 8282,
      "ĠHen": 8283,
      "@\"": 8284,
      "Ġpretend": 8285,
      "Ġlaughing": 8286,
      "Ġpadding": 8287,
      "location": 8288,
      "Ġmagnet": 8289,
      "rehens": 8290,
      "libr": 8291,
      "ĠAnn": 8292,
      "orders": 8293,
      "whel": 8294,
      "Ġsleeping": 8295,
      "Ġgene": 8296,
      "Ġrepeat": 8297,
      "inv": 8298,
      "Once": 8299,
      "estic": 8300,
      "ĠLink": 8301,
      "According": 8302,
      "Ed": 8303,
      "ĠCPU": 8304,
      "Ġspo": 8305,
      "Ġrose": 8306,
      "Ġju": 8307,
      "ĠChurch": 8308,
      "rend": 8309,
      "ìĿ": 8310,
      "Ġpurposes": 8311,
      "Ġexhib": 8312,
      "incip": 8313,
      "Ġdatas": 8314,
      "ĠPerson": 8315,
      "Ġjustice": 8316,
      "month": 8317,
      "Ġdating": 8318,
      "Ġsyntax": 8319,
      "Ġexciting": 8320,
      "Ġthrowing": 8321,
      "Ġatm": 8322,
      "uine": 8323,
      "Ġadapt": 8324,
      "Ġcapture": 8325,
      "Has": 8326,
      "ĠDNA": 8327,
      "clos": 8328,
      "Ġwine": 8329,
      "ĠBefore": 8330,
      "Ġspaces": 8331,
      "atively": 8332,
      "astructure": 8333,
      "ĠIran": 8334,
      "ola": 8335,
      "Ġestablish": 8336,
      "Ġhash": 8337,
      "Ġbreaks": 8338,
      "Ġhanging": 8339,
      "Ġhorse": 8340,
      "Location": 8341,
      "mode": 8342,
      "Ġhandling": 8343,
      "Ġinterval": 8344,
      "Ġopinions": 8345,
      "COM": 8346,
      "Process": 8347,
      "MM": 8348,
      "Ġformula": 8349,
      "Ġhomes": 8350,
      "Sum": 8351,
      "users": 8352,
      "Ġlibraries": 8353,
      "Ġridiculous": 8354,
      "Ġloo": 8355,
      "Ġsymptoms": 8356,
      "ĠSum": 8357,
      "Ġanxiety": 8358,
      "Ġears": 8359,
      "Eng": 8360,
      "Ġsupporting": 8361,
      "eting": 8362,
      "umin": 8363,
      "high": 8364,
      "Ġdescript": 8365,
      "container": 8366,
      "Ġfunds": 8367,
      "Ġfrequently": 8368,
      "Before": 8369,
      "Ġpix": 8370,
      "ĠCS": 8371,
      "Ġhardly": 8372,
      "Range": 8373,
      "ĠFore": 8374,
      "Ġcrying": 8375,
      "Ġmodules": 8376,
      "aka": 8377,
      "wrap": 8378,
      "\"\"": 8379,
      "lements": 8380,
      "âĢĺâĢĺ": 8381,
      "Ġstops": 8382,
      "Ġrecip": 8383,
      "Ap": 8384,
      "Ġoverride": 8385,
      "Ġcharges": 8386,
      "Ġclosing": 8387,
      "echo": 8388,
      "ĠGame": 8389,
      "born": 8390,
      "Ġinvolve": 8391,
      "Ġbot": 8392,
      "azy": 8393,
      "ĠError": 8394,
      "Ġwheel": 8395,
      "Ġsilent": 8396,
      "Ġbeer": 8397,
      "ĠTur": 8398,
      "Ġcommunities": 8399,
      "IME": 8400,
      "Ġtechniques": 8401,
      "unc": 8402,
      "Ġtro": 8403,
      "Ġtags": 8404,
      "alysis": 8405,
      "teen": 8406,
      "rb": 8407,
      "ĠIraq": 8408,
      "because": 8409,
      "Ġdying": 8410,
      "Ġ})": 8411,
      "ĠMethod": 8412,
      "jo": 8413,
      "Ġpink": 8414,
      "ifies": 8415,
      "Only": 8416,
      "ĠUsing": 8417,
      "EC": 8418,
      "aret": 8419,
      "Ġos": 8420,
      "annels": 8421,
      "ULT": 8422,
      "ĠÎ±": 8423,
      "orida": 8424,
      "Ġcraft": 8425,
      "Ġarmy": 8426,
      "Ġswit": 8427,
      "Ġvast": 8428,
      "ĠVol": 8429,
      "uts": 8430,
      "Ġbeauty": 8431,
      "Windows": 8432,
      "Ġng": 8433,
      "Ġconnections": 8434,
      "window": 8435,
      "ĠEs": 8436,
      "background": 8437,
      "ĠDirect": 8438,
      "ressed": 8439,
      "abet": 8440,
      "xsl": 8441,
      "values": 8442,
      "Ġportion": 8443,
      "Ġfeat": 8444,
      "ĠImage": 8445,
      "Ġnarrow": 8446,
      "tab": 8447,
      "legate": 8448,
      "Ġ['": 8449,
      "Ġindicate": 8450,
      "Î±": 8451,
      "Ġbedroom": 8452,
      "Ġprofit": 8453,
      "Change": 8454,
      "-\\": 8455,
      "ih": 8456,
      "ĠRobert": 8457,
      "Ġloading": 8458,
      "erest": 8459,
      "Ġresolve": 8460,
      "Ġrepresents": 8461,
      "ĠSure": 8462,
      "Ġparse": 8463,
      "umes": 8464,
      "Americ": 8465,
      "Could": 8466,
      "Menu": 8467,
      "Ġbund": 8468,
      "Ä±": 8469,
      "ipher": 8470,
      "strap": 8471,
      "Ċĉĉĉĉĉ": 8472,
      "Ġdelic": 8473,
      "ARD": 8474,
      "Ġinteract": 8475,
      "ilty": 8476,
      "Ġencoding": 8477,
      "Ġreads": 8478,
      "Ġ150": 8479,
      "Ġinstitut": 8480,
      "Ġmirror": 8481,
      "ĠiPhone": 8482,
      "Ġcouch": 8483,
      "Sl": 8484,
      "Ġsnap": 8485,
      "Ġgenuine": 8486,
      "oting": 8487,
      "Ġasleep": 8488,
      "Ġcircumstances": 8489,
      "ifest": 8490,
      "Ġinterests": 8491,
      "Ġdesktop": 8492,
      "boy": 8493,
      "Ġopportunities": 8494,
      "onic": 8495,
      "{\"": 8496,
      "drop": 8497,
      "Ġris": 8498,
      "Ġrounded": 8499,
      "Ġheavily": 8500,
      "Ġ\"$": 8501,
      "pa": 8502,
      "Ġstim": 8503,
      "Ġargue": 8504,
      "////////////////": 8505,
      "Ġalt": 8506,
      "Ġ2005": 8507,
      "Ġ38": 8508,
      "bor": 8509,
      "udio": 8510,
      "bind": 8511,
      "EDIT": 8512,
      "Ġfle": 8513,
      "Ġregul": 8514,
      "orig": 8515,
      "Template": 8516,
      "Ġrevenue": 8517,
      "Block": 8518,
      "Ag": 8519,
      "ĠSing": 8520,
      "owned": 8521,
      "Ġscheme": 8522,
      "ket": 8523,
      "water": 8524,
      "Ġofficers": 8525,
      "Fig": 8526,
      "isa": 8527,
      "Ġphr": 8528,
      "Ġbinding": 8529,
      "Ġboat": 8530,
      "Ġlovely": 8531,
      "ographic": 8532,
      "ĠNever": 8533,
      "hemat": 8534,
      "Ġchecks": 8535,
      "2016": 8536,
      "Ġoccurs": 8537,
      "description": 8538,
      "Ġcoverage": 8539,
      "found": 8540,
      "Ġresist": 8541,
      "onest": 8542,
      "Ġthreads": 8543,
      "Ġbike": 8544,
      "Ġreset": 8545,
      "ĠIll": 8546,
      "Ġsole": 8547,
      "Ġaggress": 8548,
      "avity": 8549,
      "ĠYear": 8550,
      "author": 8551,
      "Ġ400": 8552,
      "Ġcharged": 8553,
      "Ġsilver": 8554,
      "Ġinnoc": 8555,
      "hot": 8556,
      "ĠWal": 8557,
      "Impl": 8558,
      "Ġqueue": 8559,
      "elta": 8560,
      ".....": 8561,
      "?!": 8562,
      "Custom": 8563,
      "Ġmarked": 8564,
      "tx": 8565,
      "itionally": 8566,
      "iner": 8567,
      "Ġcommands": 8568,
      "Ġantib": 8569,
      "Ġremark": 8570,
      "orted": 8571,
      "Ġprecise": 8572,
      "GG": 8573,
      "ami": 8574,
      "Ġcluster": 8575,
      "Ġboxes": 8576,
      "Ġstone": 8577,
      ">,": 8578,
      "Ġinfr": 8579,
      "Ġfigures": 8580,
      "Ġlanguages": 8581,
      "ĠRad": 8582,
      "ĠMel": 8583,
      "Ġincreases": 8584,
      "Ġpatterns": 8585,
      "Ġdram": 8586,
      "čĊĉ": 8587,
      "Ġvolunte": 8588,
      "Ġfur": 8589,
      "Sm": 8590,
      "zing": 8591,
      "rick": 8592,
      "ĠâĪĪ": 8593,
      "Ġtur": 8594,
      "Ġtutorial": 8595,
      "Ġstudied": 8596,
      "ĠLeague": 8597,
      "Ġdesired": 8598,
      "Ġbench": 8599,
      "izontal": 8600,
      "Ġmarkets": 8601,
      "utter": 8602,
      "ruck": 8603,
      "Ġcow": 8604,
      "Ġfool": 8605,
      "dt": 8606,
      "Ġcutting": 8607,
      "Ġcompiler": 8608,
      "Ġpace": 8609,
      ")]": 8610,
      "Ġmemories": 8611,
      "Buffer": 8612,
      "Ñĸ": 8613,
      "opp": 8614,
      "edit": 8615,
      "Users": 8616,
      "Ġboring": 8617,
      "Ġanger": 8618,
      "Ġtruck": 8619,
      "Adapter": 8620,
      "Ġshr": 8621,
      "sn": 8622,
      "Ġyouth": 8623,
      "alloc": 8624,
      "ĠUbuntu": 8625,
      "Ð¿": 8626,
      "Ġticket": 8627,
      "Ġsecondary": 8628,
      "eping": 8629,
      "Ġcallback": 8630,
      "eg": 8631,
      "ĠGO": 8632,
      "athan": 8633,
      "ĠConst": 8634,
      "Ġexecutive": 8635,
      "awa": 8636,
      "Ġdegrees": 8637,
      "cious": 8638,
      "Ġgap": 8639,
      "ĠAccording": 8640,
      "âĻª": 8641,
      "Ġlegend": 8642,
      "Ġperman": 8643,
      "ĠTimes": 8644,
      "ĠParty": 8645,
      "Ġpractical": 8646,
      "Ġquote": 8647,
      "PRE": 8648,
      "Ġdispl": 8649,
      "Ġartist": 8650,
      "Ġ42": 8651,
      "PRO": 8652,
      "Ġposting": 8653,
      "ĠMur": 8654,
      "Ġagency": 8655,
      "ĠJapanese": 8656,
      "obs": 8657,
      "ĠChild": 8658,
      "something": 8659,
      "Ġunfortunately": 8660,
      "erver": 8661,
      "Ġcheek": 8662,
      "Ġleadership": 8663,
      "Ġfake": 8664,
      "Ġeffectively": 8665,
      "Ġdoors": 8666,
      "urally": 8667,
      "Ġhitting": 8668,
      "Ġinnov": 8669,
      "mate": 8670,
      "Ġexcuse": 8671,
      "ĠCouncil": 8672,
      "boo": 8673,
      "Ġsle": 8674,
      "Ġtechnique": 8675,
      "Red": 8676,
      "ĠDen": 8677,
      "Wait": 8678,
      "ĠUnder": 8679,
      "Aut": 8680,
      "ĠJO": 8681,
      "rog": 8682,
      "Ġstructures": 8683,
      "Ġenvironmental": 8684,
      "LES": 8685,
      "Ġcalculated": 8686,
      "Configuration": 8687,
      "space": 8688,
      "rics": 8689,
      "\"?": 8690,
      "Ġtaxes": 8691,
      "Ġattributes": 8692,
      "Ġvacc": 8693,
      "TF": 8694,
      "itar": 8695,
      "Ġtypename": 8696,
      "Reader": 8697,
      "ĠBest": 8698,
      "Ġgate": 8699,
      "btn": 8700,
      "duc": 8701,
      "Her": 8702,
      "Ġsuggests": 8703,
      "Ġcorrel": 8704,
      "mut": 8705,
      "Ġbridge": 8706,
      "ĠSenate": 8707,
      "Ġinstances": 8708,
      "elines": 8709,
      "Title": 8710,
      "auth": 8711,
      "ĠHome": 8712,
      "Ġreporting": 8713,
      "inite": 8714,
      "Ġgiant": 8715,
      "oongi": 8716,
      "ĠHA": 8717,
      "estion": 8718,
      "Ġvalu": 8719,
      "Pol": 8720,
      "ĠColor": 8721,
      "Ġdensity": 8722,
      "Ġstruggling": 8723,
      "asant": 8724,
      "Ġdiam": 8725,
      "Ġresponses": 8726,
      "byte": 8727,
      "sqrt": 8728,
      "Ġstrongly": 8729,
      "oration": 8730,
      "ĠEU": 8731,
      "stack": 8732,
      "Ġinhib": 8733,
      "Ġwhereas": 8734,
      "erek": 8735,
      "ĠFranc": 8736,
      "oston": 8737,
      "valuation": 8738,
      "Ġmood": 8739,
      "notation": 8740,
      "copy": 8741,
      "VC": 8742,
      "ĠGal": 8743,
      "Ġcharacteristics": 8744,
      "Ġfunding": 8745,
      "Ġintense": 8746,
      "Ġultimately": 8747,
      "ictions": 8748,
      "internal": 8749,
      "Ġinher": 8750,
      "Ġretail": 8751,
      "Ġentity": 8752,
      "cend": 8753,
      "2015": 8754,
      "Ġpapers": 8755,
      "Ġoutcome": 8756,
      "Ġpor": 8757,
      "NC": 8758,
      "Ġpod": 8759,
      "ĠPL": 8760,
      "Ġ95": 8761,
      "ĠThough": 8762,
      "zer": 8763,
      "ĠÃĹ": 8764,
      "ĠTem": 8765,
      "Ġbeside": 8766,
      "ĠBlue": 8767,
      "ĠCat": 8768,
      "Ġrend": 8769,
      "avis": 8770,
      "Ġcriteria": 8771,
      "Ġmigr": 8772,
      "Ġcovers": 8773,
      "Ġsensitive": 8774,
      "apse": 8775,
      "plex": 8776,
      "123": 8777,
      "ificate": 8778,
      "uan": 8779,
      "Ġinfection": 8780,
      "Ġrefere": 8781,
      "Ġrating": 8782,
      "ĠAut": 8783,
      "Ġnetworks": 8784,
      "Ġelimin": 8785,
      "ensional": 8786,
      "ĠBern": 8787,
      "taining": 8788,
      "Ġwrit": 8789,
      "ĠFinally": 8790,
      "ĠEveryone": 8791,
      "Ġhydro": 8792,
      "ĠWil": 8793,
      "orable": 8794,
      "Ġconstructor": 8795,
      "Ġgenes": 8796,
      "Ġflying": 8797,
      "through": 8798,
      "Entity": 8799,
      "ĠValue": 8800,
      "Ġdan": 8801,
      "Ġsuggestion": 8802,
      "Ġattempts": 8803,
      "Ġmagn": 8804,
      "Ġnegot": 8805,
      "Most": 8806,
      "Ġwound": 8807,
      "Ġhopes": 8808,
      "aver": 8809,
      "Ã³n": 8810,
      "Ġstaying": 8811,
      "ĠME": 8812,
      "Ġsheet": 8813,
      "Ġfalls": 8814,
      "Ġpercentage": 8815,
      "Love": 8816,
      "Ġexha": 8817,
      "Ġdrunk": 8818,
      "ĠArab": 8819,
      "iece": 8820,
      "thur": 8821,
      "domain": 8822,
      "nn": 8823,
      "Ġnumerous": 8824,
      "dep": 8825,
      "Ġcere": 8826,
      "Ġwrites": 8827,
      "Ġcriminal": 8828,
      "Stack": 8829,
      "Ġentries": 8830,
      "Ġregret": 8831,
      "Ġregions": 8832,
      "ĠIII": 8833,
      "orse": 8834,
      "scale": 8835,
      "Ġillegal": 8836,
      "ointer": 8837,
      "device": 8838,
      "Ġsurvive": 8839,
      "Ġvoters": 8840,
      "Ġparallel": 8841,
      "ĠWHERE": 8842,
      "Ġvulner": 8843,
      "ĠBuild": 8844,
      "Ġquit": 8845,
      "unit": 8846,
      "Ġdreams": 8847,
      "Ġdeeply": 8848,
      "ĠIV": 8849,
      "around": 8850,
      "Ġsport": 8851,
      "ophy": 8852,
      "Function": 8853,
      "Ġpil": 8854,
      "icide": 8855,
      "bound": 8856,
      "ĠOffice": 8857,
      "Ġease": 8858,
      "Ġtransaction": 8859,
      "Ġuniform": 8860,
      "Ġvel": 8861,
      "Ġevolution": 8862,
      "Ġconfigure": 8863,
      "ĠSM": 8864,
      "China": 8865,
      "NG": 8866,
      "ĠSciences": 8867,
      "Would": 8868,
      "Ġcreative": 8869,
      "inder": 8870,
      "atural": 8871,
      "Ġrelation": 8872,
      "čĊčĊ": 8873,
      "Ġlimits": 8874,
      "Ġul": 8875,
      "hus": 8876,
      "screen": 8877,
      "azine": 8878,
      ")-": 8879,
      "holder": 8880,
      "Ġbrill": 8881,
      "ARY": 8882,
      "ĠCR": 8883,
      "ĠCard": 8884,
      "ĠLI": 8885,
      "jango": 8886,
      "Ġdeserve": 8887,
      "Header": 8888,
      "aning": 8889,
      "ĠTra": 8890,
      "orthern": 8891,
      "Ġshower": 8892,
      "ko": 8893,
      "ĠSherlock": 8894,
      "Search": 8895,
      "Ġawful": 8896,
      "Ġargs": 8897,
      "command": 8898,
      "2017": 8899,
      "Ġpy": 8900,
      "hard": 8901,
      "Ġsugar": 8902,
      "QU": 8903,
      "mates": 8904,
      "Ġchoo": 8905,
      "asty": 8906,
      "uint": 8907,
      "ubuntu": 8908,
      "Ġdates": 8909,
      "tree": 8910,
      "ĠJud": 8911,
      "ĠNext": 8912,
      "Ġguns": 8913,
      "Ġsoftly": 8914,
      "Ġformed": 8915,
      "HTML": 8916,
      "amn": 8917,
      "Ġprepare": 8918,
      "Uh": 8919,
      "Ġbreathing": 8920,
      "Ġmoon": 8921,
      "ĠEverything": 8922,
      "ushes": 8923,
      "prise": 8924,
      "times": 8925,
      "strong": 8926,
      "emies": 8927,
      "lers": 8928,
      "Valid": 8929,
      "001": 8930,
      "Ġlegit": 8931,
      "ĠChicago": 8932,
      "Ġintroduce": 8933,
      "ateful": 8934,
      "Ġconclusion": 8935,
      "Ġxmlns": 8936,
      "Ġreward": 8937,
      "Second": 8938,
      "Ġpiss": 8939,
      "Ġemergency": 8940,
      "Ġdeeper": 8941,
      "ĠParis": 8942,
      "Ġdirty": 8943,
      "roduction": 8944,
      "edy": 8945,
      "Sw": 8946,
      "Ġjer": 8947,
      "kernel": 8948,
      "ĠUnion": 8949,
      "Ġrestaurant": 8950,
      "Ġdust": 8951,
      "Ġgym": 8952,
      "Ġoverwhel": 8953,
      "ĠZe": 8954,
      "Ġowned": 8955,
      "ĠMinister": 8956,
      "ĠDemocrats": 8957,
      "Ġshipping": 8958,
      "Provider": 8959,
      "cache": 8960,
      "mys": 8961,
      "TT": 8962,
      "(_": 8963,
      "ĠRepublicans": 8964,
      "Pat": 8965,
      "Ġcurve": 8966,
      "ĠRev": 8967,
      "player": 8968,
      "Ġles": 8969,
      "Ġisland": 8970,
      "Ġemphas": 8971,
      "rich": 8972,
      "fox": 8973,
      "anish": 8974,
      "Ġbackup": 8975,
      "âķĲ": 8976,
      "Ġmilk": 8977,
      "(*": 8978,
      "Ġremained": 8979,
      "Ġabsor": 8980,
      "ĠTy": 8981,
      "ĠSorry": 8982,
      "ĠMuslim": 8983,
      "ZE": 8984,
      "tmp": 8985,
      "ĠÐ¸": 8986,
      "Panel": 8987,
      "Ġabandon": 8988,
      "ocus": 8989,
      "ĠÐ½": 8990,
      "each": 8991,
      "pdf": 8992,
      "uddy": 8993,
      "ĠBell": 8994,
      "words": 8995,
      "Ġscar": 8996,
      "ĠYet": 8997,
      "ĠAdam": 8998,
      "Ġmuscle": 8999,
      "news": 9000,
      "lled": 9001,
      "ulture": 9002,
      "isc": 9003,
      "Ġgaze": 9004,
      "oral": 9005,
      "Ġdeveloper": 9006,
      "replace": 9007,
      "Ġshots": 9008,
      "Ġliquid": 9009,
      "Ġ99": 9010,
      "icking": 9011,
      "Ġtranslation": 9012,
      "vs": 9013,
      "ĠMO": 9014,
      "Ġreprodu": 9015,
      "ĠIr": 9016,
      "Ġvictory": 9017,
      "ĠCreate": 9018,
      "ĠIF": 9019,
      "Ġbin": 9020,
      "MENT": 9021,
      "iser": 9022,
      "Ġvary": 9023,
      "Ġhabit": 9024,
      "Ġincredible": 9025,
      "ĠExt": 9026,
      "every": 9027,
      "Ġrelief": 9028,
      "lat": 9029,
      "ĠĠĠĠĠĠĠĠĠĠĠĠĠĠĠĠĠĠĠĠĠĠĠĠĠĠĠĠĠĠĠĠĠĠĠĠĠĠĠĠĠĠĠĠĠĠĠĠĠĠĠĠĠĠĠĠĠĠĠĠĠĠĠĠ": 9030,
      "Ġnamespace": 9031,
      "Ġhesit": 9032,
      "ï¼Į": 9033,
      "ĠÂ·": 9034,
      "ĠWall": 9035,
      "Ġsegment": 9036,
      "Ġpra": 9037,
      "Ġexposed": 9038,
      "ĠMatt": 9039,
      "Ġdepression": 9040,
      "Ġimprovement": 9041,
      "ĠNA": 9042,
      "enced": 9043,
      "Ġuncomfort": 9044,
      "ĠCOVID": 9045,
      "Ġcalculate": 9046,
      "Ġdedicated": 9047,
      "Ġgall": 9048,
      "Ġdelivered": 9049,
      "Ġthorough": 9050,
      "Ġignored": 9051,
      "Ġinitially": 9052,
      "vy": 9053,
      "Ġassumed": 9054,
      "road": 9055,
      "help": 9056,
      "specific": 9057,
      "Ġappend": 9058,
      "Ġrig": 9059,
      "Ġpractices": 9060,
      "Ġdelight": 9061,
      "Ġcombat": 9062,
      "Ġunus": 9063,
      "2014": 9064,
      "ĠJeff": 9065,
      "debug": 9066,
      "Ġprofession": 9067,
      "apters": 9068,
      "Ġ55": 9069,
      "amental": 9070,
      "buffer": 9071,
      "ĠAuthor": 9072,
      "Ġtack": 9073,
      "issues": 9074,
      "Ġmanufacture": 9075,
      "Ġfabric": 9076,
      "Ġsne": 9077,
      "Ġslide": 9078,
      "Book": 9079,
      "ĠCurrent": 9080,
      "MD": 9081,
      "Ġtwenty": 9082,
      "ĠProgram": 9083,
      "NE": 9084,
      "youtube": 9085,
      "ĠGrand": 9086,
      "Android": 9087,
      "Ġexpectations": 9088,
      "./": 9089,
      "Ġriver": 9090,
      "Ġstepped": 9091,
      "Cons": 9092,
      "Ġdeclared": 9093,
      "ĠLee": 9094,
      "meta": 9095,
      "Ġgeneric": 9096,
      "heet": 9097,
      "ĠWE": 9098,
      "Ġspark": 9099,
      "çļ": 9100,
      "Ġsquee": 9101,
      "ĠBur": 9102,
      "Ġphp": 9103,
      "Ġ39": 9104,
      "tn": 9105,
      "ibilities": 9106,
      "ĠWestern": 9107,
      "Ġreform": 9108,
      "ĠSn": 9109,
      "OUR": 9110,
      "infty": 9111,
      "Ġstreets": 9112,
      "bottom": 9113,
      "ĠRoad": 9114,
      "ĠRyan": 9115,
      "di": 9116,
      "Ġrarely": 9117,
      "ĠDark": 9118,
      "Ġelev": 9119,
      "Ġadop": 9120,
      "Ġunion": 9121,
      "dem": 9122,
      "Height": 9123,
      "Ġapproved": 9124,
      "hr": 9125,
      "Ġassigned": 9126,
      "Ġsmiling": 9127,
      "rical": 9128,
      "+\\": 9129,
      "Ġchart": 9130,
      "Ġcandidates": 9131,
      "Ġduty": 9132,
      "Ġsake": 9133,
      "Ġscreens": 9134,
      "Try": 9135,
      "ruption": 9136,
      "Ġsuffering": 9137,
      "lections": 9138,
      "Ġcollabor": 9139,
      "ĠFlorida": 9140,
      "Ġneighborhood": 9141,
      "Ġcarbon": 9142,
      "enger": 9143,
      "Ġredirect": 9144,
      "Ġmistakes": 9145,
      "ĠKn": 9146,
      "Ġwrap": 9147,
      "fol": 9148,
      "erer": 9149,
      "Ġaward": 9150,
      "ĠSecurity": 9151,
      "Ġfantasy": 9152,
      "Ġ$$": 9153,
      "ĠVersion": 9154,
      "Ġ''": 9155,
      "Case": 9156,
      "INK": 9157,
      "ĠIE": 9158,
      "Ġopposed": 9159,
      "sters": 9160,
      "uten": 9161,
      "Ġrecovery": 9162,
      "kind": 9163,
      "ĠHaw": 9164,
      "Ġstared": 9165,
      "Ġcream": 9166,
      "Ġ44": 9167,
      "Ġ2004": 9168,
      "Ġcrew": 9169,
      "Ġrestart": 9170,
      "çļĦ": 9171,
      "buf": 9172,
      "Ġintelligence": 9173,
      "ĠMartin": 9174,
      "omed": 9175,
      "hance": 9176,
      "Ġloving": 9177,
      "big": 9178,
      "ĠSar": 9179,
      "romise": 9180,
      "Ġlocations": 9181,
      "âĶĢâĶĢ": 9182,
      "OCK": 9183,
      "Ġ2003": 9184,
      "ĠCarol": 9185,
      "Ġdollar": 9186,
      "Ġsubstant": 9187,
      "Ġreverse": 9188,
      "Ġseeking": 9189,
      "ĠTake": 9190,
      "Ġbeta": 9191,
      "hole": 9192,
      "ĠHol": 9193,
      "Ġwidely": 9194,
      "Ġproposal": 9195,
      "Ġinsight": 9196,
      "Ġupgrad": 9197,
      "ĠCHAPTER": 9198,
      "orney": 9199,
      "stop": 9200,
      "Ġbone": 9201,
      "elf": 9202,
      "Ġapproaches": 9203,
      "Ġ65": 9204,
      "ĠCustom": 9205,
      "aehy": 9206,
      "bas": 9207,
      "ĠNor": 9208,
      "ĠTechnology": 9209,
      "Ġmatching": 9210,
      "ĠCompany": 9211,
      "Ġcarrying": 9212,
      "Mem": 9213,
      "Items": 9214,
      "necess": 9215,
      "ĠModel": 9216,
      "ĠJer": 9217,
      "ione": 9218,
      "AAAA": 9219,
      "Oper": 9220,
      "Take": 9221,
      "800": 9222,
      "Ġquietly": 9223,
      "Ġpriority": 9224,
      "\"))": 9225,
      "Ġ{}": 9226,
      "Ġrecording": 9227,
      "initely": 9228,
      "Ġacts": 9229,
      "ĨĴ": 9230,
      "ĠRon": 9231,
      "agraph": 9232,
      "Ġrum": 9233,
      "Ġtroub": 9234,
      "Ġknife": 9235,
      "two": 9236,
      "Ġ$(\"": 9237,
      "Ġham": 9238,
      "Ġain": 9239,
      "ensed": 9240,
      "Ġvaluable": 9241,
      "ĠGNU": 9242,
      "widget": 9243,
      "Ġadmitted": 9244,
      "Ġmic": 9245,
      "Ġreduction": 9246,
      "ĠStand": 9247,
      "Ġflood": 9248,
      "sect": 9249,
      "ĠJose": 9250,
      "255": 9251,
      "uid": 9252,
      "Ġestimated": 9253,
      "Dec": 9254,
      "Ġguilty": 9255,
      "Ġinvestors": 9256,
      "Ġconcentration": 9257,
      "VAL": 9258,
      "Ġghost": 9259,
      "than": 9260,
      "udo": 9261,
      "Ġsalt": 9262,
      "ĠEDIT": 9263,
      "Ġshame": 9264,
      "posed": 9265,
      "ĠReal": 9266,
      "Ġshel": 9267,
      "vector": 9268,
      "Ġclosely": 9269,
      "Target": 9270,
      "None": 9271,
      "120": 9272,
      "Ġrepresentation": 9273,
      "Ġstrike": 9274,
      "ĠTry": 9275,
      "Ġatmosp": 9276,
      "Ġapproximately": 9277,
      "ĠNE": 9278,
      "Ġbesides": 9279,
      "ĠReturn": 9280,
      "Ġsacr": 9281,
      "cipl": 9282,
      "DD": 9283,
      "------------": 9284,
      "ĠER": 9285,
      "Ġsweat": 9286,
      "ĠLuc": 9287,
      "Ġcontained": 9288,
      "ĠFort": 9289,
      "Ġ\"\\": 9290,
      "Ġpolitic": 9291,
      "Ġresc": 9292,
      "ĠKeith": 9293,
      "Ġfruit": 9294,
      "Ġrect": 9295,
      "pref": 9296,
      "Ġsolved": 9297,
      "Ġhence": 9298,
      "cpp": 9299,
      "edef": 9300,
      "ffff": 9301,
      "pool": 9302,
      "Ġaid": 9303,
      "Ġexecution": 9304,
      "angers": 9305,
      "istical": 9306,
      "ĠLight": 9307,
      "security": 9308,
      "Ġgest": 9309,
      "cending": 9310,
      "Ok": 9311,
      "aco": 9312,
      "Ġpresentation": 9313,
      "Ġremoving": 9314,
      "MI": 9315,
      "rele": 9316,
      "Ġwise": 9317,
      "ĠBoy": 9318,
      "Ġreaching": 9319,
      "tenance": 9320,
      "Ġaccomplish": 9321,
      "CF": 9322,
      "ASE": 9323,
      "ublished": 9324,
      "rot": 9325,
      "Ġcuts": 9326,
      "si": 9327,
      "Ġcoast": 9328,
      ",\\": 9329,
      "Ġdick": 9330,
      "Module": 9331,
      "aron": 9332,
      "Ġsurvival": 9333,
      "ĠMaster": 9334,
      "Ġcontribute": 9335,
      "dated": 9336,
      "600": 9337,
      "Ġmerge": 9338,
      "elcome": 9339,
      "Ġswim": 9340,
      "ourse": 9341,
      "Ġmeta": 9342,
      "brows": 9343,
      "ĠRock": 9344,
      "ĠGR": 9345,
      ")=": 9346,
      "Ġsys": 9347,
      "Ġcontem": 9348,
      "reshold": 9349,
      "Ġhips": 9350,
      "Ġdestroyed": 9351,
      "agger": 9352,
      "Ident": 9353,
      "ĠShow": 9354,
      "ĠStiles": 9355,
      "esides": 9356,
      "Ġ\"âĻª": 9357,
      "anes": 9358,
      "ĠKim": 9359,
      "acc": 9360,
      "Ġinfrastructure": 9361,
      "Ġsilly": 9362,
      "Ġdict": 9363,
      "Ġdifferently": 9364,
      "join": 9365,
      "Ġlargely": 9366,
      "ĠSqu": 9367,
      "2018": 9368,
      "udes": 9369,
      "zip": 9370,
      "library": 9371,
      "Ġcompetitive": 9372,
      "Ġmit": 9373,
      "Ġgrip": 9374,
      "Ġauthority": 9375,
      "Ġtrading": 9376,
      "dict": 9377,
      "Ġgri": 9378,
      "Ġath": 9379,
      "ĠFA": 9380,
      "Ġancient": 9381,
      "Ġtent": 9382,
      "erman": 9383,
      "Document": 9384,
      "inations": 9385,
      "ĠMs": 9386,
      "ĠOld": 9387,
      "ruce": 9388,
      "Bas": 9389,
      "Ġexpansion": 9390,
      "rows": 9391,
      "PER": 9392,
      "env": 9393,
      "ĠAz": 9394,
      "Port": 9395,
      "Runtime": 9396,
      "Ġresidents": 9397,
      "Ġfoo": 9398,
      "alian": 9399,
      "///": 9400,
      "Ġtied": 9401,
      "Ġredd": 9402,
      "ialize": 9403,
      "Ġyang": 9404,
      "Ġ('": 9405,
      "Ġencourage": 9406,
      "addy": 9407,
      "ĠRiver": 9408,
      "ĠConnect": 9409,
      "ĠCharles": 9410,
      "category": 9411,
      "Ġeveryday": 9412,
      "Ġsections": 9413,
      "media": 9414,
      "ĠMil": 9415,
      "urse": 9416,
      "fill": 9417,
      "points": 9418,
      "onder": 9419,
      "Ġproport": 9420,
      "isting": 9421,
      "ĠJimin": 9422,
      "een": 9423,
      "ped": 9424,
      "Ġedition": 9425,
      "Ġmerely": 9426,
      "save": 9427,
      ".\"\"": 9428,
      "2013": 9429,
      "Ġregistered": 9430,
      "token": 9431,
      "Ġphenomen": 9432,
      "Each": 9433,
      "El": 9434,
      "Ġorient": 9435,
      "Ġrolling": 9436,
      "Ġtissue": 9437,
[...]
