{
  "version": "1.0",
  "truncation": null,
  "padding": null,
  "added_tokens": [
    {
      "id": 0,
      "content": "[UNK]",
      "single_word": false,
      "lstrip": false,
      "rstrip": false,
      "normalized": false,
      "special": true
    },
    {
      "id": 1,
      "content": "[CLS]",
      "single_word": false,
      "lstrip": false,
      "rstrip": false,
      "normalized": false,
      "special": true
    },
    {
      "id": 2,
      "content": "[SEP]",
      "single_word": false,
      "lstrip": false,
      "rstrip": false,
      "normalized": false,
      "special": true
    },
    {
      "id": 3,
      "content": "[PAD]",
      "single_word": false,
      "lstrip": false,
      "rstrip": false,
      "normalized": false,
      "special": true
    },
    {
      "id": 4,
      "content": "[MASK]",
      "single_word": false,
      "lstrip": false,
      "rstrip": false,
      "normalized": false,
      "special": true
    }
  ],
  "normalizer": null,
  "pre_tokenizer": {
    "type": "Sequence",
    "pretokenizers": [
      {
        "type": "Split",
        "pattern": {
          "Regex": "'s|'t|'re|'ve|'m|'ll|'d| ?\\p{L}+| ?\\p{N}+| ?[^\\s\\p{L}\\p{N}]+|\\s+(?!\\S)|\\s+"
        },
        "behavior": "MergedWithNext",
        "invert": false
      },
      {
        "type": "ByteLevel",
        "add_prefix_space": false,
        "trim_offsets": true,
        "use_regex": false
      }
    ]
  },
  "post_processor": null,
  "decoder": null,
  "model": {
    "type": "BPE",
    "dropout": null,
    "unk_token": "[UNK]",
    "continuing_subword_prefix": null,
    "end_of_word_suffix": null,
    "fuse_unk": false,
    "byte_fallback": false,
    "ignore_merges": false,
    "vocab": {
      "[UNK]": 0,
      "[CLS]": 1,
      "[SEP]": 2,
      "[PAD]": 3,
      "[MASK]": 4,
      "!": 5,
      "\"": 6,
      "#": 7,
      "$": 8,
      "%": 9,
      "&": 10,
      "'": 11,
      "(": 12,
      ")": 13,
      "*": 14,
      "+": 15,
      ",": 16,
      "-": 17,
      ".": 18,
      "/": 19,
      "0": 20,
      "1": 21,
      "2": 22,
      "3": 23,
      "4": 24,
      "5": 25,
      "6": 26,
      "7": 27,
      "8": 28,
      "9": 29,
      ":": 30,
      ";": 31,
      "<": 32,
      "=": 33,
      ">": 34,
      "?": 35,
      "@": 36,
      "A": 37,
      "B": 38,
      "C": 39,
      "D": 40,
      "E": 41,
      "F": 42,
      "G": 43,
      "H": 44,
      "I": 45,
      "J": 46,
      "K": 47,
      "L": 48,
      "M": 49,
      "N": 50,
      "O": 51,
      "P": 52,
      "Q": 53,
      "R": 54,
      "S": 55,
      "T": 56,
      "U": 57,
      "V": 58,
      "W": 59,
      "X": 60,
      "Y": 61,
      "Z": 62,
      "[": 63,
      "\\": 64,
      "]": 65,
      "^": 66,
      "_": 67,
      "`": 68,
      "a": 69,
      "b": 70,
      "c": 71,
      "d": 72,
      "e": 73,
      "f": 74,
      "g": 75,
      "h": 76,
      "i": 77,
      "j": 78,
      "k": 79,
      "l": 80,
      "m": 81,
      "n": 82,
      "o": 83,
      "p": 84,
      "q": 85,
      "r": 86,
      "s": 87,
      "t": 88,
      "u": 89,
      "v": 90,
      "w": 91,
      "x": 92,
      "y": 93,
      "z": 94,
      "{": 95,
      "|": 96,
      "}": 97,
      "~": 98,
      "¡": 99,
      "¢": 100,
      "£": 101,
      "¤": 102,
      "¥": 103,
      "¦": 104,
      "§": 105,
      "¨": 106,
      "©": 107,
      "ª": 108,
      "«": 109,
      "¬": 110,
      "®": 111,
      "¯": 112,
      "°": 113,
      "±": 114,
      "²": 115,
      "³": 116,
      "´": 117,
      "µ": 118,
      "¶": 119,
      "·": 120,
      "¸": 121,
      "¹": 122,
      "º": 123,
      "»": 124,
      "¼": 125,
      "½": 126,
      "¾": 127,
      "¿": 128,
      "Â": 129,
      "Ã": 130,
      "Ä": 131,
      "Å": 132,
      "Æ": 133,
      "Ç": 134,
      "È": 135,
      "É": 136,
      "Ê": 137,
      "Ë": 138,
      "Ì": 139,
      "Í": 140,
      "Î": 141,
      "Ï": 142,
      "Ð": 143,
      "Ñ": 144,
      "Ò": 145,
      "Ó": 146,
      "Ô": 147,
      "Õ": 148,
      "Ö": 149,
      "×": 150,
      "Ø": 151,
      "Ù": 152,
      "Û": 153,
      "ß": 154,
      "à": 155,
      "á": 156,
      "â": 157,
      "ã": 158,
      "ä": 159,
      "å": 160,
      "æ": 161,
      "ç": 162,
      "è": 163,
      "é": 164,
      "ê": 165,
      "í": 166,
      "î": 167,
      "ï": 168,
      "ð": 169,
      "ñ": 170,
      "ô": 171,
      "Ċ": 172,
      "Ġ": 173,
      "ġ": 174,
      "Ģ": 175,
      "ģ": 176,
      "Ĥ": 177,
      "ĥ": 178,
      "Ħ": 179,
      "ħ": 180,
      "Ĩ": 181,
      "ĩ": 182,
      "Ī": 183,
      "ī": 184,
      "Ĭ": 185,
      "ĭ": 186,
      "Į": 187,
      "į": 188,
      "İ": 189,
      "ı": 190,
      "Ĳ": 191,
      "ĳ": 192,
      "Ĵ": 193,
      "ĵ": 194,
      "Ķ": 195,
      "ķ": 196,
      "ĸ": 197,
      "Ĺ": 198,
      "ĺ": 199,
      "Ļ": 200,
      "ļ": 201,
      "Ľ": 202,
      "ľ": 203,
      "Ŀ": 204,
      "ŀ": 205,
      "Ł": 206,
      "ł": 207,
      "Ń": 208,
      "in": 209,
      "Ġa": 210,
      "Ġt": 211,
      "re": 212,
      "on": 213,
      "ti": 214,
      "he": 215,
      "en": 216,
      "Ġo": 217,
      "er": 218,
      "Ġs": 219,
      "Ġc": 220,
      "al": 221,
      "ed": 222,
      "Ġthe": 223,
      "Ġp": 224,
      "Ġin": 225,
      "Ġof": 226,
      "Ġan": 227,
      "at": 228,
      "es": 229,
      "Ġw": 230,
      "or": 231,
      "ro": 232,
      "an": 233,
      "tion": 234,
      "is": 235,
      "it": 236,
      "Ġm": 237,
      "Ġand": 238,
      "Ġd": 239,
      "as": 240,
      "ic": 241,
      "Ġf": 242,
      "Ġb": 243,
      "ar": 244,
      "ent": 245,
      "ing": 246,
      "Ġre": 247,
      "le": 248,
      "ation": 249,
      "Ġe": 250,
      "ve": 251,
      "Ġto": 252,
      "ec": 253,
      "om": 254,
      "ul": 255,
      "Ġ(": 256,
      "us": 257,
      "ly": 258,
      "ac": 259,
      "os": 260,
      "Ġh": 261,
      "ol": 262,
      "Ġn": 263,
      "et": 264,
      "id": 265,
      "ur": 266,
      "Ġth": 267,
      "ĠT": 268,
      "ith": 269,
      "Ġl": 270,
      "im": 271,
      "Ġwith": 272,
      "ere": 273,
      "el": 274,
      "ter": 275,
      "ati": 276,
      "un": 277,
      "Ġg": 278,
      "tr": 279,
      "ig": 280,
      "ce": 281,
      "Ġfor": 282,
      "Ġpro": 283,
      "Ġcon": 284,
      "ot": 285,
      "il": 286,
      "res": 287,
      "uc": 288,
      "if": 289,
      "ra": 290,
      "Ġwas": 291,
      "ated": 292,
      "ut": 293,
      "um": 294,
      "ĠThe": 295,
      "od": 296,
      "Ġv": 297,
      "Ġst": 298,
      "op": 299,
      "oc": 300,
      "ow": 301,
      "tic": 302,
      "Ġas": 303,
      "ts": 304,
      "Ġwere": 305,
      "am": 306,
      "ity": 307,
      "Ġis": 308,
      "Ġex": 309,
      "ents": 310,
      "Ġ1": 311,
      "ĠA": 312,
      "ate": 313,
      "em": 314,
      "si": 315,
      "og": 316,
      "Ġon": 317,
      "ĠC": 318,
      "Ġres": 319,
      "ĠI": 320,
      "di": 321,
      "Ġcom": 322,
      "Ġac": 323,
      "ag": 324,
      "ir": 325,
      "ys": 326,
      "ab": 327,
      "Ġbe": 328,
      "rom": 329,
      "Ġby": 330,
      "ell": 331,
      "ical": 332,
      "Ġthat": 333,
      "Ġr": 334,
      "up": 335,
      "ver": 336,
      "ine": 337,
      "ant": 338,
      "ph": 339,
      "qu": 340,
      "th": 341,
      "ment": 342,
      "Ġal": 343,
      "ase": 344,
      "Ġpati": 345,
      "ure": 346,
      "ĠP": 347,
      "Ġch": 348,
      "ff": 349,
      "ĠS": 350,
      "ted": 351,
      "se": 352,
      "ain": 353,
      "Ġde": 354,
      "tive": 355,
      "Ġ2": 356,
      "Ġor": 357,
      "ud": 358,
      "her": 359,
      "Ġcomp": 360,
      "Ġdis": 361,
      "ib": 362,
      "Ġim": 363,
      "ess": 364,
      "Ġpatients": 365,
      "ad": 366,
      "pec": 367,
      "Ġat": 368,
      "pl": 369,
      "te": 370,
      "duc": 371,
      "Ġus": 372,
      "Ġinc": 373,
      "Ġfrom": 374,
      "per": 375,
      "und": 376,
      "ĠM": 377,
      "Ġper": 378,
      "Ġare": 379,
      "iz": 380,
      "Ġad": 381,
      "ĠH": 382,
      "Ġcell": 383,
      "ign": 384,
      "ub": 385,
      "red": 386,
      "ations": 387,
      "ific": 388,
      "vel": 389,
      "igh": 390,
      "ran": 391,
      "ug": 392,
      "ial": 393,
      "ay": 394,
      "Ġhe": 395,
      "Ġse": 396,
      "orm": 397,
      "ous": 398,
      "sion": 399,
      "Ġne": 400,
      "Ġen": 401,
      "Ġwh": 402,
      "ore": 403,
      "ip": 404,
      "Ġle": 405,
      "ffec": 406,
      "por": 407,
      "tiv": 408,
      ").": 409,
      "ence": 410,
      "st": 411,
      "ion": 412,
      "Ġsh": 413,
      "tor": 414,
      "ch": 415,
      "ĠD": 416,
      "est": 417,
      "ĠIn": 418,
      "ary": 419,
      "ular": 420,
      "tro": 421,
      "ers": 422,
      "ge": 423,
      "lec": 424,
      "ia": 425,
      "Ġass": 426,
      "Ġgro": 427,
      "Ġdi": 428,
      "Ġ3": 429,
      "Ġpre": 430,
      "olog": 431,
      "reat": 432,
      "00": 433,
      "ĠB": 434,
      "),": 435,
      "reas": 436,
      "iff": 437,
      "ĠN": 438,
      "ative": 439,
      "ren": 440,
      "Ġsign": 441,
      "ĠE": 442,
      "Ġinf": 443,
      "Ġ0": 444,
      "iv": 445,
      "ĠF": 446,
      "yl": 447,
      "Ġcl": 448,
      "yp": 449,
      "eren": 450,
      "Ġdiff": 451,
      "ies": 452,
      "Ġap": 453,
      "Ġmet": 454,
      "Ġgen": 455,
      "ĠR": 456,
      "and": 457,
      "Ġstud": 458,
      "Ġeffec": 459,
      "Ġbet": 460,
      "Ġthis": 461,
      "ap": 462,
      "pres": 463,
      "ear": 464,
      "ĠW": 465,
      "anc": 466,
      "ost": 467,
      "ance": 468,
      "ist": 469,
      "Ġstudy": 470,
      "Ġnot": 471,
      "Ġco": 472,
      "Ġpres": 473,
      "tions": 474,
      "pro": 475,
      "enti": 476,
      "ose": 477,
      "Ġph": 478,
      "Ġev": 479,
      "Ġha": 480,
      "Ġpl": 481,
      "Ġwe": 482,
      "Ġinter": 483,
      "we": 484,
      "Ġtran": 485,
      "ich": 486,
      "ther": 487,
      "Ġob": 488,
      "Ġsur": 489,
      "Ġsignific": 490,
      "Ġpar": 491,
      "Ġgroup": 492,
      "ep": 493,
      "Ġsub": 494,
      "Ġrec": 495,
      "ide": 496,
      "ons": 497,
      "Ġab": 498,
      "Ġdifferen": 499,
      "ong": 500,
      "ĠO": 501,
      "Ġcells": 502,
      "ding": 503,
      "Ġanal": 504,
      "fter": 505,
      "Ġdet": 506,
      "Ġsignificant": 507,
      "one": 508,
      "age": 509,
      "Ġk": 510,
      "vi": 511,
      "low": 512,
      "ĠL": 513,
      "Ġme": 514,
      "Ġ4": 515,
      "Ġresul": 516,
      "min": 517,
      "ally": 518,
      "ved": 519,
      "Ġmod": 520,
      "ween": 521,
      "unc": 522,
      "Ġtrans": 523,
      "able": 524,
      "Ġstr": 525,
      "Ġ5": 526,
      "ĠG": 527,
      "ast": 528,
      "Ġactiv": 529,
      "Ġbetween": 530,
      "iti": 531,
      "ath": 532,
      "yn": 533,
      "Ġtreat": 534,
      "Ġspec": 535,
      "all": 536,
      "alu": 537,
      "Ġreg": 538,
      "Ġit": 539,
      "rap": 540,
      "Ġhave": 541,
      "end": 542,
      "ari": 543,
      "Ġshow": 544,
      "Ġwhich": 545,
      "yst": 546,
      "ound": 547,
      "oci": 548,
      "Ġy": 549,
      "tein": 550,
      "enc": 551,
      "Ġthan": 552,
      "ox": 553,
      "Ġcor": 554,
      "Ġafter": 555,
      "ĠTh": 556,
      "Ġmic": 557,
      "tim": 558,
      "Ġinv": 559,
      "port": 560,
      "Ġrel": 561,
      "hen": 562,
      "Ġint": 563,
      "Ġcons": 564,
      "Ġsc": 565,
      "form": 566,
      "Ġind": 567,
      "ight": 568,
      "Ġcar": 569,
      "ates": 570,
      "ech": 571,
      "tal": 572,
      "oth": 573,
      "duced": 574,
      "ri": 575,
      "Ġca": 576,
      "entr": 577,
      "Ġtreatment": 578,
      "Ġ=": 579,
      "ym": 580,
      "Ġlevel": 581,
      "our": 582,
      "Ġanti": 583,
      "Ġfac": 584,
      "osis": 585,
      "ros": 586,
      "ory": 587,
      "ak": 588,
      "ens": 589,
      "pon": 590,
      "ill": 591,
      "tain": 592,
      "ility": 593,
      "Ġar": 594,
      "ulation": 595,
      "trol": 596,
      "wo": 597,
      "cl": 598,
      "ection": 599,
      "ood": 600,
      "Ġun": 601,
      "Ġhigh": 602,
      "reased": 603,
      "lu": 604,
      "uring": 605,
      "Ġund": 606,
      "cep": 607,
      "act": 608,
      "ass": 609,
      "ome": 610,
      "ree": 611,
      "yt": 612,
      "ases": 613,
      "Ġ6": 614,
      "Ġag": 615,
      "mun": 616,
      "Ġprotein": 617,
      "udi": 618,
      "Ġbeen": 619,
      "velop": 620,
      "Ġthese": 621,
      "NA": 622,
      "ater": 623,
      "ach": 624,
      "ang": 625,
      "Ġhas": 626,
      "Ġro": 627,
      "Ġusing": 628,
      "Ġpo": 629,
      "pression": 630,
      "Ġdise": 631,
      "Ġcan": 632,
      "Ġbut": 633,
      "hib": 634,
      "Ġpos": 635,
      "Ġunder": 636,
      "ugh": 637,
      "ual": 638,
      "Ġam": 639,
      "ied": 640,
      "ue": 641,
      "Ġno": 642,
      "ysis": 643,
      "ating": 644,
      "Ġbl": 645,
      "ob": 646,
      "Ġassoci": 647,
      "Ġhy": 648,
      "Ġresults": 649,
      "Ġlow": 650,
      "acter": 651,
      "ms": 652,
      "unction": 653,
      "agn": 654,
      "Ġmeth": 655,
      "Ġcontrol": 656,
      "ew": 657,
      "ared": 658,
      "ple": 659,
      "Ġstudi": 660,
      "ystem": 661,
      "Ġdevelop": 662,
      "inical": 663,
      "out": 664,
      "Ġdec": 665,
      "so": 666,
      "Ġqu": 667,
      "The": 668,
      "gen": 669,
      "der": 670,
      "ures": 671,
      "ors": 672,
      "hem": 673,
      "ological": 674,
      "Ġmon": 675,
      "ĠWe": 676,
      "Ġmay": 677,
      "Ġbi": 678,
      "atic": 679,
      "pos": 680,
      "Ġmed": 681,
      "Ġhad": 682,
      "Ġtwo": 683,
      "ven": 684,
      "ized": 685,
      "Ġtheir": 686,
      "Ġall": 687,
      "ogen": 688,
      "ting": 689,
      "Ġpr": 690,
      "ĠThis": 691,
      "Ġser": 692,
      "Ġused": 693,
      "ser": 694,
      "ten": 695,
      "Ġconc": 696,
      "amin": 697,
      "Ġsystem": 698,
      "Ġduring": 699,
      "cess": 700,
      "Ġvari": 701,
      "Ġalso": 702,
      "Ġfol": 703,
      "Ġcol": 704,
      "uld": 705,
      "Ġra": 706,
      "Ġdes": 707,
      "Ġfactor": 708,
      "Ġsp": 709,
      "Ġsup": 710,
      "Ġtim": 711,
      "cr": 712,
      "Ġboth": 713,
      "ata": 714,
      "Ġmore": 715,
      "Ġtr": 716,
      "Ġman": 717,
      "Ġmeas": 718,
      "ization": 719,
      "pective": 720,
      "Ġclinical": 721,
      "ium": 722,
      "Ġout": 723,
      "ult": 724,
      "Ġpresent": 725,
      "ogra": 726,
      "Ġdisease": 727,
      "vid": 728,
      "de": 729,
      "rel": 730,
      "jec": 731,
      "Ġ9": 732,
      "ild": 733,
      "Ġactivity": 734,
      "Ġyear": 735,
      "Ġ7": 736,
      "alth": 737,
      "Ġsyn": 738,
      "Ġincl": 739,
      "hibit": 740,
      "Ġmo": 741,
      "Ġmethod": 742,
      "ĠU": 743,
      "Ġsug": 744,
      "Ġanalysis": 745,
      "ition": 746,
      "inding": 747,
      "mon": 748,
      "Ġbas": 749,
      "uct": 750,
      "Ġsam": 751,
      "Ġnon": 752,
      "Ġsignificantly": 753,
      "Ġuse": 754,
      "tin": 755,
      "Ġfollow": 756,
      "ans": 757,
      "Ġacc": 758,
      "Ġsuc": 759,
      "Ġdeter": 760,
      "ici": 761,
      "ite": 762,
      "Ġother": 763,
      "ever": 764,
      "ace": 765,
      "action": 766,
      "Ġsugg": 767,
      "Ġfunction": 768,
      "oid": 769,
      "Ġmodel": 770,
      "ays": 771,
      "Ġsim": 772,
      "ard": 773,
      "isk": 774,
      "Ġincreased": 775,
      "Ġlevels": 776,
      "rapy": 777,
      "ne": 778,
      "Ġinclud": 779,
      "Ġid": 780,
      "ke": 781,
      "Ġcomple": 782,
      "Ġevalu": 783,
      "Ġend": 784,
      "Ġobser": 785,
      "dition": 786,
      "Ġrespon": 787,
      "tig": 788,
      "ble": 789,
      "Ġem": 790,
      "Ġassociated": 791,
      "Ġhum": 792,
      "Ġperform": 793,
      "Ġfound": 794,
      "ype": 795,
      "tom": 796,
      "ution": 797,
      "duction": 798,
      "Ġ8": 799,
      "Ġcompared": 800,
      "Ġ10": 801,
      "Ġdata": 802,
      "Ġeffects": 803,
      "Ġgl": 804,
      "ile": 805,
      "Ġeffect": 806,
      "entif": 807,
      "ancer": 808,
      "ail": 809,
      "Ġexpression": 810,
      "rec": 811,
      "Ġrat": 812,
      "atory": 813,
      "ments": 814,
      "Ġover": 815,
      "ond": 816,
      "tern": 817,
      "Ġgene": 818,
      "ograph": 819,
      "inal": 820,
      "lym": 821,
      "ered": 822,
      "ma": 823,
      "als": 824,
      "ric": 825,
      "Ġform": 826,
      "Ġdifferent": 827,
      "Ġhig": 828,
      "Ġli": 829,
      "Ġconcentr": 830,
      "Ġexper": 831,
      "Ġtum": 832,
      "Ġpot": 833,
      "Ġhealth": 834,
      "ery": 835,
      "ency": 836,
      "Ġshowed": 837,
      "Ġtime": 838,
      "Ġimmun": 839,
      "Ġchar": 840,
      "rease": 841,
      "ants": 842,
      "sive": 843,
      "ron": 844,
      "Ġits": 845,
      "estig": 846,
      "Ġindic": 847,
      "01": 848,
      "Ġdiagn": 849,
      "Ġoc": 850,
      "Ġstudies": 851,
      "Ġrisk": 852,
      "Ġacid": 853,
      "ormal": 854,
      "Ġwhe": 855,
      "Ġmeasure": 856,
      "oma": 857,
      "ĠV": 858,
      "Ġop": 859,
      "Ġyears": 860,
      "Ġdem": 861,
      "par": 862,
      "Ġinvestig": 863,
      "Ġdr": 864,
      "Ġone": 865,
      "tical": 866,
      "usion": 867,
      "Ġappro": 868,
      "hed": 869,
      "ability": 870,
      "emb": 871,
      "onstr": 872,
      "lic": 873,
      "Ġidentif": 874,
      "cop": 875,
      "Ġcancer": 876,
      "Ġprog": 877,
      "ute": 878,
      "Ġpath": 879,
      "Ġassess": 880,
      "ology": 881,
      "iss": 882,
      "ities": 883,
      "erg": 884,
      "Ġmicro": 885,
      "owever": 886,
      "Ġins": 887,
      "ces": 888,
      "oph": 889,
      "Ġhuman": 890,
      "ni": 891,
      "/-": 892,
      "urren": 893,
      "hes": 894,
      "les": 895,
      "ism": 896,
      "dro": 897,
      "Ġcontr": 898,
      "Ġintr": 899,
      "Ġup": 900,
      "Ġrem": 901,
      "idence": 902,
      "ature": 903,
      "'s": 904,
      "Ġinto": 905,
      "Ġwho": 906,
      "ential": 907,
      "Ġinhibit": 908,
      "Ġage": 909,
      "%)": 910,
      "ceptor": 911,
      "rain": 912,
      "ale": 913,
      "Ġ+": 914,
      "Ġcases": 915,
      "cin": 916,
      "ive": 917,
      "echan": 918,
      "ork": 919,
      "Ġsurg": 920,
      "Ġhigher": 921,
      "Ġsec": 922,
      "Ġwell": 923,
      "Ġcharacter": 924,
      "Ġelec": 925,
      "arg": 926,
      "ĠThese": 927,
      "pit": 928,
      "bin": 929,
      "umb": 930,
      "Ġdef": 931,
      "plic": 932,
      "Ġmost": 933,
      "uro": 934,
      "Ġma": 935,
      "til": 936,
      "ord": 937,
      "ov": 938,
      "pectively": 939,
      "Ġmin": 940,
      "ement": 941,
      "view": 942,
      "Ġchild": 943,
      "Ġobserved": 944,
      "Ġpred": 945,
      "Ġpartic": 946,
      "Ġgroups": 947,
      "ĠAl": 948,
      "sed": 949,
      "Ġimpro": 950,
      "Ġrate": 951,
      "tit": 952,
      "Ġpatient": 953,
      "Ġmul": 954,
      "ix": 955,
      "ural": 956,
      "Ġblood": 957,
      "ark": 958,
      "ange": 959,
      "Ġonly": 960,
      "Ġ<": 961,
      "use": 962,
      "Ġpost": 963,
      "ex": 964,
      "Ġnew": 965,
      "tained": 966,
      "Ġes": 967,
      "nal": 968,
      "Ġstruct": 969,
      "Ġmor": 970,
      "Ġmechan": 971,
      "osph": 972,
      "irst": 973,
      "Ġocc": 974,
      "av": 975,
      "ung": 976,
      "endent": 977,
      "Ġsm": 978,
      "med": 979,
      "hy": 980,
      "Ġchang": 981,
      "reated": 982,
      "led": 983,
      "Ġvalu": 984,
      "Ġgener": 985,
      "ok": 986,
      "ry": 987,
      "Ġtiss": 988,
      "ane": 989,
      "Ġloc": 990,
      "Ġox": 991,
      "Ġreceptor": 992,
      "Ġtech": 993,
      "Ġ19": 994,
      "Ġthree": 995,
      "Ġimport": 996,
      "eth": 997,
      "ĠK": 998,
      "ucle": 999,
      "asc": 1000,
      "ensi": 1001,
      "Ġdemonstr": 1002,
      "iod": 1003,
      "Ġgrow": 1004,
      "ack": 1005,
      "ort": 1006,
      "fer": 1007,
      "Ġthere": 1008,
      "rough": 1009,
      "pa": 1010,
      "sy": 1011,
      "Ġresponse": 1012,
      "Ġcal": 1013,
      "Ġwhen": 1014,
      "Ġprocess": 1015,
      "Ġtest": 1016,
      "Ġrespectively": 1017,
      "Ġfirst": 1018,
      "ful": 1019,
      "ions": 1020,
      "omen": 1021,
      "Ġeff": 1022,
      "Ġsuch": 1023,
      "old": 1024,
      "othe": 1025,
      "tics": 1026,
      "Ġdrug": 1027,
      "ulated": 1028,
      "itive": 1029,
      "erative": 1030,
      "arly": 1031,
      "ines": 1032,
      "ental": 1033,
      "Ġdevelopment": 1034,
      "Ġthose": 1035,
      "tivity": 1036,
      "fore": 1037,
      "Ġfactors": 1038,
      "ress": 1039,
      "Ġexamin": 1040,
      "Ġtherapy": 1041,
      "now": 1042,
      "ores": 1043,
      "Ġsol": 1044,
      "Ġ12": 1045,
      "Ġdisc": 1046,
      "Ġ+/-": 1047,
      "Ġcare": 1048,
      "Ġsuggest": 1049,
      "Ġrole": 1050,
      "ational": 1051,
      "Ġhyper": 1052,
      "urther": 1053,
      "ected": 1054,
      "ough": 1055,
      "ene": 1056,
      "ft": 1057,
      "requ": 1058,
      "Ġnumb": 1059,
      "Ġincrease": 1060,
      "Ġpa": 1061,
      "xim": 1062,
      "ise": 1063,
      "Ġdetermin": 1064,
      "Ġchanges": 1065,
      "Ġcyt": 1066,
      "Ġinvol": 1067,
      "Ġrepor": 1068,
      "Ġconf": 1069,
      "ould": 1070,
      "Ġtotal": 1071,
      "ymp": 1072,
      "Ġcorrel": 1073,
      "10": 1074,
      "ram": 1075,
      "Ġmus": 1076,
      "ths": 1077,
      "Ġnormal": 1078,
      "ived": 1079,
      "zed": 1080,
      "Ġmolec": 1081,
      "Ġprim": 1082,
      "ĠHowever": 1083,
      "ody": 1084,
      "Ġperformed": 1085,
      "ependent": 1086,
      "Ġhyp": 1087,
      "Ġradi": 1088,
      "gan": 1089,
      "Ġpop": 1090,
      "Ġ[": 1091,
      "amm": 1092,
      "ie": 1093,
      "pha": 1094,
      "Ġlong": 1095,
      "Ġthrough": 1096,
      "Ġplas": 1097,
      "val": 1098,
      "Ġreview": 1099,
      "Ġchildren": 1100,
      "Ġspecific": 1101,
      "ek": 1102,
      "crib": 1103,
      "its": 1104,
      "Ġfe": 1105,
      "ased": 1106,
      "Ġaut": 1107,
      "que": 1108,
      "Ġinj": 1109,
      "ha": 1110,
      "Ġpredic": 1111,
      "ize": 1112,
      "Ġaddition": 1113,
      "urrent": 1114,
      "Ġsubjec": 1115,
      "Ġcould": 1116,
      "las": 1117,
      "II": 1118,
      "are": 1119,
      "Ġexperim": 1120,
      "qui": 1121,
      "Ġmy": 1122,
      "Ġlower": 1123,
      "art": 1124,
      "Ġextr": 1125,
      "ascular": 1126,
      "ilar": 1127,
      "Ġgrowth": 1128,
      "ently": 1129,
      "Ġmulti": 1130,
      "istr": 1131,
      "Ġperiod": 1132,
      "Ġfib": 1133,
      "Ġpotential": 1134,
      "Ġmg": 1135,
      "Ġless": 1136,
      "zym": 1137,
      "Ġoutc": 1138,
      "Ġantib": 1139,
      "Ġgra": 1140,
      "ardi": 1141,
      "Ġcr": 1142,
      "Ġnumber": 1143,
      "itro": 1144,
      "ues": 1145,
      "Ġfrequ": 1146,
      "ival": 1147,
      "Ġmain": 1148,
      "ography": 1149,
      "ymptom": 1150,
      "Ġamong": 1151,
      "ock": 1152,
      "Ġcont": 1153,
      "Ġtumor": 1154,
      "Ġmemb": 1155,
      "sible": 1156,
      "Ġcardi": 1157,
      "Ġstim": 1158,
      "Ġimportant": 1159,
      "ĠThere": 1160,
      "atal": 1161,
      "olic": 1162,
      "ages": 1163,
      "ian": 1164,
      "vention": 1165,
      "ties": 1166,
      "Ġflu": 1167,
      "Ġfinding": 1168,
      "Ġcomplex": 1169,
      "over": 1170,
      "Ġrats": 1171,
      "omes": 1172,
      "cle": 1173,
      "Ġwomen": 1174,
      "Ġmonths": 1175,
      "Ġcase": 1176,
      "Ġcombin": 1177,
      "Ġwithin": 1178,
      "Ġwithout": 1179,
      "operative": 1180,
      "ality": 1181,
      "Ġapp": 1182,
      "ior": 1183,
      "Ġdeg": 1184,
      "arge": 1185,
      "iel": 1186,
      "ospit": 1187,
      "Ġj": 1188,
      "Ġmut": 1189,
      "Ġchem": 1190,
      "iter": 1191,
      "Ġcalc": 1192,
      "Ġneuro": 1193,
      "Ġselec": 1194,
      "Ġmean": 1195,
      "Ġtype": 1196,
      "ily": 1197,
      "ocyt": 1198,
      "Ġdid": 1199,
      "In": 1200,
      "ind": 1201,
      "].": 1202,
      "Ġtechni": 1203,
      "Ġdays": 1204,
      "Ġpat": 1205,
      "05": 1206,
      "Ġdo": 1207,
      "ins": 1208,
      "ness": 1209,
      "ested": 1210,
      "li": 1211,
      "plant": 1212,
      "erv": 1213,
      "Ġhem": 1214,
      "Ġindi": 1215,
      "Ġep": 1216,
      "vious": 1217,
      "Ġvir": 1218,
      "Ġsequ": 1219,
      "lymph": 1220,
      "Ġdescrib": 1221,
      "ced": 1222,
      "Ġsurf": 1223,
      "ty": 1224,
      "amet": 1225,
      "Ġarter": 1226,
      "ake": 1227,
      "ĠDNA": 1228,
      "Ġoccur": 1229,
      "Ġsimilar": 1230,
      "Ġreve": 1231,
      "Ġaffec": 1232,
      "ingle": 1233,
      "ples": 1234,
      "Ġcap": 1235,
      "Ġdel": 1236,
      "erc": 1237,
      "ĠIt": 1238,
      "amine": 1239,
      "ains": 1240,
      "Ġtissue": 1241,
      "etic": 1242,
      "Ġmal": 1243,
      "br": 1244,
      "ield": 1245,
      "Ġexpos": 1246,
      "ice": 1247,
      "Ġknow": 1248,
      "Ġconsid": 1249,
      "Ġeach": 1250,
      "Ġwork": 1251,
      "50": 1252,
      "int": 1253,
      "co": 1254,
      "ann": 1255,
      "Ġlim": 1256,
      "Ġreported": 1257,
      "itis": 1258,
      "ified": 1259,
      "Ġgreat": 1260,
      "ycl": 1261,
      "induced": 1262,
      "hesis": 1263,
      "Ġisol": 1264,
      "Ġprot": 1265,
      "ically": 1266,
      "jor": 1267,
      "rect": 1268,
      "Ġdep": 1269,
      "%,": 1270,
      "Ġref": 1271,
      "Ġincluding": 1272,
      "Ġneed": 1273,
      "havi": 1274,
      "omet": 1275,
      "Ġmetab": 1276,
      "Ġsurv": 1277,
      "Ġcaus": 1278,
      "ish": 1279,
      "tis": 1280,
      "ety": 1281,
      "hip": 1282,
      "Ġphosph": 1283,
      "ĠJ": 1284,
      "Ġresp": 1285,
      "Ġhydro": 1286,
      "Ġrequi": 1287,
      "atis": 1288,
      "Ġinflu": 1289,
      "Ġbased": 1290,
      "Ġrele": 1291,
      "Ġtreated": 1292,
      "Ġsome": 1293,
      "Ġobtained": 1294,
      "ited": 1295,
      "ĠSt": 1296,
      "Ġfr": 1297,
      "Ġpresence": 1298,
      "Ġcommon": 1299,
      "Ġdiagnosis": 1300,
      "Ġsymptom": 1301,
      "Ġter": 1302,
      "12": 1303,
      "Ġlymph": 1304,
      "Ġcompar": 1305,
      "reg": 1306,
      "Ġso": 1307,
      "Ġour": 1308,
      "otic": 1309,
      "Ġtem": 1310,
      "Ġmajor": 1311,
      "eng": 1312,
      ")-": 1313,
      "Ġsingle": 1314,
      "Ġreveal": 1315,
      "Ġnucle": 1316,
      "Ġsurgery": 1317,
      "amic": 1318,
      "vidual": 1319,
      "Ġweek": 1320,
      "Ġ20": 1321,
      "Ġfindings": 1322,
      "rop": 1323,
      "Ġvol": 1324,
      "Ġmice": 1325,
      "Ġpositive": 1326,
      "ĠAn": 1327,
      "iron": 1328,
      "Ġanaly": 1329,
      "Ġidentified": 1330,
      "Ġ200": 1331,
      "arget": 1332,
      "Ġconcentration": 1333,
      "Ġdifferences": 1334,
      "ication": 1335,
      "Ġ-": 1336,
      "Ġmark": 1337,
      "Ġincreas": 1338,
      "Ġbec": 1339,
      "GF": 1340,
      "acy": 1341,
      "Ġenzym": 1342,
      "con": 1343,
      "Ġsensi": 1344,
      "Ġprovid": 1345,
      "Ġabs": 1346,
      "aneous": 1347,
      "Ġvis": 1348,
      "Ġsynt": 1349,
      "Ġconcentrations": 1350,
      "Ġel": 1351,
      "Ġsecond": 1352,
      "ites": 1353,
      "Ġlip": 1354,
      "Ġstudied": 1355,
      "ospital": 1356,
      "Ġsever": 1357,
      "RNA": 1358,
      "trib": 1359,
      "ditions": 1360,
      "Ġbehavi": 1361,
      "Ġsmall": 1362,
      "isms": 1363,
      "Ġpoly": 1364,
      "ulin": 1365,
      "af": 1366,
      "Ġserum": 1367,
      "Ġorgan": 1368,
      "eration": 1369,
      "Ġcult": 1370,
      "Ġreduced": 1371,
      "Ġadmin": 1372,
      "Ġdecreased": 1373,
      "aging": 1374,
      "Ġpress": 1375,
      "Ġwhile": 1376,
      "of": 1377,
      "kin": 1378,
      "ves": 1379,
      "sych": 1380,
      "cent": 1381,
      "arm": 1382,
      "ately": 1383,
      "Ġmeasured": 1384,
      "ronic": 1385,
      "Ġprimary": 1386,
      "Ġdose": 1387,
      "Ġearly": 1388,
      "Ġrece": 1389,
      "Ġprom": 1390,
      "Ġconditions": 1391,
      "crip": 1392,
      "Ġrelated": 1393,
      "ross": 1394,
      "onal": 1395,
      "epti": 1396,
      "Ġdue": 1397,
      "Ġshould": 1398,
      "Ġtra": 1399,
      "Ġfem": 1400,
      "ither": 1401,
      "Ġ15": 1402,
      "Ġbrain": 1403,
      "Ġdiagnos": 1404,
      "Ġindividual": 1405,
      "tric": 1406,
      "Ġrati": 1407,
      "ink": 1408,
      "Ġclass": 1409,
      "Ġiniti": 1410,
      "though": 1411,
      "och": 1412,
      "Ġpopulation": 1413,
      "Ġplasma": 1414,
      "Ġmembran": 1415,
      "Ġliver": 1416,
      "actions": 1417,
      "rome": 1418,
      "Ġol": 1419,
      "ving": 1420,
      "Ġlarge": 1421,
      "vere": 1422,
      "hel": 1423,
      "lamm": 1424,
      "str": 1425,
      "vement": 1426,
      "Ġpers": 1427,
      "Ġabout": 1428,
      "ĠCh": 1429,
      "ished": 1430,
      "Ġspecies": 1431,
      "ateg": 1432,
      "Ġmat": 1433,
      "Ġpattern": 1434,
      "oun": 1435,
      "Ġeffective": 1436,
      "Ġevidence": 1437,
      "ression": 1438,
      "Ġprevious": 1439,
      "Ġproteins": 1440,
      "Ġsubjects": 1441,
      "uce": 1442,
      "ect": 1443,
      "Ġreport": 1444,
      "Ġexpl": 1445,
      "CT": 1446,
      "Ġinvestigated": 1447,
      "Ġacute": 1448,
      "Ġfollowing": 1449,
      "anti": 1450,
      "Ġtarget": 1451,
      "ission": 1452,
      "Ġles": 1453,
      "Ġinfection": 1454,
      "ests": 1455,
      "Â±": 1456,
      "iver": 1457,
      "Ġproced": 1458,
      "ick": 1459,
      "Ġdeveloped": 1460,
      "earch": 1461,
      "Ġder": 1462,
      "Ġav": 1463,
      "ypes": 1464,
      "Ġenh": 1465,
      "Ġproper": 1466,
      "Ġsamples": 1467,
      "Ġaim": 1468,
      "Ġprol": 1469,
      "Ġ\"": 1470,
      "Ġinduced": 1471,
      "omy": 1472,
      "ening": 1473,
      "Ġbone": 1474,
      "based": 1475,
      "Ġele": 1476,
      "ife": 1477,
      "medi": 1478,
      "ensity": 1479,
      "CR": 1480,
      "Ġlead": 1481,
      "Ġimp": 1482,
      "ationship": 1483,
      "Ġsurface": 1484,
      "lyc": 1485,
      "ax": 1486,
      "Ġbinding": 1487,
      "sing": 1488,
      "gative": 1489,
      "Ġ30": 1490,
      "Ġcharacteris": 1491,
      "Ġsurvival": 1492,
      "Ġinform": 1493,
      "Ġul": 1494,
      "Ġcomplic": 1495,
      "Ġrevealed": 1496,
      "Ġgas": 1497,
      "ĠCD": 1498,
      "Ġphys": 1499,
      "Ġdemonstrated": 1500,
      "verse": 1501,
      "Ġthey": 1502,
      "CA": 1503,
      "Ġhep": 1504,
      "Ġchrom": 1505,
      "Ġvalues": 1506,
      "ade": 1507,
      "Ġpressure": 1508,
      "ause": 1509,
      "Ġchronic": 1510,
      "anced": 1511,
      "Ġdifferenti": 1512,
      "Ġagain": 1513,
      "oles": 1514,
      "ification": 1515,
      "Ġprov": 1516,
      "Ġpain": 1517,
      "Ġevaluated": 1518,
      "mine": 1519,
      "eu": 1520,
      "Ġvs": 1521,
      "Ġnec": 1522,
      "Ġinjur": 1523,
      "Ġanim": 1524,
      "ption": 1525,
      "Ġ14": 1526,
      "Ġpolym": 1527,
      "Ġprac": 1528,
      "Ġfour": 1529,
      "Ġ11": 1530,
      "Ġelectro": 1531,
      "Ġpur": 1532,
      "Ġcurrent": 1533,
      "MP": 1534,
      "Ġstructure": 1535,
      "Ġpul": 1536,
      "term": 1537,
      "ator": 1538,
      "Ġstand": 1539,
      "roph": 1540,
      "Ġproduc": 1541,
      "001": 1542,
      "agement": 1543,
      "oss": 1544,
      "Ġdetermined": 1545,
      "Ġadv": 1546,
      "Ġest": 1547,
      "Ġvitro": 1548,
      "Ġprof": 1549,
      "pe": 1550,
      "Ġrelationship": 1551,
      "ocytes": 1552,
      "Ġpe": 1553,
      "Ġfl": 1554,
      "ethyl": 1555,
      "Ġfam": 1556,
      "Ġcarcin": 1557,
      "SA": 1558,
      "esis": 1559,
      "tory": 1560,
      "Ġ24": 1561,
      "Ġsynd": 1562,
      "Ġexamined": 1563,
      "ateral": 1564,
      "ĠTo": 1565,
      "me": 1566,
      "Ġcoun": 1567,
      "Ġapproach": 1568,
      "Ġlocal": 1569,
      "Ġapplic": 1570,
      "Ġstress": 1571,
      "Ġur": 1572,
      "Ġrates": 1573,
      "Ġincluded": 1574,
      "Ġdetermine": 1575,
      "copy": 1576,
      "Ġang": 1577,
      "Ġbefore": 1578,
      "Ġresist": 1579,
      "Ġwater": 1580,
      "sequ": 1581,
      "Ġphen": 1582,
      "elf": 1583,
      "Ġext": 1584,
      "icity": 1585,
      "ials": 1586,
      "Ġdiscus": 1587,
      "Ġfail": 1588,
      "ynamic": 1589,
      "Ġmolecular": 1590,
      "ole": 1591,
      "Ġbeta": 1592,
      "Ġlab": 1593,
      "onic": 1594,
      "ĠAs": 1595,
      "andom": 1596,
      "ences": 1597,
      "Ġfurther": 1598,
      "Ġagainst": 1599,
      "(-": 1600,
      "Ġdiab": 1601,
      "Ġregion": 1602,
      "Ġmethods": 1603,
      "Ġmater": 1604,
      "Ġcle": 1605,
      "Ġoper": 1606,
      "ellular": 1607,
      "Ġgenes": 1608,
      "Ġequ": 1609,
      "Ġresearch": 1610,
      "Ġparamet": 1611,
      "olar": 1612,
      "Ġval": 1613,
      "Ġ13": 1614,
      "Ġeither": 1615,
      "Ġfunctional": 1616,
      "Ġalpha": 1617,
      "Ġneur": 1618,
      "omic": 1619,
      "icient": 1620,
      "Ġtherap": 1621,
      "Ġnan": 1622,
      "pressed": 1623,
      "Ġrelative": 1624,
      "Ġsame": 1625,
      "Ġline": 1626,
      "vent": 1627,
      "Ġsus": 1628,
      "Ġos": 1629,
      "ologic": 1630,
      "related": 1631,
      "11": 1632,
      "Ġestim": 1633,
      "Ġdesign": 1634,
      "Ġ18": 1635,
      "taining": 1636,
      "iat": 1637,
      "Ġbody": 1638,
      "PA": 1639,
      "ĠCI": 1640,
      "Ġsymptoms": 1641,
      "ults": 1642,
      "Ġexc": 1643,
      "opath": 1644,
      "uted": 1645,
      "Ġactivation": 1646,
      "otherapy": 1647,
      "omp": 1648,
      "Ġpathw": 1649,
      "ists": 1650,
      "abl": 1651,
      "ulations": 1652,
      "Ġintra": 1653,
      "ĠÎ": 1654,
      "Ġdistrib": 1655,
      "Ġratio": 1656,
      "Ġproduction": 1657,
      "Ġgreater": 1658,
      "tomy": 1659,
      "Ġformation": 1660,
      "viron": 1661,
      "Ġquality": 1662,
      "Ġflow": 1663,
      "Ġsu": 1664,
      "ules": 1665,
      "went": 1666,
      "ochem": 1667,
      "Ġset": 1668,
      "Ġpsych": 1669,
      "year": 1670,
      "ning": 1671,
      "Ġ16": 1672,
      "arc": 1673,
      "Ġweight": 1674,
      "Ġgluc": 1675,
      "Ġrandom": 1676,
      "ocy": 1677,
      "Ġvarious": 1678,
      "az": 1679,
      "Ġinformation": 1680,
      "atus": 1681,
      "Ġhist": 1682,
      "Ġshown": 1683,
      "yr": 1684,
      "Ġproperties": 1685,
      "uration": 1686,
      "Ġmm": 1687,
      "spec": 1688,
      "Ġhospital": 1689,
      "Ġphase": 1690,
      "Ġmuscle": 1691,
      "Ġexperi": 1692,
      "Ġdetected": 1693,
      "Ġmass": 1694,
      "Ġrange": 1695,
      "Ġcir": 1696,
      "Ġsyndrome": 1697,
      "Ġelectr": 1698,
      "Ġwhether": 1699,
      "dependent": 1700,
      "hydro": 1701,
      "ĠII": 1702,
      "lor": 1703,
      "tality": 1704,
      "Ġcompound": 1705,
      "Ġexposure": 1706,
      "istration": 1707,
      "emia": 1708,
      "Ġweeks": 1709,
      "ension": 1710,
      "Ġdys": 1711,
      "Ġpossible": 1712,
      "Ġlung": 1713,
      "Ġcontrib": 1714,
      "Ġprob": 1715,
      "ude": 1716,
      "Ġsignal": 1717,
      "ae": 1718,
      "tically": 1719,
      "Ġdifference": 1720,
      "to": 1721,
      "Ġmanagement": 1722,
      "Ġparticip": 1723,
      "orph": 1724,
      "ision": 1725,
      "IV": 1726,
      "Ġlife": 1727,
      "Ġwill": 1728,
      "Ġmembrane": 1729,
      "active": 1730,
      "Ġmicros": 1731,
      "Ġu": 1732,
      "oly": 1733,
      "Ġmetabol": 1734,
      "Ġvirus": 1735,
      "Ġreduction": 1736,
      "Ġloss": 1737,
      "Ġprovide": 1738,
      "line": 1739,
      "Ġcat": 1740,
      "Ġ95": 1741,
      "Ġbacter": 1742,
      "tros": 1743,
      "ographic": 1744,
      "iciency": 1745,
      "kg": 1746,
      "Ġany": 1747,
      "ĠOur": 1748,
      "Ġsevere": 1749,
      "Ġheart": 1750,
      "Ġhis": 1751,
      "Ġve": 1752,
      "onses": 1753,
      "Ġtox": 1754,
      "Ġchange": 1755,
      "gl": 1756,
      "Ġwhereas": 1757,
      "Ġconcl": 1758,
      "Ġrecom": 1759,
      "Ġcarb": 1760,
      "inc": 1761,
      "roup": 1762,
      "atin": 1763,
      "Ġ201": 1764,
      "imin": 1765,
      "Ġred": 1766,
      "Ġmultiple": 1767,
      "Ġseveral": 1768,
      "Ġinvolved": 1769,
      "Ġdirect": 1770,
      "Ġanalys": 1771,
      "Ġdom": 1772,
      "ison": 1773,
      "Ġmortality": 1774,
      "Ġ50": 1775,
      "Ġconduc": 1776,
      "Ġsupport": 1777,
      "Ġsurgical": 1778,
      "Ġsize": 1779,
      "Ġrepres": 1780,
      "ĠIL": 1781,
      "ides": 1782,
      "stand": 1783,
      "Ġnovel": 1784,
      "Ġinflamm": 1785,
      "13": 1786,
      "Ġrenal": 1787,
      "ĠX": 1788,
      "Ġmedical": 1789,
      "Ġtechnique": 1790,
      "Ġcontrols": 1791,
      "ĠÂ±": 1792,
      "Ġgu": 1793,
      "Ġconfir": 1794,
      "entric": 1795,
      "19": 1796,
      "Cs": 1797,
      "Ġnegative": 1798,
      "Ġcompon": 1799,
      "atures": 1800,
      "ocardi": 1801,
      "ling": 1802,
      "Ġresponses": 1803,
      "Ġreaction": 1804,
      "ĠAll": 1805,
      "15": 1806,
      "To": 1807,
      "ysi": 1808,
      "20": 1809,
      "Ġ100": 1810,
      "Ġpart": 1811,
      "Ġresid": 1812,
      "inf": 1813,
      "gn": 1814,
      "utr": 1815,
      "ergy": 1816,
      "Ġassessed": 1817,
      "Ġmuc": 1818,
      "Ġenviron": 1819,
      "ording": 1820,
      "Ġculture": 1821,
      "Ġcycl": 1822,
      "Ġtemper": 1823,
      "ital": 1824,
      "hibition": 1825,
      "Ġstrong": 1826,
      "odies": 1827,
      "Ġsex": 1828,
      "TP": 1829,
      "Ġimaging": 1830,
      "Ġappear": 1831,
      "Ġoxid": 1832,
      "iven": 1833,
      "Ġdiet": 1834,
      "iving": 1835,
      "mit": 1836,
      "olution": 1837,
      "Ġperformance": 1838,
      "ivo": 1839,
      "Ġgeneral": 1840,
      "Ġparameters": 1841,
      "Ġdetection": 1842,
      "Ġmechanisms": 1843,
      "Ġed": 1844,
      "pair": 1845,
      "14": 1846,
      "ances": 1847,
      "Ġday": 1848,
      "Ġdeath": 1849,
      "Ġsuccess": 1850,
      "ode": 1851,
      "Ġcontin": 1852,
      "Ġavail": 1853,
      "ward": 1854,
      "Ġproble": 1855,
      "Ġknown": 1856,
      "Ġstrateg": 1857,
      "enter": 1858,
      "ised": 1859,
      "Ġach": 1860,
      "Ġactive": 1861,
      "MS": 1862,
      "Ġscre": 1863,
      "row": 1864,
      "ancy": 1865,
      "Ġmechanism": 1866,
      "ained": 1867,
      "Ġinjury": 1868,
      "Ġisolated": 1869,
      "Ġmagn": 1870,
      "cept": 1871,
      "ĠFurther": 1872,
      "reast": 1873,
      "Ġphot": 1874,
      "Ġanalyzed": 1875,
      "Ġcollec": 1876,
      "Ġpresented": 1877,
      "Ġevaluate": 1878,
      "ĠQ": 1879,
      "Ġmen": 1880,
      "eutic": 1881,
      "adi": 1882,
      "trans": 1883,
      "gr": 1884,
      "25": 1885,
      "Ġstandard": 1886,
      "ined": 1887,
      "Ġvolum": 1888,
      "Ġarea": 1889,
      "Ġvivo": 1890,
      "Ġdecrease": 1891,
      "ters": 1892,
      "asis": 1893,
      "AP": 1894,
      "Ġvalue": 1895,
      "Ġparticular": 1896,
      "Ġestabl": 1897,
      "Ġsal": 1898,
      "Ġcharacteristics": 1899,
      "18": 1900,
      "Ġlesions": 1901,
      "verage": 1902,
      "Ġenzyme": 1903,
      "Ġz": 1904,
      "Ġachie": 1905,
      "Ġcere": 1906,
      "95": 1907,
      "copic": 1908,
      "monary": 1909,
      "des": 1910,
      "ĠAm": 1911,
      "Ġoutcomes": 1912,
      "Ġcontrast": 1913,
      "Ġcommun": 1914,
      "oplas": 1915,
      "Ġlike": 1916,
      "OR": 1917,
      "Ġver": 1918,
      "Ġoutcome": 1919,
      "Ġpregn": 1920,
      "Ġbehavior": 1921,
      "Ġ.": 1922,
      "terior": 1923,
      "ended": 1924,
      "let": 1925,
      "ogenesis": 1926,
      "ove": 1927,
      "like": 1928,
      "pose": 1929,
      "Ġpepti": 1930,
      "Ġ25": 1931,
      "Ġmodels": 1932,
      "ulf": 1933,
      "gra": 1934,
      "Ġassociation": 1935,
      "ds": 1936,
      "Ġvi": 1937,
      "ule": 1938,
      "chem": 1939,
      "entral": 1940,
      "Ġresistance": 1941,
      "ĠRes": 1942,
      "ler": 1943,
      "Ġleft": 1944,
      "cription": 1945,
      "CC": 1946,
      "Ġmit": 1947,
      "Ġmorph": 1948,
      "Ġfield": 1949,
      "Ġmany": 1950,
      "ygen": 1951,
      "sis": 1952,
      "Ġstatis": 1953,
      "ĠRe": 1954,
      "Ġ17": 1955,
      "Ġallow": 1956,
      "Ġincreasing": 1957,
      "ust": 1958,
      "Ġcirc": 1959,
      "Ġcomplete": 1960,
      "orb": 1961,
      "Ġvery": 1962,
      "Ġprost": 1963,
      "Ġresult": 1964,
      "Ġbreast": 1965,
      "itation": 1966,
      "plement": 1967,
      "Ġpreval": 1968,
      "opt": 1969,
      "Ġsystems": 1970,
      "Ġevaluation": 1971,
      "estion": 1972,
      "Ġorder": 1973,
      "ĠFor": 1974,
      "ogn": 1975,
      "ĠOn": 1976,
      "Ġrap": 1977,
      "specific": 1978,
      "Ġadj": 1979,
      "Ġself": 1980,
      "mic": 1981,
      "opro": 1982,
      "other": 1983,
      "Ġadministration": 1984,
      "Ġincidence": 1985,
      "Ġpub": 1986,
      "yro": 1987,
      "ĠCa": 1988,
      "eta": 1989,
      "Ġidentify": 1990,
      "Ġdiseases": 1991,
      "Ġindicate": 1992,
      "Ġdos": 1993,
      "normal": 1994,
      "ĠAt": 1995,
      "Ġfollowed": 1996,
      "uk": 1997,
      "Ġfoc": 1998,
      "Ġfrequency": 1999,
      "eding": 2000,
      "posed": 2001,
      "Ġassay": 2002,
      "ually": 2003,
      "oad": 2004,
      "respon": 2005,
      "ture": 2006,
      "Ġhealthy": 2007,
      "Ġinhibition": 2008,
      "atients": 2009,
      "Ġenvironment": 2010,
      "Ġcomplications": 2011,
      "Ġconsidered": 2012,
      "Ġstatus": 2013,
      "Ġconsist": 2014,
      "Ġx": 2015,
      "Ġsaf": 2016,
      "Ġdescribed": 2017,
      "ably": 2018,
      "16": 2019,
      "Ġfat": 2020,
      "ull": 2021,
      "ours": 2022,
      "ouse": 2023,
      "Ġcompos": 2024,
      "ogenic": 2025,
      "Ġultr": 2026,
      "etes": 2027,
      "ĠEx": 2028,
      "Ġexperimental": 2029,
      "ocial": 2030,
      "itu": 2031,
      "enef": 2032,
      "icacy": 2033,
      "Ġemb": 2034,
      "Ġmale": 2035,
      "Ġcorrelation": 2036,
      "AD": 2037,
      "Ġhel": 2038,
      "oring": 2039,
      "Ġbecause": 2040,
      "bility": 2041,
      "Ġextrac": 2042,
      "Ġbeing": 2043,
      "order": 2044,
      "Ġte": 2045,
      "Ġfil": 2046,
      "ĠCon": 2047,
      "Ġcardiac": 2048,
      "Ġsuper": 2049,
      "Ġcaused": 2050,
      "Ġregul": 2051,
      "tice": 2052,
      "vic": 2053,
      "Ġsite": 2054,
      "Ġinfluence": 2055,
      "ĠAd": 2056,
      "Ġvia": 2057,
      "ĠmRNA": 2058,
      "Ġtumors": 2059,
      "plantation": 2060,
      "ques": 2061,
      "tegr": 2062,
      "Th": 2063,
      "Ġblock": 2064,
      "uble": 2065,
      "Ġstate": 2066,
      "Ġhowever": 2067,
      "amp": 2068,
      "Ġoptim": 2069,
      "Ġcarcinoma": 2070,
      "RI": 2071,
      "rees": 2072,
      "ner": 2073,
      "Ġhom": 2074,
      "Ġanimals": 2075,
      "Ġsensitivity": 2076,
      "Ġdistribution": 2077,
      "Ġtested": 2078,
      "enz": 2079,
      "arb": 2080,
      "ands": 2081,
      "ĠPro": 2082,
      "mal": 2083,
      "Ġaccur": 2084,
      "Ġimprove": 2085,
      "Ġskin": 2086,
      "%),": 2087,
      "AS": 2088,
      "Ġpercent": 2089,
      "Ġmetast": 2090,
      "orption": 2091,
      "els": 2092,
      "tex": 2093,
      "Ġreceived": 2094,
      "oy": 2095,
      "We": 2096,
      "Ġamin": 2097,
      "Ġ>": 2098,
      "otox": 2099,
      "Ġdist": 2100,
      "Ġtub": 2101,
      "Ġexhibit": 2102,
      "Ġprolif": 2103,
      "Ġmac": 2104,
      "Ġrelease": 2105,
      "ĠAc": 2106,
      "Ġdrugs": 2107,
      "erence": 2108,
      "Ġunderstand": 2109,
      "ible": 2110,
      "Ġfree": 2111,
      "Ġkin": 2112,
      "ĠAfter": 2113,
      "Ġbenef": 2114,
      "Ġinvestigate": 2115,
      "Ġpharm": 2116,
      "Ġindependent": 2117,
      "Ġhighly": 2118,
      "Ġatt": 2119,
      "Ġrapid": 2120,
      "cence": 2121,
      "mission": 2122,
      "Ġimproved": 2123,
      "vers": 2124,
      "antit": 2125,
      "Ġstimul": 2126,
      "Ġrequired": 2127,
      "ength": 2128,
      ".,": 2129,
      "CD": 2130,
      "Ġindex": 2131,
      "abil": 2132,
      "last": 2133,
      "Ġatten": 2134,
      "Ġgenetic": 2135,
      "Ġtherapeutic": 2136,
      "Ġinsulin": 2137,
      "ones": 2138,
      "Ġartery": 2139,
      "ylation": 2140,
      "Ġassessment": 2141,
      "Ġglucose": 2142,
      "000": 2143,
      "Ġsynthesis": 2144,
      "lex": 2145,
      "ĠNo": 2146,
      "onary": 2147,
      "ially": 2148,
      "rag": 2149,
      "Ġfailure": 2150,
      "Ġepit": 2151,
      "Ġcombination": 2152,
      "Ġbetter": 2153,
      "tors": 2154,
      "plied": 2155,
      "Ġfamily": 2156,
      "orders": 2157,
      "Ġavailable": 2158,
      "Ġtypes": 2159,
      "Ġir": 2160,
      "iatric": 2161,
      "eric": 2162,
      "Ġsecre": 2163,
      "Ġmonit": 2164,
      "17": 2165,
      "ses": 2166,
      "%).": 2167,
      "Ġrecord": 2168,
      "ĠCl": 2169,
      "Ġmaxim": 2170,
      "Ġartic": 2171,
      "ount": 2172,
      "Ġpreviously": 2173,
      "Ġcross": 2174,
      "otype": 2175,
      "Ġsites": 2176,
      "Ġvac": 2177,
      "Ġvers": 2178,
      "Ġliter": 2179,
      "Ġcoll": 2180,
      "round": 2181,
      "Ġcontent": 2182,
      "PS": 2183,
      "Ġproduced": 2184,
      "ai": 2185,
      "oung": 2186,
      "Ġuseful": 2187,
      "%.": 2188,
      "Ġinfec": 2189,
      "tension": 2190,
      "go": 2191,
      "Ġvolume": 2192,
      "Ġoste": 2193,
      "Ġtemperature": 2194,
      "omas": 2195,
      "Ġimpact": 2196,
      "--": 2197,
      "Ġif": 2198,
      "Ġshort": 2199,
      "uction": 2200,
      "ient": 2201,
      "eline": 2202,
      "Ġsample": 2203,
      "sc": 2204,
      "romb": 2205,
      "DS": 2206,
      "hesi": 2207,
      "rol": 2208,
      "inary": 2209,
      "ĠAlthough": 2210,
      "Ġcompounds": 2211,
      "Ġoral": 2212,
      "Ġfeatures": 2213,
      "Ġprocedure": 2214,
      "Ġenergy": 2215,
      "Ġlig": 2216,
      "Ġprec": 2217,
      "Ġabnormal": 2218,
      "Ġer": 2219,
      "Ġlight": 2220,
      "Ġreceptors": 2221,
      "rent": 2222,
      "own": 2223,
      "Ġadult": 2224,
      "ols": 2225,
      "Ġhorm": 2226,
      "Ġcarri": 2227,
      "hetic": 2228,
      "Ġtransi": 2229,
      "ochemical": 2230,
      "entricular": 2231,
      "Ġreduc": 2232,
      "Ġrepresent": 2233,
      "Ġindicated": 2234,
      "tial": 2235,
      "Ġvascular": 2236,
      "ration": 2237,
      "Ġ40": 2238,
      "Ġstage": 2239,
      "vant": 2240,
      "Ġefficacy": 2241,
      "Ġadd": 2242,
      "Ġcause": 2243,
      "Ġfive": 2244,
      "Ġdiabetes": 2245,
      "Ġprevalence": 2246,
      "Ġmedi": 2247,
      "erve": 2248,
      "Ġactivities": 2249,
      "ored": 2250,
      "oxid": 2251,
      "ocyte": 2252,
      "Ġsubst": 2253,
      "Ġaden": 2254,
      "Ġdam": 2255,
      "Ġdisorders": 2256,
      "idity": 2257,
      "CI": 2258,
      "Ġability": 2259,
      "Ġsequence": 2260,
      "ct": 2261,
      "urn": 2262,
      "urrence": 2263,
      "omal": 2264,
      "aining": 2265,
      "ĠUn": 2266,
      "ince": 2267,
      "Ġunderwent": 2268,
      "Ġdegrees": 2269,
      "rob": 2270,
      "Ġunc": 2271,
      "Ġpaper": 2272,
      "Ġwhere": 2273,
      "Ġ199": 2274,
      "Ġcontinu": 2275,
      "Ġtrain": 2276,
      "reatment": 2277,
      "Ġthen": 2278,
      "ST": 2279,
      "Ġconducted": 2280,
      "bral": 2281,
      "Ġliterature": 2282,
      "Ġpostoperative": 2283,
      "ĠCT": 2284,
      "Ġapopt": 2285,
      "Ġangi": 2286,
      "Ġsepar": 2287,
      "Ġbel": 2288,
      "ĠpH": 2289,
      "Ġoverall": 2290,
      "Ġcorrelated": 2291,
      "alpha": 2292,
      "Ġelev": 2293,
      "set": 2294,
      "Ġthem": 2295,
      "30": 2296,
      "ising": 2297,
      "Ġapplied": 2298,
      "izing": 2299,
      "Ġinteraction": 2300,
      "hest": 2301,
      "Ġcur": 2302,
      "ray": 2303,
      "istic": 2304,
      "Ġorig": 2305,
      "Ġphysical": 2306,
      "Ġeth": 2307,
      "ĠZ": 2308,
      "Ġtechniques": 2309,
      "Ġvisual": 2310,
      "Ġgood": 2311,
      "othel": 2312,
      "rh": 2313,
      "Ġcoronary": 2314,
      "Ġpulmonary": 2315,
      "Ġinitial": 2316,
      "Ġnur": 2317,
      "beta": 2318,
      "Ġstimulation": 2319,
      "Ġintrac": 2320,
      "Ġlipid": 2321,
      "Ġyoung": 2322,
      "Cl": 2323,
      "NF": 2324,
      "Ġill": 2325,
      "Ġsl": 2326,
      "Ġspectr": 2327,
      "Ġsurve": 2328,
      "ales": 2329,
      "Ġexpressed": 2330,
      "Ġheter": 2331,
      "OS": 2332,
      "Ġleast": 2333,
      "Ġprogram": 2334,
      "dom": 2335,
      "Ġsch": 2336,
      "imension": 2337,
      "Ġmade": 2338,
      "Ġintegr": 2339,
      "Ġmix": 2340,
      "Ġversus": 2341,
      "ustr": 2342,
      "Ġindividuals": 2343,
      "Ġoccurred": 2344,
      "Ġfocus": 2345,
      "emic": 2346,
      "Ġsour": 2347,
      "Ġaverage": 2348,
      "Ġprogn": 2349,
      "fusion": 2350,
      "ovascular": 2351,
      "ipher": 2352,
      "Ġtissues": 2353,
      "Ġoften": 2354,
      "tle": 2355,
      "Ġoxygen": 2356,
      "ĠHe": 2357,
      "Ġgiven": 2358,
      "Ġdiscussed": 2359,
      "overy": 2360,
      "Ġmight": 2361,
      "ave": 2362,
      "ĠPatients": 2363,
      "Ġobjec": 2364,
      "more": 2365,
      "etal": 2366,
      "Ġ60": 2367,
      "CS": 2368,
      "Ġrecogn": 2369,
      "Ġcombined": 2370,
      "Ġion": 2371,
      "Ġtimes": 2372,
      "enced": 2373,
      "yroid": 2374,
      "type": 2375,
      "cell": 2376,
      "Ġda": 2377,
      "Ġcent": 2378,
      "ables": 2379,
      "Ġlikely": 2380,
      "Ġplay": 2381,
      "treated": 2382,
      "Ġtransfer": 2383,
      "Ġcondition": 2384,
      "Ġamino": 2385,
      "+)": 2386,
      "Ġsix": 2387,
      "Ġepid": 2388,
      "Ġapproxim": 2389,
      "Ġcomparison": 2390,
      "Ġfemale": 2391,
      "AT": 2392,
      "Ġdiagnostic": 2393,
      "Ġhow": 2394,
      "uture": 2395,
      "Ġbiological": 2396,
      "Ġcharacterized": 2397,
      "Ġsuccessful": 2398,
      "AB": 2399,
      "ring": 2400,
      "Ġprevent": 2401,
      "Ġdiss": 2402,
      "rosis": 2403,
      "ledge": 2404,
      "Ġantibodies": 2405,
      "Ġimmune": 2406,
      "Ġminim": 2407,
      "ĠHIV": 2408,
      "MI": 2409,
      "Ġcentral": 2410,
      "Ġleuk": 2411,
      "Ġoff": 2412,
      "otor": 2413,
      "day": 2414,
      "Ġdynamic": 2415,
      "Ġobserv": 2416,
      "Ġtests": 2417,
      "ĠCom": 2418,
      "Ġmalign": 2419,
      "Ġareas": 2420,
      "Ġpathway": 2421,
      "Ġey": 2422,
      "ĠIm": 2423,
      "ĠCO": 2424,
      "Ġevents": 2425,
      "Ġintervention": 2426,
      "Ġmeasurements": 2427,
      "iratory": 2428,
      "Ġutil": 2429,
      "Ġquantit": 2430,
      "Ġcellular": 2431,
      "Ġair": 2432,
      "ask": 2433,
      "activ": 2434,
      "Ġchall": 2435,
      "Ġdensity": 2436,
      "Ġpractice": 2437,
      "occ": 2438,
      "oint": 2439,
      "io": 2440,
      "ĠIg": 2441,
      "agon": 2442,
      "40": 2443,
      "ĠHere": 2444,
      "Ġapplication": 2445,
      "ogene": 2446,
      "idne": 2447,
      "Ġscore": 2448,
      "Ġright": 2449,
      "Ġaffected": 2450,
      "coh": 2451,
      "ortic": 2452,
      "Ġnat": 2453,
      "Ġpatterns": 2454,
      "Ġpoor": 2455,
      "Ġcontaining": 2456,
      "Ġthromb": 2457,
      "Ġcriter": 2458,
      "Ġpharmac": 2459,
      "Ġdeliver": 2460,
      "ators": 2461,
      "Ġantibody": 2462,
      "ering": 2463,
      "utions": 2464,
      "Ġmoder": 2465,
      "Ġfood": 2466,
      "ĠMore": 2467,
      "Ġseen": 2468,
      "rior": 2469,
      "ey": 2470,
      "Ġanalyses": 2471,
      "function": 2472,
      "Ġplate": 2473,
      "utes": 2474,
      "estinal": 2475,
      "till": 2476,
      "dr": 2477,
      "Ġresulted": 2478,
      "Ġagents": 2479,
      "Ġplace": 2480,
      "Ġcri": 2481,
      "Ġeven": 2482,
      "Ġwould": 2483,
      "tif": 2484,
      "Ġenc": 2485,
      "man": 2486,
      "Ġprocesses": 2487,
      "Ġinhibitor": 2488,
      "umin": 2489,
      "Ġepithel": 2490,
      "Ġfluores": 2491,
      "aken": 2492,
      "istered": 2493,
      "ergic": 2494,
      "Ġquestion": 2495,
      "Ġultras": 2496,
      "Ġcollected": 2497,
      "Ġdemonstrate": 2498,
      "Ġperipher": 2499,
      "lying": 2500,
      "ectomy": 2501,
      "Ġov": 2502,
      "artic": 2503,
      "Ġwide": 2504,
      "Ġemerg": 2505,
      "Ġneurons": 2506,
      "ession": 2507,
      "Ġantigen": 2508,
      "MA": 2509,
      "Ġexerc": 2510,
      "NP": 2511,
      "Ġaction": 2512,
      "Ġendothel": 2513,
      "Ġsuggested": 2514,
      "ĠY": 2515,
      "Ġplac": 2516,
      "aking": 2517,
      "Ġtrials": 2518,
      "LA": 2519,
      "tensive": 2520,
      "Ġpotenti": 2521,
      "Ġexperiments": 2522,
      "Ġnerve": 2523,
      "utaneous": 2524,
      "Ġrare": 2525,
      "ĠRNA": 2526,
      "Ġrepe": 2527,
      "Ġglyc": 2528,
      "work": 2529,
      "ta": 2530,
      "plac": 2531,
      "Ġconfirmed": 2532,
      "23": 2533,
      "Ġrecent": 2534,
      "Ġstructures": 2535,
      "Ġmid": 2536,
      "ĠFurthermore": 2537,
      "Ġproposed": 2538,
      "pected": 2539,
      "Ġcy": 2540,
      "Ġlength": 2541,
      "atitis": 2542,
      "unctions": 2543,
      "Ġinteractions": 2544,
      "terol": 2545,
      "Ġphysi": 2546,
      "Ġduration": 2547,
      "Ġfluid": 2548,
      "rial": 2549,
      "ious": 2550,
      "DL": 2551,
      "Ġincreases": 2552,
      "amma": 2553,
      "Ġkinase": 2554,
      "24": 2555,
      "Ġtranscription": 2556,
      "Ġadults": 2557,
      "Ġalter": 2558,
      "Ġher": 2559,
      "Ġsocial": 2560,
      "ĠEn": 2561,
      "ĠSc": 2562,
      "Ġregression": 2563,
      "Ġcour": 2564,
      "Ġknowledge": 2565,
      "Ġnet": 2566,
      "Ġstrains": 2567,
      "Ġexp": 2568,
      "Ġkidne": 2569,
      "Ġrecomm": 2570,
      "ET": 2571,
      "Ch": 2572,
      "agen": 2573,
      "RA": 2574,
      "Ġmyocardi": 2575,
      "ral": 2576,
      "rad": 2577,
      "An": 2578,
      "Ġmouse": 2579,
      "Ġhistory": 2580,
      "oti": 2581,
      "Ġi": 2582,
      "Ġinhibited": 2583,
      "Ġscreening": 2584,
      "Ġauth": 2585,
      "pre": 2586,
      "Ġeduc": 2587,
      "Ġtechn": 2588,
      "rin": 2589,
      "Ġpanc": 2590,
      "ochond": 2591,
      "Ġlink": 2592,
      "Ġant": 2593,
      "Ġaccording": 2594,
      "Ġenhanced": 2595,
      "get": 2596,
      "Ġsubstr": 2597,
      "Ġproliferation": 2598,
      "Ġexamination": 2599,
      "urg": 2600,
      "etry": 2601,
      "Ġsolution": 2602,
      "Ġinjection": 2603,
      "Ġdamage": 2604,
      "Ġess": 2605,
      "ploy": 2606,
      "Ġpros": 2607,
      "arch": 2608,
      "60": 2609,
      "Ġchemical": 2610,
      "ired": 2611,
      "CP": 2612,
      "ER": 2613,
      "Ġhead": 2614,
      "Ġsens": 2615,
      "ilic": 2616,
      "Ġaff": 2617,
      "ĠMed": 2618,
      "Ġ'": 2619,
      "Ġprior": 2620,
      "pri": 2621,
      "pect": 2622,
      "Ġbasis": 2623,
      "Ġregions": 2624,
      "Ġcapac": 2625,
      "olec": 2626,
      "Ġcalcium": 2627,
      "Ġsubsequ": 2628,
      "vices": 2629,
      "Ġlabor": 2630,
      "Ġapoptosis": 2631,
      "Ġmeasures": 2632,
      "Ġadhe": 2633,
      "Ġconstr": 2634,
      "Ġfew": 2635,
      "Ġsuggests": 2636,
      "Ġscores": 2637,
      "isted": 2638,
      "LC": 2639,
      "fac": 2640,
      "Ġ21": 2641,
      "This": 2642,
      "Ġcatal": 2643,
      "MD": 2644,
      "hort": 2645,
      "put": 2646,
      "fold": 2647,
      "brid": 2648,
      "Ġbaseline": 2649,
      "sp": 2650,
      "take": 2651,
      "Ġelectron": 2652,
      "oster": 2653,
      "Ġhelp": 2654,
      "Ġperipheral": 2655,
      "BP": 2656,
      "Ġseries": 2657,
      "Ġbiom": 2658,
      "Ġax": 2659,
      "Ġtraining": 2660,
      "22": 2661,
      "Ġischem": 2662,
      "Ġimplic": 2663,
      "Ġdisorder": 2664,
      "Ġexperience": 2665,
      "Ġbil": 2666,
      "Ġaltern": 2667,
      "Ġmedic": 2668,
      "Ġphosphor": 2669,
      "Ġtoward": 2670,
      "Ġbir": 2671,
      "Ġhypot": 2672,
      "inic": 2673,
      "Ġselected": 2674,
      "lation": 2675,
      "uter": 2676,
      "pecially": 2677,
      "Ġregulation": 2678,
      "oids": 2679,
      "Ġestablished": 2680,
      "fficient": 2681,
      "Ġpregnancy": 2682,
      "Ġpor": 2683,
      "Ġsecondary": 2684,
      "eral": 2685,
      "ze": 2686,
      "Ġmel": 2687,
      "Ġdoes": 2688,
      "stit": 2689,
      "Ġacids": 2690,
      "odes": 2691,
      "Ġcorrespon": 2692,
      "80": 2693,
      "Ġpow": 2694,
      "vice": 2695,
      "MR": 2696,
      "Ġagg": 2697,
      "mat": 2698,
      "ertain": 2699,
      "Ġfract": 2700,
      "Ġcolon": 2701,
      "Ġsitu": 2702,
      "Ġretin": 2703,
      "ogni": 2704,
      "rine": 2705,
      "Ġunderstanding": 2706,
      "Ġside": 2707,
      "Ġcriteria": 2708,
      "Ġapproximately": 2709,
      "Ġacet": 2710,
      "Ġhand": 2711,
      "Ġlimited": 2712,
      "resh": 2713,
      "Ġimprovement": 2714,
      "Ġlack": 2715,
      "activity": 2716,
      "lob": 2717,
      "Ġ22": 2718,
      "Ġmetabolism": 2719,
      "Ġyield": 2720,
      "press": 2721,
      "emi": 2722,
      "Ġinflammatory": 2723,
      "Ġstill": 2724,
      "ĠThus": 2725,
      "Ġexercise": 2726,
      "Ġlay": 2727,
      "ĠAD": 2728,
      "Ġtrial": 2729,
      "Ġhal": 2730,
      "Ġbiop": 2731,
      "Ġsuggesting": 2732,
      "ĠWith": 2733,
      "Ġprovides": 2734,
      "okine": 2735,
      "ognitive": 2736,
      "Ġseg": 2737,
      "odium": 2738,
      "Ġventricular": 2739,
      "Ġmar": 2740,
      "Ġembry": 2741,
      "ense": 2742,
      "ĠSe": 2743,
      "RP": 2744,
      "Ġnecess": 2745,
      "Ġhours": 2746,
      "orn": 2747,
      "Ġmolecules": 2748,
      "aff": 2749,
      "Ġcomponents": 2750,
      "ES": 2751,
      "ective": 2752,
      "Ġprocedures": 2753,
      "Ġespecially": 2754,
      "tional": 2755,
      "Ġalone": 2756,
      "omer": 2757,
      "ml": 2758,
      "ef": 2759,
      "ulating": 2760,
      "Ġaccum": 2761,
      "Ġpolymer": 2762,
      "Ġretros": 2763,
      "formation": 2764,
      "ument": 2765,
      "roc": 2766,
      "Ġdon": 2767,
      "Ġparticipants": 2768,
      "nai": 2769,
      "Ġalcoh": 2770,
      "21": 2771,
      "Ġfer": 2772,
      "53": 2773,
      "Ġconsum": 2774,
      "quid": 2775,
      "ventional": 2776,
      "Ġundergo": 2777,
      "utive": 2778,
      "aged": 2779,
      "Ġdifferentiation": 2780,
      "Ġpig": 2781,
      "phal": 2782,
      "idine": 2783,
      "ĠRec": 2784,
      "Ġther": 2785,
      "ĠPh": 2786,
      "Ġdiffic": 2787,
      "mediated": 2788,
      "Ġlat": 2789,
      "aw": 2790,
      "Ġinvas": 2791,
      "produc": 2792,
      "Ġsw": 2793,
      "ĠOne": 2794,
      "anol": 2795,
      "Ġdepend": 2796,
      "Ġpeak": 2797,
      "Ġdoses": 2798,
      "Ġstrain": 2799,
      "+/-": 2800,
      "Ġhip": 2801,
      "Ġadditional": 2802,
      "PD": 2803,
      "Ġarticle": 2804,
      "Ġrang": 2805,
      "Ġpeptide": 2806,
      "pite": 2807,
      "Ġaffect": 2808,
      "tered": 2809,
      "ople": 2810,
      "Ġinhibitors": 2811,
      "Ġachieved": 2812,
      "Ġconsider": 2813,
      "Ġcontrolled": 2814,
      "bo": 2815,
      "ĠTwo": 2816,
      "Ġ23": 2817,
      "Ġposition": 2818,
      "Ġpropor": 2819,
      "Ġalthough": 2820,
      "ĠWhen": 2821,
      "oh": 2822,
      "Ġmes": 2823,
      "eness": 2824,
      "inant": 2825,
      "Ġchain": 2826,
      "Ġlines": 2827,
      "app": 2828,
      "SD": 2829,
      "Ġdaily": 2830,
      "Ġguid": 2831,
      "Ġtesting": 2832,
      "100": 2833,
      "Ġmetabolic": 2834,
      "Ġ28": 2835,
      "ressive": 2836,
      "Ġthus": 2837,
      "Ġstep": 2838,
      "Ġdescribe": 2839,
      "erest": 2840,
      "irus": 2841,
      "Ġprovided": 2842,
      "hydrox": 2843,
      "rac": 2844,
      "part": 2845,
      "Ġdelivery": 2846,
      "Ġinfections": 2847,
      "ese": 2848,
      "Ġsimple": 2849,
      "Ġproducts": 2850,
      "Ġclear": 2851,
      "Ġinterval": 2852,
      "Ġchromat": 2853,
      "Ġfrag": 2854,
      "Ġfunctions": 2855,
      "Ġmedian": 2856,
      "DNA": 2857,
      "Ġreduce": 2858,
      "osa": 2859,
      "Ġfraction": 2860,
      ");": 2861,
      "Ġmedium": 2862,
      "Ġmarked": 2863,
      "SH": 2864,
      "Ġstructural": 2865,
      "pt": 2866,
      "Ġchromos": 2867,
      "Ġchann": 2868,
      "Ġreflec": 2869,
      "27": 2870,
      "Ġproblems": 2871,
      "Ġkey": 2872,
      "Ġcop": 2873,
      "phosph": 2874,
      "ĠOf": 2875,
      "imens": 2876,
      "icial": 2877,
      "Ġselective": 2878,
      "Ġmitochond": 2879,
      "rogen": 2880,
      "Ġcritical": 2881,
      "istry": 2882,
      "Ġstrategies": 2883,
      "Ġconcer": 2884,
      "Ġcost": 2885,
      "ulate": 2886,
      "Ġantagon": 2887,
      "Ġadverse": 2888,
      "Ġkidney": 2889,
      "Ġback": 2890,
      "Ġdiagnosed": 2891,
      "group": 2892,
      "aps": 2893,
      "plas": 2894,
      "Ġreli": 2895,
      "Ġhypertension": 2896,
      "Ġchemotherapy": 2897,
      "Ġpolymorph": 2898,
      "Ġcapacity": 2899,
      "Ġâ": 2900,
      "Ġsignaling": 2901,
      "Ġparen": 2902,
      "ify": 2903,
      "Ġampl": 2904,
      "ints": 2905,
      "Ġessential": 2906,
      "RT": 2907,
      "Ġuptake": 2908,
      "Ġseem": 2909,
      "Ġpurpose": 2910,
      "itr": 2911,
      "ayed": 2912,
      "Ġexist": 2913,
      "Ġrecovery": 2914,
      "mia": 2915,
      "Ġopen": 2916,
      "troph": 2917,
      "Ġdistin": 2918,
      "ogenous": 2919,
      "arding": 2920,
      "Ġcourse": 2921,
      "oxy": 2922,
      "Ġquantitative": 2923,
      "Ġresulting": 2924,
      "Ġemploy": 2925,
      "Ġvalid": 2926,
      "Ġload": 2927,
      "Ġtransport": 2928,
      "time": 2929,
      "Ġabsence": 2930,
      "inity": 2931,
      "atives": 2932,
      "Ġcalculated": 2933,
      "Ġmutations": 2934,
      "70": 2935,
      "Ġlas": 2936,
      "Ġprepar": 2937,
      "illary": 2938,
      "Ġimportance": 2939,
      "ĠMe": 2940,
      "Ġdegree": 2941,
      "reng": 2942,
      "Ġfuture": 2943,
      "ĠPA": 2944,
      "olesterol": 2945,
      "Ġpromot": 2946,
      "Ġacross": 2947,
      "Ġdefined": 2948,
      "anning": 2949,
      "Ġrequire": 2950,
      "Ġcarbon": 2951,
      "Ġhormone": 2952,
      "Ġreal": 2953,
      "Ġolder": 2954,
      "Ġcm": 2955,
      "Ġrandomized": 2956,
      "Ġinduction": 2957,
      "priate": 2958,
      "ĠBoth": 2959,
      "Ġtoler": 2960,
      "leep": 2961,
      "Ġdepression": 2962,
      "Ġnetwork": 2963,
      "Ġdoc": 2964,
      "Ġdig": 2965,
      "Ġelevated": 2966,
      "Ġlimit": 2967,
      "Ġmagnetic": 2968,
      "oral": 2969,
      "Ġdown": 2970,
      "Ġmyocardial": 2971,
      "Ġcoup": 2972,
      "Ġpossi": 2973,
      "Ġrespiratory": 2974,
      "Ġintro": 2975,
      "Ġchlor": 2976,
      "icians": 2977,
      "Ġlarg": 2978,
      "ometric": 2979,
      "Ġsafety": 2980,
      "free": 2981,
      "Ġmig": 2982,
      "Ġfacil": 2983,
      "Ġcardiovascular": 2984,
      "radi": 2985,
      "tation": 2986,
      "Ġpopulations": 2987,
      "Ġmarkers": 2988,
      "log": 2989,
      "Ġinduc": 2990,
      "oprotein": 2991,
      "Ġnatural": 2992,
      "rix": 2993,
      "Ġcerebral": 2994,
      "ges": 2995,
      "aches": 2996,
      "Ġvariables": 2997,
      "tid": 2998,
      "Ġprogression": 2999,
      "Ġstatistically": 3000,
      "oz": 3001,
      "Ġtransplantation": 3002,
      "Ġprote": 3003,
      "Ġgran": 3004,
      "ocal": 3005,
      "ĠUsing": 3006,
      "Ġtop": 3007,
      "oval": 3008,
      "Ġsmok": 3009,
      "Ġorigin": 3010,
      "ococc": 3011,
      "Ġcarried": 3012,
      "Ġradiation": 3013,
      "Effec": 3014,
      "Ġenhance": 3015,
      "Ġstem": 3016,
      "Ġconventional": 3017,
      "Ġglut": 3018,
      "Ġplant": 3019,
      "Ġsulf": 3020,
      "Ġhepat": 3021,
      "Ġven": 3022,
      "ame": 3023,
      "CO": 3024,
      "Ġsensitive": 3025,
      "Ġadap": 3026,
      "ched": 3027,
      "Ġadministered": 3028,
      "34": 3029,
      "Ġcommunity": 3030,
      "Ġ26": 3031,
      "Ġnutr": 3032,
      "Ġnm": 3033,
      "26": 3034,
      "Ġhighest": 3035,
      "Ġremains": 3036,
      "Ġstable": 3037,
      "Ġvit": 3038,
      "Ġderived": 3039,
      "Ġdetect": 3040,
      "oll": 3041,
      "Ġcycle": 3042,
      "minal": 3043,
      "28": 3044,
      "Ġstreng": 3045,
      "Ġquanti": 3046,
      "ĠMoreover": 3047,
      "Ġcryst": 3048,
      "Ġreson": 3049,
      "amide": 3050,
      "Ġtask": 3051,
      "35": 3052,
      "roke": 3053,
      "Ġlit": 3054,
      "Ġarth": 3055,
      "Ġrecorded": 3056,
      "Ġwor": 3057,
      "Ġinternal": 3058,
      "Ġclose": 3059,
      "ociated": 3060,
      "Ġliquid": 3061,
      "Ġear": 3062,
      "Ġmonitoring": 3063,
      "Ġdirec": 3064,
      "Ġnuclear": 3065,
      "Ġcognitive": 3066,
      "Ġsum": 3067,
      "eling": 3068,
      "SP": 3069,
      "ED": 3070,
      "pir": 3071,
      "ostic": 3072,
      "Ġaged": 3073,
      "neum": 3074,
      "Ġgastric": 3075,
      "Ġpathways": 3076,
      "Ġsurvey": 3077,
      "Ġsystemic": 3078,
      "mediate": 3079,
      "38": 3080,
      "))": 3081,
      "Ġauthors": 3082,
      "Ġpoint": 3083,
      "ird": 3084,
      "oglob": 3085,
      "venous": 3086,
      "Ġbio": 3087,
      "ool": 3088,
      "Ġarterial": 3089,
      "uded": 3090,
      "Ġmamm": 3091,
      "urb": 3092,
      "ometry": 3093,
      "Ġparticularly": 3094,
      "ritis": 3095,
      "Ġanterior": 3096,
      "Ġrepair": 3097,
      "ĠPD": 3098,
      "Ġ90": 3099,
      "imensional": 3100,
      "Ġsecretion": 3101,
      "ured": 3102,
      "Ġpeople": 3103,
      "Ġ35": 3104,
      "Ġmeasurement": 3105,
      "Ġped": 3106,
      "Ġtoxicity": 3107,
      "Ġtraum": 3108,
      "Ġendothelial": 3109,
      "Ġdysfunction": 3110,
      "Ġlear": 3111,
      "CL": 3112,
      "90": 3113,
      "As": 3114,
      "read": 3115,
      "NS": 3116,
      "Ġderiv": 3117,
      "Ġcohort": 3118,
      "AL": 3119,
      "75": 3120,
      "position": 3121,
      "Ġprotoc": 3122,
      "ils": 3123,
      "Ġhybrid": 3124,
      "encies": 3125,
      "Ġconst": 3126,
      "Ġexposed": 3127,
      "Ġseverity": 3128,
      "Ġdouble": 3129,
      "Ġlinear": 3130,
      "truct": 3131,
      "ina": 3132,
      "Ġpublic": 3133,
      "Ġinclude": 3134,
      "oxide": 3135,
      "Ġonset": 3136,
      "Ġexamine": 3137,
      "Ġsetting": 3138,
      "opathy": 3139,
      "ĠIII": 3140,
      "cine": 3141,
      "Ġmaximum": 3142,
      "'-": 3143,
      "Ġnor": 3144,
      "trom": 3145,
      "Ġinfants": 3146,
      "Ġspon": 3147,
      "Ġgo": 3148,
      "Ġterms": 3149,
      "Ġneeded": 3150,
      "Ġconsistent": 3151,
      "ĠNa": 3152,
      "Ġestimated": 3153,
      "Ġpower": 3154,
      "cepti": 3155,
      "tiveness": 3156,
      "Ġtherefore": 3157,
      "Ġstroke": 3158,
      "Ġwhole": 3159,
      "elec": 3160,
      "Ġtyp": 3161,
      "Ġ48": 3162,
      "Ġwall": 3163,
      "Ġamount": 3164,
      "Ġspecificity": 3165,
      "Ġupon": 3166,
      "uff": 3167,
      "Ġlate": 3168,
      "Ġconver": 3169,
      "Ġalcohol": 3170,
      "ecutive": 3171,
      "ĠPre": 3172,
      "Ġinjec": 3173,
      "Ġvariation": 3174,
      "uit": 3175,
      "Ġcomponent": 3176,
      "29": 3177,
      "Ġbacterial": 3178,
      "mod": 3179,
      "equ": 3180,
      "Ġdomain": 3181,
      "Ġbest": 3182,
      "ĠHealth": 3183,
      "Ġregarding": 3184,
      "ynt": 3185,
      "Ġshe": 3186,
      "ĠTherefore": 3187,
      "Ġsleep": 3188,
      "HR": 3189,
      "ported": 3190,
      "Ġtreatments": 3191,
      "Ġspecial": 3192,
      "Ġiss": 3193,
      "Ġmeans": 3194,
      "Ġtempor": 3195,
      "Î²": 3196,
      "Ġproblem": 3197,
      "Ġidentification": 3198,
      "Ġcauses": 3199,
      "bl": 3200,
      "Ġquestionnai": 3201,
      "duce": 3202,
      "Ġpancre": 3203,
      "Ġmuch": 3204,
      "Ġstability": 3205,
      "Ġadoles": 3206,
      "Ġmicroscopy": 3207,
      "aph": 3208,
      "Ġreviewed": 3209,
      "encing": 3210,
      "EM": 3211,
      "ibr": 3212,
      "ĠResults": 3213,
      "Ġfix": 3214,
      "CV": 3215,
      "immun": 3216,
      "ending": 3217,
      "Ġprep": 3218,
      "Ġimpair": 3219,
      "hood": 3220,
      "36": 3221,
      "Ġrelatively": 3222,
      "Ġpromo": 3223,
      "ld": 3224,
      "know": 3225,
      "olip": 3226,
      "Ġalternative": 3227,
      "Ġsequences": 3228,
      "Ġmotor": 3229,
      "Ġcontinuous": 3230,
      "Ġmaterial": 3231,
      "CH": 3232,
      "Ġintake": 3233,
      "Ġalle": 3234,
      "Ġsodium": 3235,
      "Ġexhibited": 3236,
      "Ġmodified": 3237,
      "Ġmutation": 3238,
      "Ġhepatic": 3239,
      "Ġster": 3240,
      "Ġspinal": 3241,
      "ternal": 3242,
      "parent": 3243,
      "Ġrad": 3244,
      "Ġlaser": 3245,
      "Ġefficiency": 3246,
      "Ġtom": 3247,
      "Ġbro": 3248,
      "Ġthick": 3249,
      "Ġfrequently": 3250,
      "Ġreconstr": 3251,
      "Ġlaboratory": 3252,
      "Ġobjective": 3253,
      "aling": 3254,
      "rup": 3255,
      "Ġnecessary": 3256,
      "Ġinflammation": 3257,
      "land": 3258,
      "Ġdispl": 3259,
      "Ġmatrix": 3260,
      "positive": 3261,
      "Ġcomplexes": 3262,
      "Ġspectros": 3263,
      "Ġhome": 3264,
      "Ġcompare": 3265,
      "Ġdog": 3266,
      "ervical": 3267,
      "Ġbr": 3268,
      "Ġmainly": 3269,
      "aring": 3270,
      "ights": 3271,
      "Ġanimal": 3272,
      "itude": 3273,
      "Ġforms": 3274,
      "Ġinvolvement": 3275,
      "Ġmyel": 3276,
      "way": 3277,
      "Ġhaving": 3278,
      "methyl": 3279,
      "CG": 3280,
      "versity": 3281,
      "CE": 3282,
      "ĠWh": 3283,
      "Ġ80": 3284,
      "Ġbre": 3285,
      "mitted": 3286,
      "Ġprospective": 3287,
      "Ġ27": 3288,
      "Ġprevention": 3289,
      "met": 3290,
      "atient": 3291,
      "Ġconclusion": 3292,
      "Ġreactions": 3293,
      "Al": 3294,
      "ultaneous": 3295,
      "oding": 3296,
      "Ġmem": 3297,
      "clusion": 3298,
      "CM": 3299,
      "Ġsubsequent": 3300,
      "ĠAp": 3301,
      "-(": 3302,
      "Ġindicating": 3303,
      "Ġfamil": 3304,
      "Ġanalog": 3305,
      "Ġappropriate": 3306,
      "45": 3307,
      "orpor": 3308,
      "ects": 3309,
      "OH": 3310,
      "Ġcountr": 3311,
      "orrh": 3312,
      "Ġurinary": 3313,
      "LI": 3314,
      "Ġenvironmental": 3315,
      "Ġimages": 3316,
      "Ġimplement": 3317,
      "Ġmales": 3318,
      "be": 3319,
      "Ġable": 3320,
      "Ġrespond": 3321,
      "Ġmil": 3322,
      "Ġmoderate": 3323,
      "Ġappears": 3324,
      "ensive": 3325,
      "Ġdegrad": 3326,
      "Ġalong": 3327,
      "iety": 3328,
      "ariate": 3329,
      "Ġadvanced": 3330,
      "imer": 3331,
      "Ġplacebo": 3332,
      "obacter": 3333,
      "Ġnerv": 3334,
      "RS": 3335,
      "otrop": 3336,
      "Ġaccuracy": 3337,
      "Ġdifficult": 3338,
      "Ġdistinct": 3339,
      "Ġcorresponding": 3340,
      "taneous": 3341,
      "Ġfemales": 3342,
      "Ġrecombin": 3343,
      "Ġepithelial": 3344,
      "Ġexperiment": 3345,
      "raz": 3346,
      "Ġcholesterol": 3347,
      "Ġextent": 3348,
      "Ġlesion": 3349,
      "Ġinfarc": 3350,
      "Ġlater": 3351,
      "Ġstrategy": 3352,
      "Ġresonance": 3353,
      "amb": 3354,
      "Ġshows": 3355,
      "Ġsper": 3356,
      "Ġsource": 3357,
      "Ġintracellular": 3358,
      "Ġcomposition": 3359,
      "bb": 3360,
      "Ġchromatography": 3361,
      "Ġphysiological": 3362,
      "Ġglob": 3363,
      "den": 3364,
      "ĠIV": 3365,
      "dominal": 3366,
      "Ġstudents": 3367,
      "Ġmalignant": 3368,
      "dimensional": 3369,
      "yg": 3370,
      "isc": 3371,
      "Ġapproaches": 3372,
      "inally": 3373,
      "associated": 3374,
      "ĠNe": 3375,
      "Ġconsequ": 3376,
      "Ġinstr": 3377,
      "Ġmetal": 3378,
      "Ġalg": 3379,
      "Ġcontain": 3380,
      "Ġquantif": 3381,
      "Ġdesigned": 3382,
      "Ġly": 3383,
      "Ġsuscepti": 3384,
      "stim": 3385,
      "Ġdeveloping": 3386,
      "flu": 3387,
      "outh": 3388,
      "Ġ45": 3389,
      "acet": 3390,
      "thal": 3391,
      "Ġcoli": 3392,
      "Ġrecently": 3393,
      "Ġinvestigation": 3394,
      "Ġeducation": 3395,
      "Ġng": 3396,
      "itary": 3397,
      "ĠGroup": 3398,
      "Ġregard": 3399,
      "Ġlog": 3400,
      "Ġremoval": 3401,
      "Ġbirth": 3402,
      "gether": 3403,
      "otypes": 3404,
      "acch": 3405,
      "Ġtogether": 3406,
      "Ġtrig": 3407,
      "arri": 3408,
      "EG": 3409,
      "Ġimm": 3410,
      "Ġ70": 3411,
      "ĠST": 3412,
      "ĠPT": 3413,
      "99": 3414,
      "Ġevolution": 3415,
      "Ġlast": 3416,
      "Ġintensity": 3417,
      "Ġinterest": 3418,
      "Ġgastro": 3419,
      "iral": 3420,
      "Ġmust": 3421,
      "Ġthyroid": 3422,
      "Ġslow": 3423,
      "Ġresection": 3424,
      "Ġinterf": 3425,
      "Ġconfidence": 3426,
      "PV": 3427,
      "placement": 3428,
      "eter": 3429,
      "Ġdat": 3430,
      "Ġview": 3431,
      "Ġdependent": 3432,
      "known": 3433,
      "Ġpneum": 3434,
      "Ġalk": 3435,
      "Ġenzymes": 3436,
      "Ġbacteria": 3437,
      "Ġprop": 3438,
      "Ġret": 3439,
      "Ġcos": 3440,
      "aryn": 3441,
      "Ġclus": 3442,
      "ĠSp": 3443,
      "Ġsatis": 3444,
      "MT": 3445,
      "ination": 3446,
      "Ġrecurrence": 3447,
      "Ġhypothesis": 3448,
      "Ġroot": 3449,
      "Ġtool": 3450,
      "ump": 3451,
      "Ġscale": 3452,
      "ier": 3453,
      "Ġremained": 3454,
      "Ġdirectly": 3455,
      "Ġ36": 3456,
      "ula": 3457,
      "04": 3458,
      "ĠAmong": 3459,
      "Ġapplications": 3460,
      "Ġkine": 3461,
      "ii": 3462,
      "apa": 3463,
      "33": 3464,
      "itone": 3465,
      "Ġrelevant": 3466,
      "ronch": 3467,
      "Ġsolid": 3468,
      "Ġlateral": 3469,
      "ics": 3470,
      "ĠÎ¼": 3471,
      "Ġlittle": 3472,
      "ella": 3473,
      "Ġcontribute": 3474,
      "Ġdetermination": 3475,
      "Ġmental": 3476,
      "Ġfluorescence": 3477,
      "Ġunderlying": 3478,
      "Ġinfusion": 3479,
      "ventions": 3480,
      "Ġsumm": 3481,
      "Ġsince": 3482,
      "phen": 3483,
      "Ġrestric": 3484,
      "Ġspati": 3485,
      "Ġabove": 3486,
      "Ġsubstanti": 3487,
      "ching": 3488,
      "ĠAT": 3489,
      "Ġdiabetic": 3490,
      "ns": 3491,
      "Ġfetal": 3492,
      "ĠComp": 3493,
      "Ġneon": 3494,
      "Ġprepared": 3495,
      "enic": 3496,
      "ason": 3497,
      "Ġhalf": 3498,
      "treatment": 3499,
      "Ġshif": 3500,
      "sess": 3501,
      "anal": 3502,
      "otyp": 3503,
      "Ġdecreas": 3504,
      "rit": 3505,
      "less": 3506,
      "adder": 3507,
      "Â°": 3508,
      "Ġmacroph": 3509,
      "Ġerr": 3510,
      "Ġprostate": 3511,
      "Ġpartial": 3512,
      "Ġinhibitory": 3513,
      "Ġsystematic": 3514,
      "ĠDuring": 3515,
      "Ġatr": 3516,
      "Ġfatty": 3517,
      "Ġact": 3518,
      "ings": 3519,
      "Ġagent": 3520,
      "Ġaccumulation": 3521,
      "Ġlarger": 3522,
      "IL": 3523,
      "Ġactivated": 3524,
      "Ġ198": 3525,
      "range": 3526,
      "Ġreports": 3527,
      "Ġmemory": 3528,
      "Ġ29": 3529,
      "andid": 3530,
      "ĠAr": 3531,
      "PC": 3532,
      "Ġble": 3533,
      "onucle": 3534,
      "Ġleading": 3535,
      "Ġmorb": 3536,
      "derly": 3537,
      "Ġvess": 3538,
      "ĠMS": 3539,
      "Ġconn": 3540,
      "Ġnanop": 3541,
      "Ġure": 3542,
      "arian": 3543,
      "Ġpercentage": 3544,
      "Ġincorpor": 3545,
      "Ġaortic": 3546,
      "Ġdiamet": 3547,
      "iotic": 3548,
      "rim": 3549,
      "Ġcathe": 3550,
      "ohist": 3551,
      "Ġtransl": 3552,
      "Ġtet": 3553,
      "umer": 3554,
      "ditional": 3555,
      "onia": 3556,
      "Ġtend": 3557,
      "Ġhaem": 3558,
      "Ġhost": 3559,
      "Ġsubstrate": 3560,
      "Ġoxidative": 3561,
      "Ġgel": 3562,
      "Ġrelation": 3563,
      "ibility": 3564,
      "Ġmelan": 3565,
      "ĠCA": 3566,
      "Ġoperation": 3567,
      "jection": 3568,
      "eti": 3569,
      "king": 3570,
      "mean": 3571,
      "Ġundergoing": 3572,
      "Ġdetail": 3573,
      "ĠNO": 3574,
      "Ġprofile": 3575,
      "ifest": 3576,
      "most": 3577,
      "Ġold": 3578,
      "com": 3579,
      "Ġantic": 3580,
      "Ġmaterials": 3581,
      "Ġever": 3582,
      "Ġrabb": 3583,
      "seud": 3584,
      "37": 3585,
      "wenty": 3586,
      "Ġclinically": 3587,
      "Ġuni": 3588,
      "Ġpredicted": 3589,
      "izes": 3590,
      "FN": 3591,
      "Ġsoft": 3592,
      "Ġmild": 3593,
      "paired": 3594,
      "Ġsk": 3595,
      "Ġchalleng": 3596,
      ")(": 3597,
      "erm": 3598,
      "Ġspontaneous": 3599,
      "Ġcys": 3600,
      "ĠBy": 3601,
      "III": 3602,
      "Ġfacilit": 3603,
      "arr": 3604,
      "Ġcervical": 3605,
      "ape": 3606,
      "Ġanest": 3607,
      "sh": 3608,
      "NT": 3609,
      "Ġreproduc": 3610,
      "Ġstrength": 3611,
      "Ġcollagen": 3612,
      "Ġcortex": 3613,
      "Ġconsecutive": 3614,
      "Ġwild": 3615,
      "Ġ37": 3616,
      "Ġspecimens": 3617,
      "Ġbiopsy": 3618,
      "tility": 3619,
      "32": 3620,
      "asal": 3621,
      "Ġtw": 3622,
      "ĠOver": 3623,
      "acts": 3624,
      "ifferen": 3625,
      "HD": 3626,
      "control": 3627,
      "Ġselection": 3628,
      "hyth": 3629,
      "PT": 3630,
      "Ġimplant": 3631,
      "Ġasth": 3632,
      "obic": 3633,
      "Ġtomography": 3634,
      "Ġprofil": 3635,
      "Ġendos": 3636,
      "ytic": 3637,
      "Ġfram": 3638,
      "Ġreference": 3639,
      "ocl": 3640,
      "Ġaccess": 3641,
      "Ġfull": 3642,
      "oline": 3643,
      "Ġspe": 3644,
      "Ġstrongly": 3645,
      "otide": 3646,
      "Ġsimultaneous": 3647,
      "SS": 3648,
      "Ġapparent": 3649,
      "Ġstages": 3650,
      "Ġfast": 3651,
      "Ġisolates": 3652,
      "Ġmechanical": 3653,
      "cal": 3654,
      "tile": 3655,
      "Ġvariety": 3656,
      "Ġextre": 3657,
      "HT": 3658,
      "Ġge": 3659,
      "Ġthird": 3660,
      "Ġhemat": 3661,
      "Ġradical": 3662,
      "Ġiron": 3663,
      "elling": 3664,
      "Ġupper": 3665,
      "ĠCo": 3666,
      "Ġthough": 3667,
      "Ġcytotox": 3668,
      "Ġconj": 3669,
      "Ġlonger": 3670,
      "Ġnitro": 3671,
      "Ġcultures": 3672,
      "PI": 3673,
      "estern": 3674,
      "Ġproportion": 3675,
      "ident": 3676,
      "Ġdefin": 3677,
      "Ġvaccin": 3678,
      "urs": 3679,
      "pects": 3680,
      "Ġtract": 3681,
      "eryth": 3682,
      "olecular": 3683,
      "Î±": 3684,
      "cutaneous": 3685,
      "Ġinterventions": 3686,
      "Ġprocessing": 3687,
      "vided": 3688,
      "Ġinduce": 3689,
      "Ġreceiving": 3690,
      "ception": 3691,
      "Ġaimed": 3692,
      "Ġdynamics": 3693,
      "Ġretrospective": 3694,
      "Ġconstit": 3695,
      "Ġunique": 3696,
      "Ġgraft": 3697,
      "Ġattention": 3698,
      "ophil": 3699,
      "tration": 3700,
      "Ġresponsible": 3701,
      "Ġvas": 3702,
      "Ġtaken": 3703,
      "Ġeight": 3704,
      "for": 3705,
      "Ġoxide": 3706,
      "raw": 3707,
      "Ġdop": 3708,
      "Ġmicrob": 3709,
      "lished": 3710,
      "ulatory": 3711,
      "renal": 3712,
      "Ġelderly": 3713,
      "onin": 3714,
      "Ġpref": 3715,
      "Ġunit": 3716,
      "Ġvitamin": 3717,
      "Ġcateg": 3718,
      "used": 3719,
      "Ġorganic": 3720,
      "osin": 3721,
      "Ġet": 3722,
      "Ġseven": 3723,
      "Ġ32": 3724,
      "44": 3725,
      "Ġsafe": 3726,
      "ream": 3727,
      "02": 3728,
      "Ġsignificance": 3729,
      "ĠThey": 3730,
      "Ġdil": 3731,
      "kele": 3732,
      "Ġconsumption": 3733,
      "Ġanat": 3734,
      "Ġmitochondrial": 3735,
      "Ġlact": 3736,
      "Ġsci": 3737,
      "mental": 3738,
      "Ġprognosis": 3739,
      "Ġrever": 3740,
      "Ġkg": 3741,
      "Ġprofession": 3742,
      "arily": 3743,
      "yc": 3744,
      "Ġcontex": 3745,
      "the": 3746,
      "Ġfav": 3747,
      "ĠDi": 3748,
      "keletal": 3749,
      "Ġimage": 3750,
      "roscopic": 3751,
      "Ġrather": 3752,
      "ili": 3753,
      "Ġclos": 3754,
      "Ġhere": 3755,
      "ĠPCR": 3756,
      "Ġsupplement": 3757,
      "uch": 3758,
      "Ġsynthesi": 3759,
      "esity": 3760,
      "orac": 3761,
      "Ġcho": 3762,
      "Ġintravenous": 3763,
      "ĠAmeric": 3764,
      "Ġmediated": 3765,
      "ubation": 3766,
      "Ġproduct": 3767,
      "Ġpersist": 3768,
      "link": 3769,
      "Ġposterior": 3770,
      "Ġled": 3771,
      "AA": 3772,
      "Ġtren": 3773,
      "Ġclinic": 3774,
      "reshold": 3775,
      "Ġcoe": 3776,
      "Ġintestinal": 3777,
      "65": 3778,
      "Ġplants": 3779,
      "Ġirradi": 3780,
      "Ġadvant": 3781,
      "Ġread": 3782,
      "Ġdegradation": 3783,
      "Ġinfected": 3784,
      "Ġ31": 3785,
      "Ġlearning": 3786,
      "Ġeng": 3787,
      "Ġlo": 3788,
      "Ġpreoperative": 3789,
      "Ġproduce": 3790,
      "eled": 3791,
      "PE": 3792,
      "Ġabnormalities": 3793,
      "Ġauto": 3794,
      "Ġefficient": 3795,
      "organ": 3796,
      "Ġgeneration": 3797,
      "Ġcontact": 3798,
      "tra": 3799,
      "Ġsuff": 3800,
      "ached": 3801,
      "Ġestablish": 3802,
      "Ġformed": 3803,
      "ĠER": 3804,
      "ytes": 3805,
      "Ġmob": 3806,
      "Ġgenerated": 3807,
      "lammatory": 3808,
      "Ġtransition": 3809,
      "inated": 3810,
      "Ġabsorption": 3811,
      "mentation": 3812,
      "Ġpredom": 3813,
      "Ġoptimal": 3814,
      "Ġexcl": 3815,
      "Ġnanopartic": 3816,
      "care": 3817,
      "Ġmorbidity": 3818,
      "Ġves": 3819,
      "Ġfrequent": 3820,
      "Ġmajority": 3821,
      "hydroxy": 3822,
      "Ġcann": 3823,
      "31": 3824,
      "Ġeffectiveness": 3825,
      "Ġcultured": 3826,
      "Ġâī": 3827,
      "Ġbound": 3828,
      "Ġprolong": 3829,
      "Ġneurolog": 3830,
      "Ġobstr": 3831,
      "xiety": 3832,
      "Ġcertain": 3833,
      "Ġaggreg": 3834,
      "inine": 3835,
      "Ġaspects": 3836,
      "Ġelectroph": 3837,
      "Ġmarker": 3838,
      "ĠData": 3839,
      "Ġtransmission": 3840,
      "0001": 3841,
      "sensi": 3842,
      "ged": 3843,
      "Ġviral": 3844,
      "PCR": 3845,
      "oot": 3846,
      "Ġcommonly": 3847,
      "Ġsubstit": 3848,
      "Ġconstant": 3849,
      "Ġservices": 3850,
      "vity": 3851,
      "pressive": 3852,
      "ĠSer": 3853,
      "Ġcord": 3854,
      "Ġolig": 3855,
      "Ġbasal": 3856,
      "ĠMRI": 3857,
      "Ġwound": 3858,
      "Ġnature": 3859,
      "Ġpredict": 3860,
      "lasts": 3861,
      "by": 3862,
      "Ex": 3863,
      "Ġassays": 3864,
      "Ġsmoking": 3865,
      "Ġsexual": 3866,
      "Ġana": 3867,
      "IR": 3868,
      "Ġstaining": 3869,
      "osine": 3870,
      "Ġsubun": 3871,
      "ĠLe": 3872,
      "Ġsuccessfully": 3873,
      "Ġpancreatic": 3874,
      "Ġspectroscopy": 3875,
      "Ġeas": 3876,
      "Ġiso": 3877,
      "ope": 3878,
      "Ġagon": 3879,
      "ache": 3880,
      "67": 3881,
      "inus": 3882,
      "Ġrout": 3883,
      "AR": 3884,
      "ĠThree": 3885,
      "rans": 3886,
      "ivers": 3887,
      "Ps": 3888,
      "derived": 3889,
      "Ġpublished": 3890,
      "Ġeryth": 3891,
      "Ġagre": 3892,
      "Ġmutant": 3893,
      "Ġunknown": 3894,
      "Ġhepatitis": 3895,
      "Ġste": 3896,
      "Ġjoint": 3897,
      "Ġmaternal": 3898,
      "Ġinvolving": 3899,
      "Ġneurop": 3900,
      "Ġaffinity": 3901,
      "Ġlayer": 3902,
      "Ġprinc": 3903,
      "ximal": 3904,
      "Ġexam": 3905,
      "Ġoccurs": 3906,
      "binding": 3907,
      "ylated": 3908,
      "ĠFe": 3909,
      "Ġdisch": 3910,
      "GE": 3911,
      "Ġdivided": 3912,
      "Ġprognostic": 3913,
      "Ġextracellular": 3914,
      "(+)": 3915,
      "Ġultrasound": 3916,
      "gens": 3917,
      "Ġmi": 3918,
      "Ġnow": 3919,
      "oper": 3920,
      "Ġplatelet": 3921,
      "Ġnorm": 3922,
      "Ġexternal": 3923,
      "ients": 3924,
      "elines": 3925,
      "ĠSub": 3926,
      "Ġrh": 3927,
      "Ġbond": 3928,
      "udy": 3929,
      "Ġtheory": 3930,
      "Ġspectrom": 3931,
      "Ġattenu": 3932,
      "Ġneural": 3933,
      "CF": 3934,
      "%;": 3935,
      "Ġtoxic": 3936,
      "Ġcharacterization": 3937,
      "Ġimplications": 3938,
      "Ac": 3939,
      "Ġstar": 3940,
      "Ġenter": 3941,
      "Ġdeficiency": 3942,
      "ĠDes": 3943,
      "Ġmanner": 3944,
      "Ġcomm": 3945,
      "ĠMR": 3946,
      "Ġweak": 3947,
      "Ġconfirm": 3948,
      "acchar": 3949,
      "omat": 3950,
      "ĠDe": 3951,
      "Ġslight": 3952,
      "ĠATP": 3953,
      "Ġphosphorylation": 3954,
      "Ġevent": 3955,
      "Ġaer": 3956,
      "odynamic": 3957,
      "ats": 3958,
      "Ġabdominal": 3959,
      "Ġgamma": 3960,
      "Ġpredictive": 3961,
      "Ġavoid": 3962,
      "Ġresidues": 3963,
      "Ġec": 3964,
      "ids": 3965,
      "Ġattrib": 3966,
      "Ġrecommend": 3967,
      "ferred": 3968,
      "hesia": 3969,
      "ĠFour": 3970,
      "mL": 3971,
      "hal": 3972,
      "Ġquestionnaire": 3973,
      "Ġparas": 3974,
      "PR": 3975,
      "Ġparticles": 3976,
      "lear": 3977,
      "Ġlocated": 3978,
      "Ġdatab": 3979,
      "Ġparal": 3980,
      "Ġbecome": 3981,
      "Ġdogs": 3982,
      "Ġcompleted": 3983,
      "Ġdiameter": 3984,
      "Ġmicrog": 3985,
      "Ġads": 3986,
      "Ġtransplant": 3987,
      "gal": 3988,
      "iting": 3989,
      "Ġextensive": 3990,
      "Ġmembranes": 3991,
      "Ġdietary": 3992,
      "Ġroutine": 3993,
      "48": 3994,
      "Ġalb": 3995,
      "Ġmarrow": 3996,
      "Ġbronch": 3997,
      "valu": 3998,
      "gu": 3999,
      "Ġoptical": 4000,
      "olved": 4001,
      "ars": 4002,
      "usc": 4003,
      "Ġurine": 4004,
      "Ġsuperior": 4005,
      "Ġcountries": 4006,
      "Ġsep": 4007,
      "DA": 4008,
      "orec": 4009,
      "arcin": 4010,
      "Ġdifferential": 4011,
      "ĠTNF": 4012,
      "Ġexpected": 4013,
      "57": 4014,
      "tering": 4015,
      "ĠPC": 4016,
      "Ġsoil": 4017,
      "ĠmicroM": 4018,
      "bs": 4019,
      "uary": 4020,
      "39": 4021,
      "erved": 4022,
      "Ġmixed": 4023,
      "ema": 4024,
      "Ġinterpre": 4025,
      "ilep": 4026,
      "Ġpoints": 4027,
      "Ġrelationships": 4028,
      "Ġrecip": 4029,
      "Ġpair": 4030,
      "HA": 4031,
      "Ġbur": 4032,
      "vis": 4033,
      "Ġadi": 4034,
      "Ġcereb": 4035,
      "Â·": 4036,
      "Ġpeptides": 4037,
      "ened": 4038,
      "Ġgender": 4039,
      "inflammatory": 4040,
      "dle": 4041,
      "ologically": 4042,
      "Ġappe": 4043,
      "aces": 4044,
      "Ġpathogenesis": 4045,
      "Ġtrauma": 4046,
      "Ġeye": 4047,
      "alian": 4048,
      "Ġgly": 4049,
      "olytic": 4050,
      "IC": 4051,
      "Ġflex": 4052,
      "Ġ%": 4053,
      "Ġforce": 4054,
      "Ġdevice": 4055,
      "effec": 4056,
      "Ġspatial": 4057,
      "Ġcontext": 4058,
      "Ġbenefit": 4059,
      "Ġantioxid": 4060,
      "ifically": 4061,
      "Ġech": 4062,
      "orith": 4063,
      "Ġcomparable": 4064,
      "okines": 4065,
      "Ġthreshold": 4066,
      "ĠCS": 4067,
      "Ġrespect": 4068,
      "Ġneph": 4069,
      "Ġconclude": 4070,
      "ĠEuro": 4071,
      "Ġhypox": 4072,
      "Ġsmo": 4073,
      "Ġnursing": 4074,
      "osterone": 4075,
      "Ġsqu": 4076,
      "ank": 4077,
      "Ġpediatric": 4078,
      "Ġtri": 4079,
      "ophage": 4080,
      "eptide": 4081,
      "Ġhumans": 4082,
      "Ġpotentially": 4083,
      "Ġgest": 4084,
      "ori": 4085,
      "Ġinser": 4086,
      "NO": 4087,
      "Ġ38": 4088,
      "usted": 4089,
      "Ġlymphocytes": 4090,
      "Ġmother": 4091,
      "Ġben": 4092,
      "Ġcorrec": 4093,
      "Ġ75": 4094,
      "isation": 4095,
      "lets": 4096,
      "Ġmedicine": 4097,
      "Ġattem": 4098,
      "200": 4099,
      "Ġalterations": 4100,
      "Ġemission": 4101,
      "IP": 4102,
      "apan": 4103,
      "regulated": 4104,
      "Ġtemporal": 4105,
      "Ġrecurrent": 4106,
      "Ġischemia": 4107,
      "Ġasthma": 4108,
      "ĠCR": 4109,
      "osp": 4110,
      "ĠClinical": 4111,
      "Ġnear": 4112,
      "Ġsed": 4113,
      "ialysis": 4114,
      "Ġbehaviour": 4115,
      "Ġml": 4116,
      "poc": 4117,
      "Ġ33": 4118,
      "crimin": 4119,
      "ĠAnal": 4120,
      "Ġprotocol": 4121,
      "Ġhydrox": 4122,
      "Ġorth": 4123,
      "Ġhighl": 4124,
      "Ġ34": 4125,
      "Ġrecombinant": 4126,
      "itable": 4127,
      "def": 4128,
      "Ġnucleus": 4129,
      "Ġstates": 4130,
      "Ġmolecule": 4131,
      "Ġimpairment": 4132,
      "urys": 4133,
      "Ġadhesion": 4134,
      "Ġgrade": 4135,
      "Ġdocument": 4136,
      "Ġextraction": 4137,
      "Pro": 4138,
      "Ġinfarction": 4139,
      "Ġbarri": 4140,
      "ĠAg": 4141,
      "itud": 4142,
      "Ġnutrition": 4143,
      "tially": 4144,
      "Ġunits": 4145,
      "ester": 4146,
      "anth": 4147,
      "itoneal": 4148,
      "ton": 4149,
      "Ġalgorith": 4150,
      "transfer": 4151,
      "Ġwidely": 4152,
      "Ġyet": 4153,
      "Ġleads": 4154,
      "change": 4155,
      "Ġsigns": 4156,
      "Ġpotent": 4157,
      "akes": 4158,
      "Ġaround": 4159,
      "Ġmethyl": 4160,
      "Ġful": 4161,
      "Ġcore": 4162,
      "Ġgenerally": 4163,
      "Ġvel": 4164,
      "Ġane": 4165,
      "Ġlapa": 4166,
      "Ġneuronal": 4167,
      "aries": 4168,
      "Ġway": 4169,
      "Ġevery": 4170,
      "rich": 4171,
      "ounts": 4172,
      "ranial": 4173,
      "Ġplus": 4174,
      "Ġinfer": 4175,
      "enge": 4176,
      "Ġstatistical": 4177,
      "Ġreducing": 4178,
      "ĠSim": 4179,
      "Ġbo": 4180,
      "Ġinjuries": 4181,
      "Com": 4182,
      "Ġpromoter": 4183,
      "Ġwhite": 4184,
      "Ġmembers": 4185,
      "Ġobesity": 4186,
      "Ġbroad": 4187,
      "Ġvenous": 4188,
      "lycer": 4189,
      "Ġeyes": 4190,
      "aching": 4191,
      "zing": 4192,
      "Ġsoci": 4193,
      "ogenetic": 4194,
      "rams": 4195,
      "Ġaccount": 4196,
      "Ġfar": 4197,
      "Ġfeed": 4198,
      "Ġpast": 4199,
      "Ġclassification": 4200,
      "Ġprogressive": 4201,
      "Ġthickness": 4202,
      "teen": 4203,
      "inter": 4204,
      "Ġreplic": 4205,
      "Ġappeared": 4206,
      "Ġovarian": 4207,
      "pocamp": 4208,
      "cents": 4209,
      "Ġligand": 4210,
      "Ġtumour": 4211,
      "Ġsampl": 4212,
      "Ġneutr": 4213,
      "Ġminutes": 4214,
      "Ġspace": 4215,
      "bal": 4216,
      "Ġdiffer": 4217,
      "Ġcontamin": 4218,
      "Ġregulatory": 4219,
      "water": 4220,
      "Ġvariable": 4221,
      "Ġinterview": 4222,
      "Ġextract": 4223,
      "Ġperson": 4224,
      "Ġusually": 4225,
      "ĠPer": 4226,
      "tives": 4227,
      "fl": 4228,
      "Ġinvasive": 4229,
      "Ġbleeding": 4230,
      "Ġneck": 4231,
      "BS": 4232,
      "Ġpurified": 4233,
      "Ġoccurrence": 4234,
      "EC": 4235,
      "Ġkne": 4236,
      "Ġhydrogen": 4237,
      "Ġulc": 4238,
      "Ġdental": 4239,
      "Ġfung": 4240,
      "Ġaltered": 4241,
      "ĠSur": 4242,
      "ories": 4243,
      "ynthesis": 4244,
      "opic": 4245,
      "lab": 4246,
      "Ġtransform": 4247,
      "patient": 4248,
      "tase": 4249,
      "ancies": 4250,
      "Ġnoted": 4251,
      "ĠmM": 4252,
      "regulation": 4253,
      "Ġrecr": 4254,
      "ervation": 4255,
      "Ġepis": 4256,
      "Ġfibrob": 4257,
      "ophag": 4258,
      "Ġchromosome": 4259,
      "Ġnumer": 4260,
      "OD": 4261,
      "Ġadequ": 4262,
      "aves": 4263,
      "Ġemph": 4264,
      "TA": 4265,
      "Ġimmunohist": 4266,
      "Ġliving": 4267,
      "ologies": 4268,
      "Ġmigration": 4269,
      "PP": 4270,
      "Ġthroughout": 4271,
      "ĠEurope": 4272,
      "Ġallows": 4273,
      "cler": 4274,
      "Ġrecognition": 4275,
      "ĠJapan": 4276,
      "Ġanxiety": 4277,
      "FA": 4278,
      "ociation": 4279,
      "Ġresolution": 4280,
      "Ġcanc": 4281,
      "Ġneeds": 4282,
      "Ġmultiv": 4283,
      "Ġveloc": 4284,
      "Ġvec": 4285,
      "42": 4286,
      "vascular": 4287,
      "pressing": 4288,
      "Ġguidelines": 4289,
      "Ġbladder": 4290,
      "Ġconcept": 4291,
      "03": 4292,
      "Ġheterogene": 4293,
      "Ġbiochemical": 4294,
      "Ġvary": 4295,
      "ĠFrom": 4296,
      "resist": 4297,
      "Ġphenomen": 4298,
      "hydr": 4299,
      "Ġelimin": 4300,
      "Ġbal": 4301,
      "Ca": 4302,
      "Ġneoplas": 4303,
      "Ġpreparation": 4304,
      "Ġbase": 4305,
      "Ġelements": 4306,
      "49": 4307,
      "ĠMost": 4308,
      "Ġprofiles": 4309,
      "ophageal": 4310,
      "Ġwave": 4311,
      "Ġratios": 4312,
      "Ġdistal": 4313,
      "Ġent": 4314,
      "ercul": 4315,
      "Ġfluor": 4316,
      "usive": 4317,
      "Ġpromising": 4318,
      "Ġcharacteristic": 4319,
      "oked": 4320,
      "Ġfore": 4321,
      "Ġneut": 4322,
      "Ġdefects": 4323,
      "Ġnecrosis": 4324,
      "carb": 4325,
      "Ġmorphology": 4326,
      "ologous": 4327,
      "Ġod": 4328,
      "Ġworld": 4329,
      "Ġvaccine": 4330,
      "BV": 4331,
      "Ġty": 4332,
      "Ġinst": 4333,
      "Ġsynthesized": 4334,
      "SC": 4335,
      "Ġshor": 4336,
      "Ġvariability": 4337,
      "olin": 4338,
      "Ġimpaired": 4339,
      "iment": 4340,
      "Ġgraf": 4341,
      "Ġremain": 4342,
      "Ġillness": 4343,
      "Ġalmost": 4344,
      "ĠInc": 4345,
      "section": 4346,
      "osomal": 4347,
      "rotid": 4348,
      "ĠIgG": 4349,
      "Ġchallenge": 4350,
      "Ġnanoparticles": 4351,
      "Ġassign": 4352,
      "EGF": 4353,
      "DM": 4354,
      "Ġmilk": 4355,
      "iform": 4356,
      "ĠFinally": 4357,
      "Ġstimulated": 4358,
      "Ġsil": 4359,
      "Ġcompletely": 4360,
      "Ġbasic": 4361,
      "Ġfed": 4362,
      "Ġrepeated": 4363,
      "Im": 4364,
      "Ġcosts": 4365,
      "Ġpolar": 4366,
      "iaz": 4367,
      "Ġreconstruction": 4368,
      "Ġdiscrimin": 4369,
      "Ġanother": 4370,
      "Ġoxidation": 4371,
      "Ġaccurate": 4372,
      "gluc": 4373,
      "Ġcandid": 4374,
      "St": 4375,
      "rehen": 4376,
      "dose": 4377,
      "Ġrequires": 4378,
      "Ġmetastasis": 4379,
      "Ġmedia": 4380,
      "Ġdonor": 4381,
      "Ġrecommended": 4382,
      "uman": 4383,
      "ĠRA": 4384,
      "ĠMul": 4385,
      "Ġventi": 4386,
      "ĠÎ²": 4387,
      "Ġsearch": 4388,
      "itus": 4389,
      "Ġmonth": 4390,
      "aus": 4391,
      "overed": 4392,
      "Ġresour": 4393,
      "Ġroles": 4394,
      "Ġprobably": 4395,
      "Ġcomputed": 4396,
      "Ġexperienced": 4397,
      "Ġcortical": 4398,
      "sin": 4399,
      "po": 4400,
      "Ġfracture": 4401,
      "otal": 4402,
      "Ġvolun": 4403,
      "Ġbios": 4404,
      "Ġspectrum": 4405,
      "47": 4406,
      "Ġspl": 4407,
      "Ġ65": 4408,
      "Ġanalysed": 4409,
      "Ġsources": 4410,
      "imen": 4411,
      "66": 4412,
      "],": 4413,
      "apse": 4414,
      "onomic": 4415,
      "terminal": 4416,
      "ĠCH": 4417,
      "orectal": 4418,
      "Ġdele": 4419,
      "ician": 4420,
      "Ġuter": 4421,
      "Ġfinal": 4422,
      "ococcus": 4423,
      "Ġcurrently": 4424,
      "Ġrapidly": 4425,
      "MC": 4426,
      "ĠReg": 4427,
      "ded": 4428,
      "ĠNew": 4429,
      "Ġexcell": 4430,
      "Ġchannel": 4431,
      "Ġfusion": 4432,
      "tition": 4433,
      "98": 4434,
      "Ġturn": 4435,
      "Ġdecision": 4436,
      "ione": 4437,
      "ember": 4438,
      "Ġhippocamp": 4439,
      "Ġinstit": 4440,
      "Ġadmission": 4441,
      "urine": 4442,
      "any": 4443,
      "oxyl": 4444,
      "Ġglobal": 4445,
      "Ġagreement": 4446,
      "ucid": 4447,
      "Ġheat": 4448,
      "Ġplays": 4449,
      "olysis": 4450,
      "Ġprograms": 4451,
      "inese": 4452,
      "Ġfit": 4453,
      "Ġmotion": 4454,
      "Ġcall": 4455,
      "Ġseems": 4456,
      "Ġnervous": 4457,
      "BC": 4458,
      "Ġcatheter": 4459,
      "Ġcomplement": 4460,
      "Ġleukemia": 4461,
      "Ġphenotype": 4462,
      "ĠTwenty": 4463,
      "Ġuntil": 4464,
      "Ġaddress": 4465,
      "43": 4466,
      "Ġcongen": 4467,
      "ocation": 4468,
      "Ġfractures": 4469,
      "Ġbelie": 4470,
      "Ġtolerance": 4471,
      "Ġindicates": 4472,
      "Ġnumbers": 4473,
      "Ġpredominant": 4474,
      "Ġemployed": 4475,
      "ĠSix": 4476,
      "Ġmanifest": 4477,
      "Ġfeas": 4478,
      "Ph": 4479,
      "Ġsatisf": 4480,
      "Ġcenter": 4481,
      "Ġqual": 4482,
      "otomy": 4483,
      "Ġasc": 4484,
      "Ġgenome": 4485,
      "Ġderivatives": 4486,
      "Ġtranscrip": 4487,
      "Ġischemic": 4488,
      "Ġobservations": 4489,
      "itions": 4490,
      "dyl": 4491,
      "ilateral": 4492,
      "Ġadolescents": 4493,
      "ĠMean": 4494,
      "oclonal": 4495,
      "Ġemo": 4496,
      "Ġoil": 4497,
      "ignific": 4498,
      "rane": 4499,
      "YP": 4500,
      "Ġtowards": 4501,
      "56": 4502,
      "ĠBec": 4503,
      "intestinal": 4504,
      "Ġmode": 4505,
      "rence": 4506,
      "Ġenrol": 4507,
      "ĠWhile": 4508,
      "oglobin": 4509,
      "Ġstabil": 4510,
      "Ġblot": 4511,
      "ochemistry": 4512,
      "Da": 4513,
      "Ġexcellent": 4514,
      "78": 4515,
      "Ġhemorrh": 4516,
      "BD": 4517,
      "ĠBi": 4518,
      "ĠBased": 4519,
      "PO": 4520,
      "oplast": 4521,
      "Ġlocation": 4522,
      "plasia": 4523,
      "Ġissues": 4524,
      "Ġrib": 4525,
      "Ġaccomp": 4526,
      "Ġmake": 4527,
      "Ġreplacement": 4528,
      "Ġsusceptibility": 4529,
      "ire": 4530,
      "verex": 4531,
      "Ġschool": 4532,
      "Ġschiz": 4533,
      "icrob": 4534,
      "omatic": 4535,
      "ĠUV": 4536,
      "Ġconstruc": 4537,
      "ovine": 4538,
      "month": 4539,
      "Ġvein": 4540,
      "ontin": 4541,
      "Ġaneurys": 4542,
      "Ġpen": 4543,
      "gamma": 4544,
      "mol": 4545,
      "undred": 4546,
      "Ġrandomly": 4547,
      "Ġprolonged": 4548,
      "trac": 4549,
      "ĠChinese": 4550,
      "etric": 4551,
      "ĠPR": 4552,
      "68": 4553,
      "ĠNor": 4554,
      "Ġathe": 4555,
      "yle": 4556,
      "Ġcomplication": 4557,
      "ĠTR": 4558,
      "Ġexplore": 4559,
      "Ġscler": 4560,
      "Ġ42": 4561,
      "Ġoccup": 4562,
      "ament": 4563,
      "HC": 4564,
      "Ġfund": 4565,
      "55": 4566,
      "oli": 4567,
      "Ġmiddle": 4568,
      "arv": 4569,
      "Ġfamilies": 4570,
      "Ġantim": 4571,
      "Ġseiz": 4572,
      "Ġatrial": 4573,
      "LD": 4574,
      "Ġpresentation": 4575,
      "Ġendogenous": 4576,
      "ophren": 4577,
      "Ġmacrophages": 4578,
      "Ġimmunos": 4579,
      "Ġpolic": 4580,
      "Ġenti": 4581,
      "Ġethanol": 4582,
      "Ġker": 4583,
      "ocrine": 4584,
      "leu": 4585,
      "aine": 4586,
      "Ġbind": 4587,
      "ĠRT": 4588,
      "Ġprojec": 4589,
      "Ġamb": 4590,
      "ime": 4591,
      "Ġann": 4592,
      ".)": 4593,
      "Ġcontained": 4594,
      "Ġminor": 4595,
      "off": 4596,
      "Ġions": 4597,
      "Ġpel": 4598,
      "ground": 4599,
      "Ġspectrometry": 4600,
      "urgical": 4601,
      "Ġsten": 4602,
      "Ġsignals": 4603,
      "Ġtechnology": 4604,
      "Ġcomputer": 4605,
      "Ġsilic": 4606,
      "ME": 4607,
      "Ġcompr": 4608,
      "vas": 4609,
      "Ġphysicians": 4610,
      "Ġcreat": 4611,
      "ellar": 4612,
      "lastic": 4613,
      "Ġepilep": 4614,
      "ollow": 4615,
      "azole": 4616,
      "Ġvag": 4617,
      "Ġcancers": 4618,
      "abor": 4619,
      "Ġnurses": 4620,
      "Ġdespite": 4621,
      "asp": 4622,
      "here": 4623,
      "ets": 4624,
      "Ġtraditional": 4625,
      "ework": 4626,
      "angi": 4627,
      "Ġmovement": 4628,
      "Ġnode": 4629,
      "itative": 4630,
      "icle": 4631,
      "DR": 4632,
      "umor": 4633,
      "AC": 4634,
      "Ġepidemi": 4635,
      "ocarcin": 4636,
      "Ġdefic": 4637,
      "actic": 4638,
      "ĠTreatment": 4639,
      "Ġpal": 4640,
      "ĠAf": 4641,
      "ided": 4642,
      "Ġexcre": 4643,
      "Ġsinus": 4644,
      "Ġaw": 4645,
      "Ġintact": 4646,
      "leukin": 4647,
      "Ġbelow": 4648,
      "Ġmetastatic": 4649,
      "Ġbilateral": 4650,
      "Ġinn": 4651,
      "Ġintermediate": 4652,
      "tention": 4653,
      "gg": 4654,
      "athy": 4655,
      "apping": 4656,
      "Ġdelayed": 4657,
      "Ġranged": 4658,
      "Ġbran": 4659,
      "Ġow": 4660,
      "Ġcytoplas": 4661,
      "aptic": 4662,
      "Ġknee": 4663,
      "Ġcortic": 4664,
      "queous": 4665,
      "Ġterm": 4666,
      "Ġemergency": 4667,
      "ury": 4668,
      "Ġendomet": 4669,
      "pass": 4670,
      "Ġnod": 4671,
      "ĠHospital": 4672,
      "Ġresistant": 4673,
      "Ġbenz": 4674,
      "Ġprotection": 4675,
      "Ġfibrosis": 4676,
      "ospitals": 4677,
      "LP": 4678,
      "Ġclon": 4679,
      "oman": 4680,
      "46": 4681,
      "Ġtheore": 4682,
      "Ġband": 4683,
      "Ġmicrogra": 4684,
      "pr": 4685,
      "77": 4686,
      "ĠBl": 4687,
      "resistant": 4688,
      "Ġfish": 4689,
      "activated": 4690,
      "Ġestimate": 4691,
      "negative": 4692,
      "Ġradio": 4693,
      "ĠStudy": 4694,
      "Ġsem": 4695,
      "ignificant": 4696,
      "Ġbenefits": 4697,
      "Ġsuitable": 4698,
      "wide": 4699,
      "Ġvalve": 4700,
      "Ġgland": 4701,
      "Ġpolyp": 4702,
      "zation": 4703,
      "aster": 4704,
      "Ġsperm": 4705,
      "Ġbehavioral": 4706,
      "Ġobservation": 4707,
      "Ġfully": 4708,
      "Ġantagonist": 4709,
      "Ġstre": 4710,
      "alk": 4711,
      "oside": 4712,
      "Ġbenign": 4713,
      "ams": 4714,
      "Ġconcluded": 4715,
      "Ġnit": 4716,
      "IT": 4717,
      "Ġproximal": 4718,
      "Ġdiscuss": 4719,
      "activation": 4720,
      "Ġcurve": 4721,
      "lel": 4722,
      "Ġche": 4723,
      "Ġprotective": 4724,
      "tenance": 4725,
      "Ġearli": 4726,
      "Ġsolutions": 4727,
      "back": 4728,
      "85": 4729,
      "ĠSD": 4730,
      "ĠMT": 4731,
      "Ġmeta": 4732,
      "Ġ39": 4733,
      "US": 4734,
      "Ġperi": 4735,
      "eds": 4736,
      "Ġpractic": 4737,
      "Ġpolymerase": 4738,
      "cles": 4739,
      "Ġcomprehen": 4740,
      "genic": 4741,
      "rosine": 4742,
      "Ġwhose": 4743,
      "Ġ55": 4744,
      "-,": 4745,
      "Ġpossibility": 4746,
      "orts": 4747,
      "anine": 4748,
      "Ġpathological": 4749,
      "Ġhundred": 4750,
      "gans": 4751,
      "Ġspectra": 4752,
      "LT": 4753,
      "Ġlinked": 4754,
      "iotics": 4755,
      "Ġtit": 4756,
      "generation": 4757,
      "Ġ72": 4758,
      "phase": 4759,
      "ĠDec": 4760,
      "risk": 4761,
      "Ġmusc": 4762,
      "Ġmedication": 4763,
      "Ġreliable": 4764,
      "Ġtargets": 4765,
      "Ġrelax": 4766,
      "Ġthorac": 4767,
      "Ġsmaller": 4768,
      "Ġfind": 4769,
      "ĠIs": 4770,
      "acr": 4771,
      "AMP": 4772,
      "Ġpossib": 4773,
      "Ġshowing": 4774,
      "Ġserious": 4775,
      "ĠCu": 4776,
      "Ġmetastases": 4777,
      "Ġabund": 4778,
      "Ġsynthetic": 4779,
      "ĠOverall": 4780,
      "Ġirradiation": 4781,
      "irty": 4782,
      "rium": 4783,
      "Ġinterv": 4784,
      "sectional": 4785,
      "natal": 4786,
      "Ġdeep": 4787,
      "Ġmonoclonal": 4788,
      "Ġdomains": 4789,
      "orage": 4790,
      "Ġspecifically": 4791,
      "ĠIFN": 4792,
      "Ġgradi": 4793,
      "ensin": 4794,
      "Ġtermin": 4795,
      "Ġadded": 4796,
      "Ġelucid": 4797,
      "erated": 4798,
      "Re": 4799,
      "Ġregen": 4800,
      "quired": 4801,
      "ceived": 4802,
      "Ġschizophren": 4803,
      "Ġneonatal": 4804,
      "Ġprecurs": 4805,
      "ills": 4806,
      "appa": 4807,
      "sub": 4808,
      "Ġmetabolites": 4809,
      "atase": 4810,
      "Ġchick": 4811,
      "EA": 4812,
      "FT": 4813,
      "reen": 4814,
      "idal": 4815,
      "eli": 4816,
      "ĠJan": 4817,
      "hing": 4818,
      "Ġcruc": 4819,
      "aemia": 4820,
      "Ġfeeding": 4821,
      "Ġstimuli": 4822,
      "rest": 4823,
      "Ġtypical": 4824,
      "Ġtransf": 4825,
      "Ġput": 4826,
      "Ġrest": 4827,
      "ecting": 4828,
      "Ġtransient": 4829,
      "ressed": 4830,
      "Ġvaried": 4831,
      "osal": 4832,
      "Ġplasm": 4833,
      "Ġchoice": 4834,
      "habil": 4835,
      "En": 4836,
      "Ġlymphoma": 4837,
      "Ġfollic": 4838,
      "79": 4839,
      "axis": 4840,
      "iring": 4841,
      "ĠInter": 4842,
      "Ġmarkedly": 4843,
      "Ġlocalization": 4844,
      "Ġdied": 4845,
      "erculosis": 4846,
      "73": 4847,
      "Ġcorrect": 4848,
      "Ġbiomark": 4849,
      "Ġshock": 4850,
      "econd": 4851,
      "Ġorient": 4852,
      "bular": 4853,
      "Ġperfusion": 4854,
      "Ġcytokines": 4855,
      "Ġnine": 4856,
      "Ġframework": 4857,
      "Ġassociations": 4858,
      "64": 4859,
      "Ġseparation": 4860,
      "ĠTr": 4861,
      "ichia": 4862,
      "ĠIndi": 4863,
      "Ġrob": 4864,
      "Ġtherapies": 4865,
      "Ġclassified": 4866,
      "Is": 4867,
      "Ġaccel": 4868,
      "Ġinterfer": 4869,
      "ĠBecause": 4870,
      "ycin": 4871,
      "Ġfailed": 4872,
      "Ġdevices": 4873,
      "Ġbovine": 4874,
      "plants": 4875,
      "Ġdisturb": 4876,
      "ped": 4877,
      "Ġintensive": 4878,
      "Ġreactive": 4879,
      "Ġperiods": 4880,
      "Ġcolum": 4881,
      "Ġantigens": 4882,
      "Ġchannels": 4883,
      "ĠSpec": 4884,
      "chlor": 4885,
      "Ġcoord": 4886,
      "born": 4887,
      "Ġneutral": 4888,
      "but": 4889,
      "opo": 4890,
      "Ġren": 4891,
      "Ġperme": 4892,
      "Ġaccept": 4893,
      "Ġdistance": 4894,
      "ĠAfric": 4895,
      "ID": 4896,
      "Ġhypoth": 4897,
      "ĠUni": 4898,
      "ĠSince": 4899,
      "Ġdevelopmental": 4900,
      "Ġhospitals": 4901,
      "Ġfiber": 4902,
      "ĠIC": 4903,
      "ĠUnited": 4904,
      "Ġsusp": 4905,
      "Ġwhat": 4906,
      "IN": 4907,
      "ches": 4908,
      "au": 4909,
      "avage": 4910,
      "Ġantioxidant": 4911,
      "Ġvelocity": 4912,
      "ises": 4913,
      "Ġachieve": 4914,
      "Ġsmooth": 4915,
      "Ġnons": 4916,
      "Ġcommerc": 4917,
      "Ġamounts": 4918,
      "Ġretinal": 4919,
      "gin": 4920,
      "Ġeti": 4921,
      "Ġgain": 4922,
      "Ġcis": 4923,
      "Ġproviding": 4924,
      "ives": 4925,
      "Ġfibers": 4926,
      "chym": 4927,
      "ĠOnly": 4928,
      "Ġthermal": 4929,
      "Ġleg": 4930,
      "ots": 4931,
      "Effect": 4932,
      "Ġarteries": 4933,
      "Ġphosphate": 4934,
      "Ġthym": 4935,
      "week": 4936,
      "Ġminimal": 4937,
      "Ġskeletal": 4938,
      "Ġmaintenance": 4939,
      "88": 4940,
      "LR": 4941,
      "ĠWestern": 4942,
      "Ġlatter": 4943,
      "ste": 4944,
      "ĠÎ±": 4945,
      "Ġalkal": 4946,
      "Ġmaintained": 4947,
      "ovirus": 4948,
      "Ġprem": 4949,
      "Ġhydroph": 4950,
      "ypt": 4951,
      "ĠAcc": 4952,
      "Ġintervals": 4953,
      "Ġregional": 4954,
      "ĠNF": 4955,
      "ĠAmerican": 4956,
      "Ġaqueous": 4957,
      "ways": 4958,
      "cephal": 4959,
      "Ġmarg": 4960,
      "Ġcontrac": 4961,
      "Ġverte": 4962,
      "Ġgastrointestinal": 4963,
      "Ġgon": 4964,
      "vasive": 4965,
      "Ġsurfaces": 4966,
      "zard": 4967,
      "Ġexchange": 4968,
      "oic": 4969,
      "dehy": 4970,
      "icin": 4971,
      "Ġnitrogen": 4972,
      "Ġsurge": 4973,
      "Ġmuscles": 4974,
      "factory": 4975,
      "Ġothers": 4976,
      "EP": 4977,
      "Ġchildhood": 4978,
      "Ġinfil": 4979,
      "Ġhydroly": 4980,
      "Ġgr": 4981,
      "point": 4982,
      "Ġide": 4983,
      "Ġprobe": 4984,
      "ozyg": 4985,
      "lip": 4986,
      "Ġworking": 4987,
      "41": 4988,
      "63": 4989,
      "ditionally": 4990,
      "Ġpneumonia": 4991,
      "Ġpolymorphism": 4992,
      "Ġexcept": 4993,
      "acin": 4994,
      "BA": 4995,
      "estic": 4996,
      "Ġcolorectal": 4997,
      "enes": 4998,
      "Ġgenotype": 4999,
      "Ġindustr": 5000,
      "Ġextreme": 5001,
      "atur": 5002,
      "Ġfron": 5003,
      "ĠCol": 5004,
      "ĠHR": 5005,
      "Ġvessels": 5006,
      "grade": 5007,
      "Ġmaximal": 5008,
      "Ġrhe": 5009,
      "uctive": 5010,
      "Ġdy": 5011,
      "osomes": 5012,
      "Ġpathology": 5013,
      "Ġgranul": 5014,
      "ĠBe": 5015,
      "transferase": 5016,
      "Me": 5017,
      "Ġdecreases": 5018,
      "Ġneutroph": 5019,
      "Ġlipoprotein": 5020,
      "ber": 5021,
      "69": 5022,
      "Ġten": 5023,
      "habilitation": 5024,
      "Ġinduces": 5025,
      "Ġfall": 5026,
      "Ġhistological": 5027,
      "entical": 5028,
      "hers": 5029,
      "ayer": 5030,
      "linked": 5031,
      "ĠDespite": 5032,
      "Ġpsychological": 5033,
      "ports": 5034,
      "Ġmatter": 5035,
      "Ġwa": 5036,
      "Ġvariations": 5037,
      "IS": 5038,
      "everal": 5039,
      "tious": 5040,
      "assive": 5041,
      "Ġmicrograms": 5042,
      "Ġaspir": 5043,
      "estions": 5044,
      "Ġprimarily": 5045,
      "Ġpartially": 5046,
      "uvant": 5047,
      "aren": 5048,
      "Ġelectronic": 5049,
      "Ġdors": 5050,
      "Ġinfluenced": 5051,
      "Ġpersons": 5052,
      "Ġscanning": 5053,
      "Ġcut": 5054,
      "72": 5055,
      "weight": 5056,
      "oidal": 5057,
      "Ġenhancement": 5058,
      "angu": 5059,
      "Ġdiffusion": 5060,
      "ystolic": 5061,
      "lective": 5062,
      "Ġcomparing": 5063,
      "GA": 5064,
      "ĠHg": 5065,
      "Ġbul": 5066,
      "Ġoverl": 5067,
      "ik": 5068,
      "Ġcongenital": 5069,
      "ows": 5070,
      "Ġantibiotic": 5071,
      "rous": 5072,
      "ĠIGF": 5073,
      "Ġdischarge": 5074,
      "roscler": 5075,
      "ĠJanuary": 5076,
      "illus": 5077,
      "Ġpap": 5078,
      "Ġremaining": 5079,
      "ophosph": 5080,
      "phyl": 5081,
      ")/": 5082,
      "Ġartif": 5083,
      "itudinal": 5084,
      "Ġrecognized": 5085,
      "Ġarch": 5086,
      "Ġradiotherapy": 5087,
      "Ġecon": 5088,
      "Ġdone": 5089,
      "Ġlob": 5090,
      "Ġextended": 5091,
      "Ġhealing": 5092,
      "Ġpseud": 5093,
      "Ġinjected": 5094,
      "Ġobtain": 5095,
      "Ġconjug": 5096,
      "scher": 5097,
      "Ġcaps": 5098,
      "Ġlimb": 5099,
      "tingu": 5100,
      "OC": 5101,
      "Ġoccurring": 5102,
      "Effects": 5103,
      "Ġequal": 5104,
      "stream": 5105,
      "ĠUS": 5106,
      "Ġslightly": 5107,
      "Ġdisrup": 5108,
      "amate": 5109,
      "Ġdimension": 5110,
      "inking": 5111,
      "glut": 5112,
      "Ġdescribes": 5113,
      "Ġsubgroup": 5114,
      "hydrogen": 5115,
      "Ġstorage": 5116,
      "ĠED": 5117,
      "Ġkinetics": 5118,
      "Ġshape": 5119,
      "Ġairway": 5120,
      "containing": 5121,
      "Ġplan": 5122,
      "scherichia": 5123,
      "Ġcyst": 5124,
      "Ġinvasion": 5125,
      "Ġshift": 5126,
      "ighted": 5127,
      "76": 5128,
      "isp": 5129,
      ")]": 5130,
      "illed": 5131,
      "Ġcommunication": 5132,
      "benz": 5133,
      "Ġgang": 5134,
      "Ġenrolled": 5135,
      "Ġrise": 5136,
      "oblast": 5137,
      "owel": 5138,
      "Ġwhom": 5139,
      "ectin": 5140,
      "Ġcer": 5141,
      "Ġpresenting": 5142,
      "ĠNational": 5143,
      "Ġparallel": 5144,
      "Ġcytos": 5145,
      "Ġclearly": 5146,
      "Ġprediction": 5147,
      "gi": 5148,
      "LS": 5149,
      "ologists": 5150,
      "Ġreverse": 5151,
      "Ġoutput": 5152,
      "Ġonc": 5153,
      "uting": 5154,
      "Ġâī¥": 5155,
      "Ġcorne": 5156,
      "Ġarthritis": 5157,
      "Ġpsychiatric": 5158,
      "IF": 5159,
      "Ġmorphological": 5160,
      "Ġ43": 5161,
      "ivalent": 5162,
      "Ġreason": 5163,
      "Ġdistingu": 5164,
      "oin": 5165,
      "icrobial": 5166,
      "HS": 5167,
      "Ġlocalized": 5168,
      "udes": 5169,
      "Ġearlier": 5170,
      "Ġconsisted": 5171,
      "Ġparents": 5172,
      "Ġrequ": 5173,
      "imethyl": 5174,
      "Ġcontribution": 5175,
      "aria": 5176,
      "ogens": 5177,
      "ĠScale": 5178,
      "Ġmicrom": 5179,
      "Ġanalyze": 5180,
      "Ġsuppression": 5181,
      "Ġdefect": 5182,
      "ocytic": 5183,
      "max": 5184,
      "ĠPl": 5185,
      "ck": 5186,
      "ĠcDNA": 5187,
      "Ġworkers": 5188,
      "state": 5189,
      "mg": 5190,
      "ymmet": 5191,
      "Ġindependently": 5192,
      "Ġoverex": 5193,
      "Ġclosely": 5194,
      "VA": 5195,
      "vision": 5196,
      "Ġmeasuring": 5197,
      "otropic": 5198,
      "Ġentire": 5199,
      "ĠExper": 5200,
      "Ġreturn": 5201,
      "Ġrisks": 5202,
      "ĠHLA": 5203,
      "Ġ44": 5204,
      "ĠAF": 5205,
      "ĠTrans": 5206,
      "Ġ(-": 5207,
      "analysis": 5208,
      "ochrome": 5209,
      "Ġimplantation": 5210,
      "Ġpredictors": 5211,
      "ĠOR": 5212,
      "Ġfibr": 5213,
      "ÃĹ": 5214,
      "Ġrecords": 5215,
      "Ġsubject": 5216,
      "LE": 5217,
      "Ġcarotid": 5218,
      "Ġstenosis": 5219,
      "OP": 5220,
      "Ġens": 5221,
      "Ġneu": 5222,
      "Ġbreak": 5223,
      "Ġocclusion": 5224,
      "Ġorganization": 5225,
      "portun": 5226,
      "ulum": 5227,
      "Ġresidual": 5228,
      "ĠLV": 5229,
      "Ġ46": 5230,
      "ĠStates": 5231,
      "arcoma": 5232,
      "Ġ41": 5233,
      "Ġextracts": 5234,
      "Ġinterleukin": 5235,
      "ĠZn": 5236,
      "96": 5237,
      "Ġextracted": 5238,
      "Ġaccompan": 5239,
      "ply": 5240,
      "ĠPM": 5241,
      "Ġgrowing": 5242,
      "Ġregular": 5243,
      "Pre": 5244,
      "Ġretro": 5245,
      "cor": 5246,
      "Ġegg": 5247,
      "Co": 5248,
      "ĠAnalysis": 5249,
      "ĠEscherichia": 5250,
      "tox": 5251,
      "Ġservice": 5252,
      "Ġfin": 5253,
      "ict": 5254,
      "amino": 5255,
      "BL": 5256,
      "Ġcircum": 5257,
      "Ġmultivariate": 5258,
      "Ġdevi": 5259,
      "Ġspin": 5260,
      "ĠCompared": 5261,
      "Ġalgorithm": 5262,
      "Ġappearance": 5263,
      "Ġdopamine": 5264,
      "Ġheight": 5265,
      "Ġidentical": 5266,
      "Ġneurological": 5267,
      "ĠCr": 5268,
      "Ġye": 5269,
      "HP": 5270,
      "rotein": 5271,
      "Ġlys": 5272,
      "geal": 5273,
      "infected": 5274,
      "immune": 5275,
      "phosphate": 5276,
      "Ġsufficient": 5277,
      "Ġfragment": 5278,
      "Ġrepresents": 5279,
      "Ġple": 5280,
      "Ġtrigg": 5281,
      "Ġalbumin": 5282,
      "ifications": 5283,
      "Ġallowed": 5284,
      "Ġconversion": 5285,
      "Ġsaline": 5286,
      "Ġgrad": 5287,
      "LISA": 5288,
      "ipl": 5289,
      "Ġcomprehensive": 5290,
      "ades": 5291,
      "Ġangle": 5292,
      "Ġadjust": 5293,
      "Ġvolunte": 5294,
      "Ġsegment": 5295,
      "Ġrot": 5296,
      "illin": 5297,
      "Ġbalance": 5298,
      "Ġadequate": 5299,
      "Ġmodification": 5300,
      "Ġprincip": 5301,
      "Ġthi": 5302,
      "ĠImmun": 5303,
      "74": 5304,
      "Ġdependence": 5305,
      "Ġpropose": 5306,
      "Ġnasal": 5307,
      "Ġcompeti": 5308,
      "FS": 5309,
      "rief": 5310,
      "otr": 5311,
      "ria": 5312,
      "Ġpy": 5313,
      "iminary": 5314,
      "oresis": 5315,
      "Ġmineral": 5316,
      "lux": 5317,
      "oe": 5318,
      "air": 5319,
      "Ġelic": 5320,
      "Ġdisper": 5321,
      "chang": 5322,
      "Ġbypass": 5323,
      "oplasty": 5324,
      "Ġgenomic": 5325,
      "Ġsampling": 5326,
      "perfusion": 5327,
      "Ġqualitative": 5328,
      "UN": 5329,
      "Ġdepart": 5330,
      "Ġacetyl": 5331,
      "ping": 5332,
      "ls": 5333,
      "Ġcoupled": 5334,
      "Ġmagnitude": 5335,
      "Ġstent": 5336,
      "Ġsensory": 5337,
      "ophysi": 5338,
      "hythm": 5339,
      "oscopy": 5340,
      "Ġperoxid": 5341,
      "Ġbeneficial": 5342,
      "enop": 5343,
      "Ġassigned": 5344,
      "avy": 5345,
      "Ġpregnant": 5346,
      "Ġvariants": 5347,
      "ĠUniversity": 5348,
      "enal": 5349,
      "86": 5350,
      "Ġpositively": 5351,
      "Ġinclusion": 5352,
      "Ġassum": 5353,
      "Ġdominant": 5354,
      "Ġaffecting": 5355,
      "Ġnative": 5356,
      "Ġorgans": 5357,
      "Ġplaced": 5358,
      "cribed": 5359,
      "Ġcannot": 5360,
      "Ġexer": 5361,
      "Ġopportun": 5362,
      "Ġnewly": 5363,
      "aryngeal": 5364,
      "Ġcre": 5365,
      "ĠmiR": 5366,
      "ĠAb": 5367,
      "ulmonary": 5368,
      "Ġmelanoma": 5369,
      "enia": 5370,
      "ĠHP": 5371,
      "Ġassemb": 5372,
      "ĠCell": 5373,
      "Ġestrogen": 5374,
      "Ġmaking": 5375,
      "itant": 5376,
      "Ġprogress": 5377,
      "Ġadsorption": 5378,
      "Ġeffectively": 5379,
      "OL": 5380,
      "zyme": 5381,
      "acer": 5382,
      "Ġpractices": 5383,
      "coprotein": 5384,
      "71": 5385,
      "Ġillustr": 5386,
      "BI": 5387,
      "stage": 5388,
      "Ġaccompanied": 5389,
      "Ġarg": 5390,
      "Ġsubstantial": 5391,
      "ermal": 5392,
      "Ġbehaviors": 5393,
      "Ġphospholip": 5394,
      "alc": 5395,
      "Ġtools": 5396,
      "Ġcounter": 5397,
      "Ġbu": 5398,
      "Ġexample": 5399,
      "ash": 5400,
      "Ġdatabase": 5401,
      "mediately": 5402,
      "DP": 5403,
      "Ġsoluble": 5404,
      "Ġsubunit": 5405,
      "ging": 5406,
      "entia": 5407,
      "Ġatheroscler": 5408,
      "Ġsustained": 5409,
      "Ġsubstrates": 5410,
      "Ġcytokine": 5411,
      "Ġtuberculosis": 5412,
      "Ġerror": 5413,
      "oved": 5414,
      "62": 5415,
      "sia": 5416,
      "Ġdiversity": 5417,
      "ĠAss": 5418,
      "ĠAustr": 5419,
      "Ġrabbit": 5420,
      "Ġexplain": 5421,
      "Ġpharmacokine": 5422,
      "oon": 5423,
      "Ġbackground": 5424,
      "udit": 5425,
      "level": 5426,
      "ĠCons": 5427,
      "Ġcoefficient": 5428,
      "Ġunclear": 5429,
      "Ġcorrelations": 5430,
      "Ġtheoretical": 5431,
      "ocarcinoma": 5432,
      "Ġconsequences": 5433,
      "Ġpresents": 5434,
      "Hg": 5435,
      "pyr": 5436,
      "Ġpla": 5437,
      "Ġclearance": 5438,
      "aphyl": 5439,
      "otensin": 5440,
      "icles": 5441,
      "Ġpossess": 5442,
      "Ġtun": 5443,
      "ĠmL": 5444,
      "ips": 5445,
      "89": 5446,
      "Ġimproving": 5447,
      "Ġrun": 5448,
      "ĠAR": 5449,
      "Ġechocardi": 5450,
      "Ġ250": 5451,
      "ĠOr": 5452,
      "Ġrehabilitation": 5453,
      "ĠCYP": 5454,
      "valuation": 5455,
      "Ġindirect": 5456,
      "ĠCd": 5457,
      "UC": 5458,
      "ĠNMR": 5459,
      "Ġcomparative": 5460,
      "Ġpromote": 5461,
      "uria": 5462,
      "pler": 5463,
      "coun": 5464,
      "Ġ52": 5465,
      "BM": 5466,
      "Ġvul": 5467,
      "Ġnational": 5468,
      "Ġpyr": 5469,
      "Ġnucleotide": 5470,
      "Ġwaste": 5471,
      "Ġantibiotics": 5472,
      "ĠCor": 5473,
      "Ġpan": 5474,
      "Ġelement": 5475,
      "Ġmell": 5476,
      "Ġpersistent": 5477,
      "Ġcoupling": 5478,
      "Ġden": 5479,
      "sies": 5480,
      "acting": 5481,
      "Ġstandardi": 5482,
      "Ġvalidity": 5483,
      "side": 5484,
      "raction": 5485,
      "Ġfemoral": 5486,
      "dehyde": 5487,
      "lue": 5488,
      "Ġintroduced": 5489,
      "sensitive": 5490,
      "odon": 5491,
      "Ġopi": 5492,
      "Ġmurine": 5493,
      "ĠHigh": 5494,
      "Ġyounger": 5495,
      "Ġchest": 5496,
      "Ġimplementation": 5497,
      "Ġcount": 5498,
      "obil": 5499,
      "cope": 5500,
      "Ġsatisfaction": 5501,
      "Ġchallenges": 5502,
      "Ġretention": 5503,
      "Ġinitiation": 5504,
      "Ġfavor": 5505,
      "Ġperceived": 5506,
      "Ġencoding": 5507,
      "Ġpulse": 5508,
      "Ġhypothe": 5509,
      "Ġtyrosine": 5510,
      "Ġglomer": 5511,
      "Ġmodulation": 5512,
      "Ġconform": 5513,
      "ept": 5514,
      "Ġremoved": 5515,
      "97": 5516,
      "Ġreproductive": 5517,
      "Ġregulated": 5518,
      "Ġtransformation": 5519,
      "Ġfixation": 5520,
      "ĠSch": 5521,
      "Ġnic": 5522,
      "Ġamplitude": 5523,
      "agulation": 5524,
      "Ġexcretion": 5525,
      "Ġanalges": 5526,
      "Ġtargeted": 5527,
      "athione": 5528,
      "ĠTGF": 5529,
      "Ġreached": 5530,
      "Ġlens": 5531,
      "58": 5532,
      "ĠPK": 5533,
      "assi": 5534,
      "ĠGen": 5535,
      "Con": 5536,
      "anded": 5537,
      "Ġcrystall": 5538,
      "Ġhab": 5539,
      "ĠSome": 5540,
      "Ġprophyl": 5541,
      "Ġanesthesia": 5542,
      "rs": 5543,
      "Ġthin": 5544,
      "Ġfractions": 5545,
      "Ġreliability": 5546,
      "Ġsummar": 5547,
      "agnetic": 5548,
      "Ġdecline": 5549,
      "Ġdual": 5550,
      "rog": 5551,
      "ML": 5552,
      "Ġhealthcare": 5553,
      "Ġcolor": 5554,
      "MG": 5555,
      "Ġelectrical": 5556,
      "Ġmove": 5557,
      "Ġinvestigations": 5558,
      "mm": 5559,
      "Ġimmunore": 5560,
      "antum": 5561,
      "Ġschizophrenia": 5562,
      "Ġpac": 5563,
      "Ġuro": 5564,
      "Ġfresh": 5565,
      "ĠFollow": 5566,
      "Ġtargeting": 5567,
      "otypic": 5568,
      "ban": 5569,
      "Ġfrequencies": 5570,
      "Ġacquired": 5571,
      "Ġcrucial": 5572,
      "Ġestimates": 5573,
      "Ġstay": 5574,
      "achment": 5575,
      "Ġmill": 5576,
      "cy": 5577,
      "Ġdry": 5578,
      "Ġring": 5579,
      "accharide": 5580,
      "Ġsequencing": 5581,
      "ias": 5582,
      "Ġdisplayed": 5583,
      "Ġagonist": 5584,
      "ymptomatic": 5585,
      "ulus": 5586,
      "ĠGH": 5587,
      "Ġaffects": 5588,
      "ontal": 5589,
      "Ġgoal": 5590,
      "Ġfixed": 5591,
      "trophy": 5592,
      "Ġrecommendations": 5593,
      "asons": 5594,
      "quit": 5595,
      "Ġstimulus": 5596,
      "Ġmatched": 5597,
      "ders": 5598,
      "ĠPI": 5599,
      "teine": 5600,
      "parison": 5601,
      "flow": 5602,
      "Ġranging": 5603,
      "CN": 5604,
      "Ġsuppressed": 5605,
      "invasive": 5606,
      "ĠChina": 5607,
      "Ġcatalytic": 5608,
      "Ġ47": 5609,
      "Ġhearing": 5610,
      "Ġatom": 5611,
      "Ġcompet": 5612,
      "ĠSystem": 5613,
      "Ġstaff": 5614,
      "Ġintern": 5615,
      "Ġnitric": 5616,
      "Ġquestions": 5617,
      "Ġmis": 5618,
      "Ġcharge": 5619,
      "Ġattit": 5620,
      "Ġhypoxia": 5621,
      "urally": 5622,
      "protein": 5623,
      "Ġdetermining": 5624,
      "quin": 5625,
      "201": 5626,
      "Ġincubation": 5627,
      "Ġepithelium": 5628,
      "amous": 5629,
      "wh": 5630,
      "SM": 5631,
      "94": 5632,
      "Ġspread": 5633,
      "Ġdelay": 5634,
      "ophen": 5635,
      "Ġtrend": 5636,
      "Ġsections": 5637,
      "omycin": 5638,
      "Ġmellitus": 5639,
      "92": 5640,
      "Ġdehydrogen": 5641,
      "Ġfocused": 5642,
      "93": 5643,
      "52": 5644,
      "Ġlargely": 5645,
      "Ġadrenal": 5646,
      "54": 5647,
      "Ġexisting": 5648,
      "Ġlaparoscopic": 5649,
      "Rec": 5650,
      "arth": 5651,
      "Ġ56": 5652,
      "Ġground": 5653,
      "Ġcrystal": 5654,
      "+)-": 5655,
      "ĠAI": 5656,
      "ada": 5657,
      "Ġmammalian": 5658,
      "Ġparticle": 5659,
      "ĠCP": 5660,
      "Ġsession": 5661,
      "itol": 5662,
      "Ġamyl": 5663,
      "Ġbowel": 5664,
      "acetyl": 5665,
      "Ġproved": 5666,
      "Ġembryos": 5667,
      "Ġmixture": 5668,
      "Ġallele": 5669,
      "plete": 5670,
      "Ġvector": 5671,
      "ilib": 5672,
      "luores": 5673,
      "ĠEuropean": 5674,
      "ĠBP": 5675,
      "Ġbile": 5676,
      "Ġclar": 5677,
      "Ġnitr": 5678,
      "Ġendoscopic": 5679,
      "Ġgir": 5680,
      "Ġobese": 5681,
      "cycl": 5682,
      "Ġchol": 5683,
      "adiol": 5684,
      "Ġlogistic": 5685,
      "ogram": 5686,
      "Ġmultic": 5687,
      "Ġcolumn": 5688,
      "Ġsymptomatic": 5689,
      "ĠChild": 5690,
      "Ġpossibly": 5691,
      "dis": 5692,
      "Ġclin": 5693,
      "Ġadmitted": 5694,
      "Ġfibroblasts": 5695,
      "Ġimmediately": 5696,
      "Ġcontains": 5697,
      "Ġyeast": 5698,
      "Ġsubjected": 5699,
      "Ġsupported": 5700,
      "Ġsynth": 5701,
      "Ġlongitudinal": 5702,
      "ĠHy": 5703,
      "Ġpersonal": 5704,
      "Ġgradient": 5705,
      "Ġunderst": 5706,
      "Ġfibrin": 5707,
      "Ġpass": 5708,
      "Ġsystolic": 5709,
      "umbar": 5710,
      "ĠPartic": 5711,
      "Ġitem": 5712,
      "Ġthought": 5713,
      "Ġdetailed": 5714,
      "astic": 5715,
      "wise": 5716,
      "izations": 5717,
      "Ġdocumented": 5718,
      "ĠMod": 5719,
      "Ġrheum": 5720,
      "Ġfact": 5721,
      "rose": 5722,
      "olute": 5723,
      "Ġprel": 5724,
      "hex": 5725,
      "udies": 5726,
      "etus": 5727,
      "Ġcycles": 5728,
      "Ġmothers": 5729,
      "Ġpigs": 5730,
      "Ġhybridization": 5731,
      "Ġattemp": 5732,
      "sized": 5733,
      "Ġhair": 5734,
      "Ġhistopath": 5735,
      "Ġreflect": 5736,
      "Ġchanged": 5737,
      "Ġzinc": 5738,
      "Ġactin": 5739,
      "Ġsalt": 5740,
      "Ġsteroid": 5741,
      "Ġsimultaneously": 5742,
      "Ġwid": 5743,
      "Ġmetall": 5744,
      "omers": 5745,
      "87": 5746,
      "ril": 5747,
      "Ġlowest": 5748,
      "adren": 5749,
      "Ġdeaths": 5750,
      "chemical": 5751,
      "Ġcartil": 5752,
      "bor": 5753,
      "opathic": 5754,
      "Ġvalidated": 5755,
      "ĠSS": 5756,
      "phenyl": 5757,
      "Ġpoll": 5758,
      "ituitary": 5759,
      "Ġoperative": 5760,
      "Ġdemographic": 5761,
      "Ġtherm": 5762,
      "ĠBMI": 5763,
      "Ġinput": 5764,
      "Ġplanning": 5765,
      "ĠES": 5766,
      "Ġsimulation": 5767,
      "artment": 5768,
      "Ġlum": 5769,
      "Ġsuspected": 5770,
      "Ġexplored": 5771,
      "Ġexplained": 5772,
      "test": 5773,
      "ATP": 5774,
      "Ġheavy": 5775,
      "Ġligands": 5776,
      "Ġconsiderable": 5777,
      "Ġrecipients": 5778,
      "):": 5779,
      "ospor": 5780,
      "Ġdate": 5781,
      "Ġfluorescent": 5782,
      "Ġcapable": 5783,
      "Ġcluster": 5784,
      "83": 5785,
      "Ġrecording": 5786,
      "Ġ85": 5787,
      "Ġmutants": 5788,
      "illing": 5789,
      "Ġaging": 5790,
      "Ġconcerning": 5791,
      "Ġing": 5792,
      "Ġcytotoxic": 5793,
      "Ġretrospectively": 5794,
      "Ġnewborn": 5795,
      "Ġfunctioning": 5796,
      "Ġoriginal": 5797,
      "82": 5798,
      "Ġmature": 5799,
      "Ġsection": 5800,
      "illance": 5801,
      "Ġgold": 5802,
      "version": 5803,
      "ilities": 5804,
      "Ġscat": 5805,
      "Ġinfluenz": 5806,
      "CAT": 5807,
      "Ġangiography": 5808,
      "Ġtube": 5809,
      "Ġobstruction": 5810,
      "cessive": 5811,
      "icular": 5812,
      "Ġinhibits": 5813,
      "Ġphases": 5814,
      "Ġsuic": 5815,
      "Ġreceive": 5816,
      "Ġnodes": 5817,
      "ĠThirty": 5818,
      "Ġdemonstrates": 5819,
      "acent": 5820,
      "Ġown": 5821,
      "Ġmedial": 5822,
      "ancing": 5823,
      "ĠCF": 5824,
      "veness": 5825,
      "anguage": 5826,
      "uous": 5827,
      "Ġerythroc": 5828,
      "Ġpolymorphisms": 5829,
      "Ġdex": 5830,
      "Ġstere": 5831,
      "Ġseparate": 5832,
      "insic": 5833,
      "84": 5834,
      "Ġsubset": 5835,
      "Ġpil": 5836,
      "Ġmucosa": 5837,
      "Bs": 5838,
      "Ġ54": 5839,
      "ohydr": 5840,
      "Ġvolunteers": 5841,
      "ĠAdditionally": 5842,
      "Ġ51": 5843,
      "Ġwoman": 5844,
      "Ġhepar": 5845,
      "actin": 5846,
      "onate": 5847,
      "forms": 5848,
      "rang": 5849,
      "Ġengine": 5850,
      "ĠMedical": 5851,
      "Ġcyclic": 5852,
      "ABA": 5853,
      "Ġfeature": 5854,
      "aden": 5855,
      "51": 5856,
      "EF": 5857,
      "Ġarm": 5858,
      "ĠSeveral": 5859,
      "Ġsubstance": 5860,
      "Ġconcern": 5861,
      "Ġpotentials": 5862,
      "Ġphenomenon": 5863,
      "Ġpoorly": 5864,
      "Ġinstrument": 5865,
      "Ġreduces": 5866,
      "ĠUnder": 5867,
      "Ġroom": 5868,
      "Ġtemperatures": 5869,
      "Ġ2000": 5870,
      "Ġaudit": 5871,
      "gent": 5872,
      "Ġ64": 5873,
      "Ġfragments": 5874,
      "61": 5875,
      "ĠSh": 5876,
      "scale": 5877,
      "ĠHS": 5878,
      "91": 5879,
      "Ġdiverse": 5880,
      "veolar": 5881,
      "Ġcomposite": 5882,
      "Ġmonitored": 5883,
      "tage": 5884,
      "Ġdend": 5885,
      "Ġdementia": 5886,
      "ĠEm": 5887,
      "choline": 5888,
      "Ġisolation": 5889,
      "ĠLPS": 5890,
      "Ġtreating": 5891,
      "athe": 5892,
      "pid": 5893,
      "Ġanomal": 5894,
      "Ġaggregation": 5895,
      "Ġcirculating": 5896,
      "unctional": 5897,
      "astolic": 5898,
      "Ġoffer": 5899,
      "Ġfields": 5900,
      "AG": 5901,
      "atch": 5902,
      "iciently": 5903,
      "ylate": 5904,
      "Ġunivers": 5905,
      "clinical": 5906,
      "Ġtumours": 5907,
      "ostasis": 5908,
      "Ġaug": 5909,
      "omical": 5910,
      "Ġassessing": 5911,
      "AF": 5912,
      "Ġintegrated": 5913,
      "meth": 5914,
      "abric": 5915,
      "Ġunderstood": 5916,
      "acc": 5917,
      "Ġexperiences": 5918,
      "Ġsurround": 5919,
      "Ġfacilitate": 5920,
      "Ġhemorrhage": 5921,
      "Ġminimum": 5922,
      "Ġbuff": 5923,
      "ĠDifferen": 5924,
      "ĠMedic": 5925,
      "omon": 5926,
      "olism": 5927,
      "ocaine": 5928,
      "Ġpathophysi": 5929,
      "Ġbarrier": 5930,
      "uod": 5931,
      "Ġadvantages": 5932,
      "Ġdorsal": 5933,
      "Ġphyl": 5934,
      "Ġdirection": 5935,
      "tub": 5936,
      "Ġsegments": 5937,
      "aracter": 5938,
      "ĠPlas": 5939,
      "Ġcontrolling": 5940,
      "stimulated": 5941,
      "ĠPS": 5942,
      "ĠCV": 5943,
      "Ġelectrophoresis": 5944,
      "Ġfoot": 5945,
      "chron": 5946,
      "ionic": 5947,
      "Ġsynthase": 5948,
      "abilities": 5949,
      "Ġreplication": 5950,
      "Ġvariant": 5951,
      "Ġnoise": 5952,
      "Ġskills": 5953,
      "Ġprobability": 5954,
      "ansion": 5955,
      "opor": 5956,
      "isions": 5957,
      "Ġcharacterize": 5958,
      "phrine": 5959,
      "inson": 5960,
      "Ġdrain": 5961,
      "Ġglutathione": 5962,
      "ĠSal": 5963,
      "Ġventilation": 5964,
      "Ġsulfate": 5965,
      "ĠSP": 5966,
      "astom": 5967,
      "Ġvisc": 5968,
      "ĠGer": 5969,
      "Ġimplants": 5970,
      "Ġhypothal": 5971,
      "Ab": 5972,
      "NPs": 5973,
      "Ġdonors": 5974,
      "assium": 5975,
      "ilarly": 5976,
      "Ġepilepsy": 5977,
      "Ġtail": 5978,
      "Ġpure": 5979,
      "ilibrium": 5980,
      "Ġ53": 5981,
      "elta": 5982,
      "Ġphysician": 5983,
      "Ġcenters": 5984,
      "Se": 5985,
      "Ġonce": 5986,
      "Ġcytochrome": 5987,
      "ingly": 5988,
      "Ġodds": 5989,
      "urance": 5990,
      "Ġresources": 5991,
      "59": 5992,
      "Ġdehydrogenase": 5993,
      "Ġextension": 5994,
      "oxygen": 5995,
      "Ġepisodes": 5996,
      "Ad": 5997,
      "Ġuntreated": 5998,
      "Ġnuclei": 5999,
      "Ġnetworks": 6000,
      "Ġhazard": 6001,
      "ĠMon": 6002,
      "81": 6003,
      "Ġsuppress": 6004,
      "De": 6005,
      "Ġshorter": 6006,
      "requency": 6007,
      "Ġsaliv": 6008,
      "Ġdepending": 6009,
      "Ġprevented": 6010,
      "LV": 6011,
      "Ġconcom": 6012,
      "Ġaort": 6013,
      "Ġcarcinomas": 6014,
      "tized": 6015,
      "Ġviability": 6016,
      "Ġpractical": 6017,
      "Ġfacial": 6018,
      "Ġdisplay": 6019,
      "Ġthrombosis": 6020,
      "ocytosis": 6021,
      "Ġlimits": 6022,
      "Ġreactivity": 6023,
      "Ġinvolves": 6024,
      "Ġcopper": 6025,
      "Ġmaintain": 6026,
      "ĠEGF": 6027,
      "Ġantimicrobial": 6028,
      "Ġnone": 6029,
      "Ġpituitary": 6030,
      "Ġassist": 6031,
      "urgery": 6032,
      "Ġequivalent": 6033,
      "Ġvarying": 6034,
      "Ġaxis": 6035,
      "Ġimmediate": 6036,
      "Ġsubsequently": 6037,
      "Ġgli": 6038,
      "Ġcavity": 6039,
      "ĠMMP": 6040,
      "Ġzone": 6041,
      "ĠDis": 6042,
      "Ġpool": 6043,
      "Ġregimen": 6044,
      "Ġcytotoxicity": 6045,
      "Ġemotional": 6046,
      "OX": 6047,
      "Ġsimulations": 6048,
      "mark": 6049,
      "osyl": 6050,
      "Ġprecise": 6051,
      "two": 6052,
      "NK": 6053,
      "Ġface": 6054,
      "Ġactions": 6055,
      "inger": 6056,
      "Ġgive": 6057,
      "Ġincludes": 6058,
      "ecal": 6059,
      "Ġsettings": 6060,
      "Ġdeposition": 6061,
      "Ġ99": 6062,
      "sm": 6063,
      "down": 6064,
      "ĠSw": 6065,
      "tradiol": 6066,
      "Ġpack": 6067,
      "ĠInt": 6068,
      "dial": 6069,
      "Ġkn": 6070,
      "Ġplastic": 6071,
      "450": 6072,
      "Ġdeple": 6073,
      "Ġresponsi": 6074,
      "draw": 6075,
      "Ġpretreatment": 6076,
      "Ġinterface": 6077,
      "Ġbreat": 6078,
      "Ġinitially": 6079,
      "ensus": 6080,
      "traction": 6081,
      "Ġinoc": 6082,
      "olds": 6083,
      "Ġarr": 6084,
      "Ġbecame": 6085,
      "Ġ49": 6086,
      "Ġconcomitant": 6087,
      "Ġrabbits": 6088,
      "heimer": 6089,
      "tron": 6090,
      "Ġ58": 6091,
      "Ġcalculations": 6092,
      "Ġger": 6093,
      "Ġdecl": 6094,
      "body": 6095,
      "Ġdri": 6096,
      "Di": 6097,
      "Ġdisability": 6098,
      "Ġinfectious": 6099,
      "Ġorganisms": 6100,
      "Ġmodeling": 6101,
      "Ġgangl": 6102,
      "Ġremission": 6103,
      "Ġcurves": 6104,
      "matic": 6105,
      "Ġpreferen": 6106,
      "Ġmicrobial": 6107,
      "Ġvaccination": 6108,
      "Ġcomposed": 6109,
      "ements": 6110,
      "empor": 6111,
      "Ġreleased": 6112,
      "ĠAP": 6113,
      "Ġmmol": 6114,
      "06": 6115,
      "BF": 6116,
      "ensis": 6117,
      "Ġanth": 6118,
      "ĠRh": 6119,
      "fluor": 6120,
      "ĠET": 6121,
      "Ġdialysis": 6122,
      "lim": 6123,
      "Ġnumerous": 6124,
      "Ġscan": 6125,
      "Ġurban": 6126,
      "illation": 6127,
      "Ġconstructed": 6128,
      "Ġconsisting": 6129,
      "Ġ96": 6130,
      "bre": 6131,
      "Ġrepeat": 6132,
      "Ġloading": 6133,
      "Ġseed": 6134,
      "Ġbelong": 6135,
      "Ġextra": 6136,
      "unt": 6137,
      "pine": 6138,
      "Ġparameter": 6139,
      "avi": 6140,
      "Ġsquamous": 6141,
      "Ġutilization": 6142,
      "Ġteeth": 6143,
      "Ġtaking": 6144,
      "nic": 6145,
      "Ġcartilage": 6146,
      "Ġbrief": 6147,
      "romatic": 6148,
      "Ġrelaxation": 6149,
      "ections": 6150,
      "Ġsple": 6151,
      "Ġinstitution": 6152,
      "Ġlimitations": 6153,
      "Ġmening": 6154,
      "Ġpreparations": 6155,
      "ley": 6156,
      "Ġventric": 6157,
      "assay": 6158,
      "Ġspectral": 6159,
      "Ġtrip": 6160,
      "ĠDop": 6161,
      "Ġpharmacological": 6162,
      "ĠPE": 6163,
      "Ġsubt": 6164,
      "Ġsteps": 6165,
      "lymer": 6166,
      "Ġevaluating": 6167,
      "ĠME": 6168,
      "zheimer": 6169,
      "Ġinfant": 6170,
      "osity": 6171,
      "Ġburden": 6172,
      "Ġadvantage": 6173,
      "ifying": 6174,
      "Ġattributed": 6175,
      "oses": 6176,
      "Ġsurviv": 6177,
      "Ġaccoun": 6178,
      "iO": 6179,
      "Ġbegin": 6180,
      "Ġtwice": 6181,
      "Ġdent": 6182,
      "Ġ57": 6183,
      "Ġretic": 6184,
      "entific": 6185,
      "Ġpump": 6186,
      "Ġvariance": 6187,
      "Ġdiscre": 6188,
      "Ġrestor": 6189,
      "linear": 6190,
      "âĢ": 6191,
      "Ġspeed": 6192,
      "lo": 6193,
      "ĠSA": 6194,
      "plate": 6195,
      "Ġserve": 6196,
      "Ġterminal": 6197,
      "ady": 6198,
      "ifer": 6199,
      "oglyc": 6200,
      "Ġsubcutaneous": 6201,
      "etermin": 6202,
      "Ġperception": 6203,
      "Ġsensor": 6204,
      "Ġabuse": 6205,
      "Ġquantum": 6206,
      "Ġswit": 6207,
      "enetic": 6208,
      "ĠPost": 6209,
      "Ġdepends": 6210,
      "Ġdimin": 6211,
      "Ġautoimmune": 6212,
      "Ġcutaneous": 6213,
      "Ġadop": 6214,
      "Ġdip": 6215,
      "ister": 6216,
      "Ġcul": 6217,
      "ĠSignificant": 6218,
      "Ġalways": 6219,
      "tructural": 6220,
      "Ġexpansion": 6221,
      "ĠOut": 6222,
      "uron": 6223,
      "Ġserot": 6224,
      "Ġdepth": 6225,
      "Ġelevation": 6226,
      "BT": 6227,
      "ware": 6228,
      "rospective": 6229,
      "Ġgreen": 6230,
      "Ġrobust": 6231,
      "Ġfever": 6232,
      "ĠMic": 6233,
      "Ġrural": 6234,
      "ĠkDa": 6235,
      "ĠEach": 6236,
      "rombin": 6237,
      "idase": 6238,
      "Ġpairs": 6239,
      "Ġpredictor": 6240,
      "inea": 6241,
      "Ġ62": 6242,
      "Ġdraw": 6243,
      "Ġju": 6244,
      "Ġtex": 6245,
      "Ġcommercial": 6246,
      "Ġcorrection": 6247,
      "olum": 6248,
      "RR": 6249,
      "ĠAccording": 6250,
      "come": 6251,
      "ĠFive": 6252,
      "life": 6253,
      "HO": 6254,
      "Ġavailability": 6255,
      "bi": 6256,
      "heres": 6257,
      "Ġblocked": 6258,
      "Ġtranscriptional": 6259,
      "Ġconserved": 6260,
      "IA": 6261,
      "aspase": 6262,
      "uth": 6263,
      "MV": 6264,
      "idin": 6265,
      "Ġinjections": 6266,
      "Ġtransfusion": 6267,
      "Ġabsolute": 6268,
      "Ġchloride": 6269,
      "Ġcarry": 6270,
      "dex": 6271,
      "Ġester": 6272,
      "ritic": 6273,
      "Ġuterine": 6274,
      "rene": 6275,
      "py": 6276,
      "ĠLDL": 6277,
      "Ġdistributed": 6278,
      "dibular": 6279,
      "Ġadjacent": 6280,
      "Ġunus": 6281,
      "Ġdelta": 6282,
      "tet": 6283,
      "ĠSuch": 6284,
      "Ġacqu": 6285,
      "Ġtranspor": 6286,
      "Ġembryonic": 6287,
      "Ġkind": 6288,
      "Ġproton": 6289,
      "Ġreferred": 6290,
      "chymal": 6291,
      "ĠJapanese": 6292,
      "ĠIf": 6293,
      "Ġmanip": 6294,
      "Ġspine": 6295,
      "sian": 6296,
      "Ġrup": 6297,
      "ĠBr": 6298,
      "ĠIntern": 6299,
      "Ġindices": 6300,
      "ono": 6301,
      "Ġeconomic": 6302,
      "Ġadjusted": 6303,
      "arin": 6304,
      "atig": 6305,
      "Ġhypertensive": 6306,
      "ĠPET": 6307,
      "Ġhemodynamic": 6308,
      "Ġflav": 6309,
      "ĠMD": 6310,
      "Ġundert": 6311,
      "aric": 6312,
      "Ġcirrh": 6313,
      "ausal": 6314,
      "Ġerrors": 6315,
      "prot": 6316,
      "Ġname": 6317,
      "Ġplacement": 6318,
      "Ġinsertion": 6319,
      "aturation": 6320,
      "Ġattenuated": 6321,
      "Ġadvances": 6322,
      "Ġinverse": 6323,
      "Ġleaf": 6324,
      "Ġ120": 6325,
      "Ag": 6326,
      "ĠInf": 6327,
      "acted": 6328,
      "ĠPar": 6329,
      "ĠCancer": 6330,
      "Ġbias": 6331,
      "ĠÂ": 6332,
      "Ġthoracic": 6333,
      "Ġcounts": 6334,
      "Ġ63": 6335,
      "Ġimmunosup": 6336,
      "ocular": 6337,
      "titis": 6338,
      "Ġsupplementation": 6339,
      "ĠDecember": 6340,
      "Ġprofessional": 6341,
      "Ġpolicy": 6342,
      "Ġenzymatic": 6343,
      "TR": 6344,
      "Ġuns": 6345,
      "Ġexcess": 6346,
      "Ġfilms": 6347,
      "tumor": 6348,
      "Ġfilm": 6349,
      "Ġmim": 6350,
      "irc": 6351,
      "Ġoperating": 6352,
      "Ġasymptomatic": 6353,
      "Ġpelvic": 6354,
      "Ġpredominantly": 6355,
      "Ġrecovered": 6356,
      "RNAs": 6357,
      "Ne": 6358,
      "Ġexaminations": 6359,
      "Ġduct": 6360,
      "ps": 6361,
      "Ġaz": 6362,
      "oul": 6363,
      "cm": 6364,
      "Ġseparated": 6365,
      "Ġsymp": 6366,
      "Ġcomorb": 6367,
      "Ġ67": 6368,
      "Ġtake": 6369,
      "',": 6370,
      "aceu": 6371,
      "Ġtasks": 6372,
      "blind": 6373,
      "ĠNK": 6374,
      "Ġpall": 6375,
      "Ġpenet": 6376,
      "Ġpreliminary": 6377,
      "ners": 6378,
      "tivation": 6379,
      "Ġfist": 6380,
      "ĠEnd": 6381,
      "Ġresidents": 6382,
      "Ġeasily": 6383,
      "Ġfetus": 6384,
      "rimary": 6385,
      "Ġkinetic": 6386,
      "atigue": 6387,
      "Ġpotassium": 6388,
      "ĠFif": 6389,
      "ĠAS": 6390,
      "ND": 6391,
      "uscular": 6392,
      "Ġdepressive": 6393,
      "Ġnegatively": 6394,
      "ypical": 6395,
      "Ġfocal": 6396,
      "ĠELISA": 6397,
      "Ġpyl": 6398,
      "Ġcontents": 6399,
      "ĠVEGF": 6400,
      "nia": 6401,
      "Ġlumbar": 6402,
      "Ġsubstances": 6403,
      "Ġviruses": 6404,
      "Ġesophageal": 6405,
      "NH": 6406,
      "Ġencoun": 6407,
      "grad": 6408,
      "Ġflap": 6409,
      "ĠDep": 6410,
      "Ġrecru": 6411,
      "Ġextremely": 6412,
      "Ġstrom": 6413,
      "ĠMet": 6414,
      "ector": 6415,
      "Ġintram": 6416,
      "atif": 6417,
      "Ġphoto": 6418,
      "Ġstandardized": 6419,
      "tructure": 6420,
      "ureus": 6421,
      "Ġlayers": 6422,
      "MRI": 6423,
      "ĠMg": 6424,
      "Ġ66": 6425,
      "edic": 6426,
      "Ġmitochondria": 6427,
      "MB": 6428,
      "Ġdetectable": 6429,
      "igible": 6430,
      "Ġphosphatase": 6431,
      "Ġrefer": 6432,
      "Ġmax": 6433,
      "Ġissue": 6434,
      "Ġgonad": 6435,
      "Ġanaest": 6436,
      "Ġsolvent": 6437,
      "Ġidentifying": 6438,
      "Ġadjuvant": 6439,
      "ĠHCV": 6440,
      "ofil": 6441,
      "Ġinfluenza": 6442,
      "Ġmanifestations": 6443,
      "ĠNAD": 6444,
      "arrow": 6445,
      "Ġpercutaneous": 6446,
      "ĠAlzheimer": 6447,
      "Ġspleen": 6448,
      "Ġsera": 6449,
      "Ġrequirements": 6450,
      "ĠAnti": 6451,
      "Ġputative": 6452,
      "Ġinhal": 6453,
      "etin": 6454,
      "four": 6455,
      "ĠMAP": 6456,
      "lyce": 6457,
      "ĠCan": 6458,
      "Ġadenocarcinoma": 6459,
      "EV": 6460,
      "Ġcapillary": 6461,
      "Ġcorneal": 6462,
      "Ġparad": 6463,
      "erate": 6464,
      "yte": 6465,
      "Ġimmobil": 6466,
      "vents": 6467,
      "ramatic": 6468,
      "Ġdecreasing": 6469,
      "ubated": 6470,
      "rab": 6471,
      "ĠSerum": 6472,
      "Ġthereby": 6473,
      "Ġdefine": 6474,
      "Ġdiver": 6475,
      "Ġmeet": 6476,
      "Ġsclerosis": 6477,
      "ocortic": 6478,
      "ophilic": 6479,
      "Ġmethodology": 6480,
      "ocomp": 6481,
      "Ġanalytical": 6482,
      "Ġimplicated": 6483,
      "PH": 6484,
      "uments": 6485,
      "CSF": 6486,
      "uf": 6487,
      "Ġtrache": 6488,
      "ĠDoppler": 6489,
      "Ġloop": 6490,
      "thel": 6491,
      "ĠSouth": 6492,
      "nel": 6493,
      "ether": 6494,
      "Ġmaturation": 6495,
      "Ġusers": 6496,
      "dep": 6497,
      "ulative": 6498,
      "Ġefforts": 6499,
      "ĠSm": 6500,
      "Ġsuperf": 6501,
      "Ġexpect": 6502,
      "acco": 6503,
      "Ġveh": 6504,
      "Ġuncertain": 6505,
      "Ġmol": 6506,
      "ĠTheir": 6507,
      "ĠÎ¼g": 6508,
      "ocys": 6509,
      "Ġnutritional": 6510,
      "vance": 6511,
      "Ġprecursor": 6512,
      "Ġcontinued": 6513,
      "Ġcardiomy": 6514,
      "Ġcollection": 6515,
      "ietic": 6516,
      "Ġdrop": 6517,
      "Ġgrafts": 6518,
      "Ġablation": 6519,
      "tral": 6520,
      "Ġ68": 6521,
      "Ġaggressive": 6522,
      "ĠRecent": 6523,
      "Ġbiomarkers": 6524,
      "Ġintroduction": 6525,
      "uding": 6526,
      "Ġtib": 6527,
      "Ġpol": 6528,
      "iness": 6529,
      "Ġinterferon": 6530,
      "oyl": 6531,
      "Ġrestriction": 6532,
      "Ġinfluences": 6533,
      "Ġastro": 6534,
      "rowth": 6535,
      "Ġrequiring": 6536,
      "Ġfabric": 6537,
      "Ġiod": 6538,
      "GT": 6539,
      "Ġimmunity": 6540,
      "ĠMI": 6541,
      "ĠEight": 6542,
      "Ġdrinking": 6543,
      "Ġ59": 6544,
      "Ġheparin": 6545,
      "Ġinferior": 6546,
      "Ġclusters": 6547,
      "Ġaureus": 6548,
      "sions": 6549,
      "Ġvaluable": 6550,
      "Ġ61": 6551,
      "Ġaims": 6552,
      "Fe": 6553,
      "ĠDM": 6554,
      "Ġnearly": 6555,
      "tures": 6556,
      "ĠHA": 6557,
      "otroph": 6558,
      "Ġperf": 6559,
      "Ġemphas": 6560,
      "ĠHist": 6561,
      "onuclear": 6562,
      "ocon": 6563,
      "Ġcompression": 6564,
      "Ġpredicting": 6565,
      "Ġhex": 6566,
      "umab": 6567,
      "Ġdramatic": 6568,
      "tisol": 6569,
      "Ġdeficits": 6570,
      "agland": 6571,
      "Ġms": 6572,
      "ameth": 6573,
      "Ġseizures": 6574,
      "Ġcausing": 6575,
      "Ar": 6576,
      "formance": 6577,
      "Ġantagonists": 6578,
      "Ġmovements": 6579,
      "igen": 6580,
      "onography": 6581,
      "oxin": 6582,
      "Ġrelapse": 6583,
      "Ġhard": 6584,
      "Ġmucosal": 6585,
      "ĠÃĹ": 6586,
      "ĠOther": 6587,
      "Ġadenosine": 6588,
      "trover": 6589,
      "Ġimprovements": 6590,
      "phy": 6591,
      "actor": 6592,
      "ocellular": 6593,
      "Ġlanguage": 6594,
      "Ġsurveillance": 6595,
      "Ġexce": 6596,
      "ĠDise": 6597,
      "oglobulin": 6598,
      "ĠPG": 6599,
      "002": 6600,
      "Ġregeneration": 6601,
      "Ġdistress": 6602,
      "Ġreasons": 6603,
      "Ġlipids": 6604,
      "Ġregulate": 6605,
      "platin": 6606,
      "orty": 6607,
      "Ġcompli": 6608,
      "ana": 6609,
      "Ġcold": 6610,
      "athetic": 6611,
      "Ġpermeability": 6612,
      "Ġundertaken": 6613,
      "load": 6614,
      "oor": 6615,
      "Ġket": 6616,
      "HF": 6617,
      "Ġcry": 6618,
      "isons": 6619,
      "Ġdiffuse": 6620,
      "Ġ(>": 6621,
      "Ġwithdraw": 6622,
      "Ġadaptation": 6623,
      "ready": 6624,
      "Ġcompens": 6625,
      "acillus": 6626,
      "ĠPV": 6627,
      "Ġperitoneal": 6628,
      "Ġexcit": 6629,
      "Ġincreasingly": 6630,
      "rared": 6631,
      "fort": 6632,
      "Ġincorporation": 6633,
      "ĠIR": 6634,
      "Ġ500": 6635,
      "Ġrod": 6636,
      "osome": 6637,
      "Ġgestation": 6638,
      "Ġestimation": 6639,
      "Ġarticles": 6640,
      "metry": 6641,
      "kappa": 6642,
      "Ġadherence": 6643,
      "Ġvessel": 6644,
      "adj": 6645,
      "Ġbiopsies": 6646,
      "Ġcation": 6647,
      "Ġbip": 6648,
      "mented": 6649,
      "Ġtoxin": 6650,
      "Ġoptions": 6651,
      "Ġlymphocyte": 6652,
      "Ġdifferentiated": 6653,
      "Ġcategories": 6654,
      "Ġglutamate": 6655,
      "oded": 6656,
      "ĠParticip": 6657,
      "otoxin": 6658,
      "Ġbeam": 6659,
      "Ġmostly": 6660,
      "ĠnM": 6661,
      "atidyl": 6662,
      "Ġhighlight": 6663,
      "Ġtestosterone": 6664,
      "Ġangiotensin": 6665,
      "fe": 6666,
      "ĠmmHg": 6667,
      "Ġanastom": 6668,
      "ĠGl": 6669,
      "ĠQu": 6670,
      "Ġprogen": 6671,
      "Ġreporting": 6672,
      "rele": 6673,
      "yzed": 6674,
      "ĠLC": 6675,
      "Ġglass": 6676,
      "aturated": 6677,
      "Ġheterogeneity": 6678,
      "Ġarrest": 6679,
      "inn": 6680,
      "Ġelectrode": 6681,
      "pecific": 6682,
      "Ġgave": 6683,
      "Ġrestricted": 6684,
      "ĠControl": 6685,
      "Ġexistence": 6686,
      "Ġinner": 6687,
      "Ġexpressing": 6688,
      "Ġcontraction": 6689,
      "08": 6690,
      "changed": 6691,
      "Ġinters": 6692,
      "Ġconfig": 6693,
      "Ġsets": 6694,
      "07": 6695,
      "ĠAlso": 6696,
      "adian": 6697,
      "xt": 6698,
      "Ġcleavage": 6699,
      "ĠHPV": 6700,
      "Ġremark": 6701,
      "Ġbodies": 6702,
      "Ġrupture": 6703,
      "Ġcirculation": 6704,
      "Ġcorrelate": 6705,
      "Ġ2010": 6706,
      "iasis": 6707,
      "Ġorb": 6708,
      "omonas": 6709,
      "Ġperspective": 6710,
      "ceptions": 6711,
      "ozo": 6712,
      "ĠOb": 6713,
      "ofl": 6714,
      "Ġintraoperative": 6715,
      "Ġtrends": 6716,
      "Ġlamin": 6717,
      "Ġburn": 6718,
      "Ġevident": 6719,
      "alities": 6720,
      "appro": 6721,
      "Ġrecruited": 6722,
      "Ġchains": 6723,
      "err": 6724,
      "Ġcomput": 6725,
      "ubi": 6726,
      "Ġjud": 6727,
      "Ġdepartment": 6728,
      "asty": 6729,
      "ON": 6730,
      "ĠHF": 6731,
      "ĠGerman": 6732,
      "uity": 6733,
      "anges": 6734,
      "ience": 6735,
      "Ġgreatly": 6736,
      "aro": 6737,
      "ĠNH": 6738,
      "Ġutility": 6739,
      "Ġlive": 6740,
      "OM": 6741,
      "Ġrheumat": 6742,
      "Ġscientific": 6743,
      "Ġevoked": 6744,
      "pi": 6745,
      "Ġchond": 6746,
      "drug": 6747,
      "ears": 6748,
      "Ġgall": 6749,
      "RD": 6750,
      "Res": 6751,
      "Ġmast": 6752,
      "Ġreversed": 6753,
      "Ġgenerate": 6754,
      "assisted": 6755,
      "Ġcarbohydr": 6756,
      "Ġalready": 6757,
      "Ġnanos": 6758,
      "Ġallergic": 6759,
      "ograft": 6760,
      "Ġages": 6761,
      "Ġosc": 6762,
      "ĠElec": 6763,
      "Ġprotocols": 6764,
      "sessment": 6765,
      "Ġlocus": 6766,
      "razil": 6767,
      "AI": 6768,
      "opoietic": 6769,
      "Ġauditory": 6770,
      "Ġorientation": 6771,
      "Ġdeletion": 6772,
      "Ġcytoplasmic": 6773,
      "ou": 6774,
      "Ġtraits": 6775,
      "heses": 6776,
      "Ġyielded": 6777,
      "earing": 6778,
      "posite": 6779,
      "face": 6780,
      "Ġstom": 6781,
      "Ġhemoglobin": 6782,
      "une": 6783,
      "Ġdissection": 6784,
      "auc": 6785,
      "Ġsubjective": 6786,
      "luorescence": 6787,
      "Ġlabeled": 6788,
      "Ġmiss": 6789,
      "Ġnicot": 6790,
      "Ġpathogen": 6791,
      "Ġetiology": 6792,
      "Ġreviews": 6793,
      "ĠcAMP": 6794,
      "Ġvesicles": 6795,
      "ractory": 6796,
      "Ġaneurysm": 6797,
      "Ġ150": 6798,
      "Ġschem": 6799,
      "Ġretr": 6800,
      "OF": 6801,
      "Ġmobility": 6802,
      "Ġunusual": 6803,
      "aped": 6804,
      "alse": 6805,
      "Ġfeedback": 6806,
      "sup": 6807,
      "aints": 6808,
      "pers": 6809,
      "LL": 6810,
      "Ġleak": 6811,
      "hanced": 6812,
      "armac": 6813,
      "ivered": 6814,
      "Ġtel": 6815,
      "Rs": 6816,
      "controlled": 6817,
      "Ġsemi": 6818,
      "Ġglycoprotein": 6819,
      "adic": 6820,
      "tiple": 6821,
      "Ġtob": 6822,
      "Ġnov": 6823,
      "Ġattack": 6824,
      "ibration": 6825,
      "osed": 6826,
      "Ġidi": 6827,
      "Ġmedications": 6828,
      "ĠAMP": 6829,
      "Ġeosin": 6830,
      "isition": 6831,
      "Ġhormones": 6832,
      "Ġdecom": 6833,
      "pm": 6834,
      "oscopic": 6835,
      "Ġocular": 6836,
      "agul": 6837,
      "Ġblack": 6838,
      "Ġdescrip": 6839,
      "Ġartificial": 6840,
      "Ġuncom": 6841,
      "ont": 6842,
      "with": 6843,
      "Ġsti": 6844,
      "ĠMA": 6845,
      "Ġacetate": 6846,
      "embrane": 6847,
      "ĠLH": 6848,
      "ffici": 6849,
      "Ġfewer": 6850,
      "iae": 6851,
      "Ġpathogens": 6852,
      "Ġmono": 6853,
      "Ġadjustment": 6854,
      "elled": 6855,
      "Ġbis": 6856,
      "Ġparts": 6857,
      "azine": 6858,
      "PG": 6859,
      "Ġbiology": 6860,
      "Ġdiffered": 6861,
      "ote": 6862,
      "Ġ300": 6863,
      "Ġsched": 6864,
      "deficient": 6865,
      "Ġimproves": 6866,
      "Ġword": 6867,
      "Ġtrue": 6868,
      "Ġps": 6869,
      "Ġsocio": 6870,
      "asic": 6871,
      "Ġutilized": 6872,
      "areness": 6873,
      "rapeutic": 6874,
      "Ġrepro": 6875,
      "Ġcontrover": 6876,
      "Ġhor": 6877,
      "Ġhydrolysis": 6878,
      "Ġspermat": 6879,
      "uation": 6880,
      "Ġammon": 6881,
      "Ġidenti": 6882,
      "Ġblue": 6883,
      "DH": 6884,
      "Ġscaff": 6885,
      "henyl": 6886,
      "atile": 6887,
      "igm": 6888,
      "Ġatroph": 6889,
      "Ġcandidate": 6890,
      "Ġunilateral": 6891,
      "bound": 6892,
      "Ġarthro": 6893,
      "thern": 6894,
      "ymmetric": 6895,
      "Ġmapping": 6896,
      "Ġdistinguish": 6897,
      "Ġdetecting": 6898,
      "DG": 6899,
      "velopment": 6900,
      "Ġcompl": 6901,
      "ĠAfrican": 6902,
      "Ġcomplicated": 6903,
      "Ġviol": 6904,
      "virus": 6905,
      "+,": 6906,
      "Es": 6907,
      "fficients": 6908,
      "ĠPark": 6909,
      "amental": 6910,
      "Ġtax": 6911,
      "Ġveget": 6912,
      "Ġindicators": 6913,
      "rown": 6914,
      "hyper": 6915,
      "itor": 6916,
      "Ġprofessionals": 6917,
      "Ġfeasibility": 6918,
      "hene": 6919,
      "Ġwar": 6920,
      "unced": 6921,
      "Ġfatigue": 6922,
      "CAM": 6923,
      "005": 6924,
      "Ġremod": 6925,
      "Ġpractition": 6926,
      "Ġformal": 6927,
      "Ġattitudes": 6928,
      "ĠBrazil": 6929,
      "Ġrelie": 6930,
      "tes": 6931,
      "saccharide": 6932,
      "ulties": 6933,
      "Ġindications": 6934,
      "Ġpert": 6935,
      "Ġgap": 6936,
      "Ġitems": 6937,
      "Ġvide": 6938,
      "ĠGABA": 6939,
      "ĠMa": 6940,
      "orbed": 6941,
      "Ġparticipation": 6942,
      "Ġ71": 6943,
      "Ġhr": 6944,
      "plasty": 6945,
      "Ġhippocampus": 6946,
      "Ġdiets": 6947,
      "NOS": 6948,
      "ĠNon": 6949,
      "Ġexpress": 6950,
      "Ġtension": 6951,
      "Ġintrinsic": 6952,
      "Ġclosure": 6953,
      "Ġball": 6954,
      "acterial": 6955,
      "athyroid": 6956,
      "ĠForty": 6957,
      "Ġtele": 6958,
      "Ġvaginal": 6959,
      "Ġstri": 6960,
      "Ġintest": 6961,
      "Ġgover": 6962,
      "Ġlactate": 6963,
      "Ġhistor": 6964,
      "Ġrelevance": 6965,
      "Ġcystic": 6966,
      "ĠBet": 6967,
      "rected": 6968,
      "Ġvalidation": 6969,
      "isting": 6970,
      "sw": 6971,
      "Ġdegeneration": 6972,
      "Ġmonke": 6973,
      "Ġsheep": 6974,
      "Ġitself": 6975,
      "Ġdiastolic": 6976,
      "Ġrejection": 6977,
      "Ġclassical": 6978,
      "Ġclasses": 6979,
      "Ġsteady": 6980,
      "Ġoverexpression": 6981,
      "ĠFollowing": 6982,
      "Ġbey": 6983,
      "RACT": 6984,
      "Ġtooth": 6985,
      "Ġbeyond": 6986,
      "Ġauthor": 6987,
      "esterone": 6988,
      "Ġneither": 6989,
      "UV": 6990,
      "Ġintegration": 6991,
      "Ġdimensions": 6992,
      "ying": 6993,
      "Ġedema": 6994,
      "Ġtransgenic": 6995,
      "Ġinsights": 6996,
      "Ġcaspase": 6997,
      "Ġmethylation": 6998,
      "ĠAA": 6999,
      "five": 7000,
      "Ġcompliance": 7001,
      "ming": 7002,
      "ediatric": 7003,
      "TS": 7004,
      "Ġprogesterone": 7005,
      "ĠCare": 7006,
      "electric": 7007,
      "Ġcum": 7008,
      "Ġcoefficients": 7009,
      "idae": 7010,
      "ysical": 7011,
      "Ġparent": 7012,
      "oprot": 7013,
      "Ġgenotypes": 7014,
      "Ġimmuno": 7015,
      "iples": 7016,
      "Ġpositions": 7017,
      "Ġmalignancy": 7018,
      "Ġeducational": 7019,
      "ulates": 7020,
      "atings": 7021,
      "Ġmicroscopic": 7022,
      "oes": 7023,
      "Ġsimulated": 7024,
      "Ġmonol": 7025,
      "dentif": 7026,
      "Ġsepsis": 7027,
      "Ġcortisol": 7028,
      "Ġdelivered": 7029,
      "09": 7030,
      "reported": 7031,
      "Ġexogenous": 7032,
      "rug": 7033,
      "eal": 7034,
      "ervative": 7035,
      "Ġ78": 7036,
      "Ġheterogeneous": 7037,
      "Am": 7038,
      "Ġgestational": 7039,
      "Ġ2009": 7040,
      "iction": 7041,
      "Ġinterpretation": 7042,
      "nea": 7043,
      "romes": 7044,
      "Ġamplification": 7045,
      "Ġplasmid": 7046,
      "urity": 7047,
      "Ġdosage": 7048,
      "inate": 7049,
      "Ġcheck": 7050,
      "odil": 7051,
      "Ġtrap": 7052,
      "Ġunchanged": 7053,
      "EN": 7054,
      "Ig": 7055,
      "generative": 7056,
      "educ": 7057,
      "ĠAV": 7058,
      "Ġoccupational": 7059,
      "Ġexcluded": 7060,
      "Ġoffers": 7061,
      "nat": 7062,
      "Ġpilot": 7063,
      "Ġfrontal": 7064,
      "ĠCK": 7065,
      "Ġteam": 7066,
      "Ġleaves": 7067,
      "ozygous": 7068,
      "Ġstart": 7069,
      "Ġsym": 7070,
      "Ġsituation": 7071,
      "otides": 7072,
      "Ġoxidase": 7073,
      "Ġamyloid": 7074,
      "Ġcreatinine": 7075,
      "Ġisot": 7076,
      "Ġinsight": 7077,
      "ĠCSF": 7078,
      "ĠMy": 7079,
      "Ġchamb": 7080,
      "Ġgrown": 7081,
      "ensities": 7082,
      "lif": 7083,
      "Ġtechnical": 7084,
      "actant": 7085,
      "poses": 7086,
      "going": 7087,
      "ademic": 7088,
      "Ġgirls": 7089,
      "Ġquantification": 7090,
      "ĠPF": 7091,
      "ĠCC": 7092,
      "Ġsul": 7093,
      "ĠNS": 7094,
      "Ġmyc": 7095,
      "ĠSup": 7096,
      "lution": 7097,
      "ĠParticipants": 7098,
      "ulose": 7099,
      "entry": 7100,
      "Ġpreventing": 7101,
      "Ġbon": 7102,
      "ascul": 7103,
      "wave": 7104,
      "adily": 7105,
      "Ġresear": 7106,
      "regn": 7107,
      "Ġplat": 7108,
      "Ġscales": 7109,
      "Ġprono": 7110,
      "peritoneal": 7111,
      "Ġdigital": 7112,
      "herent": 7113,
      "Ġalign": 7114,
      "Ġprecip": 7115,
      "Ġacquisition": 7116,
      "Ġ&": 7117,
      "odef": 7118,
      "antitative": 7119,
      "Ġmorphine": 7120,
      "Ġpylori": 7121,
      "Ġlost": 7122,
      "ĠRet": 7123,
      "tual": 7124,
      "Ġextrem": 7125,
      "Ġsynaptic": 7126,
      "Ġcond": 7127,
      "Ġpronounced": 7128,
      "Ġbiosynthesis": 7129,
      "Ġdeform": 7130,
      "Ġpi": 7131,
      "Ġlik": 7132,
      "ĠTA": 7133,
      "Ġdirected": 7134,
      "Ġconduct": 7135,
      "Ġ86": 7136,
      "Ġhyd": 7137,
      "affec": 7138,
      "ventive": 7139,
      "Ġserotonin": 7140,
      "ethylene": 7141,
      "Ġ69": 7142,
      "Ġguinea": 7143,
      "Ġmodifications": 7144,
      "ometer": 7145,
      "Ġ76": 7146,
      "Ġencephal": 7147,
      "Ġhypothesized": 7148,
      "Ġtryp": 7149,
      "Ġplatelets": 7150,
      "Ġmicrobi": 7151,
      "Ġplaque": 7152,
      "Ġoption": 7153,
      "ĠHb": 7154,
      "Ġ73": 7155,
      "trophic": 7156,
      "glyc": 7157,
      "Ġsn": 7158,
      "Ġaccom": 7159,
      "Ġrig": 7160,
      "iol": 7161,
      "Ġproducing": 7162,
      "Ġdiscontin": 7163,
      "ĠMeth": 7164,
      "Ġprotease": 7165,
      "Ġsoftware": 7166,
      "Ġresidue": 7167,
      "labeled": 7168,
      "Ġarray": 7169,
      "Ġapoptotic": 7170,
      "ĠMP": 7171,
      "Ġbeginning": 7172,
      "Ġtro": 7173,
      "Ġones": 7174,
      "]-": 7175,
      "vidence": 7176,
      "Ġinterviews": 7177,
      "Ġdup": 7178,
      "Ġ(<": 7179,
      "Ġcareful": 7180,
      "encephal": 7181,
      "Ġce": 7182,
      "cardi": 7183,
      "Ġpreterm": 7184,
      "acial": 7185,
      "ĠResearch": 7186,
      "ĠBlood": 7187,
      "titial": 7188,
      "amil": 7189,
      "ĠSR": 7190,
      "Ġcombinations": 7191,
      "Ġpostm": 7192,
      "phthal": 7193,
      "Ġgerm": 7194,
      "Ġdeviation": 7195,
      "Ġperfor": 7196,
      "Ġphyt": 7197,
      "disc": 7198,
      "Ġembryo": 7199,
      "Ġexcision": 7200,
      "prop": 7201,
      "Ġregulating": 7202,
      "hea": 7203,
      "Ġemerging": 7204,
      "Ġtobacco": 7205,
      "asing": 7206,
      "Ġperman": 7207,
      "ush": 7208,
      "Ġprospectively": 7209,
      "EL": 7210,
      "na": 7211,
      "fish": 7212,
      "Ġsizes": 7213,
      "Ġstratif": 7214,
      "Ġcommunities": 7215,
      "ods": 7216,
      "cellular": 7217,
      "ylase": 7218,
      "Ġtriglycer": 7219,
      "ĠDR": 7220,
      "Ġfalse": 7221,
      "ĠTB": 7222,
      "ensor": 7223,
      "STRACT": 7224,
      "Ġsusceptible": 7225,
      "Ġatherosclerosis": 7226,
      "Ġclones": 7227,
      "ought": 7228,
      "Ġintracranial": 7229,
      "Ġ2005": 7230,
      "Ġuniform": 7231,
      "ads": 7232,
      "factor": 7233,
      "matched": 7234,
      "istent": 7235,
      "Ġphotos": 7236,
      "ĠHCC": 7237,
      "independent": 7238,
      "Ġsubunits": 7239,
      "rectomy": 7240,
      "Ġcontamination": 7241,
      "Ġaorta": 7242,
      "amily": 7243,
      "Clinical": 7244,
      "Ġconsensus": 7245,
      "ĠHep": 7246,
      "ĠLow": 7247,
      "ABSTRACT": 7248,
      "Ġscar": 7249,
      "Ġyields": 7250,
      "Ġhippocampal": 7251,
      "ĠIts": 7252,
      "olol": 7253,
      "orp": 7254,
      "Ġmotif": 7255,
      "Ġ92": 7256,
      "Ġ83": 7257,
      "gram": 7258,
      "Ġhomogene": 7259,
      "Ġvoltage": 7260,
      "Ġretrie": 7261,
      "abs": 7262,
      "Ġcapture": 7263,
      "Ġabol": 7264,
      "hern": 7265,
      "kle": 7266,
      "Ġunex": 7267,
      "Ġlith": 7268,
      "tiary": 7269,
      "Ġconsists": 7270,
      "ional": 7271,
      "Ġsurrounding": 7272,
      "Ġ77": 7273,
      "Ġalkaline": 7274,
      "rays": 7275,
      "Ġregimens": 7276,
      "Ġland": 7277,
      "odialysis": 7278,
      "Ġselectivity": 7279,
      "Ġ400": 7280,
      "asone": 7281,
      "Ġoperations": 7282,
      "tent": 7283,
      "Ġpromin": 7284,
      "Ġraised": 7285,
      "Ġdifficulties": 7286,
      "Ġ88": 7287,
      "Ġfeasible": 7288,
      ")].": 7289,
      "Ġnever": 7290,
      "Ġrectal": 7291,
      "ĠStudies": 7292,
      "Ġscans": 7293,
      "Ġrotation": 7294,
      "Ġhospitalization": 7295,
      "ĠChildren": 7296,
      "Ġlep": 7297,
      "Ġsubstantially": 7298,
      "Ġ2008": 7299,
      "omorph": 7300,
      "Ġhydrophobic": 7301,
      "olid": 7302,
      "Ġequilibrium": 7303,
      "Ġguide": 7304,
      "Ġ74": 7305,
      "Ġ84": 7306,
      "brain": 7307,
      "Ġexists": 7308,
      "Ġfavorable": 7309,
      "Ġportion": 7310,
      "effective": 7311,
      "Ġpg": 7312,
      "Ġbuil": 7313,
      "Ġstarting": 7314,
      "Ġreflex": 7315,
      "Ġ82": 7316,
      "Ġdiscovery": 7317,
      "enopausal": 7318,
      "Ġclinicians": 7319,
      "Ġnext": 7320,
      "Ġcareg": 7321,
      "ministration": 7322,
      "Ġimmunohistochemical": 7323,
      "Ġfundamental": 7324,
      "Ġ98": 7325,
      "iary": 7326,
      "three": 7327,
      "anic": 7328,
      "uli": 7329,
      "ĠHT": 7330,
      "Ġcreated": 7331,
      "Ġfine": 7332,
      "ĠWOR": 7333,
      "pread": 7334,
      "Ġglycos": 7335,
      "Ġreperfusion": 7336,
      "Ġsupports": 7337,
      "Ġclim": 7338,
      "receptor": 7339,
      "Ġubi": 7340,
      "Ġmolar": 7341,
      "Ġmetabolite": 7342,
      "Ġadaptive": 7343,
      "GS": 7344,
      "Ġabsent": 7345,
      "Med": 7346,
      "Ġsurvivors": 7347,
      "TE": 7348,
      "ĠRadi": 7349,
      "Ġhomeostasis": 7350,
      "Ġallowing": 7351,
      "ĠMan": 7352,
      "elen": 7353,
      "uz": 7354,
      "Ġanatomical": 7355,
      "ks": 7356,
      "Ġimmunodef": 7357,
      "uclear": 7358,
      "Ġtraumatic": 7359,
      "Ġdepletion": 7360,
      "estive": 7361,
      "Ġcorrelates": 7362,
      "Ġtypically": 7363,
      "xin": 7364,
      "Ġexplor": 7365,
      "osus": 7366,
      "apor": 7367,
      "Ġonto": 7368,
      "ĠEEG": 7369,
      "Ġtrack": 7370,
      "RH": 7371,
      "uncture": 7372,
      "Ġautom": 7373,
      "CATED": 7374,
      "amed": 7375,
      "ĠTRUN": 7376,
      "Ġcalled": 7377,
      "median": 7378,
      "ĠTRUNCATED": 7379,
      "ĠNP": 7380,
      "Ġobstructive": 7381,
      "Ġspeech": 7382,
      "Ġsought": 7383,
      "Ġhistologic": 7384,
      "Ġbarriers": 7385,
      "hell": 7386,
      "Ġcows": 7387,
      "ference": 7388,
      "Ġdeb": 7389,
      "Ġulcer": 7390,
      "ĠWORDS": 7391,
      "Ġimmunohistochemistry": 7392,
      "economic": 7393,
      "Ġpent": 7394,
      "Ġreveals": 7395,
      "Ġgrap": 7396,
      "Ġintestine": 7397,
      "osocial": 7398,
      "Ġsimilarity": 7399,
      "Ġexclusive": 7400,
      "asure": 7401,
      "Ġnurse": 7402,
      "Ġidentity": 7403,
      "Two": 7404,
      "da": 7405,
      "itect": 7406,
      "pin": 7407,
      "Ġfa": 7408,
      "lit": 7409,
      "Ġinternational": 7410,
      "Ġcirrhosis": 7411,
      "Ġaid": 7412,
      "Ġechocardiography": 7413,
      "Ġanemia": 7414,
      "ĠStr": 7415,
      "Ġexact": 7416,
      "hospital": 7417,
      "Ġantico": 7418,
      "Ġrecruit": 7419,
      "Ġ2007": 7420,
      "Ġquad": 7421,
      "Ġcoding": 7422,
      "Ġindicator": 7423,
      "Ġsuspension": 7424,
      "Ġinactivation": 7425,
      "Ġderm": 7426,
      "Ġvic": 7427,
      "Ġ2012": 7428,
      "Ġpathogenic": 7429,
      "Ġtach": 7430,
      "Ġproviders": 7431,
      "itting": 7432,
      "Ġdepos": 7433,
      "icep": 7434,
      "Ġvolumes": 7435,
      "Ġlabeling": 7436,
      "elihood": 7437,
      "Ġknock": 7438,
      "Ġsynerg": 7439,
      "Ġinstability": 7440,
      "ĠGu": 7441,
      "ero": 7442,
      "Ġpic": 7443,
      "Gl": 7444,
      "entially": 7445,
      "ĠSecond": 7446,
      "otoxicity": 7447,
      "Ġinterference": 7448,
      "plastic": 7449,
      "Ġtable": 7450,
      "Ġprostagland": 7451,
      "tization": 7452,
      "Ġsupply": 7453,
      "ĠDA": 7454,
      "Ġconcerns": 7455,
      "ĠPos": 7456,
      "ĠSoci": 7457,
      "ĠMn": 7458,
      "Ġportal": 7459,
      "ras": 7460,
      "Ġtransm": 7461,
      "Ġaver": 7462,
      "Ġhapl": 7463,
      "Ġparticipated": 7464,
      "Ġattr": 7465,
      "osan": 7466,
      "Ġionic": 7467,
      "eptides": 7468,
      "Ġenvironments": 7469,
      "Ġhouse": 7470,
      "Ġ2006": 7471,
      "Ġproven": 7472,
      "Ġinfiltration": 7473,
      "oct": 7474,
      "ĠOS": 7475,
      "Ġfollows": 7476,
      "Ġsuffering": 7477,
      "ographs": 7478,
      "Ġloci": 7479,
      "Ġnarrow": 7480,
      "ophyl": 7481,
      "Ġalveolar": 7482,
      "Ġreplac": 7483,
      "lig": 7484,
      "omotor": 7485,
      "adjusted": 7486,
      "Ġcontributes": 7487,
      "Ġattachment": 7488,
      "ardia": 7489,
      "Ġ2011": 7490,
      "Ms": 7491,
      "Ġequation": 7492,
      "DI": 7493,
      "rotic": 7494,
      "Ġouter": 7495,
      "luor": 7496,
      "ices": 7497,
      "Ġepidermal": 7498,
      "ĠEngl": 7499,
      "ĠLi": 7500,
      "Ġelimination": 7501,
      "Ġoptic": 7502,
      "Ġlacking": 7503,
      "Ġunf": 7504,
      "Ġrheumatoid": 7505,
      "Ġteaching": 7506,
      "uality": 7507,
      "Ġversion": 7508,
      "Ġpreced": 7509,
      "Ġreversible": 7510,
      "Ġendocrine": 7511,
      "Ġtranslocation": 7512,
      "Ġgenus": 7513,
      "Ġpremature": 7514,
      "olone": 7515,
      "Ġnanoc": 7516,
      "Ġ97": 7517,
      "Ġcarriers": 7518,
      "Ġflux": 7519,
      "Ġstandards": 7520,
      "-[": 7521,
      "Ġsomat": 7522,
      "Ġendometrial": 7523,
      "Ġscreened": 7524,
      "Ġmodes": 7525,
      "utrition": 7526,
      "Ġblind": 7527,
      "Ġscattering": 7528,
      "Ġcorticoster": 7529,
      "Ġagonists": 7530,
      "Ġopioid": 7531,
      "Ġvehicle": 7532,
      "standing": 7533,
      "Ġgreatest": 7534,
      "Ġprobes": 7535,
      "Ġmetals": 7536,
      "Ġprevalent": 7537,
      "Ġfinger": 7538,
      "Ġempir": 7539,
      "Ġacceptable": 7540,
      "gia": 7541,
      "Ġmitral": 7542,
      "Ġcoverage": 7543,
      "Ġdye": 7544,
      "Ġactual": 7545,
      "obacterium": 7546,
      "ĠMany": 7547,
      "Ġsubtypes": 7548,
      "Ġcarrier": 7549,
      "Ġglands": 7550,
      "ares": 7551,
      "Ġidiopathic": 7552,
      "hep": 7553,
      "rical": 7554,
      "Ġoutpatient": 7555,
      "Ġmonitor": 7556,
      "Per": 7557,
      "Ġconsistently": 7558,
      "ĠHz": 7559,
      "aemic": 7560,
      "Ġobvious": 7561,
      "SO": 7562,
      "oxic": 7563,
      "Ġchanging": 7564,
      "ĠSurve": 7565,
      "Ġimplemented": 7566,
      "Ġcanal": 7567,
      "Ġect": 7568,
      "Ġlibr": 7569,
      "ĠType": 7570,
      "iplinary": 7571,
      "Ġdiagnoses": 7572,
      "Ġcytometry": 7573,
      "Ġworldwide": 7574,
      "ss": 7575,
      "Ġ94": 7576,
      "Ġoscill": 7577,
      "ĠFirst": 7578,
      "Ġxen": 7579,
      "Ġattempt": 7580,
      "Ġpassive": 7581,
      "iments": 7582,
      "opl": 7583,
      "Ġ93": 7584,
      "Ġconcurrent": 7585,
      "ĠParkinson": 7586,
      "orbent": 7587,
      "ait": 7588,
      "Ġepidemiological": 7589,
      "Ġincubated": 7590,
      "field": 7591,
      "alking": 7592,
      "density": 7593,
      "uv": 7594,
      "Ġ81": 7595,
      "Ġcisplatin": 7596,
      "Ġreach": 7597,
      "DT": 7598,
      "Ġfasting": 7599,
      "mut": 7600,
      "Ġuses": 7601,
      "Ġassembly": 7602,
      "Ġfibrillation": 7603,
      "Ġroute": 7604,
      "Ġawareness": 7605,
      "Ġdeterminants": 7606,
      "Ġfluct": 7607,
      "Ġparental": 7608,
      "Ġconsequence": 7609,
      "uly": 7610,
      "Ġmakes": 7611,
      "Ġsolub": 7612,
      "Ġsound": 7613,
      "Ġrefractory": 7614,
      "chain": 7615,
      "Ġcla": 7616,
      "Ġhepatocytes": 7617,
      "Ġresting": 7618,
      "times": 7619,
      "Ġ87": 7620,
      "Ġpregnancies": 7621,
      "ĠÂ°": 7622,
      "emat": 7623,
      "psych": 7624,
      "ĠGC": 7625,
      "Ġnamely": 7626,
      "PL": 7627,
      "Ġinitiated": 7628,
      "Ġrarely": 7629,
      "outhern": 7630,
      "Ġways": 7631,
      "Ġpancreas": 7632,
      "Ġfungal": 7633,
      "Ġchallenging": 7634,
      "Ġquantified": 7635,
      "Ġdescription": 7636,
      "lact": 7637,
      "Ġoperated": 7638,
      "Ġduod": 7639,
      "Ġregardless": 7640,
      "actors": 7641,
      "amus": 7642,
      "Ġile": 7643,
      "ograms": 7644,
      "Ġclosed": 7645,
      "patients": 7646,
      "ocin": 7647,
      "anned": 7648,
      "teral": 7649,
      "six": 7650,
      "Ġdistributions": 7651,
      "ĠCurrent": 7652,
      "ĠPub": 7653,
      "Ġannual": 7654,
      "umatic": 7655,
      "ĠFA": 7656,
      "gel": 7657,
      "Ġmess": 7658,
      "Ġrs": 7659,
      "Ġforces": 7660,
      "Ġdrainage": 7661,
      "Ġdecisions": 7662,
      "chers": 7663,
      "ked": 7664,
      "ĠEffec": 7665,
      "Ġvisits": 7666,
      "Ġatypical": 7667,
      "Ġinhibiting": 7668,
      "Ġadipose": 7669,
      "Ġethyl": 7670,
      "Ġbiliary": 7671,
      "Ġobservational": 7672,
      "oustic": 7673,
      "Ġadolescent": 7674,
      "Ġinvolve": 7675,
      "Ġboys": 7676,
      "Ġ2004": 7677,
      "Ġfatal": 7678,
      "OT": 7679,
      "Ġactivator": 7680,
      "inase": 7681,
      "avail": 7682,
      "ĠNi": 7683,
      "arged": 7684,
      "MDA": 7685,
      "Ġath": 7686,
      "Ġsupporting": 7687,
      "Ns": 7688,
      "Ġmach": 7689,
      "Ġdeterior": 7690,
      "Ġproject": 7691,
      "Ġsympathetic": 7692,
      "ĠGy": 7693,
      "bra": 7694,
      "Ġchor": 7695,
      "Ġfiltration": 7696,
      "atum": 7697,
      ".(": 7698,
      "Ġlarv": 7699,
      "ĠDisease": 7700,
      "Ġneurode": 7701,
      "no": 7702,
      "affected": 7703,
      "Ġformulation": 7704,
      "Ġwet": 7705,
      "Ġneedle": 7706,
      "ĠTest": 7707,
      "Ġaromatic": 7708,
      "ococcal": 7709,
      "Ġprinciples": 7710,
      "Ġsuperoxide": 7711,
      "ĠItal": 7712,
      "Ġderivative": 7713,
      "Ġtor": 7714,
      "ĠHPLC": 7715,
      "nit": 7716,
      "Ġexperimentally": 7717,
      "Ġsubstitution": 7718,
      "Ġlute": 7719,
      "glycer": 7720,
      "Ġalleles": 7721,
      "Ġincom": 7722,
      "PF": 7723,
      "Ġastroc": 7724,
      "hyd": 7725,
      "Ġgal": 7726,
      "Ġreductase": 7727,
      "echn": 7728,
      "Ġ79": 7729,
      "Ġbrom": 7730,
      "Ġoverview": 7731,
      "ĠPr": 7732,
      "TNF": 7733,
      "era": 7734,
      "ophila": 7735,
      "Ġsearc": 7736,
      "Ġsediment": 7737,
      "Ġpostoperatively": 7738,
      "Ġquin": 7739,
      "idespread": 7740,
      "Ġentry": 7741,
      "timal": 7742,
      "Ġsole": 7743,
      "Ġstiff": 7744,
      "Ġlikelihood": 7745,
      "riched": 7746,
      "ĠCNS": 7747,
      "oxacin": 7748,
      "ĠLong": 7749,
      "Ġdecades": 7750,
      "anted": 7751,
      "Ġoptimized": 7752,
      "Ġcloned": 7753,
      "ĠInterest": 7754,
      "ĠPlasma": 7755,
      "Ġabundant": 7756,
      "Ġduc": 7757,
      "Ġcats": 7758,
      "Ġtrim": 7759,
      "Ġfaster": 7760,
      "echanical": 7761,
      "openia": 7762,
      "Ġmotility": 7763,
      "organic": 7764,
      "Ġosteopor": 7765,
      "Ġadren": 7766,
      "rig": 7767,
      "Ġporcine": 7768,
      "Ġimplanted": 7769,
      "Ġvertical": 7770,
      "enchymal": 7771,
      "amycin": 7772,
      "MF": 7773,
      "omeric": 7774,
      "Ġsuicide": 7775,
      "Ġnmol": 7776,
      "agic": 7777,
      "Ġimmunoglobulin": 7778,
      "imental": 7779,
      "Ġquestionnaires": 7780,
      "Ġcattle": 7781,
      "Ġwithdrawal": 7782,
      "Ġsmokers": 7783,
      "Ġ2013": 7784,
      "Ġdiscrimination": 7785,
      "Ġreading": 7786,
      "sequently": 7787,
      "aste": 7788,
      "oulder": 7789,
      "Ġesophag": 7790,
      "Ġprophylaxis": 7791,
      "ll": 7792,
      "opoly": 7793,
      "ĠVari": 7794,
      "Ġobst": 7795,
      "ĠOp": 7796,
      "Ġexpressions": 7797,
      "+-": 7798,
      "Ġcolony": 7799,
      "Ġvaccines": 7800,
      "Ġaberr": 7801,
      "Ġcomplexity": 7802,
      "Ġinsuff": 7803,
      "Ġconstruct": 7804,
      "Ġau": 7805,
      "ĠStaphyl": 7806,
      "Ġbot": 7807,
      "Ġcover": 7808,
      "Ġpostnatal": 7809,
      "Ġconflic": 7810,
      "GC": 7811,
      "Ġequip": 7812,
      "Ġcouns": 7813,
      "rile": 7814,
      "%-": 7815,
      "Ġ91": 7816,
      "Ġhour": 7817,
      "atibility": 7818,
      "ĠTen": 7819,
      "Hy": 7820,
      "Ġfertil": 7821,
      "opy": 7822,
      "ota": 7823,
      "BR": 7824,
      "Ġhepatocellular": 7825,
      "atible": 7826,
      "opes": 7827,
      "Ġcumulative": 7828,
      "Ġmutagen": 7829,
      "Ġdatabases": 7830,
      "aving": 7831,
      "Ġaccep": 7832,
      "Ġabundance": 7833,
      "ĠInstit": 7834,
      "Ġhypertrophy": 7835,
      "ĠLT": 7836,
      "Ġbulk": 7837,
      "ued": 7838,
      "Ġligament": 7839,
      "monella": 7840,
      "oking": 7841,
      "aret": 7842,
      "VI": 7843,
      "alling": 7844,
      "Ġpermanent": 7845,
      "Ġaqu": 7846,
      "Ġsequential": 7847,
      "Ġexplan": 7848,
      "Ġrear": 7849,
      "Ġstomach": 7850,
      "Ġgeneralized": 7851,
      "Although": 7852,
      "Ġdissociation": 7853,
      "ĠEC": 7854,
      "Ġtiming": 7855,
      "break": 7856,
      "erobic": 7857,
      "ĠTotal": 7858,
      "Ġpreferred": 7859,
      "Ġgut": 7860,
      "theless": 7861,
      "Ġimmunodeficiency": 7862,
      "otoxic": 7863,
      "place": 7864,
      "ĠHD": 7865,
      "Ã©": 7866,
      "ĠIndex": 7867,
      "Ġreag": 7868,
      "pes": 7869,
      "osing": 7870,
      "Ġrepresentative": 7871,
      "Ġbiofil": 7872,
      "ĠPseud": 7873,
      "Ġconsideration": 7874,
      "piratory": 7875,
      "Ġemp": 7876,
      "Ġmanaged": 7877,
      "Ġphag": 7878,
      "ĠNot": 7879,
      "Ġlocations": 7880,
      "ĠSF": 7881,
      "Ġselectively": 7882,
      "Ġtertiary": 7883,
      "Ġ125": 7884,
      "Ġ89": 7885,
      "Ġthal": 7886,
      "Ġpharmaceu": 7887,
      "Ġconformation": 7888,
      "Ġaccurately": 7889,
      "Ġcam": 7890,
      "va": 7891,
      "Ġrepresented": 7892,
      "ĠCal": 7893,
      "sil": 7894,
      "ĠHDL": 7895,
      "Ġproduces": 7896,
      "comp": 7897,
      "arp": 7898,
      "RF": 7899,
      "spring": 7900,
      "dic": 7901,
      "Ġeffort": 7902,
      "Ġsyndromes": 7903,
      "olus": 7904,
      "alled": 7905,
      "response": 7906,
      "Ġnerves": 7907,
      "mes": 7908,
      "ĠGra": 7909,
      "ĠRel": 7910,
      "Ġconsiderably": 7911,
      "depress": 7912,
      "It": 7913,
      "ducing": 7914,
      "Ġrespective": 7915,
      "Ġoccas": 7916,
      "Ġvisible": 7917,
      "Ġmember": 7918,
      "Ġsent": 7919,
      "ythem": 7920,
      "ga": 7921,
      "ordance": 7922,
      "Ġmacrophage": 7923,
      "ufact": 7924,
      "iph": 7925,
      "Ġpathologic": 7926,
      "nis": 7927,
      "ura": 7928,
      "oradi": 7929,
      "Ġbrid": 7930,
      "ffe": 7931,
      "imetry": 7932,
      "Ġ2003": 7933,
      "Ġelicited": 7934,
      "ĠInternational": 7935,
      "Ġspi": 7936,
      "Ġencour": 7937,
      "ĠNorth": 7938,
      "PAR": 7939,
      "Ġwidespread": 7940,
      "cious": 7941,
      "ĠSE": 7942,
      "125": 7943,
      "Ġelucidate": 7944,
      "BB": 7945,
      "NC": 7946,
      "Ġatrophy": 7947,
      "Ġsituations": 7948,
      "Ġdev": 7949,
      "ltr": 7950,
      "ĠPrevious": 7951,
      "andem": 7952,
      "Ġsynchron": 7953,
      "echol": 7954,
      "Ġformer": 7955,
      "Ġtendon": 7956,
      "Ġlobe": 7957,
      "Ġcategor": 7958,
      "Ġbed": 7959,
      "esticular": 7960,
      "Ġconsult": 7961,
      "Ġsurgeons": 7962,
      "Ġdim": 7963,
      "Ġenl": 7964,
      "ĠSI": 7965,
      "Ġtransduction": 7966,
      "Ġtechnologies": 7967,
      "Ġpressures": 7968,
      "Inter": 7969,
      "Ġconservative": 7970,
      "Ġmammary": 7971,
      "amethasone": 7972,
      "Ġprecision": 7973,
      "igaret": 7974,
      "Ġoocytes": 7975,
      "ĠHBV": 7976,
      "ĠSC": 7977,
      "Ds": 7978,
      "Ġtopical": 7979,
      "ivariate": 7980,
      "Ġcomparisons": 7981,
      "Hz": 7982,
      "Ġsomatic": 7983,
      "Ġoutside": 7984,
      "Ġcompetitive": 7985,
      "Ġeating": 7986,
      "Ġreadily": 7987,
      "Ġvulner": 7988,
      "Ġ1000": 7989,
      "Ġincre": 7990,
      "oemb": 7991,
      "Ġ2014": 7992,
      "Ġbuffer": 7993,
      "Ġinteract": 7994,
      "Ġreinf": 7995,
      "plication": 7996,
      "azol": 7997,
      "Ġretard": 7998,
      "Ġjust": 7999,
      "fil": 8000,
      "mosp": 8001,
      "Ġperforming": 8002,
      "Ġresponded": 8003,
      "ynthetic": 8004,
      "oxygenase": 8005,
      "Ġchromosomal": 8006,
      "oluble": 8007,
      "disciplinary": 8008,
      "Ġintrav": 8009,
      "Ġdemand": 8010,
      "Ġmalignancies": 8011,
      "Ġprominent": 8012,
      "Ġacidic": 8013,
      "Ġbat": 8014,
      "orld": 8015,
      "Ġlist": 8016,
      "ĠMin": 8017,
      "reactive": 8018,
      "plex": 8019,
      "Ġphenotypes": 8020,
      "herence": 8021,
      "Ġefficiently": 8022,
      "ĠBD": 8023,
      "Ġrespondents": 8024,
      "Ġcontral": 8025,
      "fts": 8026,
      "ĠJune": 8027,
      "Ġcoagulation": 8028,
      "Ġpup": 8029,
      "Ġlargest": 8030,
      "itic": 8031,
      "Ġprincipal": 8032,
      "abolic": 8033,
      "Ġhyperplasia": 8034,
      "Ġcollabor": 8035,
      "ĠIgE": 8036,
      "Ġhistamine": 8037,
      "arter": 8038,
      "ĠPb": 8039,
      "Ġsessions": 8040,
      "plications": 8041,
      "Ġvision": 8042,
      "sulf": 8043,
      "ositol": 8044,
      "Ġtranslation": 8045,
      "Ġgovern": 8046,
      "Ġblockade": 8047,
      "Ġglauc": 8048,
      "ĠStre": 8049,
      "ĠInterestingly": 8050,
      "Ġemerged": 8051,
      "Ġangiogenesis": 8052,
      "zen": 8053,
      "Ġmaintaining": 8054,
      "Ġnonlinear": 8055,
      "Ġneutrophils": 8056,
      "Ġsatisfactory": 8057,
      "Ġstop": 8058,
      "Ġhabit": 8059,
      "Ġinterstitial": 8060,
      "Ġubiquit": 8061,
      "udden": 8062,
      "ynaptic": 8063,
      "Ġbands": 8064,
      "Ġradiographic": 8065,
      "ofluorescence": 8066,
      "lands": 8067,
      "Ġincorporated": 8068,
      "Ġvascul": 8069,
      "Ġongoing": 8070,
      "Ġaccounted": 8071,
      "Ġacademic": 8072,
      "ctomy": 8073,
      "Ġadip": 8074,
      "ĠStaphylococcus": 8075,
      "High": 8076,
      "Ġfo": 8077,
      "Ġstimulate": 8078,
      "dl": 8079,
      "sensitivity": 8080,
      "âĤ": 8081,
      "ometh": 8082,
      "Ġchromosomes": 8083,
      "Ġsph": 8084,
      "Ġdemonstrating": 8085,
      "Ġaddi": 8086,
      "ĠCB": 8087,
      "Ġensure": 8088,
      "Ġreductions": 8089,
      "Ġintegrity": 8090,
      "Wh": 8091,
      "step": 8092,
      "Ġlungs": 8093,
      "Ġtolerated": 8094,
      "Ġmodalities": 8095,
      "eight": 8096,
      "ĠRecently": 8097,
      "Ġassessments": 8098,
      "Ġaddressed": 8099,
      "Ġ2015": 8100,
      "Îº": 8101,
      "Ġmodulate": 8102,
      "inin": 8103,
      "iant": 8104,
      "Ġphylogenetic": 8105,
      "yclic": 8106,
      "cat": 8107,
      "Ġseizure": 8108,
      "adequ": 8109,
      "Ġ2001": 8110,
      "Ġcarbohydrate": 8111,
      "Ġhors": 8112,
      "ĠGF": 8113,
      "Ġventricle": 8114,
      "ĠQues": 8115,
      "elve": 8116,
      "opulmonary": 8117,
      "ycardia": 8118,
      "jun": 8119,
      "pinal": 8120,
      "sial": 8121,
      "hour": 8122,
      "rem": 8123,
      "esium": 8124,
      "Ġspp": 8125,
      "poly": 8126,
      "valence": 8127,
      "Ġcomprised": 8128,
      "Ġshorten": 8129,
      "Ġmodern": 8130,
      "itamin": 8131,
      "Ġphosphatidyl": 8132,
      "Ġneurom": 8133,
      "Ġlec": 8134,
      "Ġcoordination": 8135,
      "idium": 8136,
      "Ġworse": 8137,
      "Ġdiminished": 8138,
      "Ġinducing": 8139,
      "ĠChem": 8140,
      "MO": 8141,
      "tol": 8142,
      "ĠPa": 8143,
      "Ġandrogen": 8144,
      "ĠIU": 8145,
      "fib": 8146,
      "rangement": 8147,
      "Ġ2002": 8148,
      "ev": 8149,
      "ĠSubjec": 8150,
      "Ġstudying": 8151,
      "Ġredox": 8152,
      "Ġdefinition": 8153,
      "Ġstromal": 8154,
      "amination": 8155,
      "Ġlarvae": 8156,
      "kappaB": 8157,
      "Ġhams": 8158,
      "Ġtranscripts": 8159,
      "Ġmedull": 8160,
      "Ġexhibits": 8161,
      "SI": 8162,
      "Ġprenatal": 8163,
      "Ġcontralateral": 8164,
      "ĠAustral": 8165,
      "Ġdiffraction": 8166,
      "Ġborn": 8167,
      "Ġmom": 8168,
      "Ġquantify": 8169,
      "oarth": 8170,
      "Ġtended": 8171,
      "Ġparasite": 8172,
      "Ġextend": 8173,
      "Ġkeratin": 8174,
      "ert": 8175,
      "astatin": 8176,
      "otes": 8177,
      "cepts": 8178,
      "He": 8179,
      "Ġeasy": 8180,
      "Ġdendritic": 8181,
      "apt": 8182,
      "ĠBetween": 8183,
      "Ġglomerular": 8184,
      "viral": 8185,
      "Ġpotency": 8186,
      "Met": 8187,
      "zer": 8188,
      "Ġcomorbid": 8189,
      "partum": 8190,
      "oplasmic": 8191,
      "catal": 8192,
      "Ġdermat": 8193,
      "Î³": 8194,
      "Ġelastic": 8195,
      "Ġglucocortic": 8196,
      "abetic": 8197,
      "ĠFifty": 8198,
      "Ġslic": 8199,
      "Ġrepresenting": 8200,
      "Ġvirul": 8201,
      "ectom": 8202,
      "Ġenhances": 8203,
      "opa": 8204,
      "(-)": 8205,
      "Ġpersonality": 8206,
      "Ġendothelium": 8207,
      "heric": 8208,
      "Ġrhythm": 8209,
      "Ġexcitation": 8210,
      "nitro": 8211,
      "Bi": 8212,
      "ĠSociety": 8213,
      "Ġremodeling": 8214,
      "ĠMay": 8215,
      "Ġbic": 8216,
      "Ġstarted": 8217,
      "There": 8218,
      "Ġcran": 8219,
      "Ġelectric": 8220,
      "Ġpathophysiology": 8221,
      "Ġradial": 8222,
      "helial": 8223,
      "then": 8224,
      "Ġseek": 8225,
      "ards": 8226,
      "ĠMo": 8227,
      "Ġencountered": 8228,
      "acerb": 8229,
      "Ġsecretory": 8230,
      "tem": 8231,
      "ĠEarly": 8232,
      "Ġautologous": 8233,
      "Ser": 8234,
      "PK": 8235,
      "Ġacuity": 8236,
      "ira": 8237,
      "enari": 8238,
      "Ġpapill": 8239,
      "Ġpsychosocial": 8240,
      "Ġanalogues": 8241,
      "Ġcomb": 8242,
      "erating": 8243,
      "ano": 8244,
      "ĠPatient": 8245,
      "Ġemphasis": 8246,
      "rist": 8247,
      "Ġpresum": 8248,
      "Ġengineering": 8249,
      "Ġmanufact": 8250,
      "Ġsummary": 8251,
      "Ġwavel": 8252,
      "ĠDiagn": 8253,
      "Ġureth": 8254,
      "non": 8255,
      "Ġscrew": 8256,
      "Ġisoforms": 8257,
      "Ġneutrophil": 8258,
      "Ġjunction": 8259,
      "Ġprogramme": 8260,
      "Ġ[(": 8261,
      "Ġimmunoreactivity": 8262,
      "003": 8263,
      "ĠSalmonella": 8264,
      "rex": 8265,
      "kelet": 8266,
      "ultural": 8267,
      "iation": 8268,
      "Ġvacu": 8269,
      "Ġfores": 8270,
      "Ġdepressed": 8271,
      "ref": 8272,
      "eded": 8273,
      "Ġoccl": 8274,
      "Ġpreference": 8275,
      "ulture": 8276,
      "Ġchamber": 8277,
      "Ġresponsiveness": 8278,
      "ilization": 8279,
      "Ġstronger": 8280,
      "icardi": 8281,
      "Ġcomplementary": 8282,
      "Na": 8283,
      "odds": 8284,
      "Ġinfiltr": 8285,
      "partic": 8286,
      "Ġrice": 8287,
      "otub": 8288,
      "ysiological": 8289,
      "tidine": 8290,
      "ĠSH": 8291,
      "Ġsuperficial": 8292,
      "Ġlup": 8293,
      "Ġperceptions": 8294,
      "ĠFT": 8295,
      "aman": 8296,
      "Ġborder": 8297,
      "ĠAu": 8298,
      "Ġinside": 8299,
      "uents": 8300,
      "ket": 8301,
      "Ġpriv": 8302,
      "Ġfruit": 8303,
      "enta": 8304,
      "Ġmillion": 8305,
      "Ġmeaning": 8306,
      "Ġconstants": 8307,
      "Ġconsidering": 8308,
      "inyl": 8309,
      "ĠUK": 8310,
      "Ġpharmacokinetic": 8311,
      "ah": 8312,
      "Ġ2016": 8313,
      "Ġpartners": 8314,
      "ĠNeuro": 8315,
      "ubicin": 8316,
      "ĠAIDS": 8317,
      "Ġproliferative": 8318,
      "posure": 8319,
      "vul": 8320,
      "Evaluation": 8321,
      "antic": 8322,
      "fficacy": 8323,
      "Ġprotect": 8324,
      "Ġaccepted": 8325,
      "ĠHuman": 8326,
      "Ġcomprom": 8327,
      "Ġdisturbances": 8328,
      "Ġultim": 8329,
      "LDL": 8330,
      "ĠPO": 8331,
      "accharides": 8332,
      "amines": 8333,
      "ocor": 8334,
      "Ġsubgroups": 8335,
      "Ġantidepress": 8336,
      "Ġparticipate": 8337,
      "Ġcritically": 8338,
      "het": 8339,
      "ĠNT": 8340,
      "Ġperioperative": 8341,
      "ĠROS": 8342,
      "Ġchemistry": 8343,
      "acryl": 8344,
      "Ġventral": 8345,
      "dentification": 8346,
      "class": 8347,
      "Ġmixtures": 8348,
      "vari": 8349,
      "eres": 8350,
      "Ġcytoplasm": 8351,
      "lings": 8352,
      "Ġoptimization": 8353,
      "ĠPL": 8354,
      "abled": 8355,
      "pop": 8356,
      "roscopy": 8357,
      "Ġperoxidase": 8358,
      "Ġdiscussion": 8359,
      "Ġmicroc": 8360,
      "Ġregulates": 8361,
      "Ġventil": 8362,
      "Ġleuc": 8363,
      "Ġtransporter": 8364,
      "lycemia": 8365,
      "Ġthreat": 8366,
      "lin": 8367,
      "Ġfilter": 8368,
      "Ġresource": 8369,
      "ĠWhe": 8370,
      "ĠStatis": 8371,
      "Ġplane": 8372,
      "yel": 8373,
      "Ġviable": 8374,
      "Ġdeficit": 8375,
      "Ġâī¤": 8376,
      "Ġexcessive": 8377,
      "Ġrhin": 8378,
      "Ġatomic": 8379,
      "Ġreflux": 8380,
      "ĠCox": 8381,
      "trin": 8382,
      "Ġwalking": 8383,
      "Ġbinds": 8384,
      "Ġarchitect": 8385,
      "Ġcyclo": 8386,
      "Ġoutbreak": 8387,
      "Ġanatomy": 8388,
      "centr": 8389,
      "Ġpreventive": 8390,
      "Ġindustrial": 8391,
      "Ġdecade": 8392,
      "Ġpancreatitis": 8393,
      "Ġspor": 8394,
      "osen": 8395,
      "Ġphenotypic": 8396,
      "ĠIgA": 8397,
      "ĠPo": 8398,
      "ofib": 8399,
      "Ġlaw": 8400,
      "Ġpurification": 8401,
      "kt": 8402,
      "Ġpredis": 8403,
      "Ġneonates": 8404,
      "Ġincomplete": 8405,
      "operation": 8406,
      "otin": 8407,
      "Ġabolished": 8408,
      "Ġturnover": 8409,
      "Ġdestr": 8410,
      "Ġdownstream": 8411,
      "Ġleptin": 8412,
      "olate": 8413,
      "atell": 8414,
      "Ġmyeloid": 8415,
      "Ġsubtype": 8416,
      "Ġroots": 8417,
      "vered": 8418,
      "Ġmalaria": 8419,
      "iry": 8420,
      "Ġhar": 8421,
      "ĠOct": 8422,
      "Ġindication": 8423,
      "Ġurea": 8424,
      "stable": 8425,
      "ĠNone": 8426,
      "Ġalteration": 8427,
      "Ġfistula": 8428,
      "sk": 8429,
      "forming": 8430,
      "Ġhomologous": 8431,
      "Ġlinkage": 8432,
      "adrenergic": 8433,
      "ĠCE": 8434,
      "Ġupd": 8435,
      "Ġtrained": 8436,
      "from": 8437,
      "Ġconformational": 8438,
      "NR": 8439,
      "Ġsham": 8440,
      "Ġmononuclear": 8441,
      "olinergic": 8442,
      "Ġacts": 8443,
      "dimethyl": 8444,
      "PM": 8445,
      "Ġsecreted": 8446,
      "Ġinher": 8447,
      "nine": 8448,
      "Ġhematopoietic": 8449,
      "ools": 8450,
      "Â®": 8451,
      "Ġblocks": 8452,
      "Ġpromoting": 8453,
      "ĠArab": 8454,
      "Ġ$": 8455,
      "Ġapical": 8456,
      "axel": 8457,
      "istrib": 8458,
      "Ġtree": 8459,
      "Ġphenyl": 8460,
      "Ġdisruption": 8461,
      "Ġpractitioners": 8462,
      "itin": 8463,
      "Ġdark": 8464,
      "ĠAssessment": 8465,
      "Ġdoub": 8466,
      "Ġatmosp": 8467,
      "Ġnutrient": 8468,
      "Ġexacerb": 8469,
      "Ġapo": 8470,
      "Ġamel": 8471,
      "Ġpowerful": 8472,
      "Ġharv": 8473,
      "inescence": 8474,
      "Ġvital": 8475,
      "polar": 8476,
      "ĠCardi": 8477,
      "Ġoffspring": 8478,
      "rance": 8479,
      "Ġevolutionary": 8480,
      "Ġeggs": 8481,
      "ologist": 8482,
      "aint": 8483,
      "Ġenable": 8484,
      "Ġclarify": 8485,
      "Ġamph": 8486,
      "Ġbipolar": 8487,
      "Ġabscess": 8488,
      "being": 8489,
      "ĠCL": 8490,
      "Ġcarboxyl": 8491,
      "Ġcanine": 8492,
      "Ġreturned": 8493,
      "omatous": 8494,
      "Ġproportional": 8495,
      "SE": 8496,
      "Ġapparently": 8497,
      "Ġpatch": 8498,
      "Ġwheat": 8499,
      "Ġdisplacement": 8500,
      "ĠQuestion": 8501,
      "Ġhind": 8502,
      "Ġfif": 8503,
      "Ġseason": 8504,
      "Ġcement": 8505,
      "Ġresearchers": 8506,
      "Ġwind": 8507,
      "ĠAB": 8508,
      "Ġconduction": 8509,
      "iazep": 8510,
      "Ġcandidates": 8511,
      "uits": 8512,
      "Ġta": 8513,
      "ention": 8514,
      "ĠSV": 8515,
      "Ġpsori": 8516,
      "idi": 8517,
      "Ġhypog": 8518,
      "bodies": 8519,
      "Ġ1990": 8520,
      "Ġpromotes": 8521,
      "Ġlamb": 8522,
      "UT": 8523,
      "Ġusefulness": 8524,
      "Ġsplic": 8525,
      "Ġabor": 8526,
      "Ġmonocytes": 8527,
      "Ġevid": 8528,
      "Ġresin": 8529,
      "Ġmuscular": 8530,
      "Ġtendency": 8531,
      "anium": 8532,
      "Ġunaffected": 8533,
      "enhanced": 8534,
      "gone": 8535,
      "Ġdigestion": 8536,
      "oprop": 8537,
      "Ġpropag": 8538,
      "])": 8539,
      "Ġtesticular": 8540,
      "Ġcysts": 8541,
      "Ġcontributed": 8542,
      "Ġshoulder": 8543,
      "Ġneuros": 8544,
      "Ġfoods": 8545,
      "Ġstained": 8546,
      "ufficient": 8547,
      "after": 8548,
      "Ġfamilial": 8549,
      "Ġhoriz": 8550,
      "Cr": 8551,
      "Ġdissem": 8552,
      "edded": 8553,
      "Ġpanel": 8554,
      "Ġindustry": 8555,
      "ifferenti": 8556,
      "Ġresolved": 8557,
      "Ġretained": 8558,
      "Ġstret": 8559,
      "Ġbonds": 8560,
      "vation": 8561,
      "Ġsarc": 8562,
      "Ġgradually": 8563,
      "Ġdich": 8564,
      "Ġdepr": 8565,
      "ostatic": 8566,
      "Ġcaud": 8567,
      "Ġestradiol": 8568,
      "static": 8569,
      "oblastic": 8570,
      "Ġrecruitment": 8571,
      "Ġelectrodes": 8572,
      "Ġkerat": 8573,
      "Ġarteri": 8574,
      "ĠMal": 8575,
      "ĠOrgan": 8576,
      "Ġcentr": 8577,
      "ocated": 8578,
      "aryng": 8579,
      "ĠÂµ": 8580,
      "Ġsalivary": 8581,
      "Ġsignalling": 8582,
      "atonin": 8583,
      "anish": 8584,
      "ĠClass": 8585,
      "istar": 8586,
      "odal": 8587,
      "Ġscreen": 8588,
      "raine": 8589,
      "Ġbab": 8590,
      "ximately": 8591,
      "iable": 8592,
      "hetized": 8593,
      "Ġheadache": 8594,
      "epit": 8595,
      "Ġanalogue": 8596,
      "sal": 8597,
      "tiviral": 8598,
      "lege": 8599,
      "sec": 8600,
      "Ġcocaine": 8601,
      "Ġatoms": 8602,
      "Trans": 8603,
      "ica": 8604,
      "Ġscenari": 8605,
      "ĠCar": 8606,
      "Ġmarket": 8607,
      "ĠQuestionnai": 8608,
      "roid": 8609,
      "diagn": 8610,
      "recip": 8611,
      "ĠAssociation": 8612,
      "Ġelectrochemical": 8613,
      "Ġsudden": 8614,
      "Ġadduc": 8615,
      "Ġundergone": 8616,
      "Ġinadequ": 8617,
      "Tc": 8618,
      "Ġautomated": 8619,
      "Ġstiffness": 8620,
      "Ġshear": 8621,
      "aceae": 8622,
      "resolution": 8623,
      "Ġcatar": 8624,
      "Ġposts": 8625,
      "rozen": 8626,
      "ulator": 8627,
      "glucose": 8628,
      "ĠEle": 8629,
      "Ġmigr": 8630,
      "ĠACT": 8631,
      "Ġnormally": 8632,
      "SV": 8633,
      "ĠRep": 8634,
      "arts": 8635,
      "Ġisolate": 8636,
      "uate": 8637,
      "bumin": 8638,
      "Ġimmunological": 8639,
      "iliary": 8640,
      "Ġdifferentiate": 8641,
      "ayers": 8642,
      "ger": 8643,
      "Ġmap": 8644,
      "ĠID": 8645,
      "emographic": 8646,
      "performance": 8647,
      "Ġopposite": 8648,
      "ĠSevent": 8649,
      "olding": 8650,
      "gene": 8651,
      "ĠPKC": 8652,
      "Ġlearn": 8653,
      "guided": 8654,
      "through": 8655,
      "Ġspontaneously": 8656,
      "terase": 8657,
      "Ġbiomass": 8658,
      "Ġseverely": 8659,
      "Ġvisit": 8660,
      "Ġaneurysms": 8661,
      "Comparison": 8662,
      "Ġsurgeon": 8663,
      "Ġcontinue": 8664,
      "aminergic": 8665,
      "Ġwidth": 8666,
      "aments": 8667,
      "ognition": 8668,
      "ĠCG": 8669,
      "HI": 8670,
      "Ġconcepts": 8671,
      "Ġhemodialysis": 8672,
      "Ġobject": 8673,
      "ĠDepartment": 8674,
      "rox": 8675,
      "Ġrich": 8676,
      "Ap": 8677,
      "cluding": 8678,
      "ostatin": 8679,
      "orous": 8680,
      "Ġinfrared": 8681,
      "Ġovercome": 8682,
      "Î¼": 8683,
      "tri": 8684,
      "Ġtubular": 8685,
      "Ġdiscovered": 8686,
      "Ġerythem": 8687,
      "ĠTLR": 8688,
      "Ġneigh": 8689,
      "Ġaerobic": 8690,
      "Ġcountry": 8691,
      "inosa": 8692,
      "omestic": 8693,
      "Ġunlike": 8694,
      "ocyan": 8695,
      "icking": 8696,
      "Ġke": 8697,
      "Ġsi": 8698,
      "Ġfocusing": 8699,
      "Ġchron": 8700,
      "selec": 8701,
      "Ġhelpful": 8702,
      "Ġantitumor": 8703,
      "retin": 8704,
      "uretic": 8705,
      "onset": 8706,
      "engths": 8707,
      "Ġstaging": 8708,
      "anes": 8709,
      "Ġanomalies": 8710,
      "rosophila": 8711,
      "Inc": 8712,
      "Ġperiodontal": 8713,
      "Ġunrelated": 8714,
      "Ġjo": 8715,
      "Ġenanti": 8716,
      "Ġhistology": 8717,
      "Ġcomputational": 8718,
      "oplastic": 8719,
      "assemb": 8720,
      "Ġorally": 8721,
      "tead": 8722,
      "Ġhospitalized": 8723,
      "Ġadvance": 8724,
      "Ġcontracep": 8725,
      "Ġprescribed": 8726,
      "Ġhormonal": 8727,
      "Ġballoon": 8728,
      "Ġcatechol": 8729,
      "Ġorganism": 8730,
      "ĠMarch": 8731,
      "Ġinsufficiency": 8732,
      "frequency": 8733,
      "ĠSimilar": 8734,
      "hold": 8735,
      "Ġinstruments": 8736,
      "oides": 8737,
      "Ġshared": 8738,
      "Ġdifficulty": 8739,
      "Ġscal": 8740,
      "ober": 8741,
      "osarcoma": 8742,
      "ora": 8743,
      "Ġgenetically": 8744,
      "osts": 8745,
      "Ġuncommon": 8746,
      "ico": 8747,
      "Ġisch": 8748,
      "Ġtetra": 8749,
      "Ġguidance": 8750,
      "Ġkinases": 8751,
      "erge": 8752,
      "Ġenhancing": 8753,
      "lipid": 8754,
      "Un": 8755,
      "Tr": 8756,
      "Ġoverweight": 8757,
      "Ġtranscript": 8758,
      "Ġ1999": 8759,
      "Ġcasc": 8760,
      "ĠIgM": 8761,
      "ĠLA": 8762,
      "Ġkidneys": 8763,
      "Ġpolymers": 8764,
      "Ġnano": 8765,
      "Ġpharmacokinetics": 8766,
      "Ġfollicular": 8767,
      "osystem": 8768,
      "Ġprostaglandin": 8769,
      "Ġlupus": 8770,
      "Ġbelief": 8771,
      "Ġhemisp": 8772,
      "iative": 8773,
      "Ġging": 8774,
      "titive": 8775,
      "Ġasked": 8776,
      "cap": 8777,
      "GR": 8778,
      "Ġmobile": 8779,
      "ostomy": 8780,
      "ĠNever": 8781,
      "Ġretina": 8782,
      "Ġideal": 8783,
      "Ġwarr": 8784,
      "Ġcontributing": 8785,
      "ries": 8786,
      "Ġze": 8787,
      "etection": 8788,
      "aters": 8789,
      "Ġbearing": 8790,
      "Anti": 8791,
      "Ġanion": 8792,
      "Ġpromoted": 8793,
      "Ġchosen": 8794,
      "Ġpolypeptide": 8795,
      "Ġnodules": 8796,
      "Ġreconstruc": 8797,
      "Ġsilica": 8798,
      "weighted": 8799,
      "Ġvertebral": 8800,
      "ĠAustralia": 8801,
      "ensitivity": 8802,
      "Ġcholec": 8803,
      "Ġaspiration": 8804,
      "olization": 8805,
      "Ġtight": 8806,
      "ochrom": 8807,
      "Ġaxial": 8808,
      "Ġdia": 8809,
      "Ġflexible": 8810,
      "elves": 8811,
      "Ġexamples": 8812,
      "obut": 8813,
      "high": 8814,
      "astric": 8815,
      "Ġconfound": 8816,
      "omb": 8817,
      "ĠIns": 8818,
      "Ġoffered": 8819,
      "arean": 8820,
      "Ġradiological": 8821,
      "Ġleukocyte": 8822,
      "Ġtoo": 8823,
      "imid": 8824,
      "glob": 8825,
      "target": 8826,
      "Ġforming": 8827,
      "ĠECG": 8828,
      "ĠGP": 8829,
      "Ġglaucoma": 8830,
      "Ġreflected": 8831,
      "itrate": 8832,
      "ĠICU": 8833,
      "Ġmood": 8834,
      "Ġdeclined": 8835,
      "romy": 8836,
      "Ġcyan": 8837,
      "ergies": 8838,
      "Ġblast": 8839,
      "Ġcros": 8840,
      "Ġmicroorgan": 8841,
      "opsy": 8842,
      "Des": 8843,
      "ĠOx": 8844,
      "ĠWistar": 8845,
      "ĠNevertheless": 8846,
      "ropathy": 8847,
      "Ġgrafting": 8848,
      "ĠJuly": 8849,
      "Ġcigaret": 8850,
      "Mul": 8851,
      "usting": 8852,
      "ĠWomen": 8853,
      "Ġtraff": 8854,
      "Ġpreservation": 8855,
      "Ġweights": 8856,
      ")).": 8857,
      "Ġmarine": 8858,
      "Ġelectrom": 8859,
      "Ġintense": 8860,
      "Ġexon": 8861,
      "Ġsteroids": 8862,
      "ĠRF": 8863,
      "Ġanticancer": 8864,
      "ejun": 8865,
      "Ġchicken": 8866,
      "Ġcreate": 8867,
      "Ġars": 8868,
      "Ġbronchial": 8869,
      "oming": 8870,
      "Ġcombining": 8871,
      "Ġinstead": 8872,
      "Ġequally": 8873,
      "tored": 8874,
      "entan": 8875,
      "liferative": 8876,
      "ĠDC": 8877,
      "Ġscheme": 8878,
      "Ġfibroblast": 8879,
      "Ġstatic": 8880,
      "ATPase": 8881,
      "oblastoma": 8882,
      "Ġcarrying": 8883,
      "Ġsaturation": 8884,
      "Ġppm": 8885,
      "Anal": 8886,
      "Ġsoy": 8887,
      "Ġbrach": 8888,
      "pic": 8889,
      "Ġcontroversial": 8890,
      "Ġankle": 8891,
      "Ġregistered": 8892,
      "hematic": 8893,
      ")),": 8894,
      "Ġvasodil": 8895,
      "Ġbelieved": 8896,
      "Ġexclusively": 8897,
      "ĠMultiple": 8898,
      "Ġconfiguration": 8899,
      "Ġmandibular": 8900,
      "jug": 8901,
      "Ġmediate": 8902,
      "ĠTaken": 8903,
      "Ġquick": 8904,
      "parative": 8905,
      "Ġtes": 8906,
      "Ġosteoporosis": 8907,
      "Ġenables": 8908,
      "âĢĳ": 8909,
      "Ġautomatic": 8910,
      "esarean": 8911,
      "Ġdysplasia": 8912,
      "enin": 8913,
      "Ġbreathing": 8914,
      "Ġplatform": 8915,
      "Ġsee": 8916,
      "Ġreinfor": 8917,
      "ercury": 8918,
      "Ġfacilities": 8919,
      "ulsion": 8920,
      "Ġneuropathy": 8921,
      "seven": 8922,
      "Ġnoninvasive": 8923,
      "Ġimmunization": 8924,
      "Ġstrict": 8925,
      "Ġsac": 8926,
      "Ġsugar": 8927,
      "Ġperturb": 8928,
      "Ġultrasonography": 8929,
      "Ġnumerical": 8930,
      "ĠKore": 8931,
      "Ġchromatin": 8932,
      "Ġprocessed": 8933,
      "Ġperin": 8934,
      "Ġerythrocytes": 8935,
      "ĠÏ": 8936,
      "Ġfell": 8937,
      "Ġansw": 8938,
      "Ġcategory": 8939,
      "Ġlatency": 8940,
      "Ġvideo": 8941,
      "yrin": 8942,
      "oL": 8943,
      "Ġdistinc": 8944,
      "ĠExpression": 8945,
      "âī": 8946,
      "Ġscience": 8947,
      "Ġfasc": 8948,
      "Ġdifferentially": 8949,
      "Ġactivate": 8950,
      "nRH": 8951,
      "ĠCOPD": 8952,
      "Ġanaerobic": 8953,
      "odg": 8954,
      "tigra": 8955,
      "Ġquite": 8956,
      "imus": 8957,
      "aning": 8958,
      "ĠWithin": 8959,
      "ĠHis": 8960,
      "ĠPP": 8961,
      "ĠSeven": 8962,
      "Ġsilver": 8963,
      "ĠSyn": 8964,
      "Ġelong": 8965,
      "Ġplacental": 8966,
      "Ġbor": 8967,
      "Ġinnov": 8968,
      "Ġsick": 8969,
      "mium": 8970,
      "Ġclaim": 8971,
      "End": 8972,
      "ĠDrug": 8973,
      "Ġmicroscope": 8974,
      "Ġrect": 8975,
      "Character": 8976,
      "ĠCenter": 8977,
      "Ġcad": 8978,
      "esophageal": 8979,
      "Ġbioavail": 8980,
      "Ġanalgesia": 8981,
      "emporal": 8982,
      "OA": 8983,
      "esides": 8984,
      "ĠDrosophila": 8985,
      "Ġdiscusses": 8986,
      "Ġelectroly": 8987,
      "Ġbirds": 8988,
      "opsis": 8989,
      "Ġfluctu": 8990,
      "Ġrelap": 8991,
      "aven": 8992,
      "Ġcerebellar": 8993,
      "Ġtransfected": 8994,
      "bec": 8995,
      "Ġmodality": 8996,
      "300": 8997,
      "Ġperoxidation": 8998,
      "Ġneuron": 8999,
      "functional": 9000,
      "Ġuniversity": 9001,
      "Ġselen": 9002,
      "Ġswelling": 9003,
      "ĠTT": 9004,
      "Ġweekly": 9005,
      "ĠGram": 9006,
      "plan": 9007,
      "ĠMedian": 9008,
      "DC": 9009,
      "site": 9010,
      "Ġcas": 9011,
      "vol": 9012,
      "ĠCOX": 9013,
      "ÎºB": 9014,
      "Ġtibial": 9015,
      "Ġpartly": 9016,
      "mann": 9017,
      "Ġrenin": 9018,
      "tism": 9019,
      "SR": 9020,
      "rogenic": 9021,
      "Ġexposures": 9022,
      "Ġthyro": 9023,
      "Ġneoplasms": 9024,
      "Ġvectors": 9025,
      "ulos": 9026,
      "Ġrequirement": 9027,
      "Ġ1998": 9028,
      "Ġrelief": 9029,
      "Ġtrop": 9030,
      "Ġlocally": 9031,
      "ĠSixty": 9032,
      "Ġthor": 9033,
      "ather": 9034,
      "Ġincident": 9035,
      "Ġapplying": 9036,
      "Ġrandomised": 9037,
      "Br": 9038,
      "Ġhearts": 9039,
      "Ġhomogeneous": 9040,
      "Ġmask": 9041,
      "oblasts": 9042,
      "Ġincontin": 9043,
      "Ġreferral": 9044,
      "eart": 9045,
      "Ġcoex": 9046,
      "ĠPseudomonas": 9047,
      "Ġintermit": 9048,
      "Ġgives": 9049,
      "Ġbp": 9050,
      "Ġcultiv": 9051,
      "ecl": 9052,
      "Ġarthroplasty": 9053,
      "Ġharm": 9054,
      "Ġempirical": 9055,
      "keleton": 9056,
      "Ġoptimum": 9057,
[...]
