{
  "version": "1.0",
  "truncation": null,
  "padding": null,
  "added_tokens": [
    {
      "id": 0,
      "content": "[UNK]",
      "single_word": false,
      "lstrip": false,
      "rstrip": false,
      "normalized": false,
      "special": true
    },
    {
      "id": 1,
      "content": "[CLS]",
      "single_word": false,
      "lstrip": false,
      "rstrip": false,
      "normalized": false,
      "special": true
    },
    {
      "id": 2,
      "content": "[SEP]",
      "single_word": false,
      "lstrip": false,
      "rstrip": false,
      "normalized": false,
      "special": true
    },
    {
      "id": 3,
      "content": "[PAD]",
      "single_word": false,
      "lstrip": false,
      "rstrip": false,
      "normalized": false,
      "special": true
    },
    {
      "id": 4,
      "content": "[MASK]",
      "single_word": false,
      "lstrip": false,
      "rstrip": false,
      "normalized": false,
      "special": true
    }
  ],
  "normalizer": null,
  "pre_tokenizer": {
    "type": "Sequence",
    "pretokenizers": [
      {
        "type": "Split",
        "pattern": {
          "Regex": "\\s+"
        },
        "behavior": "Isolated",
        "invert": false
      },
      {
        "type": "ByteLevel",
        "add_prefix_space": false,
        "trim_offsets": true,
        "use_regex": false
      }
    ]
  },
  "post_processor": null,
  "decoder": null,
  "model": {
    "type": "BPE",
    "dropout": null,
    "unk_token": "[UNK]",
    "continuing_subword_prefix": null,
    "end_of_word_suffix": null,
    "fuse_unk": false,
    "byte_fallback": false,
    "ignore_merges": false,
    "vocab": {
      "[UNK]": 0,
      "[CLS]": 1,
      "[SEP]": 2,
      "[PAD]": 3,
      "[MASK]": 4,
      "!": 5,
      "\"": 6,
      "#": 7,
      "$": 8,
      "%": 9,
      "&": 10,
      "'": 11,
      "(": 12,
      ")": 13,
      "*": 14,
      "+": 15,
      ",": 16,
      "-": 17,
      ".": 18,
      "/": 19,
      "0": 20,
      "1": 21,
      "2": 22,
      "3": 23,
      "4": 24,
      "5": 25,
      "6": 26,
      "7": 27,
      "8": 28,
      "9": 29,
      ":": 30,
      ";": 31,
      "<": 32,
      "=": 33,
      ">": 34,
      "?": 35,
      "@": 36,
      "A": 37,
      "B": 38,
      "C": 39,
      "D": 40,
      "E": 41,
      "F": 42,
      "G": 43,
      "H": 44,
      "I": 45,
      "J": 46,
      "K": 47,
      "L": 48,
      "M": 49,
      "N": 50,
      "O": 51,
      "P": 52,
      "Q": 53,
      "R": 54,
      "S": 55,
      "T": 56,
      "U": 57,
      "V": 58,
      "W": 59,
      "X": 60,
      "Y": 61,
      "Z": 62,
      "[": 63,
      "\\": 64,
      "]": 65,
      "^": 66,
      "_": 67,
      "`": 68,
      "a": 69,
      "b": 70,
      "c": 71,
      "d": 72,
      "e": 73,
      "f": 74,
      "g": 75,
      "h": 76,
      "i": 77,
      "j": 78,
      "k": 79,
      "l": 80,
      "m": 81,
      "n": 82,
      "o": 83,
      "p": 84,
      "q": 85,
      "r": 86,
      "s": 87,
      "t": 88,
      "u": 89,
      "v": 90,
      "w": 91,
      "x": 92,
      "y": 93,
      "z": 94,
      "{": 95,
      "|": 96,
      "}": 97,
      "~": 98,
      "¡": 99,
      "¢": 100,
      "£": 101,
      "¤": 102,
      "¥": 103,
      "¦": 104,
      "§": 105,
      "¨": 106,
      "©": 107,
      "ª": 108,
      "«": 109,
      "¬": 110,
      "®": 111,
      "¯": 112,
      "°": 113,
      "±": 114,
      "²": 115,
      "³": 116,
      "´": 117,
      "µ": 118,
      "¶": 119,
      "·": 120,
      "¸": 121,
      "¹": 122,
      "º": 123,
      "»": 124,
      "¼": 125,
      "½": 126,
      "¾": 127,
      "¿": 128,
      "Â": 129,
      "Ã": 130,
      "Ä": 131,
      "Å": 132,
      "Æ": 133,
      "Ç": 134,
      "È": 135,
      "É": 136,
      "Ê": 137,
      "Ë": 138,
      "Ì": 139,
      "Í": 140,
      "Î": 141,
      "Ï": 142,
      "Ð": 143,
      "Ñ": 144,
      "Ò": 145,
      "Ó": 146,
      "Ô": 147,
      "Õ": 148,
      "Ö": 149,
      "×": 150,
      "Ø": 151,
      "Ù": 152,
      "Ú": 153,
      "Û": 154,
      "Ü": 155,
      "Ý": 156,
      "Þ": 157,
      "ß": 158,
      "à": 159,
      "á": 160,
      "â": 161,
      "ã": 162,
      "ä": 163,
      "å": 164,
      "æ": 165,
      "ç": 166,
      "è": 167,
      "é": 168,
      "ê": 169,
      "ë": 170,
      "ì": 171,
      "í": 172,
      "î": 173,
      "ï": 174,
      "ð": 175,
      "ñ": 176,
      "ò": 177,
      "ó": 178,
      "ô": 179,
      "Ā": 180,
      "ā": 181,
      "Ă": 182,
      "ă": 183,
      "Ą": 184,
      "ą": 185,
      "Ć": 186,
      "ć": 187,
      "Ĉ": 188,
      "ĉ": 189,
      "Ċ": 190,
      "ċ": 191,
      "Č": 192,
      "č": 193,
      "Ď": 194,
      "ď": 195,
      "Đ": 196,
      "đ": 197,
      "Ē": 198,
      "ē": 199,
      "Ĕ": 200,
      "ĕ": 201,
      "Ė": 202,
      "ė": 203,
      "Ę": 204,
      "ę": 205,
      "Ě": 206,
      "ě": 207,
      "Ĝ": 208,
      "ĝ": 209,
      "Ğ": 210,
      "ğ": 211,
      "Ġ": 212,
      "ġ": 213,
      "Ģ": 214,
      "ģ": 215,
      "Ĥ": 216,
      "ĥ": 217,
      "Ħ": 218,
      "ħ": 219,
      "Ĩ": 220,
      "ĩ": 221,
      "Ī": 222,
      "ī": 223,
      "Ĭ": 224,
      "ĭ": 225,
      "Į": 226,
      "į": 227,
      "İ": 228,
      "ı": 229,
      "Ĳ": 230,
      "ĳ": 231,
      "Ĵ": 232,
      "ĵ": 233,
      "Ķ": 234,
      "ķ": 235,
      "ĸ": 236,
      "Ĺ": 237,
      "ĺ": 238,
      "Ļ": 239,
      "ļ": 240,
      "Ľ": 241,
      "ľ": 242,
      "Ŀ": 243,
      "ŀ": 244,
      "Ł": 245,
      "ł": 246,
      "Ń": 247,
      "ĠĠ": 248,
      "th": 249,
      "in": 250,
      "er": 251,
      "an": 252,
      "on": 253,
      "ĠĠĠĠ": 254,
      "the": 255,
      "re": 256,
      "at": 257,
      "ou": 258,
      "en": 259,
      "or": 260,
      "is": 261,
      "to": 262,
      "ing": 263,
      "al": 264,
      "es": 265,
      "ed": 266,
      "it": 267,
      "as": 268,
      "and": 269,
      "ar": 270,
      "le": 271,
      "st": 272,
      "of": 273,
      "ic": 274,
      "om": 275,
      "se": 276,
      "ĠĠĠĠĠĠĠĠ": 277,
      "ion": 278,
      "he": 279,
      "ac": 280,
      "be": 281,
      "ve": 282,
      "ĊĊ": 283,
      "ly": 284,
      "ow": 285,
      "ent": 286,
      "ad": 287,
      "il": 288,
      "me": 289,
      "you": 290,
      "id": 291,
      "for": 292,
      "ro": 293,
      "wh": 294,
      "that": 295,
      "ch": 296,
      "ut": 297,
      "ot": 298,
      "ay": 299,
      "et": 300,
      "ver": 301,
      "âĢ": 302,
      "ig": 303,
      "ct": 304,
      "lo": 305,
      "im": 306,
      "de": 307,
      "un": 308,
      "ld": 309,
      "ith": 310,
      "ha": 311,
      "ter": 312,
      "ab": 313,
      "us": 314,
      "am": 315,
      "li": 316,
      "ere": 317,
      "with": 318,
      "ag": 319,
      "ke": 320,
      "ce": 321,
      "are": 322,
      "ur": 323,
      "ll": 324,
      "tr": 325,
      "ne": 326,
      "con": 327,
      "if": 328,
      "so": 329,
      "ir": 330,
      "we": 331,
      "com": 332,
      "ation": 333,
      "all": 334,
      "pe": 335,
      "mo": 336,
      "out": 337,
      "su": 338,
      "ht": 339,
      "this": 340,
      "'s": 341,
      "ex": 342,
      "was": 343,
      "s.": 344,
      "pro": 345,
      "ap": 346,
      "ate": 347,
      "one": 348,
      "do": 349,
      "fr": 350,
      "pl": 351,
      "est": 352,
      "not": 353,
      "ill": 354,
      "ould": 355,
      "po": 356,
      "have": 357,
      "but": 358,
      "The": 359,
      "his": 360,
      "ĊĠĠĠĠĠĠĠĠ": 361,
      "sh": 362,
      "oo": 363,
      "ul": 364,
      "em": 365,
      "per": 366,
      "co": 367,
      "ain": 368,
      ".\"": 369,
      "qu": 370,
      "s,": 371,
      "ant": 372,
      "'t": 373,
      "ĊĠĠĠĠ": 374,
      "ther": 375,
      "ome": 376,
      "my": 377,
      "up": 378,
      "res": 379,
      "um": 380,
      "oun": 381,
      "ust": 382,
      "--": 383,
      "ight": 384,
      "can": 385,
      "âĢĻ": 386,
      "fe": 387,
      "ally": 388,
      "art": 389,
      "wor": 390,
      "ple": 391,
      "ess": 392,
      "end": 393,
      "ame": 394,
      "..": 395,
      "from": 396,
      "ri": 397,
      "get": 398,
      "act": 399,
      "our": 400,
      "te": 401,
      "now": 402,
      "ack": 403,
      "00": 404,
      "any": 405,
      "ist": 406,
      "ment": 407,
      "ind": 408,
      "by": 409,
      "cl": 410,
      "thing": 411,
      "some": 412,
      "no": 413,
      "ive": 414,
      "use": 415,
      "el": 416,
      "go": 417,
      "her": 418,
      "ity": 419,
      "like": 420,
      "gr": 421,
      "ti": 422,
      "ort": 423,
      "ard": 424,
      "ma": 425,
      "oug": 426,
      "ie": 427,
      "ĠĊ": 428,
      "ck": 429,
      "fo": 430,
      "pt": 431,
      "Th": 432,
      "I'": 433,
      "they": 434,
      "ge": 435,
      "der": 436,
      "bo": 437,
      "your": 438,
      "iv": 439,
      "able": 440,
      "ine": 441,
      "age": 442,
      "way": 443,
      "In": 444,
      "ass": 445,
      "just": 446,
      "king": 447,
      "int": 448,
      "will": 449,
      "very": 450,
      "ers": 451,
      "ound": 452,
      "ide": 453,
      ");": 454,
      "has": 455,
      "**": 456,
      "would": 457,
      "ue": 458,
      "ction": 459,
      "ast": 460,
      "It": 461,
      "sp": 462,
      "ies": 463,
      "there": 464,
      "pp": 465,
      "ure": 466,
      "str": 467,
      "what": 468,
      "Wh": 469,
      "other": 470,
      "ich": 471,
      "about": 472,
      "ile": 473,
      "av": 474,
      "ol": 475,
      "own": 476,
      "pr": 477,
      "âĢľ": 478,
      "//": 479,
      "ice": 480,
      "ong": 481,
      "ev": 482,
      "âĢĿ": 483,
      "more": 484,
      "know": 485,
      "ty": 486,
      "bl": 487,
      "had": 488,
      "ough": 489,
      "iz": 490,
      "ase": 491,
      "sa": 492,
      "ca": 493,
      "when": 494,
      "ĠĠĠĠĠĠĠĠĠĠĠĠĠĠĠĠ": 495,
      "ok": 496,
      "ear": 497,
      "time": 498,
      "ser": 499,
      "ink": 500,
      "n't": 501,
      "ble": 502,
      "fer": 503,
      "ite": 504,
      "cre": 505,
      "ated": 506,
      "read": 507,
      "work": 508,
      "pre": 509,
      "ĊĠĠ": 510,
      "ĉĉ": 511,
      "which": 512,
      "ace": 513,
      "ta": 514,
      "ci": 515,
      "new": 516,
      "ach": 517,
      "An": 518,
      "ire": 519,
      "him": 520,
      ").": 521,
      "form": 522,
      "who": 523,
      "âĢĻs": 524,
      "she": 525,
      "them": 526,
      "He": 527,
      "ud": 528,
      "ans": 529,
      "20": 530,
      "dis": 531,
      "cont": 532,
      "ep": 533,
      "=\"": 534,
      "don": 535,
      "how": 536,
      "br": 537,
      "want": 538,
      "ous": 539,
      "af": 540,
      "ho": 541,
      "ood": 542,
      "ber": 543,
      "were": 544,
      "day": 545,
      "set": 546,
      "ick": 547,
      "back": 548,
      "their": 549,
      "urn": 550,
      "over": 551,
      "ence": 552,
      "I'm": 553,
      "ang": 554,
      "pos": 555,
      "than": 556,
      "been": 557,
      "es.": 558,
      "cause": 559,
      "od": 560,
      "op": 561,
      "sel": 562,
      "ance": 563,
      "ob": 564,
      "then": 565,
      "could": 566,
      "ext": 567,
      "did": 568,
      "into": 569,
      "man": 570,
      "put": 571,
      "ory": 572,
      "tw": 573,
      "----": 574,
      "need": 575,
      "du": 576,
      "inter": 577,
      "ook": 578,
      "es,": 579,
      "ting": 580,
      "You": 581,
      "ug": 582,
      "ed.": 583,
      "val": 584,
      "only": 585,
      "part": 586,
      "We": 587,
      "cr": 588,
      "port": 589,
      "ect": 590,
      "10": 591,
      "see": 592,
      "turn": 593,
      "This": 594,
      "ary": 595,
      "fir": 596,
      "sion": 597,
      "its": 598,
      "</": 599,
      "fore": 600,
      "off": 601,
      "ial": 602,
      "add": 603,
      "ign": 604,
      "ople": 605,
      "ren": 606,
      "pres": 607,
      "ps": 608,
      "don't": 609,
      "right": 610,
      "ree": 611,
      "fun": 612,
      "ition": 613,
      "?\"": 614,
      "spe": 615,
      "ail": 616,
      "try": 617,
      "dat": 618,
      "because": 619,
      "la": 620,
      "ish": 621,
      "said": 622,
      "self": 623,
      "ia": 624,
      "year": 625,
      "play": 626,
      "think": 627,
      "it's": 628,
      "people": 629,
      "also": 630,
      "fin": 631,
      "say": 632,
      "ical": 633,
      "ject": 634,
      "cor": 635,
      "ak": 636,
      "St": 637,
      "ĊĠĠĠĠĠĠĠĠĠĠĠĠ": 638,
      "comm": 639,
      "every": 640,
      "wr": 641,
      "where": 642,
      "cur": 643,
      "bet": 644,
      "should": 645,
      "ip": 646,
      "Re": 647,
      "sc": 648,
      "comp": 649,
      "here": 650,
      "first": 651,
      "does": 652,
      "'re": 653,
      "bu": 654,
      "log": 655,
      "...": 656,
      "down": 657,
      "dif": 658,
      "look": 659,
      "ry": 660,
      "cess": 661,
      "thr": 662,
      "reat": 663,
      "most": 664,
      "iew": 665,
      "let": 666,
      "really": 667,
      "If": 668,
      "ra": 669,
      "good": 670,
      "pu": 671,
      "),": 672,
      "make": 673,
      "ph": 674,
      "atch": 675,
      "des": 676,
      "itt": 677,
      "ed,": 678,
      "ild": 679,
      "gu": 680,
      "ĠĠĠ": 681,
      "sy": 682,
      "even": 683,
      "==": 684,
      "min": 685,
      "uch": 686,
      "fl": 687,
      "son": 688,
      "hel": 689,
      "ade": 690,
      "Ch": 691,
      "But": 692,
      "0.": 693,
      "ef": 694,
      "Con": 695,
      "What": 696,
      "col": 697,
      "book": 698,
      "And": 699,
      "start": 700,
      "two": 701,
      "red": 702,
      "ank": 703,
      "under": 704,
      "using": 705,
      "well": 706,
      "class": 707,
      "after": 708,
      "ful": 709,
      "ning": 710,
      "ark": 711,
      "going": 712,
      "gen": 713,
      "much": 714,
      "()": 715,
      "name": 716,
      "ption": 717,
      "ever": 718,
      "si": 719,
      "ath": 720,
      "got": 721,
      "âĢĻt": 722,
      "cent": 723,
      "coun": 724,
      "1.": 725,
      "call": 726,
      "again": 727,
      "lt": 728,
      "htt": 729,
      "it.": 730,
      "igh": 731,
      "ult": 732,
      "mon": 733,
      "sto": 734,
      "er.": 735,
      "may": 736,
      "att": 737,
      "12": 738,
      "quest": 739,
      "hand": 740,
      "ens": 741,
      "run": 742,
      "these": 743,
      "che": 744,
      "tri": 745,
      "app": 746,
      "://": 747,
      "ving": 748,
      "\",": 749,
      "point": 750,
      "ose": 751,
      "inst": 752,
      "y,": 753,
      "ĊĠĠĠĠĠĠĠĠĠĠĠĠĠĠĠĠ": 754,
      "return": 755,
      "ious": 756,
      "sm": 757,
      "come": 758,
      "before": 759,
      "data": 760,
      "So": 761,
      "IN": 762,
      "long": 763,
      "used": 764,
      "19": 765,
      "ing.": 766,
      "ange": 767,
      "ents": 768,
      "reg": 769,
      "par": 770,
      "ict": 771,
      "ER": 772,
      "find": 773,
      "lect": 774,
      "line": 775,
      "still": 776,
      "var": 777,
      "something": 778,
      "char": 779,
      "tal": 780,
      "through": 781,
      "ually": 782,
      "ize": 783,
      "too": 784,
      "cond": 785,
      "sl": 786,
      "differ": 787,
      "enc": 788,
      "io": 789,
      "being": 790,
      "Ċĉĉ": 791,
      "y.": 792,
      "ations": 793,
      "ought": 794,
      "help": 795,
      "head": 796,
      "sub": 797,
      "ask": 798,
      "stand": 799,
      "mat": 800,
      "sol": 801,
      "ual": 802,
      "list": 803,
      "sure": 804,
      "sing": 805,
      "same": 806,
      "side": 807,
      "For": 808,
      "ved": 809,
      "rel": 810,
      "ions": 811,
      "feel": 812,
      "au": 813,
      "function": 814,
      "llow": 815,
      "num": 816,
      "2.": 817,
      "ors": 818,
      "mer": 819,
      "ys": 820,
      "15": 821,
      "Ċĉ": 822,
      "ise": 823,
      "show": 824,
      "fa": 825,
      "blic": 826,
      "How": 827,
      "ave": 828,
      "stem": 829,
      "cle": 830,
      "No": 831,
      "As": 832,
      "happ": 833,
      "ating": 834,
      "med": 835,
      "ily": 836,
      "clo": 837,
      "view": 838,
      "cal": 839,
      "sim": 840,
      "ific": 841,
      "Un": 842,
      "less": 843,
      "dy": 844,
      "many": 845,
      "tain": 846,
      "fect": 847,
      "ww": 848,
      "ool": 849,
      "bit": 850,
      "ittle": 851,
      "pect": 852,
      "11": 853,
      "mem": 854,
      "blem": 855,
      "code": 856,
      "test": 857,
      "ah": 858,
      "ff": 859,
      "great": 860,
      "while": 861,
      "ing,": 862,
      "ative": 863,
      "gl": 864,
      "xt": 865,
      "ince": 866,
      "old": 867,
      "bas": 868,
      "\">": 869,
      "__": 870,
      "cer": 871,
      "incl": 872,
      "take": 873,
      "ĊĊĠĠĠĠ": 874,
      "last": 875,
      "ss": 876,
      "problem": 877,
      "little": 878,
      "around": 879,
      "Se": 880,
      "file": 881,
      "er,": 882,
      "main": 883,
      "She": 884,
      "16": 885,
      "pon": 886,
      "mis": 887,
      "\"I": 888,
      "arch": 889,
      "ON": 890,
      "ey": 891,
      "ek": 892,
      "those": 893,
      "ĠĠĠĠĠĠĠĠĠ": 894,
      "seem": 895,
      "lot": 896,
      "Al": 897,
      "org": 898,
      "vo": 899,
      "ian": 900,
      "del": 901,
      "ĊĠ": 902,
      "ven": 903,
      "Pro": 904,
      "ĊĠĠĠĠĠĠ": 905,
      "uck": 906,
      "cus": 907,
      "ward": 908,
      "De": 909,
      "dr": 910,
      "value": 911,
      "type": 912,
      "made": 913,
      "ton": 914,
      "ason": 915,
      "TH": 916,
      "http": 917,
      "There": 918,
      "real": 919,
      ".âĢĿ": 920,
      "ways": 921,
      "Let": 922,
      "les": 923,
      "vers": 924,
      "I've": 925,
      "ly,": 926,
      "13": 927,
      "though": 928,
      "ull": 929,
      "each": 930,
      "ix": 931,
      "--------": 932,
      "My": 933,
      "different": 934,
      "fil": 935,
      "top": 936,
      "text": 937,
      "ror": 938,
      "sur": 939,
      "fact": 940,
      "jo": 941,
      "aw": 942,
      "14": 943,
      "public": 944,
      "(\"": 945,
      "cri": 946,
      "Tr": 947,
      "!\"": 948,
      "18": 949,
      "arr": 950,
      "En": 951,
      "follow": 952,
      "ular": 953,
      "produ": 954,
      "That": 955,
      "bre": 956,
      "never": 957,
      "eng": 958,
      "kes": 959,
      "plic": 960,
      "1,": 961,
      "ft": 962,
      "ress": 963,
      "vel": 964,
      "car": 965,
      "such": 966,
      "pri": 967,
      "ub": 968,
      "AN": 969,
      "RE": 970,
      "order": 971,
      "ash": 972,
      "Ex": 973,
      "fri": 974,
      "import": 975,
      "div": 976,
      "They": 977,
      "->": 978,
      "fig": 979,
      "low": 980,
      "ST": 981,
      "0,": 982,
      "ates": 983,
      "friend": 984,
      "high": 985,
      "resu": 986,
      "ield": 987,
      "nâĢĻt": 988,
      "word": 989,
      "http://": 990,
      "net": 991,
      "',": 992,
      "open": 993,
      "ween": 994,
      ".com": 995,
      "ces": 996,
      "supp": 997,
      "gener": 998,
      "love": 999,
      "ts": 1000,
      "ters": 1001,
      "found": 1002,
      "stud": 1003,
      "Com": 1004,
      "vice": 1005,
      "inv": 1006,
      "face": 1007,
      "rent": 1008,
      "To": 1009,
      "Ar": 1010,
      "tell": 1011,
      "life": 1012,
      "won": 1013,
      "between": 1014,
      "a.": 1015,
      "A:": 1016,
      "cons": 1017,
      "better": 1018,
      "Thank": 1019,
      "exam": 1020,
      "200": 1021,
      "both": 1022,
      "e.": 1023,
      "ident": 1024,
      "person": 1025,
      "cut": 1026,
      "ater": 1027,
      "few": 1028,
      "It's": 1029,
      "stru": 1030,
      "ms": 1031,
      "ĊĊĊ": 1032,
      "unt": 1033,
      "system": 1034,
      "arg": 1035,
      "ility": 1036,
      "load": 1037,
      "det": 1038,
      "ced": 1039,
      "air": 1040,
      "Mo": 1041,
      "place": 1042,
      "without": 1043,
      "case": 1044,
      "led": 1045,
      "things": 1046,
      "17": 1047,
      "oup": 1048,
      "Is": 1049,
      "3.": 1050,
      "next": 1051,
      "ically": 1052,
      "ner": 1053,
      "AT": 1054,
      "second": 1055,
      "sha": 1056,
      "another": 1057,
      "trans": 1058,
      "amp": 1059,
      "Fr": 1060,
      "eas": 1061,
      "sign": 1062,
      "cial": 1063,
      "giv": 1064,
      "ves": 1065,
      "bab": 1066,
      "post": 1067,
      "ense": 1068,
      "Str": 1069,
      "result": 1070,
      "it,": 1071,
      "Do": 1072,
      "thought": 1073,
      "issu": 1074,
      "čĊ": 1075,
      "ready": 1076,
      "di": 1077,
      "lock": 1078,
      "a,": 1079,
      "game": 1080,
      "ml": 1081,
      "state": 1082,
      "hard": 1083,
      "since": 1084,
      "week": 1085,
      "Ne": 1086,
      "cord": 1087,
      "keep": 1088,
      "ments": 1089,
      "pass": 1090,
      "comple": 1091,
      "vis": 1092,
      "number": 1093,
      "Be": 1094,
      "ĠĊĠ": 1095,
      "why": 1096,
      "ation.": 1097,
      "might": 1098,
      "pol": 1099,
      "possi": 1100,
      "25": 1101,
      "ĠĠĠĠĠĠĠĠĠĠĠĠ": 1102,
      "ush": 1103,
      "Lo": 1104,
      "didn't": 1105,
      "imes": 1106,
      "big": 1107,
      "always": 1108,
      "irect": 1109,
      "body": 1110,
      "change": 1111,
      "you're": 1112,
      "sk": 1113,
      "ĠĊĊ": 1114,
      "peri": 1115,
      "best": 1116,
      "respon": 1117,
      "AR": 1118,
      "can't": 1119,
      "def": 1120,
      "OR": 1121,
      "na": 1122,
      "that's": 1123,
      "velo": 1124,
      "key": 1125,
      "stat": 1126,
      "requ": 1127,
      "mean": 1128,
      "tom": 1129,
      "dec": 1130,
      "ly.": 1131,
      "kind": 1132,
      "ten": 1133,
      "give": 1134,
      "****": 1135,
      "world": 1136,
      "ages": 1137,
      "care": 1138,
      "thod": 1139,
      "On": 1140,
      "else": 1141,
      "ider": 1142,
      "Not": 1143,
      "left": 1144,
      "roll": 1145,
      "ities": 1146,
      "ator": 1147,
      "tribut": 1148,
      "::": 1149,
      "))": 1150,
      "spec": 1151,
      "Q:": 1152,
      "sum": 1153,
      "az": 1154,
      "ude": 1155,
      "user": 1156,
      "gg": 1157,
      "Ad": 1158,
      "();": 1159,
      "years": 1160,
      "When": 1161,
      "move": 1162,
      "trying": 1163,
      "check": 1164,
      "table": 1165,
      "100": 1166,
      "ref": 1167,
      "doesn't": 1168,
      "cour": 1169,
      "EN": 1170,
      "small": 1171,
      "sch": 1172,
      "Cl": 1173,
      "ics": 1174,
      "date": 1175,
      "charac": 1176,
      "ource": 1177,
      "current": 1178,
      "fam": 1179,
      "tern": 1180,
      "aren": 1181,
      "uring": 1182,
      "build": 1183,
      "cept": 1184,
      "ger": 1185,
      "away": 1186,
      "30": 1187,
      "mark": 1188,
      "home": 1189,
      "leg": 1190,
      "ows": 1191,
      "ings": 1192,
      "dep": 1193,
      "cum": 1194,
      "version": 1195,
      "actually": 1196,
      "ye": 1197,
      "ID": 1198,
      "arm": 1199,
      "ower": 1200,
      "wa": 1201,
      "prov": 1202,
      "support": 1203,
      "SE": 1204,
      "pret": 1205,
      "loo": 1206,
      "interest": 1207,
      "action": 1208,
      "nor": 1209,
      "story": 1210,
      "\":": 1211,
      "LE": 1212,
      "sit": 1213,
      "light": 1214,
      "ĊĠĠĠĠĠĠĠĠĠĠĠĠĠĠĠĠĠĠĠĠĠĠĠĠ": 1215,
      "oh": 1216,
      "doing": 1217,
      "pat": 1218,
      "ouse": 1219,
      "2,": 1220,
      "question": 1221,
      "sed": 1222,
      "gram": 1223,
      "ames": 1224,
      "search": 1225,
      "room": 1226,
      "chang": 1227,
      "defin": 1228,
      "struct": 1229,
      "vent": 1230,
      "anything": 1231,
      "happen": 1232,
      "solut": 1233,
      "plan": 1234,
      "('": 1235,
      "bro": 1236,
      "example": 1237,
      "looking": 1238,
      "ature": 1239,
      "os": 1240,
      "py": 1241,
      "ship": 1242,
      "three": 1243,
      "child": 1244,
      "group": 1245,
      "cy": 1246,
      "getting": 1247,
      "reason": 1248,
      "ele": 1249,
      "4.": 1250,
      "Gr": 1251,
      "ump": 1252,
      "IT": 1253,
      "done": 1254,
      "pack": 1255,
      "beli": 1256,
      "ied": 1257,
      "cap": 1258,
      "'ll": 1259,
      "-2": 1260,
      "ont": 1261,
      "All": 1262,
      "ery": 1263,
      "month": 1264,
      "develo": 1265,
      "dri": 1266,
      "ins": 1267,
      "w.": 1268,
      "enough": 1269,
      "ited": 1270,
      "came": 1271,
      "vi": 1272,
      "expect": 1273,
      "AL": 1274,
      "true": 1275,
      "inform": 1276,
      "ars": 1277,
      "beg": 1278,
      ".com/": 1279,
      "lin": 1280,
      "against": 1281,
      "qual": 1282,
      "Co": 1283,
      "someone": 1284,
      "includ": 1285,
      "field": 1286,
      "present": 1287,
      "ared": 1288,
      "At": 1289,
      "object": 1290,
      "sw": 1291,
      "method": 1292,
      "far": 1293,
      "string": 1294,
      "size": 1295,
      "mess": 1296,
      "level": 1297,
      "rol": 1298,
      "night": 1299,
      "working": 1300,
      "understand": 1301,
      "ational": 1302,
      "ation,": 1303,
      "US": 1304,
      "mal": 1305,
      "count": 1306,
      "mind": 1307,
      "option": 1308,
      "que": 1309,
      "proper": 1310,
      "error": 1311,
      "50": 1312,
      "already": 1313,
      "direct": 1314,
      "ik": 1315,
      "den": 1316,
      "possible": 1317,
      "iting": 1318,
      "probab": 1319,
      "item": 1320,
      "having": 1321,
      ",\"": 1322,
      "const": 1323,
      "IâĢĻ": 1324,
      "ead": 1325,
      "ures": 1326,
      "conne": 1327,
      "bed": 1328,
      "cell": 1329,
      "âĢĶ": 1330,
      "ĠĠĠĠĠ": 1331,
      "ized": 1332,
      "ues": 1333,
      "Res": 1334,
      "c.": 1335,
      "ream": 1336,
      "appro": 1337,
      "iter": 1338,
      "bus": 1339,
      "usic": 1340,
      "men": 1341,
      "Or": 1342,
      "free": 1343,
      "hold": 1344,
      ",âĢĿ": 1345,
      "lease": 1346,
      "model": 1347,
      "member": 1348,
      "must": 1349,
      "Ser": 1350,
      "web": 1351,
      "itch": 1352,
      "pose": 1353,
      "land": 1354,
      "ken": 1355,
      "String": 1356,
      "Br": 1357,
      "====": 1358,
      "Col": 1359,
      "vious": 1360,
      "rest": 1361,
      "\"You": 1362,
      "emp": 1363,
      "cho": 1364,
      "ient": 1365,
      "exp": 1366,
      "bad": 1367,
      "watch": 1368,
      "hy": 1369,
      "lead": 1370,
      "wom": 1371,
      "box": 1372,
      "this.": 1373,
      "View": 1374,
      "ulti": 1375,
      "pretty": 1376,
      "team": 1377,
      "t.": 1378,
      "lear": 1379,
      "project": 1380,
      "incre": 1381,
      "al.": 1382,
      "mom": 1383,
      "24": 1384,
      "New": 1385,
      "thor": 1386,
      "000": 1387,
      "process": 1388,
      "List": 1389,
      "AP": 1390,
      "alth": 1391,
      "plac": 1392,
      "report": 1393,
      "IS": 1394,
      "page": 1395,
      "contin": 1396,
      "ever,": 1397,
      "Name": 1398,
      "appe": 1399,
      "ener": 1400,
      "ided": 1401,
      "dex": 1402,
      "Âł": 1403,
      "until": 1404,
      "fic": 1405,
      "clear": 1406,
      "ier": 1407,
      "wer": 1408,
      "Can": 1409,
      "'ve": 1410,
      "1)": 1411,
      "cover": 1412,
      "scri": 1413,
      "probably": 1414,
      "www.": 1415,
      "vir": 1416,
      "e,": 1417,
      "Sh": 1418,
      "sof": 1419,
      "].": 1420,
      "once": 1421,
      "ross": 1422,
      "ird": 1423,
      "ground": 1424,
      "create": 1425,
      "roid": 1426,
      "s:": 1427,
      "pur": 1428,
      "Ty": 1429,
      "ement": 1430,
      "link": 1431,
      "Ob": 1432,
      "AS": 1433,
      "least": 1434,
      "ices": 1435,
      "partic": 1436,
      "hum": 1437,
      "product": 1438,
      "ired": 1439,
      "uff": 1440,
      "non": 1441,
      "uh": 1442,
      "32": 1443,
      "loc": 1444,
      "ĠĠĠĠĠĠĠĠĠĠĠĠĠĠĠĠĠĠĠĠĠĠĠĠĠĠĠĠĠĠĠĠ": 1445,
      "path": 1446,
      "ng": 1447,
      "server": 1448,
      "allow": 1449,
      "program": 1450,
      "based": 1451,
      "anyone": 1452,
      "everything": 1453,
      "ending": 1454,
      "develop": 1455,
      "position": 1456,
      "seems": 1457,
      "event": 1458,
      "vari": 1459,
      "Bo": 1460,
      "irl": 1461,
      "job": 1462,
      "ither": 1463,
      "CT": 1464,
      "install": 1465,
      "nb": 1466,
      "print": 1467,
      "cli": 1468,
      "lim": 1469,
      "ata": 1470,
      "row": 1471,
      "Im": 1472,
      "?âĢĿ": 1473,
      "wal": 1474,
      "s.\"": 1475,
      "https": 1476,
      "Ro": 1477,
      "ĊĠĠĠ": 1478,
      "pay": 1479,
      "ax": 1480,
      "power": 1481,
      "ks": 1482,
      "called": 1483,
      "school": 1484,
      "experi": 1485,
      "ivers": 1486,
      "hal": 1487,
      "Hi": 1488,
      "plain": 1489,
      "consider": 1490,
      "pen": 1491,
      "making": 1492,
      "during": 1493,
      "AM": 1494,
      "following": 1495,
      "Val": 1496,
      "went": 1497,
      "wind": 1498,
      "https://": 1499,
      "nothing": 1500,
      "3,": 1501,
      "With": 1502,
      "course": 1503,
      "s/": 1504,
      "jav": 1505,
      "bar": 1506,
      "ord": 1507,
      "le.": 1508,
      "5.": 1509,
      "ime": 1510,
      "(-": 1511,
      "Ð¾": 1512,
      "Le": 1513,
      "effect": 1514,
      "fix": 1515,
      "sho": 1516,
      "ES": 1517,
      "full": 1518,
      "Sy": 1519,
      "da": 1520,
      "dro": 1521,
      "als": 1522,
      "comes": 1523,
      "character": 1524,
      "ris": 1525,
      "hour": 1526,
      "aph": 1527,
      "nbsp": 1528,
      "ted": 1529,
      "ese": 1530,
      "gether": 1531,
      "nbsp;": 1532,
      "complete": 1533,
      "40": 1534,
      "cas": 1535,
      "class=\"": 1536,
      "ĊĊĠĠ": 1537,
      "##": 1538,
      "site": 1539,
      "makes": 1540,
      "applic": 1541,
      "tried": 1542,
      "local": 1543,
      "pped": 1544,
      "oc": 1545,
      "cument": 1546,
      "RO": 1547,
      "Id": 1548,
      "ness": 1549,
      "coming": 1550,
      "rect": 1551,
      "eve": 1552,
      "ism": 1553,
      "i.": 1554,
      "scre": 1555,
      "THE": 1556,
      "meric": 1557,
      "Po": 1558,
      "together": 1559,
      "ĊĠĠĠĠĠ": 1560,
      "Now": 1561,
      "Americ": 1562,
      "self.": 1563,
      "ugh": 1564,
      "wanted": 1565,
      "contain": 1566,
      "oper": 1567,
      "Cont": 1568,
      "CH": 1569,
      "&nbsp;": 1570,
      "sound": 1571,
      "descri": 1572,
      "kill": 1573,
      "war": 1574,
      "yet": 1575,
      "commun": 1576,
      "family": 1577,
      "gy": 1578,
      "!!": 1579,
      "ann": 1580,
      "select": 1581,
      "told": 1582,
      "ĊĠĠĠĠĠĠĠĠĠĠĠĠĠĠĠĠĠĠĠĠ": 1583,
      "void": 1584,
      "ake": 1585,
      "control": 1586,
      "perform": 1587,
      "map": 1588,
      "âĢ¦": 1589,
      "multi": 1590,
      "CO": 1591,
      "raw": 1592,
      "],": 1593,
      "talk": 1594,
      "took": 1595,
      "lat": 1596,
      "priv": 1597,
      "close": 1598,
      "omet": 1599,
      "content": 1600,
      "bal": 1601,
      "prof": 1602,
      "mone": 1603,
      "inal": 1604,
      "started": 1605,
      "I'll": 1606,
      "Any": 1607,
      "Af": 1608,
      "exist": 1609,
      "Pr": 1610,
      "break": 1611,
      "sty": 1612,
      "init": 1613,
      "girl": 1614,
      "aster": 1615,
      "alse": 1616,
      "html": 1617,
      "me.": 1618,
      "gre": 1619,
      "ago": 1620,
      "ital": 1621,
      "hope": 1622,
      "soci": 1623,
      "ion.": 1624,
      "cou": 1625,
      "empt": 1626,
      "rece": 1627,
      "serv": 1628,
      "ased": 1629,
      "ying": 1630,
      "prote": 1631,
      "*/": 1632,
      "wrong": 1633,
      "ED": 1634,
      "ately": 1635,
      "cul": 1636,
      "nel": 1637,
      "nam": 1638,
      "99": 1639,
      "64": 1640,
      "....": 1641,
      "ale": 1642,
      "works": 1643,
      "ister": 1644,
      "certain": 1645,
      "bel": 1646,
      "und": 1647,
      "config": 1648,
      "tech": 1649,
      "input": 1650,
      "=>": 1651,
      "ished": 1652,
      "bin": 1653,
      "ib": 1654,
      "ended": 1655,
      "mar": 1656,
      "Just": 1657,
      "By": 1658,
      "I'd": 1659,
      "information": 1660,
      "times": 1661,
      "Oh": 1662,
      "One": 1663,
      "base": 1664,
      "pick": 1665,
      "ability": 1666,
      "prom": 1667,
      "important": 1668,
      "lar": 1669,
      "running": 1670,
      "seen": 1671,
      "include": 1672,
      "win": 1673,
      "minut": 1674,
      "},": 1675,
      "**2": 1676,
      "lay": 1677,
      "wid": 1678,
      "Thanks": 1679,
      "short": 1680,
      "tar": 1681,
      "pop": 1682,
      "80": 1683,
      "âĢĵ": 1684,
      "whole": 1685,
      "refer": 1686,
      "Me": 1687,
      "\"We": 1688,
      "image": 1689,
      "law": 1690,
      "ount": 1691,
      "quick": 1692,
      "write": 1693,
      "aring": 1694,
      "card": 1695,
      "6.": 1696,
      "ret": 1697,
      "vide": 1698,
      "nice": 1699,
      "unch": 1700,
      "on.": 1701,
      "sever": 1702,
      "fully": 1703,
      "access": 1704,
      "iness": 1705,
      "almost": 1706,
      "maybe": 1707,
      "1/": 1708,
      "0000": 1709,
      "sugg": 1710,
      "four": 1711,
      "array": 1712,
      "house": 1713,
      "suggest": 1714,
      "bug": 1715,
      "arent": 1716,
      "gon": 1717,
      "believe": 1718,
      "depend": 1719,
      "60": 1720,
      "ned": 1721,
      "ply": 1722,
      "avail": 1723,
      "r.": 1724,
      "given": 1725,
      "tract": 1726,
      "document": 1727,
      "fail": 1728,
      "enter": 1729,
      "'d": 1730,
      "s)": 1731,
      "ception": 1732,
      "sor": 1733,
      "May": 1734,
      "22": 1735,
      "anal": 1736,
      "specific": 1737,
      "5,": 1738,
      "Type": 1739,
      "there's": 1740,
      "okay": 1741,
      "ĊĊĠĠĠĠĠĠĠĠ": 1742,
      "dist": 1743,
      "Then": 1744,
      "fault": 1745,
      "ctor": 1746,
      "him.": 1747,
      "gover": 1748,
      "suc": 1749,
      "quite": 1750,
      "instead": 1751,
      "typ": 1752,
      "today": 1753,
      "Man": 1754,
      "isn't": 1755,
      "tra": 1756,
      "dom": 1757,
      "S.": 1758,
      "stop": 1759,
      "mp": 1760,
      "IC": 1761,
      "script": 1762,
      "flo": 1763,
      "Ap": 1764,
      "fine": 1765,
      "mor": 1766,
      "on,": 1767,
      "whe": 1768,
      "match": 1769,
      "aim": 1770,
      "----------------": 1771,
      "ories": 1772,
      "lection": 1773,
      "chan": 1774,
      "idea": 1775,
      "fort": 1776,
      "manag": 1777,
      "âĪ": 1778,
      "past": 1779,
      "itive": 1780,
      "UR": 1781,
      "source": 1782,
      "eyes": 1783,
      "ilar": 1784,
      "tit": 1785,
      "color": 1786,
      "orig": 1787,
      "pull": 1788,
      "joy": 1789,
      "everyone": 1790,
      "android": 1791,
      "Li": 1792,
      "wonder": 1793,
      "vol": 1794,
      "them.": 1795,
      "request": 1796,
      "step": 1797,
      "ity.": 1798,
      "board": 1799,
      "correct": 1800,
      "pain": 1801,
      "large": 1802,
      "Qu": 1803,
      "ung": 1804,
      "meet": 1805,
      "posed": 1806,
      "felt": 1807,
      "ding": 1808,
      "live": 1809,
      "looked": 1810,
      "mill": 1811,
      "time.": 1812,
      "ote": 1813,
      "dam": 1814,
      "Some": 1815,
      "DE": 1816,
      "kid": 1817,
      "index": 1818,
      "adv": 1819,
      "II": 1820,
      "half": 1821,
      "After": 1822,
      "design": 1823,
      "Data": 1824,
      "host": 1825,
      "ĠĠĠĠĠĠ": 1826,
      "Get": 1827,
      "ling": 1828,
      "hist": 1829,
      "However,": 1830,
      "conf": 1831,
      "7.": 1832,
      "imple": 1833,
      "ides": 1834,
      "umn": 1835,
      "tem": 1836,
      "Ð¸": 1837,
      "block": 1838,
      "/>": 1839,
      "ible": 1840,
      "ones": 1841,
      "Ed": 1842,
      "Ðµ": 1843,
      "mid": 1844,
      "says": 1845,
      "answer": 1846,
      "please": 1847,
      "\")": 1848,
      "is,": 1849,
      "near": 1850,
      "logy": 1851,
      "within": 1852,
      "begin": 1853,
      "...\"": 1854,
      "space": 1855,
      "8.": 1856,
      "-3": 1857,
      "health": 1858,
      "outh": 1859,
      "LL": 1860,
      "said.": 1861,
      "inking": 1862,
      "bot": 1863,
      "record": 1864,
      "abo": 1865,
      "dev": 1866,
      "deal": 1867,
      "invest": 1868,
      "Ac": 1869,
      "bers": 1870,
      "dou": 1871,
      "stuff": 1872,
      "either": 1873,
      "strong": 1874,
      "grow": 1875,
      "looks": 1876,
      "fac": 1877,
      "NO": 1878,
      "gets": 1879,
      "available": 1880,
      "recent": 1881,
      "gn": 1882,
      "Sup": 1883,
      "company": 1884,
      "lang": 1885,
      "ric": 1886,
      "single": 1887,
      "means": 1888,
      "ured": 1889,
      "23": 1890,
      "ux": 1891,
      "met": 1892,
      "ised": 1893,
      "days": 1894,
      "known": 1895,
      "p.": 1896,
      "AC": 1897,
      "sort": 1898,
      "we're": 1899,
      "fall": 1900,
      "moment": 1901,
      "button": 1902,
      "me,": 1903,
      "tru": 1904,
      "imp": 1905,
      "ences": 1906,
      "0x": 1907,
      "ecut": 1908,
      "($": 1909,
      "series": 1910,
      "message": 1911,
      "water": 1912,
      "ING": 1913,
      "gonna": 1914,
      "ĠĠĊ": 1915,
      "heart": 1916,
      "vert": 1917,
      "ength": 1918,
      "sco": 1919,
      "La": 1920,
      "Mar": 1921,
      "org/": 1922,
      "sent": 1923,
      "gle": 1924,
      "ane": 1925,
      "stay": 1926,
      "yeah": 1927,
      "ache": 1928,
      "author": 1929,
      "activ": 1930,
      "ball": 1931,
      "equ": 1932,
      "Also": 1933,
      "common": 1934,
      "Ð°": 1935,
      "Don": 1936,
      "ment.": 1937,
      "super": 1938,
      "rather": 1939,
      "bor": 1940,
      "ession": 1941,
      "4,": 1942,
      "\".": 1943,
      "reading": 1944,
      "along": 1945,
      "Here": 1946,
      "ants": 1947,
      "relation": 1948,
      "pot": 1949,
      "AD": 1950,
      "ural": 1951,
      "ste": 1952,
      "2)": 1953,
      "phone": 1954,
      "His": 1955,
      "front": 1956,
      "ization": 1957,
      "gt": 1958,
      "UT": 1959,
      "IâĢĻm": 1960,
      "âĢĻre": 1961,
      "door": 1962,
      "ked": 1963,
      "issue": 1964,
      "Music": 1965,
      "detail": 1966,
      "m.": 1967,
      "money": 1968,
      "Ph": 1969,
      "http://www.": 1970,
      "aut": 1971,
      "exact": 1972,
      "Wor": 1973,
      "-1": 1974,
      "above": 1975,
      "hind": 1976,
      "matter": 1977,
      "service": 1978,
      "Cal": 1979,
      "he's": 1980,
      "yout": 1981,
      "mit": 1982,
      "ler": 1983,
      "govern": 1984,
      "send": 1985,
      "cially": 1986,
      "video": 1987,
      "private": 1988,
      "remain": 1989,
      "mission": 1990,
      "review": 1991,
      "********": 1992,
      "ets": 1993,
      "Univers": 1994,
      "pression": 1995,
      "ron": 1996,
      "27": 1997,
      "country": 1998,
      "Ð½": 1999,
      "auto": 2000,
      "inte": 2001,
      "Why": 2002,
      "including": 2003,
      "Hel": 2004,
      "uc": 2005,
      "remember": 2006,
      "graph": 2007,
      "):": 2008,
      "fuck": 2009,
      "ion,": 2010,
      "sequ": 2011,
      "ben": 2012,
      "ged": 2013,
      "Ċĉĉĉ": 2014,
      "Reg": 2015,
      "Text": 2016,
      "-0": 2017,
      "human": 2018,
      "tool": 2019,
      "ker": 2020,
      "g.": 2021,
      "Inst": 2022,
      "medi": 2023,
      "display": 2024,
      "OF": 2025,
      "âĢĺ": 2026,
      "Joh": 2027,
      "ĊĠĠĠĠĠĠĠĠĠĠ": 2028,
      "cost": 2029,
      "jor": 2030,
      "organ": 2031,
      "Ho": 2032,
      "similar": 2033,
      "experience": 2034,
      "aid": 2035,
      "ert": 2036,
      "enjoy": 2037,
      "mail": 2038,
      "Of": 2039,
      "files": 2040,
      "sn": 2041,
      "];": 2042,
      "err": 2043,
      "connect": 2044,
      "taking": 2045,
      "easy": 2046,
      "simple": 2047,
      "ify": 2048,
      "lib": 2049,
      "\");": 2050,
      "28": 2051,
      "perfect": 2052,
      "Ċĉĉĉĉ": 2053,
      "several": 2054,
      "ded": 2055,
      "itor": 2056,
      "inside": 2057,
      "train": 2058,
      "donâĢĻt": 2059,
      "Ste": 2060,
      "âĢľI": 2061,
      "press": 2062,
      "guy": 2063,
      "push": 2064,
      "ll,": 2065,
      "por": 2066,
      "Dis": 2067,
      "saw": 2068,
      "Te": 2069,
      "hit": 2070,
      "-4": 2071,
      "ouch": 2072,
      "in.": 2073,
      "ential": 2074,
      "fur": 2075,
      "often": 2076,
      "pan": 2077,
      "Par": 2078,
      "ina": 2079,
      "sex": 2080,
      "max": 2081,
      "children": 2082,
      "false": 2083,
      "][": 2084,
      "fre": 2085,
      "ines": 2086,
      "default": 2087,
      "oud": 2088,
      "Per": 2089,
      "himself": 2090,
      "knew": 2091,
      "command": 2092,
      "out.": 2093,
      "John": 2094,
      "ity,": 2095,
      "particular": 2096,
      "\"S": 2097,
      "33": 2098,
      "ET": 2099,
      "29": 2100,
      "Er": 2101,
      "fill": 2102,
      "ified": 2103,
      "wasn't": 2104,
      "[Music": 2105,
      "wards": 2106,
      "frame": 2107,
      "[Music]": 2108,
      "ived": 2109,
      "sle": 2110,
      "rist": 2111,
      "\"Y": 2112,
      "ION": 2113,
      "behind": 2114,
      "cat": 2115,
      "hor": 2116,
      "condition": 2117,
      "ĊĊĊĊ": 2118,
      "OS": 2119,
      "ru": 2120,
      "black": 2121,
      "business": 2122,
      "mach": 2123,
      "mag": 2124,
      "sup": 2125,
      "fav": 2126,
      "ather": 2127,
      "sense": 2128,
      "\"The": 2129,
      "pping": 2130,
      "mod": 2131,
      "ety": 2132,
      "reach": 2133,
      "recomm": 2134,
      "ral": 2135,
      "ists": 2136,
      "26": 2137,
      "null": 2138,
      "band": 2139,
      "(x": 2140,
      "/*": 2141,
      "gt;": 2142,
      "one.": 2143,
      "uses": 2144,
      "IM": 2145,
      "static": 2146,
      "all,": 2147,
      "draw": 2148,
      "&gt;": 2149,
      "uni": 2150,
      "round": 2151,
      "ond": 2152,
      "cannot": 2153,
      "td": 2154,
      "entire": 2155,
      "pract": 2156,
      "ffer": 2157,
      "you,": 2158,
      "0;": 2159,
      "mil": 2160,
      "due": 2161,
      "worth": 2162,
      "setting": 2163,
      "length": 2164,
      "hon": 2165,
      "uture": 2166,
      "they're": 2167,
      "ers,": 2168,
      "whether": 2169,
      "ray": 2170,
      "sal": 2171,
      "itâĢĻs": 2172,
      "\"What": 2173,
      "Set": 2174,
      "aking": 2175,
      "God": 2176,
      "TO": 2177,
      "that,": 2178,
      "\"A": 2179,
      "sil": 2180,
      "asked": 2181,
      "shot": 2182,
      "itut": 2183,
      "couple": 2184,
      "rele": 2185,
      "syn": 2186,
      "AND": 2187,
      "uro": 2188,
      "implement": 2189,
      "screen": 2190,
      "cording": 2191,
      "ring": 2192,
      "slow": 2193,
      "Bl": 2194,
      "mother": 2195,
      "output": 2196,
      "young": 2197,
      "regard": 2198,
      "myself": 2199,
      "success": 2200,
      "++": 2201,
      "offic": 2202,
      "ateg": 2203,
      "leave": 2204,
      "fire": 2205,
      "ĠĠĠĠĠĠĠ": 2206,
      "saying": 2207,
      "bi": 2208,
      "pho": 2209,
      "needs": 2210,
      "IP": 2211,
      "mov": 2212,
      "Au": 2213,
      "won't": 2214,
      "forward": 2215,
      "artic": 2216,
      "major": 2217,
      "market": 2218,
      "addition": 2219,
      "response": 2220,
      "fast": 2221,
      "across": 2222,
      "Che": 2223,
      "fair": 2224,
      "90": 2225,
      "application": 2226,
      "Object": 2227,
      "ore": 2228,
      "normal": 2229,
      "research": 2230,
      "tim": 2231,
      "women": 2232,
      "](": 2233,
      "guys": 2234,
      "cast": 2235,
      "pie": 2236,
      "in,": 2237,
      "up.": 2238,
      "itten": 2239,
      "\"He": 2240,
      "offer": 2241,
      "non-": 2242,
      "become": 2243,
      "valid": 2244,
      "width": 2245,
      "target": 2246,
      "situ": 2247,
      "boy": 2248,
      "px": 2249,
      "comput": 2250,
      "Mon": 2251,
      "discus": 2252,
      "File": 2253,
      "nes": 2254,
      "anc": 2255,
      "sam": 2256,
      "____": 2257,
      "elect": 2258,
      "blo": 2259,
      "tic": 2260,
      "final": 2261,
      "That's": 2262,
      "Add": 2263,
      "45": 2264,
      "opt": 2265,
      "solution": 2266,
      "below": 2267,
      "style": 2268,
      "ÑĤ": 2269,
      "Wind": 2270,
      "time,": 2271,
      "guess": 2272,
      "ension": 2273,
      "UN": 2274,
      "sat": 2275,
      "multiple": 2276,
      "fight": 2277,
      "og": 2278,
      "bring": 2279,
      "rad": 2280,
      "patch": 2281,
      "LO": 2282,
      "that.": 2283,
      "i-": 2284,
      "70": 2285,
      "')": 2286,
      "click": 2287,
      "icro": 2288,
      "i,": 2289,
      "day,": 2290,
      "ency": 2291,
      "aud": 2292,
      "ging": 2293,
      "espe": 2294,
      "polit": 2295,
      "Pl": 2296,
      "title": 2297,
      "dig": 2298,
      "mand": 2299,
      "itely": 2300,
      "HT": 2301,
      "35": 2302,
      "plate": 2303,
      "State": 2304,
      "System": 2305,
      "thinking": 2306,
      "hear": 2307,
      "you.": 2308,
      "section": 2309,
      "previous": 2310,
      "execut": 2311,
      "government": 2312,
      "future": 2313,
      "buy": 2314,
      "9.": 2315,
      "address": 2316,
      "later": 2317,
      "copy": 2318,
      "preci": 2319,
      "grad": 2320,
      "These": 2321,
      "food": 2322,
      "ers.": 2323,
      "explain": 2324,
      "late": 2325,
      "especially": 2326,
      "AB": 2327,
      "stream": 2328,
      "email": 2329,
      "client": 2330,
      "SS": 2331,
      "claim": 2332,
      "approach": 2333,
      "bt": 2334,
      "mention": 2335,
      "čĊĠĠ": 2336,
      "wait": 2337,
      "him,": 2338,
      "treat": 2339,
      "Act": 2340,
      "iss": 2341,
      "tax": 2342,
      "talking": 2343,
      "Bu": 2344,
      "Value": 2345,
      "aving": 2346,
      "heard": 2347,
      "University": 2348,
      "ples": 2349,
      "five": 2350,
      "pap": 2351,
      ")/": 2352,
      "ĠĠĠĠĠĠĠĠĠĠ": 2353,
      "spect": 2354,
      "friends": 2355,
      "likely": 2356,
      "column": 2357,
      "values": 2358,
      "range": 2359,
      "white": 2360,
      "eah": 2361,
      "ons": 2362,
      "season": 2363,
      "hair": 2364,
      "loy": 2365,
      "impro": 2366,
      "viron": 2367,
      "cir": 2368,
      ".get": 2369,
      "Inter": 2370,
      "comment": 2371,
      "rate": 2372,
      "window": 2373,
      "ision": 2374,
      "Please": 2375,
      "swe": 2376,
      "bly": 2377,
      "third": 2378,
      "ML": 2379,
      "general": 2380,
      "created": 2381,
      "_t": 2382,
      "Her": 2383,
      "ny": 2384,
      "wish": 2385,
      "><": 2386,
      "Nor": 2387,
      "said,": 2388,
      "0.0": 2389,
      "meas": 2390,
      "yes": 2391,
      "work.": 2392,
      "accept": 2393,
      "respect": 2394,
      "čĊĠĠĠĠ": 2395,
      "takes": 2396,
      "scen": 2397,
      "necess": 2398,
      "nal": 2399,
      "didnâĢĻt": 2400,
      "url": 2401,
      "Car": 2402,
      "ially": 2403,
      "hot": 2404,
      "price": 2405,
      "pict": 2406,
      "invol": 2407,
      "2*": 2408,
      "voice": 2409,
      "written": 2410,
      "conom": 2411,
      "ends": 2412,
      "dle": 2413,
      "atever": 2414,
      "store": 2415,
      "langu": 2416,
      "term": 2417,
      "Med": 2418,
      "hi": 2419,
      "ster": 2420,
      "needed": 2421,
      "attack": 2422,
      "dict": 2423,
      "others": 2424,
      "Fe": 2425,
      "Har": 2426,
      "Dep": 2427,
      "lost": 2428,
      "$$": 2429,
      "require": 2430,
      "release": 2431,
      "soft": 2432,
      "oid": 2433,
      "span": 2434,
      "results": 2435,
      "weight": 2436,
      "36": 2437,
      "mine": 2438,
      "standard": 2439,
      "wn": 2440,
      "From": 2441,
      "tware": 2442,
      "ometimes": 2443,
      "turned": 2444,
      "added": 2445,
      "clean": 2446,
      "ift": 2447,
      "special": 2448,
      "goes": 2449,
      "changes": 2450,
      "fit": 2451,
      "track": 2452,
      "happy": 2453,
      "study": 2454,
      "AG": 2455,
      "mot": 2456,
      "oogle": 2457,
      "simply": 2458,
      "glo": 2459,
      "bur": 2460,
      "ran": 2461,
      "\";": 2462,
      "========": 2463,
      "Ð¾Ð": 2464,
      "is.": 2465,
      "**3": 2466,
      "woman": 2467,
      "21": 2468,
      "father": 2469,
      "soon": 2470,
      "concer": 2471,
      "cript": 2472,
      "abase": 2473,
      "early": 2474,
      "laugh": 2475,
      "Rep": 2476,
      "gave": 2477,
      "Des": 2478,
      "force": 2479,
      "related": 2480,
      "update": 2481,
      "playing": 2482,
      "usually": 2483,
      "share": 2484,
      "deter": 2485,
      "custom": 2486,
      "anim": 2487,
      "total": 2488,
      "ensive": 2489,
      "lex": 2490,
      "active": 2491,
      "redu": 2492,
      "format": 2493,
      "taken": 2494,
      "Item": 2495,
      "Christ": 2496,
      "ives": 2497,
      "div>": 2498,
      "rep": 2499,
      "libr": 2500,
      "this,": 2501,
      "flow": 2502,
      "ional": 2503,
      "imag": 2504,
      "finally": 2505,
      "Time": 2506,
      "etc.": 2507,
      "account": 2508,
      "i'": 2509,
      "7,": 2510,
      "death": 2511,
      "sci": 2512,
      "query": 2513,
      "irst": 2514,
      "context": 2515,
      "social": 2516,
      "words": 2517,
      "package": 2518,
      "sem": 2519,
      "height": 2520,
      "ivid": 2521,
      "atic": 2522,
      "PC": 2523,
      "rc": 2524,
      "38": 2525,
      "via": 2526,
      "beaut": 2527,
      "property": 2528,
      "wise": 2529,
      "haven": 2530,
      "-5": 2531,
      "percent": 2532,
      "months": 2533,
      "ients": 2534,
      "touch": 2535,
      "further": 2536,
      "Go": 2537,
      "\"C": 2538,
      "history": 2539,
      "provide": 2540,
      "thread": 2541,
      "learn": 2542,
      "flu": 2543,
      "parame": 2544,
      "signific": 2545,
      "foot": 2546,
      "thank": 2547,
      "exactly": 2548,
      "issues": 2549,
      "moved": 2550,
      "6,": 2551,
      "define": 2552,
      "surpr": 2553,
      "Suppose": 2554,
      "Trump": 2555,
      "idence": 2556,
      "recommend": 2557,
      "ies.": 2558,
      "trad": 2559,
      "Every": 2560,
      "personal": 2561,
      "Jo": 2562,
      "distribut": 2563,
      "inc": 2564,
      "hands": 2565,
      "hur": 2566,
      "Ñģ": 2567,
      "outside": 2568,
      "definitely": 2569,
      "million": 2570,
      "exper": 2571,
      "us,": 2572,
      "exc": 2573,
      "NS": 2574,
      "tag": 2575,
      "je": 2576,
      "root": 2577,
      "ife": 2578,
      "characters": 2579,
      "ables": 2580,
      "\\n": 2581,
      "hop": 2582,
      "American": 2583,
      "ctions": 2584,
      "IG": 2585,
      "ried": 2586,
      "rid": 2587,
      "dead": 2588,
      "diffic": 2589,
      "ItâĢĻs": 2590,
      "\"I'm": 2591,
      "original": 2592,
      "First": 2593,
      "solute": 2594,
      "area": 2595,
      "Class": 2596,
      "_P": 2597,
      "ulation": 2598,
      "econom": 2599,
      "erial": 2600,
      "amount": 2601,
      "quality": 2602,
      "appreci": 2603,
      "continu": 2604,
      "Test": 2605,
      "ÑĢ": 2606,
      "dark": 2607,
      "verse": 2608,
      "couldn't": 2609,
      "expected": 2610,
      "48": 2611,
      "ony": 2612,
      "label": 2613,
      "php": 2614,
      "75": 2615,
      "save": 2616,
      "bill": 2617,
      "star": 2618,
      "element": 2619,
      "tre": 2620,
      "or.": 2621,
      "completely": 2622,
      "Over": 2623,
      "wel": 2624,
      "figure": 2625,
      "her.": 2626,
      "node": 2627,
      "info": 2628,
      "deep": 2629,
      "ses": 2630,
      "ilt": 2631,
      "core": 2632,
      "opp": 2633,
      "Bar": 2634,
      "join": 2635,
      "ument": 2636,
      "mm": 2637,
      "up,": 2638,
      "10.": 2639,
      "ley": 2640,
      "protect": 2641,
      "separ": 2642,
      "one,": 2643,
      "imm": 2644,
      "sleep": 2645,
      "ies,": 2646,
      "names": 2647,
      "spo": 2648,
      "well.": 2649,
      "phys": 2650,
      "way,": 2651,
      "sq": 2652,
      "environ": 2653,
      "music": 2654,
      "Ã©": 2655,
      "\"No": 2656,
      "andom": 2657,
      "Tw": 2658,
      "java": 2659,
      "acy": 2660,
      ".j": 2661,
      "city": 2662,
      "((": 2663,
      "});": 2664,
      "iful": 2665,
      "background": 2666,
      "abl": 2667,
      "whatever": 2668,
      "nat": 2669,
      "minutes": 2670,
      "havi": 2671,
      "</div>": 2672,
      "i'm": 2673,
      "day.": 2674,
      "fold": 2675,
      "photo": 2676,
      "ance.": 2677,
      "feeling": 2678,
      "Ab": 2679,
      "heav": 2680,
      "ats": 2681,
      "way.": 2682,
      "amer": 2683,
      "App": 2684,
      "camp": 2685,
      "Gu": 2686,
      "_id": 2687,
      "hours": 2688,
      "points": 2689,
      "hu": 2690,
      "Sch": 2691,
      "appear": 2692,
      "Pe": 2693,
      "sell": 2694,
      "Up": 2695,
      "IL": 2696,
      "again.": 2697,
      "speak": 2698,
      "individ": 2699,
      "wouldn't": 2700,
      "smo": 2701,
      "listen": 2702,
      ".org/": 2703,
      "favor": 2704,
      "ance,": 2705,
      "logical": 2706,
      "\"M": 2707,
      "ention": 2708,
      "all.": 2709,
      "writing": 2710,
      "ently": 2711,
      "rodu": 2712,
      "0)": 2713,
      "Good": 2714,
      "relationship": 2715,
      "34": 2716,
      "plug": 2717,
      "ãģ": 2718,
      "six": 2719,
      "moving": 2720,
      "cool": 2721,
      "Read": 2722,
      "loved": 2723,
      "ublic": 2724,
      "db": 2725,
      "fing": 2726,
      "ze": 2727,
      "switch": 2728,
      "mode": 2729,
      "currently": 2730,
      "âĪĴ": 2731,
      "hig": 2732,
      "blood": 2733,
      "boot": 2734,
      "morning": 2735,
      "cry": 2736,
      "Sam": 2737,
      "Hello": 2738,
      "yourself": 2739,
      "d.": 2740,
      "sus": 2741,
      "<div": 2742,
      "U.": 2743,
      "Engl": 2744,
      "Sp": 2745,
      "questions": 2746,
      "curity": 2747,
      "While": 2748,
      "ero": 2749,
      "$\\": 2750,
      "reco": 2751,
      "Ind": 2752,
      "squ": 2753,
      "let's": 2754,
      "road": 2755,
      "ules": 2756,
      "}{": 2757,
      "age.": 2758,
      "xml": 2759,
      "8,": 2760,
      "////": 2761,
      "DO": 2762,
      "sorry": 2763,
      "significant": 2764,
      "liter": 2765,
      "(a": 2766,
      "cket": 2767,
      "feature": 2768,
      "name=\"": 2769,
      "attempt": 2770,
      "media": 2771,
      "lean": 2772,
      "agree": 2773,
      "ally,": 2774,
      "iet": 2775,
      "among": 2776,
      "Maybe": 2777,
      "prim": 2778,
      "boo": 2779,
      "represent": 2780,
      "town": 2781,
      "OP": 2782,
      "NU": 2783,
      "contact": 2784,
      "users": 2785,
      "subject": 2786,
      "param": 2787,
      "lower": 2788,
      "atter": 2789,
      "period": 2790,
      "IR": 2791,
      "uration": 2792,
      "fan": 2793,
      "longer": 2794,
      "wide": 2795,
      "or,": 2796,
      "\"It's": 2797,
      "lic": 2798,
      "lip": 2799,
      "t,": 2800,
      "upon": 2801,
      "associ": 2802,
      "artment": 2803,
      "39": 2804,
      "shi": 2805,
      "ili": 2806,
      "asing": 2807,
      "development": 2808,
      "};": 2809,
      "Ge": 2810,
      "_S": 2811,
      "rup": 2812,
      "Error": 2813,
      "gain": 2814,
      "problems": 2815,
      "now,": 2816,
      "Even": 2817,
      "le,": 2818,
      "ds": 2819,
      "MA": 2820,
      "../": 2821,
      "cu": 2822,
      "analys": 2823,
      "ties": 2824,
      "Oh,": 2825,
      "37": 2826,
      "Your": 2827,
      "obvious": 2828,
      "Key": 2829,
      "material": 2830,
      "Out": 2831,
      "games": 2832,
      "shows": 2833,
      "higher": 2834,
      "behavi": 2835,
      "istic": 2836,
      "ium": 2837,
      "href": 2838,
      "ison": 2839,
      "ising": 2840,
      "shit": 2841,
      "safe": 2842,
      "anger": 2843,
      "wants": 2844,
      "Ke": 2845,
      "adding": 2846,
      "vot": 2847,
      "dest": 2848,
      "absolute": 2849,
      "['": 2850,
      "required": 2851,
      "aver": 2852,
      "android:": 2853,
      "roller": 2854,
      "memory": 2855,
      "national": 2856,
      "terms": 2857,
      "compon": 2858,
      "worked": 2859,
      "happened": 2860,
      "iment": 2861,
      "ney": 2862,
      "Ok": 2863,
      "ources": 2864,
      "lies": 2865,
      "ference": 2866,
      "database": 2867,
      "Min": 2868,
      "une": 2869,
      "ride": 2870,
      "lied": 2871,
      "individual": 2872,
      "amaz": 2873,
      "lif": 2874,
      "indic": 2875,
      "User": 2876,
      "Cha": 2877,
      "books": 2878,
      "I.": 2879,
      "(c": 2880,
      "reet": 2881,
      "interesting": 2882,
      "ances": 2883,
      "parent": 2884,
      "lines": 2885,
      "focus": 2886,
      "towards": 2887,
      "So,": 2888,
      "able.": 2889,
      "haven't": 2890,
      "ENT": 2891,
      "replac": 2892,
      "3*": 2893,
      "continue": 2894,
      "according": 2895,
      "now.": 2896,
      "(I": 2897,
      "\"\"": 2898,
      "(and": 2899,
      "counter": 2900,
      "defined": 2901,
      "haps": 2902,
      "giving": 2903,
      "difference": 2904,
      "65": 2905,
      "Sc": 2906,
      "decided": 2907,
      "anch": 2908,
      "Array": 2909,
      "uk": 2910,
      "ME": 2911,
      "rout": 2912,
      "Char": 2913,
      "catch": 2914,
      "plot": 2915,
      "TE": 2916,
      "device": 2917,
      "[]": 2918,
      "remove": 2919,
      "AA": 2920,
      "gun": 2921,
      "task": 2922,
      "atures": 2923,
      "imate": 2924,
      "online": 2925,
      "sport": 2926,
      "duct": 2927,
      "ĊĊĉ": 2928,
      "MS": 2929,
      "3)": 2930,
      "gress": 2931,
      "MP": 2932,
      "in-": 2933,
      "Int": 2934,
      "polic": 2935,
      "drop": 2936,
      "\"And": 2937,
      "paren": 2938,
      "mass": 2939,
      "software": 2940,
      "Date": 2941,
      "std": 2942,
      "honest": 2943,
      "slight": 2944,
      "deli": 2945,
      "></": 2946,
      "gives": 2947,
      "Cor": 2948,
      "pic": 2949,
      "crit": 2950,
      "sometimes": 2951,
      "(S": 2952,
      "thon": 2953,
      "len": 2954,
      "Does": 2955,
      "Exception": 2956,
      "building": 2957,
      "decl": 2958,
      "amp;": 2959,
      "serious": 2960,
      "CC": 2961,
      "IV": 2962,
      "here.": 2963,
      "().": 2964,
      "bound": 2965,
      "brother": 2966,
      "x.": 2967,
      "Fo": 2968,
      "living": 2969,
      "ama": 2970,
      "risk": 2971,
      "sun": 2972,
      "them,": 2973,
      "id=\"": 2974,
      "modu": 2975,
      "tes": 2976,
      "publ": 2977,
      "random": 2978,
      "admin": 2979,
      "itself": 2980,
      "connection": 2981,
      "lege": 2982,
      "math": 2983,
      "Red": 2984,
      "ught": 2985,
      "lying": 2986,
      "onto": 2987,
      "acc": 2988,
      "compet": 2989,
      "an,": 2990,
      "istr": 2991,
      "QL": 2992,
      "die": 2993,
      "Are": 2994,
      "beautiful": 2995,
      "TR": 2996,
      "mas": 2997,
      "sens": 2998,
      "double": 2999,
      "Open": 3000,
      "firm": 3001,
      "df": 3002,
      "status": 3003,
      "filter": 3004,
      "44": 3005,
      "changed": 3006,
      "kept": 3007,
      "culate": 3008,
      "community": 3009,
      "starting": 3010,
      "hol": 3011,
      "A.": 3012,
      "Gener": 3013,
      "cult": 3014,
      "bod": 3015,
      "ledge": 3016,
      "opin": 3017,
      "benef": 3018,
      "HO": 3019,
      "ender": 3020,
      "rom": 3021,
      "throw": 3022,
      "Event": 3023,
      "eter": 3024,
      "spl": 3025,
      "blue": 3026,
      "spir": 3027,
      "Don't": 3028,
      "initial": 3029,
      "spot": 3030,
      "aged": 3031,
      "positive": 3032,
      "seemed": 3033,
      "PS": 3034,
      "a-": 3035,
      "Fig": 3036,
      "Pres": 3037,
      "immedi": 3038,
      "Fl": 3039,
      "ai": 3040,
      "FF": 3041,
      "ino": 3042,
      "iles": 3043,
      "95": 3044,
      "expression": 3045,
      "dog": 3046,
      "!âĢĿ": 3047,
      "UI": 3048,
      "stra": 3049,
      "čĊčĊ": 3050,
      "1:": 3051,
      "CL": 3052,
      "easily": 3053,
      "Mr.": 3054,
      "themsel": 3055,
      "note": 3056,
      "drive": 3057,
      "out,": 3058,
      "choo": 3059,
      "techn": 3060,
      "compan": 3061,
      "CE": 3062,
      "Ger": 3063,
      "stri": 3064,
      "network": 3065,
      "Web": 3066,
      "library": 3067,
      "language": 3068,
      "modif": 3069,
      "reme": 3070,
      "Table": 3071,
      "coll": 3072,
      "s(": 3073,
      "mut": 3074,
      "$.": 3075,
      "ification": 3076,
      "wall": 3077,
      "9,": 3078,
      "knows": 3079,
      "Am": 3080,
      "en,": 3081,
      "ated.": 3082,
      "extra": 3083,
      "download": 3084,
      "iced": 3085,
      "Which": 3086,
      "Wr": 3087,
      "src": 3088,
      "har": 3089,
      "');": 3090,
      "rem": 3091,
      "itted": 3092,
      "held": 3093,
      "gest": 3094,
      "CON": 3095,
      "educ": 3096,
      "Spe": 3097,
      "avoid": 3098,
      "stor": 3099,
      "dir": 3100,
      "NA": 3101,
      "neg": 3102,
      "etc": 3103,
      "you'll": 3104,
      "handle": 3105,
      "-8": 3106,
      "environment": 3107,
      "role": 3108,
      "book.": 3109,
      "pi": 3110,
      "occur": 3111,
      "patients": 3112,
      "ortun": 3113,
      "2/": 3114,
      "pers": 3115,
      "huge": 3116,
      "party": 3117,
      "various": 3118,
      "ming": 3119,
      "frac": 3120,
      "tribute": 3121,
      "bottom": 3122,
      "55": 3123,
      "chance": 3124,
      "CP": 3125,
      "iding": 3126,
      "href=\"": 3127,
      "walk": 3128,
      "sen": 3129,
      "wik": 3130,
      "Jav": 3131,
      "difficult": 3132,
      "plat": 3133,
      "\"D": 3134,
      "!=": 3135,
      "SP": 3136,
      "introdu": 3137,
      "chall": 3138,
      "tree": 3139,
      "wood": 3140,
      "Sub": 3141,
      "feed": 3142,
      "66": 3143,
      "ter.": 3144,
      "energy": 3145,
      "_{": 3146,
      "ires": 3147,
      "Also,": 3148,
      "mouth": 3149,
      "dire": 3150,
      "org.": 3151,
      "zz": 3152,
      "Path": 3153,
      "~~": 3154,
      "gas": 3155,
      "player": 3156,
      "ustr": 3157,
      "Mc": 3158,
      "bes": 3159,
      "it.\"": 3160,
      "[1": 3161,
      "luck": 3162,
      "gam": 3163,
      "bb": 3164,
      "####": 3165,
      "$(": 3166,
      "4*": 3167,
      "center": 3168,
      "purch": 3169,
      "cup": 3170,
      "middle": 3171,
      "Note": 3172,
      "tries": 3173,
      "ban": 3174,
      "Coun": 3175,
      "Euro": 3176,
      "TER": 3177,
      "loop": 3178,
      "s?": 3179,
      "brow": 3180,
      "CD": 3181,
      "Manag": 3182,
      "affect": 3183,
      "larg": 3184,
      "ably": 3185,
      "astic": 3186,
      "Cur": 3187,
      "gar": 3188,
      "quar": 3189,
      "iday": 3190,
      "sym": 3191,
      "built": 3192,
      "picture": 3193,
      "reference": 3194,
      "lose": 3195,
      "cret": 3196,
      "machine": 3197,
      "bul": 3198,
      "you.\"": 3199,
      "regular": 3200,
      "seeing": 3201,
      "straight": 3202,
      "necessary": 3203,
      "example,": 3204,
      "assu": 3205,
      "integr": 3206,
      "piece": 3207,
      "ilities": 3208,
      "usion": 3209,
      "lack": 3210,
      "interested": 3211,
      "Em": 3212,
      "abor": 3213,
      "pair": 3214,
      "Net": 3215,
      "song": 3216,
      "War": 3217,
      "improve": 3218,
      "Hi,": 3219,
      "ination": 3220,
      "trave": 3221,
      "ival": 3222,
      "structure": 3223,
      "ÂłĠ": 3224,
      "Since": 3225,
      "received": 3226,
      "office": 3227,
      "illi": 3228,
      "ork": 3229,
      "there.": 3230,
      "actual": 3231,
      "news": 3232,
      "finish": 3233,
      "Ju": 3234,
      "âĢĻd": 3235,
      "combin": 3236,
      "dit": 3237,
      "except": 3238,
      "U.S.": 3239,
      "agre": 3240,
      "Service": 3241,
      "Sun": 3242,
      "88": 3243,
      "izing": 3244,
      "indust": 3245,
      "</a": 3246,
      "bs": 3247,
      "inner": 3248,
      "ware": 3249,
      "Where": 3250,
      "limit": 3251,
      "-0.": 3252,
      "(b": 3253,
      "Sha": 3254,
      "equal": 3255,
      "en.": 3256,
      "ped": 3257,
      "SQL": 3258,
      "played": 3259,
      "too.": 3260,
      "m_": 3261,
      "techno": 3262,
      "Lin": 3263,
      "although": 3264,
      "Ele": 3265,
      "dim": 3266,
      "pa": 3267,
      "engine": 3268,
      "trust": 3269,
      "Cre": 3270,
      "situation": 3271,
      "bag": 3272,
      "ideas": 3273,
      "cs": 3274,
      "Map": 3275,
      "quickly": 3276,
      "supposed": 3277,
      "police": 3278,
      "missing": 3279,
      "fortun": 3280,
      "investig": 3281,
      "members": 3282,
      "location": 3283,
      "Fin": 3284,
      "BO": 3285,
      "prefer": 3286,
      "&amp;": 3287,
      "potential": 3288,
      "skill": 3289,
      "pal": 3290,
      "nav": 3291,
      "layout": 3292,
      "apped": 3293,
      "Who": 3294,
      "Great": 3295,
      "rac": 3296,
      "trou": 3297,
      "more.": 3298,
      "master": 3299,
      "vict": 3300,
      "constant": 3301,
      "Like": 3302,
      "stood": 3303,
      "again,": 3304,
      "movie": 3305,
      "mber": 3306,
      "sav": 3307,
      "speed": 3308,
      "));": 3309,
      "Image": 3310,
      "us.": 3311,
      "System.": 3312,
      "Our": 3313,
      "ent.": 3314,
      "jud": 3315,
      "(or": 3316,
      "[0": 3317,
      "mix": 3318,
      "True": 3319,
      "2016": 3320,
      "Mark": 3321,
      "eye": 3322,
      "comfor": 3323,
      "complex": 3324,
      "and,": 3325,
      "SO": 3326,
      "achie": 3327,
      "See": 3328,
      "EX": 3329,
      "C.": 3330,
      "MO": 3331,
      "recogn": 3332,
      "ges": 3333,
      "Num": 3334,
      "repe": 3335,
      "More": 3336,
      "lad": 3337,
      "website": 3338,
      "mocr": 3339,
      "\"W": 3340,
      "weeks": 3341,
      "Su": 3342,
      "what's": 3343,
      "s_": 3344,
      "o,": 3345,
      "imum": 3346,
      "factor": 3347,
      "collect": 3348,
      "E_": 3349,
      "choice": 3350,
      "\"H": 3351,
      "m,": 3352,
      "Trans": 3353,
      "asy": 3354,
      "oul": 3355,
      "cross": 3356,
      "aren't": 3357,
      "gone": 3358,
      "covered": 3359,
      "valu": 3360,
      "ering": 3361,
      "iled": 3362,
      "IF": 3363,
      "ia,": 3364,
      "unk": 3365,
      "recently": 3366,
      "older": 3367,
      "variable": 3368,
      "pet": 3369,
      "van": 3370,
      "Dav": 3371,
      "ivity": 3372,
      "ases": 3373,
      "description": 3374,
      "sis": 3375,
      "77": 3376,
      "collection": 3377,
      "\\\\": 3378,
      "categ": 3379,
      "eat": 3380,
      "viol": 3381,
      "Context": 3382,
      "official": 3383,
      "XX": 3384,
      "earch": 3385,
      "security": 3386,
      "paper": 3387,
      "Model": 3388,
      "th,": 3389,
      "Windows": 3390,
      "well,": 3391,
      "scr": 3392,
      "emot": 3393,
      "':": 3394,
      "&&": 3395,
      "opportun": 3396,
      "her,": 3397,
      "shown": 3398,
      "driver": 3399,
      "sche": 3400,
      "weak": 3401,
      "bought": 3402,
      "Department": 3403,
      "urch": 3404,
      "spital": 3405,
      "brought": 3406,
      "img": 3407,
      "uary": 3408,
      "='": 3409,
      "ordin": 3410,
      "alone": 3411,
      "ague": 3412,
      "smile": 3413,
      "basically": 3414,
      "patient": 3415,
      "Because": 3416,
      "comments": 3417,
      "pite": 3418,
      "United": 3419,
      "\"L": 3420,
      "xy": 3421,
      "session": 3422,
      "channel": 3423,
      "age,": 3424,
      "ate.": 3425,
      "gent": 3426,
      "Run": 3427,
      "explo": 3428,
      "players": 3429,
      "Europe": 3430,
      "feels": 3431,
      "obtain": 3432,
      "SD": 3433,
      "commit": 3434,
      "images": 3435,
      "Code": 3436,
      "cing": 3437,
      "OK": 3438,
      "hood": 3439,
      "increase": 3440,
      "pressed": 3441,
      "types": 3442,
      "solve": 3443,
      "learning": 3444,
      "#include": 3445,
      "bility": 3446,
      "hom": 3447,
      "tle": 3448,
      "none": 3449,
      "template": 3450,
      "DB": 3451,
      "echo": 3452,
      "thanks": 3453,
      "god": 3454,
      "parents": 3455,
      "']": 3456,
      "article": 3457,
      "ube": 3458,
      "apter": 3459,
      "bing": 3460,
      "stick": 3461,
      ">>": 3462,
      "86": 3463,
      "students": 3464,
      "this:": 3465,
      "ae": 3466,
      "moder": 3467,
      "appoint": 3468,
      "xx": 3469,
      "n.": 3470,
      "tran": 3471,
      "Field": 3472,
      "drug": 3473,
      "imal": 3474,
      "ns": 3475,
      "writ": 3476,
      "lier": 3477,
      "global": 3478,
      "}}": 3479,
      "effic": 3480,
      "you've": 3481,
      "novel": 3482,
      "ford": 3483,
      "frac{": 3484,
      "consist": 3485,
      "Mic": 3486,
      "nt": 3487,
      "began": 3488,
      "knowledge": 3489,
      "prep": 3490,
      "PO": 3491,
      "to-": 3492,
      "VER": 3493,
      "useful": 3494,
      "beginning": 3495,
      "jour": 3496,
      "cases": 3497,
      "td>": 3498,
      "political": 3499,
      "performance": 3500,
      "strain": 3501,
      "legal": 3502,
      "2017": 3503,
      "ury": 3504,
      "ior": 3505,
      "micro": 3506,
      "lete": 3507,
      "grab": 3508,
      "know,": 3509,
      "kids": 3510,
      "2015": 3511,
      "rew": 3512,
      "ault": 3513,
      "stock": 3514,
      "Py": 3515,
      "URL": 3516,
      "domain": 3517,
      "allowed": 3518,
      "Off": 3519,
      "dream": 3520,
      "Hand": 3521,
      "assum": 3522,
      "<<": 3523,
      "bind": 3524,
      "util": 3525,
      "actions": 3526,
      "l.": 3527,
      "ease": 3528,
      "burn": 3529,
      "??": 3530,
      ":**": 3531,
      "solid": 3532,
      "mist": 3533,
      "aft": 3534,
      "render": 3535,
      "ators": 3536,
      "module": 3537,
      "';": 3538,
      "here,": 3539,
      "notice": 3540,
      "Right": 3541,
      "Sw": 3542,
      "reported": 3543,
      "she's": 3544,
      "tor": 3545,
      "âĢľYou": 3546,
      "o.": 3547,
      "argument": 3548,
      "Def": 3549,
      "former": 3550,
      ":)": 3551,
      "poor": 3552,
      "Regard": 3553,
      "Rus": 3554,
      "500": 3555,
      "pace": 3556,
      "miss": 3557,
      "2014": 3558,
      "proto": 3559,
      "Mess": 3560,
      "oups": 3561,
      "at.": 3562,
      "JS": 3563,
      "bank": 3564,
      "NOT": 3565,
      "^{": 3566,
      "announ": 3567,
      "shoot": 3568,
      "pattern": 3569,
      "TV": 3570,
      "Pol": 3571,
      "frequ": 3572,
      "b.": 3573,
      "hate": 3574,
      "mechan": 3575,
      "ĊĊĠĠĠĠĠĠĠĠĠĠĠĠ": 3576,
      "There's": 3577,
      "ians": 3578,
      "directly": 3579,
      "th.": 3580,
      "ution": 3581,
      "(C": 3582,
      "watching": 3583,
      "Part": 3584,
      "67": 3585,
      "49": 3586,
      "cand": 3587,
      "EL": 3588,
      "construct": 3589,
      "2013": 3590,
      "hang": 3591,
      "attach": 3592,
      "ively": 3593,
      "Group": 3594,
      "relative": 3595,
      "Jan": 3596,
      "extreme": 3597,
      "pha": 3598,
      "interface": 3599,
      "shop": 3600,
      "uel": 3601,
      "statement": 3602,
      "border": 3603,
      "ell": 3604,
      "1-": 3605,
      "Stat": 3606,
      "flag": 3607,
      "York": 3608,
      "47": 3609,
      "prior": 3610,
      "igr": 3611,
      "arri": 3612,
      "loss": 3613,
      "basic": 3614,
      "exception": 3615,
      "java:": 3616,
      "2012": 3617,
      "bon": 3618,
      "cop": 3619,
      "happens": 3620,
      "warm": 3621,
      "picked": 3622,
      "stories": 3623,
      "arily": 3624,
      "Log": 3625,
      "production": 3626,
      "El": 3627,
      "[i": 3628,
      "sud": 3629,
      "included": 3630,
      "Ð»": 3631,
      "Je": 3632,
      "trig": 3633,
      "ba": 3634,
      "options": 3635,
      "Other": 3636,
      "eval": 3637,
      "prevent": 3638,
      "Lic": 3639,
      "r/": 3640,
      "(n": 3641,
      "****************": 3642,
      "gor": 3643,
      "ceed": 3644,
      "edit": 3645,
      "\"B": 3646,
      "re-": 3647,
      "Most": 3648,
      "Ð²": 3649,
      "tt": 3650,
      "Thanks,": 3651,
      "asking": 3652,
      "px;": 3653,
      "WH": 3654,
      "goal": 3655,
      "compared": 3656,
      "fem": 3657,
      "ham": 3658,
      "5*": 3659,
      "Google": 3660,
      "Proper": 3661,
      "items": 3662,
      "meant": 3663,
      "strict": 3664,
      "Calculate": 3665,
      "Lu": 3666,
      "determin": 3667,
      "aves": 3668,
      "f.": 3669,
      "Jack": 3670,
      "menu": 3671,
      "particip": 3672,
      "ousand": 3673,
      "čĊĠĠĠĠĠĠĠĠ": 3674,
      "atory": 3675,
      "roy": 3676,
      "10,": 3677,
      "eral": 3678,
      "instance": 3679,
      "feet": 3680,
      "199": 3681,
      "direction": 3682,
      "sets": 3683,
      "deb": 3684,
      "considered": 3685,
      "grade": 3686,
      "(t": 3687,
      "brain": 3688,
      "(i": 3689,
      "parts": 3690,
      "(p": 3691,
      "favorite": 3692,
      "student": 3693,
      "ule": 3694,
      "English": 3695,
      "bud": 3696,
      "however,": 3697,
      "'.": 3698,
      "thus": 3699,
      "itter": 3700,
      "rix": 3701,
      "p>": 3702,
      "blog": 3703,
      "choose": 3704,
      "(P": 3705,
      "apping": 3706,
      "events": 3707,
      "ALL": 3708,
      "measure": 3709,
      "attention": 3710,
      "Sol": 3711,
      "back.": 3712,
      "type=\"": 3713,
      "sudden": 3714,
      "mur": 3715,
      "olog": 3716,
      "ume": 3717,
      "maintain": 3718,
      "Yeah": 3719,
      "ations.": 3720,
      "natural": 3721,
      "com/": 3722,
      "sec": 3723,
      "ram": 3724,
      "R.": 3725,
      "cold": 3726,
      "platform": 3727,
      "ĠĠĠĠĠĠĠĠĠĠĠ": 3728,
      "UP": 3729,
      "launch": 3730,
      "president": 3731,
      ":00": 3732,
      "_F": 3733,
      "responsi": 3734,
      "UL": 3735,
      "\"It": 3736,
      "however": 3737,
      "aj": 3738,
      "impact": 3739,
      "fed": 3740,
      "demon": 3741,
      "analy": 3742,
      "dynam": 3743,
      "life.": 3744,
      "unless": 3745,
      "Color": 3746,
      "Ðº": 3747,
      "green": 3748,
      "custo": 3749,
      "jump": 3750,
      "became": 3751,
      "A,": 3752,
      "liked": 3753,
      "edge": 3754,
      "Result": 3755,
      "features": 3756,
      "Index": 3757,
      "rock": 3758,
      "conso": 3759,
      "unit": 3760,
      "\"But": 3761,
      "doesnâĢĻt": 3762,
      "aste": 3763,
      "provided": 3764,
      "s-": 3765,
      "âĢľWe": 3766,
      "sold": 3767,
      "68": 3768,
      "analysis": 3769,
      "undred": 3770,
      "comfortable": 3771,
      "reli": 3772,
      "e.g.": 3773,
      "daugh": 3774,
      "aging": 3775,
      "numbers": 3776,
      "Request": 3777,
      "acher": 3778,
      "apply": 3779,
      "communic": 3780,
      "rot": 3781,
      "IB": 3782,
      "lie": 3783,
      "fucking": 3784,
      "ĊĊĠĠĠĠĠĠĠĠĠĠĠĠĠĠĠĠ": 3785,
      "AY": 3786,
      "posit": 3787,
      ":\"": 3788,
      "stack": 3789,
      "ana": 3790,
      "-year": 3791,
      "anced": 3792,
      "Canad": 3793,
      "unique": 3794,
      "hell": 3795,
      "waiting": 3796,
      "vision": 3797,
      "nearly": 3798,
      "tab": 3799,
      "rain": 3800,
      "entry": 3801,
      "antic": 3802,
      "themselves": 3803,
      "doc": 3804,
      "3/": 3805,
      "iny": 3806,
      "})": 3807,
      "there,": 3808,
      "Tom": 3809,
      "thousand": 3810,
      "inj": 3811,
      "||": 3812,
      "canâĢĻt": 3813,
      "rote": 3814,
      ":=": 3815,
      "Method": 3816,
      "inser": 3817,
      "4)": 3818,
      "Link": 3819,
      "diag": 3820,
      "2018": 3821,
      "struction": 3822,
      "HP": 3823,
      "h,": 3824,
      "dependent": 3825,
      "/**": 3826,
      "icon": 3827,
      "Sci": 3828,
      "mus": 3829,
      "empty": 3830,
      "font": 3831,
      "years.": 3832,
      "replace": 3833,
      "absolutely": 3834,
      "assign": 3835,
      "spent": 3836,
      "practice": 3837,
      "noticed": 3838,
      "wrap": 3839,
      "directory": 3840,
      "ĠĠĠĠĠĠĠĠĠĠĠĠĠ": 3841,
      "spend": 3842,
      "groups": 3843,
      "kernel": 3844,
      "wear": 3845,
      "mir": 3846,
      "foreign": 3847,
      "transform": 3848,
      "Java": 3849,
      "cd": 3850,
      "lap": 3851,
      "std::": 3852,
      "\"/>": 3853,
      "Edit": 3854,
      "to.": 3855,
      "IO": 3856,
      "register": 3857,
      "Button": 3858,
      "ĊĠĠĠĠĠĠĠ": 3859,
      "--------------------------------": 3860,
      "grand": 3861,
      "skin": 3862,
      "decision": 3863,
      "surv": 3864,
      "plant": 3865,
      "(int": 3866,
      "Mac": 3867,
      "threat": 3868,
      "camer": 3869,
      "fi": 3870,
      "latest": 3871,
      "work,": 3872,
      "believ": 3873,
      "umb": 3874,
      "beat": 3875,
      "mentioned": 3876,
      "shut": 3877,
      "drag": 3878,
      "Cap": 3879,
      "Ber": 3880,
      "mostly": 3881,
      "sad": 3882,
      "PM": 3883,
      "Source": 3884,
      "topic": 3885,
      "wasnâĢĻt": 3886,
      "bir": 3887,
      "discussion": 3888,
      "ternal": 3889,
      "youâĢĻre": 3890,
      "API": 3891,
      "doll": 3892,
      "Will": 3893,
      "breath": 3894,
      "sql": 3895,
      "NE": 3896,
      "ence,": 3897,
      "ike": 3898,
      "relig": 3899,
      "hundred": 3900,
      "perhaps": 3901,
      "strug": 3902,
      "contribut": 3903,
      "temp": 3904,
      "\\frac{": 3905,
      "rat": 3906,
      "dated": 3907,
      "Post": 3908,
      "World": 3909,
      "<a": 3910,
      "ahead": 3911,
      "answ": 3912,
      "virt": 3913,
      "average": 3914,
      "NULL": 3915,
      "x,": 3916,
      "certainly": 3917,
      "wrote": 3918,
      "Pat": 3919,
      "additional": 3920,
      "^2": 3921,
      "showed": 3922,
      "visit": 3923,
      "''": 3924,
      "worry": 3925,
      "reve": 3926,
      "pulled": 3927,
      "bey": 3928,
      "do.": 3929,
      "bio": 3930,
      "n,": 3931,
      "self-": 3932,
      "85": 3933,
      "PL": 3934,
      "Check": 3935,
      "rich": 3936,
      "ment,": 3937,
      "plus": 3938,
      "predict": 3939,
      "idge": 3940,
      "al,": 3941,
      "capt": 3942,
      "ter,": 3943,
      "Fun": 3944,
      "rupt": 3945,
      "scal": 3946,
      "ATE": 3947,
      "sounds": 3948,
      "pg": 3949,
      "China": 3950,
      "1;": 3951,
      "D.": 3952,
      "signed": 3953,
      "enced": 3954,
      "consu": 3955,
      "ence.": 3956,
      "charge": 3957,
      "gold": 3958,
      "i.e.": 3959,
      "Conne": 3960,
      "Okay": 3961,
      "Pa": 3962,
      "esome": 3963,
      ".html": 3964,
      "layer": 3965,
      "(the": 3966,
      "dd": 3967,
      "Line": 3968,
      "standing": 3969,
      "advice": 3970,
      "tight": 3971,
      "carry": 3972,
      "pow": 3973,
      "zero": 3974,
      "CA": 3975,
      "quiet": 3976,
      "eth": 3977,
      "Harry": 3978,
      "deriv": 3979,
      "imin": 3980,
      "physical": 3981,
      "ĊĠĠĠĠĠĠĠĠĠ": 3982,
      "data.": 3983,
      "telling": 3984,
      "ari": 3985,
      "detect": 3986,
      "Dr": 3987,
      "hus": 3988,
      "passed": 3989,
      "Sm": 3990,
      "T_": 3991,
      "brand": 3992,
      "attle": 3993,
      "marg": 3994,
      "password": 3995,
      "PE": 3996,
      "computer": 3997,
      "followed": 3998,
      "ises": 3999,
      "whose": 4000,
      "reng": 4001,
      "Size": 4002,
      "Start": 4003,
      "ously": 4004,
      "li>": 4005,
      "1.0": 4006,
      "sample": 4007,
      "upid": 4008,
      "purpose": 4009,
      "ky": 4010,
      "#define": 4011,
      "nu": 4012,
      "tail": 4013,
      "college": 4014,
      "me.\"": 4015,
      "Comp": 4016,
      "Once": 4017,
      "lives": 4018,
      "services": 4019,
      "fixed": 4020,
      "associated": 4021,
      "Aust": 4022,
      "End": 4023,
      "tick": 4024,
      "heâĢĻs": 4025,
      "demand": 4026,
      "complain": 4027,
      "Dan": 4028,
      "BE": 4029,
      "TP": 4030,
      "convers": 4031,
      "aware": 4032,
      "igno": 4033,
      "com.": 4034,
      "creating": 4035,
      "meeting": 4036,
      "entially": 4037,
      "altern": 4038,
      "\").": 4039,
      "year.": 4040,
      "gotten": 4041,
      "ico": 4042,
      "President": 4043,
      "temper": 4044,
      "AV": 4045,
      "negative": 4046,
      "til": 4047,
      "separate": 4048,
      "Sim": 4049,
      "Republic": 4050,
      "satis": 4051,
      "());": 4052,
      "\"Oh,": 4053,
      "allows": 4054,
      "ica": 4055,
      "cells": 4056,
      "details": 4057,
      "contains": 4058,
      "closed": 4059,
      "align": 4060,
      "calling": 4061,
      "mes": 4062,
      "\"This": 4063,
      "Config": 4064,
      "easier": 4065,
      "rible": 4066,
      "rief": 4067,
      "advant": 4068,
      ".c": 4069,
      "âĢĻll": 4070,
      "rough": 4071,
      "hero": 4072,
      "evidence": 4073,
      "slightly": 4074,
      "concept": 4075,
      "iff": 4076,
      "bum": 4077,
      "Server": 4078,
      "meaning": 4079,
      "(),": 4080,
      "scale": 4081,
      "(M": 4082,
      "46": 4083,
      "evalu": 4084,
      ".h": 4085,
      "sitting": 4086,
      "installed": 4087,
      "Cop": 4088,
      "fear": 4089,
      "amazing": 4090,
      "highly": 4091,
      "aign": 4092,
      "itary": 4093,
      "Stud": 4094,
      "sched": 4095,
      "java.": 4096,
      "mental": 4097,
      "tot": 4098,
      "abled": 4099,
      "mob": 4100,
      "drink": 4101,
      "Call": 4102,
      "els": 4103,
      "License": 4104,
      "dial": 4105,
      "inci": 4106,
      "etch": 4107,
      "starts": 4108,
      "arrow": 4109,
      "enty": 4110,
      "$,": 4111,
      "existing": 4112,
      "suit": 4113,
      "Select": 4114,
      "ĊĠĠĠĠĠĠĠĠĠĠĠĠĠĠ": 4115,
      "wife": 4116,
      "mary": 4117,
      "activity": 4118,
      "ief": 4119,
      "31": 4120,
      "fant": 4121,
      "________": 4122,
      "ate,": 4123,
      "calcul": 4124,
      "teach": 4125,
      "usual": 4126,
      "South": 4127,
      "film": 4128,
      "poly": 4129,
      "areas": 4130,
      "func": 4131,
      "establ": 4132,
      "sess": 4133,
      "putting": 4134,
      "WI": 4135,
      "Mr": 4136,
      "\"Yeah": 4137,
      "ls": 4138,
      "mi": 4139,
      "Fact": 4140,
      "worse": 4141,
      "Ben": 4142,
      "k.": 4143,
      "])": 4144,
      "tour": 4145,
      "Back": 4146,
      "v.": 4147,
      "ined": 4148,
      "methods": 4149,
      "at,": 4150,
      "ure,": 4151,
      "willing": 4152,
      "Info": 4153,
      "ROM": 4154,
      "cheap": 4155,
      "People": 4156,
      "cro": 4157,
      "states": 4158,
      "weap": 4159,
      "Fil": 4160,
      "David": 4161,
      "ashing": 4162,
      "testing": 4163,
      "(which": 4164,
      "appropri": 4165,
      "enjoyed": 4166,
      "appears": 4167,
      "bow": 4168,
      "psy": 4169,
      "paid": 4170,
      "itude": 4171,
      "craz": 4172,
      "factors": 4173,
      "300": 4174,
      "chain": 4175,
      "training": 4176,
      "immediately": 4177,
      "vant": 4178,
      "fell": 4179,
      "E.": 4180,
      "cape": 4181,
      "progress": 4182,
      "automat": 4183,
      "hael": 4184,
      "split": 4185,
      "parameter": 4186,
      "though,": 4187,
      "course,": 4188,
      "CR": 4189,
      "Cent": 4190,
      "man,": 4191,
      "weird": 4192,
      "origin": 4193,
      "oil": 4194,
      "broken": 4195,
      "âĢĻve": 4196,
      "cook": 4197,
      "buffer": 4198,
      "management": 4199,
      "cise": 4200,
      "\"F": 4201,
      "clas": 4202,
      "Create": 4203,
      "2:": 4204,
      "influ": 4205,
      "streng": 4206,
      "prime": 4207,
      "-up": 4208,
      "Author": 4209,
      "inch": 4210,
      "years,": 4211,
      "served": 4212,
      "asc": 4213,
      "popular": 4214,
      "pool": 4215,
      "profession": 4216,
      "stupid": 4217,
      "involved": 4218,
      "understanding": 4219,
      "idden": 4220,
      "it?": 4221,
      "///": 4222,
      "irt": 4223,
      "Node": 4224,
      "right,": 4225,
      "shared": 4226,
      "sweet": 4227,
      "elements": 4228,
      "angle": 4229,
      "nature": 4230,
      "calls": 4231,
      "finding": 4232,
      "leaving": 4233,
      "selected": 4234,
      "aries": 4235,
      "Last": 4236,
      "husband": 4237,
      "component": 4238,
      "Inte": 4239,
      "Ear": 4240,
      "Brit": 4241,
      "arely": 4242,
      "CK": 4243,
      "neigh": 4244,
      "industry": 4245,
      "ia.": 4246,
      "False": 4247,
      "we'll": 4248,
      "branch": 4249,
      "amb": 4250,
      "returns": 4251,
      "-6": 4252,
      "secret": 4253,
      "treatment": 4254,
      "d,": 4255,
      "if(": 4256,
      "damage": 4257,
      "rap": 4258,
      "hurt": 4259,
      "json": 4260,
      "holding": 4261,
      "herself": 4262,
      "broad": 4263,
      "loye": 4264,
      "ic,": 4265,
      "Did": 4266,
      "shall": 4267,
      "Mod": 4268,
      "ancial": 4269,
      "cc": 4270,
      "ilder": 4271,
      "chest": 4272,
      "fresh": 4273,
      "seven": 4274,
      "Two": 4275,
      "Day": 4276,
      "down.": 4277,
      "biggest": 4278,
      "pleas": 4279,
      "trouble": 4280,
      "arms": 4281,
      "https://www.": 4282,
      "opened": 4283,
      "ene": 4284,
      "').": 4285,
      "pages": 4286,
      "Mag": 4287,
      "High": 4288,
      "s\"": 4289,
      "teen": 4290,
      "stopped": 4291,
      "89": 4292,
      "this?": 4293,
      "\"T": 4294,
      "lling": 4295,
      "rench": 4296,
      "Now,": 4297,
      "float": 4298,
      "primary": 4299,
      "mac": 4300,
      "neck": 4301,
      "book,": 4302,
      "we've": 4303,
      "contract": 4304,
      "Pri": 4305,
      "ember": 4306,
      "_name": 4307,
      "Ð¿": 4308,
      "clearly": 4309,
      "zy": 4310,
      "linux": 4311,
      "classes": 4312,
      "vector": 4313,
      "(1": 4314,
      "this->": 4315,
      "so,": 4316,
      "pressure": 4317,
      "otherwise": 4318,
      "gi": 4319,
      "places": 4320,
      "CS": 4321,
      "sequence": 4322,
      "an.": 4323,
      "plication": 4324,
      "employ": 4325,
      "gro": 4326,
      "controll": 4327,
      "excl": 4328,
      "divided": 4329,
      "year,": 4330,
      "DS": 4331,
      "header": 4332,
      "welcome": 4333,
      "baby": 4334,
      "Content": 4335,
      "accur": 4336,
      "ive.": 4337,
      "surface": 4338,
      "effort": 4339,
      "ec": 4340,
      "Dat": 4341,
      "../../": 4342,
      "shad": 4343,
      "al.,": 4344,
      "named": 4345,
      "campaign": 4346,
      "shape": 4347,
      "companies": 4348,
      "ous.": 4349,
      "(B": 4350,
      "IE": 4351,
      "_1": 4352,
      "-based": 4353,
      "caught": 4354,
      "rules": 4355,
      "North": 4356,
      "Cr": 4357,
      "finished": 4358,
      "ure.": 4359,
      "Micro": 4360,
      "cel": 4361,
      "experiment": 4362,
      ":0": 4363,
      "National": 4364,
      "transl": 4365,
      "4/": 4366,
      "San": 4367,
      "Element": 4368,
      "guard": 4369,
      "described": 4370,
      "---": 4371,
      "nother": 4372,
      "fee": 4373,
      "Sat": 4374,
      "Linux": 4375,
      ")\"": 4376,
      "Black": 4377,
      "obviously": 4378,
      "\"[": 4379,
      "Met": 4380,
      "){": 4381,
      "ries": 4382,
      "Query": 4383,
      "Best": 4384,
      "dad": 4385,
      "Action": 4386,
      "tore": 4387,
      "somewhere": 4388,
      "wondering": 4389,
      "definition": 4390,
      "file.": 4391,
      "57": 4392,
      "Ma": 4393,
      "properties": 4394,
      "America": 4395,
      "quant": 4396,
      "Box": 4397,
      "glass": 4398,
      "respond": 4399,
      "earlier": 4400,
      "able,": 4401,
      "functions": 4402,
      "HTML": 4403,
      "chair": 4404,
      "\"Well,": 4405,
      "King": 4406,
      "pm": 4407,
      "tradition": 4408,
      "pes": 4409,
      "ga": 4410,
      "numer": 4411,
      "problem.": 4412,
      "KE": 4413,
      "M.": 4414,
      "cit": 4415,
      "case,": 4416,
      "read.": 4417,
      "scope": 4418,
      "iliar": 4419,
      "âĢ¢": 4420,
      "bert": 4421,
      "Wal": 4422,
      "includes": 4423,
      "back,": 4424,
      "Stream": 4425,
      "beyond": 4426,
      "totally": 4427,
      "assist": 4428,
      "smart": 4429,
      "growth": 4430,
      "more,": 4431,
      "Chin": 4432,
      "-9": 4433,
      "heavy": 4434,
      "Yes,": 4435,
      "Cli": 4436,
      "Message": 4437,
      "quer": 4438,
      "GB": 4439,
      "ĊĊĠ": 4440,
      "Jap": 4441,
      "limited": 4442,
      "aff": 4443,
      "-to-": 4444,
      "Only": 4445,
      "Vis": 4446,
      "lots": 4447,
      "letter": 4448,
      "extension": 4449,
      "Gre": 4450,
      "iction": 4451,
      "receive": 4452,
      "cess.": 4453,
      "Option": 4454,
      "killed": 4455,
      "policy": 4456,
      "(d": 4457,
      "as,": 4458,
      "ots": 4459,
      "compar": 4460,
      "emer": 4461,
      "deg": 4462,
      "-7": 4463,
      "ened": 4464,
      "subst": 4465,
      "FO": 4466,
      "ĊĊĠĊĊ": 4467,
      "score": 4468,
      "Ret": 4469,
      "fat": 4470,
      "DR": 4471,
      "Alex": 4472,
      "showing": 4473,
      "teacher": 4474,
      "87": 4475,
      "uint": 4476,
      "hun": 4477,
      "sister": 4478,
      "ya": 4479,
      "i/": 4480,
      "nil": 4481,
      "69": 4482,
      "s;": 4483,
      "hic": 4484,
      "Rev": 4485,
      "spring": 4486,
      "FOR": 4487,
      "managed": 4488,
      "debug": 4489,
      "Mat": 4490,
      "sigh": 4491,
      "umbl": 4492,
      "apache": 4493,
      "studies": 4494,
      "ĉĉĉĉ": 4495,
      "ali": 4496,
      "internal": 4497,
      "reveal": 4498,
      "failed": 4499,
      "suffer": 4500,
      "Vers": 4501,
      "forget": 4502,
      "remind": 4503,
      "leader": 4504,
      "urs": 4505,
      "trade": 4506,
      "birth": 4507,
      "runs": 4508,
      "cation": 4509,
      "md": 4510,
      "House": 4511,
      "100%": 4512,
      "Many": 4513,
      "Another": 4514,
      "k,": 4515,
      "derivative": 4516,
      "glad": 4517,
      "\"P": 4518,
      "assert": 4519,
      "ĊĠĠĠĠĠĠĠĠĠĠĠĠĠĠĠĠĠĠĠĠĠĠĠĠĠĠĠĠ": 4520,
      "behavior": 4521,
      "Ð¼": 4522,
      "realize": 4523,
      "export": 4524,
      "fish": 4525,
      "prop": 4526,
      "resh": 4527,
      "ech": 4528,
      "google": 4529,
      "enn": 4530,
      "leading": 4531,
      "5)": 4532,
      "products": 4533,
      "auth": 4534,
      "-10": 4535,
      "closer": 4536,
      "P.": 4537,
      "eventually": 4538,
      "levels": 4539,
      "s...": 4540,
      "(T": 4541,
      "resist": 4542,
      "IâĢĻve": 4543,
      "familiar": 4544,
      "Head": 4545,
      "adjust": 4546,
      "Steve": 4547,
      "reflect": 4548,
      "Use": 4549,
      "game.": 4550,
      "concl": 4551,
      "arest": 4552,
      "iver": 4553,
      "disease": 4554,
      "git": 4555,
      "West": 4556,
      "smaller": 4557,
      "extremely": 4558,
      "thatâĢĻs": 4559,
      "systems": 4560,
      "danger": 4561,
      "not.": 4562,
      "Project": 4563,
      "Android": 4564,
      "achieve": 4565,
      "turns": 4566,
      "changing": 4567,
      "msg": 4568,
      "FA": 4569,
      "posite": 4570,
      "particularly": 4571,
      "ause": 4572,
      "e-": 4573,
      "corpor": 4574,
      "ithub": 4575,
      "race": 4576,
      "ality": 4577,
      "59": 4578,
      "kick": 4579,
      "suck": 4580,
      "doubt": 4581,
      "medical": 4582,
      "enem": 4583,
      "(c)": 4584,
      "setup": 4585,
      "univers": 4586,
      "despite": 4587,
      "Property": 4588,
      "clin": 4589,
      "customer": 4590,
      "born": 4591,
      "GL": 4592,
      "truly": 4593,
      "MB": 4594,
      "*)": 4595,
      "ic.": 4596,
      "itute": 4597,
      "keeping": 4598,
      "walked": 4599,
      "(N": 4600,
      "though.": 4601,
      "YO": 4602,
      "Wid": 4603,
      "floor": 4604,
      "phas": 4605,
      "adult": 4606,
      "iling": 4607,
      "candid": 4608,
      "fol": 4609,
      "dates": 4610,
      "foc": 4611,
      "ations,": 4612,
      "GO": 4613,
      "())": 4614,
      "acqu": 4615,
      "Ang": 4616,
      "School": 4617,
      "za": 4618,
      "conduct": 4619,
      "Michael": 4620,
      "Point": 4621,
      "therefore": 4622,
      "assume": 4623,
      "economic": 4624,
      "Number": 4625,
      "rule": 4626,
      "Find": 4627,
      "relevant": 4628,
      "region": 4629,
      "(in": 4630,
      "generally": 4631,
      "Friday": 4632,
      "released": 4633,
      "street": 4634,
      ".set": 4635,
      "ov": 4636,
      "================": 4637,
      "eight": 4638,
      "helped": 4639,
      "awesome": 4640,
      "Well,": 4641,
      "orry": 4642,
      "transfer": 4643,
      "Copy": 4644,
      "BY": 4645,
      "_D": 4646,
      "ott": 4647,
      "connected": 4648,
      "stage": 4649,
      "faster": 4650,
      "Tim": 4651,
      "upload": 4652,
      "vote": 4653,
      "Although": 4654,
      "rights": 4655,
      "wan": 4656,
      "2-": 4657,
      "replacement": 4658,
      "delete": 4659,
      "scan": 4660,
      "military": 4661,
      "minute": 4662,
      "quarter": 4663,
      "opinion": 4664,
      "placed": 4665,
      "interview": 4666,
      "untu": 4667,
      "ius": 4668,
      "stain": 4669,
      "lips": 4670,
      "deliver": 4671,
      "erson": 4672,
      "apt": 4673,
      "thro": 4674,
      "Ñĥ": 4675,
      "theory": 4676,
      "HE": 4677,
      "imagine": 4678,
      "Frame": 4679,
      "(x)": 4680,
      "tend": 4681,
      "gorith": 4682,
      "ju": 4683,
      "thentic": 4684,
      "Aug": 4685,
      "apparent": 4686,
      "-in": 4687,
      "ships": 4688,
      "be.": 4689,
      "\"That's": 4690,
      "letters": 4691,
      "conver": 4692,
      "ĠĠĠĠĠĠĠĠĠĠĠĠĠĠ": 4693,
      "2011": 4694,
      "strange": 4695,
      "ivil": 4696,
      "Load": 4697,
      "Lon": 4698,
      "daughter": 4699,
      "cru": 4700,
      "PR": 4701,
      "mun": 4702,
      "Mer": 4703,
      "Max": 4704,
      "ous,": 4705,
      "Democr": 4706,
      "successful": 4707,
      "Tech": 4708,
      "clip": 4709,
      "generated": 4710,
      "Bas": 4711,
      "2020": 4712,
      "Well": 4713,
      "Dean": 4714,
      "Very": 4715,
      "Det": 4716,
      "github": 4717,
      "say,": 4718,
      "Form": 4719,
      "browser": 4720,
      "istration": 4721,
      "to,": 4722,
      "possibly": 4723,
      "lets": 4724,
      "(a)": 4725,
      "``": 4726,
      "TS": 4727,
      "ression": 4728,
      "throughout": 4729,
      "Love": 4730,
      "walking": 4731,
      "obj": 4732,
      "\\in": 4733,
      "Control": 4734,
      "people.": 4735,
      "resource": 4736,
      "tests": 4737,
      "knowing": 4738,
      "produce": 4739,
      "MM": 4740,
      "reached": 4741,
      "appreciate": 4742,
      "coding": 4743,
      "hospital": 4744,
      "FROM": 4745,
      "aa": 4746,
      "away.": 4747,
      "subscri": 4748,
      "helps": 4749,
      "Window": 4750,
      "daily": 4751,
      "Face": 4752,
      "\"They": 4753,
      "resources": 4754,
      "opportunity": 4755,
      "sian": 4756,
      "signal": 4757,
      "tele": 4758,
      "City": 4759,
      "tired": 4760,
      "end.": 4761,
      "Click": 4762,
      "LECT": 4763,
      "UE": 4764,
      "56": 4765,
      "March": 4766,
      "////////": 4767,
      "financial": 4768,
      "Controller": 4769,
      "hes": 4770,
      "2.0": 4771,
      "</a>": 4772,
      "(f": 4773,
      "configuration": 4774,
      "Current": 4775,
      "400": 4776,
      "nd": 4777,
      "Lou": 4778,
      "name,": 4779,
      "serve": 4780,
      "expand": 4781,
      "apart": 4782,
      "ams": 4783,
      "dimension": 4784,
      "Apr": 4785,
      "learned": 4786,
      "developed": 4787,
      "aur": 4788,
      "batter": 4789,
      "]\"": 4790,
      "disappoint": 4791,
      "Each": 4792,
      "iso": 4793,
      "becomes": 4794,
      "rit": 4795,
      "FL": 4796,
      "princi": 4797,
      "filled": 4798,
      "Pre": 4799,
      "modern": 4800,
      "cellent": 4801,
      "2019": 4802,
      "Pal": 4803,
      "termin": 4804,
      "summer": 4805,
      "ibility": 4806,
      "truth": 4807,
      "increasing": 4808,
      "blank": 4809,
      "steps": 4810,
      "moun": 4811,
      "ario": 4812,
      "effects": 4813,
      "phy": 4814,
      "append": 4815,
      "slowly": 4816,
      "increased": 4817,
      "permission": 4818,
      "conditions": 4819,
      "off.": 4820,
      "thes": 4821,
      "alpha": 4822,
      "ails": 4823,
      "Main": 4824,
      "Direct": 4825,
      "partner": 4826,
      "mitted": 4827,
      "quot": 4828,
      "published": 4829,
      "phen": 4830,
      "died": 4831,
      "sight": 4832,
      "${": 4833,
      "growing": 4834,
      "radio": 4835,
      "peace": 4836,
      "trip": 4837,
      "\"How": 4838,
      "Input": 4839,
      "couldnâĢĻt": 4840,
      "aly": 4841,
      "ĠĊĠĠĠĠ": 4842,
      "generate": 4843,
      "43": 4844,
      "on-": 4845,
      "General": 4846,
      "anno": 4847,
      "aspect": 4848,
      "ee": 4849,
      "caused": 4850,
      "wed": 4851,
      "shock": 4852,
      "Pan": 4853,
      "contr": 4854,
      "python": 4855,
      "Dev": 4856,
      "inct": 4857,
      "murder": 4858,
      "employe": 4859,
      "erve": 4860,
      "returned": 4861,
      "Its": 4862,
      "grap": 4863,
      "Jes": 4864,
      "orrow": 4865,
      "tur": 4866,
      "[2": 4867,
      "nearest": 4868,
      "asp": 4869,
      "larger": 4870,
      "hook": 4871,
      "literally": 4872,
      "âĢľThe": 4873,
      "[\"": 4874,
      "Isl": 4875,
      "matrix": 4876,
      "bright": 4877,
      "requires": 4878,
      "ners": 4879,
      "Que": 4880,
      "rt": 4881,
      "retch": 4882,
      "internet": 4883,
      "Child": 4884,
      "android.": 4885,
      "ald": 4886,
      "appeared": 4887,
      "demonstr": 4888,
      "({": 4889,
      "}\\": 4890,
      "TY": 4891,
      "club": 4892,
      "forced": 4893,
      "room.": 4894,
      "alle": 4895,
      "Row": 4896,
      "zon": 4897,
      "UK": 4898,
      "Count": 4899,
      "ĊĠĊ": 4900,
      "\"If": 4901,
      "court": 4902,
      "election": 4903,
      "WE": 4904,
      "provides": 4905,
      "Base": 4906,
      "credit": 4907,
      "brief": 4908,
      "Hope": 4909,
      "scient": 4910,
      "42": 4911,
      "c_": 4912,
      "insert": 4913,
      "proced": 4914,
      "challeng": 4915,
      "degree": 4916,
      "conv": 4917,
      "estim": 4918,
      "hand,": 4919,
      "Men": 4920,
      "ara": 4921,
      "Let's": 4922,
      "Chap": 4923,
      "category": 4924,
      "ERE": 4925,
      "Oc": 4926,
      "chron": 4927,
      "Cell": 4928,
      "Book": 4929,
      "Center": 4930,
      "histor": 4931,
      "States": 4932,
      "Us": 4933,
      "cof": 4934,
      "\",\"": 4935,
      "depart": 4936,
      "Chris": 4937,
      "ÂłÂł": 4938,
      "not,": 4939,
      "thing.": 4940,
      "kno": 4941,
      "-12": 4942,
      "James": 4943,
      "-old": 4944,
      "stuck": 4945,
      "highest": 4946,
      "Japan": 4947,
      "wat": 4948,
      "[1]": 4949,
      "encour": 4950,
      "kiss": 4951,
      "lab": 4952,
      "London": 4953,
      "stress": 4954,
      "greater": 4955,
      "Ð´": 4956,
      "spread": 4957,
      "Version": 4958,
      "world.": 4959,
      "posted": 4960,
      "wonderful": 4961,
      "sme": 4962,
      "opening": 4963,
      "appropriate": 4964,
      "Afr": 4965,
      "anyway": 4966,
      "(new": 4967,
      "enge": 4968,
      "as.": 4969,
      "token": 4970,
      "izes": 4971,
      "wild": 4972,
      "audi": 4973,
      "checked": 4974,
      "countries": 4975,
      "attract": 4976,
      "mobile": 4977,
      "79": 4978,
      "/0": 4979,
      "regul": 4980,
      "Paul": 4981,
      "remote": 4982,
      "ĊĊĊĊĊ": 4983,
      "Would": 4984,
      "ait": 4985,
      "omb": 4986,
      "hoping": 4987,
      "fields": 4988,
      "somehow": 4989,
      "ening": 4990,
      "girls": 4991,
      "(r": 4992,
      "ilo": 4993,
      "well-": 4994,
      "attr": 4995,
      "layout_": 4996,
      "distance": 4997,
      "ive,": 4998,
      "advance": 4999,
      "pointer": 5000,
      "afr": 5001,
      "tools": 5002,
      "Have": 5003,
      "\"So": 5004,
      "han": 5005,
      "dont": 5006,
      "sick": 5007,
      "bunch": 5008,
      "technology": 5009,
      "vehic": 5010,
      "saf": 5011,
      "bool": 5012,
      "Found": 5013,
      "Del": 5014,
      "shouldn't": 5015,
      "sin": 5016,
      "imately": 5017,
      "suff": 5018,
      "Work": 5019,
      "Free": 5020,
      "capital": 5021,
      "norm": 5022,
      "objects": 5023,
      "id.": 5024,
      "Figure": 5025,
      "plicit": 5026,
      "cycle": 5027,
      "Bro": 5028,
      "diagno": 5029,
      "desk": 5030,
      "........": 5031,
      "kn": 5032,
      "-f": 5033,
      "kin": 5034,
      "ves.": 5035,
      "ine,": 5036,
      "ent,": 5037,
      "do,": 5038,
      "Respon": 5039,
      "Make": 5040,
      "overall": 5041,
      "nut": 5042,
      "face.": 5043,
      "White": 5044,
      "BC": 5045,
      "Rich": 5046,
      "adem": 5047,
      "optim": 5048,
      "warning": 5049,
      "\"You're": 5050,
      "monitor": 5051,
      "\"(": 5052,
      "story.": 5053,
      "crash": 5054,
      "txt": 5055,
      "fection": 5056,
      "documentation": 5057,
      "PD": 5058,
      "los": 5059,
      "ated,": 5060,
      "OL": 5061,
      "(b)": 5062,
      "algorith": 5063,
      "decre": 5064,
      "Second": 5065,
      "XML": 5066,
      "travel": 5067,
      "SELECT": 5068,
      "foo": 5069,
      "missed": 5070,
      "Has": 5071,
      "fingers": 5072,
      "thoughts": 5073,
      "PA": 5074,
      "decide": 5075,
      "bat": 5076,
      ".)": 5077,
      "heat": 5078,
      "compl": 5079,
      "symbo": 5080,
      "assess": 5081,
      "incredi": 5082,
      "Using": 5083,
      "profile": 5084,
      "parameters": 5085,
      "loud": 5086,
      "inno": 5087,
      "cancer": 5088,
      "Both": 5089,
      "ĊĊĠĠĠ": 5090,
      "ascript": 5091,
      "population": 5092,
      "infl": 5093,
      "Manager": 5094,
      "Next": 5095,
      "clos": 5096,
      "billion": 5097,
      "anti-": 5098,
      "athe": 5099,
      "owner": 5100,
      "dress": 5101,
      "11.": 5102,
      "good.": 5103,
      "hidden": 5104,
      "occas": 5105,
      "dry": 5106,
      "boost": 5107,
      "aces": 5108,
      "Sept": 5109,
      "cloud": 5110,
      "cele": 5111,
      "Ã³": 5112,
      "ology": 5113,
      "byte": 5114,
      "gri": 5115,
      "pre-": 5116,
      "hide": 5117,
      "designed": 5118,
      "vey": 5119,
      "Look": 5120,
      "plugin": 5121,
      "Ã¤": 5122,
      "uster": 5123,
      "volume": 5124,
      "trick": 5125,
      "Mor": 5126,
      "Layout": 5127,
      "\"She": 5128,
      "worst": 5129,
      "Sen": 5130,
      "Ver": 5131,
      "submit": 5132,
      "exer": 5133,
      "rank": 5134,
      "ago,": 5135,
      "messages": 5136,
      "Port": 5137,
      "promise": 5138,
      "twice": 5139,
      "affic": 5140,
      "Public": 5141,
      "anti": 5142,
      "Austral": 5143,
      "Ñı": 5144,
      "js": 5145,
      "ester": 5146,
      "h.": 5147,
      "a's": 5148,
      "trial": 5149,
      "virtual": 5150,
      "doctor": 5151,
      "rub": 5152,
      "wave": 5153,
      "controller": 5154,
      "Before": 5155,
      "-19": 5156,
      "watched": 5157,
      "cache": 5158,
      "life,": 5159,
      "system.": 5160,
      "Fire": 5161,
      "akes": 5162,
      "ifi": 5163,
      "destroy": 5164,
      "updated": 5165,
      "whis": 5166,
      "ãĤ": 5167,
      "iel": 5168,
      "Try": 5169,
      "crazy": 5170,
      "Rom": 5171,
      "58": 5172,
      "Page": 5173,
      "+=": 5174,
      "powerful": 5175,
      "minor": 5176,
      "techni": 5177,
      "raised": 5178,
      "flash": 5179,
      "kis": 5180,
      "temperature": 5181,
      "soul": 5182,
      "Ama": 5183,
      "crow": 5184,
      "Rob": 5185,
      "1000": 5186,
      "Default": 5187,
      "Sal": 5188,
      "ado": 5189,
      "nation": 5190,
      "Health": 5191,
      "seconds": 5192,
      "78": 5193,
      "effective": 5194,
      "icking": 5195,
      "mask": 5196,
      "kne": 5197,
      "ooking": 5198,
      "expensive": 5199,
      "operator": 5200,
      "shar": 5201,
      "proof": 5202,
      "oth": 5203,
      "tells": 5204,
      "čĊĠĠĠĠĠĠ": 5205,
      "parse": 5206,
      "realized": 5207,
      "Sum": 5208,
      "iving": 5209,
      "&nbsp;&nbsp;": 5210,
      "attribut": 5211,
      "thern": 5212,
      "go.": 5213,
      "down,": 5214,
      "B.": 5215,
      "broke": 5216,
      "ites": 5217,
      "planning": 5218,
      "ission": 5219,
      ")*": 5220,
      "Script": 5221,
      "Î±": 5222,
      "external": 5223,
      "5/": 5224,
      "church": 5225,
      "scene": 5226,
      "April": 5227,
      "nic": 5228,
      "et.": 5229,
      "OUT": 5230,
      "UG": 5231,
      "efficient": 5232,
      "benefit": 5233,
      "science": 5234,
      "continued": 5235,
      "sites": 5236,
      "keys": 5237,
      "(A": 5238,
      "seg": 5239,
      "head.": 5240,
      "folder": 5241,
      "majority": 5242,
      "suspect": 5243,
      "wire": 5244,
      "Cour": 5245,
      "According": 5246,
      "Rel": 5247,
      "utter": 5248,
      "evol": 5249,
      "Prof": 5250,
      "(1)": 5251,
      "panel": 5252,
      "people,": 5253,
      "Gen": 5254,
      "2010": 5255,
      "Research": 5256,
      "(2": 5257,
      "Chapter": 5258,
      "clock": 5259,
      "right.": 5260,
      "implementation": 5261,
      "cil": 5262,
      "regarding": 5263,
      "Park": 5264,
      "inde": 5265,
      "mouse": 5266,
      "staff": 5267,
      "delay": 5268,
      "ka": 5269,
      "USA": 5270,
      "cture": 5271,
      "ĠĠĠĠĠĠĠĠĠĠĠĠĠĠĠĠĠĠĠĠĠĠĠĠĠĠĠĠĠĠĠĠĠĠĠĠĠĠĠĠĠĠĠĠĠĠĠĠ": 5272,
      "formation": 5273,
      "Mart": 5274,
      "Mid": 5275,
      "windows": 5276,
      "too,": 5277,
      "fairly": 5278,
      "wash": 5279,
      "nom": 5280,
      "hat": 5281,
      "Peter": 5282,
      "toward": 5283,
      "celebr": 5284,
      "/or": 5285,
      "prove": 5286,
      "concent": 5287,
      "Ill": 5288,
      "Jim": 5289,
      "turning": 5290,
      "audio": 5291,
      "\"></": 5292,
      "function()": 5293,
      "then,": 5294,
      "Ã¡": 5295,
      "lting": 5296,
      "fact,": 5297,
      "tellig": 5298,
      "odd": 5299,
      "damn": 5300,
      "consum": 5301,
      "C,": 5302,
      "âĶ": 5303,
      "ln": 5304,
      "Apple": 5305,
      "transition": 5306,
      "chapter": 5307,
      "No,": 5308,
      "âĻ": 5309,
      "SH": 5310,
      "assuming": 5311,
      "trict": 5312,
      "you'd": 5313,
      "android:layout_": 5314,
      "distribution": 5315,
      "istics": 5316,
      "bother": 5317,
      "_C": 5318,
      "get_": 5319,
      "Star": 5320,
      "happening": 5321,
      "enable": 5322,
      "Eng": 5323,
      "Command": 5324,
      "value=\"": 5325,
      "Wed": 5326,
      "square": 5327,
      "uments": 5328,
      "tro": 5329,
      "las": 5330,
      "ĠĠĊĊ": 5331,
      "net/": 5332,
      "saved": 5333,
      "Sur": 5334,
      "true,": 5335,
      "lift": 5336,
      "D,": 5337,
      "reduce": 5338,
      "IST": 5339,
      "Here's": 5340,
      "$this->": 5341,
      "ices.": 5342,
      "convert": 5343,
      "editor": 5344,
      "observ": 5345,
      "suddenly": 5346,
      "automatically": 5347,
      "1\"": 5348,
      "Ur": 5349,
      "iven": 5350,
      "gin": 5351,
      "y-": 5352,
      "_p": 5353,
      "bigger": 5354,
      "TA": 5355,
      "weren": 5356,
      ")?": 5357,
      "fortunate": 5358,
      "ensure": 5359,
      "u.": 5360,
      "54": 5361,
      "nod": 5362,
      "f,": 5363,
      "digit": 5364,
      "atives": 5365,
      "Column": 5366,
      "sales": 5367,
      "s.âĢĿ": 5368,
      "jack": 5369,
      "fine.": 5370,
      "encies": 5371,
      "12.": 5372,
      "container": 5373,
      "TL": 5374,
      "Phil": 5375,
      "3-": 5376,
      "Python": 5377,
      "Bel": 5378,
      "ids": 5379,
      "extract": 5380,
      "removed": 5381,
      "belong": 5382,
      "ulate": 5383,
      "afraid": 5384,
      "park": 5385,
      "JSON": 5386,
      "plans": 5387,
      "thick": 5388,
      "iler": 5389,
      "place.": 5390,
      "critical": 5391,
      "trigger": 5392,
      "-->": 5393,
      "stro": 5394,
      "anywhere": 5395,
      "'S": 5396,
      "struggl": 5397,
      "models": 5398,
      "Fed": 5399,
      "variables": 5400,
      "performed": 5401,
      "camera": 5402,
      "ufact": 5403,
      "ages.": 5404,
      "](http://": 5405,
      "rul": 5406,
      "acity": 5407,
      "76": 5408,
      "yard": 5409,
      "reci": 5410,
      "GR": 5411,
      "_.": 5412,
      "tee": 5413,
      "pository": 5414,
      "hous": 5415,
      "uce": 5416,
      "compare": 5417,
      "<?": 5418,
      "code.": 5419,
      "(D": 5420,
      "counts": 5421,
      "coach": 5422,
      "Mal": 5423,
      "mad": 5424,
      "stable": 5425,
      "restrict": 5426,
      "Tem": 5427,
      "SU": 5428,
      "considering": 5429,
      "supported": 5430,
      "PRO": 5431,
      "png": 5432,
      "commer": 5433,
      "surprised": 5434,
      "metal": 5435,
      "c,": 5436,
      "<!": 5437,
      "J.": 5438,
      "determine": 5439,
      "international": 5440,
      "errors": 5441,
      "album": 5442,
      "stretch": 5443,
      "yester": 5444,
      "rows": 5445,
      "e)": 5446,
      "{{": 5447,
      "ATION": 5448,
      "ÃŃ": 5449,
      "You're": 5450,
      "pun": 5451,
      "Christian": 5452,
      "medic": 5453,
      "CI": 5454,
      "-s": 5455,
      "traffic": 5456,
      "cock": 5457,
      "shift": 5458,
      "line.": 5459,
      "excited": 5460,
      "bath": 5461,
      "summary": 5462,
      "rum": 5463,
      "Satur": 5464,
      "Regards,": 5465,
      "pad": 5466,
      "Super": 5467,
      "purchase": 5468,
      "end,": 5469,
      "ican": 5470,
      "Instead": 5471,
      "reasons": 5472,
      "perspect": 5473,
      "ART": 5474,
      "corner": 5475,
      "96": 5476,
      "marri": 5477,
      "Thom": 5478,
      "sexual": 5479,
      "Tues": 5480,
      "Isra": 5481,
      "EDIT": 5482,
      "surround": 5483,
      "Client": 5484,
      "ounds": 5485,
      "cription": 5486,
      "ARE": 5487,
      "point.": 5488,
      "stars": 5489,
      "id,": 5490,
      "!!!": 5491,
      "gather": 5492,
      "x_": 5493,
      "Down": 5494,
      "tric": 5495,
      "bell": 5496,
      "cheek": 5497,
      "p,": 5498,
      "estern": 5499,
      "high-": 5500,
      "Hello,": 5501,
      "bits": 5502,
      "Should": 5503,
      "farm": 5504,
      "and/or": 5505,
      "bac": 5506,
      "98": 5507,
      "Compon": 5508,
      "ine.": 5509,
      "advantage": 5510,
      "orial": 5511,
      "education": 5512,
      "He's": 5513,
      "eyes.": 5514,
      "satisf": 5515,
      "tomorrow": 5516,
      "manager": 5517,
      "cycl": 5518,
      "driving": 5519,
      "FI": 5520,
      "Lord": 5521,
      "\"G": 5522,
      "lan": 5523,
      "crack": 5524,
      "nie": 5525,
      "packages": 5526,
      "Long": 5527,
      "flat": 5528,
      "pure": 5529,
      "central": 5530,
      "consci": 5531,
      "Tok": 5532,
      "applied": 5533,
      "vill": 5534,
      "together.": 5535,
      "linear": 5536,
      "here.\"": 5537,
      "protected": 5538,
      "orge": 5539,
      "spirit": 5540,
      "culture": 5541,
      "(!": 5542,
      "January": 5543,
      "ades": 5544,
      "Thurs": 5545,
      "mort": 5546,
      "electron": 5547,
      "shr": 5548,
      "Update": 5549,
      "Willi": 5550,
      "ining": 5551,
      "keeps": 5552,
      "(-2": 5553,
      "strength": 5554,
      "attribute": 5555,
      "cash": 5556,
      "None": 5557,
      "located": 5558,
      "guide": 5559,
      "knock": 5560,
      "compile": 5561,
      "S_": 5562,
      "somewhat": 5563,
      "wearing": 5564,
      "Tit": 5565,
      "helpful": 5566,
      "(m": 5567,
      "Sty": 5568,
      "_type": 5569,
      "iped": 5570,
      "is:": 5571,
      "June": 5572,
      "\"No,": 5573,
      "examples": 5574,
      "wing": 5575,
      "\"Why": 5576,
      "(\\": 5577,
      "selection": 5578,
      "bird": 5579,
      "prepared": 5580,
      "List<": 5581,
      "ago.": 5582,
      "meta": 5583,
      "S,": 5584,
      "mean,": 5585,
      "Pet": 5586,
      "cert": 5587,
      "ordered": 5588,
      "Could": 5589,
      "berg": 5590,
      "AME": 5591,
      "ifying": 5592,
      "ishing": 5593,
      "prob": 5594,
      "previously": 5595,
      "queue": 5596,
      "icient": 5597,
      "tonight": 5598,
      "perfectly": 5599,
      "confl": 5600,
      "help.": 5601,
      "fund": 5602,
      "ifor": 5603,
      "Play": 5604,
      "ij": 5605,
      "}$": 5606,
      "(R": 5607,
      "ancing": 5608,
      "challenge": 5609,
      "outer": 5610,
      "Frank": 5611,
      "function(": 5612,
      "eper": 5613,
      "l,": 5614,
      "faith": 5615,
      "stract": 5616,
      "excellent": 5617,
      "native": 5618,
      "hash": 5619,
      "Big": 5620,
      "antly": 5621,
      "surprise": 5622,
      "INT": 5623,
      "Execut": 5624,
      "somebody": 5625,
      "Cas": 5626,
      "ws": 5627,
      "dropped": 5628,
      "civil": 5629,
      "\\\"": 5630,
      "atom": 5631,
      "breaking": 5632,
      "pin": 5633,
      "complic": 5634,
      "zo": 5635,
      "earth": 5636,
      "Those": 5637,
      "et,": 5638,
      "sid": 5639,
      "Override": 5640,
      "rush": 5641,
      "scroll": 5642,
      "impossible": 5643,
      "reader": 5644,
      "other.": 5645,
      "concern": 5646,
      "ĠÂł": 5647,
      "chem": 5648,
      "Arg": 5649,
      "-year-old": 5650,
      "thinks": 5651,
      "anx": 5652,
      "female": 5653,
      "Cus": 5654,
      "Serv": 5655,
      "graphic": 5656,
      "ĠĠĠĠĠĠĠĠĠĠĠĠĠĠĠ": 5657,
      "are,": 5658,
      "flex": 5659,
      "French": 5660,
      "wit": 5661,
      "Hy": 5662,
      "victim": 5663,
      "vit": 5664,
      "Christmas": 5665,
      "lived": 5666,
      "EM": 5667,
      "trail": 5668,
      "dynamic": 5669,
      "Build": 5670,
      "responding": 5671,
      "speaking": 5672,
      "ni": 5673,
      "aming": 5674,
      "âĢľWhat": 5675,
      "iforn": 5676,
      "kit": 5677,
      "Nove": 5678,
      "Label": 5679,
      "gan": 5680,
      "ï¼": 5681,
      "react": 5682,
      "poll": 5683,
      "list.": 5684,
      "igation": 5685,
      "b,": 5686,
      "yes,": 5687,
      "ping": 5688,
      "better.": 5689,
      "co-": 5690,
      "buying": 5691,
      "UD": 5692,
      "room,": 5693,
      "ulty": 5694,
      "Still": 5695,
      "ABLE": 5696,
      "Chang": 5697,
      "assem": 5698,
      "ental": 5699,
      "domin": 5700,
      "CHAP": 5701,
      "omen": 5702,
      "ANT": 5703,
      "Application": 5704,
      "no,": 5705,
      "scenario": 5706,
      "[[": 5707,
      "animal": 5708,
      "\"]": 5709,
      "čĊĠĠĠĠĠĠĠĠĠĠĠĠ": 5710,
      "=1": 5711,
      "isnâĢĻt": 5712,
      "abilities": 5713,
      "properly": 5714,
      "professional": 5715,
      "losing": 5716,
      "serial": 5717,
      "css": 5718,
      "iot": 5719,
      "so.": 5720,
      "_B": 5721,
      "cards": 5722,
      "strateg": 5723,
      "dialog": 5724,
      "Task": 5725,
      "Street": 5726,
      "Jon": 5727,
      "Htt": 5728,
      "frag": 5729,
      "lu": 5730,
      "Medic": 5731,
      "########": 5732,
      "venue": 5733,
      "pand": 5734,
      "finger": 5735,
      "decis": 5736,
      "presence": 5737,
      "ager": 5738,
      "6*": 5739,
      "eith": 5740,
      "protein": 5741,
      "whom": 5742,
      "Bill": 5743,
      "propos": 5744,
      "tested": 5745,
      "Dr.": 5746,
      "protocol": 5747,
      "ANY": 5748,
      "ano": 5749,
      "aked": 5750,
      "oring": 5751,
      "reaction": 5752,
      "Ext": 5753,
      "sync": 5754,
      "know.": 5755,
      "login": 5756,
      "movement": 5757,
      "deck": 5758,
      "accident": 5759,
      "va": 5760,
      "forms": 5761,
      "ston": 5762,
      "github.com/": 5763,
      "120": 5764,
      "edom": 5765,
      "ĠĊĠĠ": 5766,
      "loves": 5767,
      "offset": 5768,
      "August": 5769,
      "IâĢĻll": 5770,
      "lor": 5771,
      "everybody": 5772,
      "are.": 5773,
      "compat": 5774,
      "authentic": 5775,
      "Pos": 5776,
      "speech": 5777,
      "tun": 5778,
      "funny": 5779,
      "GET": 5780,
      "Sher": 5781,
      "Response": 5782,
      "Washing": 5783,
      "Access": 5784,
      "Wednes": 5785,
      "liber": 5786,
      "tip": 5787,
      "exchange": 5788,
      "ĊĠĠĠĠĠĠĠĠĠĠĠĠĠĠĠĠĠĠĠĠĠĠĠĠĠĠĠĠĠĠĠĠĠĠĠĠĠĠĠĠ": 5789,
      "magic": 5790,
      "depending": 5791,
      "gers": 5792,
      "Init": 5793,
      "Internet": 5794,
      "y.\"": 5795,
      "00000000": 5796,
      "mult": 5797,
      "integer": 5798,
      "raise": 5799,
      "_,": 5800,
      "projects": 5801,
      "Tar": 5802,
      "manage": 5803,
      "insur": 5804,
      "Ry": 5805,
      "Activity": 5806,
      "advert": 5807,
      "battle": 5808,
      "sv": 5809,
      "VM": 5810,
      "Sorry": 5811,
      "_2": 5812,
      "faces": 5813,
      "boys": 5814,
      "Ken": 5815,
      "visual": 5816,
      "150": 5817,
      "97": 5818,
      "voc": 5819,
      "PHP": 5820,
      "over,": 5821,
      "_M": 5822,
      "thy": 5823,
      "demo": 5824,
      "independent": 5825,
      "manufact": 5826,
      "fighting": 5827,
      "noise": 5828,
      "off,": 5829,
      "solved": 5830,
      "Hol": 5831,
      "loan": 5832,
      "transport": 5833,
      "Ter": 5834,
      "neighbor": 5835,
      "responsible": 5836,
      "decent": 5837,
      "<li": 5838,
      "you?\"": 5839,
      "pc": 5840,
      "console.": 5841,
      "53": 5842,
      "Ru": 5843,
      "-1.": 5844,
      "vs": 5845,
      "čĊĠ": 5846,
      "November": 5847,
      "However": 5848,
      "shell": 5849,
      "frustr": 5850,
      "Pho": 5851,
      "Washington": 5852,
      "greatest": 5853,
      "END": 5854,
      "ation:": 5855,
      "seat": 5856,
      "plenty": 5857,
      "ute": 5858,
      "color:": 5859,
      "waste": 5860,
      "vest": 5861,
      "deploy": 5862,
      "namespace": 5863,
      "ved.": 5864,
      "hibit": 5865,
      "nc": 5866,
      "aven": 5867,
      "entirely": 5868,
      "upper": 5869,
      "alternative": 5870,
      "highlight": 5871,
      "fans": 5872,
      "span>": 5873,
      "izer": 5874,
      "anybody": 5875,
      "\"My": 5876,
      "Show": 5877,
      "tober": 5878,
      "reports": 5879,
      "citiz": 5880,
      "coordin": 5881,
      "picking": 5882,
      ",000": 5883,
      "respective": 5884,
      "(e.g.": 5885,
      "cember": 5886,
      "Product": 5887,
      "-of": 5888,
      "son,": 5889,
      "<-": 5890,
      "Prov": 5891,
      "fly": 5892,
      "zen": 5893,
      "ename": 5894,
      "barely": 5895,
      "stal": 5896,
      "use.": 5897,
      "eating": 5898,
      "ar,": 5899,
      "confirm": 5900,
      "execute": 5901,
      "portion": 5902,
      "Their": 5903,
      ":(": 5904,
      "evil": 5905,
      "I,": 5906,
      "sand": 5907,
      "license": 5908,
      "Yes": 5909,
      "guid": 5910,
      "moves": 5911,
      "helping": 5912,
      "T.": 5913,
      "bling": 5914,
      "pray": 5915,
      "July": 5916,
      "Top": 5917,
      "-time": 5918,
      "Californ": 5919,
      "spoke": 5920,
      "approx": 5921,
      "dating": 5922,
      "Arch": 5923,
      "Ñĭ": 5924,
      "Http": 5925,
      "promot": 5926,
      "man.": 5927,
      "FC": 5928,
      "Chinese": 5929,
      "British": 5930,
      "produced": 5931,
      "remainder": 5932,
      "width:": 5933,
      "ðŁ": 5934,
      "home.": 5935,
      "âĻª": 5936,
      "determined": 5937,
      "entertain": 5938,
      "(as": 5939,
      "famil": 5940,
      "river": 5941,
      "STR": 5942,
      "aling": 5943,
      "Fig.": 5944,
      "jection": 5945,
      "depends": 5946,
      "6/": 5947,
      "-2*": 5948,
      "7/": 5949,
      "clim": 5950,
      "links": 5951,
      "rd": 5952,
      "Obama": 5953,
      "journal": 5954,
      "activities": 5955,
      "ant,": 5956,
      "\"Do": 5957,
      "</td>": 5958,
      "intellig": 5959,
      "things.": 5960,
      "Institute": 5961,
      "proposed": 5962,
      "@Override": 5963,
      "_L": 5964,
      "gal": 5965,
      "ato": 5966,
      "(0,": 5967,
      "ette": 5968,
      "tank": 5969,
      "Di": 5970,
      "conversation": 5971,
      "point,": 5972,
      "Ċĉĉĉĉĉ": 5973,
      "concentr": 5974,
      "rela": 5975,
      "chart": 5976,
      "much.": 5977,
      "remains": 5978,
      "settings": 5979,
      "y)": 5980,
      "ThatâĢĻs": 5981,
      "kitch": 5982,
      "lands": 5983,
      "reser": 5984,
      "terrible": 5985,
      "p_": 5986,
      "balance": 5987,
      "Pack": 5988,
      "WAR": 5989,
      "tr>": 5990,
      "mic": 5991,
      "before.": 5992,
      "crim": 5993,
      "fif": 5994,
      "Order": 5995,
      "CHAPTER": 5996,
      "ifier": 5997,
      "September": 5998,
      "paying": 5999,
      "therap": 6000,
      "Listener": 6001,
      "rang": 6002,
      "station": 6003,
      "December": 6004,
      "vac": 6005,
      "ensity": 6006,
      "equival": 6007,
      "digital": 6008,
      "coffee": 6009,
      "unable": 6010,
      "rian": 6011,
      "data,": 6012,
      "logic": 6013,
      "sending": 6014,
      "Bet": 6015,
      "tough": 6016,
      "grid": 6017,
      "sir": 6018,
      "MD": 6019,
      "night.": 6020,
      "gry": 6021,
      "male": 6022,
      "(L": 6023,
      "explan": 6024,
      "spell": 6025,
      "Ã§": 6026,
      "vil": 6027,
      "Win": 6028,
      "[&nbsp;": 6029,
      "&nbsp;]": 6030,
      "suppose": 6031,
      "SA": 6032,
      "__&nbsp;]": 6033,
      "[&nbsp;__&nbsp;]": 6034,
      "undle": 6035,
      "belief": 6036,
      "awk": 6037,
      "ategy": 6038,
      "notes": 6039,
      "ula": 6040,
      "prompt": 6041,
      "3D": 6042,
      "Air": 6043,
      "?)": 6044,
      "\"I'll": 6045,
      "\"That": 6046,
      "symp": 6047,
      "depth": 6048,
      "obtained": 6049,
      "rise": 6050,
      "federal": 6051,
      "Write": 6052,
      "er's": 6053,
      "sheet": 6054,
      "ki": 6055,
      "istry": 6056,
      "units": 6057,
      "champ": 6058,
      "with.": 6059,
      "reality": 6060,
      "October": 6061,
      "East": 6062,
      "construction": 6063,
      "Intern": 6064,
      "Indian": 6065,
      "._": 6066,
      "night,": 6067,
      "thousands": 6068,
      "budget": 6069,
      "healthy": 6070,
      "components": 6071,
      "Factory": 6072,
      "applications": 6073,
      "European": 6074,
      "operation": 6075,
      "causing": 6076,
      "till": 6077,
      "clar": 6078,
      "talked": 6079,
      "George": 6080,
      "Oper": 6081,
      "ÑģÑĤ": 6082,
      "Germany": 6083,
      "Da": 6084,
      "describe": 6085,
      ".php": 6086,
      "suggested": 6087,
      "smell": 6088,
      "script>": 6089,
      "cular": 6090,
      "+1": 6091,
      "cm": 6092,
      "leaves": 6093,
      "thing,": 6094,
      "$('": 6095,
      "WITH": 6096,
      "ITY": 6097,
      "ignore": 6098,
      "\"Come": 6099,
      "cris": 6100,
      "ĊĊĠĠĠĠĠĠ": 6101,
      "zip": 6102,
      "jobs": 6103,
      "inher": 6104,
      "enh": 6105,
      "bra": 6106,
      ":\\": 6107,
      "6)": 6108,
      "âĢ¬": 6109,
      "([": 6110,
      "Put": 6111,
      "z,": 6112,
      "0*": 6113,
      "taste": 6114,
      "ner.": 6115,
      "Format": 6116,
      "passing": 6117,
      "chief": 6118,
      "versions": 6119,
      "bridge": 6120,
      "treated": 6121,
      "gift": 6122,
      "focused": 6123,
      "data-": 6124,
      "minimum": 6125,
      "stored": 6126,
      "aps": 6127,
      "developer": 6128,
      "\"Don't": 6129,
      "presents": 6130,
      "Connection": 6131,
      "YOU": 6132,
      "ERR": 6133,
      "VE": 6134,
      "2008": 6135,
      "HD": 6136,
      "41": 6137,
      "Louis": 6138,
      "L.": 6139,
      "Phone": 6140,
      "à¤": 6141,
      "income": 6142,
      "Sof": 6143,
      "indu": 6144,
      "11,": 6145,
      "whenever": 6146,
      "visible": 6147,
      "presented": 6148,
      "less,": 6149,
      "\"><": 6150,
      "ratio": 6151,
      "acle": 6152,
      "Pass": 6153,
      "maximum": 6154,
      "illa": 6155,
      "Rad": 6156,
      "arant": 6157,
      "agon": 6158,
      "','": 6159,
      "nest": 6160,
      "tho": 6161,
      "wo": 6162,
      "Output": 6163,
      "says,": 6164,
      "storage": 6165,
      "Tor": 6166,
      "ically,": 6167,
      "Nav": 6168,
      "circum": 6169,
      "discuss": 6170,
      "s'": 6171,
      "gay": 6172,
      "mu": 6173,
      "Fur": 6174,
      "app.": 6175,
      "Blue": 6176,
      "order.": 6177,
      "society": 6178,
      "pipe": 6179,
      "chat": 6180,
      "medium": 6181,
      "++)": 6182,
      "Core": 6183,
      "Auto": 6184,
      "containing": 6185,
      "shirt": 6186,
      "bear": 6187,
      "pieces": 6188,
      "forever": 6189,
      "suggestions": 6190,
      "specifically": 6191,
      "/us": 6192,
      "Bre": 6193,
      "Process": 6194,
      "alert": 6195,
      "âĢ«": 6196,
      "Under": 6197,
      "Ð·": 6198,
      "good,": 6199,
      "hack": 6200,
      "Facebook": 6201,
      "insu": 6202,
      "pill": 6203,
      "blow": 6204,
      "Ham": 6205,
      "gradu": 6206,
      "own.": 6207,
      "src=\"": 6208,
      "safety": 6209,
      "Mem": 6210,
      "conflict": 6211,
      "normally": 6212,
      "SER": 6213,
      "^^": 6214,
      "wanting": 6215,
      "attached": 6216,
      "times.": 6217,
      "-and": 6218,
      "Therefore": 6219,
      "hyper": 6220,
      "aint": 6221,
      "ander": 6222,
      "pictures": 6223,
      "0.00": 6224,
      "Home": 6225,
      "(v": 6226,
      "stair": 6227,
      "career": 6228,
      "pushed": 6229,
      "hardware": 6230,
      "javascript": 6231,
      "Cy": 6232,
      "becoming": 6233,
      "brush": 6234,
      "(self": 6235,
      "Vol": 6236,
      "beta": 6237,
      "profit": 6238,
      "generation": 6239,
      "Sing": 6240,
      "apparently": 6241,
      "0.5": 6242,
      "express": 6243,
      "west": 6244,
      "linked": 6245,
      "zer": 6246,
      "3:": 6247,
      "isode": 6248,
      "it!": 6249,
      "GE": 6250,
      "\"Okay": 6251,
      "Pu": 6252,
      "emb": 6253,
      "escape": 6254,
      "careful": 6255,
      "[0]": 6256,
      "Tony": 6257,
      "craft": 6258,
      "margin": 6259,
      "weather": 6260,
      "clinical": 6261,
      "game,": 6262,
      "84": 6263,
      "hint": 6264,
      "interpret": 6265,
      "isol": 6266,
      "LD": 6267,
      "personally": 6268,
      "GP": 6269,
      "yo": 6270,
      "electric": 6271,
      "(not": 6272,
      "spr": 6273,
      "upgrade": 6274,
      "etic": 6275,
      "tiny": 6276,
      "Engine": 6277,
      "exists": 6278,
      "am,": 6279,
      "Yeah,": 6280,
      "Function": 6281,
      "Mike": 6282,
      "Return": 6283,
      "pulling": 6284,
      "conference": 6285,
      "terror": 6286,
      "mere": 6287,
      "-d": 6288,
      "spin": 6289,
      "binary": 6290,
      "phase": 6291,
      "Filter": 6292,
      "Spr": 6293,
      "fortunately": 6294,
      "But,": 6295,
      "san": 6296,
      "reply": 6297,
      "gency": 6298,
      "flight": 6299,
      "Person": 6300,
      "Perhaps": 6301,
      "Collection": 6302,
      "distributed": 6303,
      "like,": 6304,
      "Mad": 6305,
      "popul": 6306,
      "devices": 6307,
      "***": 6308,
      "lib/": 6309,
      "institut": 6310,
      "icul": 6311,
      "ist,": 6312,
      ".java:": 6313,
      "(s": 6314,
      "zed": 6315,
      "No.": 6316,
      "forum": 6317,
      "correctly": 6318,
      "\\math": 6319,
      "experienced": 6320,
      "Na": 6321,
      "loaded": 6322,
      "Never": 6323,
      "holds": 6324,
      "prog": 6325,
      "Ã£": 6326,
      "Something": 6327,
      "Edit:": 6328,
      "gem": 6329,
      "relatively": 6330,
      "2000": 6331,
      "tray": 6332,
      "days.": 6333,
      "Rem": 6334,
      "BA": 6335,
      "EE": 6336,
      "plays": 6337,
      "afford": 6338,
      "sources": 6339,
      "fli": 6340,
      "server.": 6341,
      "chi": 6342,
      "**4": 6343,
      "IX": 6344,
      "youn": 6345,
      "agent": 6346,
      "Ly": 6347,
      "India": 6348,
      "{\"": 6349,
      "stone": 6350,
      "Kore": 6351,
      "County": 6352,
      "neither": 6353,
      "\"Yeah,": 6354,
      "writer": 6355,
      "Exam": 6356,
      "desc": 6357,
      "Change": 6358,
      "Ent": 6359,
      "conven": 6360,
      "ÐµÐ½": 6361,
      "FS": 6362,
      "answers": 6363,
      "dp": 6364,
      "framework": 6365,
      "route": 6366,
      "long-": 6367,
      "spending": 6368,
      "possible.": 6369,
      "\"In": 6370,
      "prison": 6371,
      "to_": 6372,
      "bles": 6373,
      "72": 6374,
      "ora": 6375,
      "shif": 6376,
      "hey": 6377,
      "ant.": 6378,
      "acting": 6379,
      "Card": 6380,
      "52": 6381,
      "yield": 6382,
      "Program": 6383,
      "Tex": 6384,
      "ÑĮ": 6385,
      "worried": 6386,
      "finite": 6387,
      "initi": 6388,
      "oral": 6389,
      "Hill": 6390,
      "ament": 6391,
      "tum": 6392,
      "âī": 6393,
      "Game": 6394,
      "remark": 6395,
      "sky": 6396,
      "BL": 6397,
      "extends": 6398,
      "narr": 6399,
      "gene": 6400,
      "league": 6401,
      "teams": 6402,
      "apolog": 6403,
      "(2)": 6404,
      "VID": 6405,
      "allowing": 6406,
      "agreement": 6407,
      "ctors": 6408,
      "while,": 6409,
      "Green": 6410,
      "figured": 6411,
      "sett": 6412,
      "defense": 6413,
      "(0": 6414,
      "fetch": 6415,
      "critic": 6416,
      "\":\"": 6417,
      "case.": 6418,
      "ape": 6419,
      "offers": 6420,
      "inary": 6421,
      "shel": 6422,
      "bytes": 6423,
      "letting": 6424,
      "be,": 6425,
      "izon": 6426,
      "hearing": 6427,
      "](https://": 6428,
      "guarant": 6429,
      "padding": 6430,
      "rates": 6431,
      "offered": 6432,
      "Tri": 6433,
      "se.": 6434,
      "\"All": 6435,
      "retr": 6436,
      "unsigned": 6437,
      "typen": 6438,
      "wrong.": 6439,
      "younger": 6440,
      "Lat": 6441,
      "string>": 6442,
      "effor": 6443,
      "CG": 6444,
      "constrain": 6445,
      "?>": 6446,
      "samples": 6447,
      "plause": 6448,
      "migr": 6449,
      "whisper": 6450,
      "week.": 6451,
      "motiv": 6452,
      "T,": 6453,
      "boyfriend": 6454,
      "fro": 6455,
      "ãĢ": 6456,
      "traditional": 6457,
      "typename": 6458,
      "Angel": 6459,
      "thin": 6460,
      "married": 6461,
      "(for": 6462,
      "cute": 6463,
      "goo": 6464,
      "ĊĊĉĉ": 6465,
      "world,": 6466,
      "boss": 6467,
      "announced": 6468,
      "smooth": 6469,
      "likes": 6470,
      "fab": 6471,
      "q.": 6472,
      "fs": 6473,
      "curren": 6474,
      "nur": 6475,
      "tut": 6476,
      "Case": 6477,
      "Component": 6478,
      "owned": 6479,
      "before,": 6480,
      "âĢľHe": 6481,
      "Local": 6482,
      "one-": 6483,
      "trace": 6484,
      "Was": 6485,
      "jan": 6486,
      "pregn": 6487,
      "rating": 6488,
      "ke,": 6489,
      "feelings": 6490,
      "ii": 6491,
      "[3": 6492,
      "cred": 6493,
      "Sand": 6494,
      "agreed": 6495,
      "exit": 6496,
      "âĢľIâĢĻm": 6497,
      "basis": 6498,
      "amed": 6499,
      "honestly": 6500,
      "ERS": 6501,
      "workers": 6502,
      "significantly": 6503,
      "customers": 6504,
      "Â·": 6505,
      "carried": 6506,
      "agg": 6507,
      "grew": 6508,
      "itar": 6509,
      "for.": 6510,
      "solutions": 6511,
      "Stack": 6512,
      "wanna": 6513,
      "Mus": 6514,
      "costs": 6515,
      "identify": 6516,
      "ä¸": 6517,
      "grant": 6518,
      "International": 6519,
      "Hor": 6520,
      "iring": 6521,
      "fellow": 6522,
      "secure": 6523,
      "St.": 6524,
      "ski": 6525,
      "a_": 6526,
      "false;": 6527,
      "ito": 6528,
      "necessarily": 6529,
      "modules": 6530,
      "causes": 6531,
      "hall": 6532,
      "Gold": 6533,
      "leep": 6534,
      "isher": 6535,
      "resid": 6536,
      "(F": 6537,
      "kg": 6538,
      "bruary": 6539,
      "arrest": 6540,
      "leads": 6541,
      "orary": 6542,
      "organization": 6543,
      "director": 6544,
      "habit": 6545,
      "ness,": 6546,
      "guest": 6547,
      "weapon": 6548,
      "disk": 6549,
      "btn": 6550,
      "failure": 6551,
      "CTION": 6552,
      "process.": 6553,
      "13.": 6554,
      "omin": 6555,
      "chemical": 6556,
      "partial": 6557,
      "shadow": 6558,
      "views": 6559,
      "Scott": 6560,
      "issue.": 6561,
      "cohol": 6562,
      "Libr": 6563,
      "understood": 6564,
      "fourth": 6565,
      "busines": 6566,
      "-11": 6567,
      "was,": 6568,
      "12,": 6569,
      "NY": 6570,
      "Status": 6571,
      "observed": 6572,
      "videos": 6573,
      "sque": 6574,
      "egg": 6575,
      "first,": 6576,
      "listed": 6577,
      "mistake": 6578,
      "advent": 6579,
      "combination": 6580,
      "Defin": 6581,
      "jar": 6582,
      "-p": 6583,
      "74": 6584,
      "hypo": 6585,
      "Mill": 6586,
      "that.\"": 6587,
      ".js": 6588,
      "zone": 6589,
      "accompl": 6590,
      "ves,": 6591,
      "entity": 6592,
      "away,": 6593,
      "Sil": 6594,
      "etime": 6595,
      "Enter": 6596,
      "processing": 6597,
      "(&": 6598,
      "anymore": 6599,
      "wake": 6600,
      "<!--": 6601,
      "occup": 6602,
      "1).": 6603,
      "Associ": 6604,
      "Russ": 6605,
      "ÃĹ": 6606,
      "*p": 6607,
      "records": 6608,
      "closest": 6609,
      "proud": 6610,
      "Resource": 6611,
      "Block": 6612,
      "ura": 6613,
      "Commun": 6614,
      "fru": 6615,
      "sea": 6616,
      "Team": 6617,
      "usive": 6618,
      "=0": 6619,
      "DA": 6620,
      "break;": 6621,
      "itation": 6622,
      "ness.": 6623,
      "Everything": 6624,
      "organiz": 6625,
      "head,": 6626,
      "freedom": 6627,
      "Mary": 6628,
      "Search": 6629,
      ":-": 6630,
      "restaur": 6631,
      "ighter": 6632,
      "wouldnâĢĻt": 6633,
      "Stand": 6634,
      "enses": 6635,
      "discovered": 6636,
      "immediate": 6637,
      "600": 6638,
      "abs": 6639,
      "page.": 6640,
      "BS": 6641,
      "harm": 6642,
      "explicit": 6643,
      "-of-": 6644,
      "miles": 6645,
      "manual": 6646,
      "Mode": 6647,
      "dot": 6648,
      "Bit": 6649,
      "seed": 6650,
      "busy": 6651,
      "icated": 6652,
      "hello": 6653,
      "bled": 6654,
      "scar": 6655,
      "finds": 6656,
      "2009": 6657,
      "influence": 6658,
      "conserv": 6659,
      "Div": 6660,
      "checking": 6661,
      "February": 6662,
      "acing": 6663,
      "pointed": 6664,
      "intended": 6665,
      "(s)": 6666,
      "sees": 6667,
      "sac": 6668,
      "graphy": 6669,
      "essor": 6670,
      "TW": 6671,
      "functional": 6672,
      "63": 6673,
      "Kind": 6674,
      "Âµ": 6675,
      "Cong": 6676,
      "Thread": 6677,
      "providing": 6678,
      "view.": 6679,
      "Ã¶": 6680,
      "blind": 6681,
      "killing": 6682,
      "ages,": 6683,
      "hole": 6684,
      "massive": 6685,
      "Bay": 6686,
      "used.": 6687,
      "dut": 6688,
      "dump": 6689,
      "ist.": 6690,
      "file,": 6691,
      "Hum": 6692,
      "bringing": 6693,
      "diff": 6694,
      "Miss": 6695,
      "mainly": 6696,
      "relax": 6697,
      "nobody": 6698,
      "les.": 6699,
      "largest": 6700,
      "possibility": 6701,
      "USB": 6702,
      "ĊĠĠĠĠĠĠĠĠĠĠĠĠĠĠĠĠĠĠĠĠĠĠĠĠĠĠĠĠĠĠĠĠ": 6703,
      "developing": 6704,
      "IA": 6705,
      "8)": 6706,
      "kinda": 6707,
      "circle": 6708,
      "ress.": 6709,
      "(G": 6710,
      "ini": 6711,
      "Parame": 6712,
      "theme": 6713,
      "ONE": 6714,
      "/usr/": 6715,
      "ros": 6716,
      "laws": 6717,
      "Microsoft": 6718,
      "plastic": 6719,
      "console.log": 6720,
      "Medical": 6721,
      "name.": 6722,
      "admit": 6723,
      "aside": 6724,
      "tong": 6725,
      "hasn't": 6726,
      "Nat": 6727,
      "Copyright": 6728,
      "Tool": 6729,
      "Ñĩ": 6730,
      "{}": 6731,
      "vation": 6732,
      "programs": 6733,
      "wealth": 6734,
      "Keep": 6735,
      "continues": 6736,
      "College": 6737,
      "cities": 6738,
      "Year": 6739,
      "religious": 6740,
      "OST": 6741,
      "Buffer": 6742,
      "Amazon": 6743,
      "rolled": 6744,
      "great.": 6745,
      "Again": 6746,
      "_0": 6747,
      "preh": 6748,
      "intent": 6749,
      "(k": 6750,
      "rig": 6751,
      "strategy": 6752,
      "alter": 6753,
      "Develo": 6754,
      "later,": 6755,
      "sufficient": 6756,
      "argu": 6757,
      "posts": 6758,
      "icy": 6759,
      "table.": 6760,
      "crypt": 6761,
      "Report": 6762,
      "pitch": 6763,
      "fle": 6764,
      "nine": 6765,
      "JO": 6766,
      "NET": 6767,
      "orient": 6768,
      "archite": 6769,
      "hopefully": 6770,
      "Americans": 6771,
      "cos": 6772,
      "winning": 6773,
      "ko": 6774,
      "alleg": 6775,
      "hand.": 6776,
      "u,": 6777,
      "weren't": 6778,
      "(*": 6779,
      "Three": 6780,
      "here:": 6781,
      "Sign": 6782,
      "secut": 6783,
      "anything.": 6784,
      "cuments": 6785,
      "datas": 6786,
      "(3": 6787,
      "Tot": 6788,
      "weekend": 6789,
      "Jesus": 6790,
      "loading": 6791,
      "listening": 6792,
      "democr": 6793,
      "mg": 6794,
      "Twitter": 6795,
      "ql": 6796,
      "smiled": 6797,
      "Robert": 6798,
      "set.": 6799,
      "endif": 6800,
      "čĊĉ": 6801,
      "supply": 6802,
      "Israel": 6803,
      "species": 6804,
      "vention": 6805,
      "less.": 6806,
      "opposite": 6807,
      "code,": 6808,
      "falling": 6809,
      "800": 6810,
      "Jer": 6811,
      "Word": 6812,
      "EV": 6813,
      "isl": 6814,
      "ke.": 6815,
      "on.\"": 6816,
      "forces": 6817,
      "a/": 6818,
      "About": 6819,
      "commercial": 6820,
      "II.": 6821,
      "factory": 6822,
      "Tur": 6823,
      "CF": 6824,
      "skills": 6825,
      "identified": 6826,
      "Applause": 6827,
      "proceed": 6828,
      "laptop": 6829,
      "wonâĢĻt": 6830,
      "concerned": 6831,
      "grav": 6832,
      "15.": 6833,
      "pul": 6834,
      "Range": 6835,
      "Gover": 6836,
      "comfort": 6837,
      "LA": 6838,
      "confir": 6839,
      "differences": 6840,
      "sd": 6841,
      "(i.e.": 6842,
      "schedul": 6843,
      "bid": 6844,
      "episode": 6845,
      "repeat": 6846,
      "Power": 6847,
      "pressing": 6848,
      "apps": 6849,
      "chos": 6850,
      "16.": 6851,
      "announce": 6852,
      "strap": 6853,
      "England": 6854,
      "-S": 6855,
      "line,": 6856,
      "During": 6857,
      "Instance": 6858,
      "true;": 6859,
      "introduced": 6860,
      "snow": 6861,
      "sides": 6862,
      "Handler": 6863,
      "encing": 6864,
      "go,": 6865,
      "debt": 6866,
      "protection": 6867,
      "Though": 6868,
      "encounter": 6869,
      "liqu": 6870,
      "iloso": 6871,
      "zing": 6872,
      "transaction": 6873,
      "BR": 6874,
      "heâĢĻd": 6875,
      "variety": 6876,
      "_IN": 6877,
      "Builder": 6878,
      "Further": 6879,
      "Ã¼": 6880,
      "updates": 6881,
      "ById": 6882,
      "ĊĠĠĠĠĠĠĠĠĠĠĠ": 6883,
      "ji": 6884,
      "Law": 6885,
      "DI": 6886,
      "Real": 6887,
      "week,": 6888,
      "consistent": 6889,
      "ESS": 6890,
      "gentle": 6891,
      "7)": 6892,
      "sole": 6893,
      "[Applause": 6894,
      "]]": 6895,
      "14.": 6896,
      "[Applause]": 6897,
      "expert": 6898,
      "technolog": 6899,
      "buck": 6900,
      "plane": 6901,
      "times,": 6902,
      "ices,": 6903,
      "chick": 6904,
      "keyboard": 6905,
      "15,": 6906,
      "bust": 6907,
      "gate": 6908,
      "Ref": 6909,
      "desire": 6910,
      "ami": 6911,
      "/2": 6912,
      "repository": 6913,
      "ox": 6914,
      "Bob": 6915,
      "ooper": 6916,
      "neut": 6917,
      "eyes,": 6918,
      "rif": 6919,
      "Contain": 6920,
      "thereâĢĻs": 6921,
      "alcohol": 6922,
      "AF": 6923,
      "mole": 6924,
      "Ã£o": 6925,
      "yet.": 6926,
      "equip": 6927,
      "vas": 6928,
      "German": 6929,
      "tables": 6930,
      "technical": 6931,
      "ACK": 6932,
      "icing": 6933,
      "Setting": 6934,
      "today.": 6935,
      "dollars": 6936,
      "Â£": 6937,
      "(H": 6938,
      "%)": 6939,
      "joint": 6940,
      "**(-": 6941,
      "-C": 6942,
      "Republican": 6943,
      "gap": 6944,
      "orter": 6945,
      "Spec": 6946,
      "cess,": 6947,
      "rome": 6948,
      "Section": 6949,
      "===": 6950,
      "body.": 6951,
      "gard": 6952,
      "ancy": 6953,
      "series.": 6954,
      "unknown": 6955,
      "News": 6956,
      "ĊĠĠĠĠĠĠĠĠĠĠĠĠĠĠĠĠĠĠ": 6957,
      "-r": 6958,
      "IGHT": 6959,
      "io.": 6960,
      "feedback": 6961,
      "username": 6962,
      "winter": 6963,
      "he'd": 6964,
      "Blo": 6965,
      "les,": 6966,
      "Take": 6967,
      "establish": 6968,
      "HTTP": 6969,
      "either.": 6970,
      "Glo": 6971,
      "Yo": 6972,
      "110": 6973,
      "ports": 6974,
      "hip": 6975,
      "L,": 6976,
      "snap": 6977,
      "bond": 6978,
      "Du": 6979,
      "algorithm": 6980,
      "alloc": 6981,
      "amin": 6982,
      "opens": 6983,
      "desper": 6984,
      "geo": 6985,
      "Sunday": 6986,
      "is_": 6987,
      "cab": 6988,
      "politic": 6989,
      "infr": 6990,
      "20,": 6991,
      "\"Hey,": 6992,
      "0,0,": 6993,
      "done.": 6994,
      "LIN": 6995,
      "authors": 6996,
      "(this": 6997,
      "SM": 6998,
      "bench": 6999,
      "nerv": 7000,
      "selling": 7001,
      "ays": 7002,
      "locked": 7003,
      "widget": 7004,
      "Life": 7005,
      "value.": 7006,
      "boolean": 7007,
      "the-": 7008,
      "it?\"": 7009,
      "Canada": 7010,
      "</a></": 7011,
      "others.": 7012,
      "brings": 7013,
      "articles": 7014,
      "USE": 7015,
      "youtube": 7016,
      "gotta": 7017,
      "wheel": 7018,
      "Ve": 7019,
      "constantly": 7020,
      ")/(-": 7021,
      "pocket": 7022,
      "arguments": 7023,
      "seriously": 7024,
      "enjo": 7025,
      "favour": 7026,
      "ios": 7027,
      "dram": 7028,
      "harder": 7029,
      "capable": 7030,
      "embed": 7031,
      "scared": 7032,
      "âĢľItâĢĻs": 7033,
      "Tal": 7034,
      "side,": 7035,
      "_RE": 7036,
      "curious": 7037,
      "tens": 7038,
      "04": 7039,
      "invent": 7040,
      "âĢ¦âĢĿ": 7041,
      "indeed": 7042,
      "ody": 7043,
      "dan": 7044,
      "side.": 7045,
      "insight": 7046,
      "\"Is": 7047,
      "legs": 7048,
      "Tag": 7049,
      "twist": 7050,
      "><a": 7051,
      "fash": 7052,
      "class.": 7053,
      "DC": 7054,
      "things,": 7055,
      "repeated": 7056,
      "stomach": 7057,
      "benefits": 7058,
      "emotional": 7059,
      "se,": 7060,
      "\"U": 7061,
      "g,": 7062,
      "Hospital": 7063,
      "explained": 7064,
      "gaz": 7065,
      "earning": 7066,
      "dealing": 7067,
      "Ċĉĉĉĉĉĉ": 7068,
      "Style": 7069,
      "retrie": 7070,
      "Hon": 7071,
      "console": 7072,
      "Fre": 7073,
      "investment": 7074,
      "Smith": 7075,
      "(@": 7076,
      "mechanism": 7077,
      "problem,": 7078,
      "labor": 7079,
      "words,": 7080,
      "}.": 7081,
      "brown": 7082,
      "did.": 7083,
      "Bind": 7084,
      "gig": 7085,
      "Document": 7086,
      "yesterday": 7087,
      "socket": 7088,
      "throws": 7089,
      "truck": 7090,
      "system,": 7091,
      "appreciated.": 7092,
      "mock": 7093,
      "N.": 7094,
      "-3*": 7095,
      "right?": 7096,
      "liver": 7097,
      "ĊĊĠĠĠĠĠ": 7098,
      "Bank": 7099,
      "typically": 7100,
      "delet": 7101,
      "grown": 7102,
      "consequ": 7103,
      "Wik": 7104,
      "Dear": 7105,
      "i've": 7106,
      "sustain": 7107,
      "Grid": 7108,
      "\"He's": 7109,
      "rev": 7110,
      "behaviour": 7111,
      "Monday": 7112,
      "2;": 7113,
      "ourc": 7114,
      "exercise": 7115,
      "ridicul": 7116,
      "reasonable": 7117,
      "football": 7118,
      "else.": 7119,
      "confidence": 7120,
      "<input": 7121,
      "adopt": 7122,
      "ator.": 7123,
      "W.": 7124,
      "Joe": 7125,
      "acts": 7126,
      "i)": 7127,
      "V.": 7128,
      "Thanks!": 7129,
      "Hen": 7130,
      "{\\": 7131,
      "WHERE": 7132,
      "@param": 7133,
      "surger": 7134,
      "Chan": 7135,
      "columns": 7136,
      "ento": 7137,
      "WS": 7138,
      "example.com": 7139,
      "printf": 7140,
      "73": 7141,
      "extended": 7142,
      "rier": 7143,
      "question.": 7144,
      "RT": 7145,
      "LY": 7146,
      "VAL": 7147,
      "procedure": 7148,
      "interaction": 7149,
      "lights": 7150,
      "Light": 7151,
      "equivalent": 7152,
      "mixed": 7153,
      "facing": 7154,
      "Â°": 7155,
      "prepar": 7156,
      "radi": 7157,
      "ceived": 7158,
      "Const": 7159,
      "about.": 7160,
      "Office": 7161,
      "puts": 7162,
      "tren": 7163,
      "economy": 7164,
      "servers": 7165,
      "state.": 7166,
      "claims": 7167,
      "rare": 7168,
      "story,": 7169,
      "HA": 7170,
      "(_": 7171,
      "Bal": 7172,
      "ida": 7173,
      "BI": 7174,
      "mous": 7175,
      "everywhere": 7176,
      "aper": 7177,
      "Give": 7178,
      "ner,": 7179,
      "iger": 7180,
      "-A": 7181,
      "resulting": 7182,
      "OM": 7183,
      "WOR": 7184,
      "Hal": 7185,
      "rapid": 7186,
      "mountain": 7187,
      "[i]": 7188,
      "Sir": 7189,
      "Comple": 7190,
      "specified": 7191,
      "severe": 7192,
      "ar.": 7193,
      "cant": 7194,
      "test.": 7195,
      "intern": 7196,
      "Bio": 7197,
      "Richard": 7198,
      "battery": 7199,
      "stated": 7200,
      "prices": 7201,
      "hundreds": 7202,
      "-13": 7203,
      "corresponding": 7204,
      "Nothing": 7205,
      "typical": 7206,
      "bour": 7207,
      "successfully": 7208,
      "confused": 7209,
      "ãĥ": 7210,
      "grin": 7211,
      "afterno": 7212,
      "a)": 7213,
      "formed": 7214,
      "essentially": 7215,
      "Gal": 7216,
      "says.": 7217,
      "_n": 7218,
      "prem": 7219,
      "pushing": 7220,
      "model.": 7221,
      "Bur": 7222,
      "Buck": 7223,
      "together,": 7224,
      "EC": 7225,
      "51": 7226,
      "Really": 7227,
      "height:": 7228,
      "here's": 7229,
      "<=": 7230,
      "H.": 7231,
      "Mil": 7232,
      "enum": 7233,
      "stic": 7234,
      "Techno": 7235,
      "Graph": 7236,
      "id=": 7237,
      "Clint": 7238,
      "FR": 7239,
      "home,": 7240,
      "fuel": 7241,
      "mt": 7242,
      "Eli": 7243,
      "C++": 7244,
      "_T": 7245,
      "Then,": 7246,
      "competition": 7247,
      "Address": 7248,
      "deser": 7249,
      "revealed": 7250,
      "0.1": 7251,
      "discover": 7252,
      "!!!!": 7253,
      "_N": 7254,
      "~~~~": 7255,
      "yellow": 7256,
      "remaining": 7257,
      "loose": 7258,
      "uct": 7259,
      "Bus": 7260,
      "Everyone": 7261,
      "callback": 7262,
      "ress,": 7263,
      "edition": 7264,
      "contents": 7265,
      "oney": 7266,
      "individuals": 7267,
      "days,": 7268,
      "stim": 7269,
      "sharing": 7270,
      "voke": 7271,
      "tongue": 7272,
      "bull": 7273,
      "Target": 7274,
      "ada": 7275,
      "incident": 7276,
      "\"Oh": 7277,
      "api": 7278,
      "ìĿ": 7279,
      "reset": 7280,
      "bed.": 7281,
      "stead": 7282,
      "-D": 7283,
      "essential": 7284,
      "over.": 7285,
      "IES": 7286,
      "b)": 7287,
      "IZ": 7288,
      "prec": 7289,
      "officials": 7290,
      "1.5": 7291,
      "judge": 7292,
      "who's": 7293,
      "94": 7294,
      "Location": 7295,
      "font-": 7296,
      "Science": 7297,
      "%%": 7298,
      "Old": 7299,
      "Emp": 7300,
      "quit": 7301,
      "bean": 7302,
      "name:": 7303,
      "Equal": 7304,
      "mate": 7305,
      "modify": 7306,
      "THIS": 7307,
      "Ð¾Ð²": 7308,
      "ological": 7309,
      "CPU": 7310,
      "(see": 7311,
      ">=": 7312,
      "ions.": 7313,
      "paralle": 7314,
      "symbol": 7315,
      "Wil": 7316,
      "Follow": 7317,
      "u/": 7318,
      "arrived": 7319,
      "reduced": 7320,
      "(h": 7321,
      "-c": 7322,
      "purchased": 7323,
      "Ev": 7324,
      "9/": 7325,
      "Hey": 7326,
      "hydro": 7327,
      "endor": 7328,
      "Kat": 7329,
      "affected": 7330,
      "Vir": 7331,
      "Ub": 7332,
      "usage": 7333,
      "println": 7334,
      "8/": 7335,
      "gif": 7336,
      "references": 7337,
      "was.": 7338,
      "folks": 7339,
      "ary,": 7340,
      "Apache": 7341,
      "oop": 7342,
      "7*": 7343,
      "sector": 7344,
      "clients": 7345,
      "phr": 7346,
      "instr": 7347,
      "={": 7348,
      "eff": 7349,
      "south": 7350,
      "defe": 7351,
      "ass.": 7352,
      "pdf": 7353,
      "cha": 7354,
      "operations": 7355,
      "nodes": 7356,
      "01": 7357,
      "that?": 7358,
      "\"),": 7359,
      "irk": 7360,
      "z.": 7361,
      "Earth": 7362,
      "justice": 7363,
      "width=\"": 7364,
      "scratch": 7365,
      "spark": 7366,
      "pix": 7367,
      "Ky": 7368,
      "resolve": 7369,
      "Common": 7370,
      "angular": 7371,
      "SC": 7372,
      "Thomas": 7373,
      "Bra": 7374,
      "fits": 7375,
      "flav": 7376,
      "am.": 7377,
      "Dim": 7378,
      "circumst": 7379,
      "operating": 7380,
      "fortunately,": 7381,
      "something.": 7382,
      "Valid": 7383,
      "Sto": 7384,
      "Quest": 7385,
      "interval": 7386,
      "Security": 7387,
      "two-": 7388,
      "hug": 7389,
      "enemy": 7390,
      "hotel": 7391,
      "established": 7392,
      "Admin": 7393,
      "him.\"": 7394,
      "implemented": 7395,
      "DNA": 7396,
      "TT": 7397,
      "=\\": 7398,
      "accepted": 7399,
      "ares": 7400,
      "-3.": 7401,
      "\"Are": 7402,
      "refresh": 7403,
      "tox": 7404,
      "tears": 7405,
      "Aud": 7406,
      "Addition": 7407,
      "Media": 7408,
      "!)": 7409,
      "matches": 7410,
      "shoulder": 7411,
      "dinner": 7412,
      "calm": 7413,
      "endo": 7414,
      "imgur": 7415,
      "acid": 7416,
      "lit": 7417,
      "tire": 7418,
      "Flo": 7419,
      "override": 7420,
      "lunch": 7421,
      "F.": 7422,
      "83": 7423,
      "rop": 7424,
      "MR": 7425,
      "<?php": 7426,
      "-1,": 7427,
      "os.": 7428,
      "Anyone": 7429,
      "mysql": 7430,
      "null)": 7431,
      "efforts": 7432,
      "alive": 7433,
      "iron": 7434,
      "sharp": 7435,
      "chuck": 7436,
      "psycho": 7437,
      "slide": 7438,
      "manually": 7439,
      "arc": 7440,
      "\"Who": 7441,
      "(g": 7442,
      "mind.": 7443,
      "stre": 7444,
      "error:": 7445,
      "123": 7446,
      "forth": 7447,
      "use,": 7448,
      "entered": 7449,
      "x-": 7450,
      "list,": 7451,
      "criter": 7452,
      "********************************": 7453,
      "dangerous": 7454,
      "Height": 7455,
      "tack": 7456,
      "kers": 7457,
      "lla": 7458,
      "colour": 7459,
      "andon": 7460,
      "acknow": 7461,
      "configure": 7462,
      "dude": 7463,
      "typed": 7464,
      "(l": 7465,
      "b/": 7466,
      "holiday": 7467,
      "tips": 7468,
      "famous": 7469,
      "Sometimes": 7470,
      "62": 7471,
      "ques": 7472,
      "draft": 7473,
      "upgrad": 7474,
      "desktop": 7475,
      "QU": 7476,
      "families": 7477,
      "dollar": 7478,
      "Kar": 7479,
      "annot": 7480,
      "Multi": 7481,
      "literature": 7482,
      "revol": 7483,
      "s,\"": 7484,
      "plement": 7485,
      "face,": 7486,
      "G.": 7487,
      "claimed": 7488,
      "collap": 7489,
      "partition": 7490,
      "moments": 7491,
      "replaced": 7492,
      "DU": 7493,
      "-20": 7494,
      "contrast": 7495,
      "fid": 7496,
      "What's": 7497,
      "ie,": 7498,
      "-15": 7499,
      "distinct": 7500,
      "250": 7501,
      "conscious": 7502,
      "hadn't": 7503,
      "binding": 7504,
      "Entity": 7505,
      "recommended": 7506,
      "K.": 7507,
      "moment,": 7508,
      "Author's": 7509,
      "\"Just": 7510,
      "multi-": 7511,
      "âķ": 7512,
      "<span": 7513,
      "greatly": 7514,
      "ĊĠĠĠĠĠĠĠĠĠĠĠĠĠ": 7515,
      "joined": 7516,
      "tion": 7517,
      "Users": 7518,
      "aced": 7519,
      "Saturday": 7520,
      "resolution": 7521,
      "type=\"text": 7522,
      "wis": 7523,
      "code:": 7524,
      "lists": 7525,
      "vul": 7526,
      "theyâĢĻre": 7527,
      "(4": 7528,
      "crete": 7529,
      "(if": 7530,
      "jer": 7531,
      "California": 7532,
      "senior": 7533,
      "fantastic": 7534,
      "window.": 7535,
      "confident": 7536,
      "ered": 7537,
      "Court": 7538,
      "ingly": 7539,
      "Dy": 7540,
      "Mur": 7541,
      "Level": 7542,
      "$f": 7543,
      "\"There": 7544,
      "bian": 7545,
      "virus": 7546,
      "PRE": 7547,
      "universe": 7548,
      "Width": 7549,
      "olic": 7550,
      "motion": 7551,
      "Record": 7552,
      "shout": 7553,
      "Mex": 7554,
      "Russian": 7555,
      "manif": 7556,
      "mirror": 7557,
      "<T": 7558,
      "âĶĢ": 7559,
      "Lef": 7560,
      "advis": 7561,
      "8*": 7562,
      "philoso": 7563,
      "extr": 7564,
      "ajax": 7565,
      "around.": 7566,
      "styles": 7567,
      "-b": 7568,
      "imgur.com/": 7569,
      "question,": 7570,
      "es.\"": 7571,
      "ena": 7572,
      "other,": 7573,
      "-14": 7574,
      "wiki/": 7575,
      "Stor": 7576,
      "</li>": 7577,
      "colors": 7578,
      "Software": 7579,
      "Brown": 7580,
      "advanced": 7581,
      "Van": 7582,
      "reject": 7583,
      "\"Yes,": 7584,
      "animals": 7585,
      "cin": 7586,
      "p.m.": 7587,
      "weet": 7588,
      "%,": 7589,
      "hh": 7590,
      "persist": 7591,
      "Photo": 7592,
      "orders": 7593,
      "friendly": 7594,
      "they've": 7595,
      "divis": 7596,
      "_H": 7597,
      "transp": 7598,
      "completed": 7599,
      "](http://www.": 7600,
      "susp": 7601,
      "eld": 7602,
      "chose": 7603,
      "project.": 7604,
      "smallest": 7605,
      "fine,": 7606,
      "Note:**": 7607,
      "Sl": 7608,
      "himself.": 7609,
      "Den": 7610,
      "ionally": 7611,
      "$(\"": 7612,
      "CV": 7613,
      "(with": 7614,
      "expecting": 7615,
      "esh": 7616,
      "girlfriend": 7617,
      "SL": 7618,
      "motor": 7619,
      "frequency": 7620,
      "in'": 7621,
      "ipe": 7622,
      "blame": 7623,
      "org.apache": 7624,
      "Cat": 7625,
      "Store": 7626,
      "drawing": 7627,
      "16,": 7628,
      "returning": 7629,
      "apple": 7630,
      "Master": 7631,
      "lucky": 7632,
      "gender": 7633,
      "somet": 7634,
      "backup": 7635,
      "confirmed": 7636,
      "rial": 7637,
      "attend": 7638,
      "scientific": 7639,
      "leaders": 7640,
      "awn": 7641,
      "anymore.": 7642,
      "syntax": 7643,
      "**Author's": 7644,
      "unte": 7645,
      "t-": 7646,
      "x:": 7647,
      "drawn": 7648,
      "adds": 7649,
      "ÑĢÐ°": 7650,
      "strings": 7651,
      "Sort": 7652,
      "cluster": 7653,
      "s,âĢĿ": 7654,
      "bodies": 7655,
      "bf": 7656,
      "Boo": 7657,
      "Length": 7658,
      "place,": 7659,
      "creates": 7660,
      "quote": 7661,
      "Vict": 7662,
      "genes": 7663,
      "merge": 7664,
      "red.": 7665,
      "ubuntu": 7666,
      "Attribute": 7667,
      "modified": 7668,
      "X,": 7669,
      "wrapped": 7670,
      "_data": 7671,
      "Iran": 7672,
      "arrang": 7673,
      "tutorial": 7674,
      "ressing": 7675,
      "schools": 7676,
      "weâĢĻre": 7677,
      "apartment": 7678,
      "sive": 7679,
      "climate": 7680,
      "hill": 7681,
      "historical": 7682,
      "âĢľIt": 7683,
      "ils": 7684,
      "yet,": 7685,
      "lled": 7686,
      "pup": 7687,
      "\"Thank": 7688,
      "IâĢĻd": 7689,
      "shooting": 7690,
      "NC": 7691,
      "(const": 7692,
      "buf": 7693,
      "Active": 7694,
      "structions": 7695,
      "enabled": 7696,
      "pled": 7697,
      "________________": 7698,
      "delivery": 7699,
      "creation": 7700,
      "filename": 7701,
      "#if": 7702,
      "URE": 7703,
      "GA": 7704,
      "communication": 7705,
      "\"Look": 7706,
      "Dial": 7707,
      "aller": 7708,
      "searching": 7709,
      "0\"": 7710,
      "som": 7711,
      "jun": 7712,
      "secur": 7713,
      "-2.": 7714,
      "incredibly": 7715,
      "Publ": 7716,
      "-m": 7717,
      "processes": 7718,
      "DV": 7719,
      "Therefore,": 7720,
      "Scal": 7721,
      "Hist": 7722,
      "district": 7723,
      "wet": 7724,
      "corporate": 7725,
      "(10": 7726,
      "ulated": 7727,
      "chip": 7728,
      "cars": 7729,
      "academ": 7730,
      "(void": 7731,
      "Title": 7732,
      "forest": 7733,
      "insurance": 7734,
      "fundam": 7735,
      "drun": 7736,
      "ipedia": 7737,
      "Thanks.": 7738,
      "ĠĊĠĠĠĠĠĠĠĠ": 7739,
      "-4*": 7740,
      "expressed": 7741,
      "MI": 7742,
      "Â±": 7743,
      "laid": 7744,
      "iest": 7745,
      "yy": 7746,
      "82": 7747,
      "((-": 7748,
      "bb{": 7749,
      "ady": 7750,
      "Template": 7751,
      "MY": 7752,
      "-and-": 7753,
      "ities.": 7754,
      "passion": 7755,
      "utch": 7756,
      "support.": 7757,
      "Î²": 7758,
      "View.": 7759,
      "13,": 7760,
      "ism,": 7761,
      "Solve": 7762,
      "immigr": 7763,
      "oursel": 7764,
      "forgot": 7765,
      "dock": 7766,
      "_R": 7767,
      "witness": 7768,
      "Art": 7769,
      "iro": 7770,
      "liance": 7771,
      "pump": 7772,
      "Review": 7773,
      "ambda": 7774,
      "Id>": 7775,
      "(1,": 7776,
      "works.": 7777,
      "o-": 7778,
      "extend": 7779,
      "tmp": 7780,
      "Ubuntu": 7781,
      "expl": 7782,
      "Adam": 7783,
      "THER": 7784,
      "cient": 7785,
      "comparison": 7786,
      "ticket": 7787,
      "Church": 7788,
      "box.": 7789,
      "ador": 7790,
      "Orig": 7791,
      "matic": 7792,
      "agr": 7793,
      "first.": 7794,
      "B,": 7795,
      "William": 7796,
      "body,": 7797,
      "annoy": 7798,
      "ype": 7799,
      "ideal": 7800,
      "MC": 7801,
      "capacity": 7802,
      "</p>": 7803,
      "1);": 7804,
      "\"N": 7805,
      "dt": 7806,
      "awkward": 7807,
      "er-": 7808,
      "combined": 7809,
      "responsibility": 7810,
      "patches": 7811,
      "Jud": 7812,
      "form.": 7813,
      "grabbed": 7814,
      "Token": 7815,
      "narrow": 7816,
      "sible": 7817,
      "drinking": 7818,
      "\\n\",": 7819,
      "cles": 7820,
      "crime": 7821,
      "Inc.": 7822,
      "counting": 7823,
      "))/": 7824,
      "Donald": 7825,
      "fool": 7826,
      "burg": 7827,
      "documents": 7828,
      "talent": 7829,
      "sensitive": 7830,
      "century": 7831,
      "right.\"": 7832,
      "chosen": 7833,
      "Unit": 7834,
      "20.": 7835,
      "schema": 7836,
      "phones": 7837,
      "0,000": 7838,
      "ORT": 7839,
      "kitchen": 7840,
      "tap": 7841,
      "Despite": 7842,
      "lord": 7843,
      "SV": 7844,
      "event.": 7845,
      "materials": 7846,
      "breast": 7847,
      "DER": 7848,
      "Gar": 7849,
      "post-": 7850,
      "]:": 7851,
      "potentially": 7852,
      "quad": 7853,
      "originally": 7854,
      "PT": 7855,
      "pling": 7856,
      "skip": 7857,
      "Illustr": 7858,
      "saving": 7859,
      "arrass": 7860,
      "Company": 7861,
      "ments.": 7862,
      "(w": 7863,
      "env": 7864,
      "prepare": 7865,
      "marked": 7866,
      "Jour": 7867,
      "ors.": 7868,
      "Ñħ": 7869,
      "a:": 7870,
      "(5": 7871,
      "identity": 7872,
      "follows": 7873,
      "(d)": 7874,
      "\"/": 7875,
      "onom": 7876,
      "âĪĪ": 7877,
      "lawy": 7878,
      "redirect": 7879,
      "\"Not": 7880,
      "annual": 7881,
      "Sk": 7882,
      "Round": 7883,
      "bless": 7884,
      "planned": 7885,
      "administration": 7886,
      "Description": 7887,
      "evening": 7888,
      "batt": 7889,
      "Finally,": 7890,
      "uri": 7891,
      "Having": 7892,
      "taught": 7893,
      "Mean": 7894,
      "Sherlock": 7895,
      "Flor": 7896,
      "anta": 7897,
      "Span": 7898,
      "capture": 7899,
      "teaching": 7900,
      "ici": 7901,
      "north": 7902,
      "Gree": 7903,
      "'),": 7904,
      "igen": 7905,
      "recognize": 7906,
      "isco": 7907,
      "tone": 7908,
      "accurate": 7909,
      "infection": 7910,
      "(String": 7911,
      "encoding": 7912,
      "background-": 7913,
      "measured": 7914,
      "survey": 7915,
      "detailed": 7916,
      "-l": 7917,
      "nuclear": 7918,
      "rail": 7919,
      "Matt": 7920,
      "cp": 7921,
      "cam": 7922,
      "bit.": 7923,
      "\"What's": 7924,
      "money.": 7925,
      "<td": 7926,
      "magnet": 7927,
      "tear": 7928,
      "Daniel": 7929,
      "serving": 7930,
      "supports": 7931,
      "cow": 7932,
      "metric": 7933,
      "Custom": 7934,
      "future.": 7935,
      "Medicine": 7936,
      "Tree": 7937,
      "closing": 7938,
      "RNA": 7939,
      "autom": 7940,
      "manip": 7941,
      "planet": 7942,
      "Full": 7943,
      "redd": 7944,
      "x)": 7945,
      "clothes": 7946,
      "Ron": 7947,
      "Keith": 7948,
      "\"E": 7949,
      "Pay": 7950,
      "requests": 7951,
      "inline": 7952,
      "goti": 7953,
      "09": 7954,
      "union": 7955,
      "issues.": 7956,
      "rolling": 7957,
      "kinds": 7958,
      "experiences": 7959,
      "Mel": 7960,
      "Bi": 7961,
      "moral": 7962,
      "obl": 7963,
      "Leg": 7964,
      "hr": 7965,
      "publish": 7966,
      "<br": 7967,
      "ways,": 7968,
      "Ira": 7969,
      "UTF": 7970,
      "1/2": 7971,
      "BB": 7972,
      "aus": 7973,
      "Tuesday": 7974,
      "Av": 7975,
      "era": 7976,
      "dear": 7977,
      "lify": 7978,
      "embr": 7979,
      "Press": 7980,
      "Library": 7981,
      "bin/": 7982,
      "b_": 7983,
      "ptr": 7984,
      "AGE": 7985,
      "administr": 7986,
      "asks": 7987,
      "charged": 7988,
      "61": 7989,
      "driven": 7990,
      "defend": 7991,
      "stands": 7992,
      "$x": 7993,
      "outhern": 7994,
      "couch": 7995,
      "CN": 7996,
      "vehicle": 7997,
      "compreh": 7998,
      "y's": 7999,
      "We're": 8000,
      "purpos": 8001,
      "Menu": 8002,
      "Example": 8003,
      "</span>": 8004,
      "org.apache.": 8005,
      "âĢĿ.": 8006,
      "celer": 8007,
      "seek": 8008,
      "istan": 8009,
      "iously": 8010,
      "creative": 8011,
      "practical": 8012,
      "specify": 8013,
      "intel": 8014,
      "candidate": 8015,
      "know.\"": 8016,
      "util.": 8017,
      "otic": 8018,
      "Ir": 8019,
      "prefix": 8020,
      "Cam": 8021,
      "X-": 8022,
      "05": 8023,
      "information.": 8024,
      "wrt": 8025,
      "Rock": 8026,
      "macro": 8027,
      "HeâĢĻs": 8028,
      "expans": 8029,
      "generic": 8030,
      "din": 8031,
      "tension": 8032,
      "offering": 8033,
      "wound": 8034,
      "equation": 8035,
      "Watch": 8036,
      "UM": 8037,
      "believed": 8038,
      "âĨ": 8039,
      "Sar": 8040,
      "08": 8041,
      "Panel": 8042,
      "iders": 8043,
      "societ": 8044,
      "adm": 8045,
      "silver": 8046,
      "@example.com": 8047,
      "RA": 8048,
      "Host": 8049,
      "apo": 8050,
      "batch": 8051,
      "paint": 8052,
      "<td>": 8053,
      "Grand": 8054,
      "um,": 8055,
      "thrown": 8056,
      "secondary": 8057,
      "uded": 8058,
      "Thursday": 8059,
      "rose": 8060,
      "/s": 8061,
      "}\"": 8062,
      "Chic": 8063,
      "%.": 8064,
      "sider": 8065,
      "OO": 8066,
      "Dom": 8067,
      "dem": 8068,
      "coin": 8069,
      "receiving": 8070,
      "holder": 8071,
      "framework.": 8072,
      "astru": 8073,
      "bold": 8074,
      "tie": 8075,
      "cutting": 8076,
      "door.": 8077,
      "\"We're": 8078,
      ".add": 8079,
      "enough.": 8080,
      "olf": 8081,
      "pir": 8082,
      "threw": 8083,
      "Four": 8084,
      "classic": 8085,
      "embarrass": 8086,
      "horrible": 8087,
      "later.": 8088,
      "asset": 8089,
      "MT": 8090,
      "boxes": 8091,
      "(z": 8092,
      "GT": 8093,
      "WR": 8094,
      "artif": 8095,
      "oph": 8096,
      "ordinary": 8097,
      "Nick": 8098,
      "Serial": 8099,
      "insp": 8100,
      "now.\"": 8101,
      "[4": 8102,
      "Ray": 8103,
      "illustr": 8104,
      "<script": 8105,
      "journey": 8106,
      "Had": 8107,
      "Ca": 8108,
      "boun": 8109,
      "change.": 8110,
      "vs.": 8111,
      "hits": 8112,
      "false,": 8113,
      "ism.": 8114,
      "\"I've": 8115,
      "Network": 8116,
      "Ko": 8117,
      "department": 8118,
      "Without": 8119,
      "(j": 8120,
      "<x": 8121,
      "prev": 8122,
      "sentence": 8123,
      "peak": 8124,
      "EU": 8125,
      "Produ": 8126,
      "rounded": 8127,
      "anyway.": 8128,
      "(t)": 8129,
      "drivers": 8130,
      "Header": 8131,
      "endar": 8132,
      "02": 8133,
      "regardless": 8134,
      "-like": 8135,
      "vast": 8136,
      "ĊĉĠ": 8137,
      "Roy": 8138,
      "iden": 8139,
      "France": 8140,
      "III.": 8141,
      "coder": 8142,
      "buff": 8143,
      "cf": 8144,
      "rick": 8145,
      "93": 8146,
      "pto": 8147,
      "angry": 8148,
      "duplic": 8149,
      "shook": 8150,
      "style=\"": 8151,
      "Print": 8152,
      "desired": 8153,
      "cursor": 8154,
      "Az": 8155,
      "KEY": 8156,
      "much,": 8157,
      "Come": 8158,
      "reviews": 8159,
      "Dark": 8160,
      "intention": 8161,
      "pil": 8162,
      "fasc": 8163,
      "Ø§": 8164,
      "punch": 8165,
      "readers": 8166,
      "weapons": 8167,
      "Ital": 8168,
      "pink": 8169,
      "throwing": 8170,
      "decor": 8171,
      "improved": 8172,
      ":30": 8173,
      "warr": 8174,
      "goals": 8175,
      "oppon": 8176,
      "surprising": 8177,
      "alt": 8178,
      "impress": 8179,
      "smil": 8180,
      "Jose": 8181,
      "plates": 8182,
      "Cheers,": 8183,
      "bed,": 8184,
      "perman": 8185,
      "A-": 8186,
      "umin": 8187,
      "/3": 8188,
      "thetic": 8189,
      "staring": 8190,
      "FT": 8191,
      "talks": 8192,
      "thesis": 8193,
      "System.out.": 8194,
      "https://github.com/": 8195,
      "assumption": 8196,
      "brea": 8197,
      "army": 8198,
      "heads": 8199,
      "it'll": 8200,
      "supporting": 8201,
      "relationships": 8202,
      "dia": 8203,
      "class,": 8204,
      "axis": 8205,
      "ometry": 8206,
      "Url": 8207,
      "set;": 8208,
      "1_": 8209,
      "consumer": 8210,
      "plas": 8211,
      "house.": 8212,
      "function.": 8213,
      "genu": 8214,
      "Lar": 8215,
      "Configuration": 8216,
      "\"Where": 8217,
      "marriage": 8218,
      "bone": 8219,
      "noted": 8220,
      "error.": 8221,
      "settle": 8222,
      "programming": 8223,
      "reward": 8224,
      "foreach": 8225,
      "thumb": 8226,
      "attent": 8227,
      "ingu": 8228,
      "stayed": 8229,
      "answered": 8230,
      "proxy": 8231,
      "handler": 8232,
      "millions": 8233,
      "i++)": 8234,
      "000000": 8235,
      "anything,": 8236,
      "Russia": 8237,
      "-5*": 8238,
      "covers": 8239,
      "precise": 8240,
      "ences.": 8241,
      "positions": 8242,
      "of.": 8243,
      "reverse": 8244,
      "humans": 8245,
      "-18": 8246,
      ")))": 8247,
      "#endif": 8248,
      "Mi": 8249,
      "user.": 8250,
      "attributes": 8251,
      "j.": 8252,
      "sect": 8253,
      "instance,": 8254,
      "Space": 8255,
      "ions,": 8256,
      "sey": 8257,
      "heal": 8258,
      "dance": 8259,
      "âĢĺâĢĺ": 8260,
      "Plan": 8261,
      "adapt": 8262,
      "criminal": 8263,
      "ector": 8264,
      "terr": 8265,
      "latter": 8266,
      "Ms": 8267,
      "hyung": 8268,
      "dra": 8269,
      "subsequ": 8270,
      "shots": 8271,
      "-16": 8272,
      "cart": 8273,
      ".....": 8274,
      "2.5": 8275,
      "myster": 8276,
      "pit": 8277,
      "angu": 8278,
      "2nd": 8279,
      "pod": 8280,
      "ty,": 8281,
      "_size": 8282,
      "repair": 8283,
      "fest": 8284,
      "hanging": 8285,
      "country.": 8286,
      "value,": 8287,
      "addition,": 8288,
      "whel": 8289,
      "League": 8290,
      "hardly": 8291,
      "lady": 8292,
      "\"$": 8293,
      "Looking": 8294,
      "14,": 8295,
      "son.": 8296,
      "-in-": 8297,
      "Tell": 8298,
      "Creat": 8299,
      "(like": 8300,
      "artist": 8301,
      "movies": 8302,
      "\\right": 8303,
      "diction": 8304,
      "ection": 8305,
      "sqrt": 8306,
      "Kim": 8307,
      "island": 8308,
      "discussed": 8309,
      "Comput": 8310,
      "crowd": 8311,
      "DD": 8312,
      "get;": 8313,
      "E,": 8314,
      "null,": 8315,
      "Notes": 8316,
      "invalid": 8317,
      "negoti": 8318,
      "Dar": 8319,
      "Hard": 8320,
      "comed": 8321,
      "begins": 8322,
      "involve": 8323,
      "posure": 8324,
      "(u": 8325,
      "2007": 8326,
      "haha": 8327,
      "problems.": 8328,
      "myst": 8329,
      "lt;": 8330,
      "reck": 8331,
      "employees": 8332,
      "Anyway,": 8333,
      "collected": 8334,
      "same.": 8335,
      "perspective": 8336,
      "appy": 8337,
      "volunte": 8338,
      "yang": 8339,
      "Arab": 8340,
      "today,": 8341,
      "Whe": 8342,
      "256": 8343,
      "/.": 8344,
      "ops": 8345,
      "Franc": 8346,
      "Dig": 8347,
      "hib": 8348,
      "\"Good": 8349,
      "certific": 8350,
      "Total": 8351,
      "Council": 8352,
      "job.": 8353,
      "River": 8354,
      "spit": 8355,
      "degre": 8356,
      "brid": 8357,
      "posting": 8358,
      "estic": 8359,
      "LI": 8360,
      "Juli": 8361,
      "Sche": 8362,
      "shoes": 8363,
      "Elect": 8364,
      "shares": 8365,
      "toms": 8366,
      "around,": 8367,
      "haust": 8368,
      "ACT": 8369,
      "vm": 8370,
      "hesit": 8371,
      "indicate": 8372,
      "DonâĢĻt": 8373,
      "Ha": 8374,
      "re.": 8375,
      "revenue": 8376,
      "photos": 8377,
      "emphas": 8378,
      "07": 8379,
      "sugar": 8380,
      "-17": 8381,
      "asleep": 8382,
      "compiler": 8383,
      "sports": 8384,
      "Wall": 8385,
      "(19": 8386,
      "height=\"": 8387,
      "crush": 8388,
      "up.\"": 8389,
      "months.": 8390,
      "heavily": 8391,
      "committed": 8392,
      "Integer": 8393,
      "dust": 8394,
      "(x,": 8395,
      "EDIT:": 8396,
      "Islam": 8397,
      "dependency": 8398,
      "signs": 8399,
      "Jun": 8400,
      "itself.": 8401,
      "curve": 8402,
      "boat": 8403,
      "developers": 8404,
      "Way": 8405,
      "Collect": 8406,
      "sale": 8407,
      "fake": 8408,
      "sock": 8409,
      "pra": 8410,
      "accounts": 8411,
      "type:": 8412,
      "odes": 8413,
      "destru": 8414,
      "Police": 8415,
      "catal": 8416,
      "Spring": 8417,
      "Left": 8418,
      "PH": 8419,
      "regards": 8420,
      "dick": 8421,
      "read,": 8422,
      "fty": 8423,
      "udes": 8424,
      "Reference": 8425,
      "no-": 8426,
      "Support": 8427,
      "ĠĠĠĠĠĠĠĠĠĠĠĠĠĠĠĠĠ": 8428,
      "CSS": 8429,
      "Ba": 8430,
      "translation": 8431,
      "Wednesday": 8432,
      "sla": 8433,
      "pleasure": 8434,
      "adata": 8435,
      "argue": 8436,
      "Null": 8437,
      "ASS": 8438,
      "guil": 8439,
      "Unfortunately,": 8440,
      "Dou": 8441,
      "gear": 8442,
      "hitting": 8443,
      "Dam": 8444,
      "installation": 8445,
      "shield": 8446,
      "92": 8447,
      "files.": 8448,
      "they'll": 8449,
      "meat": 8450,
      "addr": 8451,
      "comb": 8452,
      "conducted": 8453,
      "compatible": 8454,
      "/m": 8455,
      "coded": 8456,
      "////////////////": 8457,
      "rational": 8458,
      "Debug": 8459,
      "vacc": 8460,
      "injur": 8461,
      "lon": 8462,
      "Ð½Ð°": 8463,
      "tu": 8464,
      "isation": 8465,
      "long,": 8466,
      "l_": 8467,
      "appearance": 8468,
      "*.": 8469,
      "stab": 8470,
      "angel": 8471,
      "calculate": 8472,
      "M,": 8473,
      "Chapter:**": 8474,
      "\"the": 8475,
      "nan": 8476,
      "ger.": 8477,
      "sys": 8478,
      "Incl": 8479,
      "violence": 8480,
      "carbon": 8481,
      "nn": 8482,
      "blocks": 8483,
      "Turn": 8484,
      "urally": 8485,
      "ASE": 8486,
      "\\end": 8487,
      "Carol": 8488,
      "legisl": 8489,
      "ĠĠĠĠĠĠĠĠĠĠĠĠĠĠĠĠĠĠĠĠĠĠĠĠĠĠĠĠĠĠĠĠĠĠĠĠĠĠĠĠĠĠĠĠĠĠĠĠĠĠĠĠĠĠĠĠĠĠĠĠĠĠĠĠ": 8490,
      "Vide": 8491,
      "Ä±": 8492,
      "<p>": 8493,
      "Western": 8494,
      "covering": 8495,
      "(E": 8496,
      "Database": 8497,
      "response.": 8498,
      "retail": 8499,
      "accomplish": 8500,
      "handling": 8501,
      "CHAR": 8502,
      "âĸ": 8503,
      "ĊĠĠĠĠĠĠĠĠĠĠĠĠĠĠĠ": 8504,
      "specially": 8505,
      "Phys": 8506,
      "struggle": 8507,
      "instructions": 8508,
      "PN": 8509,
      "Fam": 8510,
      "cere": 8511,
      "absor": 8512,
      "schedule": 8513,
      "ones.": 8514,
      "UST": 8515,
      "award": 8516,
      "falls": 8517,
      "Sel": 8518,
      "Yu": 8519,
      "cher": 8520,
      "SET": 8521,
      "represents": 8522,
      "heading": 8523,
      "Hot": 8524,
      "iments": 8525,
      "&lt;": 8526,
      "<h": 8527,
      "manner": 8528,
      "Mom": 8529,
      "attacks": 8530,
      "elimin": 8531,
      "friends,": 8532,
      "reads": 8533,
      "grate": 8534,
      "Mrs.": 8535,
      "clipse": 8536,
      "sheâĢĻs": 8537,
      "ors,": 8538,
      "reddit": 8539,
      "have.": 8540,
      "Information": 8541,
      "1st": 8542,
      "family.": 8543,
      "below.": 8544,
      "Pad": 8545,
      "school.": 8546,
      "horse": 8547,
      "decisions": 8548,
      "nap": 8549,
      "4:": 8550,
      "but,": 8551,
      "ached": 8552,
      "Cla": 8553,
      "that?\"": 8554,
      "mind,": 8555,
      "pher": 8556,
      "Such": 8557,
      "pleased": 8558,
      "leadership": 8559,
      "memories": 8560,
      "categories": 8561,
      "-x": 8562,
      "d_": 8563,
      "Gl": 8564,
      "aker": 8565,
      "Ker": 8566,
      "complicated": 8567,
      "1}{": 8568,
      "Vari": 8569,
      "smoke": 8570,
      "storm": 8571,
      "field.": 8572,
      "covery": 8573,
      "diet": 8574,
      "Muslim": 8575,
      "COVID": 8576,
      "burst": 8577,
      "$1": 8578,
      "[2]": 8579,
      "bottle": 8580,
      "moment.": 8581,
      "izontal": 8582,
      "Martin": 8583,
      "requirements": 8584,
      "gently": 8585,
      "DATE": 8586,
      "WN": 8587,
      "instruction": 8588,
      "thur": 8589,
      "constitut": 8590,
      "flush": 8591,
      "\"When": 8592,
      "recall": 8593,
      "exhaust": 8594,
      "Given": 8595,
      "w/": 8596,
      "-01": 8597,
      "prise": 8598,
      "example.": 8599,
      "X.": 8600,
      "iers": 8601,
      "ed:": 8602,
      "school,": 8603,
      "Standard": 8604,
      "Scre": 8605,
      "128": 8606,
      "loving": 8607,
      "gues": 8608,
      "LED": 8609,
      "retain": 8610,
      "ears": 8611,
      "ativ": 8612,
      "officer": 8613,
      "intense": 8614,
      "declared": 8615,
      "2}": 8616,
      "âĦ": 8617,
      "upset": 8618,
      "Ñĸ": 8619,
      "een": 8620,
      "fabric": 8621,
      "Email": 8622,
      "Edu": 8623,
      "ants.": 8624,
      "string.": 8625,
      "outcome": 8626,
      "ience": 8627,
      "carefully": 8628,
      "environmental": 8629,
      "First,": 8630,
      "controlled": 8631,
      "asket": 8632,
      "simp": 8633,
      "disable": 8634,
      "legit": 8635,
      "sli": 8636,
      "GNU": 8637,
      "beach": 8638,
      "audience": 8639,
      "Ryan": 8640,
      "group.": 8641,
      "**(": 8642,
      "Ag": 8643,
      "Road": 8644,
      "grat": 8645,
      "\\r": 8646,
      "whereas": 8647,
      "18.": 8648,
      "args": 8649,
      "OT": 8650,
      "corrupt": 8651,
      "ems": 8652,
      "house,": 8653,
      "Govern": 8654,
      "cable": 8655,
      "(3)": 8656,
      "key,": 8657,
      "explanation": 8658,
      "fashion": 8659,
      "formal": 8660,
      "%>": 8661,
      "Today": 8662,
      "wrong,": 8663,
      "ATA": 8664,
      "begin{": 8665,
      "dumb": 8666,
      "Price": 8667,
      "vulner": 8668,
      "Math": 8669,
      "Being": 8670,
      "meter": 8671,
      "importance": 8672,
      "recorded": 8673,
      "action.": 8674,
      "Sa": 8675,
      "friends.": 8676,
      "Labor": 8677,
      "Fore": 8678,
      "mosp": 8679,
      "awful": 8680,
      "drugs": 8681,
      "see,": 8682,
      "2\"": 8683,
      "segment": 8684,
      "beside": 8685,
      "Tab": 8686,
      "RC": 8687,
      "Error:": 8688,
      "earn": 8689,
      "judg": 8690,
      "breaks": 8691,
      "Dir": 8692,
      "/d": 8693,
      "Canadian": 8694,
      "Rose": 8695,
      "songs": 8696,
      "Charles": 8697,
      "AU": 8698,
      "-h": 8699,
      "(at": 8700,
      "udd": 8701,
      "enough,": 8702,
      "Dave": 8703,
      "thrill": 8704,
      "true.": 8705,
      "ERROR": 8706,
      "mood": 8707,
      "Andrew": 8708,
      "Commit": 8709,
      "Jen": 8710,
      "iPhone": 8711,
      "derived": 8712,
      "appreciated": 8713,
      "tied": 8714,
      "25,": 8715,
      "->get": 8716,
      "198": 8717,
      "pursu": 8718,
      "parties": 8719,
      "asked,": 8720,
      "Roman": 8721,
      "Australia": 8722,
      "Based": 8723,
      "pis": 8724,
      "me?\"": 8725,
      "headed": 8726,
      "introduce": 8727,
      "Japanese": 8728,
      "area.": 8729,
      "1]": 8730,
      "null;": 8731,
      "\"Your": 8732,
      "vary": 8733,
      "experience.": 8734,
      "sig": 8735,
      ".,": 8736,
      "X_": 8737,
      "THAT": 8738,
      "dos": 8739,
      "strongly": 8740,
      "esty": 8741,
      "payment": 8742,
      "MV": 8743,
      "myself.": 8744,
      "escap": 8745,
      "urb": 8746,
      "type.": 8747,
      "lung": 8748,
      "trees": 8749,
      "vertical": 8750,
      "intr": 8751,
      "dil": 8752,
      "Visual": 8753,
      "icide": 8754,
      "characters.": 8755,
      "Channel": 8756,
      "p-": 8757,
      "%s": 8758,
      "romance": 8759,
      "isk": 8760,
      "FE": 8761,
      "results.": 8762,
      "Minister": 8763,
      "controls": 8764,
      "Iraq": 8765,
      "participants": 8766,
      "4-": 8767,
      "Introdu": 8768,
      "marketing": 8769,
      "hover": 8770,
      "rog": 8771,
      "ias": 8772,
      "statements": 8773,
      "signature": 8774,
      "They're": 8775,
      "estimated": 8776,
      "centur": 8777,
      "concerns": 8778,
      "ilit": 8779,
      "Board": 8780,
      "stores": 8781,
      ")$": 8782,
      "06": 8783,
      "functionality": 8784,
      "brilli": 8785,
      "\"Can": 8786,
      "Global": 8787,
      "isms": 8788,
      "man's": 8789,
      "assigned": 8790,
      "faced": 8791,
      "university": 8792,
      "provider": 8793,
      "(R.": 8794,
      "genuine": 8795,
      "insist": 8796,
      "disabled": 8797,
      "sl:": 8798,
      "giant": 8799,
      "cue": 8800,
      "ggle": 8801,
      "nail": 8802,
      "čĊĉĉ": 8803,
      "infrastru": 8804,
      "depression": 8805,
      "ities,": 8806,
      "w,": 8807,
      "creep": 8808,
      "seeking": 8809,
      "succeed": 8810,
      "Times": 8811,
      "regret": 8812,
      "Session": 8813,
      "Ten": 8814,
      "$2": 8815,
      "plants": 8816,
      "gut": 8817,
      "17.": 8818,
      "measures": 8819,
      "re,": 8820,
      "System.out.println": 8821,
      "crap": 8822,
      "marks": 8823,
      "ually,": 8824,
      "CRE": 8825,
      "shir": 8826,
      "displayed": 8827,
      "Bes": 8828,
      "bott": 8829,
      "3rd": 8830,
      "rooms": 8831,
      "Congress": 8832,
      "kan": 8833,
      "deserve": 8834,
      "existence": 8835,
      "ThereâĢĻs": 8836,
      "person.": 8837,
      "Victor": 8838,
      "occurred": 8839,
      "Dere": 8840,
      "mount": 8841,
      "/v": 8842,
      "0.2": 8843,
      "OD": 8844,
      "recovery": 8845,
      "stuff.": 8846,
      "possess": 8847,
      "you?": 8848,
      "nervous": 8849,
      "belt": 8850,
      "cope": 8851,
      "doors": 8852,
      "bby": 8853,
      "alty": 8854,
      "right?\"": 8855,
      "Impl": 8856,
      "_DE": 8857,
      "Name,": 8858,
      "immun": 8859,
      "season.": 8860,
      "overwhel": 8861,
      "executive": 8862,
      "limits": 8863,
      "investigation": 8864,
      "ctr": 8865,
      "yeah,": 8866,
      "deeper": 8867,
      "numerous": 8868,
      "muscle": 8869,
      "twenty": 8870,
      "collabor": 8871,
      "\\end{": 8872,
      "ench": 8873,
      "delight": 8874,
      "dirty": 8875,
      "calculated": 8876,
      "reduction": 8877,
      "half-": 8878,
      "reporting": 8879,
      "Background": 8880,
      "Fri": 8881,
      "moon": 8882,
      "ghost": 8883,
      "Stiles": 8884,
      "P,": 8885,
      "Cond": 8886,
      "version.": 8887,
      "simpl": 8888,
      "Camp": 8889,
      "awa": 8890,
      "isa": 8891,
      "relief": 8892,
      "III": 8893,
      "cogn": 8894,
      "low-": 8895,
      "She's": 8896,
      "regards,": 8897,
      "rec": 8898,
      "ge.": 8899,
      "Secret": 8900,
      "aspects": 8901,
      "\"R": 8902,
      "frequently": 8903,
      "scenes": 8904,
      "Reader": 8905,
      "fails": 8906,
      "thorough": 8907,
      "ul>": 8908,
      "colon": 8909,
      "Editor": 8910,
      "quir": 8911,
      "closure": 8912,
      "percentage": 8913,
      "SN": 8914,
      "estimate": 8915,
      "localhost": 8916,
      "19.": 8917,
      "icial": 8918,
      "ï¼Į": 8919,
      "formula": 8920,
      "ARY": 8921,
      "infect": 8922,
      "'s.": 8923,
      "fox": 8924,
      "initially": 8925,
      "victory": 8926,
      "craf": 8927,
      "lymp": 8928,
      "slot": 8929,
      "nose": 8930,
      "i'll": 8931,
      "3.0": 8932,
      "Far": 8933,
      "O.": 8934,
      "ounder": 8935,
      "abandon": 8936,
      "Central": 8937,
      "toler": 8938,
      "umbled": 8939,
      "reaching": 8940,
      "Jung": 8941,
      "?!": 8942,
      "rence": 8943,
      "dish": 8944,
      "sne": 8945,
      "incredible": 8946,
      "surrounding": 8947,
      "there.\"": 8948,
      "Social": 8949,
      "Hun": 8950,
      "with,": 8951,
      "books.": 8952,
      "asha": 8953,
      "handed": 8954,
      "ota": 8955,
      "staying": 8956,
      "Jimin": 8957,
      "squee": 8958,
      "amoun": 8959,
      "âĢľA": 8960,
      "earli": 8961,
      "Know": 8962,
      "family,": 8963,
      "sleeping": 8964,
      "removing": 8965,
      "bacter": 8966,
      "posing": 8967,
      "set_": 8968,
      "Position": 8969,
      "text-": 8970,
      "gly": 8971,
      "stepped": 8972,
      "want.": 8973,
      "Î»": 8974,
      "Hash": 8975,
      "CHE": 8976,
      "dash": 8977,
      "approved": 8978,
      "urban": 8979,
      "\"Let's": 8980,
      "9)": 8981,
      "constructor": 8982,
      "50%": 8983,
      "illegal": 8984,
      "al-": 8985,
      "themat": 8986,
      "body>": 8987,
      "âķĲ": 8988,
      "valuable": 8989,
      "play.": 8990,
      "Job": 8991,
      "lio": 8992,
      "spaces": 8993,
      "answer.": 8994,
      "ie.": 8995,
      "entries": 8996,
      "Design": 8997,
      "wedding": 8998,
      "solution.": 8999,
      "mistry": 9000,
      "Lev": 9001,
      "itz": 9002,
      "Prom": 9003,
      "PG": 9004,
      "Texas": 9005,
      "example:": 9006,
      "folk": 9007,
      "legend": 9008,
      "neighborhood": 9009,
      "equipment": 9010,
      "aterial": 9011,
      "Jason": 9012,
      "gang": 9013,
      "-t": 9014,
      "matching": 9015,
      "dedicated": 9016,
      "document.": 9017,
      "Han": 9018,
      "champion": 9019,
      "Account": 9020,
      "like.": 9021,
      "%d": 9022,
      "Dec": 9023,
      "grind": 9024,
      "coast": 9025,
      "liquid": 9026,
      "bub": 9027,
      "writes": 9028,
      "approximately": 9029,
      "recru": 9030,
      "needed.": 9031,
      "compiled": 9032,
      "Priv": 9033,
      "Module": 9034,
      "illy": 9035,
      "uniform": 9036,
      "powers": 9037,
      "struggling": 9038,
      "deleg": 9039,
      "result.": 9040,
      "(e": 9041,
      "17,": 9042,
      "71": 9043,
      "subscribe": 9044,
      "2D": 9045,
      "Bla": 9046,
      "Greg": 9047,
      "libraries": 9048,
      "Parameter": 9049,
      "ui": 9050,
      "robot": 9051,
      "competitive": 9052,
      "impression": 9053,
      "Ïĥ": 9054,
      "delic": 9055,
      "2006": 9056,
      "annoying": 9057,
      "Ã¥": 9058,
      "Night": 9059,
      "Consider": 9060,
      "parallel": 9061,
      "Vi": 9062,
      "contained": 9063,
      "Ð±": 9064,
      "excuse": 9065,
      "Fer": 9066,
      "](https://www.": 9067,
      "Shad": 9068,
      "buttons": 9069,
      "hadnâĢĻt": 9070,
      "cultural": 9071,
      "trained": 9072,
      "something,": 9073,
      "Arthur": 9074,
      "wine": 9075,
      "copyright": 9076,
      "studied": 9077,
      "ICE": 9078,
      "table,": 9079,
      "rive": 9080,
      "Draw": 9081,
      "disci": 9082,
      "...)": 9083,
      "flood": 9084,
      "warrant": 9085,
      "Wood": 9086,
      "\"Get": 9087,
      "gle.": 9088,
      "overflow": 9089,
      "bitch": 9090,
      "Sky": 9091,
      "Connect": 9092,
      "Rout": 9093,
      "display:": 9094,
      "unlike": 9095,
      "Chief": 9096,
      "Yet": 9097,
      "bike": 9098,
      "0);": 9099,
      "HS": 9100,
      "resistance": 9101,
      "maps": 9102,
      "weigh": 9103,
      "tact": 9104,
      "pel": 9105,
      "Adapter": 9106,
      "ita": 9107,
      "context.": 9108,
      "breathe": 9109,
      "Match": 9110,
      "Cath": 9111,
      "ipp": 9112,
      "Son": 9113,
      "application.": 9114,
      "minim": 9115,
      "(data": 9116,
      "great,": 9117,
      "teeth": 9118,
      "Thor": 9119,
      "vid": 9120,
      "hopes": 9121,
      "atmosp": 9122,
      "Plat": 9123,
      "çļ": 9124,
      "Util": 9125,
      "magn": 9126,
      "pound": 9127,
      "laughed": 9128,
      "/(-": 9129,
      "convent": 9130,
      "Sym": 9131,
      "Sever": 9132,
      "3.5": 9133,
      "space.": 9134,
      "Stop": 9135,
      "Pot": 9136,
      "'\"": 9137,
      "NEW": 9138,
      "dum": 9139,
      "anxi": 9140,
      "\\x": 9141,
      "*t": 9142,
      "path.": 9143,
      "Obvious": 9144,
      "extent": 9145,
      "style.": 9146,
      "opposed": 9147,
      "Mot": 9148,
      "said:": 9149,
      "Jam": 9150,
      "aka": 9151,
      "neur": 9152,
      "sink": 9153,
      "chap": 9154,
      "technique": 9155,
      "abstract": 9156,
      "ja": 9157,
      "COL": 9158,
      "imper": 9159,
      "\\left": 9160,
      "Land": 9161,
      "AAAA": 9162,
      "fruit": 9163,
      "Thus,": 9164,
      "anticip": 9165,
      "ads": 9166,
      "carrying": 9167,
      "Abstract": 9168,
      "âĶĢâĶĢ": 9169,
      "gall": 9170,
      "stared": 9171,
      "stops": 9172,
      "(q": 9173,
      "connections": 9174,
      "compil": 9175,
      "inspir": 9176,
      "done,": 9177,
      "detection": 9178,
      "consult": 9179,
      "better,": 9180,
      "Little": 9181,
      "tast": 9182,
      "silence": 9183,
      "out.\"": 9184,
      "ourselves": 9185,
      "situation.": 9186,
      "ultimately": 9187,
      "Lay": 9188,
      "far,": 9189,
      "funding": 9190,
      "African": 9191,
      "PI": 9192,
      "realistic": 9193,
      "lang.": 9194,
      "700": 9195,
      "çļĦ": 9196,
      "fired": 9197,
      "divide": 9198,
      "Entry": 9199,
      "probability": 9200,
      "RAM": 9201,
      "inet": 9202,
      "effectively": 9203,
      "Display": 9204,
      "lovely": 9205,
      "shrug": 9206,
      "Ze": 9207,
      "substant": 9208,
      "Jeff": 9209,
      "Options": 9210,
      "fare": 9211,
      "sense.": 9212,
      "translate": 9213,
      "tv": 9214,
      "flying": 9215,
      "Runtime": 9216,
      "routine": 9217,
      "density": 9218,
      "this.\"": 9219,
      "_c": 9220,
      "Files": 9221,
      "/j": 9222,
      "key>": 9223,
      ")).": 9224,
      "(X": 9225,
      "Youn": 9226,
      "games.": 9227,
      "method.": 9228,
      "debate": 9229,
      "Need": 9230,
      "Fail": 9231,
      "Unless": 9232,
      "steam": 9233,
      "Anim": 9234,
      "COMP": 9235,
      "continuous": 9236,
      "exposure": 9237,
      "stronger": 9238,
      "Pen": 9239,
      "assumed": 9240,
      "BUT": 9241,
      "ates.": 9242,
      "tooth": 9243,
      "remained": 9244,
      "lowest": 9245,
      "ACE": 9246,
      "service.": 9247,
      "agraph": 9248,
      "tos": 9249,
      "Simple": 9250,
      "aret": 9251,
      "Ram": 9252,
      "statist": 9253,
      "like:": 9254,
      "Pop": 9255,
      "Dif": 9256,
      "wif": 9257,
      "exe": 9258,
      "Op": 9259,
      "referred": 9260,
      "2005": 9261,
      "POST": 9262,
      "ffff": 9263,
      "18,": 9264,
      "promised": 9265,
      "agger": 9266,
      "acceler": 9267,
      "PER": 9268,
      "s.com/": 9269,
      "Lim": 9270,
      "Coll": 9271,
      "site.": 9272,
      "largely": 9273,
      "sizeof": 9274,
      "item.": 9275,
      "cdot": 9276,
      "religion": 9277,
      "test_": 9278,
      "scheme": 9279,
      "cuts": 9280,
      "team.": 9281,
      "outs": 9282,
      "ancient": 9283,
      "position.": 9284,
      "Ow": 9285,
      "magaz": 9286,
      "informed": 9287,
      "Josh": 9288,
      "Tube": 9289,
      "Journal": 9290,
      "03": 9291,
      "C_": 9292,
      "AK": 9293,
      "Commission": 9294,
      "TD": 9295,
      "Categ": 9296,
      "čĊĠĠĠĠĠĠĠĠĠĠĠĠĠĠĠĠ": 9297,
      "alone.": 9298,
      "ary.": 9299,
      "raising": 9300,
      "registered": 9301,
      "birthday": 9302,
      "Develop": 9303,
      "acter": 9304,
      "ours": 9305,
      "aggress": 9306,
      "LES": 9307,
      "Var": 9308,
      "challenges": 9309,
      "possible,": 9310,
      "Online": 9311,
      "border-": 9312,
      "Tre": 9313,
      "silent": 9314,
      "evolution": 9315,
      "id)": 9316,
      "Lance": 9317,
      "-1)": 9318,
      "red,": 9319,
      "dogs": 9320,
      "instrument": 9321,
      "east": 9322,
      "oma": 9323,
      "ongi": 9324,
      "secre": 9325,
      "coverage": 9326,
      "pointing": 9327,
      "commission": 9328,
      "Ann": 9329,
      "ffect": 9330,
      "dying": 9331,
      "------------": 9332,
      "grace": 9333,
      "tags": 9334,
      "prospect": 9335,
      "builder": 9336,
      "artifact": 9337,
      "Ident": 9338,
      "Sho": 9339,
      "Los": 9340,
      "position:": 9341,
      "mystery": 9342,
      "\"âĻª": 9343,
      "jQuery": 9344,
      "disappointed": 9345,
      "@\"": 9346,
      "trem": 9347,
      "merely": 9348,
      "level.": 9349,
      "spon": 9350,
      "ruby": 9351,
      "Henry": 9352,
      "Eric": 9353,
      "choices": 9354,
      "bugs": 9355,
      "\"There's": 9356,
      "./": 9357,
      "phenomen": 9358,
      "resident": 9359,
      "did,": 9360,
      "Lee": 9361,
      "Island": 9362,
      "rarely": 9363,
      "bilities": 9364,
      "bad.": 9365,
      "to:": 9366,
      "cean": 9367,
      "paste": 9368,
      "exciting": 9369,
      "cross-": 9370,
      "slip": 9371,
      "product.": 9372,
      "91": 9373,
      "asked.": 9374,
      "request.": 9375,
      "exposed": 9376,
      "attempts": 9377,
      "ende": 9378,
      "\\begin{": 9379,
      "recognized": 9380,
      "energ": 9381,
      "ication": 9382,
      "you.âĢĿ": 9383,
      "matters": 9384,
      "effici": 9385,
      "options.": 9386,
      "mapping": 9387,
      "anny": 9388,
      "Ð³": 9389,
      "Mail": 9390,
      "funds": 9391,
      "machines": 9392,
      "izard": 9393,
      "encourage": 9394,
      "manufactur": 9395,
      "core.": 9396,
      "v=": 9397,
      "evaluate": 9398,
      "JavaScript": 9399,
      "veget": 9400,
      "packet": 9401,
      "icked": 9402,
      "of,": 9403,
      "tasks": 9404,
      "no.": 9405,
      "uge": 9406,
      "reput": 9407,
      "one's": 9408,
      "IME": 9409,
      "Î½": 9410,
      "\"Did": 9411,
      "composite": 9412,
      "per.": 9413,
      "execution": 9414,
      "recording": 9415,
      "besides": 9416,
      "ville": 9417,
      "BSD": 9418,
      "âĨĴ": 9419,
      "--The": 9420,
      "GG": 9421,
      "code>": 9422,
      "idiot": 9423,
      "delivered": 9424,
      "Cast": 9425,
      "p><": 9426,
      "reshold": 9427,
      "ÏĢ": 9428,
      "Academ": 9429,
      "Management": 9430,
      "suggests": 9431,
      "go.\"": 9432,
      "emergency": 9433,
      "invoke": 9434,
      "Foundation": 9435,
      "er:": 9436,
      "Mass": 9437,
      "Name=\"": 9438,
      "mates": 9439,
      "READ": 9440,
      "steel": 9441,
      "rical": 9442,
      "information,": 9443,
      "tea": 9444,
      "Register": 9445,
      "extensive": 9446,
      "\"))": 9447,
      "oles": 9448,
      "Got": 9449,
      "sub-": 9450,
      "teachers": 9451,
      "volt": 9452,
      "water.": 9453,
      "breakfast": 9454,
      "used,": 9455,
      "charges": 9456,
      "ax.": 9457,
      "God,": 9458,
      "STAT": 9459,
      "Middle": 9460,
      "thir": 9461,
      "restaurant": 9462,
      "happen.": 9463,
      "4.0": 9464,
      "gray": 9465,
      "*v": 9466,
      "grateful": 9467,
      "Services": 9468,
      "flags": 9469,
      "ice,": 9470,
      "pig": 9471,
      "disagree": 9472,
      "DL": 9473,
      "aded": 9474,
      "blast": 9475,
      "Bush": 9476,
      "Scot": 9477,
      "Remember": 9478,
      "Environ": 9479,
      "\\infty": 9480,
      "arbit": 9481,
      "abuse": 9482,
      "Kev": 9483,
      "Tae": 9484,
      "net.": 9485,
      "Shar": 9486,
      "cod": 9487,
      "sword": 9488,
      "flower": 9489,
      "soil": 9490,
      "Share": 9491,
      "radius": 9492,
      "decade": 9493,
      "Vo": 9494,
      "Plus": 9495,
      "terminal": 9496,
      ")(": 9497,
      "series,": 9498,
      "ira": 9499,
      "ator,": 9500,
      "proved": 9501,
      "rely": 9502,
      "polar": 9503,
      "gust": 9504,
      "Democratic": 9505,
      "</h": 9506,
      "izz": 9507,
      "western": 9508,
      "neuro": 9509,
      "Initial": 9510,
      "voted": 9511,
      "Sciences": 9512,
      "\"No.\"": 9513,
      "gs": 9514,
      "contribute": 9515,
      "increases": 9516,
      "policies": 9517,
      "elev": 9518,
      "string,": 9519,
      "neutral": 9520,
      "Think": 9521,
      "Queen": 9522,
      "id/": 9523,
      "ÂłÂłÂłÂł": 9524,
      "cream": 9525,
      "g_": 9526,
      "aneous": 9527,
      "explore": 9528,
      "Stan": 9529,
      "Flag": 9530,
      "Week": 9531,
      "*x": 9532,
      "Move": 9533,
      "attitude": 9534,
      "enforce": 9535,
      "yout.": 9536,
      "morning,": 9537,
      "MySQL": 9538,
      "instances": 9539,
      "opportunities": 9540,
      "And,": 9541,
      "priority": 9542,
      "Union": 9543,
      "tall": 9544,
      "Ash": 9545,
      "Force": 9546,
      "politics": 9547,
      "lambda": 9548,
      "widely": 9549,
      "Studio": 9550,
      "nodded": 9551,
      "/etc": 9552,
      "different.": 9553,
      "experimental": 9554,
      "yr": 9555,
      "installing": 9556,
      "manifest": 9557,
      "sweat": 9558,
      "Clear": 9559,
      "bomb": 9560,
      "CEO": 9561,
      "leaned": 9562,
      "studio": 9563,
      "Human": 9564,
      "minimal": 9565,
      "Party": 9566,
      "P_": 9567,
      "circu": 9568,
      "verify": 9569,
      "land,": 9570,
      "Activ": 9571,
      "page,": 9572,
      "*c": 9573,
      "1.1": 9574,
      "<li><a": 9575,
      "repor": 9576,
      "huh": 9577,
      "you!": 9578,
      "ÑĨ": 9579,
      "Ra": 9580,
      "*n": 9581,
      "scheduled": 9582,
      "ensed": 9583,
      "convenient": 9584,
      "bern": 9585,
      "ulture": 9586,
      "Ð½Ð¸": 9587,
      "9999": 9588,
      "anda": 9589,
      "preced": 9590,
      "parser": 9591,
      "Too": 9592,
      "Debian": 9593,
      "\"Yeah.\"": 9594,
      "Technology": 9595,
      "graphics": 9596,
      "Qt": 9597,
      "own,": 9598,
      "$('#": 9599,
      "dies": 9600,
      "jail": 9601,
      "ione": 9602,
      ">(": 9603,
      "represented": 9604,
      "$n": 9605,
      "typedef": 9606,
      "2).": 9607,
      "alread": 9608,
      "himself,": 9609,
      "threads": 9610,
      "19,": 9611,
      "shipping": 9612,
      "proposal": 9613,
      "âķĲâķĲ": 9614,
      "fundamental": 9615,
      "summary>": 9616,
      "Len": 9617,
      "idea.": 9618,
      "i_": 9619,
      "Json": 9620,
      "-1/": 9621,
      "oured": 9622,
      "businesses": 9623,
      "[5": 9624,
      "conversion": 9625,
      "officers": 9626,
      "Video": 9627,
      "Republicans": 9628,
      "others,": 9629,
      "-v": 9630,
      "():": 9631,
[...]
