{
  "version": "1.0",
  "truncation": null,
  "padding": null,
  "added_tokens": [
    {
      "id": 0,
      "content": "[UNK]",
      "single_word": false,
      "lstrip": false,
      "rstrip": false,
      "normalized": false,
      "special": true
    },
    {
      "id": 1,
      "content": "[CLS]",
      "single_word": false,
      "lstrip": false,
      "rstrip": false,
      "normalized": false,
      "special": true
    },
    {
      "id": 2,
      "content": "[SEP]",
      "single_word": false,
      "lstrip": false,
      "rstrip": false,
      "normalized": false,
      "special": true
    },
    {
      "id": 3,
      "content": "[PAD]",
      "single_word": false,
      "lstrip": false,
      "rstrip": false,
      "normalized": false,
      "special": true
    },
    {
      "id": 4,
      "content": "[MASK]",
      "single_word": false,
      "lstrip": false,
      "rstrip": false,
      "normalized": false,
      "special": true
    }
  ],
  "normalizer": null,
  "pre_tokenizer": {
    "type": "Sequence",
    "pretokenizers": [
      {
        "type": "Split",
        "pattern": {
          "Regex": "'s|'t|'re|'ve|'m|'ll|'d| ?\\p{L}+| ?\\p{N}+| ?[^\\s\\p{L}\\p{N}]+|\\s+(?!\\S)|\\s+"
        },
        "behavior": "MergedWithNext",
        "invert": false
      },
      {
        "type": "ByteLevel",
        "add_prefix_space": false,
        "trim_offsets": true,
        "use_regex": false
      }
    ]
  },
  "post_processor": null,
  "decoder": null,
  "model": {
    "type": "BPE",
    "dropout": null,
    "unk_token": "[UNK]",
    "continuing_subword_prefix": null,
    "end_of_word_suffix": null,
    "fuse_unk": false,
    "byte_fallback": false,
    "ignore_merges": false,
    "vocab": {
      "[UNK]": 0,
      "[CLS]": 1,
      "[SEP]": 2,
      "[PAD]": 3,
      "[MASK]": 4,
      "!": 5,
      "\"": 6,
      "#": 7,
      "$": 8,
      "%": 9,
      "&": 10,
      "'": 11,
      "(": 12,
      ")": 13,
      "*": 14,
      "+": 15,
      ",": 16,
      "-": 17,
      ".": 18,
      "/": 19,
      "0": 20,
      "1": 21,
      "2": 22,
      "3": 23,
      "4": 24,
      "5": 25,
      "6": 26,
      "7": 27,
      "8": 28,
      "9": 29,
      ":": 30,
      ";": 31,
      "<": 32,
      "=": 33,
      ">": 34,
      "?": 35,
      "@": 36,
      "A": 37,
      "B": 38,
      "C": 39,
      "D": 40,
      "E": 41,
      "F": 42,
      "G": 43,
      "H": 44,
      "I": 45,
      "J": 46,
      "K": 47,
      "L": 48,
      "M": 49,
      "N": 50,
      "O": 51,
      "P": 52,
      "Q": 53,
      "R": 54,
      "S": 55,
      "T": 56,
      "U": 57,
      "V": 58,
      "W": 59,
      "X": 60,
      "Y": 61,
      "Z": 62,
      "[": 63,
      "\\": 64,
      "]": 65,
      "^": 66,
      "_": 67,
      "`": 68,
      "a": 69,
      "b": 70,
      "c": 71,
      "d": 72,
      "e": 73,
      "f": 74,
      "g": 75,
      "h": 76,
      "i": 77,
      "j": 78,
      "k": 79,
      "l": 80,
      "m": 81,
      "n": 82,
      "o": 83,
      "p": 84,
      "q": 85,
      "r": 86,
      "s": 87,
      "t": 88,
      "u": 89,
      "v": 90,
      "w": 91,
      "x": 92,
      "y": 93,
      "z": 94,
      "{": 95,
      "|": 96,
      "}": 97,
      "~": 98,
      "¡": 99,
      "¢": 100,
      "£": 101,
      "¤": 102,
      "¥": 103,
      "¦": 104,
      "§": 105,
      "¨": 106,
      "©": 107,
      "ª": 108,
      "«": 109,
      "¬": 110,
      "®": 111,
      "¯": 112,
      "°": 113,
      "±": 114,
      "²": 115,
      "³": 116,
      "´": 117,
      "µ": 118,
      "¶": 119,
      "·": 120,
      "¸": 121,
      "¹": 122,
      "º": 123,
      "»": 124,
      "¼": 125,
      "½": 126,
      "¾": 127,
      "¿": 128,
      "Â": 129,
      "Ã": 130,
      "Ä": 131,
      "Å": 132,
      "Æ": 133,
      "Ç": 134,
      "È": 135,
      "É": 136,
      "Ê": 137,
      "Ë": 138,
      "Ì": 139,
      "Í": 140,
      "Î": 141,
      "Ï": 142,
      "Ð": 143,
      "Ñ": 144,
      "Ò": 145,
      "Ó": 146,
      "Ô": 147,
      "Õ": 148,
      "Ö": 149,
      "×": 150,
      "Ø": 151,
      "Ù": 152,
      "Ú": 153,
      "Û": 154,
      "Ü": 155,
      "Ý": 156,
      "Þ": 157,
      "ß": 158,
      "à": 159,
      "á": 160,
      "â": 161,
      "ã": 162,
      "ä": 163,
      "å": 164,
      "æ": 165,
      "ç": 166,
      "è": 167,
      "é": 168,
      "ê": 169,
      "ë": 170,
      "ì": 171,
      "í": 172,
      "î": 173,
      "ï": 174,
      "ð": 175,
      "ñ": 176,
      "ò": 177,
      "ó": 178,
      "ô": 179,
      "Ā": 180,
      "ā": 181,
      "Ă": 182,
      "ă": 183,
      "Ą": 184,
      "ą": 185,
      "Ć": 186,
      "ć": 187,
      "Ĉ": 188,
      "ĉ": 189,
      "Ċ": 190,
      "ċ": 191,
      "Č": 192,
      "č": 193,
      "Ď": 194,
      "ď": 195,
      "Đ": 196,
      "đ": 197,
      "Ē": 198,
      "ē": 199,
      "Ĕ": 200,
      "ĕ": 201,
      "Ė": 202,
      "ė": 203,
      "Ę": 204,
      "ę": 205,
      "Ě": 206,
      "ě": 207,
      "Ĝ": 208,
      "ĝ": 209,
      "Ğ": 210,
      "ğ": 211,
      "Ġ": 212,
      "ġ": 213,
      "Ģ": 214,
      "ģ": 215,
      "Ĥ": 216,
      "ĥ": 217,
      "Ħ": 218,
      "ħ": 219,
      "Ĩ": 220,
      "ĩ": 221,
      "Ī": 222,
      "ī": 223,
      "Ĭ": 224,
      "ĭ": 225,
      "Į": 226,
      "į": 227,
      "İ": 228,
      "ı": 229,
      "Ĳ": 230,
      "ĳ": 231,
      "Ĵ": 232,
      "ĵ": 233,
      "Ķ": 234,
      "ķ": 235,
      "ĸ": 236,
      "Ĺ": 237,
      "ĺ": 238,
      "Ļ": 239,
      "ļ": 240,
      "Ľ": 241,
      "ľ": 242,
      "Ŀ": 243,
      "ŀ": 244,
      "Ł": 245,
      "ł": 246,
      "Ń": 247,
      "Ġt": 248,
      "ĠĠ": 249,
      "Ġa": 250,
      "he": 251,
      "in": 252,
      "re": 253,
      "Ġs": 254,
      "on": 255,
      "Ġthe": 256,
      "er": 257,
      "Ġw": 258,
      "at": 259,
      "ou": 260,
      "ĠĠĠĠ": 261,
      "it": 262,
      "Ġc": 263,
      "or": 264,
      "is": 265,
      "nd": 266,
      "Ġb": 267,
      "ing": 268,
      "Ġf": 269,
      "en": 270,
      "es": 271,
      "Ġm": 272,
      "Ġo": 273,
      "ed": 274,
      "Ġp": 275,
      "Ġto": 276,
      "an": 277,
      "Ġd": 278,
      "al": 279,
      "Ġh": 280,
      "Ġth": 281,
      "ar": 282,
      "le": 283,
      "Ġin": 284,
      "Ġand": 285,
      "as": 286,
      "Ġof": 287,
      "ĠI": 288,
      "om": 289,
      "ic": 290,
      "Ġl": 291,
      "Ġn": 292,
      "ion": 293,
      "ll": 294,
      "Ġg": 295,
      "et": 296,
      "st": 297,
      "ve": 298,
      "Ġe": 299,
      "Ġy": 300,
      "Ġre": 301,
      "ly": 302,
      "ot": 303,
      "ow": 304,
      "ct": 305,
      "ent": 306,
      "Ġis": 307,
      "Ġbe": 308,
      "id": 309,
      "Ġyou": 310,
      "ut": 311,
      "se": 312,
      "Ġit": 313,
      "Ġu": 314,
      "ĠĠĠ": 315,
      "ro": 316,
      "ĠĠĠĠĠĠĠĠ": 317,
      "im": 318,
      "Ġon": 319,
      "Ġthat": 320,
      "ay": 321,
      "ad": 322,
      "Ġhe": 323,
      "am": 324,
      "Ġ\"": 325,
      "Ġfor": 326,
      "âĢ": 327,
      "ld": 328,
      "ac": 329,
      "ver": 330,
      "ig": 331,
      "ĠT": 332,
      "Ġst": 333,
      "ith": 334,
      "ĠS": 335,
      "if": 336,
      "ke": 337,
      "Ġha": 338,
      "Ġwh": 339,
      "ĠA": 340,
      "Ġwith": 341,
      "Ġan": 342,
      "oo": 343,
      "Ġwe": 344,
      "ce": 345,
      "out": 346,
      "ur": 347,
      "ir": 348,
      "Ġas": 349,
      "ch": 350,
      "Ġ(": 351,
      "ation": 352,
      "ter": 353,
      "il": 354,
      "ĠC": 355,
      "Ġwas": 356,
      "'s": 357,
      "ht": 358,
      "Ġthis": 359,
      "Ġr": 360,
      "ag": 361,
      "Ġse": 362,
      "pe": 363,
      "ate": 364,
      "ill": 365,
      "ol": 366,
      "her": 367,
      "ould": 368,
      "ri": 369,
      "em": 370,
      "ĠM": 371,
      "ul": 372,
      "ab": 373,
      "pp": 374,
      "Ġnot": 375,
      "Ġcon": 376,
      "Ġhave": 377,
      "un": 378,
      "ore": 379,
      "Ġ1": 380,
      "ĠĠĠĠĠĠĠ": 381,
      "Ġne": 382,
      "Ġare": 383,
      "Ġdo": 384,
      "Ġat": 385,
      "est": 386,
      "od": 387,
      ".\"": 388,
      "um": 389,
      "us": 390,
      "Ġv": 391,
      "ain": 392,
      "th": 393,
      "ĠB": 394,
      "Ġcom": 395,
      "Ġde": 396,
      "qu": 397,
      "ust": 398,
      "ĠH": 399,
      "ers": 400,
      "Ġbut": 401,
      "'t": 402,
      "Ġpro": 403,
      "Ġor": 404,
      "ess": 405,
      "Ġex": 406,
      "ant": 407,
      "rom": 408,
      "Ġk": 409,
      "ist": 410,
      "Ġ=": 411,
      "Ġj": 412,
      "ĠP": 413,
      "Ġsh": 414,
      "el": 415,
      "ight": 416,
      "--": 417,
      "op": 418,
      "Ġli": 419,
      "ĠW": 420,
      "Ġso": 421,
      "âĢĻ": 422,
      "nt": 423,
      "ĊĊ": 424,
      "ally": 425,
      "Ġ2": 426,
      "ĠThe": 427,
      "Ġme": 428,
      "Ġcan": 429,
      "Ġmy": 430,
      "and": 431,
      "..": 432,
      "ome": 433,
      "ĠD": 434,
      "Ġal": 435,
      "Ġsu": 436,
      "os": 437,
      "res": 438,
      "art": 439,
      "our": 440,
      "ame": 441,
      "Ġ-": 442,
      "Ġfrom": 443,
      "00": 444,
      "ack": 445,
      "ie": 446,
      "ort": 447,
      "Ġab": 448,
      "Ġch": 449,
      "all": 450,
      "ap": 451,
      "ĠL": 452,
      "Ġle": 453,
      "Ġhis": 454,
      "ĊĠĠĠ": 455,
      "ive": 456,
      "Ġtr": 457,
      "ĠF": 458,
      "ĠR": 459,
      "Ġall": 460,
      "Ġwhe": 461,
      "oc": 462,
      "Ġwor": 463,
      "ment": 464,
      "ity": 465,
      "ĠN": 466,
      "ook": 467,
      "ect": 468,
      "ind": 469,
      "Ġby": 470,
      "ard": 471,
      "pt": 472,
      "one": 473,
      "Ġus": 474,
      "oug": 475,
      "Ġup": 476,
      "act": 477,
      "Ġif": 478,
      "red": 479,
      "Ġlike": 480,
      "ĊĠĠĠĠĠĠĠĠ": 481,
      "te": 482,
      "Ġout": 483,
      "ĠG": 484,
      "pl": 485,
      "ĠE": 486,
      "iv": 487,
      "Ġthey": 488,
      "ak": 489,
      "ue": 490,
      "Ġyour": 491,
      "ine": 492,
      "Ġget": 493,
      "ost": 494,
      "Ġpl": 495,
      "ge": 496,
      "ide": 497,
      "ĠO": 498,
      "Ġgo": 499,
      "Ġcl": 500,
      "age": 501,
      "ies": 502,
      "ound": 503,
      "very": 504,
      "Ġjust": 505,
      "ast": 506,
      "Ġwill": 507,
      "Ġone": 508,
      "Ġkn": 509,
      "ass": 510,
      ");": 511,
      "ime": 512,
      "**": 513,
      "Ġher": 514,
      "Ġwould": 515,
      "ich": 516,
      "ud": 517,
      "Ġsome": 518,
      "able": 519,
      "ake": 520,
      "ile": 521,
      "Ġthere": 522,
      "Ġany": 523,
      "The": 524,
      "au": 525,
      "ong": 526,
      "Ġabout": 527,
      "ure": 528,
      "âĢľ": 529,
      "//": 530,
      "ink": 531,
      "ther": 532,
      "Ġhas": 533,
      "ice": 534,
      "Ġwhat": 535,
      "âĢĿ": 536,
      "ĠJ": 537,
      "ff": 538,
      "to": 539,
      "ction": 540,
      "iz": 541,
      "are": 542,
      "ase": 543,
      "per": 544,
      "ough": 545,
      "ple": 546,
      "Ġar": 547,
      "Ġad": 548,
      "Ġknow": 549,
      "og": 550,
      "ĊĠĠĠĠĠĠĠ": 551,
      "av": 552,
      "Ġhad": 553,
      "Ġ{": 554,
      "ood": 555,
      "Ġfe": 556,
      "Ġmore": 557,
      "Ġwhen": 558,
      "ks": 559,
      "ated": 560,
      "Ġqu": 561,
      "ub": 562,
      "ble": 563,
      "Ġte": 564,
      "ult": 565,
      "ous": 566,
      "Ġim": 567,
      "int": 568,
      "ite": 569,
      "ace": 570,
      "Ġi": 571,
      "Ġ<": 572,
      "xt": 573,
      ").": 574,
      "so": 575,
      "Ġen": 576,
      "cl": 577,
      "hat": 578,
      "Ġhim": 579,
      "Ġwho": 580,
      "ial": 581,
      "Ġ3": 582,
      "Ġthem": 583,
      "Ġsa": 584,
      "ry": 585,
      "hing": 586,
      "orm": 587,
      "ans": 588,
      "Ġwhich": 589,
      "Ġshe": 590,
      "'m": 591,
      "=\"": 592,
      "con": 593,
      "Ġno": 594,
      "Ġwere": 595,
      "ĠĠĠĠĠĠĠĠĠĠĠĠĠĠĠĠ": 596,
      "ions": 597,
      "Ġtime": 598,
      "Ġwant": 599,
      "ĊĠ": 600,
      "com": 601,
      "Ġ$": 602,
      "ep": 603,
      "Ġother": 604,
      "own": 605,
      "Ġ*": 606,
      "ven": 607,
      "ear": 608,
      "ick": 609,
      "ck": 610,
      "ĠU": 611,
      "ose": 612,
      "Ġman": 613,
      "Ġgr": 614,
      "ere": 615,
      "urn": 616,
      "Ġag": 617,
      "ause": 618,
      "Ġres": 619,
      "Ġtheir": 620,
      "Ġdon": 621,
      "ra": 622,
      "Ġcont": 623,
      "ays": 624,
      "ip": 625,
      "Ġ0": 626,
      "Ġun": 627,
      "Ġhow": 628,
      "ire": 629,
      "ĠIt": 630,
      "Ġ[": 631,
      "Ġwork": 632,
      "ber": 633,
      "Ġbeen": 634,
      "ail": 635,
      "ove": 636,
      "Ġam": 637,
      "Ġ'": 638,
      "Ġ+": 639,
      "Ġsc": 640,
      "Ġbec": 641,
      "ang": 642,
      "ance": 643,
      "cc": 644,
      "reat": 645,
      "Ġlook": 646,
      "Ġpe": 647,
      "Ġnew": 648,
      "Ġpr": 649,
      "ress": 650,
      "ĠY": 651,
      "Ġcould": 652,
      "Ġthan": 653,
      "ory": 654,
      "----": 655,
      "Ġdid": 656,
      "his": 657,
      "Ġover": 658,
      "Ġinto": 659,
      "Ġneed": 660,
      "ach": 661,
      "ign": 662,
      "Ġthink": 663,
      "ings": 664,
      "Ġdis": 665,
      "Ġback": 666,
      "Ġ}": 667,
      "ord": 668,
      "ary": 669,
      "ĠK": 670,
      "lf": 671,
      "Ġthen": 672,
      "Ġoff": 673,
      "Ġonly": 674,
      "end": 675,
      "ru": 676,
      "itt": 677,
      "ople": 678,
      "irst": 679,
      "port": 680,
      "Ġper": 681,
      "Ġcomp": 682,
      "ree": 683,
      "Ġpre": 684,
      "ode": 685,
      "Ġsee": 686,
      "lic": 687,
      "Ġuse": 688,
      "?\"": 689,
      "ia": 690,
      "ull": 691,
      "ject": 692,
      "Ġapp": 693,
      "get": 694,
      "fter": 695,
      "ount": 696,
      "01": 697,
      "ens": 698,
      "tr": 699,
      "ty": 700,
      "Ġtw": 701,
      "Ġsaid": 702,
      "ĠHe": 703,
      "Ġbecause": 704,
      "ata": 705,
      "Ġ4": 706,
      "ical": 707,
      "Ġsp": 708,
      "Ġpeople": 709,
      "ations": 710,
      "Ġalso": 711,
      "du": 712,
      "...": 713,
      "Ġnow": 714,
      "ence": 715,
      "Ġpart": 716,
      "nder": 717,
      "Ġway": 718,
      "vel": 719,
      "ild": 720,
      "we": 721,
      "Ġevery": 722,
      "omet": 723,
      "form": 724,
      "ob": 725,
      "fere": 726,
      "Ġbet": 727,
      "Ġdoes": 728,
      "ĠIn": 729,
      "vers": 730,
      "Ġspe": 731,
      "ĠV": 732,
      "Ġshould": 733,
      "li": 734,
      "de": 735,
      "gr": 736,
      "Ġyear": 737,
      "ĠâĢľ": 738,
      "Ġbl": 739,
      "ne": 740,
      "hed": 741,
      "'re": 742,
      "iew": 743,
      "ĠĠĠĠĠ": 744,
      "ov": 745,
      "ft": 746,
      "Ġfirst": 747,
      "Ġbr": 748,
      "Ġser": 749,
      "),": 750,
      "Ġ5": 751,
      "Ġreally": 752,
      "ents": 753,
      "fore": 754,
      "ition": 755,
      "Ġpo": 756,
      "uch": 757,
      "Ġgood": 758,
      "Ġro": 759,
      "Ġhere": 760,
      "ĊĠĠĠĠĠĠĠĠĠĠĠ": 761,
      "Ġright": 762,
      "Ġmake": 763,
      "ade": 764,
      "ell": 765,
      "other": 766,
      "ath": 767,
      "Ġour": 768,
      "Ġthr": 769,
      "Ġtoo": 770,
      "Ġread": 771,
      "ps": 772,
      "oy": 773,
      "ĉĉ": 774,
      "Ġwr": 775,
      "ious": 776,
      "Ġeven": 777,
      "Ġvery": 778,
      "ors": 779,
      "Ġtwo": 780,
      "Ġset": 781,
      "Ġbu": 782,
      "ting": 783,
      "ock": 784,
      "Ġadd": 785,
      "Ġact": 786,
      "Ġdown": 787,
      "Ġdif": 788,
      "Ġmuch": 789,
      "</": 790,
      "Ġsm": 791,
      "Ġafter": 792,
      "Ġke": 793,
      "'ve": 794,
      "Ġsomet": 795,
      "self": 796,
      "ning": 797,
      "ark": 798,
      "be": 799,
      "Ġgoing": 800,
      "ĠĊ": 801,
      "In": 802,
      "oll": 803,
      "Ġwhere": 804,
      "()": 805,
      "Ġret": 806,
      "Ġagain": 807,
      "Ġunder": 808,
      "Ġwell": 809,
      "Ġgu": 810,
      "iss": 811,
      "bs": 812,
      "Ġfl": 813,
      "ys": 814,
      "old": 815,
      "Ġfun": 816,
      "Ġstart": 817,
      "://": 818,
      "Ġthese": 819,
      "read": 820,
      "Ġcomm": 821,
      "Ġmay": 822,
      "Ġsay": 823,
      "Ġtry": 824,
      "Ġclass": 825,
      "Ġhel": 826,
      "\",": 827,
      "Ġinst": 828,
      "Ġgot": 829,
      "Ġval": 830,
      "Ġbook": 831,
      "Ġdes": 832,
      "Ġplay": 833,
      "ish": 834,
      "ex": 835,
      "ĠCh": 836,
      "ange": 837,
      "the": 838,
      "Ġits": 839,
      "ool": 840,
      "Ġdef": 841,
      "Ġbefore": 842,
      "ows": 843,
      "Ġusing": 844,
      "ont": 845,
      "ond": 846,
      "wn": 847,
      "ually": 848,
      "Ġrem": 849,
      "Ġcall": 850,
      "atch": 851,
      "pect": 852,
      "It": 853,
      "ize": 854,
      "Ġhand": 855,
      "Ġstill": 856,
      "Ġstr": 857,
      "lect": 858,
      "ĠSt": 859,
      "ual": 860,
      "ci": 861,
      "ces": 862,
      "Ġpos": 863,
      "igh": 864,
      "ER": 865,
      "==": 866,
      "yst": 867,
      "Ġend": 868,
      "ater": 869,
      "Ġsomething": 870,
      ".âĢĿ": 871,
      "ĠThis": 872,
      "ought": 873,
      "thing": 874,
      "Ġmost": 875,
      "Ġthrough": 876,
      "Ġrec": 877,
      "ict": 878,
      "ert": 879,
      "ener": 880,
      "Ġem": 881,
      "ah": 882,
      "Ġbeing": 883,
      "Ġfind": 884,
      "Ġdiffere": 885,
      "ms": 886,
      "Ġsame": 887,
      "oth": 888,
      "ates": 889,
      "Ġhelp": 890,
      "ons": 891,
      "Ġacc": 892,
      "alk": 893,
      "ix": 894,
      "Ġfeel": 895,
      "ific": 896,
      "ise": 897,
      "Ġass": 898,
      "Ġrun": 899,
      "way": 900,
      "Ġlong": 901,
      "ib": 902,
      "ave": 903,
      "Ġlet": 904,
      "les": 905,
      "ublic": 906,
      "han": 907,
      "Ġche": 908,
      "ily": 909,
      "clud": 910,
      "ian": 911,
      "ng": 912,
      "ype": 913,
      "up": 914,
      "Ġinter": 915,
      "ars": 916,
      "Ġcol": 917,
      "aking": 918,
      "You": 919,
      "ating": 920,
      "pro": 921,
      "err": 922,
      "Ġ6": 923,
      "ible": 924,
      "ystem": 925,
      "Ġreturn": 926,
      "ife": 927,
      "Ġhapp": 928,
      "cri": 929,
      "cept": 930,
      "cess": 931,
      "Ġrel": 932,
      "vent": 933,
      "ĠYou": 934,
      "tp": 935,
      "ittle": 936,
      "ving": 937,
      "hen": 938,
      "ince": 939,
      "ss": 940,
      "ĠIf": 941,
      "cre": 942,
      "Ġchar": 943,
      "put": 944,
      "Ġ:": 945,
      "ax": 946,
      "pen": 947,
      "pr": 948,
      "Ġmod": 949,
      "Ġcons": 950,
      "Ġ.": 951,
      "IN": 952,
      "__": 953,
      "Ġsupp": 954,
      "but": 955,
      "\">": 956,
      "ful": 957,
      "ww": 958,
      "Ġgreat": 959,
      "Ġph": 960,
      "ew": 961,
      "Ġmet": 962,
      "Ġpoint": 963,
      "Ġsim": 964,
      "Ġob": 965,
      "ĠBut": 966,
      "'ll": 967,
      "Ġ&": 968,
      "ĠAnd": 969,
      "ĠâĢ": 970,
      "ative": 971,
      "Ġproble": 972,
      "Ġsl": 973,
      "Ġlittle": 974,
      "ph": 975,
      "Ġinte": 976,
      "ug": 977,
      "Ġtake": 978,
      "Ġmany": 979,
      "Ġused": 980,
      "Ġthose": 981,
      "Ġseem": 982,
      "str": 983,
      "ec": 984,
      "Ġaround": 985,
      "ĠWe": 986,
      "Ġatt": 987,
      "Ġdidn": 988,
      "Ġreg": 989,
      "ced": 990,
      "10": 991,
      "hes": 992,
      "Ġac": 993,
      "ĊĠĠĠĠĠ": 994,
      "ues": 995,
      "Ġcr": 996,
      "day": 997,
      "Ġbel": 998,
      "Ġdata": 999,
      "uck": 1000,
      "ased": 1001,
      "Ġ201": 1002,
      "Ġfin": 1003,
      "Ġ/": 1004,
      "What": 1005,
      "Ġlast": 1006,
      "Ġcur": 1007,
      "oad": 1008,
      "Ġnum": 1009,
      "ever": 1010,
      "ied": 1011,
      "Ġwhile": 1012,
      "ward": 1013,
      "Ġmade": 1014,
      "mer": 1015,
      "ments": 1016,
      "--------": 1017,
      "Ġlot": 1018,
      "Ġco": 1019,
      "cond": 1020,
      "owing": 1021,
      "Ġyears": 1022,
      "ody": 1023,
      "Ġown": 1024,
      "Ġint": 1025,
      "Ġthings": 1026,
      "Ġdifferent": 1027,
      "Ġfunction": 1028,
      "!\"": 1029,
      "erson": 1030,
      "led": 1031,
      "ower": 1032,
      "imes": 1033,
      "ox": 1034,
      "aw": 1035,
      "Ġlist": 1036,
      "ular": 1037,
      "ON": 1038,
      "riend": 1039,
      "Ġent": 1040,
      "its": 1041,
      "Ġfoll": 1042,
      "Ġ_": 1043,
      "val": 1044,
      "Ġel": 1045,
      "Ġnever": 1046,
      "Ġvar": 1047,
      "nce": 1048,
      "ork": 1049,
      "ĊĊĠĠĠ": 1050,
      "ved": 1051,
      "Ġreal": 1052,
      "Ġmin": 1053,
      "ote": 1054,
      "(\"": 1055,
      "Ġput": 1056,
      "ways": 1057,
      "Ġ10": 1058,
      "ics": 1059,
      "Ġname": 1060,
      "Ġeach": 1061,
      "ead": 1062,
      "rent": 1063,
      "ield": 1064,
      "Ġfr": 1065,
      "io": 1066,
      "lease": 1067,
      "Ġ7": 1068,
      "Ġtri": 1069,
      "akes": 1070,
      "Ġsuch": 1071,
      "ween": 1072,
      "Ġday": 1073,
      "Ġsub": 1074,
      "ages": 1075,
      "sh": 1076,
      "Ġdec": 1077,
      "vice": 1078,
      "This": 1079,
      "',": 1080,
      "app": 1081,
      "Ġquest": 1082,
      "St": 1083,
      "Ġ\\": 1084,
      "Ġins": 1085,
      "Ġsure": 1086,
      "Ġmon": 1087,
      "Ġhead": 1088,
      "Ġspec": 1089,
      "air": 1090,
      "ather": 1091,
      "erm": 1092,
      "Ġfound": 1093,
      "olog": 1094,
      "ient": 1095,
      "Ġ8": 1096,
      "Ġcre": 1097,
      "Ġ//": 1098,
      "Ġlove": 1099,
      "ef": 1100,
      "Ġthing": 1101,
      "ample": 1102,
      "Ġstud": 1103,
      "ason": 1104,
      "Ġbetter": 1105,
      "Ġbetween": 1106,
      "Ġ|": 1107,
      "ident": 1108,
      "Ġfew": 1109,
      "ility": 1110,
      "Ġdoesn": 1111,
      "rest": 1112,
      "Ġboth": 1113,
      "tern": 1114,
      "Ġcor": 1115,
      "11": 1116,
      "Ġrequ": 1117,
      "der": 1118,
      "Ġinv": 1119,
      "Ġconf": 1120,
      "ically": 1121,
      "ery": 1122,
      "gg": 1123,
      "ĠĠĠĠĠĠĠĠĠĠĠ": 1124,
      "Ġx": 1125,
      "He": 1126,
      "amp": 1127,
      "Ġsur": 1128,
      "20": 1129,
      "Ġcode": 1130,
      "ĊĠĠĠĠĠĠĠĠĠĠĠĠĠĠĠ": 1131,
      "Ġlife": 1132,
      "arch": 1133,
      "Ġap": 1134,
      "br": 1135,
      "Ġwithout": 1136,
      "Ġfile": 1137,
      "Ġask": 1138,
      "olut": 1139,
      "Ġtrans": 1140,
      "Ġbit": 1141,
      "pos": 1142,
      "Ġform": 1143,
      "Ġanother": 1144,
      "'d": 1145,
      "uth": 1146,
      "Ġfact": 1147,
      "We": 1148,
      "ames": 1149,
      "oup": 1150,
      "Ġet": 1151,
      "ny": 1152,
      "als": 1153,
      "Ġtest": 1154,
      "AT": 1155,
      "Ġwhy": 1156,
      "az": 1157,
      "ml": 1158,
      "ves": 1159,
      "Ġthought": 1160,
      "Ġproblem": 1161,
      "ĠShe": 1162,
      "ner": 1163,
      "Ġcome": 1164,
      ",\"": 1165,
      "Ġprodu": 1166,
      "Ġsince": 1167,
      "Ġgener": 1168,
      "Ġsecond": 1169,
      "any": 1170,
      "Ġgl": 1171,
      "Ġinclud": 1172,
      "oot": 1173,
      "Ġalways": 1174,
      "ash": 1175,
      "ope": 1176,
      "hod": 1177,
      "Ġperson": 1178,
      "ably": 1179,
      "Ġhigh": 1180,
      "irect": 1181,
      "Ġvalue": 1182,
      "text": 1183,
      "Ġpres": 1184,
      "ton": 1185,
      "ST": 1186,
      "ared": 1187,
      "Ġkeep": 1188,
      "Ġsystem": 1189,
      "Ġdet": 1190,
      "Ġwee": 1191,
      "ense": 1192,
      "ruct": 1193,
      "ures": 1194,
      "set": 1195,
      "Ġeff": 1196,
      "Ġmight": 1197,
      "Ġgiv": 1198,
      ",âĢĿ": 1199,
      "Ġfil": 1200,
      "div": 1201,
      "->": 1202,
      "000": 1203,
      "ĠSo": 1204,
      "Ġturn": 1205,
      "Ġnext": 1206,
      "cy": 1207,
      "12": 1208,
      "pend": 1209,
      "Ġhard": 1210,
      "Ġopen": 1211,
      "ger": 1212,
      "Ġ9": 1213,
      "Ġtell": 1214,
      "here": 1215,
      "oid": 1216,
      "Ġresult": 1217,
      "Ġfriend": 1218,
      "ern": 1219,
      "cript": 1220,
      "****": 1221,
      "dd": 1222,
      "RE": 1223,
      "Ġbest": 1224,
      "Ġgame": 1225,
      "less": 1226,
      "ities": 1227,
      "Ġcle": 1228,
      "view": 1229,
      "Ġey": 1230,
      "Ġcase": 1231,
      "))": 1232,
      "hy": 1233,
      "uring": 1234,
      "Ġposs": 1235,
      "Ġshow": 1236,
      "Ġpublic": 1237,
      "ale": 1238,
      "Ġcar": 1239,
      "ribut": 1240,
      "ray": 1241,
      "Ġcount": 1242,
      "Ġeas": 1243,
      "Ġtrying": 1244,
      "();": 1245,
      "ren": 1246,
      "Ġcomple": 1247,
      "ĠAl": 1248,
      "uff": 1249,
      "Ġold": 1250,
      "ource": 1251,
      "Ġiss": 1252,
      "Ġ19": 1253,
      "ĠUn": 1254,
      "Ġgive": 1255,
      "Ġbig": 1256,
      "Ġide": 1257,
      "ank": 1258,
      "Ġkind": 1259,
      "ins": 1260,
      "ts": 1261,
      "na": 1262,
      "ited": 1263,
      "und": 1264,
      "Ċĉ": 1265,
      "Ġexper": 1266,
      "ters": 1267,
      "Ġworld": 1268,
      "velop": 1269,
      "Ġdoing": 1270,
      "::": 1271,
      "nect": 1272,
      "stand": 1273,
      "ĠX": 1274,
      "Ċĉĉ": 1275,
      "Ġtalk": 1276,
      "Ġcharact": 1277,
      "ee": 1278,
      "not": 1279,
      "Ġpol": 1280,
      "Ġmean": 1281,
      "Ġsmall": 1282,
      "ĠThey": 1283,
      "Ġthough": 1284,
      "Ġactually": 1285,
      "ator": 1286,
      "ouse": 1287,
      "Ġprov": 1288,
      "Ġpass": 1289,
      "Ġelse": 1290,
      "press": 1291,
      "Ġear": 1292,
      "ĠRe": 1293,
      "AR": 1294,
      "Ġsign": 1295,
      "Ġnumber": 1296,
      "line": 1297,
      "iting": 1298,
      "ik": 1299,
      "Ġpost": 1300,
      "ices": 1301,
      "ines": 1302,
      "ok": 1303,
      "\":": 1304,
      "Ġmem": 1305,
      "('": 1306,
      "ready": 1307,
      "Ġaway": 1308,
      "Ġdist": 1309,
      "Re": 1310,
      "ument": 1311,
      "Ġmat": 1312,
      "of": 1313,
      "Ġstate": 1314,
      "Ġprob": 1315,
      "Ġloc": 1316,
      "Ġtype": 1317,
      "EN": 1318,
      "ream": 1319,
      "Ġdr": 1320,
      "http": 1321,
      "Ġstory": 1322,
      "Ġfam": 1323,
      "par": 1324,
      "aug": 1325,
      "Ġerr": 1326,
      "ĠWhat": 1327,
      "Ġinterest": 1328,
      "Ġcour": 1329,
      "ĠAs": 1330,
      "Ġfar": 1331,
      "Ġanything": 1332,
      "ump": 1333,
      "Ġable": 1334,
      "Ġinf": 1335,
      "Than": 1336,
      "ier": 1337,
      "org": 1338,
      "ĠHow": 1339,
      "ized": 1340,
      "Ġline": 1341,
      "ĠThere": 1342,
      "Ġpat": 1343,
      "ĠĠĠĠĠĠ": 1344,
      "eah": 1345,
      "Ġthree": 1346,
      "If": 1347,
      "man": 1348,
      "ret": 1349,
      "ets": 1350,
      "rol": 1351,
      "IT": 1352,
      "atic": 1353,
      "eng": 1354,
      "OR": 1355,
      "Ġconst": 1356,
      "tring": 1357,
      "ined": 1358,
      "Ġenough": 1359,
      "Ġmain": 1360,
      "Ġed": 1361,
      "Ġplace": 1362,
      "ness": 1363,
      "Ġmov": 1364,
      "Ġlooking": 1365,
      "Ġgetting": 1366,
      "ired": 1367,
      "Ġpar": 1368,
      "Ġsupport": 1369,
      "Ġcare": 1370,
      "AN": 1371,
      "Ġalready": 1372,
      "arent": 1373,
      "Ġhappen": 1374,
      "Ġtop": 1375,
      "Ġav": 1376,
      "Ġchange": 1377,
      "Ġagainst": 1378,
      "formation": 1379,
      "HE": 1380,
      "Ġopt": 1381,
      "LE": 1382,
      "Ġbuild": 1383,
      "chool": 1384,
      "Ġsomeone": 1385,
      "version": 1386,
      "Ġsk": 1387,
      "Ġht": 1388,
      "ider": 1389,
      "Ġdone": 1390,
      "And": 1391,
      "gin": 1392,
      "Ġresp": 1393,
      "Ġleft": 1394,
      "work": 1395,
      "Ġcurrent": 1396,
      "Ġexpl": 1397,
      "gram": 1398,
      "Ġimport": 1399,
      "ĠTh": 1400,
      "Ġhome": 1401,
      "Ġchang": 1402,
      "But": 1403,
      "Ġunt": 1404,
      "Ġ20": 1405,
      "Ġbelie": 1406,
      "ither": 1407,
      "ling": 1408,
      "Ġmonth": 1409,
      "Ġquestion": 1410,
      "Ġ@": 1411,
      "Ġcou": 1412,
      "ross": 1413,
      "fr": 1414,
      "me": 1415,
      "Ġchild": 1416,
      "ately": 1417,
      "Ġz": 1418,
      "ational": 1419,
      "Ġdevelop": 1420,
      "name": 1421,
      "ĠThat": 1422,
      "vious": 1423,
      "usic": 1424,
      "Ġsw": 1425,
      "Ġ</": 1426,
      "Ġunderstand": 1427,
      "pped": 1428,
      "Ġbeh": 1429,
      "Con": 1430,
      "ĠIs": 1431,
      "for": 1432,
      "Ġdisc": 1433,
      "ault": 1434,
      "Ġstand": 1435,
      "Ġmethod": 1436,
      "Ġhaving": 1437,
      "15": 1438,
      "Ġâ": 1439,
      "ature": 1440,
      "alth": 1441,
      "yn": 1442,
      "Ġword": 1443,
      "ĠTr": 1444,
      "yp": 1445,
      "ĠĠĠĠĠĠĠĠĠĠĠĠĠĠĠĠĠĠĠĠĠĠĠĠĠĠĠĠĠĠĠĠ": 1446,
      "ĠFor": 1447,
      "Ġprocess": 1448,
      "sw": 1449,
      "Ġexpect": 1450,
      "ted": 1451,
      "Ġbre": 1452,
      "ience": 1453,
      "Pro": 1454,
      "ten": 1455,
      "ement": 1456,
      "ards": 1457,
      "Ġpret": 1458,
      "Ġmust": 1459,
      "roll": 1460,
      "Ġfull": 1461,
      "How": 1462,
      "====": 1463,
      "sp": 1464,
      "16": 1465,
      "ĠMy": 1466,
      "SE": 1467,
      "Ġext": 1468,
      "ify": 1469,
      "ute": 1470,
      "Ġmed": 1471,
      "Ġwar": 1472,
      "Ex": 1473,
      "Ġworking": 1474,
      "hip": 1475,
      "sc": 1476,
      "ivers": 1477,
      "Ġref": 1478,
      "Ġpri": 1479,
      "ided": 1480,
      "Ġexample": 1481,
      "ID": 1482,
      "ĠAr": 1483,
      "add": 1484,
      "comm": 1485,
      "med": 1486,
      "uss": 1487,
      "ware": 1488,
      "Ġdri": 1489,
      "ext": 1490,
      "Ġcheck": 1491,
      "ĠDe": 1492,
      "oh": 1493,
      "ava": 1494,
      "Âł": 1495,
      "Ġpretty": 1496,
      "Ġlar": 1497,
      "Ġ#": 1498,
      "ird": 1499,
      "Ġdirect": 1500,
      "ention": 1501,
      "Ġever": 1502,
      "Ġappro": 1503,
      "ĠQ": 1504,
      "19": 1505,
      "].": 1506,
      "kay": 1507,
      "roid": 1508,
      "Ġrep": 1509,
      "32": 1510,
      "Ġwa": 1511,
      "oint": 1512,
      "Ġeyes": 1513,
      "ĠSh": 1514,
      "Ġev": 1515,
      "Ġ--": 1516,
      "Ġele": 1517,
      "ĊĠĠ": 1518,
      "Ġmom": 1519,
      "iter": 1520,
      "cent": 1521,
      "50": 1522,
      "Ġuntil": 1523,
      "Ġwom": 1524,
      "Ġ200": 1525,
      "Ġmess": 1526,
      "AL": 1527,
      "Ġbad": 1528,
      "iness": 1529,
      "uc": 1530,
      "ists": 1531,
      "Ġbus": 1532,
      "ertain": 1533,
      "So": 1534,
      "Ġprobably": 1535,
      "Ġless": 1536,
      "inal": 1537,
      "ĠLet": 1538,
      "cial": 1539,
      "Ġ,": 1540,
      "Ġface": 1541,
      "Ġlead": 1542,
      "ym": 1543,
      "Ch": 1544,
      "rap": 1545,
      "Ġbas": 1546,
      "Ġplan": 1547,
      "Ġside": 1548,
      "www": 1549,
      "Ġtimes": 1550,
      "Ġind": 1551,
      "gan": 1552,
      "Ġsays": 1553,
      "Ġlevel": 1554,
      "Ġ12": 1555,
      "gs": 1556,
      "Ġteam": 1557,
      "ĊĊĠ": 1558,
      "Ġobject": 1559,
      "ality": 1560,
      "ains": 1561,
      "Ġcontin": 1562,
      "Ġleast": 1563,
      "els": 1564,
      "Ġseems": 1565,
      "Ġonce": 1566,
      "my": 1567,
      "tps": 1568,
      "Ġorder": 1569,
      "oney": 1570,
      "most": 1571,
      "play": 1572,
      "ered": 1573,
      "ĠCom": 1574,
      "Ġreport": 1575,
      "ism": 1576,
      "14": 1577,
      "?âĢĿ": 1578,
      "13": 1579,
      "Ġanyone": 1580,
      "ering": 1581,
      "Ġpartic": 1582,
      "aj": 1583,
      "aps": 1584,
      "over": 1585,
      "Ġeverything": 1586,
      "ently": 1587,
      "Ġpossible": 1588,
      "Ġsit": 1589,
      "Ġrest": 1590,
      "upp": 1591,
      "Ġreason": 1592,
      "Ġtrue": 1593,
      "Ġinformation": 1594,
      "Ġfollowing": 1595,
      "ĠPro": 1596,
      "Ġnight": 1597,
      "ser": 1598,
      "Ġproper": 1599,
      "ĊĠĠĠĠ": 1600,
      "Ġfree": 1601,
      "bsp": 1602,
      "ished": 1603,
      "Let": 1604,
      "Ġhum": 1605,
      "Ġwon": 1606,
      "elt": 1607,
      "ched": 1608,
      "min": 1609,
      "Ġlear": 1610,
      "Ġworks": 1611,
      "Ġview": 1612,
      "Ð¾": 1613,
      "Ġduring": 1614,
      "Thanks": 1615,
      "bl": 1616,
      "idd": 1617,
      "Ġpur": 1618,
      "row": 1619,
      "Ġmult": 1620,
      "Ġtext": 1621,
      "Ġprot": 1622,
      "this": 1623,
      "Ġprogram": 1624,
      "Ġproject": 1625,
      "Ġmark": 1626,
      "nbsp": 1627,
      "Ġisn": 1628,
      "load": 1629,
      "Ġart": 1630,
      "bers": 1631,
      "net": 1632,
      "Ġjob": 1633,
      "Ġcalled": 1634,
      "Ġcap": 1635,
      "ases": 1636,
      "Name": 1637,
      "Ġtried": 1638,
      "Ġcame": 1639,
      "Ġmiss": 1640,
      "View": 1641,
      "Ġnothing": 1642,
      "ional": 1643,
      "30": 1644,
      "Ġpower": 1645,
      "Ġschool": 1646,
      "ush": 1647,
      "Ġwanted": 1648,
      "wh": 1649,
      "Ġsing": 1650,
      "0000": 1651,
      "Ġdays": 1652,
      "ember": 1653,
      "body": 1654,
      "Ġmakes": 1655,
      "Ġlight": 1656,
      "olution": 1657,
      "Ġself": 1658,
      "ants": 1659,
      "CT": 1660,
      "cur": 1661,
      "Ġvis": 1662,
      "by": 1663,
      "ott": 1664,
      "meric": 1665,
      "ustom": 1666,
      "gether": 1667,
      "Ġequ": 1668,
      "ides": 1669,
      "date": 1670,
      "Ġroom": 1671,
      "uthor": 1672,
      "Ġstarted": 1673,
      "ained": 1674,
      "Ġwent": 1675,
      "Ġmove": 1676,
      "iet": 1677,
      "ĠSe": 1678,
      "reen": 1679,
      "Is": 1680,
      "Ġuser": 1681,
      "Ġlog": 1682,
      "aining": 1683,
      "Ġeffect": 1684,
      "land": 1685,
      "ats": 1686,
      "Ġmaking": 1687,
      "Ġmind": 1688,
      "As": 1689,
      "ĠWh": 1690,
      "irl": 1691,
      "Ġgroup": 1692,
      "Ġconnect": 1693,
      "chn": 1694,
      "oice": 1695,
      "ised": 1696,
      "Ġes": 1697,
      "Ġcourse": 1698,
      "!!": 1699,
      "Hi": 1700,
      "Ġidea": 1701,
      "Ġversion": 1702,
      "att": 1703,
      "ology": 1704,
      "],": 1705,
      "used": 1706,
      "Ġwasn": 1707,
      "##": 1708,
      "25": 1709,
      "ric": 1710,
      "....": 1711,
      "Ġweek": 1712,
      "ES": 1713,
      "Ġtold": 1714,
      "Ġappe": 1715,
      "Ġhour": 1716,
      "(-": 1717,
      "aring": 1718,
      "ĠZ": 1719,
      "ĠBr": 1720,
      "18": 1721,
      "ccess": 1722,
      "ital": 1723,
      "Ġerror": 1724,
      "alse": 1725,
      "Ġyet": 1726,
      "ĠCl": 1727,
      "Ġid": 1728,
      "Ġcent": 1729,
      "let": 1730,
      "raw": 1731,
      "ĠÐ": 1732,
      "ma": 1733,
      "Ġpack": 1734,
      "Cl": 1735,
      "Ġtook": 1736,
      "aut": 1737,
      "son": 1738,
      "alf": 1739,
      "Ġtogether": 1740,
      "Ġsound": 1741,
      "Ġincre": 1742,
      "ches": 1743,
      "Ġadv": 1744,
      "ule": 1745,
      "cul": 1746,
      "ified": 1747,
      "Ġeither": 1748,
      "osed": 1749,
      "rect": 1750,
      "Ġkey": 1751,
      "opy": 1752,
      "ails": 1753,
      "Ġdoc": 1754,
      "back": 1755,
      "ĠAll": 1756,
      "cont": 1757,
      "Ġhold": 1758,
      "Ġcomplete": 1759,
      "ured": 1760,
      "My": 1761,
      "tend": 1762,
      "fl": 1763,
      "Ġrepl": 1764,
      "Ġaut": 1765,
      "Ġpay": 1766,
      "ĠAn": 1767,
      "To": 1768,
      "Ġhope": 1769,
      "def": 1770,
      "Ġfield": 1771,
      "Ġfamily": 1772,
      "čĊ": 1773,
      "Ġansw": 1774,
      "aster": 1775,
      "Id": 1776,
      "Ġwrong": 1777,
      "Ġpick": 1778,
      "Ġmoney": 1779,
      "Ġproduct": 1780,
      "oss": 1781,
      "Ġwhole": 1782,
      "lication": 1783,
      "ĠNew": 1784,
      "che": 1785,
      "gy": 1786,
      "Ġinstall": 1787,
      "ctions": 1788,
      "Ġperform": 1789,
      "joy": 1790,
      "Ġkill": 1791,
      "Ġmar": 1792,
      "ĊĠĠĠĠĠĠĠĠĠĠĠĠĠĠĠĠ": 1793,
      "ĠAmeric": 1794,
      "Ġcommun": 1795,
      "Ġ)": 1796,
      "Ġpage": 1797,
      "17": 1798,
      "ully": 1799,
      "OM": 1800,
      "Ġdem": 1801,
      "ization": 1802,
      "ask": 1803,
      "No": 1804,
      "Ġcreate": 1805,
      "Ġmen": 1806,
      "Ġsol": 1807,
      "dit": 1808,
      "bed": 1809,
      "orn": 1810,
      "Ġuh": 1811,
      "ency": 1812,
      "action": 1813,
      "ĠWhen": 1814,
      "ane": 1815,
      "201": 1816,
      "OU": 1817,
      "Ġnon": 1818,
      "illion": 1819,
      "Ġtable": 1820,
      "Ġtem": 1821,
      "For": 1822,
      "List": 1823,
      "que": 1824,
      "Ġseen": 1825,
      "ung": 1826,
      "where": 1827,
      "ref": 1828,
      "oard": 1829,
      "Ġnice": 1830,
      "Ġbelieve": 1831,
      "Ġquick": 1832,
      "itive": 1833,
      "Ġ15": 1834,
      "fect": 1835,
      "right": 1836,
      "lay": 1837,
      "64": 1838,
      "Ġrunning": 1839,
      "Ġimportant": 1840,
      "Ġalmost": 1841,
      "aces": 1842,
      "String": 1843,
      "Ġclear": 1844,
      "Ġinc": 1845,
      "IC": 1846,
      "âĢ¦": 1847,
      "Ġrece": 1848,
      "head": 1849,
      "ision": 1850,
      "ned": 1851,
      "Ġsugg": 1852,
      "use": 1853,
      "rop": 1854,
      "Ġsuggest": 1855,
      "fe": 1856,
      "----------------": 1857,
      "ories": 1858,
      "Ġokay": 1859,
      "ĠNo": 1860,
      "ĊĠĠĠĠĠĠĠĠĠĠĠĠĠĠĠĠĠĠĠ": 1861,
      "Ġcontrol": 1862,
      "Ġdefin": 1863,
      "Ġfore": 1864,
      "Ġwind": 1865,
      "LL": 1866,
      "Ġshort": 1867,
      "Ġfour": 1868,
      "Ġinde": 1869,
      "Ġquite": 1870,
      "ilar": 1871,
      "ape": 1872,
      "fort": 1873,
      "Ġpast": 1874,
      "Ġissue": 1875,
      "time": 1876,
      "Ġsize": 1877,
      "ference": 1878,
      "...\"": 1879,
      "That": 1880,
      "Com": 1881,
      "ler": 1882,
      "ged": 1883,
      "Ġstop": 1884,
      "data": 1885,
      "side": 1886,
      "ĠTHE": 1887,
      "Ġtoday": 1888,
      ".,": 1889,
      "Ġ18": 1890,
      "Ġinstead": 1891,
      "erv": 1892,
      "Ġoper": 1893,
      "arget": 1894,
      "onse": 1895,
      "ĊĊĠĠĠĠĠĠĠ": 1896,
      "Ġclose": 1897,
      "Ġmaybe": 1898,
      "Ġeveryone": 1899,
      "Ġmeans": 1900,
      "ailable": 1901,
      "Ġenjoy": 1902,
      "gle": 1903,
      "yle": 1904,
      "22": 1905,
      "file": 1906,
      "Ġbro": 1907,
      "Ġdi": 1908,
      "Ġgiven": 1909,
      "Ġgover": 1910,
      "oved": 1911,
      "ED": 1912,
      "Ġaccess": 1913,
      "Ġcharacter": 1914,
      "IS": 1915,
      "There": 1916,
      "99": 1917,
      "Ġmulti": 1918,
      "Ġfine": 1919,
      "Ġpop": 1920,
      "eter": 1921,
      "igure": 1922,
      "Cont": 1923,
      "Ġdiv": 1924,
      "ĊĠĠĠĠĠĠĠĠĠĠĠĠĠĠĠĠĠĠĠĠĠĠĠĠ": 1925,
      "ache": 1926,
      "outh": 1927,
      "Ġopp": 1928,
      "Ġ*/": 1929,
      "Ġpull": 1930,
      "onna": 1931,
      "Ġbreak": 1932,
      "html": 1933,
      "Ġcertain": 1934,
      "Ġlater": 1935,
      "ior": 1936,
      "Ġbody": 1937,
      "Ġlooked": 1938,
      "Ġevent": 1939,
      "Ġfelt": 1940,
      "Ġwater": 1941,
      "umn": 1942,
      "Ġbased": 1943,
      "oes": 1944,
      "ike": 1945,
      "Ġcell": 1946,
      "ina": 1947,
      "Ġlink": 1948,
      "Ġfix": 1949,
      "):": 1950,
      "iversity": 1951,
      "owed": 1952,
      "ĠOr": 1953,
      "ene": 1954,
      "AM": 1955,
      "col": 1956,
      "Ġvide": 1957,
      "Ġlooks": 1958,
      "ĠFr": 1959,
      "OT": 1960,
      "Ġanal": 1961,
      "vate": 1962,
      "ux": 1963,
      "Ġetc": 1964,
      "fun": 1965,
      "iles": 1966,
      "Ġgirl": 1967,
      "face": 1968,
      "itle": 1969,
      "Ġwatch": 1970,
      "Ðµ": 1971,
      "Ġpresent": 1972,
      "ception": 1973,
      "ĠCon": 1974,
      "Ġ=>": 1975,
      "Ġdeal": 1976,
      "Ġstring": 1977,
      "Tr": 1978,
      "24": 1979,
      "Ġasked": 1980,
      "Ġhimself": 1981,
      "Ġhttp": 1982,
      "pping": 1983,
      "Ġlarge": 1984,
      "itch": 1985,
      "Ġsoft": 1986,
      "ĠUS": 1987,
      "AS": 1988,
      "Ġboy": 1989,
      "Ġprom": 1990,
      "Ġwalk": 1991,
      "ister": 1992,
      "ĠâĢĵ": 1993,
      "Ġwithin": 1994,
      "ivity": 1995,
      "ĠBl": 1996,
      "ients": 1997,
      "Ġspecific": 1998,
      "Ġbusiness": 1999,
      "Ġsn": 2000,
      "cle": 2001,
      "Ġcal": 2002,
      "ET": 2003,
      "Ġothers": 2004,
      "ĠEx": 2005,
      "Ġinvest": 2006,
      "AP": 2007,
      "ouble": 2008,
      "Ġaff": 2009,
      "Ġgonna": 2010,
      "ING": 2011,
      "Ġnear": 2012,
      "Ġbuy": 2013,
      "ron": 2014,
      "Ġsingle": 2015,
      "ength": 2016,
      "wards": 2017,
      "Ġvari": 2018,
      "Ġstuff": 2019,
      "ploy": 2020,
      "Ġserver": 2021,
      "\")": 2022,
      "Ġwin": 2023,
      "Ġfriends": 2024,
      "Ġdesign": 2025,
      "ural": 2026,
      "fully": 2027,
      "Ġgovern": 2028,
      "ĠNot": 2029,
      "Ġ>": 2030,
      "cially": 2031,
      "Ġve": 2032,
      "Ġago": 2033,
      "idth": 2034,
      "Ġlim": 2035,
      "Ġitem": 2036,
      "Ġwond": 2037,
      "key": 2038,
      "Ġeasy": 2039,
      "vert": 2040,
      "Ġmodel": 2041,
      "Ġmanag": 2042,
      "Ġplease": 2043,
      "Ġhealth": 2044,
      "Ġlow": 2045,
      "Ġcomes": 2046,
      "Ġ==": 2047,
      "ole": 2048,
      "lection": 2049,
      "Ġguys": 2050,
      "Ġsuper": 2051,
      "Ġkid": 2052,
      "ĠBe": 2053,
      "ots": 2054,
      "Type": 2055,
      "Ġstudy": 2056,
      "Ġhist": 2057,
      "Ġorig": 2058,
      "ann": 2059,
      "Ġter": 2060,
      "sel": 2061,
      "ĠAt": 2062,
      "new": 2063,
      "type": 2064,
      "Ar": 2065,
      "ĠLe": 2066,
      "Ġexp": 2067,
      "Ġcommon": 2068,
      "Ġyoung": 2069,
      "Ġseries": 2070,
      "Ġmeet": 2071,
      "Ġhouse": 2072,
      "Ġrecord": 2073,
      "ĠHowever": 2074,
      "gt": 2075,
      "Val": 2076,
      "rist": 2077,
      "ration": 2078,
      "Ġrather": 2079,
      "Ġyeah": 2080,
      "oke": 2081,
      "Ġalong": 2082,
      "Ġtechn": 2083,
      "cing": 2084,
      "import": 2085,
      "Ġhalf": 2086,
      "Ð°": 2087,
      "var": 2088,
      "iron": 2089,
      "Ġ16": 2090,
      "ohn": 2091,
      "ived": 2092,
      "Ġavailable": 2093,
      "utes": 2094,
      "ume": 2095,
      "********": 2096,
      "Ġarg": 2097,
      "Ġmoment": 2098,
      "Ġum": 2099,
      "class": 2100,
      "Ġsever": 2101,
      "Ġnet": 2102,
      "Ġtot": 2103,
      "Ġlaw": 2104,
      "Ð¸": 2105,
      "Ġfiles": 2106,
      "Ġca": 2107,
      "Ġnorm": 2108,
      "40": 2109,
      "Ġexact": 2110,
      "Ġmyself": 2111,
      "Ġabove": 2112,
      "80": 2113,
      "Ġocc": 2114,
      "Ġlive": 2115,
      "ply": 2116,
      "oud": 2117,
      "Ġtyp": 2118,
      "ĠOn": 2119,
      "Ġcouldn": 2120,
      "Ġ100": 2121,
      "Al": 2122,
      "Ġheart": 2123,
      "ĠGr": 2124,
      "Ġcompany": 2125,
      "Res": 2126,
      "ĊĊĊĊ": 2127,
      "ored": 2128,
      "co": 2129,
      "Ġcoming": 2130,
      "Ġest": 2131,
      "Ġsend": 2132,
      "ĊĠĠĠĠĠĠĠĠĠ": 2133,
      "https": 2134,
      "ives": 2135,
      "ĠCan": 2136,
      "];": 2137,
      "Ġstep": 2138,
      "Ġann": 2139,
      "Ġmonths": 2140,
      "ground": 2141,
      "Ġstrong": 2142,
      "Ġsaying": 2143,
      "Ġcorrect": 2144,
      "Ġabs": 2145,
      "Ġmor": 2146,
      "Ġreading": 2147,
      "orry": 2148,
      "Ġpress": 2149,
      "Ġconsider": 2150,
      "ND": 2151,
      "Ġpain": 2152,
      "Ġred": 2153,
      "ror": 2154,
      "ability": 2155,
      "Sh": 2156,
      "\".": 2157,
      "ctor": 2158,
      "augh": 2159,
      "Ġhands": 2160,
      "Ġlocal": 2161,
      "Ġcustom": 2162,
      "Music": 2163,
      "ried": 2164,
      "oun": 2165,
      "commend": 2166,
      "plement": 2167,
      "reg": 2168,
      "Un": 2169,
      "Ġsort": 2170,
      "abel": 2171,
      "Ġexperience": 2172,
      "Data": 2173,
      "Ġneeds": 2174,
      "irt": 2175,
      "Ġinit": 2176,
      "ajor": 2177,
      "Ġperfect": 2178,
      "Ġ30": 2179,
      "Ġport": 2180,
      "Ġfail": 2181,
      "Ġstay": 2182,
      "Ġseveral": 2183,
      "AC": 2184,
      "Ġop": 2185,
      "][": 2186,
      "ries": 2187,
      "unch": 2188,
      "ium": 2189,
      "ĠTo": 2190,
      "Ġrese": 2191,
      "Ġanswer": 2192,
      "mod": 2193,
      "ination": 2194,
      "Ġsimilar": 2195,
      "33": 2196,
      "Wh": 2197,
      "Ġinside": 2198,
      "Ġ!": 2199,
      "aken": 2200,
      "Ġ?": 2201,
      "Ġstruct": 2202,
      "Ġtra": 2203,
      "Ġfall": 2204,
      ")/": 2205,
      "Col": 2206,
      "Ġcountry": 2207,
      "Ġknew": 2208,
      "rew": 2209,
      "\");": 2210,
      "Ġguess": 2211,
      "fer": 2212,
      "Ġ%": 2213,
      "Ġoften": 2214,
      "Ġcharacters": 2215,
      "ION": 2216,
      "ential": 2217,
      "Ġsaw": 2218,
      "ift": 2219,
      "Ġexist": 2220,
      "requ": 2221,
      "pecially": 2222,
      "uation": 2223,
      "ey": 2224,
      "Ġcost": 2225,
      "Ġhig": 2226,
      "aid": 2227,
      "ĠâĪ": 2228,
      "ĠĠĠĠĠĠĠĠĠ": 2229,
      "Ġsent": 2230,
      "ging": 2231,
      "60": 2232,
      "Ġparent": 2233,
      "Ġcut": 2234,
      "Ġtaking": 2235,
      "log": 2236,
      "ral": 2237,
      "Ġ14": 2238,
      "Ġcreat": 2239,
      "duct": 2240,
      "Ġenc": 2241,
      "Ġreview": 2242,
      "Ġprof": 2243,
      "Ġbehind": 2244,
      "Ġrequest": 2245,
      "Ġresults": 2246,
      "Ġselect": 2247,
      "Ġsimple": 2248,
      "urther": 2249,
      "Ġeng": 2250,
      "string": 2251,
      "ands": 2252,
      "Ġneeded": 2253,
      "Ġgets": 2254,
      "Ġaw": 2255,
      "angu": 2256,
      "empt": 2257,
      "Ġvoid": 2258,
      "mit": 2259,
      "Ġyes": 2260,
      "Th": 2261,
      "Ġincluding": 2262,
      "ording": 2263,
      "Ġfuck": 2264,
      "When": 2265,
      "aim": 2266,
      "Ġpath": 2267,
      "cer": 2268,
      "She": 2269,
      "Ġparticular": 2270,
      "aving": 2271,
      "Ġmatter": 2272,
      "Ġguy": 2273,
      "Ġexpress": 2274,
      "word": 2275,
      "âĢĶ": 2276,
      "Ġpot": 2277,
      "atus": 2278,
      "Ġair": 2279,
      "uture": 2280,
      "leep": 2281,
      "mon": 2282,
      "Ġrecommend": 2283,
      "aper": 2284,
      "Ġdat": 2285,
      "Ġentire": 2286,
      "icle": 2287,
      "23": 2288,
      "ables": 2289,
      "Ġsum": 2290,
      "Ġsoon": 2291,
      "miss": 2292,
      "Ġrelations": 2293,
      "Ġwords": 2294,
      "ĠMay": 2295,
      "itting": 2296,
      "td": 2297,
      "arr": 2298,
      "Ġload": 2299,
      "Ġ**": 2300,
      "Ð½": 2301,
      "Ġauthor": 2302,
      "Ġcouple": 2303,
      "Ġcannot": 2304,
      "Ġacross": 2305,
      "Ġdocument": 2306,
      "Ġhuman": 2307,
      "Ġsuccess": 2308,
      "Ġdam": 2309,
      "bject": 2310,
      "Ġimage": 2311,
      "Ġsource": 2312,
      "Ġfav": 2313,
      "Ġdepend": 2314,
      "Ġspace": 2315,
      "ĠPh": 2316,
      "Ġident": 2317,
      "](": 2318,
      "Ġleg": 2319,
      "Ġwhether": 2320,
      "Ġcontent": 2321,
      "artment": 2322,
      "Ġfront": 2323,
      "ession": 2324,
      "oogle": 2325,
      "ude": 2326,
      "Ġhours": 2327,
      "Ġvideo": 2328,
      "Ġwrite": 2329,
      "ien": 2330,
      "itten": 2331,
      "oci": 2332,
      "ances": 2333,
      "top": 2334,
      "Ġant": 2335,
      "Ġaccount": 2336,
      "De": 2337,
      "using": 2338,
      "though": 2339,
      "____": 2340,
      "Ġdiff": 2341,
      "Ġ13": 2342,
      "Not": 2343,
      "uild": 2344,
      "Ġdoor": 2345,
      "Ġbegin": 2346,
      "itely": 2347,
      "Ġfoc": 2348,
      "Ġsex": 2349,
      "At": 2350,
      "Ġleave": 2351,
      "ĠInd": 2352,
      "Ġpract": 2353,
      "An": 2354,
      "Oh": 2355,
      "Ġchildren": 2356,
      "Im": 2357,
      "Ġbecome": 2358,
      "aced": 2359,
      "px": 2360,
      "ÑĤ": 2361,
      "umb": 2362,
      "Ġdue": 2363,
      "Ġwouldn": 2364,
      "Ġremember": 2365,
      "Ġbox": 2366,
      "Ġminutes": 2367,
      "Ġwomen": 2368,
      "AD": 2369,
      "Ġandroid": 2370,
      "isk": 2371,
      "fig": 2372,
      "ming": 2373,
      "Ġadded": 2374,
      "Ġ11": 2375,
      "Ġaddress": 2376,
      "oin": 2377,
      "ley": 2378,
      "ones": 2379,
      "Ġmajor": 2380,
      "unt": 2381,
      "Ġchanges": 2382,
      "acy": 2383,
      "ĠMar": 2384,
      "Ġgovernment": 2385,
      "čĊĠ": 2386,
      "Ġsense": 2387,
      "By": 2388,
      "Ġblack": 2389,
      "Ġprint": 2390,
      "Se": 2391,
      "Ġhappy": 2392,
      "ĠâĢĶ": 2393,
      "Ġmessage": 2394,
      "ĠÎ": 2395,
      "Ġservice": 2396,
      "Ġissues": 2397,
      "Ġbed": 2398,
      "icro": 2399,
      "Ġproblems": 2400,
      "ateg": 2401,
      "Ġclos": 2402,
      "ising": 2403,
      "book": 2404,
      "Ġvalues": 2405,
      "ples": 2406,
      "Ġ...": 2407,
      "urs": 2408,
      "list": 2409,
      "Ġhowever": 2410,
      "Ġposition": 2411,
      "Ġcompl": 2412,
      "Ġimplement": 2413,
      "Ġbase": 2414,
      "vices": 2415,
      "Ġdiscuss": 2416,
      "Ġarea": 2417,
      "Ġimpro": 2418,
      "ĠÂ": 2419,
      "gress": 2420,
      "Ġapplication": 2421,
      "off": 2422,
      "Ġoffic": 2423,
      "ĠIN": 2424,
      "Ġbelow": 2425,
      "Ġbring": 2426,
      "Ġprotect": 2427,
      "no": 2428,
      "Ġhon": 2429,
      "><": 2430,
      "Ġbar": 2431,
      "Ġhit": 2432,
      "')": 2433,
      "All": 2434,
      "Ġmultiple": 2435,
      "Ġaddition": 2436,
      "clude": 2437,
      "Ġlay": 2438,
      "ĠThen": 2439,
      "ĠPr": 2440,
      "Ġflo": 2441,
      "ulation": 2442,
      "ams": 2443,
      "ules": 2444,
      "itor": 2445,
      "resent": 2446,
      "ively": 2447,
      "Ġ17": 2448,
      "with": 2449,
      "Ġgames": 2450,
      "27": 2451,
      "Ġcomb": 2452,
      "viron": 2453,
      "Ġfight": 2454,
      "Ġur": 2455,
      "Ġgoes": 2456,
      "Ġarray": 2457,
      "Ġmag": 2458,
      "ĠGod": 2459,
      "uro": 2460,
      "lish": 2461,
      "Ġthinking": 2462,
      "Ġprevious": 2463,
      "($": 2464,
      "Ġphone": 2465,
      "Ġtalking": 2466,
      "ips": 2467,
      "iddle": 2468,
      "Ġgeneral": 2469,
      "Ġquestions": 2470,
      "like": 2471,
      "ially": 2472,
      "++": 2473,
      "Ġfuture": 2474,
      "ĠHis": 2475,
      "UT": 2476,
      "code": 2477,
      "Ġrele": 2478,
      "met": 2479,
      "Ġprivate": 2480,
      "osp": 2481,
      "Ġstre": 2482,
      "ĠMr": 2483,
      "Ġtre": 2484,
      "Ġfood": 2485,
      "Ġgen": 2486,
      "On": 2487,
      "comp": 2488,
      "Ġrelationship": 2489,
      "Ġtreat": 2490,
      "ources": 2491,
      "ĠEng": 2492,
      "Ġorgan": 2493,
      "Ġslow": 2494,
      "light": 2495,
      "icult": 2496,
      "ĠJust": 2497,
      "DE": 2498,
      "ĠAd": 2499,
      "Ġvol": 2500,
      "Ġhear": 2501,
      "conom": 2502,
      "Ġterm": 2503,
      "Ġtakes": 2504,
      "por": 2505,
      "value": 2506,
      "App": 2507,
      "atever": 2508,
      "ison": 2509,
      "Ġheard": 2510,
      "Text": 2511,
      "Ġmention": 2512,
      "28": 2513,
      "bt": 2514,
      "Ġbooks": 2515,
      "ĠOF": 2516,
      "Ġhappened": 2517,
      "Ġworth": 2518,
      "Ġmillion": 2519,
      "45": 2520,
      "ai": 2521,
      "apter": 2522,
      "ached": 2523,
      "return": 2524,
      "Ġsolution": 2525,
      "Ġelect": 2526,
      "ĠAlso": 2527,
      "Ġsimply": 2528,
      "box": 2529,
      "opt": 2530,
      "Ġ25": 2531,
      "Ġsat": 2532,
      "itical": 2533,
      "SS": 2534,
      "test": 2535,
      "Ġamount": 2536,
      ".)": 2537,
      "Ġwait": 2538,
      "Ġplaying": 2539,
      "Ġearly": 2540,
      "Well": 2541,
      "Ð¾Ð": 2542,
      "II": 2543,
      "Ġinvol": 2544,
      "Ġconc": 2545,
      "ĠSp": 2546,
      "abase": 2547,
      "Ġturned": 2548,
      "lement": 2549,
      "ĠSte": 2550,
      "Ġben": 2551,
      "Ġforward": 2552,
      "uk": 2553,
      "Ġtarget": 2554,
      "order": 2555,
      "Ġfive": 2556,
      "ĠOne": 2557,
      "21": 2558,
      "čĊĠĠĠ": 2559,
      "Ġlost": 2560,
      "come": 2561,
      "Ġimp": 2562,
      "ken": 2563,
      "aterial": 2564,
      "ĠThan": 2565,
      "Ġfinal": 2566,
      "Ġmarket": 2567,
      "Ġstore": 2568,
      "Ġespecially": 2569,
      "========": 2570,
      "fo": 2571,
      "Ġyourself": 2572,
      "Ġmeas": 2573,
      "ĠJohn": 2574,
      "Ġdescri": 2575,
      "Ġattack": 2576,
      "Ġknown": 2577,
      "Ġsal": 2578,
      "Ġpoints": 2579,
      "Ġoh": 2580,
      "rc": 2581,
      "Ġsearch": 2582,
      "more": 2583,
      "Ġthird": 2584,
      "go": 2585,
      "reci": 2586,
      "Ġpie": 2587,
      "Ġobs": 2588,
      "Ġgave": 2589,
      "Ġmother": 2590,
      "rel": 2591,
      "aph": 2592,
      "selves": 2593,
      "They": 2594,
      "ecut": 2595,
      "Ġtool": 2596,
      "atter": 2597,
      "Ġgrow": 2598,
      "Ġexc": 2599,
      "Ser": 2600,
      "ilt": 2601,
      "bit": 2602,
      "Ġcopy": 2603,
      "ued": 2604,
      "uration": 2605,
      "Ġinput": 2606,
      "iver": 2607,
      "Ġexactly": 2608,
      "roller": 2609,
      "thon": 2610,
      "CH": 2611,
      "ĠCol": 2612,
      "200": 2613,
      "ML": 2614,
      "With": 2615,
      "Ġcompletely": 2616,
      "ouch": 2617,
      "Ġlikely": 2618,
      "iod": 2619,
      "ians": 2620,
      "Ġpict": 2621,
      "\";": 2622,
      "ification": 2623,
      "ĠNow": 2624,
      "uppose": 2625,
      "Ġredu": 2626,
      "tain": 2627,
      "Ġcolor": 2628,
      "pri": 2629,
      "Ġaction": 2630,
      "cription": 2631,
      "oose": 2632,
      "Ġ50": 2633,
      "ĠAm": 2634,
      "Ġage": 2635,
      "Ġspecial": 2636,
      "oop": 2637,
      "ĠDo": 2638,
      "35": 2639,
      "Ġfinally": 2640,
      "ĠChrist": 2641,
      "ique": 2642,
      "Ġcomput": 2643,
      "Ġnull": 2644,
      "Ġfire": 2645,
      "ĠSc": 2646,
      "26": 2647,
      "orth": 2648,
      "ĠWith": 2649,
      "Ġdate": 2650,
      "Ġrespect": 2651,
      "Ġresponse": 2652,
      "Ġfalse": 2653,
      "Ġsite": 2654,
      "Ġvoice": 2655,
      "Ġcreated": 2656,
      "ĠRes": 2657,
      "Ġra": 2658,
      "idence": 2659,
      "Ġste": 2660,
      "ager": 2661,
      "Ġwriting": 2662,
      "lex": 2663,
      "29": 2664,
      "olute": 2665,
      "vironment": 2666,
      "Ñģ": 2667,
      "Ġdisplay": 2668,
      "Ġdig": 2669,
      "Ġweb": 2670,
      "ney": 2671,
      "Ġaccept": 2672,
      "unk": 2673,
      "Ġdeath": 2674,
      "antly": 2675,
      "Ġinteresting": 2676,
      "Ġfurther": 2677,
      "ĠÃ": 2678,
      "Ġhaven": 2679,
      "Ġparam": 2680,
      "Ġhair": 2681,
      "inux": 2682,
      "Ġtaken": 2683,
      "function": 2684,
      "Ġlonger": 2685,
      "Ġbeaut": 2686,
      "anguage": 2687,
      "Ġprovide": 2688,
      "Ġswe": 2689,
      "ibility": 2690,
      "ury": 2691,
      "medi": 2692,
      "js": 2693,
      "nal": 2694,
      "Ġitself": 2695,
      "Ġwhite": 2696,
      "Ġdefinitely": 2697,
      "ÑĢ": 2698,
      "asing": 2699,
      "onent": 2700,
      "ĠApp": 2701,
      "Ġwoman": 2702,
      "Ġprice": 2703,
      "ama": 2704,
      "pper": 2705,
      "Ġpercent": 2706,
      "ĠTe": 2707,
      "Ġoutside": 2708,
      "Ġexpected": 2709,
      "inter": 2710,
      "Ġsurpr": 2711,
      "></": 2712,
      "Ġones": 2713,
      "Ġcir": 2714,
      "iction": 2715,
      "Ġusually": 2716,
      "ĠPl": 2717,
      "RO": 2718,
      "Ġoutput": 2719,
      "Ġnormal": 2720,
      "pre": 2721,
      "Ġla": 2722,
      "Ġhot": 2723,
      "Ġphys": 2724,
      "Ġlik": 2725,
      "Get": 2726,
      "ĠAny": 2727,
      "arm": 2728,
      "Ġwritten": 2729,
      "public": 2730,
      "ĠUniversity": 2731,
      "Ġdefault": 2732,
      "Ġdifficult": 2733,
      "andom": 2734,
      "IM": 2735,
      "._": 2736,
      "ĠAfter": 2737,
      "Ġsocial": 2738,
      "Value": 2739,
      "Ġclean": 2740,
      "ĠSer": 2741,
      "Ġquality": 2742,
      "atures": 2743,
      "imal": 2744,
      "Ġsignific": 2745,
      "idual": 2746,
      "Ġ`": 2747,
      "Ġrequire": 2748,
      "Ġmach": 2749,
      "ubl": 2750,
      "Ġcard": 2751,
      "Ġappreci": 2752,
      "Ġhistory": 2753,
      "java": 2754,
      "AG": 2755,
      "ication": 2756,
      "Ġhur": 2757,
      "Ġfast": 2758,
      "Ġresearch": 2759,
      "70": 2760,
      "Ġfill": 2761,
      "Ġconfig": 2762,
      "IG": 2763,
      "},": 2764,
      "ires": 2765,
      "ster": 2766,
      "Ġscri": 2767,
      "plate": 2768,
      "ĠString": 2769,
      "90": 2770,
      "ĠIm": 2771,
      "100": 2772,
      "Ġrelease": 2773,
      "Ġland": 2774,
      "Ġcomment": 2775,
      "Ġmatch": 2776,
      "ograp": 2777,
      "ension": 2778,
      "UR": 2779,
      "Ġbott": 2780,
      "Ġfeeling": 2781,
      "Ġcity": 2782,
      "Ġnecess": 2783,
      "Ġcover": 2784,
      "Ġshows": 2785,
      "Ġweeks": 2786,
      "une": 2787,
      "print": 2788,
      "Ġblock": 2789,
      "tract": 2790,
      "ffic": 2791,
      "Ġscreen": 2792,
      "Be": 2793,
      "gest": 2794,
      "uge": 2795,
      "Ġcommand": 2796,
      "oe": 2797,
      "lt": 2798,
      "Ġdom": 2799,
      "Ġcommunity": 2800,
      "Ġshare": 2801,
      "Ġoriginal": 2802,
      "ãģ": 2803,
      "Ġdead": 2804,
      "Ġdeep": 2805,
      "haps": 2806,
      "ites": 2807,
      "iding": 2808,
      "Ġoption": 2809,
      "Ġdark": 2810,
      "Ġfather": 2811,
      "Ġeconom": 2812,
      "Int": 2813,
      "that": 2814,
      "Ġder": 2815,
      "Ġcontr": 2816,
      "Ġterms": 2817,
      "Ġsleep": 2818,
      "rodu": 2819,
      "Ġsqu": 2820,
      "Ġmot": 2821,
      "ython": 2822,
      "Ġworked": 2823,
      "ysis": 2824,
      "ĠTrump": 2825,
      "ety": 2826,
      "Ġwants": 2827,
      "Ġbreat": 2828,
      "Ġmusic": 2829,
      "ari": 2830,
      "Ġstyle": 2831,
      "part": 2832,
      "Ġindiv": 2833,
      "Ġsil": 2834,
      "ribute": 2835,
      "path": 2836,
      "rror": 2837,
      "Ġobvious": 2838,
      "Item": 2839,
      "Ġdeterm": 2840,
      "Ġfavor": 2841,
      "Ġscript": 2842,
      "Ġhost": 2843,
      "Now": 2844,
      "Ġdevelopment": 2845,
      "Ġusers": 2846,
      "Ġseason": 2847,
      "user": 2848,
      "span": 2849,
      "Ġhor": 2850,
      "Object": 2851,
      "86": 2852,
      "Ġinclude": 2853,
      "ili": 2854,
      "do": 2855,
      "Ġlearn": 2856,
      "Ġtrack": 2857,
      "af": 2858,
      "ĠHar": 2859,
      "ql": 2860,
      "$$": 2861,
      "Ġquickly": 2862,
      "wr": 2863,
      "bug": 2864,
      "Ġheav": 2865,
      "Ġener": 2866,
      "ogn": 2867,
      "Ġfair": 2868,
      "Ġwhatever": 2869,
      "34": 2870,
      "lling": 2871,
      "ĊĊĊ": 2872,
      "AB": 2873,
      "Ġsepar": 2874,
      "Ġphot": 2875,
      "Gr": 2876,
      "Ġsometimes": 2877,
      "ges": 2878,
      "ze": 2879,
      "loc": 2880,
      "Ġdest": 2881,
      "which": 2882,
      "Ġcolumn": 2883,
      "}{": 2884,
      "ĠâĢĺ": 2885,
      "Ġhigher": 2886,
      "Ġcurrently": 2887,
      "Any": 2888,
      "size": 2889,
      "Ġspend": 2890,
      "Qu": 2891,
      "Ġfollow": 2892,
      "Ġsituation": 2893,
      "75": 2894,
      "////": 2895,
      "ĠMed": 2896,
      "iff": 2897,
      "OL": 2898,
      "down": 2899,
      "raft": 2900,
      "indows": 2901,
      "ags": 2902,
      "Ġpatients": 2903,
      "Ġspeak": 2904,
      "OS": 2905,
      "amer": 2906,
      "../": 2907,
      "Ġbehav": 2908,
      "zy": 2909,
      "Ġmax": 2910,
      "item": 2911,
      "36": 2912,
      "US": 2913,
      "Ġneg": 2914,
      "ĊĠĠĠĠĠĠĠĠĠĠĠĠĠĠĠĠĠĠĠĠĠĠĠ": 2915,
      "Ġwonder": 2916,
      "ental": 2917,
      "Ġtotal": 2918,
      "Ġupon": 2919,
      "ties": 2920,
      "Ġfit": 2921,
      "sub": 2922,
      "Ġsym": 2923,
      "Ġattempt": 2924,
      "Ġcamp": 2925,
      "Ġ24": 2926,
      "mp": 2927,
      "Ġrange": 2928,
      "Ġloved": 2929,
      "ek": 2930,
      "older": 2931,
      "Ġblood": 2932,
      "Ġmorning": 2933,
      "Ġcool": 2934,
      "Ġamong": 2935,
      "ello": 2936,
      "ony": 2937,
      "obal": 2938,
      "ĠMan": 2939,
      "Ã©": 2940,
      "Ġserious": 2941,
      "Ġrad": 2942,
      "num": 2943,
      "imate": 2944,
      "Ġq": 2945,
      "resp": 2946,
      "ators": 2947,
      "icy": 2948,
      "Ġcond": 2949,
      "acing": 2950,
      "from": 2951,
      "reed": 2952,
      "IL": 2953,
      "just": 2954,
      "Ġcause": 2955,
      "Add": 2956,
      "OP": 2957,
      "doc": 2958,
      "wise": 2959,
      "php": 2960,
      "ocr": 2961,
      "Ġvia": 2962,
      "ĠAND": 2963,
      "cell": 2964,
      "lib": 2965,
      "Ġlisten": 2966,
      "how": 2967,
      "Ġrout": 2968,
      "Ġtowards": 2969,
      "Ġfund": 2970,
      "Here": 2971,
      "uly": 2972,
      "Ġperiod": 2973,
      "ills": 2974,
      "Ġallow": 2975,
      "Ġclick": 2976,
      "usion": 2977,
      "include": 2978,
      "Ġground": 2979,
      "Ġsorry": 2980,
      "Ġimag": 2981,
      "iful": 2982,
      "itted": 2983,
      "istic": 2984,
      "Ġvi": 2985,
      "lege": 2986,
      "Ġclaim": 2987,
      "Ġdecided": 2988,
      "ying": 2989,
      "Yeah": 2990,
      "Yes": 2991,
      "cher": 2992,
      "sy": 2993,
      "ival": 2994,
      "Set": 2995,
      "Mod": 2996,
      "ĠCal": 2997,
      "Ġfigure": 2998,
      "resh": 2999,
      "Ġthank": 3000,
      "ĠRep": 3001,
      "room": 3002,
      "amed": 3003,
      "icense": 3004,
      "Ġchanged": 3005,
      "bar": 3006,
      "Ġsus": 3007,
      "Ġlate": 3008,
      "aged": 3009,
      "Ġdro": 3010,
      "Ġsix": 3011,
      "essage": 3012,
      "ENT": 3013,
      "oring": 3014,
      "Ġlibr": 3015,
      "Ġindividual": 3016,
      "ensive": 3017,
      "Hello": 3018,
      "Ġdraw": 3019,
      "Ġ$\\": 3020,
      "Ġready": 3021,
      "Or": 3022,
      "pack": 3023,
      "lock": 3024,
      "oups": 3025,
      "Ġliter": 3026,
      "PI": 3027,
      "Ġknows": 3028,
      "Ġwindow": 3029,
      "Ġchance": 3030,
      "sl": 3031,
      "Ġstatic": 3032,
      "ĠFl": 3033,
      "Ġrepresent": 3034,
      "mat": 3035,
      "Ġalone": 3036,
      "enc": 3037,
      "oon": 3038,
      "leg": 3039,
      "Ġparty": 3040,
      "Ġabsolute": 3041,
      "Ġdifference": 3042,
      "aff": 3043,
      "Ġmass": 3044,
      "Ġsubject": 3045,
      "iced": 3046,
      "irm": 3047,
      "Ġaren": 3048,
      "Ġaccording": 3049,
      "Ġindex": 3050,
      "ĠInst": 3051,
      "iled": 3052,
      "Ġsett": 3053,
      "Ġupdate": 3054,
      "Ġfing": 3055,
      "curity": 3056,
      "Ġassoci": 3057,
      "Ġtrad": 3058,
      "Ġbuilding": 3059,
      "dis": 3060,
      "Ġgives": 3061,
      "().": 3062,
      "File": 3063,
      "38": 3064,
      "Ġsave": 3065,
      "Ġver": 3066,
      "Ġcases": 3067,
      "inst": 3068,
      "Ġmaterial": 3069,
      "ero": 3070,
      "Ġslight": 3071,
      "ĠSome": 3072,
      "itions": 3073,
      "Ġways": 3074,
      "amples": 3075,
      "Ġcontinue": 3076,
      "ĠAmerican": 3077,
      "now": 3078,
      "Ġkids": 3079,
      "Ġnews": 3080,
      "Can": 3081,
      "Ġshit": 3082,
      "Ġ},": 3083,
      "Ġgone": 3084,
      "aves": 3085,
      "aught": 3086,
      "Ġenergy": 3087,
      "Ġhref": 3088,
      "Ġfoot": 3089,
      "55": 3090,
      "board": 3091,
      "anger": 3092,
      "Ġtax": 3093,
      "Why": 3094,
      "ĠCar": 3095,
      "culate": 3096,
      "Ġwebs": 3097,
      "Ġround": 3098,
      "Ġcult": 3099,
      "ilit": 3100,
      "astic": 3101,
      "Ġconcern": 3102,
      "ption": 3103,
      "Ġmembers": 3104,
      "amb": 3105,
      "Ġnetwork": 3106,
      "quest": 3107,
      "Ġcontact": 3108,
      "tes": 3109,
      "const": 3110,
      "Ġpersonal": 3111,
      "Ġhonest": 3112,
      "chie": 3113,
      "Ġthread": 3114,
      "Ġple": 3115,
      "Ġpred": 3116,
      "Ġbrother": 3117,
      "reme": 3118,
      "Ġavoid": 3119,
      "37": 3120,
      "Ġdistribut": 3121,
      "uses": 3122,
      "Ġteac": 3123,
      "Ġseemed": 3124,
      "chan": 3125,
      "));": 3126,
      "44": 3127,
      "cho": 3128,
      "pose": 3129,
      "Ġhop": 3130,
      "Ġrespons": 3131,
      "Ġaffect": 3132,
      "ĠThese": 3133,
      "field": 3134,
      "39": 3135,
      "year": 3136,
      "Ġemploy": 3137,
      "Ġ40": 3138,
      "Ġliving": 3139,
      "ĠInt": 3140,
      "Ġenvironment": 3141,
      "Ġrate": 3142,
      "Ġrequired": 3143,
      "Ġlower": 3144,
      "Ġonline": 3145,
      "Ġsens": 3146,
      "Ġbi": 3147,
      "čĊč": 3148,
      "mm": 3149,
      "QL": 3150,
      "Fr": 3151,
      "Ġinfl": 3152,
      "Ġregard": 3153,
      "Ġpaper": 3154,
      "!âĢĿ": 3155,
      "ledge": 3156,
      "Ġapproach": 3157,
      "ball": 3158,
      "Man": 3159,
      "sole": 3160,
      "Of": 3161,
      "ĠSystem": 3162,
      "inary": 3163,
      "unity": 3164,
      "Ġcoun": 3165,
      "Ġaud": 3166,
      "Ġnames": 3167,
      "Ġmemory": 3168,
      "Ġplayers": 3169,
      "uments": 3170,
      "ica": 3171,
      "Ġlanguage": 3172,
      "Ġinterested": 3173,
      "azing": 3174,
      "Ġweight": 3175,
      "you": 3176,
      "Ġep": 3177,
      "Ġbenef": 3178,
      "Ġrecently": 3179,
      "Ġcy": 3180,
      "Ġgiving": 3181,
      "Ġbutton": 3182,
      "index": 3183,
      "izing": 3184,
      "Ġimm": 3185,
      "Ġopin": 3186,
      "ibly": 3187,
      "Ġrisk": 3188,
      "Ġwall": 3189,
      "orld": 3190,
      "cret": 3191,
      "rem": 3192,
      "Ġden": 3193,
      "Ġstandard": 3194,
      "88": 3195,
      "Ġimmedi": 3196,
      "hel": 3197,
      "Ġthemselves": 3198,
      "Ġstudents": 3199,
      "overed": 3200,
      "Ġeasily": 3201,
      "Ġbackground": 3202,
      "['": 3203,
      "Ġelement": 3204,
      "Ġupd": 3205,
      "Reg": 3206,
      "input": 3207,
      "Ġexcept": 3208,
      "Ġeye": 3209,
      "Ind": 3210,
      "ĠDr": 3211,
      "Ġprim": 3212,
      "');": 3213,
      "Ġsoftware": 3214,
      "AA": 3215,
      "ae": 3216,
      "Ġdatabase": 3217,
      "Ġhappens": 3218,
      "Ġign": 3219,
      "Ġstarting": 3220,
      "ĠDon": 3221,
      "Ġmap": 3222,
      "Ġnod": 3223,
      "icated": 3224,
      "Ġbab": 3225,
      "ĠCent": 3226,
      "Do": 3227,
      "Ġpers": 3228,
      "error": 3229,
      "Ġstra": 3230,
      "Ġwish": 3231,
      "/*": 3232,
      "Ġparents": 3233,
      "Ġnote": 3234,
      "Ġarm": 3235,
      "Ġperformance": 3236,
      "Ġattention": 3237,
      "Ġclient": 3238,
      "nces": 3239,
      "frac": 3240,
      "Ġproperty": 3241,
      "ises": 3242,
      "Ġfell": 3243,
      "Class": 3244,
      "Ġ/>": 3245,
      "Ġassum": 3246,
      "ĠTH": 3247,
      "Ġsto": 3248,
      "ĠMe": 3249,
      "point": 3250,
      "Ġoptions": 3251,
      "verage": 3252,
      "Ġeffort": 3253,
      "ences": 3254,
      "map": 3255,
      "~~": 3256,
      "ĠĠĠĠĠĠĠĠĠĠĠĠĠĠĠ": 3257,
      "ha": 3258,
      "ternal": 3259,
      "Ġmedia": 3260,
      "Ġrelated": 3261,
      "Ġhuge": 3262,
      "Ġemail": 3263,
      "Ġpositive": 3264,
      "Ġson": 3265,
      "FF": 3266,
      "Ġsequ": 3267,
      "Ġreceived": 3268,
      "Ġvarious": 3269,
      "_{": 3270,
      "Ġball": 3271,
      "TER": 3272,
      "ĠEn": 3273,
      "Ġtitle": 3274,
      "Ġrole": 3275,
      "Ġcross": 3276,
      "Ġcontext": 3277,
      "mission": 3278,
      "Ġpan": 3279,
      "Ġorg": 3280,
      "lier": 3281,
      "abor": 3282,
      "Ġkiss": 3283,
      "Ġcompet": 3284,
      "Ġang": 3285,
      "Ġextra": 3286,
      "uf": 3287,
      "Ġinstance": 3288,
      "Ġframe": 3289,
      "ada": 3290,
      "ological": 3291,
      "ief": 3292,
      "/>": 3293,
      "Ġlines": 3294,
      "Ġagree": 3295,
      "Ġtouch": 3296,
      "='": 3297,
      "mail": 3298,
      "Ġda": 3299,
      "ilities": 3300,
      "Ġdecl": 3301,
      "icate": 3302,
      "ĠWill": 3303,
      "####": 3304,
      "ĠPer": 3305,
      "Ġplayer": 3306,
      "66": 3307,
      "aughter": 3308,
      "Ġut": 3309,
      "Ġnat": 3310,
      "bb": 3311,
      "Ġappear": 3312,
      "igned": 3313,
      "ube": 3314,
      "Ċĉĉĉ": 3315,
      "Ġchall": 3316,
      "Ġextend": 3317,
      "ta": 3318,
      "Ġhell": 3319,
      "ainer": 3320,
      "Ġuses": 3321,
      "wo": 3322,
      "Ġbo": 3323,
      "atform": 3324,
      "Hey": 3325,
      "ĠNe": 3326,
      "ades": 3327,
      "Ġseeing": 3328,
      "Ċĉĉĉĉ": 3329,
      "what": 3330,
      "perty": 3331,
      "CC": 3332,
      "Ġhttps": 3333,
      "mb": 3334,
      "can": 3335,
      "Ġkept": 3336,
      "arter": 3337,
      "Ġmis": 3338,
      "script": 3339,
      "Ġdrink": 3340,
      "Ġeduc": 3341,
      "Ġill": 3342,
      "Ġrecent": 3343,
      "Ġsafe": 3344,
      "One": 3345,
      "eters": 3346,
      "Ġund": 3347,
      "Ġcry": 3348,
      "Ġstraight": 3349,
      "Ġvalid": 3350,
      "IP": 3351,
      "sing": 3352,
      "Ġplayed": 3353,
      "Che": 3354,
      "Ġcat": 3355,
      "Ġcomfort": 3356,
      "orks": 3357,
      "Ġmissing": 3358,
      "ĠâĪĴ": 3359,
      "urope": 3360,
      "Ġdrive": 3361,
      "iki": 3362,
      "itut": 3363,
      "ĠQu": 3364,
      "Ġexecut": 3365,
      "Ġautom": 3366,
      "Ġbeautiful": 3367,
      "Ġspeed": 3368,
      "En": 3369,
      "Ġpurch": 3370,
      "ait": 3371,
      "Ġgod": 3372,
      "Ġbecom": 3373,
      "Ġmiddle": 3374,
      "Time": 3375,
      "OW": 3376,
      "Ġfan": 3377,
      "Ġhy": 3378,
      "Ġlat": 3379,
      "Ġimprove": 3380,
      "Ġ->": 3381,
      "ĠHer": 3382,
      "Ġnumbers": 3383,
      "Ġmoving": 3384,
      "epartment": 3385,
      "Ġheld": 3386,
      "Ġ!=": 3387,
      "Ġsupposed": 3388,
      "Ġlack": 3389,
      "Ġskin": 3390,
      "IR": 3391,
      "ection": 3392,
      "Ġevents": 3393,
      "Ġdev": 3394,
      "95": 3395,
      "Ġpolice": 3396,
      "Ġdetails": 3397,
      "lim": 3398,
      "Ġmouth": 3399,
      "Ġintrodu": 3400,
      "Ġanalysis": 3401,
      "rugg": 3402,
      "ls": 3403,
      "Ġinvestig": 3404,
      "Ġcoll": 3405,
      "Ġluck": 3406,
      "VE": 3407,
      "Ġforce": 3408,
      "Ġideas": 3409,
      "df": 3410,
      "Ġcatch": 3411,
      "Error": 3412,
      "Ġdirectly": 3413,
      "Ġactiv": 3414,
      "Ġpackage": 3415,
      "Ġrandom": 3416,
      "48": 3417,
      "pec": 3418,
      "imum": 3419,
      "ĠPe": 3420,
      "Ġmer": 3421,
      "Ġindust": 3422,
      "Ġsong": 3423,
      "Ġpotential": 3424,
      "math": 3425,
      "aries": 3426,
      "$.": 3427,
      "Just": 3428,
      "Ġdou": 3429,
      "Ġfeels": 3430,
      "link": 3431,
      "count": 3432,
      "ĠBy": 3433,
      "mber": 3434,
      "Ġlength": 3435,
      "aint": 3436,
      "Form": 3437,
      "Ġactual": 3438,
      "Ġdire": 3439,
      "Exception": 3440,
      "Key": 3441,
      "eth": 3442,
      "Ad": 3443,
      "ynam": 3444,
      "cks": 3445,
      "host": 3446,
      "Ġinitial": 3447,
      "Ġhandle": 3448,
      "Ġcompan": 3449,
      "SP": 3450,
      "Ġsetting": 3451,
      "Don": 3452,
      "65": 3453,
      "Ġstri": 3454,
      "Ġformat": 3455,
      "Ġmachine": 3456,
      "Ġsubs": 3457,
      "icks": 3458,
      "ĠRE": 3459,
      "ague": 3460,
      "Ġshot": 3461,
      "ospital": 3462,
      "Ġfocus": 3463,
      "Ġdevice": 3464,
      "pty": 3465,
      "py": 3466,
      "asons": 3467,
      "31": 3468,
      "men": 3469,
      "Ġachie": 3470,
      "Ph": 3471,
      "Ġreported": 3472,
      "Ġfeatures": 3473,
      "dom": 3474,
      "Ġcells": 3475,
      "Ġcomplex": 3476,
      "Ġparts": 3477,
      "lying": 3478,
      "ecause": 3479,
      "ĠST": 3480,
      "su": 3481,
      "Ġmovie": 3482,
      "Ġbegan": 3483,
      "Ġfeed": 3484,
      "ĠMin": 3485,
      "erved": 3486,
      "Ġincluded": 3487,
      "ĠMc": 3488,
      "ceed": 3489,
      "db": 3490,
      "Ġque": 3491,
      "TH": 3492,
      "OD": 3493,
      "Ġbuilt": 3494,
      "ĠĠĠĠĠĠĠĠĠĠ": 3495,
      "Ġitems": 3496,
      "Ġlives": 3497,
      "Ġdouble": 3498,
      "char": 3499,
      "Ġoffice": 3500,
      "77": 3501,
      "Ġopport": 3502,
      "aging": 3503,
      "Ġcomments": 3504,
      "pite": 3505,
      "rix": 3506,
      "Ġbrought": 3507,
      "Ġbought": 3508,
      "ĠEven": 3509,
      "change": 3510,
      "Ġshown": 3511,
      "Ġnovel": 3512,
      "Ġgun": 3513,
      "Ġsmile": 3514,
      "agn": 3515,
      "run": 3516,
      "des": 3517,
      "eral": 3518,
      "struct": 3519,
      "ev": 3520,
      "cast": 3521,
      "Ġcred": 3522,
      "param": 3523,
      "Ġgroups": 3524,
      "iety": 3525,
      "Ġsy": 3526,
      "']": 3527,
      "Ġdie": 3528,
      "airs": 3529,
      "Ġdrop": 3530,
      "Ġloss": 3531,
      "Ġtown": 3532,
      "ync": 3533,
      "Ġincrease": 3534,
      ":**": 3535,
      "NS": 3536,
      "nes": 3537,
      "ober": 3538,
      "ĠEvery": 3539,
      "Ġpropos": 3540,
      "Ġvot": 3541,
      "ils": 3542,
      "Ġroll": 3543,
      "Ġremain": 3544,
      "Ġran": 3545,
      "':": 3546,
      "Ġemot": 3547,
      "Ġsecurity": 3548,
      "Ġvariable": 3549,
      "Ġarticle": 3550,
      "05": 3551,
      "Ġamazing": 3552,
      "Ġregular": 3553,
      "Thank": 3554,
      "Ġblue": 3555,
      "Ġoffer": 3556,
      "Ġdep": 3557,
      "Ġbasically": 3558,
      "Ġstatement": 3559,
      "ara": 3560,
      "Ġmode": 3561,
      "Ġmoved": 3562,
      "ĠFe": 3563,
      "Ġrecogn": 3564,
      "Ġdru": 3565,
      "itter": 3566,
      "Ġmethods": 3567,
      "idered": 3568,
      "Ġviol": 3569,
      "pace": 3570,
      ")*": 3571,
      "Ġintegr": 3572,
      "iday": 3573,
      "Ġpoor": 3574,
      "ATE": 3575,
      "ĠĠĠĠĠĠĠĠĠĠĠĠ": 3576,
      "Ġwebsite": 3577,
      "Ġwatching": 3578,
      "CL": 3579,
      "Ġplug": 3580,
      "Ġremove": 3581,
      "Ġonto": 3582,
      "attle": 3583,
      "ales": 3584,
      "aste": 3585,
      "ĠCont": 3586,
      "Ġexperien": 3587,
      "ĠWhy": 3588,
      "Ġtrust": 3589,
      "Ġtypes": 3590,
      "ana": 3591,
      "earch": 3592,
      "ushed": 3593,
      "ns": 3594,
      "yl": 3595,
      "ounds": 3596,
      "ops": 3597,
      "band": 3598,
      "Ġservices": 3599,
      "After": 3600,
      "Ġprogress": 3601,
      "Ġsection": 3602,
      "Ġhom": 3603,
      "98": 3604,
      "bing": 3605,
      "mar": 3606,
      "Ġwide": 3607,
      "urch": 3608,
      "Ġchoice": 3609,
      "lected": 3610,
      "Ġboard": 3611,
      ":\"": 3612,
      "Ġconnection": 3613,
      "vant": 3614,
      "Please": 3615,
      "table": 3616,
      "ners": 3617,
      "gn": 3618,
      "Ġroad": 3619,
      "Ġconsidered": 3620,
      "ĠRed": 3621,
      "Ġ;": 3622,
      "Ġeat": 3623,
      "ULL": 3624,
      "width": 3625,
      "ened": 3626,
      "^{": 3627,
      "Ġswitch": 3628,
      "Test": 3629,
      "Ġmix": 3630,
      "ring": 3631,
      "Act": 3632,
      "ĠThanks": 3633,
      "Ġlo": 3634,
      "Ġofficial": 3635,
      "ĠGu": 3636,
      "gen": 3637,
      "define": 3638,
      "Ġgrab": 3639,
      "Ġpiece": 3640,
      "Ġuseful": 3641,
      "Ġlearning": 3642,
      "cal": 3643,
      "atory": 3644,
      "Ġrow": 3645,
      "Ġanyway": 3646,
      "ĠGe": 3647,
      "Ġquery": 3648,
      "apt": 3649,
      "Pr": 3650,
      "Ġexpression": 3651,
      "ĠEurope": 3652,
      "ĠWindows": 3653,
      "Ġvers": 3654,
      "Ġknowledge": 3655,
      "Ġdownload": 3656,
      "AY": 3657,
      "Ġlock": 3658,
      "arily": 3659,
      "ruction": 3660,
      "xx": 3661,
      "Ġstream": 3662,
      "Ġstructure": 3663,
      "Ġlibrary": 3664,
      "imin": 3665,
      "Ġextreme": 3666,
      "';": 3667,
      "Ġwife": 3668,
      "HT": 3669,
      "Ġcomputer": 3670,
      "ĠChe": 3671,
      "ishing": 3672,
      "anch": 3673,
      "Context": 3674,
      "Ġpicture": 3675,
      "rupt": 3676,
      "04": 3677,
      "Path": 3678,
      "Ġthanks": 3679,
      "Ġess": 3680,
      "Ġbeginning": 3681,
      "base": 3682,
      "Ġdeg": 3683,
      "abled": 3684,
      "Ġdefined": 3685,
      "NA": 3686,
      "****************": 3687,
      "ously": 3688,
      "Met": 3689,
      "ĠHere": 3690,
      "Le": 3691,
      "Inst": 3692,
      "Ġpolitical": 3693,
      "State": 3694,
      "Ġheight": 3695,
      "Ġmid": 3696,
      "Ġpicked": 3697,
      "Ġpubl": 3698,
      "Ġ&&": 3699,
      "ĠIS": 3700,
      "sequ": 3701,
      "Ġnotice": 3702,
      "anced": 3703,
      "Ġstates": 3704,
      "lete": 3705,
      "soft": 3706,
      "Ġalthough": 3707,
      "reet": 3708,
      "ining": 3709,
      "VER": 3710,
      "Ġbottom": 3711,
      "ĠAmerica": 3712,
      "Ġdream": 3713,
      "ernel": 3714,
      "Ġwat": 3715,
      "Ġadvance": 3716,
      "fortun": 3717,
      "EM": 3718,
      "Ġimmediately": 3719,
      "Ġprovided": 3720,
      "Ġdise": 3721,
      "Ġmechan": 3722,
      "ĠBar": 3723,
      "Ġdamage": 3724,
      "Ġsche": 3725,
      "Ġcondition": 3726,
      "Ġtree": 3727,
      "iment": 3728,
      "67": 3729,
      "img": 3730,
      "Ġability": 3731,
      "dden": 3732,
      "Ġbur": 3733,
      "group": 3734,
      "void": 3735,
      "Ġplaces": 3736,
      "aling": 3737,
      "Ġce": 3738,
      "Ġmeant": 3739,
      "Ġeasier": 3740,
      "Ġsun": 3741,
      "ĠUnited": 3742,
      "ĠYork": 3743,
      "Ġlimit": 3744,
      "erve": 3745,
      "Ġjoin": 3746,
      "Ġstories": 3747,
      "start": 3748,
      "Ġreference": 3749,
      "Ġsystems": 3750,
      "Par": 3751,
      "post": 3752,
      "Ġnecessary": 3753,
      "plit": 3754,
      "Ġcompared": 3755,
      "based": 3756,
      "inally": 3757,
      "config": 3758,
      "Ġjud": 3759,
      "Ġrepe": 3760,
      "ament": 3761,
      "ports": 3762,
      "Ġslightly": 3763,
      "From": 3764,
      "uz": 3765,
      "idge": 3766,
      "Ġwaiting": 3767,
      "PS": 3768,
      "ded": 3769,
      "ĠAss": 3770,
      "gl": 3771,
      "Ġallowed": 3772,
      "Ġdecision": 3773,
      "Ġaverage": 3774,
      "trans": 3775,
      "Ġrespond": 3776,
      "Ġengine": 3777,
      "ĠMaybe": 3778,
      "icon": 3779,
      "Ġfunctions": 3780,
      "Ġinvolved": 3781,
      "Ġmist": 3782,
      "Ġtravel": 3783,
      "Ġnoticed": 3784,
      "Ġcand": 3785,
      "left": 3786,
      "Ġarri": 3787,
      "iny": 3788,
      "PE": 3789,
      "Ġadmin": 3790,
      "annel": 3791,
      "Ġfeet": 3792,
      "xy": 3793,
      "tem": 3794,
      "query": 3795,
      "Ġsudden": 3796,
      "Ġfavorite": 3797,
      "Ġprior": 3798,
      "Over": 3799,
      "Ġasking": 3800,
      "Ġshoot": 3801,
      "ĠNOT": 3802,
      "Ġ\"\"": 3803,
      "Comp": 3804,
      "47": 3805,
      "ride": 3806,
      "state": 3807,
      "ĠGet": 3808,
      "irth": 3809,
      "Ġliked": 3810,
      "aved": 3811,
      "Ġarms": 3812,
      "call": 3813,
      "ius": 3814,
      "Ġpatch": 3815,
      "Ġbal": 3816,
      "undred": 3817,
      "Ġmentioned": 3818,
      "aur": 3819,
      "Ġsoci": 3820,
      "Def": 3821,
      "Ġdeli": 3822,
      "Ġboo": 3823,
      "sum": 3824,
      "Ġfeature": 3825,
      "ilter": 3826,
      "dered": 3827,
      "udd": 3828,
      "Ġearlier": 3829,
      "Ġparticip": 3830,
      "verse": 3831,
      "Ġcra": 3832,
      "ĠÏ": 3833,
      "Ġsounds": 3834,
      "Ġhate": 3835,
      "Ġimpact": 3836,
      "Ġroot": 3837,
      "Ġrev": 3838,
      "97": 3839,
      "Ġbecame": 3840,
      "kend": 3841,
      "gu": 3842,
      "Ð»": 3843,
      "ĠPres": 3844,
      "ael": 3845,
      "dev": 3846,
      "ris": 3847,
      "Event": 3848,
      "enty": 3849,
      "iling": 3850,
      "Ġ});": 3851,
      "ocol": 3852,
      "Ġfactors": 3853,
      "Ġherself": 3854,
      "Ġwidth": 3855,
      "inding": 3856,
      "inner": 3857,
      "ares": 3858,
      "Ġopinion": 3859,
      "Ġproducts": 3860,
      "content": 3861,
      "build": 3862,
      "Ġformer": 3863,
      "Ġton": 3864,
      "ĠOh": 3865,
      "Ġjava": 3866,
      "Ġimages": 3867,
      "Ġstatus": 3868,
      "Ġrelative": 3869,
      "ĠPC": 3870,
      "ditions": 3871,
      "Ġlevels": 3872,
      "ĠVal": 3873,
      "Ġsuff": 3874,
      "[]": 3875,
      "olve": 3876,
      "xml": 3877,
      "Ġ:)": 3878,
      "ino": 3879,
      "oph": 3880,
      "Ġcook": 3881,
      "Ġgraph": 3882,
      "Ġanim": 3883,
      "Ġtreatment": 3884,
      "Ġspent": 3885,
      "Ġconditions": 3886,
      "Ġten": 3887,
      "Ġmeeting": 3888,
      "ĊĊĠĠĠĠĠĠĠĠĠĠĠ": 3889,
      "96": 3890,
      "ores": 3891,
      "CE": 3892,
      "ialog": 3893,
      "Ġfem": 3894,
      "ees": 3895,
      "Ġfrequ": 3896,
      "bol": 3897,
      "Ġfac": 3898,
      "ĠEd": 3899,
      "Ġpresident": 3900,
      "Ġabsolutely": 3901,
      "avid": 3902,
      "Ġnearly": 3903,
      "Ġjour": 3904,
      "layout": 3905,
      "Ġfucking": 3906,
      "Ġpen": 3907,
      "Ġsignificant": 3908,
      "hand": 3909,
      "mas": 3910,
      "Ġpassed": 3911,
      "((": 3912,
      "--------------------------------": 3913,
      "Ġstar": 3914,
      "Ġtraining": 3915,
      "Ġfig": 3916,
      "Ġprevent": 3917,
      "hood": 3918,
      "Ġconsum": 3919,
      "reate": 3920,
      "Ġjump": 3921,
      "ults": 3922,
      "frame": 3923,
      "Ġbaby": 3924,
      "Ġelements": 3925,
      "ĠDem": 3926,
      "ĠID": 3927,
      "Ġfloor": 3928,
      "Ġfactor": 3929,
      "Ġ21": 3930,
      "ipe": 3931,
      "Ġfollowed": 3932,
      "SD": 3933,
      "Cal": 3934,
      "ĠWar": 3935,
      "Ġperhaps": 3936,
      "RI": 3937,
      "85": 3938,
      "orrow": 3939,
      "Ġreve": 3940,
      "ĠPar": 3941,
      "Ġshowed": 3942,
      "acement": 3943,
      "Ġthous": 3944,
      "Ġlif": 3945,
      "true": 3946,
      "Ġarch": 3947,
      "Ġprep": 3948,
      "Ġdetail": 3949,
      "??": 3950,
      "Ġapplic": 3951,
      "Ġchoose": 3952,
      "Ġwel": 3953,
      "Ġanymore": 3954,
      "asp": 3955,
      "Ġolder": 3956,
      "oom": 3957,
      "het": 3958,
      "kn": 3959,
      "oul": 3960,
      "oly": 3961,
      "aul": 3962,
      "isf": 3963,
      "ĠTO": 3964,
      "Ġpulled": 3965,
      "ashing": 3966,
      "Ġcalls": 3967,
      "Ġsold": 3968,
      "Ġrules": 3969,
      "Ġspot": 3970,
      "Ġgoal": 3971,
      "Are": 3972,
      "ky": 3973,
      "Ġ(-": 3974,
      "Ġpages": 3975,
      "Read": 3976,
      "Array": 3977,
      "Ġban": 3978,
      "Ġsurv": 3979,
      "Ġboot": 3980,
      "ĠChar": 3981,
      "Ġcompanies": 3982,
      "ĠWhile": 3983,
      "Ġclosed": 3984,
      "Ġvisit": 3985,
      "Ġexplain": 3986,
      "PL": 3987,
      "Ġcold": 3988,
      "ĠList": 3989,
      "ocks": 3990,
      "ĠState": 3991,
      "Ġmail": 3992,
      "Ġcertainly": 3993,
      "Date": 3994,
      "Ġglobal": 3995,
      "Ġworry": 3996,
      "Image": 3997,
      "OST": 3998,
      "umber": 3999
    },
    "merges": [
      "Ġ t",
      "Ġ Ġ",
      "Ġ a",
      "h e",
      "i n",
      "r e",
      "Ġ s",
      "o n",
      "Ġt he",
      "e r",
      "Ġ w",
      "a t",
      "o u",
      "ĠĠ ĠĠ",
      "i t",
      "Ġ c",
      "o r",
      "i s",
      "n d",
      "Ġ b",
      "in g",
      "Ġ f",
      "e n",
      "e s",
      "Ġ m",
      "Ġ o",
      "e d",
      "Ġ p",
      "Ġt o",
      "a n",
      "Ġ d",
      "a l",
      "Ġ h",
      "Ġt h",
      "a r",
      "l e",
      "Ġ in",
      "Ġa nd",
      "a s",
      "Ġo f",
      "Ġ I",
      "o m",
      "i c",
      "Ġ l",
      "Ġ n",
      "i on",
      "l l",
      "Ġ g",
      "e t",
      "s t",
      "v e",
      "Ġ e",
      "Ġ y",
      "Ġ re",
      "l y",
      "o t",
      "o w",
      "c t",
      "en t",
      "Ġ is",
      "Ġb e",
      "i d",
      "Ġy ou",
      "u t",
      "s e",
      "Ġ it",
      "Ġ u",
      "ĠĠ Ġ",
      "r o",
      "ĠĠĠĠ ĠĠĠĠ",
      "i m",
      "Ġ on",
      "Ġth at",
      "a y",
      "a d",
      "Ġ he",
      "a m",
      "Ġ \"",
      "Ġf or",
      "â Ģ",
      "l d",
      "a c",
      "v er",
      "i g",
      "Ġ T",
      "Ġs t",
      "it h",
      "Ġ S",
      "i f",
      "k e",
      "Ġh a",
      "Ġw h",
      "Ġ A",
      "Ġw ith",
      "Ġa n",
      "o o",
      "Ġw e",
      "c e",
      "ou t",
      "u r",
      "i r",
      "Ġa s",
      "c h",
      "Ġ (",
      "at ion",
      "t er",
      "i l",
      "Ġ C",
      "Ġw as",
      "' s",
      "h t",
      "Ġth is",
      "Ġ r",
      "a g",
      "Ġs e",
      "p e",
      "at e",
      "i ll",
      "o l",
      "he r",
      "ou ld",
      "r i",
      "e m",
      "Ġ M",
      "u l",
      "a b",
      "p p",
      "Ġn ot",
      "Ġc on",
      "Ġha ve",
      "u n",
      "o re",
      "Ġ 1",
      "ĠĠĠĠ ĠĠĠ",
      "Ġn e",
      "Ġa re",
      "Ġd o",
      "Ġa t",
      "es t",
      "o d",
      ". \"",
      "u m",
      "u s",
      "Ġ v",
      "a in",
      "t h",
      "Ġ B",
      "Ġc om",
      "Ġd e",
      "q u",
      "u st",
      "Ġ H",
      "er s",
      "Ġb ut",
      "' t",
      "Ġp ro",
      "Ġ or",
      "es s",
      "Ġe x",
      "an t",
      "r om",
      "Ġ k",
      "is t",
      "Ġ =",
      "Ġ j",
      "Ġ P",
      "Ġs h",
      "e l",
      "ig ht",
      "- -",
      "o p",
      "Ġl i",
      "Ġ W",
      "Ġs o",
      "âĢ Ļ",
      "n t",
      "Ċ Ċ",
      "al ly",
      "Ġ 2",
      "ĠT he",
      "Ġm e",
      "Ġc an",
      "Ġm y",
      "a nd",
      ". .",
      "om e",
      "Ġ D",
      "Ġa l",
      "Ġs u",
      "o s",
      "re s",
      "ar t",
      "ou r",
      "am e",
      "Ġ -",
      "Ġf rom",
      "0 0",
      "ac k",
      "i e",
      "or t",
      "Ġa b",
      "Ġc h",
      "al l",
      "a p",
      "Ġ L",
      "Ġ le",
      "Ġh is",
      "Ċ ĠĠĠ",
      "i ve",
      "Ġt r",
      "Ġ F",
      "Ġ R",
      "Ġa ll",
      "Ġw he",
      "o c",
      "Ġw or",
      "m ent",
      "it y",
      "Ġ N",
      "oo k",
      "e ct",
      "in d",
      "Ġb y",
      "ar d",
      "p t",
      "on e",
      "Ġu s",
      "ou g",
      "Ġu p",
      "a ct",
      "Ġ if",
      "re d",
      "Ġli ke",
      "Ċ ĠĠĠĠĠĠĠĠ",
      "t e",
      "Ġ out",
      "Ġ G",
      "p l",
      "Ġ E",
      "i v",
      "Ġthe y",
      "a k",
      "u e",
      "Ġyou r",
      "in e",
      "Ġg et",
      "o st",
      "Ġp l",
      "g e",
      "id e",
      "Ġ O",
      "Ġg o",
      "Ġc l",
      "ag e",
      "i es",
      "ou nd",
      "ver y",
      "Ġj ust",
      "as t",
      "Ġw ill",
      "Ġon e",
      "Ġk n",
      "as s",
      ") ;",
      "im e",
      "* *",
      "Ġhe r",
      "Ġw ould",
      "ic h",
      "u d",
      "Ġs ome",
      "ab le",
      "a ke",
      "i le",
      "Ġthe re",
      "Ġan y",
      "T he",
      "a u",
      "on g",
      "Ġab out",
      "u re",
      "âĢ ľ",
      "/ /",
      "in k",
      "t her",
      "Ġh as",
      "ic e",
      "Ġwh at",
      "âĢ Ŀ",
      "Ġ J",
      "f f",
      "t o",
      "ct ion",
      "i z",
      "a re",
      "as e",
      "p er",
      "oug h",
      "p le",
      "Ġa r",
      "Ġa d",
      "Ġkn ow",
      "o g",
      "Ċ ĠĠĠĠĠĠĠ",
      "a v",
      "Ġh ad",
      "Ġ {",
      "oo d",
      "Ġf e",
      "Ġm ore",
      "Ġwhe n",
      "k s",
      "at ed",
      "Ġ qu",
      "u b",
      "b le",
      "Ġt e",
      "ul t",
      "ou s",
      "Ġ im",
      "in t",
      "it e",
      "ac e",
      "Ġ i",
      "Ġ <",
      "x t",
      ") .",
      "s o",
      "Ġ en",
      "c l",
      "h at",
      "Ġh im",
      "Ġwh o",
      "i al",
      "Ġ 3",
      "Ġthe m",
      "Ġs a",
      "r y",
      "h ing",
      "or m",
      "an s",
      "Ġwh ich",
      "Ġs he",
      "' m",
      "= \"",
      "c on",
      "Ġn o",
      "Ġwe re",
      "ĠĠĠĠĠĠĠĠ ĠĠĠĠĠĠĠĠ",
      "ion s",
      "Ġt ime",
      "Ġw ant",
      "Ċ Ġ",
      "c om",
      "Ġ $",
      "e p",
      "Ġo ther",
      "ow n",
      "Ġ *",
      "v en",
      "e ar",
      "ic k",
      "c k",
      "Ġ U",
      "o se",
      "Ġm an",
      "Ġg r",
      "e re",
      "ur n",
      "Ġa g",
      "au se",
      "Ġre s",
      "Ġthe ir",
      "Ġd on",
      "r a",
      "Ġcon t",
      "ay s",
      "i p",
      "Ġ 0",
      "Ġu n",
      "Ġh ow",
      "i re",
      "ĠI t",
      "Ġ [",
      "Ġwor k",
      "b er",
      "Ġbe en",
      "a il",
      "o ve",
      "Ġa m",
      "Ġ '",
      "Ġ +",
      "Ġs c",
      "Ġbe c",
      "an g",
      "an ce",
      "c c",
      "re at",
      "Ġl ook",
      "Ġp e",
      "Ġne w",
      "Ġp r",
      "res s",
      "Ġ Y",
      "Ġc ould",
      "Ġth an",
      "or y",
      "-- --",
      "Ġd id",
      "h is",
      "Ġo ver",
      "Ġin to",
      "Ġne ed",
      "ac h",
      "ig n",
      "Ġth ink",
      "ing s",
      "Ġd is",
      "Ġb ack",
      "Ġ }",
      "or d",
      "ar y",
      "Ġ K",
      "l f",
      "Ġthe n",
      "Ġof f",
      "Ġon ly",
      "e nd",
      "r u",
      "it t",
      "op le",
      "ir st",
      "p ort",
      "Ġp er",
      "Ġcom p",
      "re e",
      "Ġp re",
      "od e",
      "Ġse e",
      "l ic",
      "Ġu se",
      "? \"",
      "i a",
      "u ll",
      "j ect",
      "Ġa pp",
      "g et",
      "f ter",
      "ou nt",
      "0 1",
      "en s",
      "t r",
      "t y",
      "Ġt w",
      "Ġsa id",
      "ĠH e",
      "Ġbec ause",
      "at a",
      "Ġ 4",
      "ic al",
      "Ġs p",
      "Ġpe ople",
      "ation s",
      "Ġal so",
      "d u",
      ".. .",
      "Ġn ow",
      "en ce",
      "Ġp art",
      "nd er",
      "Ġw ay",
      "ve l",
      "i ld",
      "w e",
      "Ġe very",
      "om et",
      "f orm",
      "o b",
      "f ere",
      "Ġb et",
      "Ġdo es",
      "ĠI n",
      "ver s",
      "Ġs pe",
      "Ġ V",
      "Ġsh ould",
      "l i",
      "d e",
      "g r",
      "Ġy ear",
      "Ġ âĢľ",
      "Ġb l",
      "n e",
      "he d",
      "' re",
      "ie w",
      "ĠĠĠĠ Ġ",
      "o v",
      "f t",
      "Ġf irst",
      "Ġb r",
      "Ġs er",
      ") ,",
      "Ġ 5",
      "Ġre ally",
      "ent s",
      "f ore",
      "it ion",
      "Ġp o",
      "u ch",
      "Ġg ood",
      "Ġ ro",
      "Ġhe re",
      "ĊĠĠĠĠĠĠĠĠ ĠĠĠ",
      "Ġr ight",
      "Ġm ake",
      "ad e",
      "e ll",
      "ot her",
      "at h",
      "Ġ our",
      "Ġth r",
      "Ġto o",
      "Ġre ad",
      "p s",
      "o y",
      "ĉ ĉ",
      "Ġw r",
      "i ous",
      "Ġe ven",
      "Ġ very",
      "or s",
      "Ġtw o",
      "Ġs et",
      "Ġb u",
      "t ing",
      "oc k",
      "Ġad d",
      "Ġa ct",
      "Ġd own",
      "Ġd if",
      "Ġm uch",
      "< /",
      "Ġs m",
      "Ġa fter",
      "Ġ ke",
      "' ve",
      "Ġs omet",
      "se lf",
      "n ing",
      "ar k",
      "b e",
      "Ġgo ing",
      "Ġ Ċ",
      "I n",
      "o ll",
      "Ġwhe re",
      "( )",
      "Ġre t",
      "Ġag ain",
      "Ġu nder",
      "Ġwe ll",
      "Ġg u",
      "is s",
      "b s",
      "Ġf l",
      "y s",
      "o ld",
      "Ġf un",
      "Ġst art",
      ": //",
      "Ġthe se",
      "re ad",
      "Ġcom m",
      "Ġm ay",
      "Ġs ay",
      "Ġtr y",
      "Ġcl ass",
      "Ġhe l",
      "\" ,",
      "Ġin st",
      "Ġg ot",
      "Ġv al",
      "Ġb ook",
      "Ġd es",
      "Ġpl ay",
      "is h",
      "e x",
      "ĠC h",
      "an ge",
      "t he",
      "Ġit s",
      "oo l",
      "Ġde f",
      "Ġbe fore",
      "ow s",
      "Ġus ing",
      "on t",
      "on d",
      "w n",
      "u ally",
      "Ġre m",
      "Ġc all",
      "at ch",
      "pe ct",
      "I t",
      "iz e",
      "Ġha nd",
      "Ġst ill",
      "Ġst r",
      "le ct",
      "ĠS t",
      "u al",
      "c i",
      "c es",
      "Ġp os",
      "ig h",
      "E R",
      "= =",
      "y st",
      "Ġe nd",
      "at er",
      "Ġsomet hing",
      ". âĢĿ",
      "ĠT his",
      "oug ht",
      "th ing",
      "Ġm ost",
      "Ġthr ough",
      "Ġre c",
      "ic t",
      "er t",
      "en er",
      "Ġe m",
      "a h",
      "Ġbe ing",
      "Ġf ind",
      "Ġdif fere",
      "m s",
      "Ġs ame",
      "ot h",
      "at es",
      "Ġhel p",
      "on s",
      "Ġa cc",
      "al k",
      "i x",
      "Ġfe el",
      "if ic",
      "is e",
      "Ġas s",
      "Ġr un",
      "w ay",
      "Ġl ong",
      "i b",
      "a ve",
      "Ġle t",
      "l es",
      "ub lic",
      "h an",
      "Ġc he",
      "i ly",
      "cl ud",
      "i an",
      "n g",
      "y pe",
      "u p",
      "Ġin ter",
      "ar s",
      "Ġc ol",
      "ak ing",
      "Y ou",
      "at ing",
      "p ro",
      "er r",
      "Ġ 6",
      "i ble",
      "yst em",
      "Ġret urn",
      "if e",
      "Ġha pp",
      "c ri",
      "ce pt",
      "c ess",
      "Ġre l",
      "v ent",
      "ĠY ou",
      "t p",
      "itt le",
      "v ing",
      "he n",
      "in ce",
      "s s",
      "ĠI f",
      "c re",
      "Ġch ar",
      "p ut",
      "Ġ :",
      "a x",
      "p en",
      "p r",
      "Ġm od",
      "Ġcon s",
      "Ġ .",
      "I N",
      "_ _",
      "Ġsu pp",
      "b ut",
      "\" >",
      "f ul",
      "w w",
      "Ġg reat",
      "Ġp h",
      "e w",
      "Ġm et",
      "Ġpo int",
      "Ġs im",
      "Ġo b",
      "ĠB ut",
      "' ll",
      "Ġ &",
      "ĠA nd",
      "Ġ âĢ",
      "at ive",
      "Ġpro ble",
      "Ġs l",
      "Ġl ittle",
      "p h",
      "Ġin te",
      "u g",
      "Ġt ake",
      "Ġman y",
      "Ġus ed",
      "Ġth ose",
      "Ġse em",
      "st r",
      "e c",
      "Ġar ound",
      "ĠW e",
      "Ġat t",
      "Ġdid n",
      "Ġre g",
      "c ed",
      "1 0",
      "he s",
      "Ġa c",
      "Ċ ĠĠĠĠĠ",
      "u es",
      "Ġc r",
      "d ay",
      "Ġbe l",
      "Ġd ata",
      "u ck",
      "as ed",
      "Ġ2 01",
      "Ġf in",
      "Ġ /",
      "W hat",
      "Ġl ast",
      "Ġc ur",
      "o ad",
      "Ġn um",
      "e ver",
      "i ed",
      "Ġwh ile",
      "w ard",
      "Ġm ade",
      "m er",
      "ment s",
      "---- ----",
      "Ġl ot",
      "Ġc o",
      "con d",
      "ow ing",
      "Ġyear s",
      "od y",
      "Ġo wn",
      "Ġin t",
      "Ġth ings",
      "Ġdiffere nt",
      "Ġfun ction",
      "! \"",
      "ers on",
      "l ed",
      "ow er",
      "im es",
      "o x",
      "a w",
      "Ġl ist",
      "ul ar",
      "O N",
      "ri end",
      "Ġ ent",
      "it s",
      "Ġf oll",
      "Ġ _",
      "v al",
      "Ġe l",
      "Ġne ver",
      "Ġv ar",
      "n ce",
      "or k",
      "ĊĊ ĠĠĠ",
      "v ed",
      "Ġre al",
      "Ġm in",
      "ot e",
      "( \"",
      "Ġp ut",
      "w ays",
      "Ġ1 0",
      "ic s",
      "Ġn ame",
      "Ġe ach",
      "e ad",
      "re nt",
      "ie ld",
      "Ġf r",
      "i o",
      "le ase",
      "Ġ 7",
      "Ġt ri",
      "ak es",
      "Ġsu ch",
      "we en",
      "Ġd ay",
      "Ġsu b",
      "ag es",
      "s h",
      "Ġde c",
      "v ice",
      "T his",
      "' ,",
      "a pp",
      "Ġqu est",
      "S t",
      "Ġ \\",
      "Ġin s",
      "Ġsu re",
      "Ġm on",
      "Ġhe ad",
      "Ġspe c",
      "a ir",
      "at her",
      "er m",
      "Ġf ound",
      "ol og",
      "i ent",
      "Ġ 8",
      "Ġc re",
      "Ġ //",
      "Ġl ove",
      "e f",
      "Ġth ing",
      "am ple",
      "Ġst ud",
      "as on",
      "Ġbet ter",
      "Ġbet ween",
      "Ġ |",
      "id ent",
      "Ġfe w",
      "il ity",
      "Ġdoes n",
      "re st",
      "Ġb oth",
      "ter n",
      "Ġc or",
      "1 1",
      "Ġre qu",
      "d er",
      "Ġin v",
      "Ġcon f",
      "ic ally",
      "er y",
      "g g",
      "ĠĠĠĠĠĠĠĠ ĠĠĠ",
      "Ġ x",
      "H e",
      "am p",
      "Ġs ur",
      "2 0",
      "Ġc ode",
      "ĊĠĠĠĠĠĠĠĠ ĠĠĠĠĠĠĠ",
      "Ġl ife",
      "ar ch",
      "Ġa p",
      "b r",
      "Ġwith out",
      "Ġf ile",
      "Ġas k",
      "ol ut",
      "Ġtr ans",
      "Ġb it",
      "p os",
      "Ġfor m",
      "Ġan other",
      "' d",
      "ut h",
      "Ġf act",
      "W e",
      "am es",
      "ou p",
      "Ġ et",
      "n y",
      "al s",
      "Ġt est",
      "A T",
      "Ġwh y",
      "a z",
      "m l",
      "v es",
      "Ġth ought",
      "Ġproble m",
      "ĠS he",
      "n er",
      "Ġcom e",
      ", \"",
      "Ġpro du",
      "Ġs ince",
      "Ġg ener",
      "Ġse cond",
      "an y",
      "Ġg l",
      "Ġin clud",
      "o ot",
      "Ġal ways",
      "as h",
      "o pe",
      "h od",
      "Ġp erson",
      "ab ly",
      "Ġh igh",
      "ire ct",
      "Ġval ue",
      "te xt",
      "Ġp res",
      "t on",
      "S T",
      "a red",
      "Ġke ep",
      "Ġs ystem",
      "Ġd et",
      "Ġwe e",
      "en se",
      "ru ct",
      "u res",
      "s et",
      "Ġe ff",
      "Ġm ight",
      "Ġg iv",
      ", âĢĿ",
      "Ġf il",
      "d iv",
      "- >",
      "00 0",
      "ĠS o",
      "Ġt urn",
      "Ġne xt",
      "c y",
      "1 2",
      "pe nd",
      "Ġh ard",
      "Ġo pen",
      "g er",
      "Ġ 9",
      "Ġte ll",
      "he re",
      "o id",
      "Ġres ult",
      "Ġf riend",
      "er n",
      "cri pt",
      "** **",
      "d d",
      "R E",
      "Ġb est",
      "Ġg ame",
      "l ess",
      "it ies",
      "Ġc le",
      "v iew",
      "Ġe y",
      "Ġc ase",
      ") )",
      "h y",
      "ur ing",
      "Ġpos s",
      "Ġsh ow",
      "Ġp ublic",
      "al e",
      "Ġc ar",
      "ri but",
      "r ay",
      "Ġc ount",
      "Ġe as",
      "Ġtry ing",
      "( );",
      "re n",
      "Ġcom ple",
      "ĠA l",
      "u ff",
      "Ġo ld",
      "our ce",
      "Ġis s",
      "Ġ1 9",
      "ĠU n",
      "Ġg ive",
      "Ġb ig",
      "Ġ ide",
      "an k",
      "Ġk ind",
      "in s",
      "t s",
      "n a",
      "it ed",
      "u nd",
      "Ċ ĉ",
      "Ġex per",
      "ter s",
      "Ġwor ld",
      "vel op",
      "Ġdo ing",
      ": :",
      "n ect",
      "st and",
      "Ġ X",
      "Ċ ĉĉ",
      "Ġt alk",
      "Ġchar act",
      "e e",
      "n ot",
      "Ġp ol",
      "Ġme an",
      "Ġsm all",
      "ĠThe y",
      "Ġth ough",
      "Ġact ually",
      "at or",
      "ou se",
      "Ġpro v",
      "Ġp ass",
      "Ġel se",
      "p ress",
      "Ġe ar",
      "ĠR e",
      "A R",
      "Ġs ign",
      "Ġnum ber",
      "l ine",
      "it ing",
      "i k",
      "Ġp ost",
      "ic es",
      "in es",
      "o k",
      "\" :",
      "Ġm em",
      "( '",
      "read y",
      "Ġa way",
      "Ġd ist",
      "R e",
      "um ent",
      "Ġm at",
      "o f",
      "Ġst ate",
      "Ġpro b",
      "Ġl oc",
      "Ġt ype",
      "E N",
      "re am",
      "Ġd r",
      "ht tp",
      "Ġst ory",
      "Ġf am",
      "p ar",
      "au g",
      "Ġ err",
      "ĠW hat",
      "Ġinte rest",
      "Ġc our",
      "ĠA s",
      "Ġf ar",
      "Ġany thing",
      "um p",
      "Ġab le",
      "Ġin f",
      "T han",
      "i er",
      "or g",
      "ĠH ow",
      "iz ed",
      "Ġl ine",
      "ĠThe re",
      "Ġp at",
      "ĠĠĠĠ ĠĠ",
      "e ah",
      "Ġth ree",
      "I f",
      "m an",
      "re t",
      "et s",
      "ro l",
      "I T",
      "at ic",
      "en g",
      "O R",
      "Ġcon st",
      "tr ing",
      "in ed",
      "Ġen ough",
      "Ġm ain",
      "Ġ ed",
      "Ġpl ace",
      "n ess",
      "Ġm ov",
      "Ġlook ing",
      "Ġget ting",
      "i red",
      "Ġp ar",
      "Ġsupp ort",
      "Ġc are",
      "A N",
      "Ġal ready",
      "are nt",
      "Ġhapp en",
      "Ġto p",
      "Ġa v",
      "Ġch ange",
      "Ġagain st",
      "form ation",
      "H E",
      "Ġo pt",
      "L E",
      "Ġbu ild",
      "ch ool",
      "Ġsome one",
      "vers ion",
      "Ġs k",
      "Ġh t",
      "id er",
      "Ġd one",
      "A nd",
      "g in",
      "Ġres p",
      "Ġle ft",
      "w ork",
      "Ġcur rent",
      "Ġex pl",
      "gr am",
      "Ġim port",
      "ĠT h",
      "Ġh ome",
      "Ġch ang",
      "B ut",
      "Ġu nt",
      "Ġ2 0",
      "Ġbel ie",
      "it her",
      "l ing",
      "Ġmon th",
      "Ġquest ion",
      "Ġ @",
      "Ġc ou",
      "ro ss",
      "f r",
      "m e",
      "Ġch ild",
      "ate ly",
      "Ġ z",
      "ation al",
      "Ġde velop",
      "n ame",
      "ĠT hat",
      "v ious",
      "us ic",
      "Ġs w",
      "Ġ< /",
      "Ġunder stand",
      "pp ed",
      "Ġbe h",
      "C on",
      "ĠI s",
      "f or",
      "Ġdis c",
      "a ult",
      "Ġst and",
      "Ġmet hod",
      "Ġha ving",
      "1 5",
      "Ġ â",
      "at ure",
      "al th",
      "y n",
      "Ġwor d",
      "ĠT r",
      "y p",
      "ĠĠĠĠĠĠĠĠĠĠĠĠĠĠĠĠ ĠĠĠĠĠĠĠĠĠĠĠĠĠĠĠĠ",
      "ĠF or",
      "Ġpro cess",
      "s w",
      "Ġex pect",
      "t ed",
      "Ġb re",
      "i ence",
      "P ro",
      "t en",
      "em ent",
      "ard s",
      "Ġpre t",
      "Ġm ust",
      "ro ll",
      "Ġf ull",
      "H ow",
      "== ==",
      "s p",
      "1 6",
      "ĠM y",
      "S E",
      "Ġex t",
      "if y",
      "ut e",
      "Ġm ed",
      "Ġw ar",
      "E x",
      "Ġwork ing",
      "h ip",
      "s c",
      "i vers",
      "Ġre f",
      "Ġp ri",
      "id ed",
      "Ġex ample",
      "I D",
      "ĠA r",
      "ad d",
      "com m",
      "m ed",
      "us s",
      "w are",
      "Ġd ri",
      "e xt",
      "Ġche ck",
      "ĠD e",
      "o h",
      "av a",
      "Â ł",
      "Ġpret ty",
      "Ġl ar",
      "Ġ #",
      "ir d",
      "Ġd irect",
      "ent ion",
      "Ġe ver",
      "Ġapp ro",
      "Ġ Q",
      "1 9",
      "] .",
      "k ay",
      "ro id",
      "Ġre p",
      "3 2",
      "Ġw a",
      "o int",
      "Ġey es",
      "ĠS h",
      "Ġe v",
      "Ġ --",
      "Ġe le",
      "Ċ ĠĠ",
      "Ġm om",
      "it er",
      "c ent",
      "5 0",
      "Ġunt il",
      "Ġw om",
      "Ġ2 00",
      "Ġm ess",
      "A L",
      "Ġb ad",
      "in ess",
      "u c",
      "ist s",
      "Ġb us",
      "ert ain",
      "S o",
      "Ġprob ably",
      "Ġl ess",
      "in al",
      "ĠL et",
      "c ial",
      "Ġ ,",
      "Ġf ace",
      "Ġle ad",
      "y m",
      "C h",
      "r ap",
      "Ġb as",
      "Ġpl an",
      "Ġs ide",
      "ww w",
      "Ġt imes",
      "Ġin d",
      "g an",
      "Ġs ays",
      "Ġle vel",
      "Ġ1 2",
      "g s",
      "Ġte am",
      "ĊĊ Ġ",
      "Ġob ject",
      "al ity",
      "ain s",
      "Ġcont in",
      "Ġle ast",
      "el s",
      "Ġseem s",
      "Ġon ce",
      "m y",
      "t ps",
      "Ġor der",
      "one y",
      "m ost",
      "pl ay",
      "e red",
      "ĠC om",
      "Ġre port",
      "is m",
      "1 4",
      "? âĢĿ",
      "1 3",
      "Ġany one",
      "er ing",
      "Ġpart ic",
      "a j",
      "ap s",
      "o ver",
      "Ġevery thing",
      "ent ly",
      "Ġposs ible",
      "Ġs it",
      "Ġre st",
      "u pp",
      "Ġre ason",
      "Ġtr ue",
      "Ġin formation",
      "Ġfoll owing",
      "ĠP ro",
      "Ġn ight",
      "s er",
      "Ġpro per",
      "Ċ ĠĠĠĠ",
      "Ġf ree",
      "bs p",
      "is hed",
      "L et",
      "Ġh um",
      "Ġw on",
      "el t",
      "c hed",
      "m in",
      "Ġle ar",
      "Ġwor ks",
      "Ġv iew",
      "Ð ¾",
      "Ġd uring",
      "Than ks",
      "b l",
      "id d",
      "Ġp ur",
      "r ow",
      "Ġm ult",
      "Ġte xt",
      "Ġpr ot",
      "th is",
      "Ġpro gram",
      "Ġpro ject",
      "Ġm ark",
      "n bsp",
      "Ġis n",
      "l oad",
      "Ġar t",
      "b ers",
      "n et",
      "Ġj ob",
      "Ġcall ed",
      "Ġc ap",
      "as es",
      "N ame",
      "Ġtri ed",
      "Ġc ame",
      "Ġm iss",
      "V iew",
      "Ġnot hing",
      "ion al",
      "3 0",
      "Ġp ower",
      "Ġs chool",
      "us h",
      "Ġwant ed",
      "w h",
      "Ġs ing",
      "00 00",
      "Ġd ays",
      "em ber",
      "b ody",
      "Ġm akes",
      "Ġl ight",
      "olut ion",
      "Ġse lf",
      "ant s",
      "C T",
      "c ur",
      "Ġv is",
      "b y",
      "ot t",
      "mer ic",
      "ust om",
      "get her",
      "Ġe qu",
      "id es",
      "d ate",
      "Ġro om",
      "uth or",
      "Ġstart ed",
      "ain ed",
      "Ġw ent",
      "Ġm ove",
      "i et",
      "ĠS e",
      "re en",
      "I s",
      "Ġus er",
      "Ġl og",
      "ain ing",
      "Ġeff ect",
      "l and",
      "at s",
      "Ġm aking",
      "Ġm ind",
      "A s",
      "ĠW h",
      "ir l",
      "Ġgr oup",
      "Ġcon nect",
      "ch n",
      "o ice",
      "is ed",
      "Ġ es",
      "Ġcour se",
      "! !",
      "H i",
      "Ġide a",
      "Ġ version",
      "at t",
      "olog y",
      "] ,",
      "us ed",
      "Ġwas n",
      "# #",
      "2 5",
      "r ic",
      ".. ..",
      "Ġwee k",
      "E S",
      "Ġto ld",
      "Ġap pe",
      "Ġh our",
      "( -",
      "ar ing",
      "Ġ Z",
      "ĠB r",
      "1 8",
      "cc ess",
      "it al",
      "Ġerr or",
      "al se",
      "Ġy et",
      "ĠC l",
      "Ġ id",
      "Ġc ent",
      "le t",
      "ra w",
      "Ġ Ð",
      "m a",
      "Ġp ack",
      "C l",
      "Ġtoo k",
      "a ut",
      "s on",
      "al f",
      "Ġto gether",
      "Ġs ound",
      "Ġin cre",
      "c hes",
      "Ġad v",
      "u le",
      "c ul",
      "if ied",
      "Ġe ither",
      "os ed",
      "re ct",
      "Ġke y",
      "op y",
      "ail s",
      "Ġdo c",
      "b ack",
      "ĠA ll",
      "con t",
      "Ġh old",
      "Ġcomple te",
      "u red",
      "M y",
      "te nd",
      "f l",
      "Ġre pl",
      "Ġa ut",
      "Ġp ay",
      "ĠA n",
      "T o",
      "Ġh ope",
      "de f",
      "Ġf ield",
      "Ġfam ily",
      "č Ċ",
      "Ġan sw",
      "as ter",
      "I d",
      "Ġwr ong",
      "Ġp ick",
      "Ġm oney",
      "Ġprodu ct",
      "os s",
      "Ġwho le",
      "lic ation",
      "ĠN ew",
      "c he",
      "g y",
      "Ġinst all",
      "ction s",
      "Ġper form",
      "j oy",
      "Ġk ill",
      "Ġm ar",
      "ĊĠĠĠĠĠĠĠĠ ĠĠĠĠĠĠĠĠ",
      "ĠA meric",
      "Ġcomm un",
      "Ġ )",
      "Ġp age",
      "1 7",
      "ull y",
      "O M",
      "Ġd em",
      "iz ation",
      "as k",
      "N o",
      "Ġcre ate",
      "Ġm en",
      "Ġs ol",
      "d it",
      "b ed",
      "or n",
      "Ġu h",
      "en cy",
      "act ion",
      "ĠW hen",
      "an e",
      "2 01",
      "O U",
      "Ġn on",
      "ill ion",
      "Ġt able",
      "Ġt em",
      "F or",
      "L ist",
      "qu e",
      "Ġse en",
      "un g",
      "w here",
      "re f",
      "o ard",
      "Ġn ice",
      "Ġbelie ve",
      "Ġqu ick",
      "it ive",
      "Ġ1 5",
      "f ect",
      "r ight",
      "l ay",
      "6 4",
      "Ġrun ning",
      "Ġimport ant",
      "Ġal most",
      "ac es",
      "S tring",
      "Ġcle ar",
      "Ġin c",
      "I C",
      "âĢ ¦",
      "Ġre ce",
      "he ad",
      "is ion",
      "n ed",
      "Ġsu gg",
      "u se",
      "ro p",
      "Ġsugg est",
      "f e",
      "-------- --------",
      "or ies",
      "Ġo kay",
      "ĠN o",
      "ĊĠĠĠĠĠĠĠĠ ĠĠĠĠĠĠĠĠĠĠĠ",
      "Ġcont rol",
      "Ġdef in",
      "Ġf ore",
      "Ġw ind",
      "L L",
      "Ġsh ort",
      "Ġf our",
      "Ġin de",
      "Ġqu ite",
      "il ar",
      "a pe",
      "f ort",
      "Ġp ast",
      "Ġiss ue",
      "t ime",
      "Ġs ize",
      "fere nce",
      ".. .\"",
      "T hat",
      "C om",
      "l er",
      "g ed",
      "Ġst op",
      "d ata",
      "s ide",
      "ĠT HE",
      "Ġto day",
      ". ,",
      "Ġ1 8",
      "Ġinst ead",
      "er v",
      "Ġo per",
      "ar get",
      "on se",
      "ĊĊ ĠĠĠĠĠĠĠ",
      "Ġcl ose",
      "Ġmay be",
      "Ġevery one",
      "Ġme ans",
      "ail able",
      "Ġen joy",
      "g le",
      "y le",
      "2 2",
      "f ile",
      "Ġb ro",
      "Ġd i",
      "Ġgiv en",
      "Ġgo ver",
      "ov ed",
      "E D",
      "Ġacc ess",
      "Ġcharact er",
      "I S",
      "The re",
      "9 9",
      "Ġmult i",
      "Ġf ine",
      "Ġp op",
      "et er",
      "ig ure",
      "C ont",
      "Ġd iv",
      "ĊĠĠĠĠĠĠĠĠ ĠĠĠĠĠĠĠĠĠĠĠĠĠĠĠĠ",
      "ac he",
      "out h",
      "Ġo pp",
      "Ġ* /",
      "Ġp ull",
      "on na",
      "Ġbre ak",
      "ht ml",
      "Ġc ertain",
      "Ġl ater",
      "i or",
      "Ġb ody",
      "Ġlook ed",
      "Ġe vent",
      "Ġf elt",
      "Ġw ater",
      "um n",
      "Ġb ased",
      "o es",
      "i ke",
      "Ġc ell",
      "in a",
      "Ġl ink",
      "Ġf ix",
      ") :",
      "ivers ity",
      "ow ed",
      "ĠO r",
      "en e",
      "A M",
      "c ol",
      "Ġv ide",
      "Ġlook s",
      "ĠF r",
      "O T",
      "Ġan al",
      "v ate",
      "u x",
      "Ġet c",
      "f un",
      "il es",
      "Ġg irl",
      "f ace",
      "it le",
      "Ġw atch",
      "Ð µ",
      "Ġpres ent",
      "cept ion",
      "ĠC on",
      "Ġ= >",
      "Ġde al",
      "Ġstr ing",
      "T r",
      "2 4",
      "Ġask ed",
      "Ġhim self",
      "Ġht tp",
      "pp ing",
      "Ġlar ge",
      "it ch",
      "Ġso ft",
      "ĠU S",
      "A S",
      "Ġb oy",
      "Ġp rom",
      "Ġw alk",
      "is ter",
      "ĠâĢ ĵ",
      "Ġwith in",
      "iv ity",
      "ĠB l",
      "i ents",
      "Ġspec ific",
      "Ġbus iness",
      "Ġs n",
      "c le",
      "Ġc al",
      "E T",
      "Ġother s",
      "ĠE x",
      "Ġinv est",
      "A P",
      "ou ble",
      "Ġa ff",
      "Ġg onna",
      "IN G",
      "Ġne ar",
      "Ġbu y",
      "r on",
      "Ġsing le",
      "eng th",
      "ward s",
      "Ġvar i",
      "Ġst uff",
      "pl oy",
      "Ġser ver",
      "\" )",
      "Ġw in",
      "Ġfriend s",
      "Ġdes ign",
      "ur al",
      "f ully",
      "Ġgover n",
      "ĠN ot",
      "Ġ >",
      "ci ally",
      "Ġ ve",
      "Ġag o",
      "id th",
      "Ġl im",
      "Ġit em",
      "Ġw ond",
      "ke y",
      "Ġeas y",
      "ver t",
      "Ġmod el",
      "Ġman ag",
      "Ġp lease",
      "Ġhe alth",
      "Ġl ow",
      "Ġcom es",
      "Ġ= =",
      "o le",
      "le ction",
      "Ġgu ys",
      "Ġsu per",
      "Ġk id",
      "ĠB e",
      "ot s",
      "T ype",
      "Ġstud y",
      "Ġh ist",
      "Ġor ig",
      "an n",
      "Ġt er",
      "se l",
      "ĠA t",
      "ne w",
      "ty pe",
      "A r",
      "ĠL e",
      "Ġex p",
      "Ġcomm on",
      "Ġyou ng",
      "Ġser ies",
      "Ġme et",
      "Ġh ouse",
      "Ġrec ord",
      "ĠHow ever",
      "g t",
      "V al",
      "r ist",
      "r ation",
      "Ġr ather",
      "Ġy eah",
      "o ke",
      "Ġal ong",
      "Ġte chn",
      "c ing",
      "im port",
      "Ġh alf",
      "Ð °",
      "v ar",
      "ir on",
      "Ġ1 6",
      "oh n",
      "iv ed",
      "Ġav ailable",
      "ut es",
      "um e",
      "**** ****",
      "Ġar g",
      "Ġmom ent",
      "Ġu m",
      "cl ass",
      "Ġse ver",
      "Ġn et",
      "Ġto t",
      "Ġl aw",
      "Ð ¸",
      "Ġfil es",
      "Ġc a",
      "Ġn orm",
      "4 0",
      "Ġex act",
      "Ġmy self",
      "Ġab ove",
      "8 0",
      "Ġo cc",
      "Ġli ve",
      "p ly",
      "ou d",
      "Ġt yp",
      "ĠO n",
      "Ġcould n",
      "Ġ1 00",
      "A l",
      "Ġhe art",
      "ĠG r",
      "Ġcomp any",
      "R es",
      "ĊĊ ĊĊ",
      "ore d",
      "c o",
      "Ġcom ing",
      "Ġ est",
      "Ġse nd",
      "ĊĠĠĠĠĠĠĠĠ Ġ",
      "ht tps",
      "iv es",
      "ĠC an",
      "] ;",
      "Ġst ep",
      "Ġan n",
      "Ġmonth s",
      "gr ound",
      "Ġstr ong",
      "Ġsay ing",
      "Ġcor rect",
      "Ġab s",
      "Ġm or",
      "Ġread ing",
      "or ry",
      "Ġp ress",
      "Ġcons ider",
      "N D",
      "Ġp ain",
      "Ġre d",
      "r or",
      "ab ility",
      "S h",
      "\" .",
      "ct or",
      "aug h",
      "Ġhand s",
      "Ġloc al",
      "Ġc ustom",
      "M usic",
      "ri ed",
      "ou n",
      "comm end",
      "ple ment",
      "re g",
      "U n",
      "Ġs ort",
      "ab el",
      "Ġexper ience",
      "D ata",
      "Ġneed s",
      "ir t",
      "Ġin it",
      "aj or",
      "Ġper fect",
      "Ġ3 0",
      "Ġp ort",
      "Ġf ail",
      "Ġst ay",
      "Ġsever al",
      "A C",
      "Ġo p",
      "] [",
      "ri es",
      "un ch",
      "i um",
      "ĠT o",
      "Ġre se",
      "Ġansw er",
      "m od",
      "in ation",
      "Ġsim ilar",
      "3 3",
      "W h",
      "Ġins ide",
      "Ġ !",
      "ak en",
      "Ġ ?",
      "Ġst ruct",
      "Ġtr a",
      "Ġf all",
      ") /",
      "C ol",
      "Ġcount ry",
      "Ġkn ew",
      "re w",
      "\" );",
      "Ġgu ess",
      "f er",
      "Ġ %",
      "Ġof ten",
      "Ġcharact ers",
      "I ON",
      "ent ial",
      "Ġsa w",
      "if t",
      "Ġex ist",
      "re qu",
      "pe cially",
      "u ation",
      "e y",
      "Ġc ost",
      "Ġh ig",
      "a id",
      "Ġâ Ī",
      "ĠĠĠĠĠĠĠĠ Ġ",
      "Ġs ent",
      "g ing",
      "6 0",
      "Ġp arent",
      "Ġc ut",
      "Ġt aking",
      "l og",
      "r al",
      "Ġ1 4",
      "Ġc reat",
      "du ct",
      "Ġen c",
      "Ġre view",
      "Ġpro f",
      "Ġbeh ind",
      "Ġrequ est",
      "Ġresult s",
      "Ġse lect",
      "Ġsim ple",
      "ur ther",
      "Ġen g",
      "str ing",
      "and s",
      "Ġneed ed",
      "Ġget s",
      "Ġa w",
      "ang u",
      "em pt",
      "Ġv oid",
      "m it",
      "Ġy es",
      "T h",
      "Ġinclud ing",
      "ord ing",
      "Ġf uck",
      "W hen",
      "a im",
      "Ġp ath",
      "c er",
      "S he",
      "Ġpartic ular",
      "av ing",
      "Ġmat ter",
      "Ġgu y",
      "Ġex press",
      "w ord",
      "âĢ Ķ",
      "Ġp ot",
      "at us",
      "Ġa ir",
      "ut ure",
      "le ep",
      "m on",
      "Ġre commend",
      "ap er",
      "Ġd at",
      "Ġent ire",
      "ic le",
      "2 3",
      "ab les",
      "Ġs um",
      "Ġso on",
      "m iss",
      "Ġrel ations",
      "Ġword s",
      "ĠM ay",
      "itt ing",
      "t d",
      "ar r",
      "Ġl oad",
      "Ġ **",
      "Ð ½",
      "Ġa uthor",
      "Ġcou ple",
      "Ġcan not",
      "Ġac ross",
      "Ġdoc ument",
      "Ġhum an",
      "Ġsu ccess",
      "Ġd am",
      "b ject",
      "Ġim age",
      "Ġs ource",
      "Ġf av",
      "Ġde pend",
      "Ġsp ace",
      "ĠP h",
      "Ġ ident",
      "] (",
      "Ġle g",
      "Ġwhe ther",
      "Ġcont ent",
      "art ment",
      "Ġfr ont",
      "ess ion",
      "oo gle",
      "ud e",
      "Ġhour s",
      "Ġvide o",
      "Ġwr ite",
      "i en",
      "itt en",
      "oc i",
      "an ces",
      "t op",
      "Ġan t",
      "Ġacc ount",
      "D e",
      "us ing",
      "th ough",
      "__ __",
      "Ġdif f",
      "Ġ1 3",
      "N ot",
      "u ild",
      "Ġdo or",
      "Ġbe gin",
      "ite ly",
      "Ġf oc",
      "Ġse x",
      "A t",
      "Ġle ave",
      "ĠI nd",
      "Ġpr act",
      "A n",
      "O h",
      "Ġchild ren",
      "I m",
      "Ġbec ome",
      "ac ed",
      "p x",
      "Ñ Ĥ",
      "um b",
      "Ġd ue",
      "Ġwould n",
      "Ġrem ember",
      "Ġb ox",
      "Ġmin utes",
      "Ġwom en",
      "A D",
      "Ġand roid",
      "is k",
      "f ig",
      "m ing",
      "Ġadd ed",
      "Ġ1 1",
      "Ġadd ress",
      "o in",
      "le y",
      "on es",
      "Ġm ajor",
      "un t",
      "Ġchang es",
      "ac y",
      "ĠM ar",
      "Ġgovern ment",
      "č ĊĠ",
      "Ġs ense",
      "B y",
      "Ġbl ack",
      "Ġpr int",
      "S e",
      "Ġhapp y",
      "ĠâĢ Ķ",
      "Ġmess age",
      "Ġ Î",
      "Ġser vice",
      "Ġiss ues",
      "Ġb ed",
      "ic ro",
      "Ġproble ms",
      "ate g",
      "Ġcl os",
      "is ing",
      "b ook",
      "Ġval ues",
      "pl es",
      "Ġ ...",
      "ur s",
      "l ist",
      "Ġhow ever",
      "Ġpos ition",
      "Ġcom pl",
      "Ġim plement",
      "Ġb ase",
      "v ices",
      "Ġdisc uss",
      "Ġare a",
      "Ġim pro",
      "Ġ Â",
      "g ress",
      "Ġapp lication",
      "o ff",
      "Ġoff ic",
      "ĠI N",
      "Ġbel ow",
      "Ġbr ing",
      "Ġprot ect",
      "n o",
      "Ġh on",
      "> <",
      "Ġb ar",
      "Ġh it",
      "' )",
      "A ll",
      "Ġmulti ple",
      "Ġadd ition",
      "clud e",
      "Ġl ay",
      "ĠThe n",
      "ĠP r",
      "Ġfl o",
      "ul ation",
      "am s",
      "ul es",
      "it or",
      "res ent",
      "ive ly",
      "Ġ1 7",
      "w ith",
      "Ġg ames",
      "2 7",
      "Ġcom b",
      "v iron",
      "Ġf ight",
      "Ġu r",
      "Ġgo es",
      "Ġar ray",
      "Ġm ag",
      "ĠG od",
      "u ro",
      "l ish",
      "Ġthink ing",
      "Ġpre vious",
      "( $",
      "Ġph one",
      "Ġtalk ing",
      "ip s",
      "idd le",
      "Ġgener al",
      "Ġquest ions",
      "li ke",
      "i ally",
      "+ +",
      "Ġf uture",
      "ĠH is",
      "U T",
      "c ode",
      "Ġre le",
      "m et",
      "Ġpri vate",
      "os p",
      "Ġst re",
      "ĠM r",
      "Ġt re",
      "Ġf ood",
      "Ġg en",
      "O n",
      "com p",
      "Ġrelations hip",
      "Ġt reat",
      "our ces",
      "ĠE ng",
      "Ġor gan",
      "Ġsl ow",
      "l ight",
      "ic ult",
      "ĠJ ust",
      "D E",
      "ĠA d",
      "Ġv ol",
      "Ġhe ar",
      "con om",
      "Ġt erm",
      "Ġt akes",
      "p or",
      "val ue",
      "A pp",
      "ate ver",
      "is on",
      "Ġhe ard",
      "T ext",
      "Ġm ention",
      "2 8",
      "b t",
      "Ġbook s",
      "ĠO F",
      "Ġhappen ed",
      "Ġwor th",
      "Ġm illion",
      "4 5",
      "a i",
      "ap ter",
      "ac hed",
      "ret urn",
      "Ġs olution",
      "Ġe lect",
      "ĠAl so",
      "Ġsim ply",
      "b ox",
      "op t",
      "Ġ2 5",
      "Ġs at",
      "it ical",
      "S S",
      "t est",
      "Ġam ount",
      ". )",
      "Ġwa it",
      "Ġplay ing",
      "Ġear ly",
      "W ell",
      "Ð¾ Ð",
      "I I",
      "Ġinv ol",
      "Ġcon c",
      "ĠS p",
      "ab ase",
      "Ġturn ed",
      "le ment",
      "ĠS te",
      "Ġb en",
      "Ġfor ward",
      "u k",
      "Ġt arget",
      "ord er",
      "Ġf ive",
      "ĠO ne",
      "2 1",
      "č ĊĠĠĠ",
      "Ġl ost",
      "c ome",
      "Ġim p",
      "k en",
      "ater ial",
      "ĠT han",
      "Ġfin al",
      "Ġmark et",
      "Ġst ore",
      "Ġes pecially",
      "==== ====",
      "f o",
      "Ġyour self",
      "Ġme as",
      "ĠJ ohn",
      "Ġdes cri",
      "Ġatt ack",
      "Ġknow n",
      "Ġs al",
      "Ġpoint s",
      "Ġo h",
      "r c",
      "Ġse arch",
      "m ore",
      "Ġth ird",
      "g o",
      "re ci",
      "Ġp ie",
      "Ġo bs",
      "Ġg ave",
      "Ġm other",
      "re l",
      "ap h",
      "sel ves",
      "The y",
      "ec ut",
      "Ġto ol",
      "at ter",
      "Ġgr ow",
      "Ġex c",
      "S er",
      "il t",
      "b it",
      "Ġc opy",
      "u ed",
      "ur ation",
      "Ġin put",
      "i ver",
      "Ġexact ly",
      "roll er",
      "th on",
      "C H",
      "ĠC ol",
      "2 00",
      "M L",
      "W ith",
      "Ġcomplete ly",
      "ou ch",
      "Ġlike ly",
      "i od",
      "i ans",
      "Ġp ict",
      "\" ;",
      "ific ation",
      "ĠN ow",
      "upp ose",
      "Ġre du",
      "t ain",
      "Ġcol or",
      "p ri",
      "Ġa ction",
      "cript ion",
      "oo se",
      "Ġ5 0",
      "ĠA m",
      "Ġa ge",
      "Ġspec ial",
      "oo p",
      "ĠD o",
      "3 5",
      "Ġfin ally",
      "ĠCh rist",
      "i que",
      "Ġcomp ut",
      "Ġn ull",
      "Ġf ire",
      "ĠS c",
      "2 6",
      "or th",
      "ĠW ith",
      "Ġd ate",
      "Ġres pect",
      "Ġresp onse",
      "Ġf alse",
      "Ġs ite",
      "Ġv oice",
      "Ġcre ated",
      "ĠR es",
      "Ġr a",
      "id ence",
      "Ġst e",
      "ag er",
      "Ġwr iting",
      "le x",
      "2 9",
      "olut e",
      "viron ment",
      "Ñ ģ",
      "Ġdis play",
      "Ġd ig",
      "Ġwe b",
      "ne y",
      "Ġac cept",
      "un k",
      "Ġde ath",
      "ant ly",
      "Ġinterest ing",
      "Ġf urther",
      "Ġ Ã",
      "Ġha ven",
      "Ġpar am",
      "Ġha ir",
      "in ux",
      "Ġt aken",
      "fun ction",
      "Ġlong er",
      "Ġbe aut",
      "angu age",
      "Ġprov ide",
      "Ġs we",
      "ib ility",
      "ur y",
      "med i",
      "j s",
      "n al",
      "Ġit self",
      "Ġwh ite",
      "Ġdefin itely",
      "Ñ Ģ",
      "as ing",
      "on ent",
      "ĠA pp",
      "Ġwom an",
      "Ġpr ice",
      "am a",
      "pp er",
      "Ġper cent",
      "ĠT e",
      "Ġout side",
      "Ġexpect ed",
      "in ter",
      "Ġsur pr",
      "> </",
      "Ġon es",
      "Ġc ir",
      "ict ion",
      "Ġus ually",
      "ĠP l",
      "R O",
      "Ġout put",
      "Ġnorm al",
      "p re",
      "Ġl a",
      "Ġh ot",
      "Ġph ys",
      "Ġli k",
      "G et",
      "ĠA ny",
      "ar m",
      "Ġwr itten",
      "p ublic",
      "ĠUn iversity",
      "Ġdef ault",
      "Ġdiff icult",
      "and om",
      "I M",
      ". _",
      "ĠA fter",
      "Ġso cial",
      "Val ue",
      "Ġcle an",
      "ĠS er",
      "Ġqu ality",
      "at ures",
      "im al",
      "Ġsign ific",
      "id ual",
      "Ġ `",
      "Ġrequ ire",
      "Ġm ach",
      "ub l",
      "Ġc ard",
      "Ġapp reci",
      "Ġhist ory",
      "j ava",
      "A G",
      "ic ation",
      "Ġh ur",
      "Ġf ast",
      "Ġrese arch",
      "7 0",
      "Ġf ill",
      "Ġconf ig",
      "I G",
      "} ,",
      "i res",
      "st er",
      "Ġsc ri",
      "pl ate",
      "ĠS tring",
      "9 0",
      "ĠI m",
      "1 00",
      "Ġre lease",
      "Ġl and",
      "Ġcom ment",
      "Ġm atch",
      "og rap",
      "ens ion",
      "U R",
      "Ġb ott",
      "Ġfeel ing",
      "Ġc ity",
      "Ġne cess",
      "Ġco ver",
      "Ġsh ows",
      "Ġwee ks",
      "un e",
      "pr int",
      "Ġbl ock",
      "tr act",
      "ff ic",
      "Ġsc reen",
      "B e",
      "g est",
      "u ge",
      "Ġcomm and",
      "o e",
      "l t",
      "Ġd om",
      "Ġcommun ity",
      "Ġsh are",
      "Ġorig inal",
      "ã ģ",
      "Ġde ad",
      "Ġde ep",
      "h aps",
      "it es",
      "id ing",
      "Ġopt ion",
      "Ġd ark",
      "Ġf ather",
      "Ġe conom",
      "I nt",
      "th at",
      "Ġd er",
      "Ġcont r",
      "Ġter ms",
      "Ġs leep",
      "ro du",
      "Ġs qu",
      "Ġm ot",
      "y thon",
      "Ġwork ed",
      "ys is",
      "ĠTr ump",
      "et y",
      "Ġwant s",
      "Ġb reat",
      "Ġm usic",
      "ar i",
      "Ġst yle",
      "p art",
      "Ġin div",
      "Ġs il",
      "ribut e",
      "p ath",
      "r ror",
      "Ġob vious",
      "It em",
      "Ġdet erm",
      "Ġfav or",
      "Ġscri pt",
      "Ġh ost",
      "N ow",
      "Ġdevelop ment",
      "Ġus ers",
      "Ġse ason",
      "us er",
      "sp an",
      "Ġh or",
      "O bject",
      "8 6",
      "Ġinclud e",
      "il i",
      "d o",
      "Ġlear n",
      "Ġtr ack",
      "a f",
      "ĠH ar",
      "q l",
      "$ $",
      "Ġquick ly",
      "w r",
      "b ug",
      "Ġhe av",
      "Ġen er",
      "og n",
      "Ġf air",
      "Ġwh atever",
      "3 4",
      "ll ing",
      "ĊĊ Ċ",
      "A B",
      "Ġse par",
      "Ġph ot",
      "G r",
      "Ġsomet imes",
      "g es",
      "z e",
      "l oc",
      "Ġd est",
      "wh ich",
      "Ġcol umn",
      "} {",
      "ĠâĢ ĺ",
      "Ġhig her",
      "Ġcurrent ly",
      "A ny",
      "s ize",
      "Ġspe nd",
      "Q u",
      "Ġfoll ow",
      "Ġsit uation",
      "7 5",
      "// //",
      "ĠM ed",
      "if f",
      "O L",
      "d own",
      "ra ft",
      "ind ows",
      "ag s",
      "Ġpat ients",
      "Ġspe ak",
      "O S",
      "am er",
      ".. /",
      "Ġbeh av",
      "z y",
      "Ġm ax",
      "it em",
      "3 6",
      "U S",
      "Ġne g",
      "ĊĠĠĠĠĠĠĠĠĠĠĠĠĠĠĠĠ ĠĠĠĠĠĠĠ",
      "Ġwond er",
      "ent al",
      "Ġtot al",
      "Ġup on",
      "t ies",
      "Ġf it",
      "s ub",
      "Ġs ym",
      "Ġatt empt",
      "Ġc amp",
      "Ġ2 4",
      "m p",
      "Ġr ange",
      "Ġl oved",
      "e k",
      "old er",
      "Ġbl ood",
      "Ġmor ning",
      "Ġc ool",
      "Ġam ong",
      "ell o",
      "on y",
      "ob al",
      "ĠM an",
      "Ã ©",
      "Ġser ious",
      "Ġr ad",
      "n um",
      "im ate",
      "Ġ q",
      "res p",
      "at ors",
      "ic y",
      "Ġcon d",
      "ac ing",
      "f rom",
      "re ed",
      "I L",
      "j ust",
      "Ġc ause",
      "A dd",
      "O P",
      "d oc",
      "w ise",
      "ph p",
      "oc r",
      "Ġv ia",
      "ĠA ND",
      "ce ll",
      "li b",
      "Ġlist en",
      "h ow",
      "Ġr out",
      "Ġto wards",
      "Ġf und",
      "H ere",
      "u ly",
      "Ġper iod",
      "ill s",
      "Ġall ow",
      "Ġcl ick",
      "us ion",
      "in clude",
      "Ġgr ound",
      "Ġs orry",
      "Ġim ag",
      "if ul",
      "itt ed",
      "ist ic",
      "Ġv i",
      "le ge",
      "Ġcl aim",
      "Ġdec ided",
      "y ing",
      "Y eah",
      "Y es",
      "c her",
      "s y",
      "iv al",
      "S et",
      "M od",
      "ĠC al",
      "Ġf igure",
      "res h",
      "Ġthan k",
      "ĠR ep",
      "ro om",
      "am ed",
      "ic ense",
      "Ġchang ed",
      "b ar",
      "Ġs us",
      "Ġl ate",
      "ag ed",
      "Ġd ro",
      "Ġs ix",
      "ess age",
      "EN T",
      "or ing",
      "Ġli br",
      "Ġindiv idual",
      "ens ive",
      "H ello",
      "Ġd raw",
      "Ġ$ \\",
      "Ġread y",
      "O r",
      "p ack",
      "l ock",
      "ou ps",
      "Ġl iter",
      "P I",
      "Ġknow s",
      "Ġwind ow",
      "Ġch ance",
      "s l",
      "Ġst atic",
      "ĠF l",
      "Ġrep resent",
      "m at",
      "Ġal one",
      "en c",
      "o on",
      "le g",
      "Ġpart y",
      "Ġabs olute",
      "Ġdiffere nce",
      "a ff",
      "Ġm ass",
      "Ġsub ject",
      "ic ed",
      "ir m",
      "Ġare n",
      "Ġacc ording",
      "Ġinde x",
      "ĠIn st",
      "il ed",
      "Ġset t",
      "Ġup date",
      "Ġf ing",
      "cur ity",
      "Ġass oci",
      "Ġtr ad",
      "Ġbuild ing",
      "d is",
      "Ġgiv es",
      "( ).",
      "F ile",
      "3 8",
      "Ġsa ve",
      "Ġ ver",
      "Ġc ases",
      "in st",
      "Ġm aterial",
      "er o",
      "Ġsl ight",
      "ĠS ome",
      "it ions",
      "Ġw ays",
      "am ples",
      "Ġcontin ue",
      "ĠAmeric an",
      "n ow",
      "Ġkid s",
      "Ġnew s",
      "C an",
      "Ġsh it",
      "Ġ} ,",
      "Ġg one",
      "av es",
      "aug ht",
      "Ġener gy",
      "Ġh ref",
      "Ġf oot",
      "5 5",
      "b oard",
      "ang er",
      "Ġt ax",
      "W hy",
      "ĠC ar",
      "cul ate",
      "Ġwe bs",
      "Ġr ound",
      "Ġc ult",
      "il it",
      "ast ic",
      "Ġconc ern",
      "pt ion",
      "Ġmem bers",
      "am b",
      "Ġnet work",
      "qu est",
      "Ġcont act",
      "t es",
      "con st",
      "Ġperson al",
      "Ġhon est",
      "ch ie",
      "Ġth read",
      "Ġp le",
      "Ġp red",
      "Ġbr other",
      "re me",
      "Ġav oid",
      "3 7",
      "Ġdist ribut",
      "us es",
      "Ġte ac",
      "Ġseem ed",
      "ch an",
      ") );",
      "4 4",
      "ch o",
      "p ose",
      "Ġh op",
      "Ġresp ons",
      "Ġaff ect",
      "ĠThe se",
      "f ield",
      "3 9",
      "y ear",
      "Ġem ploy",
      "Ġ4 0",
      "Ġli ving",
      "ĠI nt",
      "Ġen vironment",
      "Ġr ate",
      "Ġrequ ired",
      "Ġl ower",
      "Ġon line",
      "Ġs ens",
      "Ġb i",
      "čĊ č",
      "m m",
      "Q L",
      "F r",
      "Ġinf l",
      "Ġreg ard",
      "Ġp aper",
      "! âĢĿ",
      "led ge",
      "Ġappro ach",
      "b all",
      "M an",
      "so le",
      "O f",
      "ĠS ystem",
      "in ary",
      "un ity",
      "Ġcou n",
      "Ġa ud",
      "Ġn ames",
      "Ġmem ory",
      "Ġplay ers",
      "um ents",
      "ic a",
      "Ġl anguage",
      "Ġinterest ed",
      "az ing",
      "Ġwe ight",
      "y ou",
      "Ġe p",
      "Ġben ef",
      "Ġrec ently",
      "Ġc y",
      "Ġgiv ing",
      "Ġbut ton",
      "ind ex",
      "iz ing",
      "Ġim m",
      "Ġop in",
      "ib ly",
      "Ġr isk",
      "Ġw all",
      "or ld",
      "cre t",
      "re m",
      "Ġd en",
      "Ġstand ard",
      "8 8",
      "Ġim medi",
      "he l",
      "Ġthem selves",
      "Ġstud ents",
      "ove red",
      "Ġeas ily",
      "Ġback ground",
      "[ '",
      "Ġele ment",
      "Ġup d",
      "Re g",
      "in put",
      "Ġex cept",
      "Ġey e",
      "I nd",
      "ĠD r",
      "Ġpr im",
      "' );",
      "Ġsoft ware",
      "A A",
      "a e",
      "Ġdat abase",
      "Ġhapp ens",
      "Ġ ign",
      "Ġstart ing",
      "ĠD on",
      "Ġm ap",
      "Ġn od",
      "ic ated",
      "Ġb ab",
      "ĠC ent",
      "D o",
      "Ġp ers",
      "err or",
      "Ġst ra",
      "Ġw ish",
      "/ *",
      "Ġparent s",
      "Ġnot e",
      "Ġar m",
      "Ġperform ance",
      "Ġatt ention",
      "Ġcl ient",
      "n ces",
      "fr ac",
      "Ġproper ty",
      "is es",
      "Ġfe ll",
      "Cl ass",
      "Ġ/ >",
      "Ġass um",
      "ĠT H",
      "Ġst o",
      "ĠM e",
      "p oint",
      "Ġopt ions",
      "ver age",
      "Ġeff ort",
      "en ces",
      "m ap",
      "~ ~",
      "ĠĠĠĠĠĠĠĠ ĠĠĠĠĠĠĠ",
      "h a",
      "tern al",
      "Ġmed ia",
      "Ġrel ated",
      "Ġh uge",
      "Ġem ail",
      "Ġpos itive",
      "Ġs on",
      "F F",
      "Ġse qu",
      "Ġrece ived",
      "Ġvar ious",
      "_ {",
      "Ġb all",
      "T ER",
      "ĠE n",
      "Ġt itle",
      "Ġro le",
      "Ġc ross",
      "Ġcon text",
      "miss ion",
      "Ġp an",
      "Ġor g",
      "li er",
      "ab or",
      "Ġk iss",
      "Ġcomp et",
      "Ġan g",
      "Ġext ra",
      "u f",
      "Ġinst ance",
      "Ġfr ame",
      "ad a",
      "olog ical",
      "ie f",
      "/ >",
      "Ġl ines",
      "Ġag ree",
      "Ġt ouch",
      "= '",
      "m ail",
      "Ġd a",
      "il ities",
      "Ġde cl",
      "ic ate",
      "ĠW ill",
      "## ##",
      "ĠP er",
      "Ġplay er",
      "6 6",
      "augh ter",
      "Ġ ut",
      "Ġn at",
      "b b",
      "Ġappe ar",
      "ign ed",
      "ub e",
      "Ċĉĉ ĉ",
      "Ġch all",
      "Ġex tend",
      "t a",
      "Ġhe ll",
      "ain er",
      "Ġus es",
      "w o",
      "Ġb o",
      "at form",
      "He y",
      "ĠN e",
      "ad es",
      "Ġsee ing",
      "Ċĉĉ ĉĉ",
      "w hat",
      "per ty",
      "C C",
      "Ġht tps",
      "m b",
      "c an",
      "Ġke pt",
      "ar ter",
      "Ġm is",
      "s cript",
      "Ġdr ink",
      "Ġed uc",
      "Ġ ill",
      "Ġrec ent",
      "Ġsa fe",
      "O ne",
      "et ers",
      "Ġu nd",
      "Ġc ry",
      "Ġstra ight",
      "Ġval id",
      "I P",
      "s ing",
      "Ġplay ed",
      "C he",
      "Ġc at",
      "Ġcom fort",
      "or ks",
      "Ġmiss ing",
      "ĠâĪ Ĵ",
      "uro pe",
      "Ġdri ve",
      "ik i",
      "it ut",
      "ĠQ u",
      "Ġex ecut",
      "Ġaut om",
      "Ġbeaut iful",
      "Ġspe ed",
      "E n",
      "Ġpur ch",
      "a it",
      "Ġg od",
      "Ġbe com",
      "Ġm iddle",
      "T ime",
      "O W",
      "Ġf an",
      "Ġh y",
      "Ġl at",
      "Ġimpro ve",
      "Ġ- >",
      "ĠH er",
      "Ġnum bers",
      "Ġmov ing",
      "ep artment",
      "Ġhe ld",
      "Ġ! =",
      "Ġsupp osed",
      "Ġl ack",
      "Ġsk in",
      "I R",
      "ect ion",
      "Ġev ents",
      "Ġde v",
      "9 5",
      "Ġpol ice",
      "Ġdet ails",
      "l im",
      "Ġm outh",
      "Ġint rodu",
      "Ġanal ysis",
      "ru gg",
      "l s",
      "Ġinvest ig",
      "Ġc oll",
      "Ġl uck",
      "V E",
      "Ġfor ce",
      "Ġide as",
      "d f",
      "Ġc atch",
      "E rror",
      "Ġdirect ly",
      "Ġact iv",
      "Ġpack age",
      "Ġr andom",
      "4 8",
      "pe c",
      "im um",
      "ĠP e",
      "Ġm er",
      "Ġind ust",
      "Ġs ong",
      "Ġpot ential",
      "m ath",
      "ar ies",
      "$ .",
      "J ust",
      "Ġd ou",
      "Ġfeel s",
      "l ink",
      "c ount",
      "ĠB y",
      "m ber",
      "Ġl ength",
      "ain t",
      "F orm",
      "Ġact ual",
      "Ġd ire",
      "Ex ception",
      "K ey",
      "et h",
      "A d",
      "yn am",
      "c ks",
      "h ost",
      "Ġinit ial",
      "Ġhand le",
      "Ġcomp an",
      "S P",
      "Ġset ting",
      "D on",
      "6 5",
      "Ġst ri",
      "Ġform at",
      "Ġmach ine",
      "Ġsu bs",
      "ic ks",
      "ĠR E",
      "ag ue",
      "Ġsh ot",
      "osp ital",
      "Ġfoc us",
      "Ġde vice",
      "pt y",
      "p y",
      "as ons",
      "3 1",
      "m en",
      "Ġa chie",
      "P h",
      "Ġreport ed",
      "Ġfe atures",
      "d om",
      "Ġcell s",
      "Ġcomple x",
      "Ġpart s",
      "ly ing",
      "ec ause",
      "ĠS T",
      "s u",
      "Ġmov ie",
      "Ġbe gan",
      "Ġfe ed",
      "ĠM in",
      "er ved",
      "Ġinclud ed",
      "ĠM c",
      "ce ed",
      "d b",
      "Ġqu e",
      "T H",
      "O D",
      "Ġbu ilt",
      "ĠĠĠĠĠĠĠĠ ĠĠ",
      "Ġitem s",
      "Ġli ves",
      "Ġd ouble",
      "ch ar",
      "Ġoff ice",
      "7 7",
      "Ġopp ort",
      "ag ing",
      "Ġcom ments",
      "p ite",
      "ri x",
      "Ġbr ought",
      "Ġb ought",
      "ĠE ven",
      "ch ange",
      "Ġsh own",
      "Ġno vel",
      "Ġg un",
      "Ġsm ile",
      "ag n",
      "r un",
      "d es",
      "er al",
      "st ruct",
      "e v",
      "c ast",
      "Ġc red",
      "par am",
      "Ġgr oups",
      "iet y",
      "Ġs y",
      "' ]",
      "Ġd ie",
      "air s",
      "Ġd rop",
      "Ġl oss",
      "Ġto wn",
      "yn c",
      "Ġincre ase",
      ": **",
      "N S",
      "n es",
      "o ber",
      "ĠE very",
      "Ġpro pos",
      "Ġv ot",
      "il s",
      "Ġro ll",
      "Ġrem ain",
      "Ġr an",
      "' :",
      "Ġem ot",
      "Ġse curity",
      "Ġvari able",
      "Ġart icle",
      "0 5",
      "Ġam azing",
      "Ġreg ular",
      "Than k",
      "Ġbl ue",
      "Ġoff er",
      "Ġde p",
      "Ġbas ically",
      "Ġstate ment",
      "ar a",
      "Ġm ode",
      "Ġmov ed",
      "ĠF e",
      "Ġrec ogn",
      "Ġd ru",
      "it ter",
      "Ġmethod s",
      "ide red",
      "Ġvi ol",
      "p ace",
      ") *",
      "Ġinte gr",
      "id ay",
      "Ġpo or",
      "AT E",
      "ĠĠĠĠĠĠĠĠ ĠĠĠĠ",
      "Ġwebs ite",
      "Ġwatch ing",
      "C L",
      "Ġpl ug",
      "Ġrem ove",
      "Ġon to",
      "att le",
      "al es",
      "as te",
      "ĠC ont",
      "Ġexper ien",
      "ĠW hy",
      "Ġtr ust",
      "Ġtyp es",
      "an a",
      "ear ch",
      "us hed",
      "n s",
      "y l",
      "ound s",
      "op s",
      "b and",
      "Ġser vices",
      "A fter",
      "Ġpro gress",
      "Ġse ction",
      "Ġh om",
      "9 8",
      "b ing",
      "m ar",
      "Ġw ide",
      "ur ch",
      "Ġch oice",
      "lect ed",
      "Ġb oard",
      ": \"",
      "Ġconnect ion",
      "v ant",
      "P lease",
      "t able",
      "n ers",
      "g n",
      "Ġro ad",
      "Ġcons idered",
      "ĠR ed",
      "Ġ ;",
      "Ġe at",
      "U LL",
      "w idth",
      "en ed",
      "^ {",
      "Ġsw itch",
      "T est",
      "Ġm ix",
      "r ing",
      "A ct",
      "ĠThan ks",
      "Ġl o",
      "Ġoffic ial",
      "ĠG u",
      "g en",
      "def ine",
      "Ġgr ab",
      "Ġpie ce",
      "Ġuse ful",
      "Ġlear ning",
      "c al",
      "at ory",
      "Ġr ow",
      "Ġany way",
      "ĠG e",
      "Ġqu ery",
      "ap t",
      "P r",
      "Ġexpress ion",
      "ĠE urope",
      "ĠW indows",
      "Ġ vers",
      "Ġknow ledge",
      "Ġdown load",
      "A Y",
      "Ġl ock",
      "ar ily",
      "ru ction",
      "x x",
      "Ġst ream",
      "Ġstruct ure",
      "Ġlibr ary",
      "im in",
      "Ġext reme",
      "' ;",
      "Ġw ife",
      "H T",
      "Ġcomput er",
      "ĠC he",
      "is hing",
      "an ch",
      "Con text",
      "Ġpict ure",
      "ru pt",
      "0 4",
      "P ath",
      "Ġthan ks",
      "Ġ ess",
      "Ġbegin ning",
      "b ase",
      "Ġde g",
      "ab led",
      "Ġdef ined",
      "N A",
      "******** ********",
      "ous ly",
      "M et",
      "ĠH ere",
      "L e",
      "In st",
      "Ġpol itical",
      "St ate",
      "Ġhe ight",
      "Ġm id",
      "Ġpick ed",
      "Ġp ubl",
      "Ġ& &",
      "ĠI S",
      "se qu",
      "Ġnot ice",
      "an ced",
      "Ġst ates",
      "le te",
      "so ft",
      "Ġal though",
      "re et",
      "in ing",
      "V ER",
      "Ġbott om",
      "ĠAmeric a",
      "Ġd ream",
      "ern el",
      "Ġw at",
      "Ġadv ance",
      "fort un",
      "E M",
      "Ġimmedi ately",
      "Ġprov ided",
      "Ġdis e",
      "Ġme chan",
      "ĠB ar",
      "Ġdam age",
      "Ġsc he",
      "Ġcond ition",
      "Ġt ree",
      "im ent",
      "6 7",
      "im g",
      "Ġab ility",
      "dd en",
      "Ġb ur",
      "gr oup",
      "v oid",
      "Ġpl aces",
      "al ing",
      "Ġc e",
      "Ġme ant",
      "Ġeas ier",
      "Ġs un",
      "ĠUn ited",
      "ĠY ork",
      "Ġlim it",
      "er ve",
      "Ġj oin",
      "Ġst ories",
      "st art",
      "Ġre ference",
      "Ġsystem s",
      "P ar",
      "p ost",
      "Ġnecess ary",
      "pl it",
      "Ġcomp ared",
      "b ased",
      "in ally",
      "con fig",
      "Ġj ud",
      "Ġre pe",
      "am ent",
      "port s",
      "Ġslight ly",
      "F rom",
      "u z",
      "id ge",
      "Ġwa iting",
      "P S",
      "d ed",
      "ĠA ss",
      "g l",
      "Ġall owed",
      "Ġdec ision",
      "Ġa verage",
      "tr ans",
      "Ġresp ond",
      "Ġeng ine",
      "ĠMay be",
      "ic on",
      "Ġfunction s",
      "Ġinvol ved",
      "Ġm ist",
      "Ġtra vel",
      "Ġnot iced",
      "Ġc and",
      "le ft",
      "Ġar ri",
      "in y",
      "P E",
      "Ġad min",
      "ann el",
      "Ġfe et",
      "x y",
      "t em",
      "qu ery",
      "Ġsu dden",
      "Ġfavor ite",
      "Ġpri or",
      "O ver",
      "Ġask ing",
      "Ġsh oot",
      "ĠN OT",
      "Ġ\" \"",
      "Com p",
      "4 7",
      "r ide",
      "st ate",
      "ĠG et",
      "ir th",
      "Ġlik ed",
      "av ed",
      "Ġar ms",
      "c all",
      "i us",
      "Ġp atch",
      "Ġb al",
      "und red",
      "Ġmention ed",
      "a ur",
      "Ġso ci",
      "D ef",
      "Ġde li",
      "Ġb oo",
      "s um",
      "Ġfe ature",
      "il ter",
      "de red",
      "ud d",
      "Ġear lier",
      "Ġpartic ip",
      "ver se",
      "Ġc ra",
      "Ġ Ï",
      "Ġsound s",
      "Ġh ate",
      "Ġimp act",
      "Ġro ot",
      "Ġre v",
      "9 7",
      "Ġbec ame",
      "ke nd",
      "g u",
      "Ð »",
      "ĠP res",
      "a el",
      "de v",
      "r is",
      "E vent",
      "ent y",
      "il ing",
      "Ġ} );",
      "oc ol",
      "Ġfact ors",
      "Ġher self",
      "Ġw idth",
      "ind ing",
      "in ner",
      "a res",
      "Ġopin ion",
      "Ġproduct s",
      "cont ent",
      "b uild",
      "Ġfor mer",
      "Ġt on",
      "ĠO h",
      "Ġj ava",
      "Ġim ages",
      "Ġst atus",
      "Ġrel ative",
      "ĠP C",
      "dit ions",
      "Ġlevel s",
      "ĠV al",
      "Ġsu ff",
      "[ ]",
      "ol ve",
      "x ml",
      "Ġ: )",
      "in o",
      "op h",
      "Ġc ook",
      "Ġgr aph",
      "Ġan im",
      "Ġtreat ment",
      "Ġsp ent",
      "Ġcon ditions",
      "Ġt en",
      "Ġmeet ing",
      "ĊĊ ĠĠĠĠĠĠĠĠĠĠĠ",
      "9 6",
      "ore s",
      "C E",
      "ial og",
      "Ġf em",
      "e es",
      "Ġf requ",
      "b ol",
      "Ġf ac",
      "ĠE d",
      "Ġpres ident",
      "Ġabsolute ly",
      "av id",
      "Ġnear ly",
      "Ġj our",
      "lay out",
      "Ġfuck ing",
      "Ġp en",
      "Ġsignific ant",
      "h and",
      "m as",
      "Ġpass ed",
      "( (",
      "---------------- ----------------",
      "Ġst ar",
      "Ġtr aining",
      "Ġf ig",
      "Ġpre vent",
      "h ood",
      "Ġcons um",
      "re ate",
      "Ġj ump",
      "ult s",
      "fr ame",
      "Ġbab y",
      "Ġele ments",
      "ĠD em",
      "ĠI D",
      "Ġflo or",
      "Ġfact or",
      "Ġ2 1",
      "i pe",
      "Ġfoll owed",
      "S D",
      "C al",
      "ĠW ar",
      "Ġper haps",
      "R I",
      "8 5",
      "or row",
      "Ġre ve",
      "ĠP ar",
      "Ġshow ed",
      "ac ement",
      "Ġth ous",
      "Ġl if",
      "tr ue",
      "Ġar ch",
      "Ġpre p",
      "Ġdet ail",
      "? ?",
      "Ġapp lic",
      "Ġch oose",
      "Ġwe l",
      "Ġany more",
      "as p",
      "Ġold er",
      "o om",
      "he t",
      "k n",
      "ou l",
      "o ly",
      "a ul",
      "is f",
      "ĠT O",
      "Ġpull ed",
      "as hing",
      "Ġcall s",
      "Ġso ld",
      "Ġr ules",
      "Ġsp ot",
      "Ġgo al",
      "A re",
      "k y",
      "Ġ( -",
      "Ġp ages",
      "R ead",
      "Ar ray",
      "Ġb an",
      "Ġsur v",
      "Ġb oot",
      "ĠCh ar",
      "Ġcompan ies",
      "ĠWh ile",
      "Ġcl osed",
      "Ġvis it",
      "Ġexpl ain",
      "P L",
      "Ġc old",
      "ĠL ist",
      "oc ks",
      "ĠSt ate",
      "Ġm ail",
      "Ġcertain ly",
      "D ate",
      "Ġgl obal",
      "Ġwor ry",
      "Im age",
      "O ST",
      "um ber"
    ]
  }
}