{
  "version": "1.0",
  "truncation": null,
  "padding": null,
  "added_tokens": [
    {
      "id": 0,
      "content": "<|begin_of_text|>",
      "single_word": false,
      "lstrip": false,
      "rstrip": false,
      "normalized": false,
      "special": true
    },
    {
      "id": 1,
      "content": "<|end_of_text|>",
      "single_word": false,
      "lstrip": false,
      "rstrip": false,
      "normalized": false,
      "special": true
    },
    {
      "id": 2,
      "content": "<|reserved_special_token_0|>",
      "single_word": false,
      "lstrip": false,
      "rstrip": false,
      "normalized": false,
      "special": true
    },
    {
      "id": 3,
      "content": "<|reserved_special_token_1|>",
      "single_word": false,
      "lstrip": false,
      "rstrip": false,
      "normalized": false,
      "special": true
    },
    {
      "id": 4,
      "content": "<|reserved_special_token_2|>",
      "single_word": false,
      "lstrip": false,
      "rstrip": false,
      "normalized": false,
      "special": true
    },
    {
      "id": 5,
      "content": "<|reserved_special_token_3|>",
      "single_word": false,
      "lstrip": false,
      "rstrip": false,
      "normalized": false,
      "special": true
    },
    {
      "id": 6,
      "content": "<|start_header_id|>",
      "single_word": false,
      "lstrip": false,
      "rstrip": false,
      "normalized": false,
      "special": true
    },
    {
      "id": 7,
      "content": "<|end_header_id|>",
      "single_word": false,
      "lstrip": false,
      "rstrip": false,
      "normalized": false,
      "special": true
    },
    {
      "id": 8,
      "content": "<|reserved_special_token_4|>",
      "single_word": false,
      "lstrip": false,
      "rstrip": false,
      "normalized": false,
      "special": true
    },
    {
      "id": 9,
      "content": "<|eot_id|>",
      "single_word": false,
      "lstrip": false,
      "rstrip": false,
      "normalized": false,
      "special": true
    },
    {
      "id": 10,
      "content": "<|reserved_special_token_5|>",
      "single_word": false,
      "lstrip": false,
      "rstrip": false,
      "normalized": false,
      "special": true
    },
    {
      "id": 11,
      "content": "<|reserved_special_token_6|>",
      "single_word": false,
      "lstrip": false,
      "rstrip": false,
      "normalized": false,
      "special": true
    },
    {
      "id": 12,
      "content": "<|reserved_special_token_7|>",
      "single_word": false,
      "lstrip": false,
      "rstrip": false,
      "normalized": false,
      "special": true
    },
    {
      "id": 13,
      "content": "<|reserved_special_token_8|>",
      "single_word": false,
      "lstrip": false,
      "rstrip": false,
      "normalized": false,
      "special": true
    },
    {
      "id": 14,
      "content": "<|reserved_special_token_9|>",
      "single_word": false,
      "lstrip": false,
      "rstrip": false,
      "normalized": false,
      "special": true
    },
    {
      "id": 15,
      "content": "<|reserved_special_token_10|>",
      "single_word": false,
      "lstrip": false,
      "rstrip": false,
      "normalized": false,
      "special": true
    },
    {
      "id": 16,
      "content": "<|reserved_special_token_11|>",
      "single_word": false,
      "lstrip": false,
      "rstrip": false,
      "normalized": false,
      "special": true
    },
    {
      "id": 17,
      "content": "<|reserved_special_token_12|>",
      "single_word": false,
      "lstrip": false,
      "rstrip": false,
      "normalized": false,
      "special": true
    },
    {
      "id": 18,
      "content": "<|reserved_special_token_13|>",
      "single_word": false,
      "lstrip": false,
      "rstrip": false,
      "normalized": false,
      "special": true
    },
    {
      "id": 19,
      "content": "<|reserved_special_token_14|>",
      "single_word": false,
      "lstrip": false,
      "rstrip": false,
      "normalized": false,
      "special": true
    },
    {
      "id": 20,
      "content": "<|reserved_special_token_15|>",
      "single_word": false,
      "lstrip": false,
      "rstrip": false,
      "normalized": false,
      "special": true
    },
    {
      "id": 21,
      "content": "<|reserved_special_token_16|>",
      "single_word": false,
      "lstrip": false,
      "rstrip": false,
      "normalized": false,
      "special": true
    },
    {
      "id": 22,
      "content": "<|reserved_special_token_17|>",
      "single_word": false,
      "lstrip": false,
      "rstrip": false,
      "normalized": false,
      "special": true
    },
    {
      "id": 23,
      "content": "<|reserved_special_token_18|>",
      "single_word": false,
      "lstrip": false,
      "rstrip": false,
      "normalized": false,
      "special": true
    },
    {
      "id": 24,
      "content": "<|reserved_special_token_19|>",
      "single_word": false,
      "lstrip": false,
      "rstrip": false,
      "normalized": false,
      "special": true
    },
    {
      "id": 25,
      "content": "<|reserved_special_token_20|>",
      "single_word": false,
      "lstrip": false,
      "rstrip": false,
      "normalized": false,
      "special": true
    },
    {
      "id": 26,
      "content": "<|reserved_special_token_21|>",
      "single_word": false,
      "lstrip": false,
      "rstrip": false,
      "normalized": false,
      "special": true
    },
    {
      "id": 27,
      "content": "<|reserved_special_token_22|>",
      "single_word": false,
      "lstrip": false,
      "rstrip": false,
      "normalized": false,
      "special": true
    },
    {
      "id": 28,
      "content": "<|reserved_special_token_23|>",
      "single_word": false,
      "lstrip": false,
      "rstrip": false,
      "normalized": false,
      "special": true
    },
    {
      "id": 29,
      "content": "<|reserved_special_token_24|>",
      "single_word": false,
      "lstrip": false,
      "rstrip": false,
      "normalized": false,
      "special": true
    },
    {
      "id": 30,
      "content": "<|reserved_special_token_25|>",
      "single_word": false,
      "lstrip": false,
      "rstrip": false,
      "normalized": false,
      "special": true
    },
    {
      "id": 31,
      "content": "<|reserved_special_token_26|>",
      "single_word": false,
      "lstrip": false,
      "rstrip": false,
      "normalized": false,
      "special": true
    },
    {
      "id": 32,
      "content": "<|reserved_special_token_27|>",
      "single_word": false,
      "lstrip": false,
      "rstrip": false,
      "normalized": false,
      "special": true
    },
    {
      "id": 33,
      "content": "<|reserved_special_token_28|>",
      "single_word": false,
      "lstrip": false,
      "rstrip": false,
      "normalized": false,
      "special": true
    },
    {
      "id": 34,
      "content": "<|reserved_special_token_29|>",
      "single_word": false,
      "lstrip": false,
      "rstrip": false,
      "normalized": false,
      "special": true
    },
    {
      "id": 35,
      "content": "<|reserved_special_token_30|>",
      "single_word": false,
      "lstrip": false,
      "rstrip": false,
      "normalized": false,
      "special": true
    },
    {
      "id": 36,
      "content": "<|reserved_special_token_31|>",
      "single_word": false,
      "lstrip": false,
      "rstrip": false,
      "normalized": false,
      "special": true
    },
    {
      "id": 37,
      "content": "<|reserved_special_token_32|>",
      "single_word": false,
      "lstrip": false,
      "rstrip": false,
      "normalized": false,
      "special": true
    },
    {
      "id": 38,
      "content": "<|reserved_special_token_33|>",
      "single_word": false,
      "lstrip": false,
      "rstrip": false,
      "normalized": false,
      "special": true
    },
    {
      "id": 39,
      "content": "<|reserved_special_token_34|>",
      "single_word": false,
      "lstrip": false,
      "rstrip": false,
      "normalized": false,
      "special": true
    },
    {
      "id": 40,
      "content": "<|reserved_special_token_35|>",
      "single_word": false,
      "lstrip": false,
      "rstrip": false,
      "normalized": false,
      "special": true
    },
    {
      "id": 41,
      "content": "<|reserved_special_token_36|>",
      "single_word": false,
      "lstrip": false,
      "rstrip": false,
      "normalized": false,
      "special": true
    },
    {
      "id": 42,
      "content": "<|reserved_special_token_37|>",
      "single_word": false,
      "lstrip": false,
      "rstrip": false,
      "normalized": false,
      "special": true
    },
    {
      "id": 43,
      "content": "<|reserved_special_token_38|>",
      "single_word": false,
      "lstrip": false,
      "rstrip": false,
      "normalized": false,
      "special": true
    },
    {
      "id": 44,
      "content": "<|reserved_special_token_39|>",
      "single_word": false,
      "lstrip": false,
      "rstrip": false,
      "normalized": false,
      "special": true
    },
    {
      "id": 45,
      "content": "<|reserved_special_token_40|>",
      "single_word": false,
      "lstrip": false,
      "rstrip": false,
      "normalized": false,
      "special": true
    },
    {
      "id": 46,
      "content": "<|reserved_special_token_41|>",
      "single_word": false,
      "lstrip": false,
      "rstrip": false,
      "normalized": false,
      "special": true
    },
    {
      "id": 47,
      "content": "<|reserved_special_token_42|>",
      "single_word": false,
      "lstrip": false,
      "rstrip": false,
      "normalized": false,
      "special": true
    },
    {
      "id": 48,
      "content": "<|reserved_special_token_43|>",
      "single_word": false,
      "lstrip": false,
      "rstrip": false,
      "normalized": false,
      "special": true
    },
    {
      "id": 49,
      "content": "<|reserved_special_token_44|>",
      "single_word": false,
      "lstrip": false,
      "rstrip": false,
      "normalized": false,
      "special": true
    },
    {
      "id": 50,
      "content": "<|reserved_special_token_45|>",
      "single_word": false,
      "lstrip": false,
      "rstrip": false,
      "normalized": false,
      "special": true
    },
    {
      "id": 51,
      "content": "<|reserved_special_token_46|>",
      "single_word": false,
      "lstrip": false,
      "rstrip": false,
      "normalized": false,
      "special": true
    },
    {
      "id": 52,
      "content": "<|reserved_special_token_47|>",
      "single_word": false,
      "lstrip": false,
      "rstrip": false,
      "normalized": false,
      "special": true
    },
    {
      "id": 53,
      "content": "<|reserved_special_token_48|>",
      "single_word": false,
      "lstrip": false,
      "rstrip": false,
      "normalized": false,
      "special": true
    },
    {
      "id": 54,
      "content": "<|reserved_special_token_49|>",
      "single_word": false,
      "lstrip": false,
      "rstrip": false,
      "normalized": false,
      "special": true
    },
    {
      "id": 55,
      "content": "<|reserved_special_token_50|>",
      "single_word": false,
      "lstrip": false,
      "rstrip": false,
      "normalized": false,
      "special": true
    },
    {
      "id": 56,
      "content": "<|reserved_special_token_51|>",
      "single_word": false,
      "lstrip": false,
      "rstrip": false,
      "normalized": false,
      "special": true
    },
    {
      "id": 57,
      "content": "<|reserved_special_token_52|>",
      "single_word": false,
      "lstrip": false,
      "rstrip": false,
      "normalized": false,
      "special": true
    },
    {
      "id": 58,
      "content": "<|reserved_special_token_53|>",
      "single_word": false,
      "lstrip": false,
      "rstrip": false,
      "normalized": false,
      "special": true
    },
    {
      "id": 59,
      "content": "<|reserved_special_token_54|>",
      "single_word": false,
      "lstrip": false,
      "rstrip": false,
      "normalized": false,
      "special": true
    },
    {
      "id": 60,
      "content": "<|reserved_special_token_55|>",
      "single_word": false,
      "lstrip": false,
      "rstrip": false,
      "normalized": false,
      "special": true
    },
    {
      "id": 61,
      "content": "<|reserved_special_token_56|>",
      "single_word": false,
      "lstrip": false,
      "rstrip": false,
      "normalized": false,
      "special": true
    },
    {
      "id": 62,
      "content": "<|reserved_special_token_57|>",
      "single_word": false,
      "lstrip": false,
      "rstrip": false,
      "normalized": false,
      "special": true
    },
    {
      "id": 63,
      "content": "<|reserved_special_token_58|>",
      "single_word": false,
      "lstrip": false,
      "rstrip": false,
      "normalized": false,
      "special": true
    },
    {
      "id": 64,
      "content": "<|reserved_special_token_59|>",
      "single_word": false,
      "lstrip": false,
      "rstrip": false,
      "normalized": false,
      "special": true
    },
    {
      "id": 65,
      "content": "<|reserved_special_token_60|>",
      "single_word": false,
      "lstrip": false,
      "rstrip": false,
      "normalized": false,
      "special": true
    },
    {
      "id": 66,
      "content": "<|reserved_special_token_61|>",
      "single_word": false,
      "lstrip": false,
      "rstrip": false,
      "normalized": false,
      "special": true
    },
    {
      "id": 67,
      "content": "<|reserved_special_token_62|>",
      "single_word": false,
      "lstrip": false,
      "rstrip": false,
      "normalized": false,
      "special": true
    },
    {
      "id": 68,
      "content": "<|reserved_special_token_63|>",
      "single_word": false,
      "lstrip": false,
      "rstrip": false,
      "normalized": false,
      "special": true
    },
    {
      "id": 69,
      "content": "<|reserved_special_token_64|>",
      "single_word": false,
      "lstrip": false,
      "rstrip": false,
      "normalized": false,
      "special": true
    },
    {
      "id": 70,
      "content": "<|reserved_special_token_65|>",
      "single_word": false,
      "lstrip": false,
      "rstrip": false,
      "normalized": false,
      "special": true
    },
    {
      "id": 71,
      "content": "<|reserved_special_token_66|>",
      "single_word": false,
      "lstrip": false,
      "rstrip": false,
      "normalized": false,
      "special": true
    },
    {
      "id": 72,
      "content": "<|reserved_special_token_67|>",
      "single_word": false,
      "lstrip": false,
      "rstrip": false,
      "normalized": false,
      "special": true
    },
    {
      "id": 73,
      "content": "<|reserved_special_token_68|>",
      "single_word": false,
      "lstrip": false,
      "rstrip": false,
      "normalized": false,
      "special": true
    },
    {
      "id": 74,
      "content": "<|reserved_special_token_69|>",
      "single_word": false,
      "lstrip": false,
      "rstrip": false,
      "normalized": false,
      "special": true
    },
    {
      "id": 75,
      "content": "<|reserved_special_token_70|>",
      "single_word": false,
      "lstrip": false,
      "rstrip": false,
      "normalized": false,
      "special": true
    },
    {
      "id": 76,
      "content": "<|reserved_special_token_71|>",
      "single_word": false,
      "lstrip": false,
      "rstrip": false,
      "normalized": false,
      "special": true
    },
    {
      "id": 77,
      "content": "<|reserved_special_token_72|>",
      "single_word": false,
      "lstrip": false,
      "rstrip": false,
      "normalized": false,
      "special": true
    },
    {
      "id": 78,
      "content": "<|reserved_special_token_73|>",
      "single_word": false,
      "lstrip": false,
      "rstrip": false,
      "normalized": false,
      "special": true
    },
    {
      "id": 79,
      "content": "<|reserved_special_token_74|>",
      "single_word": false,
      "lstrip": false,
      "rstrip": false,
      "normalized": false,
      "special": true
    },
    {
      "id": 80,
      "content": "<|reserved_special_token_75|>",
      "single_word": false,
      "lstrip": false,
      "rstrip": false,
      "normalized": false,
      "special": true
    },
    {
      "id": 81,
      "content": "<|reserved_special_token_76|>",
      "single_word": false,
      "lstrip": false,
      "rstrip": false,
      "normalized": false,
      "special": true
    },
    {
      "id": 82,
      "content": "<|reserved_special_token_77|>",
      "single_word": false,
      "lstrip": false,
      "rstrip": false,
      "normalized": false,
      "special": true
    },
    {
      "id": 83,
      "content": "<|reserved_special_token_78|>",
      "single_word": false,
      "lstrip": false,
      "rstrip": false,
      "normalized": false,
      "special": true
    },
    {
      "id": 84,
      "content": "<|reserved_special_token_79|>",
      "single_word": false,
      "lstrip": false,
      "rstrip": false,
      "normalized": false,
      "special": true
    },
    {
      "id": 85,
      "content": "<|reserved_special_token_80|>",
      "single_word": false,
      "lstrip": false,
      "rstrip": false,
      "normalized": false,
      "special": true
    },
    {
      "id": 86,
      "content": "<|reserved_special_token_81|>",
      "single_word": false,
      "lstrip": false,
      "rstrip": false,
      "normalized": false,
      "special": true
    },
    {
      "id": 87,
      "content": "<|reserved_special_token_82|>",
      "single_word": false,
      "lstrip": false,
      "rstrip": false,
      "normalized": false,
      "special": true
    },
    {
      "id": 88,
      "content": "<|reserved_special_token_83|>",
      "single_word": false,
      "lstrip": false,
      "rstrip": false,
      "normalized": false,
      "special": true
    },
    {
      "id": 89,
      "content": "<|reserved_special_token_84|>",
      "single_word": false,
      "lstrip": false,
      "rstrip": false,
      "normalized": false,
      "special": true
    },
    {
      "id": 90,
      "content": "<|reserved_special_token_85|>",
      "single_word": false,
      "lstrip": false,
      "rstrip": false,
      "normalized": false,
      "special": true
    },
    {
      "id": 91,
      "content": "<|reserved_special_token_86|>",
      "single_word": false,
      "lstrip": false,
      "rstrip": false,
      "normalized": false,
      "special": true
    },
    {
      "id": 92,
      "content": "<|reserved_special_token_87|>",
      "single_word": false,
      "lstrip": false,
      "rstrip": false,
      "normalized": false,
      "special": true
    },
    {
      "id": 93,
      "content": "<|reserved_special_token_88|>",
      "single_word": false,
      "lstrip": false,
      "rstrip": false,
      "normalized": false,
      "special": true
    },
    {
      "id": 94,
      "content": "<|reserved_special_token_89|>",
      "single_word": false,
      "lstrip": false,
      "rstrip": false,
      "normalized": false,
      "special": true
    },
    {
      "id": 95,
      "content": "<|reserved_special_token_90|>",
      "single_word": false,
      "lstrip": false,
      "rstrip": false,
      "normalized": false,
      "special": true
    },
    {
      "id": 96,
      "content": "<|reserved_special_token_91|>",
      "single_word": false,
      "lstrip": false,
      "rstrip": false,
      "normalized": false,
      "special": true
    },
    {
      "id": 97,
      "content": "<|reserved_special_token_92|>",
      "single_word": false,
      "lstrip": false,
      "rstrip": false,
      "normalized": false,
      "special": true
    },
    {
      "id": 98,
      "content": "<|reserved_special_token_93|>",
      "single_word": false,
      "lstrip": false,
      "rstrip": false,
      "normalized": false,
      "special": true
    },
    {
      "id": 99,
      "content": "<|reserved_special_token_94|>",
      "single_word": false,
      "lstrip": false,
      "rstrip": false,
      "normalized": false,
      "special": true
    },
    {
      "id": 100,
      "content": "<|reserved_special_token_95|>",
      "single_word": false,
      "lstrip": false,
      "rstrip": false,
      "normalized": false,
      "special": true
    },
    {
      "id": 101,
      "content": "<|reserved_special_token_96|>",
      "single_word": false,
      "lstrip": false,
      "rstrip": false,
      "normalized": false,
      "special": true
    },
    {
      "id": 102,
      "content": "<|reserved_special_token_97|>",
      "single_word": false,
      "lstrip": false,
      "rstrip": false,
      "normalized": false,
      "special": true
    },
    {
      "id": 103,
      "content": "<|reserved_special_token_98|>",
      "single_word": false,
      "lstrip": false,
      "rstrip": false,
      "normalized": false,
      "special": true
    },
    {
      "id": 104,
      "content": "<|reserved_special_token_99|>",
      "single_word": false,
      "lstrip": false,
      "rstrip": false,
      "normalized": false,
      "special": true
    },
    {
      "id": 105,
      "content": "<|reserved_special_token_100|>",
      "single_word": false,
      "lstrip": false,
      "rstrip": false,
      "normalized": false,
      "special": true
    },
    {
      "id": 106,
      "content": "<|reserved_special_token_101|>",
      "single_word": false,
      "lstrip": false,
      "rstrip": false,
      "normalized": false,
      "special": true
    },
    {
      "id": 107,
      "content": "<|reserved_special_token_102|>",
      "single_word": false,
      "lstrip": false,
      "rstrip": false,
      "normalized": false,
      "special": true
    },
    {
      "id": 108,
      "content": "<|reserved_special_token_103|>",
      "single_word": false,
      "lstrip": false,
      "rstrip": false,
      "normalized": false,
      "special": true
    },
    {
      "id": 109,
      "content": "<|reserved_special_token_104|>",
      "single_word": false,
      "lstrip": false,
      "rstrip": false,
      "normalized": false,
      "special": true
    },
    {
      "id": 110,
      "content": "<|reserved_special_token_105|>",
      "single_word": false,
      "lstrip": false,
      "rstrip": false,
      "normalized": false,
      "special": true
    },
    {
      "id": 111,
      "content": "<|reserved_special_token_106|>",
      "single_word": false,
      "lstrip": false,
      "rstrip": false,
      "normalized": false,
      "special": true
    },
    {
      "id": 112,
      "content": "<|reserved_special_token_107|>",
      "single_word": false,
      "lstrip": false,
      "rstrip": false,
      "normalized": false,
      "special": true
    },
    {
      "id": 113,
      "content": "<|reserved_special_token_108|>",
      "single_word": false,
      "lstrip": false,
      "rstrip": false,
      "normalized": false,
      "special": true
    },
    {
      "id": 114,
      "content": "<|reserved_special_token_109|>",
      "single_word": false,
      "lstrip": false,
      "rstrip": false,
      "normalized": false,
      "special": true
    },
    {
      "id": 115,
      "content": "<|reserved_special_token_110|>",
      "single_word": false,
      "lstrip": false,
      "rstrip": false,
      "normalized": false,
      "special": true
    },
    {
      "id": 116,
      "content": "<|reserved_special_token_111|>",
      "single_word": false,
      "lstrip": false,
      "rstrip": false,
      "normalized": false,
      "special": true
    },
    {
      "id": 117,
      "content": "<|reserved_special_token_112|>",
      "single_word": false,
      "lstrip": false,
      "rstrip": false,
      "normalized": false,
      "special": true
    },
    {
      "id": 118,
      "content": "<|reserved_special_token_113|>",
      "single_word": false,
      "lstrip": false,
      "rstrip": false,
      "normalized": false,
      "special": true
    },
    {
      "id": 119,
      "content": "<|reserved_special_token_114|>",
      "single_word": false,
      "lstrip": false,
      "rstrip": false,
      "normalized": false,
      "special": true
    },
    {
      "id": 120,
      "content": "<|reserved_special_token_115|>",
      "single_word": false,
      "lstrip": false,
      "rstrip": false,
      "normalized": false,
      "special": true
    },
    {
      "id": 121,
      "content": "<|reserved_special_token_116|>",
      "single_word": false,
      "lstrip": false,
      "rstrip": false,
      "normalized": false,
      "special": true
    },
    {
      "id": 122,
      "content": "<|reserved_special_token_117|>",
      "single_word": false,
      "lstrip": false,
      "rstrip": false,
      "normalized": false,
      "special": true
    },
    {
      "id": 123,
      "content": "<|reserved_special_token_118|>",
      "single_word": false,
      "lstrip": false,
      "rstrip": false,
      "normalized": false,
      "special": true
    },
    {
      "id": 124,
      "content": "<|reserved_special_token_119|>",
      "single_word": false,
      "lstrip": false,
      "rstrip": false,
      "normalized": false,
      "special": true
    },
    {
      "id": 125,
      "content": "<|reserved_special_token_120|>",
      "single_word": false,
      "lstrip": false,
      "rstrip": false,
      "normalized": false,
      "special": true
    },
    {
      "id": 126,
      "content": "<|reserved_special_token_121|>",
      "single_word": false,
      "lstrip": false,
      "rstrip": false,
      "normalized": false,
      "special": true
    },
    {
      "id": 127,
      "content": "<|reserved_special_token_122|>",
      "single_word": false,
      "lstrip": false,
      "rstrip": false,
      "normalized": false,
      "special": true
    },
    {
      "id": 128,
      "content": "<|reserved_special_token_123|>",
      "single_word": false,
      "lstrip": false,
      "rstrip": false,
      "normalized": false,
      "special": true
    },
    {
      "id": 129,
      "content": "<|reserved_special_token_124|>",
      "single_word": false,
      "lstrip": false,
      "rstrip": false,
      "normalized": false,
      "special": true
    },
    {
      "id": 130,
      "content": "<|reserved_special_token_125|>",
      "single_word": false,
      "lstrip": false,
      "rstrip": false,
      "normalized": false,
      "special": true
    },
    {
      "id": 131,
      "content": "<|reserved_special_token_126|>",
      "single_word": false,
      "lstrip": false,
      "rstrip": false,
      "normalized": false,
      "special": true
    },
    {
      "id": 132,
      "content": "<|reserved_special_token_127|>",
      "single_word": false,
      "lstrip": false,
      "rstrip": false,
      "normalized": false,
      "special": true
    },
    {
      "id": 133,
      "content": "<|reserved_special_token_128|>",
      "single_word": false,
      "lstrip": false,
      "rstrip": false,
      "normalized": false,
      "special": true
    },
    {
      "id": 134,
      "content": "<|reserved_special_token_129|>",
      "single_word": false,
      "lstrip": false,
      "rstrip": false,
      "normalized": false,
      "special": true
    },
    {
      "id": 135,
      "content": "<|reserved_special_token_130|>",
      "single_word": false,
      "lstrip": false,
      "rstrip": false,
      "normalized": false,
      "special": true
    },
    {
      "id": 136,
      "content": "<|reserved_special_token_131|>",
      "single_word": false,
      "lstrip": false,
      "rstrip": false,
      "normalized": false,
      "special": true
    },
    {
      "id": 137,
      "content": "<|reserved_special_token_132|>",
      "single_word": false,
      "lstrip": false,
      "rstrip": false,
      "normalized": false,
      "special": true
    },
    {
      "id": 138,
      "content": "<|reserved_special_token_133|>",
      "single_word": false,
      "lstrip": false,
      "rstrip": false,
      "normalized": false,
      "special": true
    },
    {
      "id": 139,
      "content": "<|reserved_special_token_134|>",
      "single_word": false,
      "lstrip": false,
      "rstrip": false,
      "normalized": false,
      "special": true
    },
    {
      "id": 140,
      "content": "<|reserved_special_token_135|>",
      "single_word": false,
      "lstrip": false,
      "rstrip": false,
      "normalized": false,
      "special": true
    },
    {
      "id": 141,
      "content": "<|reserved_special_token_136|>",
      "single_word": false,
      "lstrip": false,
      "rstrip": false,
      "normalized": false,
      "special": true
    },
    {
      "id": 142,
      "content": "<|reserved_special_token_137|>",
      "single_word": false,
      "lstrip": false,
      "rstrip": false,
      "normalized": false,
      "special": true
    },
    {
      "id": 143,
      "content": "<|reserved_special_token_138|>",
      "single_word": false,
      "lstrip": false,
      "rstrip": false,
      "normalized": false,
      "special": true
    },
    {
      "id": 144,
      "content": "<|reserved_special_token_139|>",
      "single_word": false,
      "lstrip": false,
      "rstrip": false,
      "normalized": false,
      "special": true
    },
    {
      "id": 145,
      "content": "<|reserved_special_token_140|>",
      "single_word": false,
      "lstrip": false,
      "rstrip": false,
      "normalized": false,
      "special": true
    },
    {
      "id": 146,
      "content": "<|reserved_special_token_141|>",
      "single_word": false,
      "lstrip": false,
      "rstrip": false,
      "normalized": false,
      "special": true
    },
    {
      "id": 147,
      "content": "<|reserved_special_token_142|>",
      "single_word": false,
      "lstrip": false,
      "rstrip": false,
      "normalized": false,
      "special": true
    },
    {
      "id": 148,
      "content": "<|reserved_special_token_143|>",
      "single_word": false,
      "lstrip": false,
      "rstrip": false,
      "normalized": false,
      "special": true
    },
    {
      "id": 149,
      "content": "<|reserved_special_token_144|>",
      "single_word": false,
      "lstrip": false,
      "rstrip": false,
      "normalized": false,
      "special": true
    },
    {
      "id": 150,
      "content": "<|reserved_special_token_145|>",
      "single_word": false,
      "lstrip": false,
      "rstrip": false,
      "normalized": false,
      "special": true
    },
    {
      "id": 151,
      "content": "<|reserved_special_token_146|>",
      "single_word": false,
      "lstrip": false,
      "rstrip": false,
      "normalized": false,
      "special": true
    },
    {
      "id": 152,
      "content": "<|reserved_special_token_147|>",
      "single_word": false,
      "lstrip": false,
      "rstrip": false,
      "normalized": false,
      "special": true
    },
    {
      "id": 153,
      "content": "<|reserved_special_token_148|>",
      "single_word": false,
      "lstrip": false,
      "rstrip": false,
      "normalized": false,
      "special": true
    },
    {
      "id": 154,
      "content": "<|reserved_special_token_149|>",
      "single_word": false,
      "lstrip": false,
      "rstrip": false,
      "normalized": false,
      "special": true
    },
    {
      "id": 155,
      "content": "<|reserved_special_token_150|>",
      "single_word": false,
      "lstrip": false,
      "rstrip": false,
      "normalized": false,
      "special": true
    },
    {
      "id": 156,
      "content": "<|reserved_special_token_151|>",
      "single_word": false,
      "lstrip": false,
      "rstrip": false,
      "normalized": false,
      "special": true
    },
    {
      "id": 157,
      "content": "<|reserved_special_token_152|>",
      "single_word": false,
      "lstrip": false,
      "rstrip": false,
      "normalized": false,
      "special": true
    },
    {
      "id": 158,
      "content": "<|reserved_special_token_153|>",
      "single_word": false,
      "lstrip": false,
      "rstrip": false,
      "normalized": false,
      "special": true
    },
    {
      "id": 159,
      "content": "<|reserved_special_token_154|>",
      "single_word": false,
      "lstrip": false,
      "rstrip": false,
      "normalized": false,
      "special": true
    },
    {
      "id": 160,
      "content": "<|reserved_special_token_155|>",
      "single_word": false,
      "lstrip": false,
      "rstrip": false,
      "normalized": false,
      "special": true
    },
    {
      "id": 161,
      "content": "<|reserved_special_token_156|>",
      "single_word": false,
      "lstrip": false,
      "rstrip": false,
      "normalized": false,
      "special": true
    },
    {
      "id": 162,
      "content": "<|reserved_special_token_157|>",
      "single_word": false,
      "lstrip": false,
      "rstrip": false,
      "normalized": false,
      "special": true
    },
    {
      "id": 163,
      "content": "<|reserved_special_token_158|>",
      "single_word": false,
      "lstrip": false,
      "rstrip": false,
      "normalized": false,
      "special": true
    },
    {
      "id": 164,
      "content": "<|reserved_special_token_159|>",
      "single_word": false,
      "lstrip": false,
      "rstrip": false,
      "normalized": false,
      "special": true
    },
    {
      "id": 165,
      "content": "<|reserved_special_token_160|>",
      "single_word": false,
      "lstrip": false,
      "rstrip": false,
      "normalized": false,
      "special": true
    },
    {
      "id": 166,
      "content": "<|reserved_special_token_161|>",
      "single_word": false,
      "lstrip": false,
      "rstrip": false,
      "normalized": false,
      "special": true
    },
    {
      "id": 167,
      "content": "<|reserved_special_token_162|>",
      "single_word": false,
      "lstrip": false,
      "rstrip": false,
      "normalized": false,
      "special": true
    },
    {
      "id": 168,
      "content": "<|reserved_special_token_163|>",
      "single_word": false,
      "lstrip": false,
      "rstrip": false,
      "normalized": false,
      "special": true
    },
    {
      "id": 169,
      "content": "<|reserved_special_token_164|>",
      "single_word": false,
      "lstrip": false,
      "rstrip": false,
      "normalized": false,
      "special": true
    },
    {
      "id": 170,
      "content": "<|reserved_special_token_165|>",
      "single_word": false,
      "lstrip": false,
      "rstrip": false,
      "normalized": false,
      "special": true
    },
    {
      "id": 171,
      "content": "<|reserved_special_token_166|>",
      "single_word": false,
      "lstrip": false,
      "rstrip": false,
      "normalized": false,
      "special": true
    },
    {
      "id": 172,
      "content": "<|reserved_special_token_167|>",
      "single_word": false,
      "lstrip": false,
      "rstrip": false,
      "normalized": false,
      "special": true
    },
    {
      "id": 173,
      "content": "<|reserved_special_token_168|>",
      "single_word": false,
      "lstrip": false,
      "rstrip": false,
      "normalized": false,
      "special": true
    },
    {
      "id": 174,
      "content": "<|reserved_special_token_169|>",
      "single_word": false,
      "lstrip": false,
      "rstrip": false,
      "normalized": false,
      "special": true
    },
    {
      "id": 175,
      "content": "<|reserved_special_token_170|>",
      "single_word": false,
      "lstrip": false,
      "rstrip": false,
      "normalized": false,
      "special": true
    },
    {
      "id": 176,
      "content": "<|reserved_special_token_171|>",
      "single_word": false,
      "lstrip": false,
      "rstrip": false,
      "normalized": false,
      "special": true
    },
    {
      "id": 177,
      "content": "<|reserved_special_token_172|>",
      "single_word": false,
      "lstrip": false,
      "rstrip": false,
      "normalized": false,
      "special": true
    },
    {
      "id": 178,
      "content": "<|reserved_special_token_173|>",
      "single_word": false,
      "lstrip": false,
      "rstrip": false,
      "normalized": false,
      "special": true
    },
    {
      "id": 179,
      "content": "<|reserved_special_token_174|>",
      "single_word": false,
      "lstrip": false,
      "rstrip": false,
      "normalized": false,
      "special": true
    },
    {
      "id": 180,
      "content": "<|reserved_special_token_175|>",
      "single_word": false,
      "lstrip": false,
      "rstrip": false,
      "normalized": false,
      "special": true
    },
    {
      "id": 181,
      "content": "<|reserved_special_token_176|>",
      "single_word": false,
      "lstrip": false,
      "rstrip": false,
      "normalized": false,
      "special": true
    },
    {
      "id": 182,
      "content": "<|reserved_special_token_177|>",
      "single_word": false,
      "lstrip": false,
      "rstrip": false,
      "normalized": false,
      "special": true
    },
    {
      "id": 183,
      "content": "<|reserved_special_token_178|>",
      "single_word": false,
      "lstrip": false,
      "rstrip": false,
      "normalized": false,
      "special": true
    },
    {
      "id": 184,
      "content": "<|reserved_special_token_179|>",
      "single_word": false,
      "lstrip": false,
      "rstrip": false,
      "normalized": false,
      "special": true
    },
    {
      "id": 185,
      "content": "<|reserved_special_token_180|>",
      "single_word": false,
      "lstrip": false,
      "rstrip": false,
      "normalized": false,
      "special": true
    },
    {
      "id": 186,
      "content": "<|reserved_special_token_181|>",
      "single_word": false,
      "lstrip": false,
      "rstrip": false,
      "normalized": false,
      "special": true
    },
    {
      "id": 187,
      "content": "<|reserved_special_token_182|>",
      "single_word": false,
      "lstrip": false,
      "rstrip": false,
      "normalized": false,
      "special": true
    },
    {
      "id": 188,
      "content": "<|reserved_special_token_183|>",
      "single_word": false,
      "lstrip": false,
      "rstrip": false,
      "normalized": false,
      "special": true
    },
    {
      "id": 189,
      "content": "<|reserved_special_token_184|>",
      "single_word": false,
      "lstrip": false,
      "rstrip": false,
      "normalized": false,
      "special": true
    },
    {
      "id": 190,
      "content": "<|reserved_special_token_185|>",
      "single_word": false,
      "lstrip": false,
      "rstrip": false,
      "normalized": false,
      "special": true
    },
    {
      "id": 191,
      "content": "<|reserved_special_token_186|>",
      "single_word": false,
      "lstrip": false,
      "rstrip": false,
      "normalized": false,
      "special": true
    },
    {
      "id": 192,
      "content": "<|reserved_special_token_187|>",
      "single_word": false,
      "lstrip": false,
      "rstrip": false,
      "normalized": false,
      "special": true
    },
    {
      "id": 193,
      "content": "<|reserved_special_token_188|>",
      "single_word": false,
      "lstrip": false,
      "rstrip": false,
      "normalized": false,
      "special": true
    },
    {
      "id": 194,
      "content": "<|reserved_special_token_189|>",
      "single_word": false,
      "lstrip": false,
      "rstrip": false,
      "normalized": false,
      "special": true
    },
    {
      "id": 195,
      "content": "<|reserved_special_token_190|>",
      "single_word": false,
      "lstrip": false,
      "rstrip": false,
      "normalized": false,
      "special": true
    },
    {
      "id": 196,
      "content": "<|reserved_special_token_191|>",
      "single_word": false,
      "lstrip": false,
      "rstrip": false,
      "normalized": false,
      "special": true
    },
    {
      "id": 197,
      "content": "<|reserved_special_token_192|>",
      "single_word": false,
      "lstrip": false,
      "rstrip": false,
      "normalized": false,
      "special": true
    },
    {
      "id": 198,
      "content": "<|reserved_special_token_193|>",
      "single_word": false,
      "lstrip": false,
      "rstrip": false,
      "normalized": false,
      "special": true
    },
    {
      "id": 199,
      "content": "<|reserved_special_token_194|>",
      "single_word": false,
      "lstrip": false,
      "rstrip": false,
      "normalized": false,
      "special": true
    },
    {
      "id": 200,
      "content": "<|reserved_special_token_195|>",
      "single_word": false,
      "lstrip": false,
      "rstrip": false,
      "normalized": false,
      "special": true
    },
    {
      "id": 201,
      "content": "<|reserved_special_token_196|>",
      "single_word": false,
      "lstrip": false,
      "rstrip": false,
      "normalized": false,
      "special": true
    },
    {
      "id": 202,
      "content": "<|reserved_special_token_197|>",
      "single_word": false,
      "lstrip": false,
      "rstrip": false,
      "normalized": false,
      "special": true
    },
    {
      "id": 203,
      "content": "<|reserved_special_token_198|>",
      "single_word": false,
      "lstrip": false,
      "rstrip": false,
      "normalized": false,
      "special": true
    },
    {
      "id": 204,
      "content": "<|reserved_special_token_199|>",
      "single_word": false,
      "lstrip": false,
      "rstrip": false,
      "normalized": false,
      "special": true
    },
    {
      "id": 205,
      "content": "<|reserved_special_token_200|>",
      "single_word": false,
      "lstrip": false,
      "rstrip": false,
      "normalized": false,
      "special": true
    },
    {
      "id": 206,
      "content": "<|reserved_special_token_201|>",
      "single_word": false,
      "lstrip": false,
      "rstrip": false,
      "normalized": false,
      "special": true
    },
    {
      "id": 207,
      "content": "<|reserved_special_token_202|>",
      "single_word": false,
      "lstrip": false,
      "rstrip": false,
      "normalized": false,
      "special": true
    },
    {
      "id": 208,
      "content": "<|reserved_special_token_203|>",
      "single_word": false,
      "lstrip": false,
      "rstrip": false,
      "normalized": false,
      "special": true
    },
    {
      "id": 209,
      "content": "<|reserved_special_token_204|>",
      "single_word": false,
      "lstrip": false,
      "rstrip": false,
      "normalized": false,
      "special": true
    },
    {
      "id": 210,
      "content": "<|reserved_special_token_205|>",
      "single_word": false,
      "lstrip": false,
      "rstrip": false,
      "normalized": false,
      "special": true
    },
    {
      "id": 211,
      "content": "<|reserved_special_token_206|>",
      "single_word": false,
      "lstrip": false,
      "rstrip": false,
      "normalized": false,
      "special": true
    },
    {
      "id": 212,
      "content": "<|reserved_special_token_207|>",
      "single_word": false,
      "lstrip": false,
      "rstrip": false,
      "normalized": false,
      "special": true
    },
    {
      "id": 213,
      "content": "<|reserved_special_token_208|>",
      "single_word": false,
      "lstrip": false,
      "rstrip": false,
      "normalized": false,
      "special": true
    },
    {
      "id": 214,
      "content": "<|reserved_special_token_209|>",
      "single_word": false,
      "lstrip": false,
      "rstrip": false,
      "normalized": false,
      "special": true
    },
    {
      "id": 215,
      "content": "<|reserved_special_token_210|>",
      "single_word": false,
      "lstrip": false,
      "rstrip": false,
      "normalized": false,
      "special": true
    },
    {
      "id": 216,
      "content": "<|reserved_special_token_211|>",
      "single_word": false,
      "lstrip": false,
      "rstrip": false,
      "normalized": false,
      "special": true
    },
    {
      "id": 217,
      "content": "<|reserved_special_token_212|>",
      "single_word": false,
      "lstrip": false,
      "rstrip": false,
      "normalized": false,
      "special": true
    },
    {
      "id": 218,
      "content": "<|reserved_special_token_213|>",
      "single_word": false,
      "lstrip": false,
      "rstrip": false,
      "normalized": false,
      "special": true
    },
    {
      "id": 219,
      "content": "<|reserved_special_token_214|>",
      "single_word": false,
      "lstrip": false,
      "rstrip": false,
      "normalized": false,
      "special": true
    },
    {
      "id": 220,
      "content": "<|reserved_special_token_215|>",
      "single_word": false,
      "lstrip": false,
      "rstrip": false,
      "normalized": false,
      "special": true
    },
    {
      "id": 221,
      "content": "<|reserved_special_token_216|>",
      "single_word": false,
      "lstrip": false,
      "rstrip": false,
      "normalized": false,
      "special": true
    },
    {
      "id": 222,
      "content": "<|reserved_special_token_217|>",
      "single_word": false,
      "lstrip": false,
      "rstrip": false,
      "normalized": false,
      "special": true
    },
    {
      "id": 223,
      "content": "<|reserved_special_token_218|>",
      "single_word": false,
      "lstrip": false,
      "rstrip": false,
      "normalized": false,
      "special": true
    },
    {
      "id": 224,
      "content": "<|reserved_special_token_219|>",
      "single_word": false,
      "lstrip": false,
      "rstrip": false,
      "normalized": false,
      "special": true
    },
    {
      "id": 225,
      "content": "<|reserved_special_token_220|>",
      "single_word": false,
      "lstrip": false,
      "rstrip": false,
      "normalized": false,
      "special": true
    },
    {
      "id": 226,
      "content": "<|reserved_special_token_221|>",
      "single_word": false,
      "lstrip": false,
      "rstrip": false,
      "normalized": false,
      "special": true
    },
    {
      "id": 227,
      "content": "<|reserved_special_token_222|>",
      "single_word": false,
      "lstrip": false,
      "rstrip": false,
      "normalized": false,
      "special": true
    },
    {
      "id": 228,
      "content": "<|reserved_special_token_223|>",
      "single_word": false,
      "lstrip": false,
      "rstrip": false,
      "normalized": false,
      "special": true
    },
    {
      "id": 229,
      "content": "<|reserved_special_token_224|>",
      "single_word": false,
      "lstrip": false,
      "rstrip": false,
      "normalized": false,
      "special": true
    },
    {
      "id": 230,
      "content": "<|reserved_special_token_225|>",
      "single_word": false,
      "lstrip": false,
      "rstrip": false,
      "normalized": false,
      "special": true
    },
    {
      "id": 231,
      "content": "<|reserved_special_token_226|>",
      "single_word": false,
      "lstrip": false,
      "rstrip": false,
      "normalized": false,
      "special": true
    },
    {
      "id": 232,
      "content": "<|reserved_special_token_227|>",
      "single_word": false,
      "lstrip": false,
      "rstrip": false,
      "normalized": false,
      "special": true
    },
    {
      "id": 233,
      "content": "<|reserved_special_token_228|>",
      "single_word": false,
      "lstrip": false,
      "rstrip": false,
      "normalized": false,
      "special": true
    },
    {
      "id": 234,
      "content": "<|reserved_special_token_229|>",
      "single_word": false,
      "lstrip": false,
      "rstrip": false,
      "normalized": false,
      "special": true
    },
    {
      "id": 235,
      "content": "<|reserved_special_token_230|>",
      "single_word": false,
      "lstrip": false,
      "rstrip": false,
      "normalized": false,
      "special": true
    },
    {
      "id": 236,
      "content": "<|reserved_special_token_231|>",
      "single_word": false,
      "lstrip": false,
      "rstrip": false,
      "normalized": false,
      "special": true
    },
    {
      "id": 237,
      "content": "<|reserved_special_token_232|>",
      "single_word": false,
      "lstrip": false,
      "rstrip": false,
      "normalized": false,
      "special": true
    },
    {
      "id": 238,
      "content": "<|reserved_special_token_233|>",
      "single_word": false,
      "lstrip": false,
      "rstrip": false,
      "normalized": false,
      "special": true
    },
    {
      "id": 239,
      "content": "<|reserved_special_token_234|>",
      "single_word": false,
      "lstrip": false,
      "rstrip": false,
      "normalized": false,
      "special": true
    },
    {
      "id": 240,
      "content": "<|reserved_special_token_235|>",
      "single_word": false,
      "lstrip": false,
      "rstrip": false,
      "normalized": false,
      "special": true
    },
    {
      "id": 241,
      "content": "<|reserved_special_token_236|>",
      "single_word": false,
      "lstrip": false,
      "rstrip": false,
      "normalized": false,
      "special": true
    },
    {
      "id": 242,
      "content": "<|reserved_special_token_237|>",
      "single_word": false,
      "lstrip": false,
      "rstrip": false,
      "normalized": false,
      "special": true
    },
    {
      "id": 243,
      "content": "<|reserved_special_token_238|>",
      "single_word": false,
      "lstrip": false,
      "rstrip": false,
      "normalized": false,
      "special": true
    },
    {
      "id": 244,
      "content": "<|reserved_special_token_239|>",
      "single_word": false,
      "lstrip": false,
      "rstrip": false,
      "normalized": false,
      "special": true
    },
    {
      "id": 245,
      "content": "<|reserved_special_token_240|>",
      "single_word": false,
      "lstrip": false,
      "rstrip": false,
      "normalized": false,
      "special": true
    },
    {
      "id": 246,
      "content": "<|reserved_special_token_241|>",
      "single_word": false,
      "lstrip": false,
      "rstrip": false,
      "normalized": false,
      "special": true
    },
    {
      "id": 247,
      "content": "<|reserved_special_token_242|>",
      "single_word": false,
      "lstrip": false,
      "rstrip": false,
      "normalized": false,
      "special": true
    },
    {
      "id": 248,
      "content": "<|reserved_special_token_243|>",
      "single_word": false,
      "lstrip": false,
      "rstrip": false,
      "normalized": false,
      "special": true
    },
    {
      "id": 249,
      "content": "<|reserved_special_token_244|>",
      "single_word": false,
      "lstrip": false,
      "rstrip": false,
      "normalized": false,
      "special": true
    },
    {
      "id": 250,
      "content": "<|reserved_special_token_245|>",
      "single_word": false,
      "lstrip": false,
      "rstrip": false,
      "normalized": false,
      "special": true
    },
    {
      "id": 251,
      "content": "<|reserved_special_token_246|>",
      "single_word": false,
      "lstrip": false,
      "rstrip": false,
      "normalized": false,
      "special": true
    },
    {
      "id": 252,
      "content": "<|reserved_special_token_247|>",
      "single_word": false,
      "lstrip": false,
      "rstrip": false,
      "normalized": false,
      "special": true
    },
    {
      "id": 253,
      "content": "<|reserved_special_token_248|>",
      "single_word": false,
      "lstrip": false,
      "rstrip": false,
      "normalized": false,
      "special": true
    },
    {
      "id": 254,
      "content": "<|reserved_special_token_249|>",
      "single_word": false,
      "lstrip": false,
      "rstrip": false,
      "normalized": false,
      "special": true
    },
    {
      "id": 255,
      "content": "<|reserved_special_token_250|>",
      "single_word": false,
      "lstrip": false,
      "rstrip": false,
      "normalized": false,
      "special": true
    }
  ],
  "normalizer": null,
  "pre_tokenizer": {
    "type": "Sequence",
    "pretokenizers": [
      {
        "type": "Split",
        "pattern": {
          "Regex": "(?i:'s|'t|'re|'ve|'m|'ll|'d)|[^\\r\\n\\p{L}\\p{N}]?\\p{L}+|\\p{N}{1,3}| ?[^\\s\\p{L}\\p{N}]+[\\r\\n]*|\\s*[\\r\\n]+|\\s+(?!\\S)|\\s+"
        },
        "behavior": "Isolated",
        "invert": false
      },
      {
        "type": "ByteLevel",
        "add_prefix_space": false,
        "trim_offsets": true,
        "use_regex": false
      }
    ]
  },
  "post_processor": {
    "type": "Sequence",
    "processors": [
      {
        "type": "ByteLevel",
        "add_prefix_space": true,
        "trim_offsets": false,
        "use_regex": true
      },
      {
        "type": "TemplateProcessing",
        "single": [
          {
            "SpecialToken": {
              "id": "<|begin_of_text|>",
              "type_id": 0
            }
          },
          {
            "Sequence": {
              "id": "A",
              "type_id": 0
            }
          }
        ],
        "pair": [
          {
            "SpecialToken": {
              "id": "<|begin_of_text|>",
              "type_id": 0
            }
          },
          {
            "Sequence": {
              "id": "A",
              "type_id": 0
            }
          },
          {
            "SpecialToken": {
              "id": "<|begin_of_text|>",
              "type_id": 1
            }
          },
          {
            "Sequence": {
              "id": "B",
              "type_id": 1
            }
          }
        ],
        "special_tokens": {
          "<|begin_of_text|>": {
            "id": "<|begin_of_text|>",
            "ids": [
              128000
            ],
            "tokens": [
              "<|begin_of_text|>"
            ]
          }
        }
      }
    ]
  },
  "decoder": {
    "type": "ByteLevel",
    "add_prefix_space": true,
    "trim_offsets": true,
    "use_regex": true
  },
  "model": {
    "type": "BPE",
    "dropout": null,
    "unk_token": null,
    "continuing_subword_prefix": null,
    "end_of_word_suffix": null,
    "fuse_unk": false,
    "byte_fallback": false,
    "ignore_merges": true,
    "vocab": {
      "<|begin_of_text|>": 0,
      "<|end_of_text|>": 1,
      "<|reserved_special_token_0|>": 2,
      "<|reserved_special_token_1|>": 3,
      "<|reserved_special_token_2|>": 4,
      "<|reserved_special_token_3|>": 5,
      "<|start_header_id|>": 6,
      "<|end_header_id|>": 7,
      "<|reserved_special_token_4|>": 8,
      "<|eot_id|>": 9,
      "<|reserved_special_token_5|>": 10,
      "<|reserved_special_token_6|>": 11,
      "<|reserved_special_token_7|>": 12,
      "<|reserved_special_token_8|>": 13,
      "<|reserved_special_token_9|>": 14,
      "<|reserved_special_token_10|>": 15,
      "<|reserved_special_token_11|>": 16,
      "<|reserved_special_token_12|>": 17,
      "<|reserved_special_token_13|>": 18,
      "<|reserved_special_token_14|>": 19,
      "<|reserved_special_token_15|>": 20,
      "<|reserved_special_token_16|>": 21,
      "<|reserved_special_token_17|>": 22,
      "<|reserved_special_token_18|>": 23,
      "<|reserved_special_token_19|>": 24,
      "<|reserved_special_token_20|>": 25,
      "<|reserved_special_token_21|>": 26,
      "<|reserved_special_token_22|>": 27,
      "<|reserved_special_token_23|>": 28,
      "<|reserved_special_token_24|>": 29,
      "<|reserved_special_token_25|>": 30,
      "<|reserved_special_token_26|>": 31,
      "<|reserved_special_token_27|>": 32,
      "<|reserved_special_token_28|>": 33,
      "<|reserved_special_token_29|>": 34,
      "<|reserved_special_token_30|>": 35,
      "<|reserved_special_token_31|>": 36,
      "<|reserved_special_token_32|>": 37,
      "<|reserved_special_token_33|>": 38,
      "<|reserved_special_token_34|>": 39,
      "<|reserved_special_token_35|>": 40,
      "<|reserved_special_token_36|>": 41,
      "<|reserved_special_token_37|>": 42,
      "<|reserved_special_token_38|>": 43,
      "<|reserved_special_token_39|>": 44,
      "<|reserved_special_token_40|>": 45,
      "<|reserved_special_token_41|>": 46,
      "<|reserved_special_token_42|>": 47,
      "<|reserved_special_token_43|>": 48,
      "<|reserved_special_token_44|>": 49,
      "<|reserved_special_token_45|>": 50,
      "<|reserved_special_token_46|>": 51,
      "<|reserved_special_token_47|>": 52,
      "<|reserved_special_token_48|>": 53,
      "<|reserved_special_token_49|>": 54,
      "<|reserved_special_token_50|>": 55,
      "<|reserved_special_token_51|>": 56,
      "<|reserved_special_token_52|>": 57,
      "<|reserved_special_token_53|>": 58,
      "<|reserved_special_token_54|>": 59,
      "<|reserved_special_token_55|>": 60,
      "<|reserved_special_token_56|>": 61,
      "<|reserved_special_token_57|>": 62,
      "<|reserved_special_token_58|>": 63,
      "<|reserved_special_token_59|>": 64,
      "<|reserved_special_token_60|>": 65,
      "<|reserved_special_token_61|>": 66,
      "<|reserved_special_token_62|>": 67,
      "<|reserved_special_token_63|>": 68,
      "<|reserved_special_token_64|>": 69,
      "<|reserved_special_token_65|>": 70,
      "<|reserved_special_token_66|>": 71,
      "<|reserved_special_token_67|>": 72,
      "<|reserved_special_token_68|>": 73,
      "<|reserved_special_token_69|>": 74,
      "<|reserved_special_token_70|>": 75,
      "<|reserved_special_token_71|>": 76,
      "<|reserved_special_token_72|>": 77,
      "<|reserved_special_token_73|>": 78,
      "<|reserved_special_token_74|>": 79,
      "<|reserved_special_token_75|>": 80,
      "<|reserved_special_token_76|>": 81,
      "<|reserved_special_token_77|>": 82,
      "<|reserved_special_token_78|>": 83,
      "<|reserved_special_token_79|>": 84,
      "<|reserved_special_token_80|>": 85,
      "<|reserved_special_token_81|>": 86,
      "<|reserved_special_token_82|>": 87,
      "<|reserved_special_token_83|>": 88,
      "<|reserved_special_token_84|>": 89,
      "<|reserved_special_token_85|>": 90,
      "<|reserved_special_token_86|>": 91,
      "<|reserved_special_token_87|>": 92,
      "<|reserved_special_token_88|>": 93,
      "<|reserved_special_token_89|>": 94,
      "<|reserved_special_token_90|>": 95,
      "<|reserved_special_token_91|>": 96,
      "<|reserved_special_token_92|>": 97,
      "<|reserved_special_token_93|>": 98,
      "<|reserved_special_token_94|>": 99,
      "<|reserved_special_token_95|>": 100,
      "<|reserved_special_token_96|>": 101,
      "<|reserved_special_token_97|>": 102,
      "<|reserved_special_token_98|>": 103,
      "<|reserved_special_token_99|>": 104,
      "<|reserved_special_token_100|>": 105,
      "<|reserved_special_token_101|>": 106,
      "<|reserved_special_token_102|>": 107,
      "<|reserved_special_token_103|>": 108,
      "<|reserved_special_token_104|>": 109,
      "<|reserved_special_token_105|>": 110,
      "<|reserved_special_token_106|>": 111,
      "<|reserved_special_token_107|>": 112,
      "<|reserved_special_token_108|>": 113,
      "<|reserved_special_token_109|>": 114,
      "<|reserved_special_token_110|>": 115,
      "<|reserved_special_token_111|>": 116,
      "<|reserved_special_token_112|>": 117,
      "<|reserved_special_token_113|>": 118,
      "<|reserved_special_token_114|>": 119,
      "<|reserved_special_token_115|>": 120,
      "<|reserved_special_token_116|>": 121,
      "<|reserved_special_token_117|>": 122,
      "<|reserved_special_token_118|>": 123,
      "<|reserved_special_token_119|>": 124,
      "<|reserved_special_token_120|>": 125,
      "<|reserved_special_token_121|>": 126,
      "<|reserved_special_token_122|>": 127,
      "<|reserved_special_token_123|>": 128,
      "<|reserved_special_token_124|>": 129,
      "<|reserved_special_token_125|>": 130,
      "<|reserved_special_token_126|>": 131,
      "<|reserved_special_token_127|>": 132,
      "<|reserved_special_token_128|>": 133,
      "<|reserved_special_token_129|>": 134,
      "<|reserved_special_token_130|>": 135,
      "<|reserved_special_token_131|>": 136,
      "<|reserved_special_token_132|>": 137,
      "<|reserved_special_token_133|>": 138,
      "<|reserved_special_token_134|>": 139,
      "<|reserved_special_token_135|>": 140,
      "<|reserved_special_token_136|>": 141,
      "<|reserved_special_token_137|>": 142,
      "<|reserved_special_token_138|>": 143,
      "<|reserved_special_token_139|>": 144,
      "<|reserved_special_token_140|>": 145,
      "<|reserved_special_token_141|>": 146,
      "<|reserved_special_token_142|>": 147,
      "<|reserved_special_token_143|>": 148,
      "<|reserved_special_token_144|>": 149,
      "<|reserved_special_token_145|>": 150,
      "<|reserved_special_token_146|>": 151,
      "<|reserved_special_token_147|>": 152,
      "<|reserved_special_token_148|>": 153,
      "<|reserved_special_token_149|>": 154,
      "<|reserved_special_token_150|>": 155,
      "<|reserved_special_token_151|>": 156,
      "<|reserved_special_token_152|>": 157,
      "<|reserved_special_token_153|>": 158,
      "<|reserved_special_token_154|>": 159,
      "<|reserved_special_token_155|>": 160,
      "<|reserved_special_token_156|>": 161,
      "<|reserved_special_token_157|>": 162,
      "<|reserved_special_token_158|>": 163,
      "<|reserved_special_token_159|>": 164,
      "<|reserved_special_token_160|>": 165,
      "<|reserved_special_token_161|>": 166,
      "<|reserved_special_token_162|>": 167,
      "<|reserved_special_token_163|>": 168,
      "<|reserved_special_token_164|>": 169,
      "<|reserved_special_token_165|>": 170,
      "<|reserved_special_token_166|>": 171,
      "<|reserved_special_token_167|>": 172,
      "<|reserved_special_token_168|>": 173,
      "<|reserved_special_token_169|>": 174,
      "<|reserved_special_token_170|>": 175,
      "<|reserved_special_token_171|>": 176,
      "<|reserved_special_token_172|>": 177,
      "<|reserved_special_token_173|>": 178,
      "<|reserved_special_token_174|>": 179,
      "<|reserved_special_token_175|>": 180,
      "<|reserved_special_token_176|>": 181,
      "<|reserved_special_token_177|>": 182,
      "<|reserved_special_token_178|>": 183,
      "<|reserved_special_token_179|>": 184,
      "<|reserved_special_token_180|>": 185,
      "<|reserved_special_token_181|>": 186,
      "<|reserved_special_token_182|>": 187,
      "<|reserved_special_token_183|>": 188,
      "<|reserved_special_token_184|>": 189,
      "<|reserved_special_token_185|>": 190,
      "<|reserved_special_token_186|>": 191,
      "<|reserved_special_token_187|>": 192,
      "<|reserved_special_token_188|>": 193,
      "<|reserved_special_token_189|>": 194,
      "<|reserved_special_token_190|>": 195,
      "<|reserved_special_token_191|>": 196,
      "<|reserved_special_token_192|>": 197,
      "<|reserved_special_token_193|>": 198,
      "<|reserved_special_token_194|>": 199,
      "<|reserved_special_token_195|>": 200,
      "<|reserved_special_token_196|>": 201,
      "<|reserved_special_token_197|>": 202,
      "<|reserved_special_token_198|>": 203,
      "<|reserved_special_token_199|>": 204,
      "<|reserved_special_token_200|>": 205,
      "<|reserved_special_token_201|>": 206,
      "<|reserved_special_token_202|>": 207,
      "<|reserved_special_token_203|>": 208,
      "<|reserved_special_token_204|>": 209,
      "<|reserved_special_token_205|>": 210,
      "<|reserved_special_token_206|>": 211,
      "<|reserved_special_token_207|>": 212,
      "<|reserved_special_token_208|>": 213,
      "<|reserved_special_token_209|>": 214,
      "<|reserved_special_token_210|>": 215,
      "<|reserved_special_token_211|>": 216,
      "<|reserved_special_token_212|>": 217,
      "<|reserved_special_token_213|>": 218,
      "<|reserved_special_token_214|>": 219,
      "<|reserved_special_token_215|>": 220,
      "<|reserved_special_token_216|>": 221,
      "<|reserved_special_token_217|>": 222,
      "<|reserved_special_token_218|>": 223,
      "<|reserved_special_token_219|>": 224,
      "<|reserved_special_token_220|>": 225,
      "<|reserved_special_token_221|>": 226,
      "<|reserved_special_token_222|>": 227,
      "<|reserved_special_token_223|>": 228,
      "<|reserved_special_token_224|>": 229,
      "<|reserved_special_token_225|>": 230,
      "<|reserved_special_token_226|>": 231,
      "<|reserved_special_token_227|>": 232,
      "<|reserved_special_token_228|>": 233,
      "<|reserved_special_token_229|>": 234,
      "<|reserved_special_token_230|>": 235,
      "<|reserved_special_token_231|>": 236,
      "<|reserved_special_token_232|>": 237,
      "<|reserved_special_token_233|>": 238,
      "<|reserved_special_token_234|>": 239,
      "<|reserved_special_token_235|>": 240,
      "<|reserved_special_token_236|>": 241,
      "<|reserved_special_token_237|>": 242,
      "<|reserved_special_token_238|>": 243,
      "<|reserved_special_token_239|>": 244,
      "<|reserved_special_token_240|>": 245,
      "<|reserved_special_token_241|>": 246,
      "<|reserved_special_token_242|>": 247,
      "<|reserved_special_token_243|>": 248,
      "<|reserved_special_token_244|>": 249,
      "<|reserved_special_token_245|>": 250,
      "<|reserved_special_token_246|>": 251,
      "<|reserved_special_token_247|>": 252,
      "<|reserved_special_token_248|>": 253,
      "<|reserved_special_token_249|>": 254,
      "<|reserved_special_token_250|>": 255,
      "!": 256,
      "\"": 257,
      "#": 258,
      "$": 259,
      "%": 260,
      "&": 261,
      "'": 262,
      "(": 263,
      ")": 264,
      "*": 265,
      "+": 266,
      ",": 267,
      "-": 268,
      ".": 269,
      "/": 270,
      "0": 271,
      "1": 272,
      "2": 273,
      "3": 274,
      "4": 275,
      "5": 276,
      "6": 277,
      "7": 278,
      "8": 279,
      "9": 280,
      ":": 281,
      ";": 282,
      "=": 283,
      "?": 284,
      "@": 285,
      "A": 286,
      "B": 287,
      "C": 288,
      "D": 289,
      "E": 290,
      "F": 291,
      "G": 292,
      "H": 293,
      "I": 294,
      "J": 295,
      "K": 296,
      "L": 297,
      "M": 298,
      "N": 299,
      "O": 300,
      "P": 301,
      "Q": 302,
      "R": 303,
      "S": 304,
      "T": 305,
      "U": 306,
      "V": 307,
      "W": 308,
      "X": 309,
      "Y": 310,
      "Z": 311,
      "[": 312,
      "\\": 313,
      "]": 314,
      "^": 315,
      "_": 316,
      "`": 317,
      "a": 318,
      "b": 319,
      "c": 320,
      "d": 321,
      "e": 322,
      "f": 323,
      "g": 324,
      "h": 325,
      "i": 326,
      "j": 327,
      "k": 328,
      "l": 329,
      "m": 330,
      "n": 331,
      "o": 332,
      "p": 333,
      "q": 334,
      "r": 335,
      "s": 336,
      "t": 337,
      "u": 338,
      "v": 339,
      "w": 340,
      "x": 341,
      "y": 342,
      "z": 343,
      "{": 344,
      "|": 345,
      "}": 346,
      "~": 347,
      "¡": 348,
      "¢": 349,
      "£": 350,
      "¤": 351,
      "¥": 352,
      "¦": 353,
      "§": 354,
      "¨": 355,
      "©": 356,
      "ª": 357,
      "«": 358,
      "¬": 359,
      "®": 360,
      "¯": 361,
      "°": 362,
      "±": 363,
      "²": 364,
      "³": 365,
      "´": 366,
      "µ": 367,
      "¶": 368,
      "·": 369,
      "¸": 370,
      "¹": 371,
      "º": 372,
      "»": 373,
      "¼": 374,
      "½": 375,
      "¾": 376,
      "¿": 377,
      "Â": 378,
      "Ã": 379,
      "Ä": 380,
      "Å": 381,
      "Æ": 382,
      "Ç": 383,
      "È": 384,
      "É": 385,
      "Ê": 386,
      "Ë": 387,
      "Ì": 388,
      "Í": 389,
      "Î": 390,
      "Ï": 391,
      "Ð": 392,
      "Ñ": 393,
      "Ò": 394,
      "Ó": 395,
      "Ô": 396,
      "Õ": 397,
      "Ö": 398,
      "×": 399,
      "Ø": 400,
      "Ù": 401,
      "Ú": 402,
      "Û": 403,
      "Ü": 404,
      "Ý": 405,
      "Þ": 406,
      "ß": 407,
      "à": 408,
      "á": 409,
      "â": 410,
      "ã": 411,
      "ä": 412,
      "å": 413,
      "æ": 414,
      "ç": 415,
      "è": 416,
      "é": 417,
      "ê": 418,
      "ë": 419,
      "ì": 420,
      "í": 421,
      "î": 422,
      "ï": 423,
      "ð": 424,
      "ñ": 425,
      "ò": 426,
      "ó": 427,
      "ô": 428,
      "Ċ": 429,
      "č": 430,
      "Ġ": 431,
      "Ģ": 432,
      "ģ": 433,
      "Ĥ": 434,
      "ĥ": 435,
      "Ħ": 436,
      "ħ": 437,
      "Ĩ": 438,
      "ĩ": 439,
      "Ī": 440,
      "ī": 441,
      "Ĭ": 442,
      "ĭ": 443,
      "Į": 444,
      "į": 445,
      "İ": 446,
      "ı": 447,
      "Ĳ": 448,
      "ĳ": 449,
      "Ĵ": 450,
      "ĵ": 451,
      "Ķ": 452,
      "ķ": 453,
      "ĸ": 454,
      "Ĺ": 455,
      "ĺ": 456,
      "Ļ": 457,
      "ļ": 458,
      "Ľ": 459,
      "ľ": 460,
      "Ŀ": 461,
      "ŀ": 462,
      "Ł": 463,
      "ł": 464,
      "Ń": 465,
      "à¸": 466,
      "ãģ": 467,
      "ãĤ": 468,
      "ãĥ": 469,
      "à¹": 470,
      "à¤": 471,
      "Ġ@": 472,
      "ðŁ": 473,
      "RT": 474,
      "co": 475,
      "Ġh": 476,
      "in": 477,
      "an": 478,
      "tt": 479,
      "âĢ": 480,
      "ps": 481,
      "ttps": 482,
      "//": 483,
      "://": 484,
      ".co": 485,
      "Ġt": 486,
      "er": 487,
      "en": 488,
      "Ġhttps": 489,
      "ãĢ": 490,
      "ar": 491,
      "âĢ¦": 492,
      "à¸Ļ": 493,
      "Ġà¤": 494,
      "ĊĊ": 495,
      "on": 496,
      "à¥": 497,
      "or": 498,
      "st": 499,
      "à¸²": 500,
      "Ø§": 501,
      "Ġ#": 502,
      "à¸Ń": 503,
      "ï¼": 504,
      "ãģĦ": 505,
      "al": 506,
      "à¹Ī": 507,
      "ãģ®": 508,
      "Ġd": 509,
      "at": 510,
      "Ġs": 511,
      "à¸ģ": 512,
      "à¹Ģ": 513,
      "es": 514,
      "Ġm": 515,
      "à¹ī": 516,
      "ou": 517,
      "à¸¡": 518,
      "is": 519,
      "ãģĹ": 520,
      "am": 521,
      "il": 522,
      "it": 523,
      "ay": 524,
      "he": 525,
      "à¸£": 526,
      "ãĥ¼": 527,
      "as": 528,
      "Ġp": 529,
      "ic": 530,
      "ãģ¦": 531,
      "ãģŁ": 532,
      "ÙĦ": 533,
      "ãģ§": 534,
      "Ġì": 535,
      "Ġb": 536,
      "à¸ĩ": 537,
      "re": 538,
      "ãģª": 539,
      "Ġa": 540,
      "à¹Ģà¸": 541,
      "Ġw": 542,
      "ĠðŁ": 543,
      "à¸¢": 544,
      "à¸±": 545,
      "ĠĠ": 546,
      "ing": 547,
      "à¸§": 548,
      "ãģ«": 549,
      "Ġf": 550,
      "à¸µ": 551,
      "el": 552,
      "Ġl": 553,
      "ï¼ģ": 554,
      "ĠØ": 555,
      "ãĥ³": 556,
      "ãģĻ": 557,
      "ãģ¾": 558,
      "ãģ£": 559,
      "Ġn": 560,
      "ãģ¨": 561,
      "ãģĭ": 562,
      "ÙĬ": 563,
      "ent": 564,
      "ãĤĭ": 565,
      "ãĤĵ": 566,
      "et": 567,
      "ed": 568,
      "un": 569,
      "à¸Ħ": 570,
      "Ùħ": 571,
      "ãģĮ": 572,
      "à¤¾": 573,
      "Ġë": 574,
      "à¸¥": 575,
      "à¸Ķ": 576,
      "..": 577,
      "ÙĪ": 578,
      "Ġy": 579,
      "Ġthe": 580,
      "ÙĨ": 581,
      "Ġg": 582,
      "ðŁĺ": 583,
      "ãĢģ": 584,
      "ro": 585,
      "ad": 586,
      "Ġc": 587,
      "ãģ¯": 588,
      "à¸´": 589,
      "and": 590,
      "ol": 591,
      "à¸ļ": 592,
      "ãĤī": 593,
      "à¸°": 594,
      "à¹Ħ": 595,
      "ot": 596,
      "à¹ģ": 597,
      "ãĤĴ": 598,
      "ï¸": 599,
      "ìĿ": 600,
      "ak": 601,
      "em": 602,
      "Ġto": 603,
      "ĠĊ": 604,
      "Ø±": 605,
      "im": 606,
      "Ġo": 607,
      "ãĤĬ": 608,
      "ir": 609,
      "à®": 610,
      "ĠT": 611,
      "ch": 612,
      "ãģĨ": 613,
      "à¸«": 614,
      "Ùĩ": 615,
      "à¸Ĺ": 616,
      "ĠI": 617,
      "ãĤĤ": 618,
      "00": 619,
      "à¸ķ": 620,
      "ï¸ı": 621,
      "à¥ĩ": 622,
      "ä¸": 623,
      "ud": 624,
      "Ø§ÙĦ": 625,
      "ĠS": 626,
      "à¤°": 627,
      "os": 628,
      "ra": 629,
      "le": 630,
      "ãĥĪ": 631,
      "ve": 632,
      "æľ": 633,
      "ãģı": 634,
      "ow": 635,
      "ĠA": 636,
      "ãĢĤ": 637,
      "ust": 638,
      "Ġth": 639,
      "id": 640,
      "Ra": 641,
      "way": 642,
      "ãĤ¹": 643,
      "Ø§Ø": 644,
      "à¸ª": 645,
      "Ġin": 646,
      "Ġe": 647,
      "ãĤĮ": 648,
      "ãĤ¤": 649,
      "ãģķ": 650,
      "ãģĬ": 651,
      "Ġk": 652,
      "ĠM": 653,
      "ãģł": 654,
      "à¸Ī": 655,
      "55": 656,
      "äº": 657,
      "ice": 658,
      "Ġco": 659,
      "20": 660,
      "ãģĵ": 661,
      "om": 662,
      "us": 663,
      "ĠD": 664,
      "ilway": 665,
      "ur": 666,
      "Ġv": 667,
      "æĹ": 668,
      "ðŁĴ": 669,
      "ig": 670,
      "Ġde": 671,
      "ãģĤ": 672,
      "St": 673,
      "à¥Ģ": 674,
      "ut": 675,
      "ik": 676,
      "íķ": 677,
      "ĠC": 678,
      "ĠB": 679,
      "ĠĠĠĠ": 680,
      "ul": 681,
      "Ġof": 682,
      "ãģ£ãģ¦": 683,
      "oo": 684,
      "qu": 685,
      "udent": 686,
      "Ä±": 687,
      "ac": 688,
      "Ġyou": 689,
      "Øª": 690,
      "For": 691,
      "Railway": 692,
      "à¸¹": 693,
      "Ġà¤ķ": 694,
      "ãĤĪ": 695,
      "à¤¾à¤": 696,
      "Just": 697,
      "à¸Ľ": 698,
      "ion": 699,
      "ia": 700,
      "å¤": 701,
      "ãģį": 702,
      "æĹ¥": 703,
      "à¥į": 704,
      "çĶ": 705,
      "um": 706,
      "Ġand": 707,
      "12": 708,
      "udents": 709,
      "ä»": 710,
      "ĠP": 711,
      "ap": 712,
      "ãģ¡": 713,
      "ag": 714,
      "ëĭ": 715,
      "ab": 716,
      "Justice": 717,
      "à¹Īà¸²": 718,
      "ãģ¾ãģĻ": 719,
      "ĠØ§ÙĦ": 720,
      "ãħ": 721,
      "åħ": 722,
      "JusticeFor": 723,
      "à¸·": 724,
      "à¹ĥ": 725,
      "Ġis": 726,
      "Ġê": 727,
      "JusticeForRailway": 728,
      "ãĥª": 729,
      "åĪ": 730,
      "âľ": 731,
      "à¸¸": 732,
      "ec": 733,
      "!!": 734,
      "ah": 735,
      "à¸Ńà¸ĩ": 736,
      "ãģĳ": 737,
      "ðĿ": 738,
      "Ġfor": 739,
      "ãĥ©": 740,
      "âĢĻ": 741,
      "Ø¯": 742,
      "Ġre": 743,
      "à¹ĩ": 744,
      "ãĥĥ": 745,
      "ãĤ¯": 746,
      "JusticeForRailwaySt": 747,
      "https": 748,
      "ãĥ«": 749,
      "ĠÐ": 750,
      "Ġj": 751,
      "åı": 752,
      "ee": 753,
      "à¸ŀ": 754,
      "ï¼ģï¼ģ": 755,
      "ĠW": 756,
      "ver": 757,
      "ĠG": 758,
      "Ġon": 759,
      "æĸ": 760,
      "ĠN": 761,
      "ìĿ´": 762,
      "ĠH": 763,
      "à¥ĭ": 764,
      "Ùĥ": 765,
      "ãĥķ": 766,
      "ãģĹãģ¦": 767,
      "å®": 768,
      "ri": 769,
      "ly": 770,
      "Ø¨": 771,
      "à¸µà¹Ī": 772,
      "åĲ": 773,
      "à¥įà¤": 774,
      "Ġbe": 775,
      "end": 776,
      "ðŁİ": 777,
      "ill": 778,
      "ĠL": 779,
      "ãģĹãģŁ": 780,
      "à¤Ĥ": 781,
      "ang": 782,
      "ï½": 783,
      "JusticeForRailwayStudents": 784,
      "op": 785,
      "à¤¿": 786,
      "Ùģ": 787,
      "ãģ§ãģĻ": 788,
      "à¸±à¸Ļ": 789,
      "ãĥŃ": 790,
      "ÛĮ": 791,
      "nd": 792,
      "ie": 793,
      "ãģ£ãģŁ": 794,
      "ĠĊĊ": 795,
      "ĠðŁĺ": 796,
      "à¸¡à¸²": 797,
      "ãĥ¬": 798,
      "ant": 799,
      "ãĤ¢": 800,
      "à¹īà¸²": 801,
      "à¯": 802,
      "th": 803,
      "up": 804,
      "ĠF": 805,
      "à¸Ĭ": 806,
      "ìĹ": 807,
      "Ġqu": 808,
      "ãģĭãĤī": 809,
      "ff": 810,
      "Ġr": 811,
      "ĠE": 812,
      "âĿ": 813,
      "202": 814,
      "ãģªãģĦ": 815,
      "ðŁĺŃ": 816,
      "éģ": 817,
      "à¸Ĥ": 818,
      "ãĥĹ": 819,
      "ĠR": 820,
      "Ø¹": 821,
      "ãĤĦ": 822,
      "ĠÙħ": 823,
      "__": 824,
      "Ġst": 825,
      "IN": 826,
      "Ø³": 827,
      "ï¼Ł": 828,
      "ãģĪ": 829,
      "ðŁ¤": 830,
      "ä½": 831,
      "art": 832,
      "ãĢĮ": 833,
      "à¤¿à¤": 834,
      "amp": 835,
      "ãĥ¼ãĥ": 836,
      "ÙĤ": 837,
      "éĸ": 838,
      "10": 839,
      "ãĤģ": 840,
      "ãĤĥ": 841,
      "ãģŃ": 842,
      "ãĢį": 843,
      "åĭ": 844,
      "ãģ©": 845,
      "ok": 846,
      "are": 847,
      "ãģĿ": 848,
      "Ġal": 849,
      "our": 850,
      "we": 851,
      "ãģ¿": 852,
      "ess": 853,
      "à¹Į": 854,
      "ìķ": 855,
      "ce": 856,
      "å¹": 857,
      "if": 858,
      "âľ¨": 859,
      "Ð¾": 860,
      "äºº": 861,
      "sh": 862,
      "ãĤı": 863,
      "Ġme": 864,
      "ãĥ³ãĥ": 865,
      "ith": 866,
      "ãĢĢ": 867,
      "555": 868,
      "å¿": 869,
      "à°": 870,
      "ãģĶ": 871,
      "ãĥķãĤ": 872,
      "Ã©": 873,
      "à¹Ħà¸¡": 874,
      "Ġà¤¹": 875,
      "ãĤ³": 876,
      "ry": 877,
      "è¦": 878,
      "à¹Ĥ": 879,
      "ãĤ«": 880,
      "ê³": 881,
      "ðŁĳ": 882,
      "ers": 883,
      "ĠÙĪ": 884,
      "Ġwh": 885,
      "ãĥ£": 886,
      "ĠO": 887,
      "od": 888,
      "ê°": 889,
      "ist": 890,
      "Ġit": 891,
      "EN": 892,
      "à¤ķ": 893,
      "ew": 894,
      "ai": 895,
      "Ð°": 896,
      "ãĤŃ": 897,
      "Ġí": 898,
      "éĢ": 899,
      "ãĤ¿": 900,
      "...": 901,
      "MA": 902,
      "ì§": 903,
      "ĠK": 904,
      "âĻ": 905,
      "ht": 906,
      "ãģķãĤĵ": 907,
      "ãĥŀ": 908,
      "à¸Ńà¸Ļ": 909,
      "à¸Ńà¸¢": 910,
      "TS": 911,
      "ãħĭ": 912,
      "à¤¨": 913,
      "ìĦ": 914,
      "ëĬ": 915,
      "ðŁ¥": 916,
      "è¨": 917,
      "lo": 918,
      "ya": 919,
      "Ġ(": 920,
      "se": 921,
      "ate": 922,
      "ìļ": 923,
      "ðŁĶ": 924,
      "ial": 925,
      "Ġun": 926,
      "Ġà¤¸": 927,
      "ub": 928,
      "ëĭ¤": 929,
      "iz": 930,
      "11": 931,
      "est": 932,
      "aw": 933,
      "ĠØ¨": 934,
      "ãĤ¸": 935,
      "ive": 936,
      "ĠJ": 937,
      "Ã¼": 938,
      "av": 939,
      "à¹Ģà¸¥": 940,
      "ãģĽ": 941,
      "Ġthis": 942,
      "ck": 943,
      "çµ": 944,
      "ãģ¤": 945,
      "Ðµ": 946,
      "ãĤ·": 947,
      "æĬ": 948,
      "Ġ&": 949,
      "_t": 950,
      "ong": 951,
      "Ø©": 952,
      "one": 953,
      "à¹īà¸§": 954,
      "ðŁı": 955,
      "æ°": 956,
      "uk": 957,
      "oll": 958,
      "ãģ®å": 959,
      "å¹´": 960,
      "à¸±à¸ļ": 961,
      "az": 962,
      "ëĬĶ": 963,
      "ere": 964,
      "à¸³": 965,
      "æĦ": 966,
      "Ġla": 967,
      "æĿ": 968,
      "ìŀ": 969,
      "ä»Ĭ": 970,
      "ip": 971,
      "ãĥ»": 972,
      "å½": 973,
      "ØŃ": 974,
      "VE": 975,
      "weet": 976,
      "ãħĭãħĭ": 977,
      "íķĺ": 978,
      "ĠâĢ": 979,
      "æŃ": 980,
      "å¤§": 981,
      "ä¼": 982,
      "Ġque": 983,
      "æľĪ": 984,
      "à¹Ĩ": 985,
      "åĽ": 986,
      "Ġse": 987,
      "iv": 988,
      "ê³ł": 989,
      "ï¼ģĊ": 990,
      "ãĥģ": 991,
      "æĻ": 992,
      "ìĭ": 993,
      "Ġan": 994,
      "æĢ": 995,
      "ĠY": 996,
      "ãģ¾ãģĹãģŁ": 997,
      "Ġex": 998,
      "ear": 999,
      "åĨ": 1000,
      "_:": 1001,
      "ct": 1002,
      "ãģ¡ãĤĥ": 1003,
      "è¡": 1004,
      "ãĥ³ãĥĪ": 1005,
      "à¹ģà¸¥": 1006,
      "ÙĩÙĩ": 1007,
      "å¥": 1008,
      "out": 1009,
      "ber": 1010,
      "Ġen": 1011,
      "AN": 1012,
      "å¼": 1013,
      "TE": 1014,
      "'s": 1015,
      "Ġi": 1016,
      "à¸µà¹ī": 1017,
      "æľ¬": 1018,
      "Ġcom": 1019,
      "Ġwith": 1020,
      "Ġ:": 1021,
      "ĠĠĠĠĠĠĠĠ": 1022,
      "¬ë": 1023,
      "ãĢĲ": 1024,
      "ON": 1025,
      "à¸Ħà¸Ļ": 1026,
      "ard": 1027,
      "ãĢĳ": 1028,
      "à¸±à¸ĩ": 1029,
      "ha": 1030,
      "âĿ¤": 1031,
      "ãĤį": 1032,
      "à¤¤": 1033,
      "æĸ¹": 1034,
      "rom": 1035,
      "ÑĤ": 1036,
      "å¾": 1037,
      "çĽ": 1038,
      "´ë": 1039,
      "Ġà¹Ģà¸": 1040,
      "à¤¹": 1041,
      "ðŁĺŃðŁĺŃ": 1042,
      "èª": 1043,
      "åĬ": 1044,
      "han": 1045,
      "Ø§ÙĨ": 1046,
      "à¯į": 1047,
      "BTS": 1048,
      "wt": 1049,
      "ìĹĲ": 1050,
      "ĠV": 1051,
      "ue": 1052,
      "à¹Ģà¸£": 1053,
      "Ġcon": 1054,
      "ore": 1055,
      "Ġìķ": 1056,
      "ib": 1057,
      "ãĥķãĤ©": 1058,
      "og": 1059,
      "ld": 1060,
      "åŃ": 1061,
      "åĩ": 1062,
      "Ð¸": 1063,
      "æĺ": 1064,
      "æ§": 1065,
      "Ġ-": 1066,
      "Ġ$": 1067,
      "ation": 1068,
      "à¸´à¸Ļ": 1069,
      "Ġà¤®": 1070,
      "ight": 1071,
      "all": 1072,
      "to": 1073,
      "Ġare": 1074,
      "aa": 1075,
      "ost": 1076,
      "ind": 1077,
      "ÅŁ": 1078,
      "Ġthat": 1079,
      ".Ċ": 1080,
      "à¥Ī": 1081,
      "à¥ģ": 1082,
      "Ġ|": 1083,
      "çĻ": 1084,
      "à¹ĩà¸Ļ": 1085,
      "ell": 1086,
      "ãĤ¤ãĥ": 1087,
      "100": 1088,
      "io": 1089,
      "à¸ĸ": 1090,
      "Ø´": 1091,
      "ãģĺ": 1092,
      "Ġno": 1093,
      "19": 1094,
      "ç¥": 1095,
      "Ġso": 1096,
      "âĺ": 1097,
      "ave": 1098,
      "30": 1099,
      "Ġmy": 1100,
      "ìł": 1101,
      "Ú©": 1102,
      "icial": 1103,
      "Ġas": 1104,
      "ollow": 1105,
      "à¹Ħà¸Ķ": 1106,
      "ek": 1107,
      "50": 1108,
      "ãĤª": 1109,
      "Ã§": 1110,
      "ike": 1111,
      "ðŁĺĤ": 1112,
      "æ§ĺ": 1113,
      "ä¸Ģ": 1114,
      "à¤²": 1115,
      "ast": 1116,
      "ìķĦ": 1117,
      "à¤Ĺ": 1118,
      "ï¾": 1119,
      "à¹īà¸Ńà¸ĩ": 1120,
      "ain": 1121,
      "ts": 1122,
      "à¸«à¸Ļ": 1123,
      "_twt": 1124,
      "ey": 1125,
      "ë¦": 1126,
      "ep": 1127,
      "ish": 1128,
      "ãĥŃãĥ¼": 1129,
      "oy": 1130,
      "ãģĤãĤĬ": 1131,
      "ter": 1132,
      "à¸·à¹Ī": 1133,
      "ãĢĤĊ": 1134,
      "Ġdo": 1135,
      "ãĤ°": 1136,
      "ä¸Ń": 1137,
      "ç´": 1138,
      "ê°Ģ": 1139,
      "ðŁĮ": 1140,
      "ëı": 1141,
      "ĠðŁĴ": 1142,
      "ãĥ¼ãĥĪ": 1143,
      "æĻĤ": 1144,
      "ìĬ": 1145,
      "ãĤ¦": 1146,
      "ãĥ¡": 1147,
      "Ġ\"": 1148,
      "ðŁĻ": 1149,
      "Ġnot": 1150,
      "RE": 1151,
      "Ġsh": 1152,
      "eg": 1153,
      "æī": 1154,
      "??": 1155,
      "è¦ĭ": 1156,
      "fficial": 1157,
      "ĠÙĦ": 1158,
      "à¹ĥà¸«": 1159,
      "ov": 1160,
      "éĩ": 1161,
      "å½ĵ": 1162,
      "na": 1163,
      "ine": 1164,
      "ll": 1165,
      "åĲį": 1166,
      "ëĤ": 1167,
      "Ġà®": 1168,
      "#JusticeForRailwayStudents": 1169,
      "Ġà¤ª": 1170,
      "Ġat": 1171,
      "Ġpro": 1172,
      "åĩº": 1173,
      "à¸¶": 1174,
      "ĠìĿ": 1175,
      "ìļĶ": 1176,
      "éĽ": 1177,
      "¸°": 1178,
      "ans": 1179,
      "æ³": 1180,
      "à¹Ģà¸Ľ": 1181,
      "ĠU": 1182,
      "Sh": 1183,
      "Ñģ": 1184,
      "ob": 1185,
      "è©": 1186,
      "Ð½": 1187,
      "à¸Ńà¸ģ": 1188,
      "Ġà¹ģ": 1189,
      "Ùİ": 1190,
      "æĪ": 1191,
      "au": 1192,
      "çĶŁ": 1193,
      "ãģĦãģŁ": 1194,
      "AL": 1195,
      "ĠØª": 1196,
      "ë§": 1197,
      "à¸±à¹ī": 1198,
      "ood": 1199,
      "à¹Ħà¸Ľ": 1200,
      "à¸²à¸ģ": 1201,
      "hi": 1202,
      "ãģĹãģĦ": 1203,
      "pp": 1204,
      "ãĥķãĤ©ãĥŃãĥ¼": 1205,
      "ST": 1206,
      "ì§Ģ": 1207,
      "ãĥĭ": 1208,
      "âĿ¤ï¸ı": 1209,
      "ëĭĪ": 1210,
      "ÑĢ": 1211,
      "ãĥĦ": 1212,
      "çĶ»": 1213,
      "éģ¸": 1214,
      "ãģĻãĤĭ": 1215,
      "ê²": 1216,
      "à¸²à¸¡": 1217,
      "åĪĨ": 1218,
      "me": 1219,
      "ãĢľ": 1220,
      "ìĸ": 1221,
      "ãĥĲ": 1222,
      "à¸µà¸¢": 1223,
      "24": 1224,
      "Ø¬": 1225,
      "à¤¾à¤°": 1226,
      "Ġâ": 1227,
      "à¸Ħà¸£": 1228,
      "à¸²à¸£": 1229,
      "ort": 1230,
      "aj": 1231,
      "ook": 1232,
      "à¸Īà¸°": 1233,
      "ðŁĶ¥": 1234,
      "ãģĦãģ¾ãģĻ": 1235,
      "ìĦľ": 1236,
      "ä¿": 1237,
      "é¡": 1238,
      "æ¥": 1239,
      "à¸²à¸¢": 1240,
      "âĢĻs": 1241,
      "æķ": 1242,
      "Ġel": 1243,
      "Ã¡": 1244,
      "ãģ«ãģª": 1245,
      "à¤¸": 1246,
      "ĠØ¹": 1247,
      "Ġyour": 1248,
      "eb": 1249,
      "rou": 1250,
      "iy": 1251,
      "TV": 1252,
      "åº": 1253,
      "ara": 1254,
      "ãģ¨ãģĨ": 1255,
      "à¸±à¸ģ": 1256,
      "æ°Ĺ": 1257,
      "ung": 1258,
      "à¹Ģà¸¥à¸¢": 1259,
      "ç¬": 1260,
      "ÃŃ": 1261,
      "ãģĦãģĦ": 1262,
      "Ġà¤¬": 1263,
      "å±": 1264,
      "ack": 1265,
      "åĳ": 1266,
      "à¹Ģà¸Ķ": 1267,
      "å¿ľ": 1268,
      "ãĥĹãĥ¬": 1269,
      "ãĤµ": 1270,
      "à¸¹à¸ģ": 1271,
      "à¤®": 1272,
      "åĭŁ": 1273,
      "å°": 1274,
      "ide": 1275,
      "à¸·à¸Ń": 1276,
      "HA": 1277,
      "ug": 1278,
      "è²": 1279,
      "à¦": 1280,
      "à¸Ł": 1281,
      "itt": 1282,
      "çļ": 1283,
      "Ġê°": 1284,
      "ãģĳãģ©": 1285,
      "hy": 1286,
      "çī": 1287,
      "IVE": 1288,
      "à¸¡à¸²à¸ģ": 1289,
      "ãģĹãģ¾ãģĻ": 1290,
      "ass": 1291,
      "éĸĵ": 1292,
      "ww": 1293,
      "oc": 1294,
      "åł": 1295,
      "Ã³": 1296,
      "è¿": 1297,
      "Ĥ¬": 1298,
      "Ġìŀ": 1299,
      "å¯": 1300,
      "pl": 1301,
      "ĠðŁ¤": 1302,
      "èĢ": 1303,
      "åī": 1304,
      "Ġwe": 1305,
      "ëĵ": 1306,
      "The": 1307,
      "AY": 1308,
      "ake": 1309,
      "ĠThe": 1310,
      "Ð¾Ð": 1311,
      "ë¡": 1312,
      "à¯įà®": 1313,
      "Ġhave": 1314,
      "èĩ": 1315,
      "ex": 1316,
      "ĠÙĬ": 1317,
      "âĢĿ": 1318,
      "ame": 1319,
      "000": 1320,
      "ãģ°": 1321,
      "Ġch": 1322,
      "ÙĢ": 1323,
      "ãĥĨ": 1324,
      "ðĿĲ": 1325,
      "éĸĭ": 1326,
      "Ġhe": 1327,
      "ect": 1328,
      "à¸ĭ": 1329,
      "ma": 1330,
      "ãģĸ": 1331,
      ".ĊĊ": 1332,
      "âĶ": 1333,
      "ìĺ": 1334,
      "ãĤ¼": 1335,
      "ðŁį": 1336,
      "åį": 1337,
      "14": 1338,
      "ç·": 1339,
      "ãħł": 1340,
      "Ġà¤ľ": 1341,
      "ãģĵãģ®": 1342,
      "ãģ®ãģ§": 1343,
      "ii": 1344,
      "å®ļ": 1345,
      "ĠÙģ": 1346,
      "ER": 1347,
      "ime": 1348,
      "Âł": 1349,
      "ity": 1350,
      "å£": 1351,
      "ãĥ¥": 1352,
      "âĳ": 1353,
      "UN": 1354,
      "à¸Ńà¸°": 1355,
      "ĠÃ": 1356,
      "ach": 1357,
      "ãĤº": 1358,
      "é£": 1359,
      "pr": 1360,
      "ink": 1361,
      "ment": 1362,
      "Ġwill": 1363,
      "Ġab": 1364,
      "ç§": 1365,
      "æĢĿ": 1366,
      "à¸£à¸°": 1367,
      "ãĤŃãĥ£": 1368,
      "Øµ": 1369,
      "ðŁİģ": 1370,
      "ãģĤãĤĬãģĮ": 1371,
      "ies": 1372,
      "ure": 1373,
      "ng": 1374,
      "IT": 1375,
      "æĸ°": 1376,
      "ìĽ": 1377,
      "uy": 1378,
      "Ø§Ø±": 1379,
      "à¤µ": 1380,
      "çĦ": 1381,
      "ath": 1382,
      "ase": 1383,
      "Ġà¤°": 1384,
      "Ġgo": 1385,
      "ìľ": 1386,
      "Ġë§": 1387,
      "ëıĦ": 1388,
      "ãģŁãģĦ": 1389,
      "ãĥŁ": 1390,
      "ari": 1391,
      "ĠëĤ": 1392,
      "Ġpl": 1393,
      "@m": 1394,
      "Ġà¤¨": 1395,
      "MM": 1396,
      "ãģĵãģ¨": 1397,
      "15": 1398,
      "Ġle": 1399,
      "Ø®": 1400,
      "ç¨": 1401,
      "à¥ĩà¤Ĥ": 1402,
      "ãĥī": 1403,
      "à¸´à¸Ķ": 1404,
      "_m": 1405,
      "à¸Ļà¸°": 1406,
      "day": 1407,
      "íķ´": 1408,
      "èī": 1409,
      "app": 1410,
      "Ġra": 1411,
      "ë¡ľ": 1412,
      "OR": 1413,
      "Ġlike": 1414,
      "Ġall": 1415,
      "âĢį": 1416,
      "¸ë": 1417,
      "ome": 1418,
      "äºĭ": 1419,
      "éł": 1420,
      "ìĬ¤": 1421,
      "å¸": 1422,
      "è¡Į": 1423,
      "à¤ľ": 1424,
      "ick": 1425,
      "æľĢ": 1426,
      "ï¼Ī": 1427,
      "à¹Ģà¸«": 1428,
      "ÄŁ": 1429,
      "ðŁĵ": 1430,
      "ðŁĲ": 1431,
      "ãĤĵãģł": 1432,
      "ark": 1433,
      "ãĥĸ": 1434,
      "Ġexam": 1435,
      "æĦŁ": 1436,
      "ðŁı»": 1437,
      "ðŁ¤£": 1438,
      "à¹Īà¸°": 1439,
      "Ġà¸£": 1440,
      "åŃĲ": 1441,
      "ãĥĹãĥ¬ãĤ¼": 1442,
      "Ġlo": 1443,
      "à¥įà¤°": 1444,
      "Ø§Øª": 1445,
      "ãģĶãģĸ": 1446,
      "ĠØ§": 1447,
      "AR": 1448,
      "ĠðŁĳ": 1449,
      "ss": 1450,
      "of": 1451,
      "à¤ª": 1452,
      "ember": 1453,
      "Ġup": 1454,
      "/L": 1455,
      "ãĥĹãĥ¬ãĤ¼ãĥ³ãĥĪ": 1456,
      "à¸«à¸¥": 1457,
      "li": 1458,
      "ndia": 1459,
      "ãģķãģĦ": 1460,
      "OO": 1461,
      "'t": 1462,
      "à¸ľ": 1463,
      "ana": 1464,
      "ë°": 1465,
      "ne": 1466,
      "ï¼ī": 1467,
      "åľ": 1468,
      "ny": 1469,
      "iss": 1470,
      "ãģĤãĤĬãģĮãģ¨ãģĨ": 1471,
      "ãĥĬ": 1472,
      "ãĥĩ": 1473,
      "Ġam": 1474,
      "OU": 1475,
      "oin": 1476,
      "íķľ": 1477,
      "eng": 1478,
      "åħ¥": 1479,
      "æı": 1480,
      "21": 1481,
      "à¸§à¸¢": 1482,
      "ĠÚ©": 1483,
      "LE": 1484,
      "Ġcan": 1485,
      "ä¸Ĭ": 1486,
      "ous": 1487,
      "à¸²à¸Ļ": 1488,
      "ash": 1489,
      "éĻ": 1490,
      "ãĥĳ": 1491,
      "ãĤĵãģª": 1492,
      "ãĥ¼ãĥ³": 1493,
      "Ġes": 1494,
      "Ġà¸ģ": 1495,
      "åĵ": 1496,
      "è¨Ģ": 1497,
      "æĽ": 1498,
      "ja": 1499,
      "....": 1500,
      "âĸ": 1501,
      "ĠðŁĶ": 1502,
      "Ġ[": 1503,
      "la": 1504,
      "18": 1505,
      "ãĤ»": 1506,
      "ãģ¾ãģ§": 1507,
      "à¸Ńà¸ļ": 1508,
      "ĠâĢľ": 1509,
      "Ġby": 1510,
      "ryp": 1511,
      "da": 1512,
      "13": 1513,
      "ìĿĢ": 1514,
      "ï¼ģĊĊ": 1515,
      "âĢ¦âĢ¦": 1516,
      "à¸¹à¹Ī": 1517,
      "Ġfrom": 1518,
      "ãĥĥãĥĪ": 1519,
      "my": 1520,
      "17": 1521,
      "ĠðŁ¥": 1522,
      "å¿ľåĭŁ": 1523,
      "ho": 1524,
      "Ġor": 1525,
      "ê¸°": 1526,
      "ï¸İ": 1527,
      "AS": 1528,
      "àª": 1529,
      "âĹ": 1530,
      "ä¹": 1531,
      "@s": 1532,
      "ID": 1533,
      "à¤¦": 1534,
      "çŁ": 1535,
      "ĠTh": 1536,
      "à¸Ĥà¸Ńà¸ĩ": 1537,
      "de": 1538,
      "à¹Ģà¸ģ": 1539,
      "Ġdi": 1540,
      "ãģĭãģ£ãģŁ": 1541,
      "à¹ĥà¸Ļ": 1542,
      "éĥ": 1543,
      "ĠðŁİ": 1544,
      "æĿ¥": 1545,
      "23": 1546,
      "ë¦¬": 1547,
      "ÙĩÙĩÙĩÙĩ": 1548,
      "25": 1549,
      "AM": 1550,
      "uc": 1551,
      "åĬł": 1552,
      "ta": 1553,
      "now": 1554,
      "ãģİ": 1555,
      "ëį": 1556,
      "è¬": 1557,
      "Ð°Ð": 1558,
      "Ġwor": 1559,
      "ðŁ¥º": 1560,
      "ãĤ¨": 1561,
      "ãģĦãģ¦": 1562,
      "Ġest": 1563,
      "Ø²": 1564,
      "Ġyear": 1565,
      "çĽ®": 1566,
      "Ġìł": 1567,
      "åıĤ": 1568,
      "à¸Ĺà¸³": 1569,
      "Ġne": 1570,
      "çľ": 1571,
      "ank": 1572,
      "Ġà¤¦": 1573,
      "æĶ": 1574,
      "åĲĪ": 1575,
      "ãĤĪãģĨ": 1576,
      "ãĤ£": 1577,
      "Ġwas": 1578,
      "åĲįæ§ĺ": 1579,
      "201": 1580,
      "ãĢİ": 1581,
      "ãĤĩ": 1582,
      "Ġà¤ķà¤°": 1583,
      "æĮ": 1584,
      "ãĥľ": 1585,
      "æŀ": 1586,
      "KK": 1587,
      "ally": 1588,
      "Ġà¸ª": 1589,
      "ãĥĥãĤ¯": 1590,
      "Ġà¤²": 1591,
      "åħ¨": 1592,
      "ĠãĢĲ": 1593,
      "à¸ģà¸ģ": 1594,
      "ãĤ±": 1595,
      "ãģ¡ãĤĥãĤĵ": 1596,
      "éħ": 1597,
      "ãĤĮãĤĭ": 1598,
      "her": 1599,
      "ini": 1600,
      "ãĢı": 1601,
      "Al": 1602,
      "Ġtr": 1603,
      "à¹ģà¸ļ": 1604,
      "Ûģ": 1605,
      "ìĿĦ": 1606,
      "æ¥½": 1607,
      "Ñĥ": 1608,
      "kk": 1609,
      "ĠØ§Ø": 1610,
      "èĩª": 1611,
      "ãĤĮãģ¦": 1612,
      "ãĥĦãĤ¤": 1613,
      "ãģļ": 1614,
      "çķ": 1615,
      "ãĤ¹ãĥĪ": 1616,
      "Ġà¤Ĩ": 1617,
      "Ġ+": 1618,
      "oh": 1619,
      "à±": 1620,
      "åĭķ": 1621,
      "Ġper": 1622,
      "ìĸ´": 1623,
      "ï½ŀ": 1624,
      "å¥½": 1625,
      "ian": 1626,
      "FT": 1627,
      "Ø·": 1628,
      "ãĥ§": 1629,
      "ĠÙĨ": 1630,
      "à¹Ģà¸ŀ": 1631,
      "à¤¼": 1632,
      "roup": 1633,
      "ĠØ£": 1634,
      "åĽŀ": 1635,
      "æ³ķ": 1636,
      "à¸´à¹Ī": 1637,
      "af": 1638,
      "à¹Ģà¸Ń": 1639,
      "ãĥı": 1640,
      "ier": 1641,
      "³´": 1642,
      "ĠØ³": 1643,
      "Ŀ¼": 1644,
      "à¸±à¸§": 1645,
      "æŃĮ": 1646,
      "âĢ¼": 1647,
      "ï¼ı": 1648,
      "ih": 1649,
      "IC": 1650,
      "AA": 1651,
      "ãģıãģł": 1652,
      "çĻº": 1653,
      "HE": 1654,
      "ãģĿãģĨ": 1655,
      "æ±": 1656,
      "ãģĤãĤĭ": 1657,
      "ìĿ´ë": 1658,
      "Ġjust": 1659,
      "Ch": 1660,
      "à¤¬": 1661,
      "nt": 1662,
      "Ġà¸Ļ": 1663,
      "_s": 1664,
      "ê±": 1665,
      "@M": 1666,
      "ite": 1667,
      "/w": 1668,
      "æīĭ": 1669,
      "ram": 1670,
      "ï¼ģï¼ģï¼ģï¼ģ": 1671,
      "ĠìĹ": 1672,
      "æİ": 1673,
      "official": 1674,
      "gt": 1675,
      "ÙĪÙĨ": 1676,
      "ãģ§ãĤĤ": 1677,
      ")Ċ": 1678,
      "ĠÎ": 1679,
      "Ġus": 1680,
      "ãĥĵ": 1681,
      "ãħłãħł": 1682,
      "ï¸ıĊ": 1683,
      "Ġhas": 1684,
      "ci": 1685,
      "der": 1686,
      "Ġpr": 1687,
      "ĠSt": 1688,
      "ä¼ļ": 1689,
      "IS": 1690,
      "Ø±ÙĬ": 1691,
      "India": 1692,
      "ãĥł": 1693,
      "à¸ĺ": 1694,
      "éĿ": 1695,
      "æ¯": 1696,
      "Ä±n": 1697,
      "ìĭľ": 1698,
      "à¥įà¤¯": 1699,
      "Ġà¤ħ": 1700,
      "Ġtweet": 1701,
      "ãĤĮãģŁ": 1702,
      "íĥ": 1703,
      "ET": 1704,
      "ãħĭãħĭãħĭãħĭ": 1705,
      "åĪĿ": 1706,
      "MMTV": 1707,
      "é«": 1708,
      "ING": 1709,
      "èĢħ": 1710,
      "è³": 1711,
      "ĠRT": 1712,
      "22": 1713,
      "çļĦ": 1714,
      "ãĢĤĊĊ": 1715,
      "_b": 1716,
      "@A": 1717,
      "Ġfollow": 1718,
      "xx": 1719,
      "Th": 1720,
      "ens": 1721,
      "åĥ": 1722,
      "ðŁĩ": 1723,
      "_k": 1724,
      "åīį": 1725,
      "uch": 1726,
      "rat": 1727,
      "CT": 1728,
      "ÛĴ": 1729,
      "ä½ľ": 1730,
      "rd": 1731,
      "OTE": 1732,
      "ãģĦãĤĭ": 1733,
      "ìĿĺ": 1734,
      "£¼": 1735,
      "ãģ¹": 1736,
      "ev": 1737,
      "Ġà¤¤": 1738,
      "ãĥ¯": 1739,
      "æĥ": 1740,
      "ãģ»": 1741,
      "Ġá": 1742,
      "Ø£": 1743,
      "lu": 1744,
      "à¯ģ": 1745,
      "êµ": 1746,
      "à¸¸à¸ģ": 1747,
      "Ø§Ùħ": 1748,
      "Ùī": 1749,
      "ï¼¼": 1750,
      "Ġbut": 1751,
      "ãĤŃãĥ£ãĥ³ãĥ": 1752,
      "very": 1753,
      "à¤¯": 1754,
      "à¸Ħà¸§": 1755,
      "ich": 1756,
      "Ġpe": 1757,
      "ÙĦÙĩ": 1758,
      "íĬ": 1759,
      "emb": 1760,
      "ãģĵãĤĮ": 1761,
      "ãģĹãģı": 1762,
      "ãĥĿ": 1763,
      "ÙĦÙĬ": 1764,
      "GMMTV": 1765,
      "Ġìĺ": 1766,
      "NS": 1767,
      "ç¥Ń": 1768,
      "ĠðŁĺŃ": 1769,
      "à¸¹à¹ī": 1770,
      "çĦ¡": 1771,
      "man": 1772,
      "ãĥ¢": 1773,
      "ĠÙħÙĨ": 1774,
      "æĬķ": 1775,
      "ãĤ¬": 1776,
      "ãĤŃãĥ£ãĥ³ãĥļ": 1777,
      "à¤¾à¤¨": 1778,
      "ðŁĺĤðŁĺĤ": 1779,
      "pe": 1780,
      "MO": 1781,
      "Ġnow": 1782,
      "ãģĤãĤĬãģĮãģ¨ãģĨãģĶãģĸ": 1783,
      "ãģģ": 1784,
      "te": 1785,
      "à¹Īà¸Ń": 1786,
      "Ġ@_": 1787,
      "ãĤŃãĥ£ãĥ³ãĥļãĥ¼ãĥ³": 1788,
      "@k": 1789,
      "âĢ¢": 1790,
      "ĠØ¯": 1791,
      "ada": 1792,
      "ĠìķĦ": 1793,
      "åħ¬": 1794,
      "ãģıãģłãģķãģĦ": 1795,
      "ÙĲ": 1796,
      "ama": 1797,
      "inn": 1798,
      "åĲįæ§ĺãģ«": 1799,
      "lar": 1800,
      "ìĿ¼": 1801,
      "ìĥ": 1802,
      "Ġour": 1803,
      "AT": 1804,
      "è¶": 1805,
      "ãģªãĤĵ": 1806,
      "lt": 1807,
      "ote": 1808,
      "99": 1809,
      "ðŁļ": 1810,
      "Ġout": 1811,
      "port": 1812,
      "rypto": 1813,
      "uck": 1814,
      "Ġday": 1815,
      "ni": 1816,
      "ks": 1817,
      "no": 1818,
      "ÙĬÙĨ": 1819,
      "åĨĨ": 1820,
      "å·": 1821,
      "Ġà¸¡": 1822,
      "@S": 1823,
      "eep": 1824,
      "Ø§Ø¨": 1825,
      "ge": 1826,
      "ãĥĦãĤ¤ãĥ¼ãĥĪ": 1827,
      "Īë": 1828,
      "ES": 1829,
      "Ġte": 1830,
      "Ġê·": 1831,
      "ns": 1832,
      "ait": 1833,
      "ç¾": 1834,
      "uz": 1835,
      "à¥ĭà¤Ĥ": 1836,
      "Ġë°": 1837,
      "æµ": 1838,
      "çŁ¥": 1839,
      "Ġver": 1840,
      "Ã¶": 1841,
      "ãĥ¼ãĥ¼": 1842,
      "æĸ¹æ³ķ": 1843,
      "å¥³": 1844,
      "Ġthey": 1845,
      "ðŁĻı": 1846,
      "Ar": 1847,
      "âĥ": 1848,
      "16": 1849,
      "ê²Į": 1850,
      "for": 1851,
      "ëĤĺ": 1852,
      "Ð»": 1853,
      "ĠØ±": 1854,
      "!!!": 1855,
      "Ġone": 1856,
      "ĠÙĥ": 1857,
      "à¹ĥà¸Ī": 1858,
      "ãģĭãģª": 1859,
      "ëĭĪëĭ¤": 1860,
      "Ġì§": 1861,
      "ç¬ĳ": 1862,
      "ould": 1863,
      "à®¿": 1864,
      "MAMA": 1865,
      "ç§ģ": 1866,
      "à¸Ľà¸£à¸°": 1867,
      "Ġag": 1868,
      "ãĤĪãĤĬ": 1869,
      "âĢĻt": 1870,
      "ile": 1871,
      "à¸ģà¸²à¸£": 1872,
      "Ġz": 1873,
      "âľ¨Ċ": 1874,
      "HY": 1875,
      "å§": 1876,
      "åĢ": 1877,
      "ĠðŁĵ": 1878,
      "ãĥĢ": 1879,
      "ì¹": 1880,
      "Ġna": 1881,
      "ä¸ĭ": 1882,
      "--": 1883,
      "æĬ½": 1884,
      "Ġ/": 1885,
      "per": 1886,
      "åı¯": 1887,
      "åıĤåĬł": 1888,
      "à¤¡": 1889,
      "à¸·à¸Ńà¸Ļ": 1890,
      "ews": 1891,
      "ien": 1892,
      "Ġ×": 1893,
      "à¸¶à¸ĩ": 1894,
      "ãĤ¹ãĤ¿": 1895,
      "ont": 1896,
      "Ġim": 1897,
      "Ġdes": 1898,
      "âĻ¡": 1899,
      "è©±": 1900,
      "à¸²à¸ĩ": 1901,
      "æ¬": 1902,
      "ream": 1903,
      "01": 1904,
      "ĮĢ": 1905,
      "åĽ½": 1906,
      "ix": 1907,
      "à¸«à¸£": 1908,
      "à¹Ģà¸Ĺ": 1909,
      "é«ĺ": 1910,
      "à¸Ļà¸Ļ": 1911,
      "à¹Ģà¸Ĥ": 1912,
      "AK": 1913,
      "ï¸ıĊĊ": 1914,
      "ena": 1915,
      "âĢįâĻ": 1916,
      "Ġabout": 1917,
      "å¥½ãģį": 1918,
      "à¹Īà¸ĩ": 1919,
      "âĥ£": 1920,
      "æĬ½éģ¸": 1921,
      "ãĤ®": 1922,
      "do": 1923,
      "åł´": 1924,
      "ãĤ¯ãĥª": 1925,
      "77": 1926,
      "oon": 1927,
      "Ġpre": 1928,
      "Ġà¸Ħ": 1929,
      "ä»ĬæĹ¥": 1930,
      "ãĤĴãĥķãĤ©ãĥŃãĥ¼": 1931,
      "ãģ£ãģ¨": 1932,
      "OT": 1933,
      "Ġëĭ": 1934,
      "DR": 1935,
      "bl": 1936,
      "200": 1937,
      "éĩĳ": 1938,
      "Ġsa": 1939,
      "ä¿¡": 1940,
      "Ġwant": 1941,
      "à¸Ńà¸¡": 1942,
      "Ġmin": 1943,
      "be": 1944,
      "Ġà¤Ń": 1945,
      "Ùı": 1946,
      "arg": 1947,
      "ìĨ": 1948,
      "ady": 1949,
      "min": 1950,
      "à¸´à¸ĩ": 1951,
      "à¸¸à¸Ķ": 1952,
      "ãģĦãģĨ": 1953,
      "ãģĻãģİ": 1954,
      "ire": 1955,
      "Ġìĭ": 1956,
      "à¸¨": 1957,
      "orn": 1958,
      "ose": 1959,
      "å¾Į": 1960,
      "ðĿĹ": 1961,
      "ä½ķ": 1962,
      "ãģłãģĳ": 1963,
      "old": 1964,
      "AW": 1965,
      "_j": 1966,
      "age": 1967,
      "OW": 1968,
      "Ġíķĺ": 1969,
      "à¥Ĥ": 1970,
      "ez": 1971,
      "æ¸": 1972,
      "å£²": 1973,
      "©´": 1974,
      "ãģ¨æĢĿ": 1975,
      "à¤Ł": 1976,
      "gh": 1977,
      "/X": 1978,
      "èģ": 1979,
      "Ã£": 1980,
      "æĦĽ": 1981,
      "áĢ": 1982,
      "ĠØŃ": 1983,
      "éĢģ": 1984,
      "ĠWe": 1985,
      "éħį": 1986,
      "Î±": 1987,
      "ãĢĳĊ": 1988,
      "à¸´à¹ī": 1989,
      "íĺ": 1990,
      "åĪĩ": 1991,
      "40": 1992,
      "ëĵ¤": 1993,
      "che": 1994,
      "è¨ĺ": 1995,
      "èī¯": 1996,
      "uu": 1997,
      "ãĥ¼ãĥī": 1998,
      "Įë": 1999,
      "Ġget": 2000,
      "è£": 2001,
      "Īĺ": 2002,
      "Ġà¸ŀ": 2003,
      "æł": 2004,
      "ãģ§ãģį": 2005,
      "Ġmore": 2006,
      "å½ĵãģŁ": 2007,
      "åĮ": 2008,
      "Ġman": 2009,
      "ade": 2010,
      "Ġ.": 2011,
      "ï¼Łï¼Ł": 2012,
      "à²": 2013,
      "Ġê°Ģ": 2014,
      "Ġwho": 2015,
      "İæĹ¥": 2016,
      "pa": 2017,
      "IL": 2018,
      "ðŁİī": 2019,
      "esh": 2020,
      "ij": 2021,
      "à¹Īà¸²à¸ĩ": 2022,
      "ï¼ļ": 2023,
      "à¸Ħà¸§à¸²à¸¡": 2024,
      "ĠCh": 2025,
      "/x": 2026,
      "à¹ģà¸ķ": 2027,
      "Ø¶": 2028,
      "80": 2029,
      "à¹Ģà¸¡": 2030,
      "é£Ł": 2031,
      "ãĥģãĥ£": 2032,
      "ÙĢÙĢ": 2033,
      "Ġres": 2034,
      "ãĤĬãģ¾ãģĻ": 2035,
      "ae": 2036,
      "ãģ£ãģ¦ãĤĭ": 2037,
      "/B": 2038,
      "à¹Ģà¸Ī": 2039,
      "!ĊĊ": 2040,
      "ĠØ´": 2041,
      "ãĤ¤ãĥ³": 2042,
      "ĠðŁĺĤ": 2043,
      "Ġdon": 2044,
      "ph": 2045,
      "Ġdel": 2046,
      "/C": 2047,
      "Official": 2048,
      "ĠÙĩ": 2049,
      "çĶ¨": 2050,
      "Ġrt": 2051,
      "âĨ": 2052,
      "ãģĺãĤĥ": 2053,
      "rist": 2054,
      "ru": 2055,
      "âĶģ": 2056,
      "Ġac": 2057,
      "/P": 2058,
      "/W": 2059,
      "à¹Ģà¸Ħ": 2060,
      "/j": 2061,
      "witt": 2062,
      "à¸ĵ": 2063,
      "à¥¤": 2064,
      "ë¥": 2065,
      "Ø§Ø³": 2066,
      "çµĲ": 2067,
      "ina": 2068,
      "ãĥ¼ãĥ«": 2069,
      "ãģ²": 2070,
      "ĠìĿ´": 2071,
      "à¹Ģà¸£à¸²": 2072,
      "Ġser": 2073,
      "ĠðŁĻ": 2074,
      "ãģĴ": 2075,
      "ì£¼": 2076,
      "/z": 2077,
      "Ġà¤µ": 2078,
      "Ñı": 2079,
      "Ġà¸Ń": 2080,
      "é¡ĺ": 2081,
      "Ġsp": 2082,
      "/b": 2083,
      "An": 2084,
      "ÙĪØ±": 2085,
      "à¸µà¸ģ": 2086,
      "ople": 2087,
      "ìĿ¸": 2088,
      "å®Ł": 2089,
      "à®¿à®": 2090,
      "ace": 2091,
      "ando": 2092,
      "ull": 2093,
      "86": 2094,
      "âľ¨ĊĊ": 2095,
      "ran": 2096,
      "/M": 2097,
      "ãĥªãĥ¼": 2098,
      "Ġ'": 2099,
      "/V": 2100,
      "ëį°": 2101,
      "Ġ,": 2102,
      "/y": 2103,
      "VOTE": 2104,
      "ê·": 2105,
      "Ġpor": 2106,
      "/l": 2107,
      "ult": 2108,
      "åİ": 2109,
      "33": 2110,
      "/Y": 2111,
      "!Ċ": 2112,
      "ft": 2113,
      "/D": 2114,
      "hat": 2115,
      "éĽĨ": 2116,
      "uj": 2117,
      "ĠðŁĶ¥": 2118,
      "à¤¶": 2119,
      "Ġtime": 2120,
      "ãĥ¼ãĥł": 2121,
      "Ðº": 2122,
      "ado": 2123,
      "com": 2124,
      "ĠãģĬ": 2125,
      "ì²": 2126,
      "ven": 2127,
      "ours": 2128,
      "/K": 2129,
      "cl": 2130,
      "è¾": 2131,
      "SS": 2132,
      "Ġà¸ķ": 2133,
      "Ã£o": 2134,
      "Ġif": 2135,
      "lease": 2136,
      "ĠDec": 2137,
      "59": 2138,
      "ðŁĳĩ": 2139,
      "/Q": 2140,
      "à¸Ńà¸£": 2141,
      "/J": 2142,
      "yy": 2143,
      "ãģªãģı": 2144,
      ")ĊĊ": 2145,
      "ala": 2146,
      "Ġak": 2147,
      "ail": 2148,
      "ãĤĵãģ§": 2149,
      "own": 2150,
      "witter": 2151,
      "à¹Ħà¸£": 2152,
      "unt": 2153,
      "AC": 2154,
      "ann": 2155,
      "ĠFollow": 2156,
      "ç¶": 2157,
      "/d": 2158,
      "ary": 2159,
      "à¸į": 2160,
      "the": 2161,
      "ĻĢ": 2162,
      "/F": 2163,
      "âľħ": 2164,
      "/q": 2165,
      "ãģ¶": 2166,
      "/O": 2167,
      "/m": 2168,
      "EL": 2169,
      "emp": 2170,
      "so": 2171,
      "/f": 2172,
      "ãĥĽ": 2173,
      "/G": 2174,
      "ç¬¬": 2175,
      "/U": 2176,
      "ðŁĴľ": 2177,
      "ĠØ¬": 2178,
      "/T": 2179,
      "à¸«à¸§": 2180,
      "mas": 2181,
      "/k": 2182,
      "/H": 2183,
      "ãĤģãģ¦": 2184,
      "ðŁ¥°": 2185,
      "ãģ¨ãģĭ": 2186,
      "ita": 2187,
      "isa": 2188,
      "åĵģ": 2189,
      "/N": 2190,
      "à¸´à¸ķ": 2191,
      "/R": 2192,
      "Ġrailway": 2193,
      "/v": 2194,
      "/h": 2195,
      "rav": 2196,
      "27": 2197,
      "å¿ľåĭŁæĸ¹æ³ķ": 2198,
      "Am": 2199,
      "èµ": 2200,
      "ãĥ³ãĤ°": 2201,
      "ðŁĺį": 2202,
      "à¸Ńà¸Ń": 2203,
      "ìŀĲ": 2204,
      "åħĪ": 2205,
      "ï¼Į": 2206,
      "ï¼ıĊ": 2207,
      "NFT": 2208,
      "é¡ĺãģĦ": 2209,
      "Ùĳ": 2210,
      "500": 2211,
      "ãĤ¹ãĥŀ": 2212,
      "!!!!": 2213,
      "íĶ": 2214,
      "æ®": 2215,
      "/g": 2216,
      "/S": 2217,
      "/t": 2218,
      "æ¼": 2219,
      "OL": 2220,
      "ê¹": 2221,
      "eh": 2222,
      "26": 2223,
      "ÙĨØ§": 2224,
      "ä¼ģ": 2225,
      "In": 2226,
      "íĬ¸": 2227,
      "/E": 2228,
      "ðŁİĦ": 2229,
      "Ġbeen": 2230,
      "ç¨¿": 2231,
      "ky": 2232,
      "æĪ¦": 2233,
      "à¹īà¸§à¸¢": 2234,
      "br": 2235,
      "ç«": 2236,
      "ãĥİ": 2237,
      "èŃ": 2238,
      "à®¾": 2239,
      "çĤ": 2240,
      "/s": 2241,
      "à¸¸à¹Ī": 2242,
      "à¸Ħà¸°": 2243,
      "Ġwhen": 2244,
      "Ġad": 2245,
      "ĠIn": 2246,
      "ãĤ§": 2247,
      "ely": 2248,
      "à¸Ńà¸Ķ": 2249,
      "Ġar": 2250,
      "Ħ¤": 2251,
      "AP": 2252,
      "88": 2253,
      "Ġà¤Ĺ": 2254,
      "áĪ": 2255,
      "ãģĤãĤĬãģĮãģ¨ãģĨãģĶãģĸãģĦãģ¾ãģĻ": 2256,
      "ente": 2257,
      "ãĤ²": 2258,
      "äºĪ": 2259,
      "ĠYou": 2260,
      "MAMAVOTE": 2261,
      "ĠĠĠĠĠĠĠĠĠĠĠĠĠĠĠĠ": 2262,
      "ĠÙģÙĬ": 2263,
      "ale": 2264,
      "Ġya": 2265,
      "Ġknow": 2266,
      "/r": 2267,
      "çĲ": 2268,
      "ending": 2269,
      "Min": 2270,
      "æĬķç¨¿": 2271,
      "Ġà°": 2272,
      "_n": 2273,
      "EX": 2274,
      "ê±°": 2275,
      "ðŁĴķ": 2276,
      "IR": 2277,
      "29": 2278,
      "Ġu": 2279,
      "æĭ": 2280,
      "Ġwhat": 2281,
      "/Z": 2282,
      "ðĿĳ": 2283,
      "ìľ¼": 2284,
      "Ġpeople": 2285,
      "Ġevery": 2286,
      "@P": 2287,
      "ĠIt": 2288,
      "ãĥį": 2289,
      "Re": 2290,
      "ãģĬé¡ĺãģĦ": 2291,
      "FNS": 2292,
      "act": 2293,
      "Ø§Ø¯": 2294,
      "Ġtheir": 2295,
      "æ¥½ãģĹ": 2296,
      "à¸®": 2297,
      "/c": 2298,
      "ðŁ¤£ðŁ¤£": 2299,
      "ä¾": 2300,
      "âĳł": 2301,
      "Ġcont": 2302,
      "à¤¿à¤¯": 2303,
      "ĠÙĤ": 2304,
      "/p": 2305,
      "éĥ¨": 2306,
      "Ġsi": 2307,
      "att": 2308,
      "_g": 2309,
      "ÑĮ": 2310,
      "its": 2311,
      "Me": 2312,
      "Ġlove": 2313,
      "US": 2314,
      "48": 2315,
      "Ġê³": 2316,
      "ë¶": 2317,
      "Ø°": 2318,
      "rop": 2319,
      "que": 2320,
      "ree": 2321,
      "ê¸": 2322,
      "con": 2323,
      "anc": 2324,
      "irl": 2325,
      "bo": 2326,
      "60": 2327,
      "à¸±à¹Ī": 2328,
      "à¸¥à¸ĩ": 2329,
      "RS": 2330,
      "Ù¾": 2331,
      "Ġhis": 2332,
      "@B": 2333,
      "Ġyears": 2334,
      "/n": 2335,
      "æ´": 2336,
      "ĠØ®": 2337,
      "Ġher": 2338,
      "å¾ħ": 2339,
      "OP": 2340,
      "à¸²à¸§": 2341,
      "Ġlos": 2342,
      "/I": 2343,
      "à¹Ĭ": 2344,
      "à¹ĥà¸Ħà¸£": 2345,
      "æľŁ": 2346,
      "Ð´": 2347,
      "oj": 2348,
      "ðŁĺŃðŁĺŃðŁĺŃðŁĺŃ": 2349,
      "ÙĬØ±": 2350,
      "à¸¢à¸¢": 2351,
      "We": 2352,
      "28": 2353,
      "uh": 2354,
      "ãģ³": 2355,
      "ãģ¸": 2356,
      "èĥ": 2357,
      "Ú¯": 2358,
      "@n": 2359,
      "Ġà¤¯": 2360,
      "çİ": 2361,
      "ãĤ·ãĥ§": 2362,
      "à¸«à¸¡": 2363,
      "90": 2364,
      "ĠQ": 2365,
      "ĠØ§ÙĦÙħ": 2366,
      "Ġìĸ": 2367,
      "ese": 2368,
      "ĠAl": 2369,
      "à¯ģà®": 2370,
      "fter": 2371,
      "æ²": 2372,
      "à¸ģà¸¥": 2373,
      "appy": 2374,
      "à¹Ģà¸ª": 2375,
      "ãģĤãģĤ": 2376,
      "You": 2377,
      "Ø§ØŃ": 2378,
      "çľŁ": 2379,
      "éĢļ": 2380,
      "ì§Ħ": 2381,
      "@t": 2382,
      "å¯¾": 2383,
      "è»": 2384,
      "ica": 2385,
      "âĶģâĶģ": 2386,
      "use": 2387,
      "à¹Ģà¸ķ": 2388,
      "Ġstudents": 2389,
      "ï¸İï¸İ": 2390,
      "JP": 2391,
      "Ã³n": 2392,
      "ãĤĢ": 2393,
      "è¬¡": 2394,
      "pt": 2395,
      "ise": 2396,
      "ĠÐ¿": 2397,
      "OM": 2398,
      "ife": 2399,
      "Ġà¹Ĥ": 2400,
      "æŃĮè¬¡": 2401,
      "è§": 2402,
      "reat": 2403,
      "à¹Ģà¸ĩ": 2404,
      "@b": 2405,
      "AD": 2406,
      "Ġë³´": 2407,
      "ç¾İ": 2408,
      "à¹Īà¸§": 2409,
      "di": 2410,
      "ĠðŁĮ": 2411,
      "æŃĮè¬¡ç¥Ń": 2412,
      "çĶ°": 2413,
      "ãĥ¼ãĤ¹": 2414,
      "èı": 2415,
      "Ġpara": 2416,
      "_p": 2417,
      "ãģĹãģ¾ãģĹãģŁ": 2418,
      "ØĮ": 2419,
      "Ġà¹Ħà¸¡": 2420,
      "Î¿": 2421,
      "ler": 2422,
      "Ġà¤ªà¤°": 2423,
      "à¸Ķà¸Ķ": 2424,
      "à¸£à¸²": 2425,
      "row": 2426,
      "ign": 2427,
      "ka": 2428,
      "66": 2429,
      "ë¯": 2430,
      "ŃĲ": 2431,
      "res": 2432,
      "ãĤ¸ãĥ£": 2433,
      "ãĥĶ": 2434,
      "ë©´": 2435,
      "Øº": 2436,
      "ä¸į": 2437,
      "à¹Ĩà¹Ĩ": 2438,
      "Ġà¸Ĺ": 2439,
      "ãģĲ": 2440,
      "ãģĹãģ¾": 2441,
      "æŀľ": 2442,
      "ãĤĤãģĨ": 2443,
      "Ġret": 2444,
      "æĢ§": 2445,
      "ãģ®ãģĬ": 2446,
      "Ġsu": 2447,
      "mm": 2448,
      "ðŁ§": 2449,
      "ë²": 2450,
      "Ġgood": 2451,
      "HAHA": 2452,
      "å½ĵãģŁãĤĭ": 2453,
      "ãģıãĤĵ": 2454,
      "å¿µ": 2455,
      "åĲĮ": 2456,
      "ëĿ¼": 2457,
      "Ġve": 2458,
      "Ġsay": 2459,
      "wh": 2460,
      "PC": 2461,
      "Î¹": 2462,
      "æĤ": 2463,
      "ura": 2464,
      "éĻĲ": 2465,
      "OS": 2466,
      "ï¼Ĩ": 2467,
      "ìķ¼": 2468,
      "Ã±": 2469,
      "irst": 2470,
      "âĢĭ": 2471,
      "ual": 2472,
      "æĬ½éģ¸ãģ§": 2473,
      "ãĤ½": 2474,
      "46": 2475,
      "à¸Īà¸ģ": 2476,
      "ĠÃ©": 2477,
      "åł±": 2478,
      "à¹Īà¸Ńà¸¢": 2479,
      "AI": 2480,
      "ç¤": 2481,
      "ãģĪãģ¦": 2482,
      "go": 2483,
      "70": 2484,
      "éļ": 2485,
      "ì¤": 2486,
      "ä¼ģçĶ»": 2487,
      "sm": 2488,
      "ÙĬØ©": 2489,
      "Ġê²": 2490,
      "ìĤ¬": 2491,
      "Ġsome": 2492,
      "atch": 2493,
      "ãģĹãĤĩ": 2494,
      "ãģĪãĤĭ": 2495,
      "kan": 2496,
      "ĠIDR": 2497,
      "Ġgroup": 2498,
      "æľ¬æĹ¥": 2499,
      "ãģ«ãģ¯": 2500,
      "Ä°": 2501,
      "Ġëª": 2502,
      "Ñĭ": 2503,
      "ÙĩØ§": 2504,
      "ìĺ¤": 2505,
      "ä»ĺ": 2506,
      "ãģĿãĤĮ": 2507,
      "ef": 2508,
      "45": 2509,
      "Ġà¹ģà¸ķ": 2510,
      "Ä±m": 2511,
      "@C": 2512,
      "à¸±à¸Ķ": 2513,
      "åĳ³": 2514,
      "FNSæŃĮè¬¡ç¥Ń": 2515,
      "ëł": 2516,
      "Ġà¸Ĥ": 2517,
      "ings": 2518,
      "ga": 2519,
      "ends": 2520,
      "ĠìĦ": 2521,
      "ä½¿": 2522,
      "ins": 2523,
      "ito": 2524,
      "ero": 2525,
      "ais": 2526,
      "ance": 2527,
      "æĴ": 2528,
      "ates": 2529,
      "à®¾à®": 2530,
      "ãĤĪãģŃ": 2531,
      "ãĥĥãĥĹ": 2532,
      "ĠÐ½": 2533,
      "à¸Īà¸£": 2534,
      "und": 2535,
      "Ġany": 2536,
      "mo": 2537,
      "èĤ": 2538,
      "Ø«": 2539,
      "mi": 2540,
      "ë§Į": 2541,
      "ions": 2542,
      "ÏĦ": 2543,
      "rt": 2544,
      "ĠÂ": 2545,
      "ãģµ": 2546,
      "Ġpart": 2547,
      "æĶ¾": 2548,
      "ãģłãģ£ãģŁ": 2549,
      "å§ĭ": 2550,
      "Ñĩ": 2551,
      "ãģľ": 2552,
      "ãģ¾ãģŁ": 2553,
      "rs": 2554,
      "ÙĪÙĦ": 2555,
      "Ġhow": 2556,
      "Ĥ¬ë": 2557,
      "à¸Īà¸²à¸ģ": 2558,
      "EE": 2559,
      "à¸ªà¸Ļ": 2560,
      "èĪ": 2561,
      "UT": 2562,
      "à¹ĥà¸Ĭ": 2563,
      "Ġol": 2564,
      "ìłķ": 2565,
      "orld": 2566,
      "ani": 2567,
      "Ġ!": 2568,
      "Ġbir": 2569,
      "Ġda": 2570,
      "03": 2571,
      "è²·": 2572,
      "ush": 2573,
      "à´": 2574,
      "ðŁĺĬ": 2575,
      "à¥įà¤µ": 2576,
      "æ±º": 2577,
      "Ġnew": 2578,
      "ons": 2579,
      "@j": 2580,
      "ãĥĻ": 2581,
      "away": 2582,
      "à¸Ļà¸¥": 2583,
      "Ïī": 2584,
      "Va": 2585,
      "Ġìļ": 2586,
      "æĮģ": 2587,
      "igh": 2588,
      "by": 2589,
      "FF": 2590,
      "mar": 2591,
      "ãģ£ãģ": 2592,
      "UR": 2593,
      "nn": 2594,
      "ä½ĵ": 2595,
      "å¤ī": 2596,
      "ìĹĲìĦľ": 2597,
      "oss": 2598,
      "ence": 2599,
      "ĠThis": 2600,
      "çī©": 2601,
      "åĥķ": 2602,
      "/A": 2603,
      "ba": 2604,
      "other": 2605,
      "ãĢĢãĢĢ": 2606,
      "à¸ł": 2607,
      "å®¶": 2608,
      "int": 2609,
      "ej": 2610,
      "IM": 2611,
      "¬´": 2612,
      "à¹Īà¸Ļ": 2613,
      "åĬĽ": 2614,
      "ç¥ŀ": 2615,
      "à¸ŀà¸£": 2616,
      "rr": 2617,
      "âĢ¼ï¸ı": 2618,
      "Ùĭ": 2619,
      "alk": 2620,
      "Ġì°": 2621,
      "à¸·à¹ī": 2622,
      "âĺº": 2623,
      "@D": 2624,
      "Ġà¸Ĭ": 2625,
      "ðŁı¼": 2626,
      "å¿ĥ": 2627,
      "/u": 2628,
      "ãģ¾ãģĽ": 2629,
      "Ġsup": 2630,
      "Ġdem": 2631,
      "Ġsee": 2632,
      "Ġdate": 2633,
      "Ġà¹ģà¸¥": 2634,
      "à¹Īà¸²à¸¢": 2635,
      "ãĤĪãĤį": 2636,
      "Ġbu": 2637,
      "ĠNo": 2638,
      "ĠDecember": 2639,
      "ä¸ĸ": 2640,
      "´Ī": 2641,
      "åĦ": 2642,
      "ĠâĿ¤ï¸ı": 2643,
      "à¸Ńà¸°à¹Ħà¸£": 2644,
      "âĢĶ": 2645,
      "No": 2646,
      "iveaway": 2647,
      "çĲĨ": 2648,
      "aya": 2649,
      "Ð¼": 2650,
      "ÙĩÙĩÙĩÙĩÙĩÙĩÙĩÙĩ": 2651,
      "éħįä¿¡": 2652,
      "âĻª": 2653,
      "ãĢģãĢģ": 2654,
      "åº¦": 2655,
      "ì°": 2656,
      "íĮ": 2657,
      "opee": 2658,
      "ata": 2659,
      "ãĥ³ãĤ¹": 2660,
      "å¼ķ": 2661,
      "Rail": 2662,
      "æĿ±": 2663,
      "ëħ": 2664,
      "ĠØ§ÙĨ": 2665,
      "ï½Ĺ": 2666,
      "Ð²": 2667,
      "ðŁĴ¦": 2668,
      "ãģ¡ãĤī": 2669,
      "@d": 2670,
      "vern": 2671,
      "35": 2672,
      "à¹īà¸Ļ": 2673,
      "ìĦ¸": 2674,
      "âĳ¡": 2675,
      "&amp": 2676,
      "ca": 2677,
      "à¤¾à¤²": 2678,
      "_S": 2679,
      "ãĤ¹ãĥŀãĤ¹": 2680,
      "ats": 2681,
      "?Ċ": 2682,
      "211": 2683,
      "Ġdis": 2684,
      "ĠÐ²": 2685,
      "DM": 2686,
      "ĠðŁ¥º": 2687,
      "zz": 2688,
      "#S": 2689,
      "åĨħ": 2690,
      "ĠÑģ": 2691,
      "ĠØµ": 2692,
      "oto": 2693,
      "able": 2694,
      "@p": 2695,
      "ï½¥": 2696,
      "ãĤ¯ãĥªãĤ¹ãĥŀãĤ¹": 2697,
      "PEN": 2698,
      "åķ": 2699,
      "ãĥļ": 2700,
      "éķ": 2701,
      "AWAY": 2702,
      "als": 2703,
      "ãģĽãģ¦": 2704,
      "ãģ¨ãģĦãģĨ": 2705,
      "å¤ĸ": 2706,
      "ãĢħ": 2707,
      "IVEAWAY": 2708,
      "@y": 2709,
      "JO": 2710,
      "ë§Ī": 2711,
      "ĠÙĪØ§ÙĦ": 2712,
      "à¸©": 2713,
      "Ġmon": 2714,
      "FC": 2715,
      "ãģĳãģ¦": 2716,
      "à¹Īà¸²à¸Ļ": 2717,
      "Ġfe": 2718,
      "åŃ¦": 2719,
      "Ġche": 2720,
      "07": 2721,
      "les": 2722,
      "Ø³Øª": 2723,
      "Ġapp": 2724,
      "Îµ": 2725,
      "à¸²à¸Ķ": 2726,
      "ox": 2727,
      "ward": 2728,
      "ound": 2729,
      "ãĤĭãģ®": 2730,
      "usic": 2731,
      "Ġìĥ": 2732,
      "çī¹": 2733,
      "sp": 2734,
      "âĢįâĻĢ": 2735,
      "ove": 2736,
      "ory": 2737,
      "IG": 2738,
      "è±": 2739,
      "ãģ©ãģĨ": 2740,
      "ron": 2741,
      "ĠEx": 2742,
      "Ġë¶": 2743,
      "âģ": 2744,
      "ĠëĤĺ": 2745,
      "ŀĺ": 2746,
      "ãģªãĤī": 2747,
      "Ġà¤°à¤¹": 2748,
      "à¹ģà¸ļà¸ļ": 2749,
      "¦¬": 2750,
      "za": 2751,
      "à¸±à¸Ļà¸Ļ": 2752,
      "ki": 2753,
      "_M": 2754,
      "har": 2755,
      "Ġ||": 2756,
      "ĠÃ§": 2757,
      "Ġcl": 2758,
      "ãģ§ãģ¯": 2759,
      "inc": 2760,
      ".âĢ¦": 2761,
      "ãĤ³ãĥ©": 2762,
      "ĠĠĠ": 2763,
      "ua": 2764,
      "çŃ": 2765,
      "ets": 2766,
      "era": 2767,
      "à¤¾à¤¤": 2768,
      "è¡¨": 2769,
      "ç¢": 2770,
      "Ġng": 2771,
      "ube": 2772,
      "ren": 2773,
      "à¹Īà¸¡": 2774,
      "çĶ·": 2775,
      "Ġonly": 2776,
      "ä¸ĩ": 2777,
      "à¸´à¸§": 2778,
      "ict": 2779,
      "ìļ°": 2780,
      "Ġlook": 2781,
      "Ġneed": 2782,
      "Ġhours": 2783,
      "ert": 2784,
      "âļ": 2785,
      "ond": 2786,
      "erson": 2787,
      "åĤ¬": 2788,
      "ico": 2789,
      "ìŀ¥": 2790,
      "à¸Ńà¸¢à¸²à¸ģ": 2791,
      "éķ·": 2792,
      "ë¹": 2793,
      "à¤Ń": 2794,
      "ird": 2795,
      "Ġet": 2796,
      "Ġem": 2797,
      "ĠëĤ´": 2798,
      "edia": 2799,
      "å¤ļ": 2800,
      "ÙĬØª": 2801,
      "Úº": 2802,
      "ãĤĴRT": 2803,
      "yj": 2804,
      "ãĥ¼ãĤ¸": 2805,
      "æĦı": 2806,
      "@K": 2807,
      "ĠìķĪ": 2808,
      "ãģĦãģ¾ãģĹãģŁ": 2809,
      "lor": 2810,
      "nc": 2811,
      "06": 2812,
      "Ġà¸§": 2813,
      "oot": 2814,
      "_P": 2815,
      "hh": 2816,
      "95": 2817,
      "à¥įà¤¤": 2818,
      "Ġthink": 2819,
      "ations": 2820,
      "âĢľ": 2821,
      "Ġthan": 2822,
      "ĠðŁį": 2823,
      "Ġent": 2824,
      "ros": 2825,
      "à¸¹à¸ģà¸«à¸Ļ": 2826,
      "ÙĪÙħ": 2827,
      "wa": 2828,
      "ðŁĳį": 2829,
      "à¸ļà¸ļ": 2830,
      "ild": 2831,
      "/i": 2832,
      "íĭ": 2833,
      "ily": 2834,
      "oi": 2835,
      "TH": 2836,
      "ĠGIVEAWAY": 2837,
      "Tr": 2838,
      "çĿ": 2839,
      "@g": 2840,
      "Ġpas": 2841,
      "ÙĦØ§": 2842,
      "à¹Īà¸²à¸£": 2843,
      "èī²": 2844,
      "Shopee": 2845,
      "ince": 2846,
      "ç¢º": 2847,
      "æĹ¥æľ¬": 2848,
      "éĩİ": 2849,
      "Ġtra": 2850,
      "Ġtoday": 2851,
      "shw": 2852,
      "Ä«": 2853,
      "Ġà¤¨à¤¹": 2854,
      "ìĭ¶": 2855,
      "âĻ¥": 2856,
      "/e": 2857,
      "Pr": 2858,
      "åıĸ": 2859,
      "ìĥģ": 2860,
      "ãģªãģ®": 2861,
      "ðŁ¤į": 2862,
      "ðŁĳı": 2863,
      "æķ°": 2864,
      "ãģĹãģĭ": 2865,
      "à¹Ģà¸Ļ": 2866,
      "EM": 2867,
      "ãĤĪãĤįãģĹãģı": 2868,
      "à¸ļà¸Ńà¸ģ": 2869,
      "ãģ§ãģĻãģŃ": 2870,
      "zy": 2871,
      "ãĥ»ãĥ»": 2872,
      "ãĤ«ãĤ¦": 2873,
      "oS": 2874,
      "à¹īà¸Ńà¸¡": 2875,
      "ject": 2876,
      "à¸¥à¸°": 2877,
      "ðĿĻ": 2878,
      "Ġplay": 2879,
      "Ġíķ": 2880,
      "ä»¥": 2881,
      "Ġum": 2882,
      "Ġmi": 2883,
      "ici": 2884,
      "à¹īà¸²à¸Ļ": 2885,
      "AB": 2886,
      "/a": 2887,
      "ui": 2888,
      "å¤©": 2889,
      "çı": 2890,
      "ëª": 2891,
      "ami": 2892,
      "ê³łìĭ¶": 2893,
      "ãĤ¤ãĥĪ": 2894,
      "ãģįãģŁ": 2895,
      "36": 2896,
      "à¹Īà¸Ńà¸Ļ": 2897,
      "Ä±k": 2898,
      "verse": 2899,
      "ãĤĨ": 2900,
      "ĠìŀĪ": 2901,
      "âĢĻm": 2902,
      "æŁ": 2903,
      "Ø§Ø¡": 2904,
      "Ġëĺ": 2905,
      "æ°´": 2906,
      "pen": 2907,
      "Crypto": 2908,
      "á´": 2909,
      "Ġê±": 2910,
      "åĭķçĶ»": 2911,
      "CH": 2912,
      "éĸĭåĤ¬": 2913,
      "Ġà¤ĩ": 2914,
      "éŁ": 2915,
      "Ã¼n": 2916,
      "ids": 2917,
      "æ©": 2918,
      "å¼µ": 2919,
      "ãģĵãģ¡ãĤī": 2920,
      "75": 2921,
      "UM": 2922,
      "éĢ£": 2923,
      "On": 2924,
      "Ġter": 2925,
      "EW": 2926,
      "ora": 2927,
      "ĠØ¥": 2928,
      "HYPEN": 2929,
      "@R": 2930,
      "ret": 2931,
      "ms": 2932,
      "44": 2933,
      "mer": 2934,
      "ìĽĲ": 2935,
      "à¹ĭ": 2936,
      "çļĨ": 2937,
      "æĥħ": 2938,
      "åģ": 2939,
      "ĠZ": 2940,
      "ãĥķãĤ¡": 2941,
      "Ġafter": 2942,
      "ÃŃa": 2943,
      "à¸ĩà¸²à¸Ļ": 2944,
      "fr": 2945,
      "å±±": 2946,
      "_Ø§ÙĦ": 2947,
      "cho": 2948,
      "Ġretweet": 2949,
      "å¤ľ": 2950,
      "Jc": 2951,
      "å°ı": 2952,
      "æ¼Ķ": 2953,
      "ðĿĺ": 2954,
      "æľī": 2955,
      "çµĲæŀľ": 2956,
      "tter": 2957,
      "'m": 2958,
      "31": 2959,
      "bal": 2960,
      "ðŁ¦": 2961,
      "åħ¬éĸĭ": 2962,
      "ishn": 2963,
      "ŀĳ": 2964,
      "ìĺģ": 2965,
      "etweet": 2966,
      "Ġmuch": 2967,
      "æ¯İæĹ¥": 2968,
      "@L": 2969,
      "Ġvot": 2970,
      "ãĢįĊ": 2971,
      "UNG": 2972,
      "air": 2973,
      "Â´": 2974,
      "à¹Ģà¸Ńà¸²": 2975,
      "vernment": 2976,
      "RailMin": 2977,
      "odi": 2978,
      "à¸²à¸²": 2979,
      "Ġ..": 2980,
      "VEN": 2981,
      "_d": 2982,
      "Ġà¤ļ": 2983,
      "elf": 2984,
      "Ġoff": 2985,
      "æĪĲ": 2986,
      "ĠðŁļ": 2987,
      "ĠRailway": 2988,
      "par": 2989,
      "ãĥ³ãĥī": 2990,
      "yo": 2991,
      "Ġback": 2992,
      "ãĥ¼ãĤº": 2993,
      "æĻĤéĸĵ": 2994,
      "__:": 2995,
      "sa": 2996,
      "Ġï¼ıĊ": 2997,
      "áī": 2998,
      "ãĤĮãģ°": 2999,
      "ðŁĶ¥ðŁĶ¥": 3000,
      "èĬ": 3001,
      "ãģĦãģ¤": 3002,
      "íĸ": 3003,
      "ï¼¼ĊĊ": 3004,
      "çµĤ": 3005,
      "ç¯": 3006,
      "RB": 3007,
      "Ãª": 3008,
      "Ġà¸Ħà¸Ļ": 3009,
      "ika": 3010,
      "@T": 3011,
      "shwini": 3012,
      "çĤ¹": 3013,
      "éľ": 3014,
      "Ġbel": 3015,
      "Ġà¸ĸ": 3016,
      "bts": 3017,
      "Ġvote": 3018,
      "vi": 3019,
      "Î½": 3020,
      "ax": 3021,
      "åı¯æĦĽ": 3022,
      "à¤¿à¤ı": 3023,
      "à¹ģà¸¡": 3024,
      "@J": 3025,
      "ĠØ§ÙĦÙĦÙĩ": 3026,
      "å¼·": 3027,
      "ãĥķãĥĪ": 3028,
      "aut": 3029,
      "bs": 3030,
      "ì¦": 3031,
      "/o": 3032,
      "à¸§à¸§": 3033,
      "ãĤĬãģ¾ãģĹãģŁ": 3034,
      "çķª": 3035,
      "gu": 3036,
      "Ġà¸£à¸§à¸¢": 3037,
      "mp": 3038,
      "à¥ģà¤": 3039,
      "cr": 3040,
      "à¹Ģà¸¢": 3041,
      "ause": 3042,
      "é£Łãģ¹": 3043,
      "My": 3044,
      "Ø§ÙĬ": 3045,
      "win": 3046,
      "ated": 3047,
      "RailMinIndia": 3048,
      "è¨ĺå¿µ": 3049,
      "ics": 3050,
      "@N": 3051,
      "łĢ": 3052,
      "Ġ?": 3053,
      "Ġdec": 3054,
      "ÙĦÙħ": 3055,
      "à¸´à¸ģ": 3056,
      "04": 3057,
      "Cl": 3058,
      "¬¼": 3059,
      "Ġro": 3060,
      "Ġwait": 3061,
      "ĠëĺĲ": 3062,
      "âĿĹ": 3063,
      "ì¶": 3064,
      "bh": 3065,
      "uf": 3066,
      "âĹĭ": 3067,
      "Students": 3068,
      "96": 3069,
      "ï¸ıâĥ£": 3070,
      "ĠðŁĲ": 3071,
      "ĠëĦ": 3072,
      "ç¹": 3073,
      "ãĤ³ãĥ©ãĥľ": 3074,
      "ãģ¾ãģĽãĤĵ": 3075,
      "SH": 3076,
      "ê¹Į": 3077,
      "éĿ¢": 3078,
      "shwiniVa": 3079,
      "98": 3080,
      "åĸ": 3081,
      "AG": 3082,
      "ays": 3083,
      "çĽ¸": 3084,
      "ÙĦÙī": 3085,
      "Se": 3086,
      "ï¼ĳ": 3087,
      "ðŁİģĊĊ": 3088,
      "cy": 3089,
      "_B": 3090,
      "ìłľ": 3091,
      "èĩªåĪĨ": 3092,
      "ãģŀ": 3093,
      "æ¨": 3094,
      "Ġà¤ı": 3095,
      "Ġni": 3096,
      "à¸Ĺà¸§": 3097,
      "ãĤ¢ãĥ«": 3098,
      "à¹ģà¸ļà¸Ļà¸¥": 3099,
      "any": 3100,
      "ìĿĮ": 3101,
      "ëĵľ": 3102,
      "à¹Īà¹Ħà¸Ķ": 3103,
      "Ġbl": 3104,
      "gg": 3105,
      "ãģĿãģ®": 3106,
      "æ¥Ń": 3107,
      "ĠTHE": 3108,
      "ishnaw": 3109,
      "Ġshould": 3110,
      "ç©": 3111,
      "ower": 3112,
      "æĺ¯": 3113,
      "æıı": 3114,
      "LH": 3115,
      "Ġpar": 3116,
      "osh": 3117,
      "ãĥ¤": 3118,
      "Ġmas": 3119,
      "ÙĴ": 3120,
      "ë³": 3121,
      "shwiniVaishnaw": 3122,
      "ì´Ī": 3123,
      "ãĤ´": 3124,
      "ãĤ¶": 3125,
      "ors": 3126,
      "à¥įà¤·": 3127,
      "Ġtak": 3128,
      "ãģŁãĤī": 3129,
      "¢ĭ": 3130,
      "ãģ¿ãģŁãģĦ": 3131,
      "vers": 3132,
      "è¬Ŀ": 3133,
      "Ġact": 3134,
      "ement": 3135,
      "Ġstill": 3136,
      "UE": 3137,
      "è¼": 3138,
      "upp": 3139,
      "Ġà¸ļ": 3140,
      "XT": 3141,
      "çĻ»": 3142,
      "Ġthem": 3143,
      "çĸ": 3144,
      "áĬ": 3145,
      "ali": 3146,
      "ãģ£ãģ¡ãĤĥ": 3147,
      "ðŁĴĻ": 3148,
      "è¿ĳ": 3149,
      "ä»ķ": 3150,
      "åľ°": 3151,
      "Ġà¤¶": 3152,
      "ĠTr": 3153,
      "itch": 3154,
      "ĠìĿ´ë": 3155,
      "æģ": 3156,
      "à¯įà®ķ": 3157,
      "à¸£à¸ĩ": 3158,
      "çµµ": 3159,
      "red": 3160,
      "MOIndia": 3161,
      "æĸĻ": 3162,
      "íĻ": 3163,
      "05": 3164,
      "AE": 3165,
      "ett": 3166,
      "èĥ½": 3167,
      "à¸ľà¸¡": 3168,
      "Ġëĭ¤": 3169,
      "Ġdid": 3170,
      "Ġhere": 3171,
      "ALA": 3172,
      "ëĤ¨": 3173,
      "äºĨ": 3174,
      "ano": 3175,
      "×Ļ": 3176,
      "bb": 3177,
      "à¥Īà¤Ĥ": 3178,
      "ENHYPEN": 3179,
      "Mar": 3180,
      "Ġthere": 3181,
      "ìĪĺ": 3182,
      "à±į": 3183,
      "gG": 3184,
      "ĸ¤": 3185,
      "ord": 3186,
      "ç´Ħ": 3187,
      "ĠâĢĺ": 3188,
      "wo": 3189,
      "ê³łìĭ¶ëĭ¤": 3190,
      "ĠSh": 3191,
      "Ġover": 3192,
      "ida": 3193,
      "amb": 3194,
      "ä»Ĭå¹´": 3195,
      "ãģķãĤĵãģ®": 3196,
      "IP": 3197,
      "Ġbec": 3198,
      "ways": 3199,
      "ĠÃł": 3200,
      "@_": 3201,
      "åħĥ": 3202,
      "Ġuna": 3203,
      "éĸ¢": 3204,
      "@H": 3205,
      "ris": 3206,
      "fl": 3207,
      "ĠðŁĻı": 3208,
      "ern": 3209,
      "IK": 3210,
      "ä»£": 3211,
      "äº¬": 3212,
      "é¢": 3213,
      "TR": 3214,
      "Ķà¤°": 3215,
      "à¸¸à¸ĵ": 3216,
      "Ġà¤ī": 3217,
      "è¦ĭãģ¦": 3218,
      "aby": 3219,
      "Ø¯ÙĬ": 3220,
      "date": 3221,
      "à¹Ģà¸§": 3222,
      "Ġmake": 3223,
      "ãĤĤãģ®": 3224,
      "æĥ³": 3225,
      "Ġhad": 3226,
      "èº": 3227,
      "enn": 3228,
      "çĻºå£²": 3229,
      "ED": 3230,
      "ãģĬé¡ĺãģĦãģĹãģ¾ãģĻ": 3231,
      "ãģ¡ãĤĩ": 3232,
      "ext": 3233,
      "Ø¸": 3234,
      "Ġpost": 3235,
      "ãĥ©ãĤ¤ãĥ": 3236,
      "08": 3237,
      "ãģĩ": 3238,
      "____": 3239,
      "150": 3240,
      ":Ċ": 3241,
      "à¸ĩà¸ĩ": 3242,
      "Ġëı": 3243,
      "è¾¼": 3244,
      "AH": 3245,
      "#B": 3246,
      "Ġfirst": 3247,
      "¸Į": 3248,
      "à¸µà¸¢à¸§": 3249,
      "çı¾": 3250,
      "åıĹ": 3251,
      "ko": 3252,
      "Ġperson": 3253,
      "97": 3254,
      "umar": 3255,
      "Ġagain": 3256,
      "ãģ«ãģªãĤĭ": 3257,
      "you": 3258,
      "çķĮ": 3259,
      "è³ŀ": 3260,
      "çĻ½": 3261,
      "It": 3262,
      "yn": 3263,
      "Aj": 3264,
      "Ã¤": 3265,
      "£¨": 3266,
      "áĭ": 3267,
      "Ġhel": 3268,
      "_c": 3269,
      "@h": 3270,
      "ĠÛģ": 3271,
      "IB": 3272,
      "UL": 3273,
      "æ¥½ãģĹãģ¿": 3274,
      "à¹ĩà¸ģ": 3275,
      "/âĢ¦": 3276,
      "Ġjoin": 3277,
      "34": 3278,
      "eta": 3279,
      "ãģĪãģĪ": 3280,
      "çŁ¥ãĤī": 3281,
      "Ġles": 3282,
      "ete": 3283,
      "ough": 3284,
      "à¨": 3285,
      "æĦŁè¬Ŀ": 3286,
      "æĶ¾éĢģ": 3287,
      "å°ĳ": 3288,
      "56": 3289,
      "Sp": 3290,
      "ful": 3291,
      "à¸¸à¸Ļ": 3292,
      "ãģıãģª": 3293,
      "åŀ": 3294,
      "åºĹ": 3295,
      "ãģ¿ãĤĵãģª": 3296,
      "à¤¿à¤ķ": 3297,
      "ãĤįãģĨ": 3298,
      "ands": 3299,
      "è«": 3300,
      "yu": 3301,
      "à¸¡à¸²à¸£": 3302,
      "uct": 3303,
      "à¸ļà¸£": 3304,
      "Ä±z": 3305,
      "à¸²à¸Ĺ": 3306,
      "ãģĦãģŁãģł": 3307,
      "RY": 3308,
      "Ġdone": 3309,
      "æĺł": 3310,
      "íģ": 3311,
      "ke": 3312,
      "ye": 3313,
      "à¹īà¸²à¸ĩ": 3314,
      "...Ċ": 3315,
      "Ġ)": 3316,
      "ãģĹãģ¦ãĤĭ": 3317,
      "jp": 3318,
      "ÂłÂł": 3319,
      "ï¼ģï¼ģï¼ģ": 3320,
      "Ġà¸Ľ": 3321,
      "çĿĢ": 3322,
      "ute": 3323,
      "Val": 3324,
      "å¬": 3325,
      "ray": 3326,
      "ìĬµ": 3327,
      "ĠÙ¾": 3328,
      "_f": 3329,
      "ym": 3330,
      "hing": 3331,
      "ç¶ļ": 3332,
      "aka": 3333,
      "Ad": 3334,
      "76": 3335,
      "à¤ļ": 3336,
      "@G": 3337,
      "ĠOn": 3338,
      "adi": 3339,
      "ãĤ®ãĥķãĥĪ": 3340,
      "ï¼ŁĊ": 3341,
      "ë°©": 3342,
      "Ġshe": 3343,
      "/wK": 3344,
      "II": 3345,
      "ino": 3346,
      "ëĮĢ": 3347,
      "ãĤīãģĦ": 3348,
      "à¤¾à¤¦": 3349,
      "çĹ": 3350,
      "NCT": 3351,
      "ATE": 3352,
      "ope": 3353,
      "#GMMTV": 3354,
      "åĭŁéĽĨ": 3355,
      "El": 3356,
      "OK": 3357,
      "æº": 3358,
      "Dr": 3359,
      "à¸¹à¸Ķ": 3360,
      ",,": 3361,
      "Ú¾": 3362,
      "ideo": 3363,
      "ãģĹãĤĩãģĨ": 3364,
      "ãģĭãĤı": 3365,
      "riv": 3366,
      "ĠThan": 3367,
      "Of": 3368,
      "ðŁĴĸ": 3369,
      "ty": 3370,
      "ÙģÙĬ": 3371,
      "âĸ¼": 3372,
      "âĨĴ": 3373,
      "Ġë³": 3374,
      "ãģ¾ãģł": 3375,
      "æīĢ": 3376,
      "Ñħ": 3377,
      "Ä±r": 3378,
      "ÙĩÙħ": 3379,
      "ux": 3380,
      "nya": 3381,
      "ubl": 3382,
      "ship": 3383,
      "æĪĳ": 3384,
      "ane": 3385,
      "à¤¿à¤²": 3386,
      "Ġvac": 3387,
      "éĻĲå®ļ": 3388,
      "âĢįâĻĢï¸ı": 3389,
      "ristmas": 3390,
      "è§£": 3391,
      "Ġhim": 3392,
      "Ġmak": 3393,
      "Ø§Ø¦": 3394,
      "93": 3395,
      "sl": 3396,
      "Ġìľ": 3397,
      "ãĤ·ãĥ£": 3398,
      "ìľ¼ë¡ľ": 3399,
      "Ġright": 3400,
      "OG": 3401,
      "Ġâľ¨": 3402,
      "Ġje": 3403,
      "Ã¡s": 3404,
      "Ġà¸¥": 3405,
      "Ġê°Ģê³łìĭ¶ëĭ¤": 3406,
      "_T": 3407,
      "@c": 3408,
      "ãĤ·ãĥ§ãĥ³": 3409,
      "ĠDE": 3410,
      "è¦ģ": 3411,
      "åĪ¸": 3412,
      "UP": 3413,
      "Pro": 3414,
      "åĦª": 3415,
      "star": 3416,
      "ĽĦ": 3417,
      "ï¼ĥ": 3418,
      "JcKK": 3419,
      "Ġq": 3420,
      "ãĢģĊ": 3421,
      "Ġgot": 3422,
      "Ġmost": 3423,
      "à¥ĭà¤Ĺ": 3424,
      "ìĹ¬": 3425,
      "imin": 3426,
      "ìķĦìļĶ": 3427,
      "Wh": 3428,
      "Ġgovernment": 3429,
      "je": 3430,
      "Ġìĺ¤": 3431,
      "Ø§Ø¹": 3432,
      "Ġstart": 3433,
      "Ġeu": 3434,
      "rit": 3435,
      "åľ¨": 3436,
      "à¸ķà¸Ńà¸Ļ": 3437,
      "Ġà¤Ķà¤°": 3438,
      "ç¯Ģ": 3439,
      "à¹Ģà¸«à¸¡": 3440,
      "éģĶ": 3441,
      "à¸Ŀ": 3442,
      "ulf": 3443,
      "wn": 3444,
      "TPC": 3445,
      "@l": 3446,
      "ìĭł": 3447,
      "Ġ*": 3448,
      "ëĬĶëį°": 3449,
      "78": 3450,
      "????": 3451,
      "Ġwork": 3452,
      "Ġëĵ": 3453,
      "æĽ¸": 3454,
      "æľ¨": 3455,
      "iam": 3456,
      "à¸´à¸¡": 3457,
      "va": 3458,
      "ãĤĬãģŁãģĦ": 3459,
      "dy": 3460,
      "BS": 3461,
      "Ġx": 3462,
      "ÃĹ": 3463,
      "ðŁĺĨ": 3464,
      "å¬ī": 3465,
      "ãģ£ãģ±": 3466,
      "ëıĻ": 3467,
      "oz": 3468,
      "cord": 3469,
      "à¸£à¸²à¸°": 3470,
      "illion": 3471,
      "ï¼Ĵ": 3472,
      "à¤ĸ": 3473,
      "Ex": 3474,
      "Bl": 3475,
      "Ġson": 3476,
      "èĭ": 3477,
      "agi": 3478,
      "äº¤": 3479,
      "Ġil": 3480,
      "_G": 3481,
      "Ġbest": 3482,
      "ĶĶ": 3483,
      "å®Į": 3484,
      "EZ": 3485,
      "Ġlas": 3486,
      "Ġwould": 3487,
      "æ´»": 3488,
      "ÙĪØ¯": 3489,
      "ëŁ": 3490,
      "ãģĭãģĹ": 3491,
      "ND": 3492,
      "Ġph": 3493,
      "ĠWh": 3494,
      "åĭĿ": 3495,
      "ĠØ¨Ø§ÙĦ": 3496,
      "ĠðŁ¤£": 3497,
      "ðĿĴ": 3498,
      "aha": 3499,
      "Ġmen": 3500,
      "En": 3501,
      "à¸Ńà¸Ńà¸ģ": 3502,
      "ãģ£ãģŁãĤī": 3503,
      "ãĤ¤ãĥĻ": 3504,
      "à®°": 3505,
      "ori": 3506,
      "éģķ": 3507,
      "ç´ł": 3508,
      "èģŀ": 3509,
      "MY": 3510,
      "bum": 3511,
      "300": 3512,
      "Ġworld": 3513,
      "ç·Ĵ": 3514,
      "ress": 3515,
      "Ïģ": 3516,
      "à¥ĩà¤¶": 3517,
      "hm": 3518,
      "ock": 3519,
      "åİŁ": 3520,
      "ĠìĤ¬ë": 3521,
      "02": 3522,
      "94": 3523,
      "Ø¨ÙĬ": 3524,
      "ç¦": 3525,
      "igg": 3526,
      "vo": 3527,
      "Ġreally": 3528,
      "Tube": 3529,
      "ĠÙħÛĮ": 3530,
      "ãģ§ãģĹãģŁ": 3531,
      "eri": 3532,
      "à¸Ńà¸¥": 3533,
      "ku": 3534,
      "à°¿": 3535,
      "Ġê¸°": 3536,
      "@f": 3537,
      "ido": 3538,
      "Ġtu": 3539,
      "ãĤ¿ãĥ¼": 3540,
      "ãģĵãģ®æĬķç¨¿": 3541,
      "iew": 3542,
      "çĬ": 3543,
      "OD": 3544,
      "×ķ": 3545,
      "æĺİ": 3546,
      "à¸Ļà¸°à¸Ħà¸°": 3547,
      "æ¬²": 3548,
      "Te": 3549,
      "Ġfin": 3550,
      "ãģ®ãģ¯": 3551,
      "Ġì¶": 3552,
      "ãĥĴ": 3553,
      "sc": 3554,
      "æ¬¡": 3555,
      "ë¥¼": 3556,
      "ãģ«ãĤĤ": 3557,
      "UC": 3558,
      "à¥Ģà¤Ĥ": 3559,
      "ira": 3560,
      "Ġsur": 3561,
      "åĴ": 3562,
      "Ġãģ®": 3563,
      "à¤¾à¤Ĥ": 3564,
      "ãħĭãħĭãħĭãħĭãħĭãħĭãħĭãħĭ": 3565,
      "à¥ĩà¤²": 3566,
      "Ġrec": 3567,
      "à¸ķà¸¥": 3568,
      "à¹īà¸²à¸¢": 3569,
      "Ġinter": 3570,
      "ðŁĴĹ": 3571,
      "ï½Ĺï½Ĺ": 3572,
      "ãħłãħłãħłãħł": 3573,
      "ãĥķãĤ§": 3574,
      "é¡Ķ": 3575,
      "math": 3576,
      "è©³": 3577,
      "êµ¬": 3578,
      "ê°Ħ": 3579,
      "ãĤģãģ§": 3580,
      "ãĥĨãĤ£": 3581,
      "ç·ł": 3582,
      "IV": 3583,
      "ðŁĮŁ": 3584,
      "endo": 3585,
      "Ġà¤Ł": 3586,
      "aurav": 3587,
      "æļ": 3588,
      "eek": 3589,
      "à«": 3590,
      "è¶Ĭ": 3591,
      "à¸Ĺà¸¢": 3592,
      "Ġmonth": 3593,
      "ãģįãģ¾ãģĻ": 3594,
      "38": 3595,
      "ç«ĭ": 3596,
      "ł´": 3597,
      "UK": 3598,
      "ä¸»": 3599,
      "à¹Ģà¸Ńà¸ĩ": 3600,
      "Ïĥ": 3601,
      "fN": 3602,
      "ĠRe": 3603,
      "urn": 3604,
      "ãģ§ãģĻãģĮ": 3605,
      "å¼ı": 3606,
      "íĭ°": 3607,
      "ãģ®åŃ": 3608,
      "ITALA": 3609,
      "å±Ĭ": 3610,
      "âłĢ": 3611,
      "ãĥ¦": 3612,
      "vent": 3613,
      "à¥įà¤®": 3614,
      "à¸µà¸Ļ": 3615,
      "Ġtoo": 3616,
      "iw": 3617,
      "éłĳ": 3618,
      "Ġshow": 3619,
      "olo": 3620,
      "à±įà°": 3621,
      "ION": 3622,
      "ze": 3623,
      "å®ī": 3624,
      "åĥı": 3625,
      "ĠFor": 3626,
      "ÑĤÐ¾": 3627,
      "èĳ": 3628,
      "çĪ": 3629,
      "aru": 3630,
      "asa": 3631,
      "ism": 3632,
      "âĿ£": 3633,
      "orning": 3634,
      "à¤§": 3635,
      "ĠON": 3636,
      "Le": 3637,
      "Ġíķľ": 3638,
      "âĺºï¸ı": 3639,
      "Ġeven": 3640,
      "Ġlast": 3641,
      "WW": 3642,
      "BE": 3643,
      "ÙĦÙĪ": 3644,
      "éłĳå¼µ": 3645,
      "arm": 3646,
      "_h": 3647,
      "ĠHe": 3648,
      "ima": 3649,
      "Ġko": 3650,
      "å¼¾": 3651,
      "ãģłãģĭãĤī": 3652,
      "à¹Ģà¸ļ": 3653,
      "raj": 3654,
      "37": 3655,
      "rn": 3656,
      "ato": 3657,
      "à¹ģà¸Ħ": 3658,
      "LO": 3659,
      "kook": 3660,
      "Ġfeel": 3661,
      "ÙĨÙĬ": 3662,
      "ãģĤãģ¨": 3663,
      "ds": 3664,
      "à¬": 3665,
      "ìĦ¸ìļĶ": 3666,
      "iÃ³n": 3667,
      "624": 3668,
      "Ab": 3669,
      "èº«": 3670,
      "JusticeForRailwayStudent": 3671,
      "ãĤĭãģ¨": 3672,
      "BB": 3673,
      "à¸ģà¸§": 3674,
      "ĠìĤ¬": 3675,
      "arn": 3676,
      "ÛĮÙĨ": 3677,
      "sk": 3678,
      "Ø±Ø§": 3679,
      "elle": 3680,
      "Ø¦": 3681,
      "à¤¾à¤®": 3682,
      "âĢįâĻĤ": 3683,
      "uld": 3684,
      "ãģªãģĭãģ£ãģŁ": 3685,
      "ele": 3686,
      "09": 3687,
      "ants": 3688,
      "ãĥ©ãĤ¤": 3689,
      "_K": 3690,
      "ĠIN": 3691,
      "ãĤ³ãĥ³": 3692,
      "uss": 3693,
      "ÐµÐ½": 3694,
      "çĭ": 3695,
      "tr": 3696,
      "æĹ©": 3697,
      "ðŁĴļ": 3698,
      "Ġguy": 3699,
      "ÚĨ": 3700,
      "ï¾Ł": 3701,
      "Ã¼r": 3702,
      "Ġê·¸ë": 3703,
      "åĵ¡": 3704,
      "La": 3705,
      "éģİ": 3706,
      "embers": 3707,
      "Ġà¹Ģà¸ŀ": 3708,
      "éŃ": 3709,
      "ãĤ«ãĤ¦ãĥ³ãĥĪ": 3710,
      "Pl": 3711,
      "éĿŀ": 3712,
      "£ç¯Ģ": 3713,
      "Ġpo": 3714,
      "æŃ»": 3715,
      "à¹Ħà¸«à¸Ļ": 3716,
      "à¸ªà¸¥": 3717,
      "ä¸Ģç·Ĵ": 3718,
      "PM": 3719,
      "à¤¾à¤ľ": 3720,
      "ĠNTPC": 3721,
      "çĽ´": 3722,
      "ght": 3723,
      "sw": 3724,
      "hin": 3725,
      "ener": 3726,
      "AJ": 3727,
      "Ġvo": 3728,
      "ãĤĮãģªãģĦ": 3729,
      "åĮĸ": 3730,
      "AMA": 3731,
      "âĿĦ": 3732,
      "à¹īà¸¡": 3733,
      "ìĻĢ": 3734,
      "à¹ģà¸Ĺ": 3735,
      "'re": 3736,
      "Ġyang": 3737,
      "Ø±ÙĪ": 3738,
      "ìŀĦ": 3739,
      "à¸ī": 3740,
      "HO": 3741,
      "ĠðŁĺ¶": 3742,
      "ãĥĹãĥŃ": 3743,
      "58": 3744,
      "ãĢĳĊĊ": 3745,
      "é¢¨": 3746,
      "æ©Ł": 3747,
      "ðŁ¥ºðŁ¥º": 3748,
      "rand": 3749,
      "Ì²": 3750,
      "Ã¨": 3751,
      "ãģįãģ¾ãģĹãģŁ": 3752,
      "æĽ²": 3753,
      "ĠØ§ÙĦØ¹": 3754,
      "Ġfri": 3755,
      "Be": 3756,
      "47": 3757,
      "ĠðŁĺį": 3758,
      "íĥĢ": 3759,
      "aki": 3760,
      "èªŃ": 3761,
      "EP": 3762,
      "Ġbeing": 3763,
      "wwww": 3764,
      "æµģ": 3765,
      "ĠíĮ": 3766,
      "ãĥ³ãĥĢ": 3767,
      "à¤ķà¤°": 3768,
      "wide": 3769,
      "ole": 3770,
      "¡°": 3771,
      "met": 3772,
      "Ġà¤ıà¤ķ": 3773,
      "BT": 3774,
      "æĺİæĹ¥": 3775,
      "Ġà¸Ķ": 3776,
      "ìħ": 3777,
      "imai": 3778,
      "ela": 3779,
      "ç¤¾": 3780,
      "Ħ°": 3781,
      "æĸĩ": 3782,
      "po": 3783,
      "à¸¹à¸Ľ": 3784,
      "fo": 3785,
      "æľ¬å½ĵ": 3786,
      "Ġà¸Ī": 3787,
      "39": 3788,
      "à¸¶à¹ī": 3789,
      "Ġed": 3790,
      "Ġreal": 3791,
      "æķĻ": 3792,
      "ĠãĢĮ": 3793,
      "åĨĨåĪĨ": 3794,
      "Ġtake": 3795,
      "éŁ³": 3796,
      "Ġì§Ģ": 3797,
      "Ġbecause": 3798,
      "Ä±l": 3799,
      "äºĮ": 3800,
      "ĠĠĊ": 3801,
      "ANG": 3802,
      "asit": 3803,
      "ðŁĴª": 3804,
      "à¹Īà¸²à¸§": 3805,
      "lect": 3806,
      "à¸²à¸Ħ": 3807,
      "alo": 3808,
      "ï¼ģï¼ģĊ": 3809,
      "ØªÙĪ": 3810,
      "ì¦Ī": 3811,
      "à°¾": 3812,
      "ãģĹãģ¦ãģı": 3813,
      "apan": 3814,
      "ëĭ¨": 3815,
      "ãģªãģ®ãģ§": 3816,
      "De": 3817,
      "Prat": 3818,
      "Ġì§Ħ": 3819,
      "âĢ¦Ċ": 3820,
      "ï¼ģï¼Ł": 3821,
      "Ġê·¸": 3822,
      "ÑĪ": 3823,
      "ìĨĮ": 3824,
      "à¹Ģà¸ģà¸²": 3825,
      "ãģ§ãģĻãģĭ": 3826,
      "ÐµÐ": 3827,
      "Ġvery": 3828,
      "ĠPro": 3829,
      "uro": 3830,
      "æ¤": 3831,
      "Ġsc": 3832,
      "_l": 3833,
      "ìĽĶ": 3834,
      "âŀ": 3835,
      "den": 3836,
      "vel": 3837,
      "çµĦ": 3838,
      "LHgG": 3839,
      "ĠCom": 3840,
      "à¸Ĭà¸Ńà¸ļ": 3841,
      "èªį": 3842,
      "à¹Ģà¸Ĭ": 3843,
      "ante": 3844,
      "mr": 3845,
      "à¹Ĥà¸Ķ": 3846,
      "kw": 3847,
      "enc": 3848,
      "ë³´": 3849,
      "ìĦ±": 3850,
      "æŃ£": 3851,
      "@F": 3852,
      "Ġcome": 3853,
      "JusticeForRailways": 3854,
      "ãĥĹãĥª": 3855,
      "ãģªãģ©": 3856,
      "åŁ": 3857,
      "à¸Ľà¸¥": 3858,
      "ific": 3859,
      "Ġtweets": 3860,
      "ðŁĳī": 3861,
      "new": 3862,
      "ç®": 3863,
      "kh": 3864,
      "á»": 3865,
      "ãģ®æĸ¹": 3866,
      "à¹ģà¸¥à¸°": 3867,
      "ars": 3868,
      "GO": 3869,
      "æ¶": 3870,
      "å½ĵéģ¸": 3871,
      "ji": 3872,
      "âĪ": 3873,
      "ible": 3874,
      "Ġà¸¢": 3875,
      "å¦": 3876,
      "Ġdoes": 3877,
      "News": 3878,
      "127": 3879,
      "Ġalways": 3880,
      "ìłĦ": 3881,
      "chan": 3882,
      "Ġìĭľ": 3883,
      "ØªØ±": 3884,
      "æħ": 3885,
      "ĠðŁĵĮ": 3886,
      "ition": 3887,
      "Ġà¹Ģà¸Ľ": 3888,
      "anda": 3889,
      "#FNSæŃĮè¬¡ç¥Ń": 3890,
      "uan": 3891,
      "Is": 3892,
      "íķĺëĬĶ": 3893,
      "Ġà¤Ĩà¤ª": 3894,
      "ç´°": 3895,
      "KS": 3896,
      "ç¨®": 3897,
      "ðŁĴ°": 3898,
      "otes": 3899,
      "à¸ģà¸£": 3900,
      "à¸¸à¸ģà¸Ħà¸Ļ": 3901,
      "çĸ²": 3902,
      "ĠìĪĺ": 3903,
      "ĠIf": 3904,
      "åĳ¨": 3905,
      "Ġsom": 3906,
      "Ĳĺ": 3907,
      "ë£¨": 3908,
      "Ġsong": 3909,
      "eni": 3910,
      "ä½į": 3911,
      "#M": 3912,
      "å£°": 3913,
      "ãģĭãĤĤ": 3914,
      "ender": 3915,
      "èµ·": 3916,
      "ãģ®åŃ£ç¯Ģ": 3917,
      "jo": 3918,
      "ä¿º": 3919,
      "agan": 3920,
      "Ġpol": 3921,
      "éģĵ": 3922,
      "ì§ľ": 3923,
      "lobal": 3924,
      "à¹Īà¸ķ": 3925,
      "çīĪ": 3926,
      "æĽ´": 3927,
      "CI": 3928,
      "Ġba": 3929,
      "Ġplease": 3930,
      "à¥Ģà¤Ł": 3931,
      "uppasit": 3932,
      "ãĥ¼ãĤ¯": 3933,
      "gy": 3934,
      "ðĿļ": 3935,
      "Ġgoing": 3936,
      "bi": 3937,
      "BL": 3938,
      "ĠìĨ": 3939,
      "Ġsm": 3940,
      "ĠØ¢": 3941,
      "una": 3942,
      "ange": 3943,
      "Valimai": 3944,
      "à¸µà¸£": 3945,
      "69": 3946,
      "Ġëį": 3947,
      "ãĤģãģ§ãģ¨ãģĨ": 3948,
      "ĠÐº": 3949,
      "&gt": 3950,
      "SE": 3951,
      "Or": 3952,
      "oth": 3953,
      "ı¬": 3954,
      "æĦŁãģĺ": 3955,
      "Ġdays": 3956,
      "Ġcr": 3957,
      "ãģľãģ²": 3958,
      "form": 3959,
      "ĠRetweet": 3960,
      "ĠØ¹ÙĦÙī": 3961,
      "ë¯¸": 3962,
      "ãĤ¤ãĥĻãĥ³ãĥĪ": 3963,
      "èª°": 3964,
      "ãģķãĤĮãģŁ": 3965,
      "é»": 3966,
      "åı¯æĦĽãģĦ": 3967,
      "Ġann": 3968,
      "à¸łà¸²": 3969,
      "ĠðŁĩ": 3970,
      "ãģĳãĤĭ": 3971,
      "ï¿": 3972,
      "ãģĻãģİãģ¦": 3973,
      "ðŁ¥²": 3974,
      "ÙħØ§": 3975,
      "åĨĻ": 3976,
      "32": 3977,
      "ãģ¬": 3978,
      "à¤¾à¤¯": 3979,
      "à¯Ī": 3980,
      "èĲ": 3981,
      "à¸´à¸Ľ": 3982,
      "ives": 3983,
      "æ°ĳ": 3984,
      "Ġart": 3985,
      "line": 3986,
      "æĮģãģ¡": 3987,
      "ever": 3988,
      "ãģ£ãģ¦ãģŁ": 3989,
      "ĠìĬ": 3990,
      "uki": 3991,
      "JusticeForRailwaysStudents": 3992,
      "#T": 3993,
      "à¦¾": 3994,
      "ĠãĤĴãĥķãĤ©ãĥŃãĥ¼": 3995,
      "ãĥ¥ãĥ¼": 3996,
      "ï¾ŀ": 3997,
      "INI": 3998,
      "æ±ºå®ļ": 3999,
      "âĹĭâĹĭ": 4000,
      "dd": 4001,
      ",Ċ": 4002,
      "éĮ": 4003,
      "íĥĦ": 4004,
      "Man": 4005,
      "vc": 4006,
      "ë¦¬ë": 4007,
      "199": 4008,
      ";&": 4009,
      "ys": 4010,
      "OY": 4011,
      "à¹Ħà¸Ĺà¸¢": 4012,
      "à¸¢à¸§": 4013,
      "©ëĭĪëĭ¤": 4014,
      "aman": 4015,
      "ĭãģĮ": 4016,
      "åĥķãĤī": 4017,
      "Ġë¹": 4018,
      "èį": 4019,
      "æıĽ": 4020,
      "Ø¥": 4021,
      "Ġë§Į": 4022,
      "íĦ°": 4023,
      "ingle": 4024,
      "LY": 4025,
      "As": 4026,
      "å¨": 4027,
      "ump": 4028,
      "ãĥĥãĥģ": 4029,
      "ĠðĿĲ": 4030,
      "å¬īãģĹãģĦ": 4031,
      "ãĤ¸ãĥ£ãĥĭ": 4032,
      "ras": 4033,
      "Ġka": 4034,
      "ãģ«ãģ¦": 4035,
      "èªŀ": 4036,
      "èªķ": 4037,
      "ãģªãĤĵãģł": 4038,
      "ãģķãĤĵãģ¨": 4039,
      "_J": 4040,
      "Ġcond": 4041,
      "åĪ¥": 4042,
      "à¤¿à¤°": 4043,
      "___": 4044,
      "imes": 4045,
      "arl": 4046,
      "irOfficial": 4047,
      "ork": 4048,
      "çĮ": 4049,
      "ĠâĢ¢": 4050,
      "Ġwere": 4051,
      "à®¤": 4052,
      "jj": 4053,
      "èī¯ãģĦ": 4054,
      "Ġlist": 4055,
      "aran": 4056,
      "ìłĢ": 4057,
      "azon": 4058,
      "Ġsem": 4059,
      "ĠÐ´": 4060,
      "Ø¨Ø±": 4061,
      "à§": 4062,
      "Ġdu": 4063,
      "EXO": 4064,
      "ĠX": 4065,
      "Un": 4066,
      "ĠÐ¸": 4067,
      "èĢĥ": 4068,
      "ãģ¨ãģĹãģ¦": 4069,
      "ĠÑĤ": 4070,
      "ä¸Ģç·Ĵãģ«": 4071,
      "son": 4072,
      "à¤¿à¤¤": 4073,
      "éłĤ": 4074,
      "Ġâĺ": 4075,
      "à®©": 4076,
      "ä¸ĸçķĮ": 4077,
      "ç¿": 4078,
      "Ġcomp": 4079,
      "He": 4080,
      "cond": 4081,
      "Ph": 4082,
      "yl": 4083,
      "ãģĹãģŁãģĦ": 4084,
      "This": 4085,
      "éľ²": 4086,
      "æµ·": 4087,
      "å¹³": 4088,
      "maths": 4089,
      "Ġdia": 4090,
      "ãĤªãĥ³": 4091,
      "SITALA": 4092,
      "ãĤĪãģĨãģ«": 4093,
      "wi": 4094,
      "ãģĵãģ®ãĥĦãĤ¤ãĥ¼ãĥĪ": 4095,
      "MS": 4096,
      "OV": 4097,
      "ati": 4098,
      "æĤª": 4099,
      "..Ċ": 4100,
      "72": 4101,
      "ãģªãģģ": 4102,
      "ãģĭãĤĬ": 4103,
      "ë¶Ģ": 4104,
      "à¹ģà¸Īà¸ģ": 4105,
      "ÑģÑĤ": 4106,
      "éº": 4107,
      "ãĥ³ãĤ¯": 4108,
      "Qu": 4109,
      "çµ¶": 4110,
      "ĠëĤ´ìĿ¼": 4111,
      "ä¸ī": 4112,
      "AshwiniVaishnaw": 4113,
      "sta": 4114,
      "åĥķãĤīãģ®åŃ£ç¯Ģ": 4115,
      "get": 4116,
      "à¸µà¸¢à¸Ļ": 4117,
      "Ġlife": 4118,
      "ãģĵãĤį": 4119,
      "----": 4120,
      "à¥ĩà¤°": 4121,
      "120": 4122,
      "åĲįæ§ĺãģ«ãĥĹãĥ¬ãĤ¼ãĥ³ãĥĪ": 4123,
      "ames": 4124,
      "å¾Ĺ": 4125,
      "Ġcal": 4126,
      "To": 4127,
      "ä»¶": 4128,
      "VER": 4129,
      "erk": 4130,
      "xt": 4131,
      "urs": 4132,
      "ç½": 4133,
      "ĠAll": 4134,
      "ĠMy": 4135,
      "ãĥĩãĤ£": 4136,
      "æĴ®": 4137,
      "nar": 4138,
      "@BTS": 4139,
      "ðŁķ": 4140,
      "Ġap": 4141,
      "oney": 4142,
      "Ãº": 4143,
      "fe": 4144,
      "64": 4145,
      "å±ĭ": 4146,
      "à¥įà¤Ł": 4147,
      "ãĢľãĢľ": 4148,
      "ì¹´": 4149,
      "×ķ×": 4150,
      "ëĭĺ": 4151,
      "Ð¾Ð²": 4152,
      "ðŁĴ¥": 4153,
      "ĠExam": 4154,
      "Ġrem": 4155,
      "Ġaku": 4156,
      "ãģ®ãģ«": 4157,
      "chi": 4158,
      "Ø§Ø¬": 4159,
      "ĠAn": 4160,
      "à¹īà¸Ń": 4161,
      "åĴĮ": 4162,
      "âĢ»": 4163,
      "Ïħ": 4164,
      "ĠDon": 4165,
      "Īë¬´": 4166,
      "ĠÐ¾": 4167,
      "PS": 4168,
      "Ġproject": 4169,
      "ÙħÙĨ": 4170,
      "à¹ĩà¸¡": 4171,
      "ece": 4172,
      "èĬ±": 4173,
      "×Ļ×": 4174,
      "Ġà¸¡à¸²": 4175,
      "_C": 4176,
      "ona": 4177,
      "Ġthen": 4178,
      "RO": 4179,
      "ãģĶãģĸãģĦãģ¾ãģĻ": 4180,
      "à¸±à¸¢": 4181,
      "ãĥªãĥĦãĤ¤ãĥ¼ãĥĪ": 4182,
      "cc": 4183,
      "ãģĵãģĨ": 4184,
      "Ġì¹": 4185,
      "ĠnÃ£o": 4186,
      "ĠLa": 4187,
      "ĠSe": 4188,
      "éĢ±": 4189,
      "æ®ĭ": 4190,
      "ĠTwitter": 4191,
      "amos": 4192,
      "ãģĤãĤĬãģĮãģ¨ãģĨãģĶãģĸãģĦãģ¾ãģĹãģŁ": 4193,
      "Ġà¹Ģà¸Ķ": 4194,
      "à¸µà¸§": 4195,
      "Ġë¯": 4196,
      "iday": 4197,
      "å¸°": 4198,
      "123": 4199,
      "ãĥªãĥĹ": 4200,
      "fi": 4201,
      "tw": 4202,
      "ãģªãģĮ": 4203,
      "MoS": 4204,
      "Ġma": 4205,
      "Ġì¤": 4206,
      "ìĿ´ë¸Į": 4207,
      "âĻ¥ï¸ı": 4208,
      "ãĤĤãĤī": 4209,
      "è¶ħ": 4210,
      "fess": 4211,
      "ĠAnd": 4212,
      "Ġini": 4213,
      "uv": 4214,
      "à¸£à¸ģ": 4215,
      "off": 4216,
      "ðŁİĬ": 4217,
      "Ġgive": 4218,
      "med": 4219,
      "ãĤ«ãĥ¼ãĥī": 4220,
      "ãģ§ãģįãĤĭ": 4221,
      "HH": 4222,
      "ãģ¼": 4223,
      "ãĤ¹ãĥĨ": 4224,
      "LD": 4225,
      "ãģĺãĤĥãģªãģĦ": 4226,
      "åĲĳ": 4227,
      "ÏĢ": 4228,
      "ift": 4229,
      "ãĤģãģ¡ãĤĥ": 4230,
      "ĠIS": 4231,
      "aga": 4232,
      "Ġà¤ĸ": 4233,
      "à¸ķà¸²à¸¡": 4234,
      "ãģ«ãģªãģ£ãģ¦": 4235,
      "æľĢé«ĺ": 4236,
      "Ġêµ": 4237,
      "ãģķãģĽãģ¦": 4238,
      "IE": 4239,
      "iyor": 4240,
      "57": 4241,
      "thing": 4242,
      "most": 4243,
      "RaMoS": 4244,
      "Ġay": 4245,
      "ãģĦãģĦãģŃ": 4246,
      "_D": 4247,
      "ric": 4248,
      "aaa": 4249,
      "ĠëĮĢ": 4250,
      "ç¥Ŀ": 4251,
      "æ·": 4252,
      "ery": 4253,
      "ĠØ§ÙĦØŃ": 4254,
      "NN": 4255,
      "æĥħåł±": 4256,
      "ody": 4257,
      "å¤ª": 4258,
      "RaMoSirOfficial": 4259,
      "jin": 4260,
      "#K": 4261,
      "éĤ": 4262,
      "ãģķãĤĮãģ¦": 4263,
      "ĠWhat": 4264,
      "CE": 4265,
      "Ġlet": 4266,
      "éĺ": 4267,
      "å¢": 4268,
      "Ġìłķ": 4269,
      "à¹Īà¸§à¸¢": 4270,
      "Ġway": 4271,
      "?ĊĊ": 4272,
      "iving": 4273,
      "ìĹĪ": 4274,
      "YouTube": 4275,
      "Ġsaid": 4276,
      "ĠìĽ": 4277,
      "ĠÐ¼": 4278,
      "ï¸İï¸İï¸İï¸İ": 4279,
      "ãĥ¼ãĥŀ": 4280,
      "idad": 4281,
      "Ġpass": 4282,
      "Ġhapp": 4283,
      "Ä±ÅŁ": 4284,
      "SP": 4285,
      "Com": 4286,
      "wards": 4287,
      "å¸Ĥ": 4288,
      "Ġcu": 4289,
      "à¹ģà¸ģ": 4290,
      "rad": 4291,
      "ble": 4292,
      "IA": 4293,
      "à¤¾à¤¹": 4294,
      ":ĊĊ": 4295,
      "ê¸Ī": 4296,
      "è£ħ": 4297,
      "Ġì¢ĭ": 4298,
      "fRa": 4299,
      "à¤Ĥà¤¤": 4300,
      "Ġë³´ìķĦìļĶ": 4301,
      "Ġìłľ": 4302,
      "ðŁ¥³": 4303,
      "ãģªãĤĭ": 4304,
      "Ġwhy": 4305,
      "ffer": 4306,
      "ðŁĻĩ": 4307,
      "ittle": 4308,
      "Ġfr": 4309,
      "Ġ~": 4310,
      "ELE": 4311,
      "Ñİ": 4312,
      "pat": 4313,
      "asi": 4314,
      "ãģıãģ¦": 4315,
      "Ġãģ§": 4316,
      "BC": 4317,
      "Ãł": 4318,
      "/LOU": 4319,
      "54": 4320,
      "yjfRa": 4321,
      "fNyjfRa": 4322,
      "/LOUfNyjfRa": 4323,
      "ason": 4324,
      "ĠØ§Ø³": 4325,
      "ãĤ²ãĥ¼ãĥł": 4326,
      "Lv": 4327,
      "é¡Į": 4328,
      "èĳī": 4329,
      "coin": 4330,
      "ĠÙħØ§": 4331,
      "çŁ¥ãĤīãģĽ": 4332,
      "ony": 4333,
      "Ġà¹Ģà¸«": 4334,
      "ĠMe": 4335,
      "à¸Ńà¸Ħ": 4336,
      "Ġmal": 4337,
      "ãģŁãĤģ": 4338,
      "ãģ«ãģĬ": 4339,
      "ner": 4340,
      "ĠíĻ": 4341,
      "ðŁİģĊ": 4342,
      "Ġhtt": 4343,
      "ene": 4344,
      "à¸¸à¹ī": 4345,
      "Ġsupport": 4346,
      "abhin": 4347,
      "ä»ķäºĭ": 4348,
      "tty": 4349,
      "ital": 4350,
      "ĠÃ¶": 4351,
      "Ġke": 4352,
      "Ø¹Ø¯": 4353,
      "orm": 4354,
      "(*": 4355,
      "ãģŁãģ¡": 4356,
      "Ġàª": 4357,
      "ãĤ®ãĥķãĥĪåĪ¸": 4358,
      "WE": 4359,
      "org": 4360,
      "è²©": 4361,
      "fin": 4362,
      "Ġmiss": 4363,
      "ĠðŁĳĩ": 4364,
      "à¹Ħà¸ĩ": 4365,
      "ĠãģĤ": 4366,
      "Ġwin": 4367,
      "è¿Ķ": 4368,
      "ë¹Ħ": 4369,
      "ONG": 4370,
      "abhinay": 4371,
      "à°¾à°": 4372,
      "ãĥ©ãĤ¤ãĥĸ": 4373,
      "ìĥĿ": 4374,
      "íĨ": 4375,
      "íĤ": 4376,
      "iro": 4377,
      "Ġâľ": 4378,
      "à¸Ĺà¸³à¹Ħà¸¡": 4379,
      "ãģłãĤĪ": 4380,
      "Ġhelp": 4381,
      "Ġnever": 4382,
      "è¨Ī": 4383,
      "æ±Ĥ": 4384,
      "åıĭ": 4385,
      "reak": 4386,
      "è¶³": 4387,
      "Ġpour": 4388,
      "sun": 4389,
      "abhinaymaths": 4390,
      "PH": 4391,
      "ical": 4392,
      "æŀļ": 4393,
      "å¤¢": 4394,
      "ë¯¼": 4395,
      "çĻ»åł´": 4396,
      "oul": 4397,
      "Ġthank": 4398,
      "çģ": 4399,
      "ãģķãĤĮ": 4400,
      "ublic": 4401,
      "ĠìĻ": 4402,
      "æĿ±äº¬": 4403,
      "Ġíĸ": 4404,
      "ðŁļĢ": 4405,
      "ater": 4406,
      "Ä±y": 4407,
      "åĪ©": 4408,
      "pir": 4409,
      "ÙħÙĬ": 4410,
      "å²": 4411,
      "ë°©íĥĦ": 4412,
      "Ġatt": 4413,
      "ÐµÑĢ": 4414,
      "Ø±Ø¨": 4415,
      "Ġother": 4416,
      "ä»ĸ": 4417,
      "love": 4418,
      "è¶ĬãģĹ": 4419,
      "Ġ[#": 4420,
      "self": 4421,
      "ĠìŀĲ": 4422,
      "à¥ĭà¤ľ": 4423,
      "ral": 4424,
      "Twitter": 4425,
      "à®Ł": 4426,
      "à±ģ": 4427,
      "ken": 4428,
      "_L": 4429,
      "YO": 4430,
      "Don": 4431,
      "ĠDo": 4432,
      "à¹Įà¸Ħ": 4433,
      "ŀĮ": 4434,
      "ouse": 4435,
      "irdrop": 4436,
      "_R": 4437,
      "ï½¡": 4438,
      "çĦ¶": 4439,
      "à¹Ģà¸ģà¸²à¸«à¸¥": 4440,
      "ì½": 4441,
      "åı£": 4442,
      "Ġyouth": 4443,
      "ãĤ»ãĥĥãĥĪ": 4444,
      "Ġëª¨": 4445,
      "ªħ": 4446,
      "ØªÙĬ": 4447,
      "ãĤĦãģ£ãģ¦": 4448,
      "à¤¿à¤¨": 4449,
      "FE": 4450,
      "ç©º": 4451,
      "éĮ²": 4452,
      "87": 4453,
      "ĠâĢĶ": 4454,
      "Ġà¹ģà¸Īà¸ģ": 4455,
      "åĩºæĿ¥": 4456,
      "Ġass": 4457,
      "ãĤ¯ãĥŃ": 4458,
      "uma": 4459,
      "ãģĻãģİãĤĭ": 4460,
      "ìĬµëĭĪëĭ¤": 4461,
      "!!Ċ": 4462,
      "æİ¨": 4463,
      "åĨį": 4464,
      "Ĳãĥ¼": 4465,
      "ÙĨØ¯": 4466,
      "à¤¾à¤ĵ": 4467,
      "Ġwon": 4468,
      "ÙİÙĳ": 4469,
      "arch": 4470,
      "à¯įà®¤": 4471,
      "uri": 4472,
      "ited": 4473,
      "à¸«à¸§à¸ķ": 4474,
      "ä»ĭ": 4475,
      "ÙĥÙħ": 4476,
      "ĠÙĦØ§": 4477,
      "âĢįâĻĤï¸ı": 4478,
      "RA": 4479,
      "TT": 4480,
      "à¸§à¸ĩ": 4481,
      "And": 4482,
      "Ġcomo": 4483,
      "amil": 4484,
      "ãĤĵãģ¨": 4485,
      "à¹Ģà¸Ĺà¸¨": 4486,
      "aro": 4487,
      "äº¤æıĽ": 4488,
      "é¨": 4489,
      "åĢĭ": 4490,
      "åĨ¬": 4491,
      "ĠGroup": 4492,
      "Ġê²ĥ": 4493,
      "mun": 4494,
      "cu": 4495,
      "åĤ": 4496,
      "ĠìĻĢ": 4497,
      "ãģķãģ¾": 4498,
      "à¹ĥà¸ª": 4499,
      "pop": 4500,
      "ister": 4501,
      "çµĤãĤı": 4502,
      "à¹ĩà¸Ī": 4503,
      "ĠìłĢ": 4504,
      "ĠBe": 4505,
      "ĠThank": 4506,
      "é¦": 4507,
      "Ġbr": 4508,
      "èħ": 4509,
      "gn": 4510,
      "ÏĤ": 4511,
      "iye": 4512,
      "Ġdates": 4513,
      "ç³": 4514,
      "ðĵ": 4515,
      "Î»": 4516,
      "Ġcall": 4517,
      "êµŃ": 4518,
      "Ġdan": 4519,
      "_y": 4520,
      "ĠØ§ÙĦØ³": 4521,
      "omin": 4522,
      "col": 4523,
      "aku": 4524,
      "ìľł": 4525,
      "à¹Įà¸Ĺ": 4526,
      "du": 4527,
      "Do": 4528,
      "Ġsal": 4529,
      "ãĥ³ãĤ¿": 4530,
      "ðŁĻĮ": 4531,
      "å¨ĺ": 4532,
      "åķı": 4533,
      "Ġpa": 4534,
      "Ġins": 4535,
      "äºĪç´Ħ": 4536,
      "æ¡": 4537,
      "ĠLe": 4538,
      "ðŁĮ¹": 4539,
      "ĠIndia": 4540,
      "æĬ«": 4541,
      "èĩ´": 4542,
      "Ġì°¨": 4543,
      "Ġpra": 4544,
      "Ġrep": 4545,
      "Ð°Ð»": 4546,
      "ãģ£ãģ¡": 4547,
      "TXT": 4548,
      "æĬ«éľ²": 4549,
      "85": 4550,
      "tv": 4551,
      "Ġwinn": 4552,
      "Ġpres": 4553,
      "ÙĪØ§": 4554,
      "Ã©s": 4555,
      "xy": 4556,
      "PP": 4557,
      "TO": 4558,
      "ao": 4559,
      "Ġì£¼": 4560,
      "ØŃØ¨": 4561,
      "ãģ¾ãĤĬ": 4562,
      "ê³µ": 4563,
      "ode": 4564,
      "å¥½ãģįãģª": 4565,
      "111": 4566,
      "oooo": 4567,
      "Ġthese": 4568,
      "ãĤ¸ãĥ¥": 4569,
      "Ġ...": 4570,
      "ðŁĺħ": 4571,
      "kar": 4572,
      "à¤°à¤ķ": 4573,
      "UG": 4574,
      "fs": 4575,
      "à¹Ħà¸§": 4576,
      "çĸ²ãĤĮ": 4577,
      "Im": 4578,
      "ãģ«ãģªãģ£ãģŁ": 4579,
      "ĠÙħØ¹": 4580,
      "ØŁ": 4581,
      "à¤¿à¤¸": 4582,
      "ãģĬãģĭãģĹ": 4583,
      "ãĢĨ": 4584,
      "ĠìĥĿ": 4585,
      "imp": 4586,
      "rb": 4587,
      "ãĥģãĤ§": 4588,
      "read": 4589,
      "Ġcount": 4590,
      "ðŁļ¨": 4591,
      "æķµ": 4592,
      "Ġstop": 4593,
      "à¦¾à¦": 4594,
      "ãģįãģ¦": 4595,
      "91": 4596,
      "ðŁĺĺ": 4597,
      "Ġcar": 4598,
      "ãģ®ãģĭ": 4599,
      "à¸ģà¸ģà¸ģà¸ģ": 4600,
      "è©³ç´°": 4601,
      "ÙĥÙĦ": 4602,
      "come": 4603,
      "yp": 4604,
      "ãĤħ": 4605,
      "ĠRa": 4606,
      "ê·¸": 4607,
      "à¸±à¸¥": 4608,
      "Ĺ¤": 4609,
      "Ġà¹ĥà¸Ħà¸£": 4610,
      "ðŁĳĩðŁı¼": 4611,
      "ãģªãģĮãĤī": 4612,
      "à¸±à¸Ļà¸§": 4613,
      "NG": 4614,
      "æľ¬å½ĵãģ«": 4615,
      "_w": 4616,
      "ë¶Ħ": 4617,
      "#P": 4618,
      "ìĸ´ë": 4619,
      "kkkk": 4620,
      "embre": 4621,
      "ĠmÃ¡s": 4622,
      "Ġunt": 4623,
      "Ġcompl": 4624,
      "Ø§Ø´": 4625,
      "æľĽ": 4626,
      "åħ±": 4627,
      "à®²": 4628,
      "Ġíķ´": 4629,
      "èª¿": 4630,
      "æı´": 4631,
      "ãģĿãĤĵãģª": 4632,
      "ãģ¶ãĤĬ": 4633,
      "Ġinto": 4634,
      "ðŁĴĵ": 4635,
      "ðŁĳĢ": 4636,
      "?!": 4637,
      "åı°": 4638,
      "AND": 4639,
      "¡ï¸ı": 4640,
      "_A": 4641,
      "oe": 4642,
      "ãĤ¢ãĥĭ": 4643,
      "à¤ªà¤¨": 4644,
      "ĠTe": 4645,
      "ãĤ¤ãĥī": 4646,
      "ola": 4647,
      "ĠÅŁ": 4648,
      "Ġunder": 4649,
      "ĠðŁİģ": 4650,
      "Ġfut": 4651,
      "LL": 4652,
      "endram": 4653,
      "Ġà¦": 4654,
      "ãģĻãģĶ": 4655,
      "ãģĬãģĬ": 4656,
      "unch": 4657,
      "ãģĿãģ®å": 4658,
      "ä¹ħ": 4659,
      "æľ«": 4660,
      "ëĭ¹": 4661,
      "ç¹ĭãģĮ": 4662,
      "Ġà®ª": 4663,
      "å¿ħ": 4664,
      "ãģ®ä¸Ń": 4665,
      "íĺ¸": 4666,
      "_F": 4667,
      "Ġvideo": 4668,
      "æľŁéĸĵ": 4669,
      "Ġang": 4670,
      "Go": 4671,
      "fer": 4672,
      "à¸§à¸ģ": 4673,
      "_H": 4674,
      "à¸Ľà¸£à¸°à¹Ģà¸Ĺà¸¨": 4675,
      "miss": 4676,
      "ento": 4677,
      "ãĤĦãģ¤": 4678,
      "ì¹ĺ": 4679,
      "æł¼": 4680,
      "éĩį": 4681,
      "rypt": 4682,
      "ãģªãģıãģ¦": 4683,
      "Ġê±°": 4684,
      "à¹Ģà¸Ĥà¸²": 4685,
      "ãģĮãģĤãĤĭ": 4686,
      "ĠØĮ": 4687,
      "à³": 4688,
      "Ġï¼¼": 4689,
      "cess": 4690,
      "ense": 4691,
      "ãģªãģŁ": 4692,
      "ĠNCT": 4693,
      "ä¿Ŀ": 4694,
      "cha": 4695,
      "æ¬²ãģĹãģĦ": 4696,
      "kin": 4697,
      "ves": 4698,
      "ĠFOR": 4699,
      "Ġqui": 4700,
      "âĶģâĶģâĶģâĶģ": 4701,
      "à¹Ģà¸ŀà¸¥à¸ĩ": 4702,
      "unn": 4703,
      "eno": 4704,
      "æ£": 4705,
      "ues": 4706,
      "ĠWorld": 4707,
      "ĠUn": 4708,
      "à¸Ĥà¸Ń": 4709,
      "Meena": 4710,
      "å¥³å¥³": 4711,
      "Ġcould": 4712,
      "à¥Ģà¤ķ": 4713,
      "92": 4714,
      "âĢĻre": 4715,
      "íŀ": 4716,
      "ëħĦ": 4717,
      "log": 4718,
      "uw": 4719,
      "ham": 4720,
      "å¹¸": 4721,
      "ify": 4722,
      "PR": 4723,
      "???": 4724,
      "ãģ«ãģĹãģ¦": 4725,
      "é¦¬": 4726,
      "ä¼Ŀ": 4727,
      "ðŁ¤Ķ": 4728,
      "åı¯èĥ½": 4729,
      "Ġmay": 4730,
      "Ġlong": 4731,
      "HT": 4732,
      "ìĤ": 4733,
      "inance": 4734,
      "OX": 4735,
      "ä»ĬæĹ¥ãģ¯": 4736,
      "ãĢĤãĢĤ": 4737,
      "IZ": 4738,
      "åħ¬å¼ı": 4739,
      "ĠEl": 4740,
      "íķ©ëĭĪëĭ¤": 4741,
      "ãģ¯ãģĵãģ¡ãĤī": 4742,
      "Ġà¤«": 4743,
      "pro": 4744,
      "ï¼ģï¼ģï¼ģï¼ģï¼ģï¼ģï¼ģï¼ģ": 4745,
      "Ġyg": 4746,
      "_jp": 4747,
      "çİĭ": 4748,
      "Dec": 4749,
      "à¸ķà¸£": 4750,
      "ç·łåĪĩ": 4751,
      "AAAA": 4752,
      "ãģ¨æĢĿãģĨ": 4753,
      "boy": 4754,
      "kl": 4755,
      "ãĤīãģªãģĦ": 4756,
      "å·Ŀ": 4757,
      "à¤Ī": 4758,
      "äººãģ®": 4759,
      "ê´": 4760,
      "kt": 4761,
      "ĠGood": 4762,
      "ĠVOTE": 4763,
      "bu": 4764,
      "âŃĲ": 4765,
      "à¸Ħà¸¥": 4766,
      "Ø§Ø¶": 4767,
      "Ø§Ùģ": 4768,
      "apa": 4769,
      "Ġannou": 4770,
      "èĲ½": 4771,
      "endramodi": 4772,
      "ãģıãĤīãģĦ": 4773,
      "weets": 4774,
      "#N": 4775,
      "RR": 4776,
      "Ġà¸Īà¸°": 4777,
      "KKKK": 4778,
      "Ð¿": 4779,
      "_official": 4780,
      "Ġgirl": 4781,
      "ãĤªãĥª": 4782,
      "ãĤĴãģĬ": 4783,
      "RTãģ§": 4784,
      "ìĿ´ê°Ģ": 4785,
      "cin": 4786,
      "Î·": 4787,
      "ste": 4788,
      "gl": 4789,
      "àµ": 4790,
      "ãĥ¡ãĥ³ãĥ": 4791,
      "äºĪå®ļ": 4792,
      "ðŁĺŃðŁĺŃðŁĺŃ": 4793,
      "ãĤ°ãĥ©": 4794,
      "akh": 4795,
      "ello": 4796,
      "ĠTo": 4797,
      "SB": 4798,
      "Ġà¤¸à¤®": 4799,
      "gi": 4800,
      "ĠÐ±": 4801,
      "ĠðŁ¥°": 4802,
      "51": 4803,
      "à¹ĥà¸«à¸¡": 4804,
      "84": 4805,
      "ĠTH": 4806,
      "ãĥ¬ãĥ³": 4807,
      "æŃ¢": 4808,
      "ç²": 4809,
      "ëĦ¤": 4810,
      "Ġhab": 4811,
      "Ġyo": 4812,
      "Mr": 4813,
      "ãĤ·ãĥ¥": 4814,
      "82": 4815,
      "éģĭ": 4816,
      "Ġready": 4817,
      "ãħľ": 4818,
      "è¦³": 4819,
      "ãĥ©ãĤ¹ãĥĪ": 4820,
      "è©¦": 4821,
      "èĦ": 4822,
      "Ġguys": 4823,
      "à¸Łà¸Ļ": 4824,
      "fore": 4825,
      "Ay": 4826,
      "Ġresp": 4827,
      "vid": 4828,
      "fc": 4829,
      "OB": 4830,
      "ĠST": 4831,
      "à¸¶à¸ģ": 4832,
      "alth": 4833,
      "Ġits": 4834,
      "Ġga": 4835,
      "Ø¨Ø§ØŃ": 4836,
      "Ġê³µ": 4837,
      "ãģĬãĤģãģ§ãģ¨ãģĨ": 4838,
      "Ġhappy": 4839,
      "à¹ģà¸Ī": 4840,
      "ĠìĿ¼": 4841,
      "Ġsab": 4842,
      "Ġë§Ī": 4843,
      "@E": 4844,
      "Ġbro": 4845,
      "éĥ½": 4846,
      "864": 4847,
      "ĠCon": 4848,
      "å¹´è¶ĬãģĹ": 4849,
      "loy": 4850,
      "awin": 4851,
      "Ġdown": 4852,
      "Ġë²": 4853,
      "oint": 4854,
      "XX": 4855,
      "ë¥´": 4856,
      "ÐµÑĤ": 4857,
      "Sw": 4858,
      "éĸĭå§ĭ": 4859,
      "une": 4860,
      "Sm": 4861,
      "okum": 4862,
      "ĠðŁİĦ": 4863,
      "ICE": 4864,
      "à¹Ģà¸ĭ": 4865,
      "ðŁĹ": 4866,
      "âĺĨ": 4867,
      "æ¿": 4868,
      "çª": 4869,
      "ðŁĶ¥ĊĊ": 4870,
      "à¤ı": 4871,
      "ĠØ§ÙĦØ£": 4872,
      "Ġë§Ĳ": 4873,
      "ãĥ¢ãĥ³": 4874,
      "Ġà¤¹à¤®": 4875,
      "éĽ»": 4876,
      "ashi": 4877,
      "à®®": 4878,
      "ìĹ°": 4879,
      "mg": 4880,
      "imi": 4881,
      "ÙĦÙĥ": 4882,
      "ê°ľ": 4883,
      "SD": 4884,
      "åĳĬ": 4885,
      "åħ¥ãĤĬ": 4886,
      "Ġfav": 4887,
      "LB": 4888,
      "ating": 4889,
      "Up": 4890,
      "Ġbo": 4891,
      "ĠRRB": 4892,
      "ãģĤãģĤãģĤãģĤ": 4893,
      "tre": 4894,
      "MI": 4895,
      "awa": 4896,
      "Ġà¸Ĥà¸Ń": 4897,
      "à¹Ģà¸ŀà¸£à¸²à¸°": 4898,
      "Ġlive": 4899,
      "aba": 4900,
      "uts": 4901,
      "ãĥĿãĤ±": 4902,
      "ili": 4903,
      "Ġâļ": 4904,
      "Ġaway": 4905,
      "è¿½": 4906,
      "Ġbang": 4907,
      "ĠìĹĨ": 4908,
      "à¹īà¸³": 4909,
      "ĠSp": 4910,
      "NA": 4911,
      "ÅĤ": 4912,
      "¥¼": 4913,
      "à¸´à¸Ļà¹Ģà¸ĩ": 4914,
      "ãĤĪãĤįãģĹãģıãģĬé¡ĺãģĦãģĹãģ¾ãģĻ": 4915,
      "Ġha": 4916,
      "ÙĩÙĩÙĩÙĩÙĩÙĩÙĩÙĩÙĩÙĩÙĩÙĩÙĩÙĩÙĩÙĩ": 4917,
      "ingh": 4918,
      "ê²ł": 4919,
      "Ġà¹Ģà¸£": 4920,
      "Ġend": 4921,
      "Ä±nd": 4922,
      "¬¸": 4923,
      "@w": 4924,
      "Ġdie": 4925,
      "íĻĶ": 4926,
      "Ġãģ¯": 4927,
      "ðŁĴĽ": 4928,
      "'ll": 4929,
      "æ³¨": 4930,
      "Ñį": 4931,
      "ruit": 4932,
      "anna": 4933,
      "à¹ģà¸Ļ": 4934,
      "ê³¼": 4935,
      "ãĤĵãģłãģĳãģ©": 4936,
      "Ġà¹Ģà¸£à¸²": 4937,
      "ãĤ¤ãĥ«": 4938,
      "#W": 4939,
      "ĠChristmas": 4940,
      "If": 4941,
      "à¹Ĥà¸«à¸§à¸ķ": 4942,
      "ðŁļ©": 4943,
      "Ã¼z": 4944,
      "Ġkar": 4945,
      "ahah": 4946,
      "Ð¹": 4947,
      "Ġreg": 4948,
      "ìĨĮë": 4949,
      "ĠYOU": 4950,
      "Ġstr": 4951,
      "hel": 4952,
      "çµĲæŀľãģ¯": 4953,
      "âĿ¤ï¸ıâĿ¤ï¸ı": 4954,
      "à¸ĩà¸ª": 4955,
      "åĪ¶": 4956,
      "aciÃ³n": 4957,
      "~~": 4958,
      "ãģ«ãģ¤": 4959,
      "zi": 4960,
      "Ġì²": 4961,
      "à¥įà¤¥": 4962,
      "mor": 4963,
      "YS": 4964,
      "à¯įà®Ł": 4965,
      "íĺĦ": 4966,
      "à¸Ĭà¸²": 4967,
      "land": 4968,
      "mu": 4969,
      "#G": 4970,
      "ãģ«è¡Į": 4971,
      "ONE": 4972,
      "ãĥ¼ãĥ¼ãĥ¼ãĥ¼": 4973,
      "âģī": 4974,
      "à¹Ģà¸¢à¸Ńà¸°": 4975,
      "åıį": 4976,
      "ĠWhy": 4977,
      "anj": 4978,
      "į°": 4979,
      "à¸łà¸²à¸ŀ": 4980,
      "Ġluck": 4981,
      "ãĥķãĤ£": 4982,
      "æĺ¯éĿŀ": 4983,
      "ê»": 4984,
      "74": 4985,
      "ãĤ³ãĥŃ": 4986,
      "Br": 4987,
      "ĠEn": 4988,
      "nct": 4989,
      "ãģŁãģı": 4990,
      "Ġmo": 4991,
      "]Ċ": 4992,
      "æĿ¡": 4993,
      "Ġà¸Ńà¸¢": 4994,
      "Ev": 4995,
      "à¹īà¸ģ": 4996,
      "oken": 4997,
      "ots": 4998,
      "pm": 4999,
      "YY": 5000,
      "PMOIndia": 5001,
      "ðŁĺ³": 5002,
      "à¥ĩà¤²à¤µ": 5003,
      "eli": 5004,
      "ude": 5005,
      "à¸µà¸¡": 5006,
      "AV": 5007,
      "ĠëĦĪë¬´": 5008,
      "iri": 5009,
      "ãĢģãģĬ": 5010,
      "hr": 5011,
      "iki": 5012,
      "MP": 5013,
      "ĠAs": 5014,
      "lock": 5015,
      "ãģķãĤĮãĤĭ": 5016,
      "Ġhai": 5017,
      "à°¿à°": 5018,
      "ðŁİħ": 5019,
      "thday": 5020,
      "orts": 5021,
      "Ġav": 5022,
      "Ġkal": 5023,
      "åĨĻçľŁ": 5024,
      "à¹Ģà¸Ħà¸¢": 5025,
      "ĠSo": 5026,
      "ãģķãĤĵãģĮ": 5027,
      "ìķĪ": 5028,
      "EC": 5029,
      "à¸¶à¹Ī": 5030,
      "yle": 5031,
      "Ġíĺ": 5032,
      "ãģ®äºº": 5033,
      "ready": 5034,
      "ÙħØª": 5035,
      "whokum": 5036,
      "Ġmais": 5037,
      "SK": 5038,
      "íħ": 5039,
      "whokumarg": 5040,
      "tan": 5041,
      "èĮ": 5042,
      "ĠNew": 5043,
      "ĠìĿ¸": 5044,
      "è¨ĢãĤı": 5045,
      "ðŁİ¶": 5046,
      "iny": 5047,
      "âĢ¼ï¸ıĊ": 5048,
      "ìļ©": 5049,
      "ster": 5050,
      "à¤¾à¤¥": 5051,
      "ãģĬãĤĬãģ¾ãģĻ": 5052,
      "ella": 5053,
      "Ä«l": 5054,
      "sy": 5055,
      "ãģĵãĤĵãģª": 5056,
      "pi": 5057,
      "Ð¾Ð»": 5058,
      "ãĥ¼ãĥĹ": 5059,
      "gar": 5060,
      "mn": 5061,
      "à¹Ħà¸¥": 5062,
      "Math": 5063,
      "å¸¸": 5064,
      "eme": 5065,
      "Ġtell": 5066,
      "Ġë¶Ģ": 5067,
      "RC": 5068,
      "zo": 5069,
      "ìĽĮ": 5070,
      "Ġfl": 5071,
      "Ù¹": 5072,
      "à¸«à¸¡à¸Ķ": 5073,
      "Ġmany": 5074,
      "#J": 5075,
      "_N": 5076,
      "ross": 5077,
      "fa": 5078,
      "æľĢå¾Į": 5079,
      "íŀĪ": 5080,
      "åĿ": 5081,
      "Ð±": 5082,
      "æķ£": 5083,
      "æĺłçĶ»": 5084,
      "TD": 5085,
      "bt": 5086,
      "ķĮ": 5087,
      "à¸·à¸Ńà¸ģ": 5088,
      "EO": 5089,
      "Ġkeep": 5090,
      "Ð°Ð½": 5091,
      "åĲĪãĤı": 5092,
      "ĠðŁļ¨": 5093,
      "oni": 5094,
      "men": 5095,
      "Ġok": 5096,
      "æ°ĹæĮģãģ¡": 5097,
      "Ġmade": 5098,
      "Ajith": 5099,
      "ãĥ³ãģ®": 5100,
      "whokumargaurav": 5101,
      "à¹Īà¸£": 5102,
      "rew": 5103,
      "ãģĹãģªãģĦ": 5104,
      "ìĿ´ëĦ¤": 5105,
      "els": 5106,
      "à¸Ħà¸Ļà¸Ĺ": 5107,
      "PG": 5108,
      "íĶ¼": 5109,
      "Ġfuck": 5110,
      "hed": 5111,
      "_members": 5112,
      ":âĢ¦": 5113,
      "ĠThey": 5114,
      "ĠDM": 5115,
      "ĠðŁĺĤðŁĺĤðŁĺĤ": 5116,
      "ila": 5117,
      "bright": 5118,
      "à¥įà¤¦": 5119,
      "ħĦ": 5120,
      "ems": 5121,
      "Ø§Ùĩ": 5122,
      "INE": 5123,
      "ãĤ¦ãĥŀ": 5124,
      "Ī¬": 5125,
      "Ġtry": 5126,
      "SC": 5127,
      "æĹ¥çĽ®": 5128,
      "Ġask": 5129,
      "Ġíķĺë£¨": 5130,
      "#JusticeForRailwayStudent": 5131,
      "ML": 5132,
      "Ġind": 5133,
      "52": 5134,
      "Ġà¤¡": 5135,
      "Ġaut": 5136,
      "REAM": 5137,
      "Ġever": 5138,
      "æĮĩ": 5139,
      "Amazon": 5140,
      "åĳ¨å¹´": 5141,
      "ãĥķãĤ©ãĥŃ": 5142,
      "lex": 5143,
      "PL": 5144,
      "ðŁİīĊ": 5145,
      "uns": 5146,
      "api": 5147,
      "Ġber": 5148,
      "Ak": 5149,
      "))": 5150,
      "ÙĪÙĤ": 5151,
      "à¹īà¸Ńà¸¢": 5152,
      "chool": 5153,
      "ãĤģãģ£ãģ¡ãĤĥ": 5154,
      "ĠJoin": 5155,
      "mon": 5156,
      "ãģªãĤĵãģĭ": 5157,
      "Ġ!!": 5158,
      "ĠâĻ¡": 5159,
      "tra": 5160,
      "Ġcol": 5161,
      "ç¢ºèªį": 5162,
      "ãģ¡ãĤĩãģ£ãģ¨": 5163,
      "è»Ĭ": 5164,
      "hl": 5165,
      "ãģĭãĤıãģĦãģĦ": 5166,
      "èªķçĶŁ": 5167,
      "ãģĹãģŁãĤī": 5168,
      "JK": 5169,
      "Î¼": 5170,
      "ĠðŁı": 5171,
      "Pratap": 5172,
      "âĶĪ": 5173,
      "æľĿ": 5174,
      "Follow": 5175,
      "ãģī": 5176,
      "à¥ģà¤µ": 5177,
      "ãĤ¦ãĥ³": 5178,
      "ley": 5179,
      "ĠØ²": 5180,
      "Ġfull": 5181,
      "cept": 5182,
      "å»": 5183,
      "ãĤĵãģ§ãģĻ": 5184,
      "Ġki": 5185,
      "ĠØ§ÙĦÙĨ": 5186,
      "Ð³": 5187,
      "mark": 5188,
      "bab": 5189,
      "Ġada": 5190,
      "mak": 5191,
      "à¸¿": 5192,
      "å¤«": 5193,
      "Ġpero": 5194,
      "à¸´à¸ĩà¹Ĩ": 5195,
      "ĠãģĮ": 5196,
      "kr": 5197,
      "ILL": 5198,
      "*)": 5199,
      "ãģ£ãģĵ": 5200,
      "ãĢįãĤĴ": 5201,
      "çĮ«": 5202,
      "Ġ=": 5203,
      "_r": 5204,
      "å¯Ŀ": 5205,
      "ìľĦ": 5206,
      "ti": 5207,
      "å«": 5208,
      "UD": 5209,
      "Ġmom": 5210,
      "íĤ¤": 5211,
      "raw": 5212,
      "oke": 5213,
      "Es": 5214,
      "GG": 5215,
      "dr": 5216,
      "é£²": 5217,
      "Ġalso": 5218,
      "à¥ģà¤°": 5219,
      "ĠðŁĳį": 5220,
      "ðŁĺįðŁĺį": 5221,
      "à¸¥à¸²": 5222,
      "ãģ¨ãģª": 5223,
      "Pe": 5224,
      "war": 5225,
      "à¸±à¸į": 5226,
      "ĠØ·": 5227,
      "íķł": 5228,
      "ĠãĤĴ": 5229,
      "AZ": 5230,
      "ì¼": 5231,
      "Ġresult": 5232,
      "ìĻ": 5233,
      "ç±": 5234,
      "ðŁĸ¤": 5235,
      "ĠðŁ§": 5236,
      "ĳĲ": 5237,
      "Ġmorning": 5238,
      "à¹Īà¸Ńà¸ĩ": 5239,
      "ðŁĺģ": 5240,
      "èĤ²": 5241,
      "ĠBut": 5242,
      "ãĥĨãĥ¬": 5243,
      "Ġwish": 5244,
      "ðŁıĨ": 5245,
      "aaaa": 5246,
      "ðĿķ": 5247,
      "ÙĬÙĩ": 5248,
      "QU": 5249,
      "æ¤ľ": 5250,
      "Ġist": 5251,
      "Ġà¸Ńà¸¢à¸²à¸ģ": 5252,
      "Ġwatch": 5253,
      "â¬": 5254,
      "Ø§Ø¨Ø¹": 5255,
      "mic": 5256,
      "Ġder": 5257,
      "ãģĿãģĹãģ¦": 5258,
      "ï¿£": 5259,
      "gen": 5260,
      "à¸£à¸¡": 5261,
      "Ġpower": 5262,
      "ãģĻãģĲ": 5263,
      "âĸ¶": 5264,
      "unny": 5265,
      "ighit": 5266,
      "All": 5267,
      "Ġhi": 5268,
      "ãĤ¸ãĥ§": 5269,
      "aganPratap": 5270,
      "Ġíĥ": 5271,
      "Ġfuture": 5272,
      "Ġê°Ļ": 5273,
      "aganPratapMath": 5274,
      "ëĦ": 5275,
      "ĠTO": 5276,
      "ĠPl": 5277,
      "car": 5278,
      "èŃ²": 5279,
      "ãĤ¤ãĤ¹": 5280,
      "à¸µà¸Ĺ": 5281,
      "etting": 5282,
      "ĠÐ·": 5283,
      "ĠìķĮ": 5284,
      "ãģıãĤĭ": 5285,
      "weare": 5286,
      "OURS": 5287,
      "Ł¬ë": 5288,
      "ãģ¨ãģ¯": 5289,
      "ĠØ£ÙĨ": 5290,
      "imo": 5291,
      "ç·¨": 5292,
      "Ġwaiting": 5293,
      "Ġì§Ħì§ľ": 5294,
      "but": 5295,
      "Pay": 5296,
      "ãĥĥãĤ¯ãĤ¹": 5297,
      "ents": 5298,
      "å¸Į": 5299,
      "à¸«à¸²": 5300,
      "Ð°Ðº": 5301,
      "ìķĦìĿ´ë¸Į": 5302,
      "é¤": 5303,
      "Ġvia": 5304,
      "è¦ļ": 5305,
      "ìŀħ": 5306,
      "Ġsomet": 5307,
      "ÙħØ¯": 5308,
      "gr": 5309,
      "ı°": 5310,
      "azing": 5311,
      "ĠÚ©ÛĮ": 5312,
      "âľĮ": 5313,
      "urt": 5314,
      "çµ¡": 5315,
      "ovt": 5316,
      "çµĮ": 5317,
      "ãĦ": 5318,
      "ĠNFT": 5319,
      "edo": 5320,
      "ilm": 5321,
      "uru": 5322,
      "ãģłãģĳãģ©": 5323,
      "ĠGo": 5324,
      "#MAMAVOTE": 5325,
      "ï¼Ĳ": 5326,
      "Ġjob": 5327,
      "Ġtem": 5328,
      "à¹Ħà¸ļà¸£": 5329,
      "ãĤĦãĤĭ": 5330,
      "ces": 5331,
      "ç¸": 5332,
      "End": 5333,
      "Ġmes": 5334,
      "ëł¤": 5335,
      "ï½Ģ": 5336,
      "åľŁ": 5337,
      "ART": 5338,
      "ores": 5339,
      "Ġgu": 5340,
      "éĢ²": 5341,
      "ĠìĬ¤": 5342,
      "ãĥĥãĤº": 5343,
      "ml": 5344,
      "Ġeveryone": 5345,
      "à¥Į": 5346,
      "ä¼ĳ": 5347,
      "æİ¢": 5348,
      "ï¼ĵ": 5349,
      "Ġint": 5350,
      "oday": 5351,
      "à¸´à¸ª": 5352,
      "ï½¯": 5353,
      "åİ»": 5354,
      "anon": 5355,
      "ë°ľ": 5356,
      "ãģĤãģªãģŁ": 5357,
      "ãĤŃãĥ£ãĥ©": 5358,
      "FM": 5359,
      "ìĹĶ": 5360,
      "Ø³ÙĬ": 5361,
      "Ġgiveaway": 5362,
      "Ø§Ø§": 5363,
      "Li": 5364,
      "bre": 5365,
      "Ġweek": 5366,
      "UV": 5367,
      "Ø§Ø²": 5368,
      "Ġà¤¥": 5369,
      "è°": 5370,
      "Ġmag": 5371,
      "KP": 5372,
      "Cr": 5373,
      "ãģĹãĤĪãģĨ": 5374,
      "Ġwhere": 5375,
      "Ġwhich": 5376,
      "ëĬĺ": 5377,
      "GaganPratapMath": 5378,
      "ãģıãĤĬ": 5379,
      "ÙĤÙĦ": 5380,
      "ize": 5381,
      "BD": 5382,
      "#JusticeForRailwaysStudents": 5383,
      "ìŀĪ": 5384,
      "www": 5385,
      "ç¥¨": 5386,
      "ãĤģãĤĭ": 5387,
      "Ġnext": 5388,
      "ĠgÃ¶": 5389,
      "@r": 5390,
      "ales": 5391,
      "ãģĦãģŁãģĹãģ¾ãģĻ": 5392,
      "Ġpu": 5393,
      "ç´¹": 5394,
      "áº": 5395,
      "Ġmu": 5396,
      "ãģ®æĹ¥": 5397,
      "ãģĪãģŁ": 5398,
      "Ġold": 5399,
      "à¸±à¸§à¹Ģà¸Ńà¸ĩ": 5400,
      "HP": 5401,
      "Ġgreat": 5402,
      "ÛĮØ¯": 5403,
      "æĿĳ": 5404,
      "à¸µà¸ª": 5405,
      "åįĬ": 5406,
      "ãģĦãĤĦ": 5407,
      "BN": 5408,
      "cm": 5409,
      "íĸĪ": 5410,
      "END": 5411,
      "ĠÚ¯": 5412,
      "å¾ħãģ¡": 5413,
      "tte": 5414,
      "Ol": 5415,
      "éĢŁ": 5416,
      "Co": 5417,
      "ÛĮÚº": 5418,
      "à¹Ģà¸ľ": 5419,
      "âĻ»": 5420,
      "Ġìļ°": 5421,
      "ĠBu": 5422,
      "ãĥĸãĥ©": 5423,
      "ä¸ĬãģĴ": 5424,
      "ķíķĺ": 5425,
      "à¸«à¸§à¸¢": 5426,
      "arr": 5427,
      "é§": 5428,
      "ìĤ¬ë": 5429,
      "ì¤ĳ": 5430,
      "Ġtrending": 5431,
      "Ø¹Ùħ": 5432,
      "Ġsame": 5433,
      "ç³»": 5434,
      "_bighit": 5435,
      "Ð°ÑĤ": 5436,
      "ought": 5437,
      "Ġhav": 5438,
      "iness": 5439,
      "ãĤ¢ãĤ«ãĤ¦ãĥ³ãĥĪ": 5440,
      "Ġà¤ħà¤ªà¤¨": 5441,
      "ç´¹ä»ĭ": 5442,
      "íİ": 5443,
      "oro": 5444,
      "à¸±à¸Ļà¸Ĺ": 5445,
      "iba": 5446,
      "è¿İ": 5447,
      "ç´Ļ": 5448,
      "leep": 5449,
      "ĠBl": 5450,
      "Ġer": 5451,
      "ĠMAMA": 5452,
      "å³": 5453,
      "ãĥĹãĥ¬ãĤ¼ãĥ³ãĥĪä¼ģçĶ»": 5454,
      "å¹´è¶ĬãģĹãģĬãģĭãģĹ": 5455,
      "Ġê³ł": 5456,
      "âķ": 5457,
      "à¤£": 5458,
      "æł¡": 5459,
      "à¸Ľà¸£": 5460,
      "ongrat": 5461,
      "Ġmillion": 5462,
      "Ya": 5463,
      "_in": 5464,
      "ĠìłĦ": 5465,
      "ìĸ´ìļĶ": 5466,
      "Ġìļ´ë": 5467,
      "ĠLike": 5468,
      "Ġaspir": 5469,
      "Ġbefore": 5470,
      "OC": 5471,
      "68": 5472,
      "ohn": 5473,
      "ĠØ§Ùħ": 5474,
      "à¸ĩà¸Ļ": 5475,
      "Ð¸ÑĤ": 5476,
      "MG": 5477,
      "ANT": 5478,
      "ones": 5479,
      "Ġà®¤": 5480,
      "Ġur": 5481,
      "Ġconduct": 5482,
      "à¤¼à¤¾": 5483,
      "à¥Ĥà¤°": 5484,
      "à¹Īà¸ģ": 5485,
      "employ": 5486,
      "ðŁĻıðŁĻı": 5487,
      "ãĥĸãĥ³": 5488,
      "ãĥĬãĥ«": 5489,
      "count": 5490,
      "ĠÐ¿ÑĢ": 5491,
      "Ġmedia": 5492,
      "å¢Ĺ": 5493,
      "ãĥ¯ãĥ¼": 5494,
      "å¼ķçĶ¨": 5495,
      "ĠKeep": 5496,
      "ÙĥØ±": 5497,
      "ĠÙĦÙĦ": 5498,
      "@sh": 5499,
      "weareone": 5500,
      "µľ": 5501,
      "uman": 5502,
      "éłŃ": 5503,
      "MC": 5504,
      "Rah": 5505,
      "nh": 5506,
      "é»Ĵ": 5507,
      "ä»ĬåĽŀ": 5508,
      "qui": 5509,
      "AF": 5510,
      "Ø±Ùģ": 5511,
      "Ð¾Ð¼": 5512,
      "à¸¢à¸ģ": 5513,
      "ãģĵãģĵ": 5514,
      "igo": 5515,
      "ĳľ": 5516,
      "æĢĿãģĦ": 5517,
      "ÙĦØ§Ùħ": 5518,
      "real": 5519,
      "weareoneEXO": 5520,
      "ĠDe": 5521,
      "Ġvi": 5522,
      "Ġcheck": 5523,
      "anya": 5524,
      "Ġmis": 5525,
      "łï¸ı": 5526,
      "ä»Ĭå¹´ãĤĤ": 5527,
      "ðĿŁ": 5528,
      "áĮ": 5529,
      "eee": 5530,
      "ula": 5531,
      "è²©å£²": 5532,
      "Ġmau": 5533,
      "ĠĠĠĠĠĠĠĠĠĠĠĠ": 5534,
      "Ġteam": 5535,
      "åŀĭ": 5536,
      "ë²Ħ": 5537,
      "ĠdÃ©": 5538,
      "Ġid": 5539,
      "à¯ĩ": 5540,
      "ĠestÃ¡": 5541,
      "ãĤ±ãĥĥãĥĪ": 5542,
      "net": 5543,
      "ãģĦãģ¤ãĤĤ": 5544,
      "ðŁĴ«": 5545,
      "exam": 5546,
      "ĠQu": 5547,
      "Ġà¸Ĭà¸Ńà¸ļ": 5548,
      "pped": 5549,
      "èģ´": 5550,
      "ĠìĦł": 5551,
      "Ø§Øµ": 5552,
      "71": 5553,
      "Ġchan": 5554,
      "Ġvis": 5555,
      "EB": 5556,
      "à¹Īà¸§à¸Ļ": 5557,
      "à¸ªà¸²à¸§": 5558,
      "aehy": 5559,
      "ENT": 5560,
      "ãĤ¯ãĥ©": 5561,
      "Ġà®µ": 5562,
      "UU": 5563,
      "ï¼īĊ": 5564,
      "èµ°": 5565,
      "ê»ĺ": 5566,
      "ÙĬØ¯": 5567,
      "Ø¢": 5568,
      "won": 5569,
      "ãģĻãĤĭãģ¨": 5570,
      "Ġsub": 5571,
      "èı¯": 5572,
      "udio": 5573,
      "ĠiÃ§": 5574,
      "reen": 5575,
      "Ø±Ø¯": 5576,
      "ÛĮÚ©": 5577,
      "ãĤ¸ãĤ§": 5578,
      "urr": 5579,
      "Ġê°Ĳ": 5580,
      "ï½°": 5581,
      "arc": 5582,
      "ãĥīãĥ©": 5583,
      "iter": 5584,
      "ãģ»ãģ©": 5585,
      "Ser": 5586,
      "à¹Ģà¸Ł": 5587,
      "uka": 5588,
      ":/âĢ¦": 5589,
      "à¹Ĥà¸Ļ": 5590,
      "ĠÚĨ": 5591,
      "à¥Īà¥¤": 5592,
      "à¸Īà¸Ļ": 5593,
      "çĶ£": 5594,
      "ãģ¿ãģª": 5595,
      "ĠHow": 5596,
      "å½±": 5597,
      "ðŁįĢ": 5598,
      "Ġprom": 5599,
      "peak": 5600,
      "olog": 5601,
      "wan": 5602,
      "Ġà¤¤à¤ķ": 5603,
      "Ġtalk": 5604,
      "ĠTrending": 5605,
      "Ġà¤Ĩà¤ľ": 5606,
      "æ¹": 5607,
      "ãģĭãĤīãģ®": 5608,
      "ãĥ´": 5609,
      "Ġpos": 5610,
      "Prom": 5611,
      "Ġìĸ´ë": 5612,
      "Ġsince": 5613,
      "Ġà¤¸à¤°à¤ķ": 5614,
      "\"ĊĊ": 5615,
      "Bu": 5616,
      "à¸£à¸Ń": 5617,
      "ELEVEN": 5618,
      "à¸µà¸Ķ": 5619,
      "ourn": 5620,
      "ãĤ¦ãĥŀå¨ĺ": 5621,
      "ðŁĺĩ": 5622,
      "eleb": 5623,
      "ema": 5624,
      "ãģĤãĤĬãģ¾ãģĻ": 5625,
      "press": 5626,
      "æİ¥": 5627,
      "ules": 5628,
      "æĴĥ": 5629,
      "âĺħ": 5630,
      "ëįĶ": 5631,
      "ĠMan": 5632,
      "ä»²": 5633,
      "äºķ": 5634,
      "åĮĹ": 5635,
      "ãĥ¬ãĥ¼": 5636,
      "dh": 5637,
      "à¸´à¸£": 5638,
      "HI": 5639,
      "At": 5640,
      "iii": 5641,
      "æĶ¿": 5642,
      "ecret": 5643,
      "Fr": 5644,
      "à¸±à¸ŀ": 5645,
      "esp": 5646,
      "åĩºãģ¦": 5647,
      "CP": 5648,
      "ä¸ĬãģĮ": 5649,
      "ìŀ¬": 5650,
      "ãģĹãģ¦ãģ¾ãģĻ": 5651,
      "ãĤ¡": 5652,
      "Ġíķĺë£¨ìĹĲ": 5653,
      "à¸ļà¸Ńà¸ģà¸§": 5654,
      "Real": 5655,
      "éĥİ": 5656,
      "App": 5657,
      "å¿ľæı´": 5658,
      "Ġlang": 5659,
      "Ð·": 5660,
      "Ġhope": 5661,
      "ãħİ": 5662,
      "Ne": 5663,
      "alf": 5664,
      "ðŁĳĩðŁı¼ðŁĳĩðŁı¼": 5665,
      "uper": 5666,
      "js": 5667,
      "_JP": 5668,
      "Ġdur": 5669,
      "ĠAm": 5670,
      "TER": 5671,
      "ĠBTS": 5672,
      "ãĢįĊĊ": 5673,
      "Ġsl": 5674,
      "Ġwhile": 5675,
      "lÄ±": 5676,
      "ðŁĺ¢": 5677,
      "ĠØ¹ÙĨ": 5678,
      "ĠMore": 5679,
      "çĻºè¡¨": 5680,
      "leg": 5681,
      "Ġthose": 5682,
      "ðŁı½": 5683,
      "iful": 5684,
      "è¢": 5685,
      "åĩºæ¼Ķ": 5686,
      "ìĨĮëħĦ": 5687,
      "ãĤ«ãĥ¼": 5688,
      "ìļ´": 5689,
      "à¹Ģà¸ĺ": 5690,
      "Ġcare": 5691,
      "ãģªãģ«": 5692,
      "akan": 5693,
      "ç´łæķµ": 5694,
      "ãĤ¹ãĤ¿ãĥ¼": 5695,
      "ãĤĵãģ°": 5696,
      "ãģĹãģ¦ãģĦãĤĭ": 5697,
      "ASE": 5698,
      "Ġsomeone": 5699,
      "æŃ³": 5700,
      "ĠíĶ": 5701,
      "Ġìļ´ëªħ": 5702,
      "æ¶Ī": 5703,
      "ĠíĬ": 5704,
      "Ø´ÙĬ": 5705,
      "èĩ´ãģĹãģ¾ãģĻ": 5706,
      "Ġaja": 5707,
      "æĸ½": 5708,
      ",âĢ¦": 5709,
      "åĪĿæĬ«éľ²": 5710,
      "cp": 5711,
      "ĠÑĩ": 5712,
      "ider": 5713,
      "ðŁ¤©": 5714,
      "ãĤ°ãĥĥãĤº": 5715,
      "ìĽħ": 5716,
      "à¸Ĥà¸Ļ": 5717,
      "DD": 5718,
      "://âĢ¦": 5719,
      "ãģ®ãģĮ": 5720,
      "Ġli": 5721,
      "à¸ªà¸Ķ": 5722,
      "KW": 5723,
      "ĠìķĪëĤ¨": 5724,
      "asure": 5725,
      "Ġwell": 5726,
      "ãģĭãĤĭ": 5727,
      "à¸«à¸£à¸Ń": 5728,
      "ãģ«åħ¥": 5729,
      "aint": 5730,
      "ĠHA": 5731,
      "Ġë¨": 5732,
      "Ġprot": 5733,
      "YA": 5734,
      "à¹Ħà¸Ń": 5735,
      "vs": 5736,
      "ede": 5737,
      "Ġbetter": 5738,
      "Ġà¹ĥà¸Ļ": 5739,
      "ãĤ¹ãĤ¿ãĥ¼ãĥĪ": 5740,
      "Ġà¹ģà¸¥à¸°": 5741,
      "à¸µà¸¢à¸ĩ": 5742,
      "emin": 5743,
      "ĠØªÙĪ": 5744,
      "âĹı": 5745,
      "ë·": 5746,
      "à¹Ĥà¸Ń": 5747,
      "ãģ£ãģ¦ãģĦãĤĭ": 5748,
      "Ġì°¨ìĿ´ê°Ģ": 5749,
      "âľĶ": 5750,
      "éģĬ": 5751,
      "angan": 5752,
      "Ġìŀĺ": 5753,
      "Music": 5754,
      "ining": 5755,
      "ansraj": 5756,
      "ãĥ©ãĥ¼": 5757,
      "à¹ģà¸Łà¸Ļ": 5758,
      "çĶ»åĥı": 5759,
      "×Ķ": 5760,
      "ãĤ¸ãĥ£ãĥĭãĥ¼ãĤº": 5761,
      "jk": 5762,
      "ecial": 5763,
      "å°ĳãģĹ": 5764,
      "ì´ĪëıĦ": 5765,
      "ä»¥ä¸Ĭ": 5766,
      "aster": 5767,
      "65": 5768,
      "å¤±": 5769,
      "ä»ĬæľĪ": 5770,
      "amily": 5771,
      "łĪ": 5772,
      "åįģ": 5773,
      "Ma": 5774,
      "UB": 5775,
      "à¸¸à¸¡": 5776,
      "Global": 5777,
      "ãģ¨ãģĵãĤį": 5778,
      "42": 5779,
      "ĠInd": 5780,
      "iko": 5781,
      "ĪĪ": 5782,
      "Ġìļ´ëªħìĿ´ëĦ¤": 5783,
      "ì´ĪìĹĲìĦľ": 5784,
      "@ch": 5785,
      "ÑĨ": 5786,
      "]ĊĊ": 5787,
      "çľĮ": 5788,
      "âĶĪâĶĪ": 5789,
      "ĠË": 5790,
      "èª¬": 5791,
      "Ð¾Ð´": 5792,
      "ðŁĴĶ": 5793,
      "itu": 5794,
      "ãģ¿ãģ¦": 5795,
      "ì¶ľ": 5796,
      "@v": 5797,
      "rag": 5798,
      "ëĤ´": 5799,
      "ãĥ¼ãĥĬ": 5800,
      "çĸ²ãĤĮæ§ĺ": 5801,
      "æ¸©": 5802,
      "è·": 5803,
      "Ġë©": 5804,
      "â¸": 5805,
      "@V": 5806,
      "åķĨ": 5807,
      "osa": 5808,
      "Jo": 5809,
      "Ð½Ð¾": 5810,
      "elo": 5811,
      "ìĨĮëħĦëĭ¨": 5812,
      "@I": 5813,
      "ãģĵãģ®æĬķç¨¿ãĤĴRT": 5814,
      "asy": 5815,
      "ĠØº": 5816,
      "ahi": 5817,
      "What": 5818,
      "ista": 5819,
      "Ġë§İ": 5820,
      "lam": 5821,
      "awut": 5822,
      "61": 5823,
      "LI": 5824,
      "ë¬¼": 5825,
      "âĢ¦ĊĊ": 5826,
      "íķĺê³ł": 5827,
      "uga": 5828,
      "à¹īà¸¢": 5829,
      "ÙħØ¹": 5830,
      "Sa": 5831,
      "mad": 5832,
      "ðŁĮ¸": 5833,
      "89": 5834,
      "à¹Īà¹ĥà¸Ĭ": 5835,
      "-Ċ": 5836,
      "à¤¢": 5837,
      "Ki": 5838,
      "starship": 5839,
      "ĨãĤ£": 5840,
      "afe": 5841,
      "ÙĤÙĬ": 5842,
      "âľ¨âľ¨": 5843,
      "à¤¾à¤¸": 5844,
      "ê°ģ": 5845,
      "ãģĵãģ¨ãģĮ": 5846,
      "ĠÏĦ": 5847,
      "Ġcap": 5848,
      "host": 5849,
      "ãģģãģģ": 5850,
      "67": 5851,
      "Ł°": 5852,
      "MV": 5853,
      "ju": 5854,
      "ouch": 5855,
      "à¯įà®ª": 5856,
      "ĠØ§ÙĦØ®": 5857,
      "ITH": 5858,
      "ĠðŁķ": 5859,
      "æĭ¡": 5860,
      "åıĤæĪ¦": 5861,
      "à¸²à¸¥": 5862,
      "Ð¾Ð³": 5863,
      "OOK": 5864,
      "éĽ£": 5865,
      "fan": 5866,
      "å£«": 5867,
      "ãĢįãģ¨": 5868,
      "JY": 5869,
      "ased": 5870,
      "ðŁĵĮ": 5871,
      "Ġmer": 5872,
      "TC": 5873,
      "ãĤĪãģı": 5874,
      "ãģ£ãģ¦ãĤĤ": 5875,
      "Ñĸ": 5876,
      "çĦ¡æĸĻ": 5877,
      "((": 5878,
      "hu": 5879,
      "umber": 5880,
      "ìłģ": 5881,
      "cs": 5882,
      "ãģĤãģ£ãģŁ": 5883,
      "ëŀ": 5884,
      "ðŁĶ¥Ċ": 5885,
      "ë§Ĳ": 5886,
      "æ»": 5887,
      "ĠLA": 5888,
      "ĠÐ½Ð°": 5889,
      "Ms": 5890,
      "ÄĻ": 5891,
      "à¸Ķà¸Ķà¸Ķà¸Ķ": 5892,
      "metawin": 5893,
      "ĠDone": 5894,
      "Ġtop": 5895,
      "ĠØ¹ÙĦÙĬ": 5896,
      "roupd": 5897,
      "ume": 5898,
      "æľª": 5899,
      "íĸī": 5900,
      "ĠÄ°": 5901,
      "yan": 5902,
      "jun": 5903,
      "ãģ¨ãĤĤ": 5904,
      "ç¦ı": 5905,
      "narendramodi": 5906,
      "World": 5907,
      "è¨Ń": 5908,
      "Ġà®ķ": 5909,
      "Ġboy": 5910,
      "à¸Ĳ": 5911,
      "83": 5912,
      "çªģ": 5913,
      "yd": 5914,
      "äººãģĮ": 5915,
      "çĶ³": 5916,
      "è¨ĢãģĨ": 5917,
      "ĠðŁİī": 5918,
      "ãĤ¤ãĥ©ãĤ¹ãĥĪ": 5919,
      "à¸«à¸¢": 5920,
      "ãģ»ãĤĵãģ¨": 5921,
      "ë©": 5922,
      "à¸ªà¸³": 5923,
      "ãĥĨãĥ¬ãĥĵ": 5924,
      "isi": 5925,
      "å¸«": 5926,
      "shin": 5927,
      "Ġà¤ķà¤°à¤¨": 5928,
      "Keep": 5929,
      "éĸĢ": 5930,
      "ì²ĺ": 5931,
      "Ġyap": 5932,
      "Eng": 5933,
      "ĠME": 5934,
      "@Y": 5935,
      "Ġri": 5936,
      "Ġess": 5937,
      "ä¸ĭãģķãģĦ": 5938,
      "Ġà®ħ": 5939,
      "rv": 5940,
      "si": 5941,
      "çĨ": 5942,
      "ãĢįãģ®": 5943,
      "à¥ĭà¤¡": 5944,
      "ðŁ¤¤": 5945,
      "íĮĮ": 5946,
      "æĺ¨": 5947,
      "elt": 5948,
      "Îº": 5949,
      "ITY": 5950,
      "ä¹Ĺ": 5951,
      "Pa": 5952,
      "è¥": 5953,
      "RI": 5954,
      "Je": 5955,
      "Ġtweeting": 5956,
      "âĨĵ": 5957,
      "Ø°Ø§": 5958,
      "å³¶": 5959,
      "#A": 5960,
      "ãĤĦãģ£ãģ±": 5961,
      "íĬ¸ë": 5962,
      "'ve": 5963,
      "rg": 5964,
      "ÙĢÙĢÙĢ": 5965,
      "ãģªãĤĵãģ¦": 5966,
      "Ġhappen": 5967,
      "æĨ": 5968,
      "Ġtod": 5969,
      "ðŁĲ°": 5970,
      "çµ¶å¯¾": 5971,
      "Gu": 5972,
      ".....": 5973,
      "åħĪçĶŁ": 5974,
      "ãģ»ãģĹãģĦ": 5975,
      "less": 5976,
      "Ġë¶Ħ": 5977,
      "Ġsus": 5978,
      "autiful": 5979,
      "43": 5980,
      "EY": 5981,
      "íĶĦ": 5982,
      "ãĥģãĥ£ãĥ³ãĤ¹": 5983,
      "lk": 5984,
      "Ġsoon": 5985,
      "stag": 5986,
      "LOW": 5987,
      "à¹Ĥà¸Ķà¸Ļ": 5988,
      "ĠPlease": 5989,
      "nes": 5990,
      "ë°©íĥĦìĨĮëħĦëĭ¨": 5991,
      "éĹ": 5992,
      "ãĥ»ãĥ»ãĥ»": 5993,
      "à®³": 5994,
      "ãģĦãģªãģĦ": 5995,
      "à¯ģà®®": 5996,
      "ëª¨": 5997,
      "Ġà¤ªà¤¹": 5998,
      "@PMOIndia": 5999,
      "Fi": 6000,
      "Åŀ": 6001,
      "railway": 6002,
      "ØªØ§ÙĬ": 6003,
      "à¹ĩà¸ļ": 6004,
      "à®ķ": 6005,
      "53": 6006,
      "CD": 6007,
      "èĹ¤": 6008,
      "omen": 6009,
      "otify": 6010,
      "ãģĵãĤĮãģ¯": 6011,
      "icht": 6012,
      "Ġsk": 6013,
      "ational": 6014,
      "ãģĮå½ĵãģŁãĤĭ": 6015,
      "HD": 6016,
      "ĠJust": 6017,
      "alt": 6018,
      "ì¡°": 6019,
      "Ġant": 6020,
      "ìĭĿ": 6021,
      "ĠÑĥ": 6022,
      "400": 6023,
      "omo": 6024,
      "åıĤåĬłèĢħ": 6025,
      "49": 6026,
      "view": 6027,
      "250": 6028,
      "Ġìĺģ": 6029,
      "ãģĵãģ¨ãĤĴ": 6030,
      "ãģĦãģı": 6031,
      "íģ¬": 6032,
      "pu": 6033,
      "ĠCan": 6034,
      "ê³Ħ": 6035,
      "´ëĤ": 6036,
      "Ġmil": 6037,
      "ĠìĤ¬ëŀĮ": 6038,
      "pc": 6039,
      "çģ«": 6040,
      "TL": 6041,
      "41": 6042,
      "ĠØ§ÙĦØ±": 6043,
      "çİĩ": 6044,
      "ulations": 6045,
      "å¤§æĦŁè¬Ŀ": 6046,
      "æľĢè¿ĳ": 6047,
      "èıĵ": 6048,
      "py": 6049,
      "ê±¸": 6050,
      "Ġbad": 6051,
      "Ø´Ø±": 6052,
      "ãĤĴãĥĹãĥ¬ãĤ¼ãĥ³ãĥĪ": 6053,
      "ãĤĴè¦ĭ": 6054,
      "ł¤": 6055,
      "Ġì¶Ķ": 6056,
      "ãģįãģŁãģĦ": 6057,
      "å½¹": 6058,
      "arth": 6059,
      "è±ª": 6060,
      "ç¹ĭãģĮãĤĬãģŁãģĦ": 6061,
      "Î¬": 6062,
      "_V": 6063,
      "Ġà¹Ģà¸Ī": 6064,
      "âĳ¢": 6065,
      "Ġà¸ĺ": 6066,
      "ĠNot": 6067,
      "åĲĮãģĺ": 6068,
      "¶Ħ": 6069,
      "à¸µà¸Ĺà¸§": 6070,
      "Ġgr": 6071,
      "ĠDAY": 6072,
      "Gulf": 6073,
      "ÙģØ±": 6074,
      "ask": 6075,
      "_v": 6076,
      "ãĢıĊ": 6077,
      "èªķçĶŁæĹ¥": 6078,
      "ï¾Ŀ": 6079,
      "ĠStudents": 6080,
      "Ġown": 6081,
      "just": 6082,
      "Î¯": 6083,
      "rk": 6084,
      "êĴ": 6085,
      "TVåĪĿæĬ«éľ²": 6086,
      "_åĥķãĤīãģ®åŃ£ç¯Ģ": 6087,
      "ness": 6088,
      "íļ": 6089,
      "æį": 6090,
      "ĠâĿ¤": 6091,
      "æĿ¾": 6092,
      "à¸²à¸Ķà¸Ļ": 6093,
      "Ġenough": 6094,
      "ØªØ§ÙĬÙĦÙĬ": 6095,
      "à¹īà¸²à¸¡": 6096,
      "amu": 6097,
      "Ġë°Ķ": 6098,
      "Ġhay": 6099,
      "Ġà¹Ħà¸Ľ": 6100,
      "ĠTop": 6101,
      "ðŁļ©ðŁļ©": 6102,
      "Ġë¯¸": 6103,
      "ãģķãĤī": 6104,
      "IF": 6105,
      "_åĥķãĤīãģ®åŃ£ç¯ĢTVåĪĿæĬ«éľ²": 6106,
      "à¸«à¸²à¸£": 6107,
      "à¸·à¸Ļ": 6108,
      "Ġbi": 6109,
      "Ġtill": 6110,
      "Ġproof": 6111,
      "mt": 6112,
      "ãĤ¢ãĥĥãĥĹ": 6113,
      "eter": 6114,
      "Ġà¤Ľ": 6115,
      "Ġannounc": 6116,
      "ĠIs": 6117,
      "ĠDay": 6118,
      "åºĥ": 6119,
      "Ġcons": 6120,
      "à¥ĭà¤ľà¤Ĺ": 6121,
      "ãĤ¹ãĤ¯": 6122,
      "cz": 6123,
      "not": 6124,
      "åı·": 6125,
      "éŃĶ": 6126,
      "ĠðŁĴľ": 6127,
      "âĺĳ": 6128,
      "ØªÙĩ": 6129,
      "oga": 6130,
      "à¹ĩà¸Ħ": 6131,
      "oliday": 6132,
      "å¸ĥ": 6133,
      "êµ¬ë": 6134,
      "ðŁĺİ": 6135,
      "ãģ¦ãĤĤ": 6136,
      "ĠNov": 6137,
      "à¹Ģà¸¥à¸¢à¸Ħ": 6138,
      "èĪŀ": 6139,
      "à¸«à¸²à¸¢": 6140,
      "ĠHappy": 6141,
      "ãģ¾ãĤĭ": 6142,
      "Ġà¹Ģà¸Ń": 6143,
      "ungkook": 6144,
      "emos": 6145,
      "utes": 6146,
      "ãĥ¯ãĤ¯": 6147,
      "ĠHOURS": 6148,
      "à¸±à¸ĩà¹Ħà¸¡": 6149,
      "Lo": 6150,
      "Ł¬": 6151,
      "ãģĵãģ®ãĥĦãĤ¤ãĥ¼ãĥĪãĤĴRT": 6152,
      "Ġà¤ĩà¤¸": 6153,
      "adav": 6154,
      "Ð¸Ð½": 6155,
      "ë·Ķ": 6156,
      "rah": 6157,
      "ÐµÐ»": 6158,
      "ðŁĺĮ": 6159,
      "rem": 6160,
      "à¸ªà¸¡": 6161,
      "lin": 6162,
      "ãĥªãĤ¢": 6163,
      "âĿ£ï¸ı": 6164,
      "æ°ĹãģĮ": 6165,
      "ĠThat": 6166,
      "ĵ°": 6167,
      "ather": 6168,
      "brightvc": 6169,
      "Ġalready": 6170,
      "Ġgetting": 6171,
      "HK": 6172,
      "Ġà¹Ģà¸Ńà¸²": 6173,
      "ĠãģķãĤĵ": 6174,
      "erv": 6175,
      "è³ª": 6176,
      "å¡": 6177,
      "ãĥ¨": 6178,
      "Ġaspirants": 6179,
      "å®¹": 6180,
      "çĶ±": 6181,
      "ãģĵãĤĮãģĭãĤī": 6182,
      "Ġ;": 6183,
      "Ġcamp": 6184,
      "ãĥĢãĤ¦ãĥ³": 6185,
      "Ġbig": 6186,
      "73": 6187,
      "endar": 6188,
      "Ġhear": 6189,
      "Ġcoming": 6190,
      "Ġlik": 6191,
      "æ®µ": 6192,
      "ĠLet": 6193,
      "à¸±à¸ļà¸ªà¸Ļ": 6194,
      "252": 6195,
      "Ġgame": 6196,
      "@RailMinIndia": 6197,
      "may": 6198,
      "ãģĿãģ®åł´": 6199,
      "ald": 6200,
      "Fl": 6201,
      "edi": 6202,
      "à¤ħ": 6203,
      "à¸±à¸ģà¸¡à¸²à¸ģ": 6204,
      "ĠðŁ¤į": 6205,
      "åŀ¢": 6206,
      "âĿ¤ï¸ıâĢį": 6207,
      "CB": 6208,
      "pos": 6209,
      "ĠáĬ": 6210,
      "ovie": 6211,
      "è¦ª": 6212,
      "Ġsomething": 6213,
      "Ġce": 6214,
      "ðŁĴŀ": 6215,
      "ular": 6216,
      "ãĤĦãģĻ": 6217,
      "prom": 6218,
      "ãĥĹãĥ©": 6219,
      "âĢĻll": 6220,
      "Ġta": 6221,
      "New": 6222,
      "fil": 6223,
      "ãģĨãģ¡": 6224,
      ".c": 6225,
      "IO": 6226,
      "Ġsel": 6227,
      "ãĤīãĤĮãĤĭ": 6228,
      "çĬ¶": 6229,
      "Ġou": 6230,
      "à¸¸à¸Ĥ": 6231,
      "ï½ŀï½ŀ": 6232,
      "ĠÙĥÙĦ": 6233,
      "æĩ": 6234,
      "ìĭ¬": 6235,
      "Ġmust": 6236,
      "æĬķç¥¨": 6237,
      "ç¾İåĳ³": 6238,
      "à¸Īà¸³": 6239,
      "apat": 6240,
      "Ġdoing": 6241,
      "ãĤ¢ãĤ¤ãĥ": 6242,
      "dm": 6243,
      "ãģıãģ¡ãĤĥ": 6244,
      "è¼ī": 6245,
      "PT": 6246,
      "inda": 6247,
      "Che": 6248,
      "_a": 6249,
      "à¸ĩà¸Ĺ": 6250,
      "ãģĳãģŁ": 6251,
      "èĸ": 6252,
      "Ġbisa": 6253,
      "eld": 6254,
      "uni": 6255,
      "Ġì¤ĳ": 6256,
      "åıİ": 6257,
      "hor": 6258,
      "èĤī": 6259,
      "ãģĦãĤĪ": 6260,
      "Ġê¹": 6261,
      "æĬľ": 6262,
      "æĢ¥": 6263,
      "EG": 6264,
      "çħ": 6265,
      "ÙĤØ¯": 6266,
      "vn": 6267,
      "à¸Ļà¸²à¸ĩ": 6268,
      "niverse": 6269,
      "åĲĽ": 6270,
      "AX": 6271,
      "à¸Ńà¸Ńà¸Ł": 6272,
      "121": 6273,
      "ĠðŁĴĻ": 6274,
      "èĮ¶": 6275,
      "Â°": 6276,
      "andom": 6277,
      "à¸¥à¸ģ": 6278,
      "str": 6279,
      "Ġben": 6280,
      "udah": 6281,
      "jm": 6282,
      "Ġà¹Ħà¸Ķ": 6283,
      "ä¸Ī": 6284,
      "è»¢": 6285,
      "à¹Īà¸²à¸Īà¸°": 6286,
      "àª¾": 6287,
      "Mon": 6288,
      "Hansraj": 6289,
      "kn": 6290,
      "ìĦĿ": 6291,
      "à¹īà¸Ķ": 6292,
      "JS": 6293,
      "Ð¾ÑĢ": 6294,
      "ATEEZ": 6295,
      "ĠØ§ÙĦØª": 6296,
      "ðĿĵ": 6297,
      "à¹īà¸Ńà¸Ļ": 6298,
      "Win": 6299,
      "æľį": 6300,
      "ÏĮ": 6301,
      "à¸´à¸Ĺ": 6302,
      "bar": 6303,
      "udi": 6304,
      "ĠÑĢ": 6305,
      "Ø³Ùħ": 6306,
      "åĢį": 6307,
      "à¤Ĩ": 6308,
      "ĠØ§ÙĦØ¬": 6309,
      "à¹ĩà¸Īà¸ģà¸²à¸£": 6310,
      "ident": 6311,
      "CC": 6312,
      "112": 6313,
      "yam": 6314,
      "\"Ċ": 6315,
      "ĠVer": 6316,
      "Ġnight": 6317,
      "ĠÚ©ÛĴ": 6318,
      "ðŁĴľðŁĴľ": 6319,
      "xz": 6320,
      "atr": 6321,
      "ãĥ¶": 6322,
      "à®µ": 6323,
      "km": 6324,
      "winmetawin": 6325,
      "ĠÐ½Ðµ": 6326,
      "åĳ¼": 6327,
      "&lt": 6328,
      "abe": 6329,
      "ĠSO": 6330,
      "Î¿Ïħ": 6331,
      "ê¹Įì§Ģ": 6332,
      "ìĭ¤": 6333,
      "íĥľ": 6334,
      "**": 6335,
      "aches": 6336,
      "81": 6337,
      "çŁ³": 6338,
      "å¸ĮæľĽ": 6339,
      "à¹Ģà¸Ķà¸ļ": 6340,
      "aire": 6341,
      "åįĺ": 6342,
      "à¸´à¸¥": 6343,
      "Ã§a": 6344,
      "åħļ": 6345,
      "_jo": 6346,
      "Ġthing": 6347,
      "ãĥ³ãĥĢãĥ¼": 6348,
      "arts": 6349,
      "ãģĶåıĤåĬł": 6350,
      "ãĥ³ãĥĩ": 6351,
      "ãĥĪãĥ¬": 6352,
      "#D": 6353,
      "à¹ģà¸£à¸ģ": 6354,
      "âĻªĊ": 6355,
      "¸Ķ": 6356,
      "ìĺģìĽħ": 6357,
      "eth": 6358,
      "ëĵł": 6359,
      "à¸µà¸ŀ": 6360,
      "ðŁĺŃðŁĺŃðŁĺŃðŁĺŃðŁĺŃðŁĺŃðŁĺŃðŁĺŃ": 6361,
      "62": 6362,
      "So": 6363,
      "ãģĹãĤĥ": 6364,
      "SA": 6365,
      "Ġfriends": 6366,
      "ðŁ¥°ðŁ¥°": 6367,
      "yt": 6368,
      "åħī": 6369,
      "Ġcontin": 6370,
      "outh": 6371,
      "è°·": 6372,
      "Kumar": 6373,
      "Ġform": 6374,
      "jh": 6375,
      "ÙĪÙĬ": 6376,
      "Ð¾Ñģ": 6377,
      "NT": 6378,
      "^^": 6379,
      "ollab": 6380,
      "ìĿ´ëĿ¼": 6381,
      "ures": 6382,
      "Bo": 6383,
      "ĠaÃ±": 6384,
      "æ²¢": 6385,
      "icip": 6386,
      "ðŁĮĪ": 6387,
      "Ġà¹Ģà¸¡": 6388,
      "vv": 6389,
      "lee": 6390,
      "CL": 6391,
      "ĠWhen": 6392,
      "ãģĦãģ§": 6393,
      "ĠSH": 6394,
      "æĿ¥ãģ¦": 6395,
      "çŃī": 6396,
      "illed": 6397,
      "lix": 6398,
      "Art": 6399,
      "Md": 6400,
      "æĻ®": 6401,
      "zt": 6402,
      "ãģ«ãģªãĤĬãģ¾ãģĹãģŁ": 6403,
      "ç·ı": 6404,
      "Ġagainst": 6405,
      "_O": 6406,
      "Ø±ÙĬÙĥ": 6407,
      "ãģĵãģ®å": 6408,
      "ados": 6409,
      "âĿĦï¸ı": 6410,
      "é¨ĵ": 6411,
      "Ġinc": 6412,
      "ì¹ľ": 6413,
      "sn": 6414,
      "Ġja": 6415,
      "Ġtrans": 6416,
      "rm": 6417,
      "ç§ģãģ¯": 6418,
      "ãģ¨æĢĿãģĦãģ¾ãģĻ": 6419,
      "Ġau": 6420,
      "ãģ«ãģ¤ãģĦãģ¦": 6421,
      "ĠëįĶ": 6422,
      "Ġdemands": 6423,
      "åĻ": 6424,
      "cd": 6425,
      "Ġment": 6426,
      "anta": 6427,
      "æĻĤãģ«": 6428,
      "roll": 6429,
      "ãĥ¡ãĥ³ãĥĪ": 6430,
      "Ġshit": 6431,
      "Ġç¬¬": 6432,
      "onna": 6433,
      "ðŁĴİ": 6434,
      "ä¾¡": 6435,
      "Ġrecruit": 6436,
      "âĸ½": 6437,
      "PE": 6438,
      "tta": 6439,
      "¬´ë": 6440,
      "ãĤ¢ãĥĭãĥ¡": 6441,
      "ÙħØ±": 6442,
      "King": 6443,
      "ÙĪØª": 6444,
      "ê¹Ģ": 6445,
      "à¹Ĥà¸¡": 6446,
      "ãģ¡ãĤĥãģĨ": 6447,
      "town": 6448,
      "ãĥĥãĥī": 6449,
      "Ġsor": 6450,
      "yi": 6451,
      "ãģŁãģł": 6452,
      "ulu": 6453,
      "è¡£": 6454,
      "å¤§æĦŁè¬Ŀç¥Ń": 6455,
      "Ø¨ÙĦ": 6456,
      "æİ¨ãģĹ": 6457,
      "ĠðŁĸ¤": 6458,
      "à¥ĭà¤¤": 6459,
      "GF": 6460,
      "éłĥ": 6461,
      "Ġmar": 6462,
      "ĠìķĦëĭĪ": 6463,
      "(éĩĳ": 6464,
      "umi": 6465,
      "NY": 6466,
      "ĠEs": 6467,
      "xxx": 6468,
      "essi": 6469,
      "éĿĴ": 6470,
      "Em": 6471,
      "iden": 6472,
      "aily": 6473,
      "åıĤåĬłèĢħåĭŁéĽĨ": 6474,
      "Ġopen": 6475,
      "Ġáĭ": 6476,
      "Ġput": 6477,
      "ĠÛĮ": 6478,
      "rab": 6479,
      "ther": 6480,
      "ðŁĶĶ": 6481,
      "ë³µ": 6482,
      "à¥ģà¤¨": 6483,
      "æĽ´æĸ°": 6484,
      "Ġexc": 6485,
      "vl": 6486,
      "ãĤģãģ¡ãĤĥãģıãģ¡ãĤĥ": 6487,
      "¢ħ": 6488,
      "åĬĩ": 6489,
      "ayo": 6490,
      "IVEstarship": 6491,
      "Ġà¤¬à¤¨": 6492,
      "TEEN": 6493,
      "ãģĹãģ¦ãģĦãģ¾ãģĻ": 6494,
      "à¥ģà¤ķ": 6495,
      "ìŀĳ": 6496,
      "stagram": 6497,
      "Ġnotific": 6498,
      "Si": 6499,
      "ĠSE": 6500,
      "ãĥ¼ãĥĦ": 6501,
      "ï¼ıĊĊ": 6502,
      "ota": 6503,
      "ê±´": 6504,
      "à¸´à¸ļ": 6505,
      "ë§¤": 6506,
      "è©°": 6507,
      "à¸¸à¸Ķà¸Ĺ": 6508,
      "Ag": 6509,
      "è²ł": 6510,
      "ëŀĺ": 6511,
      "Ġnos": 6512,
      "ì°¨": 6513,
      "åĲī": 6514,
      "gun": 6515,
      "ãģ®ãģ¿": 6516,
      "ĠAd": 6517,
      "ĠMin": 6518,
      "Ġvoting": 6519,
      "Ġune": 6520,
      "ĠPr": 6521,
      "åīįãģ«": 6522,
      "With": 6523,
      "hour": 6524,
      "åıĤæĪ¦ID": 6525,
      "Ġdoesn": 6526,
      "cial": 6527,
      "NB": 6528,
      "Ġho": 6529,
      "ually": 6530,
      "ÐĲ": 6531,
      "ëĭ¤ê³ł": 6532,
      "umb": 6533,
      "æĿ¡ä»¶": 6534,
      "ðŁĺĶ": 6535,
      "HAHAHAHA": 6536,
      "joy": 6537,
      "Ġkak": 6538,
      "JJ": 6539,
      "ï¼Łï¼Łï¼Łï¼Ł": 6540,
      "çĪĨ": 6541,
      "ãĤīãģĹãģĦ": 6542,
      "Ġê´": 6543,
      "Ġà¸ĭ": 6544,
      "VENTEEN": 6545,
      "ton": 6546,
      "Ġrel": 6547,
      "#JO": 6548,
      "asic": 6549,
      "ãĥŀãĤ¸": 6550,
      "Ġà®®": 6551,
      "ä¸ĩåĨĨ": 6552,
      "ĠOur": 6553,
      "bert": 6554,
      "ãģĥ": 6555,
      "ĠGiveaway": 6556,
      "à¸«à¸¥à¸°": 6557,
      "rp": 6558,
      "ĠâĤ": 6559,
      "ç·ļ": 6560,
      "79": 6561,
      "ãĥĸãĥ«": 6562,
      "ãĤ¹ãĥļ": 6563,
      "å´": 6564,
      "Ġir": 6565,
      "ĠAR": 6566,
      "ĠWITH": 6567,
      "ional": 6568,
      "Kh": 6569,
      "ãģĦãģ«": 6570,
      "à°Ĥ": 6571,
      "ëĤľ": 6572,
      "ied": 6573,
      "part": 6574,
      "ðŁı¾": 6575,
      "ï¼Ľ": 6576,
      "à¹Ģà¸ľà¸Ķ": 6577,
      "kim": 6578,
      "yg": 6579,
      "ently": 6580,
      "à¹Ħà¸«à¸§": 6581,
      "Ġà¤®à¤¹": 6582,
      "ãĤĵãģ©": 6583,
      "tok": 6584,
      "ĠãĤ¢": 6585,
      "DS": 6586,
      "...ĊĊ": 6587,
      "ðŁĳĳ": 6588,
      "Ġcomment": 6589,
      "ball": 6590,
      "à¹Ħà¸«à¸¡": 6591,
      "ĠRep": 6592,
      "Ġcountry": 6593,
      "ÛĶ": 6594,
      "ãģĿãģ®åł´ãģ§": 6595,
      "Ġëĸ": 6596,
      "700": 6597,
      "Ġfind": 6598,
      "ãģıãĤĮ": 6599,
      "esi": 6600,
      "NO": 6601,
      "åĢ¤": 6602,
      "Mo": 6603,
      "UJ": 6604,
      "à¹ĩà¸ķ": 6605,
      "Ġlot": 6606,
      "Ġuse": 6607,
      "çļĨæ§ĺ": 6608,
      "ðŁ¤Ĺ": 6609,
      "NJ": 6610,
      "è¥¿": 6611,
      "ãĥ©ãĥ³": 6612,
      "å¯Ĵ": 6613,
      "Ä±nda": 6614,
      "yb": 6615,
      "andhi": 6616,
      "à¤Ĥà¤¦": 6617,
      "ãģłãģĳãģ§": 6618,
      "ãģĦãģ®": 6619,
      "ÛĮØ±": 6620,
      "ĠðŁĳĢ": 6621,
      "#ç¥Ŀ": 6622,
      "Ã¼m": 6623,
      "Love": 6624,
      "çļĦãģ«": 6625,
      "wal": 6626,
      "ĠðŁ¦": 6627,
      "æ°¸": 6628,
      "Ġê·Ģ": 6629,
      "ĥĲ": 6630,
      "ĠðŁĶĶ": 6631,
      "à¸²à¸ĩà¸§": 6632,
      "å®Łæĸ½": 6633,
      "åĤĻ": 6634,
      "Ġhard": 6635,
      "Ġden": 6636,
      "iva": 6637,
      "æ³£": 6638,
      "Ġuma": 6639,
      "æĶ¯": 6640,
      "ĠØ¨Ùĩ": 6641,
      "ten": 6642,
      "cos": 6643,
      "101": 6644,
      "ìĶ": 6645,
      "THE": 6646,
      "à¦¿": 6647,
      "Que": 6648,
      "Ġva": 6649,
      "OOOO": 6650,
      "ãĤĪãģĭãģ£ãģŁ": 6651,
      "Ġhome": 6652,
      "âĢĻve": 6653,
      "éĩı": 6654,
      "rip": 6655,
      "Ġà¤²à¤Ĺ": 6656,
      "ç½®": 6657,
      "à¸Ńà¸²": 6658,
      "asih": 6659,
      "Og": 6660,
      "æĺŁ": 6661,
      "Ġvoice": 6662,
      "ãģ¡ãĤĥãĤĵãģ¨": 6663,
      "fb": 6664,
      "su": 6665,
      "CR": 6666,
      "dream": 6667,
      "åĲĦ": 6668,
      "jam": 6669,
      "Ġà¤Ńà¤°": 6670,
      "jt": 6671,
      "ãģĳãĤĮãģ°": 6672,
      "à¤Ĥà¤Ĺ": 6673,
      "è¡ĵ": 6674,
      "ðŁĳıðŁĳı": 6675,
      "ĠìĹ¬ë": 6676,
      "ÙĨØª": 6677,
      "Ġbus": 6678,
      "Ġset": 6679,
      "ãģĭãģ«": 6680,
      "ãĥ¬ãĥ³ãĤ¸": 6681,
      "ãĤ¤ãĥ¤": 6682,
      "PD": 6683,
      "è£½": 6684,
      "ooo": 6685,
      "à¤«": 6686,
      "Ġtal": 6687,
      "Ġê°ľ": 6688,
      "æ¸¡": 6689,
      "é¬¼": 6690,
      "ĠMon": 6691,
      "Ġà¸«à¸¥": 6692,
      "ãĥŀãĥ³": 6693,
      "çļĨãģķãĤĵ": 6694,
      "Ġlittle": 6695,
      "lan": 6696,
      "Ġfree": 6697,
      "iga": 6698,
      "IRST": 6699,
      "Ã´": 6700,
      "à¹īà¸²à¸§": 6701,
      "áĬķ": 6702,
      "ãĤªãĥªãĤ¸": 6703,
      "RK": 6704,
      "Ġtwo": 6705,
      "ĠâĹ": 6706,
      "iciembre": 6707,
      "íı¬": 6708,
      "çĶ·åŃĲ": 6709,
      "FO": 6710,
      "CK": 6711,
      "è¯": 6712,
      "!!ĊĊ": 6713,
      "rough": 6714,
      "Ġáī": 6715,
      "yk": 6716,
      "åı¤": 6717,
      "ãĥ¡ãĥ³ãĥĲãĥ¼": 6718,
      "åįĥ": 6719,
      "æŁĵ": 6720,
      "íĺķ": 6721,
      "Ġtodo": 6722,
      "pect": 6723,
      "ature": 6724,
      "iah": 6725,
      "è¢«": 6726,
      "ÙĬØ¨": 6727,
      "Av": 6728,
      "à¸ģà¸ķ": 6729,
      "ĠìĤ": 6730,
      "aehyung": 6731,
      "ĠAlbum": 6732,
      "Ä±yor": 6733,
      "mil": 6734,
      "MT": 6735,
      "key": 6736,
      "èŃ°": 6737,
      "Ġconc": 6738,
      "æ¯İ": 6739,
      "IH": 6740,
      "aja": 6741,
      "æ£®": 6742,
      "VT": 6743,
      "ĠðŁĺĬ": 6744,
      "ï¼ŁĊĊ": 6745,
      "åī²": 6746,
      "Ð¶": 6747,
      "ÙĬÙģ": 6748,
      "ä¾Ľ": 6749,
      "ãĤ«ãĥ«": 6750,
      "èī¯ãģĭãģ£ãģŁ": 6751,
      "åĲĪãĤıãģĽ": 6752,
      "Ġsama": 6753,
      "Ġíĸī": 6754,
      "zl": 6755,
      "ï¼¿": 6756,
      "é£¯": 6757,
      "yst": 6758,
      "DO": 6759,
      "âĶĢ": 6760,
      "è±¡": 6761,
      "Ġì¡°": 6762,
      "ario": 6763,
      "å©": 6764,
      "ava": 6765,
      "ices": 6766,
      "ĠLove": 6767,
      "åĪĩãĤĬ": 6768,
      "ãģıãĤĮãĤĭ": 6769,
      "åķĨåĵģ": 6770,
      "è¦ĸ": 6771,
      "_exam": 6772,
      "Class": 6773,
      "Ġà²": 6774,
      "Ġnon": 6775,
      "ĠëĤ¨": 6776,
      "Fe": 6777,
      "Ġcho": 6778,
      "Ġfun": 6779,
      "Ed": 6780,
      "à¸ĸà¸²à¸¡": 6781,
      "ãģ¸ãģ®": 6782,
      "à¸Łà¸Ńà¸¥": 6783,
      "Ø±ÙĬØ§Ø¶": 6784,
      "Ġplaying": 6785,
      "'d": 6786,
      "ãģ¨ãĤĬ": 6787,
      "ĠĠĠĠĠ": 6788,
      "illa": 6789,
      "ount": 6790,
      "ðŁ§¡": 6791,
      "ãĤªãĥªãĤ¸ãĥĬãĥ«": 6792,
      "ëįĺ": 6793,
      "emm": 6794,
      "IX": 6795,
      "ãģ«ãĤĪ": 6796,
      "æĭħ": 6797,
      "lisa": 6798,
      "Ãĩ": 6799,
      "èµ¤": 6800,
      "ĠWIN": 6801,
      "à¸Ħà¸³": 6802,
      "ĠLIVE": 6803,
      "ĠGod": 6804,
      "ãĤĪãģĨãģª": 6805,
      "ãģ£ãģıãĤĬ": 6806,
      "à¸³à¸¥": 6807,
      "âĢ¦âĢ¦âĢ¦âĢ¦": 6808,
      "aG": 6809,
      "à¹īà¸£": 6810,
      "æłª": 6811,
      "âģīï¸ı": 6812,
      "63": 6813,
      "å¿ĺ": 6814,
      "Ġëĵľ": 6815,
      "æ°ı": 6816,
      "×ľ": 6817,
      "fect": 6818,
      "Ġ//": 6819,
      "xi": 6820,
      "ieve": 6821,
      "999": 6822,
      "BR": 6823,
      "âĸł": 6824,
      "uel": 6825,
      "vt": 6826,
      "Ġê¸": 6827,
      "Ġà¤ĺ": 6828,
      "ãģĵãģĿ": 6829,
      "ãģ¹ãĤĭ": 6830,
      "#R": 6831,
      "emon": 6832,
      "ÙĦÛĮ": 6833,
      "_groupd": 6834,
      "vest": 6835,
      "à¤¾à¤¬": 6836,
      "Ġlagi": 6837,
      "Ġfavor": 6838,
      "ipp": 6839,
      "ãĥ³ãĥģ": 6840,
      "mam": 6841,
      "Ä«Ä«l": 6842,
      "ãģ¨ãģ®": 6843,
      "à¹Ģà¸«à¸¥": 6844,
      "Ġpi": 6845,
      "Ä±ÄŁ": 6846,
      "Ø§ÛĮ": 6847,
      "198": 6848,
      "ĠĠĊĊ": 6849,
      "ãģĹãģ¦ãģıãģłãģķãģĦ": 6850,
      "ì¤Ģ": 6851,
      "bel": 6852,
      "Ġsol": 6853,
      "ãĥģãĤ§ãĥĥãĤ¯": 6854,
      "ãģĤãģĴ": 6855,
      "ãģĹãģ¾ãģ£ãģŁ": 6856,
      "Az": 6857,
      "ĠQue": 6858,
      "Mah": 6859,
      "@W": 6860,
      "Ku": 6861,
      "åĲįæ§ĺãģ«å½ĵãģŁãĤĭ": 6862,
      "ĠiÃ§in": 6863,
      "ãģ¦ãĤĭ": 6864,
      "à¸¢à¸¢à¸¢à¸¢": 6865,
      "isco": 6866,
      "âı°": 6867,
      "Ł¬ë¶Ħ": 6868,
      "áį": 6869,
      "ĠAM": 6870,
      "reaming": 6871,
      "ZY": 6872,
      "oman": 6873,
      "XO": 6874,
      "à¸ķà¸¥à¸Ńà¸Ķ": 6875,
      "å¤īãĤı": 6876,
      "ðŁĶĹ": 6877,
      "Ġsin": 6878,
      "ìĦł": 6879,
      "ĠPh": 6880,
      "Ro": 6881,
      "ë¦¼": 6882,
      "ben": 6883,
      "Ġsent": 6884,
      "ĠëĲĺ": 6885,
      "Ġeste": 6886,
      "bin": 6887,
      "à¹Ģà¸ī": 6888,
      "ãĥĭãĥ¥": 6889,
      "She": 6890,
      "ä¸Īå¤«": 6891,
      "å½¼": 6892,
      "ãģ®åŃĲ": 6893,
      "jd": 6894,
      "ëĭĪê¹Į": 6895,
      "ç®±": 6896,
      "ðŁĳĩðŁĳĩ": 6897,
      "Ġíģ": 6898,
      "åĪ¤": 6899,
      "Retweet": 6900,
      "æĭ¡æķ£": 6901,
      "à©": 6902,
      "ĠðŁĺŃðŁĺŃ": 6903,
      "ãĢĢãĢĢãĢĢãĢĢ": 6904,
      "ıĦ": 6905,
      "ðŁİĢ": 6906,
      "upport": 6907,
      "à¤¾à¤ķ": 6908,
      "Collab": 6909,
      "REE": 6910,
      "à¥ĩà¤Ĺ": 6911,
      "Ġthings": 6912,
      "Ä±mÄ±z": 6913,
      "Good": 6914,
      "à¤¾à¤ı": 6915,
      "æ§ĭ": 6916,
      "Ø§ÙĨØª": 6917,
      "à¹īà¸ĩ": 6918,
      "ðŁĺĤðŁĺĤðŁĺĤðŁĺĤ": 6919,
      "âĽ": 6920,
      "ĠAND": 6921,
      "ongratulations": 6922,
      "ÃŃas": 6923,
      "ê°Ļ": 6924,
      "éļĽ": 6925,
      "ako": 6926,
      "Oh": 6927,
      "Ø§Ø·": 6928,
      "_sh": 6929,
      "è¦ı": 6930,
      "ĠIVE": 6931,
      "æ²»": 6932,
      "à¹Ĩà¹Ĩà¹Ĩà¹Ĩ": 6933,
      "ĠðŁļĢ": 6934,
      "iler": 6935,
      "âĶĨ": 6936,
      "Ġvotes": 6937,
      "ðŁĺĥ": 6938,
      "kp": 6939,
      "éĢĥ": 6940,
      "elon": 6941,
      "oting": 6942,
      "ÙĬÙħ": 6943,
      "Ġprepar": 6944,
      "íĪ¬": 6945,
      "ãģĳãģªãģĦ": 6946,
      "inned": 6947,
      "âĢ¼ï¸ıĊĊ": 6948,
      "Con": 6949,
      "æĽľ": 6950,
      "ãģ§ãģĻãĤĪ": 6951,
      "ĠØ§ÙĦØµ": 6952,
      "ists": 6953,
      "è¨Ģãģ£ãģ¦": 6954,
      "esso": 6955,
      "atic": 6956,
      "ç¦ģ": 6957,
      "yun": 6958,
      "ãĥĺ": 6959,
      "ãģĽãĤĭ": 6960,
      "ãĥ¼ãĥĳ": 6961,
      "Ġako": 6962,
      "ðŁĴ°ðŁĴ°": 6963,
      "ê·¸ë": 6964,
      "ãģ¿ãģŁãģĦãģª": 6965,
      "ĠðĿĹ": 6966,
      "Ġ#âĢ¦": 6967,
      "åıĸãĤĬ": 6968,
      "äººãģ¯": 6969,
      "å¤§ä¸Īå¤«": 6970,
      "Ġti": 6971,
      "ãģķãĤīãģ«": 6972,
      "Rt": 6973,
      "ĠUp": 6974,
      "AmazonãĤ®ãĥķãĥĪåĪ¸": 6975,
      "à¸Ħà¸§à¸²à¸¡à¸ª": 6976,
      "Ġhac": 6977,
      "ĠÃ¼": 6978,
      "à¸ļà¸Ļ": 6979,
      "ãĤ¹ãĤ³": 6980,
      "CM": 6981,
      "Ġgen": 6982,
      "ãģĪãģĪãģĪãģĪ": 6983,
      "Ġfriend": 6984,
      "BG": 6985,
      "æĸŃ": 6986,
      "uff": 6987,
      "work": 6988,
      "ĠBE": 6989,
      "ìĬ¤íĥĢ": 6990,
      "SSGlobal": 6991,
      "è±ªèı¯": 6992,
      "åĪ°": 6993,
      "Ġà®ĩ": 6994,
      "gan": 6995,
      "TW": 6996,
      "íĿ": 6997,
      "ĠìĺĪ": 6998,
      "íĳľ": 6999,
      "à¸§à¸Ķ": 7000,
      "ðŁĺĪ": 7001,
      "ãĤ¿ãĤ¤": 7002,
      "Ġconf": 7003,
      "â¸Ŀ": 7004,
      "onight": 7005,
      "à¯ĭ": 7006,
      "Ġhor": 7007,
      "à¸´à¸Ī": 7008,
      "Ġbirthday": 7009,
      "zh": 7010,
      "»¤": 7011,
      "ãģłãģ¨": 7012,
      "à¸¹à¸ģà¸ªà¸¥": 7013,
      "mal": 7014,
      "Raj": 7015,
      "SSGlobalCollab": 7016,
      "Tw": 7017,
      "âĿĮ": 7018,
      "ãħ¤": 7019,
[...]
