{
  "version": "1.0",
  "truncation": null,
  "padding": null,
  "added_tokens": [
    {
      "id": 0,
      "content": "[UNK]",
      "single_word": false,
      "lstrip": false,
      "rstrip": false,
      "normalized": false,
      "special": true
    },
    {
      "id": 1,
      "content": "[CLS]",
      "single_word": false,
      "lstrip": false,
      "rstrip": false,
      "normalized": false,
      "special": true
    },
    {
      "id": 2,
      "content": "[SEP]",
      "single_word": false,
      "lstrip": false,
      "rstrip": false,
      "normalized": false,
      "special": true
    },
    {
      "id": 3,
      "content": "[PAD]",
      "single_word": false,
      "lstrip": false,
      "rstrip": false,
      "normalized": false,
      "special": true
    },
    {
      "id": 4,
      "content": "[MASK]",
      "single_word": false,
      "lstrip": false,
      "rstrip": false,
      "normalized": false,
      "special": true
    }
  ],
  "normalizer": null,
  "pre_tokenizer": {
    "type": "Sequence",
    "pretokenizers": [
      {
        "type": "Split",
        "pattern": {
          "Regex": "'s|'t|'re|'ve|'m|'ll|'d| ?\\p{L}+| ?\\p{N}+| ?[^\\s\\p{L}\\p{N}]+|\\s+(?!\\S)|\\s+"
        },
        "behavior": "MergedWithNext",
        "invert": false
      },
      {
        "type": "ByteLevel",
        "add_prefix_space": false,
        "trim_offsets": true,
        "use_regex": false
      }
    ]
  },
  "post_processor": null,
  "decoder": null,
  "model": {
    "type": "BPE",
    "dropout": null,
    "unk_token": "[UNK]",
    "continuing_subword_prefix": null,
    "end_of_word_suffix": null,
    "fuse_unk": false,
    "byte_fallback": false,
    "ignore_merges": false,
    "vocab": {
      "[UNK]": 0,
      "[CLS]": 1,
      "[SEP]": 2,
      "[PAD]": 3,
      "[MASK]": 4,
      "!": 5,
      "\"": 6,
      "#": 7,
      "$": 8,
      "%": 9,
      "&": 10,
      "'": 11,
      "(": 12,
      ")": 13,
      "*": 14,
      "+": 15,
      ",": 16,
      "-": 17,
      ".": 18,
      "/": 19,
      "0": 20,
      "1": 21,
      "2": 22,
      "3": 23,
      "4": 24,
      "5": 25,
      "6": 26,
      "7": 27,
      "8": 28,
      "9": 29,
      ":": 30,
      ";": 31,
      "<": 32,
      "=": 33,
      ">": 34,
      "?": 35,
      "@": 36,
      "A": 37,
      "B": 38,
      "C": 39,
      "D": 40,
      "E": 41,
      "F": 42,
      "G": 43,
      "H": 44,
      "I": 45,
      "J": 46,
      "K": 47,
      "L": 48,
      "M": 49,
      "N": 50,
      "O": 51,
      "P": 52,
      "Q": 53,
      "R": 54,
      "S": 55,
      "T": 56,
      "U": 57,
      "V": 58,
      "W": 59,
      "X": 60,
      "Y": 61,
      "Z": 62,
      "[": 63,
      "\\": 64,
      "]": 65,
      "^": 66,
      "_": 67,
      "`": 68,
      "a": 69,
      "b": 70,
      "c": 71,
      "d": 72,
      "e": 73,
      "f": 74,
      "g": 75,
      "h": 76,
      "i": 77,
      "j": 78,
      "k": 79,
      "l": 80,
      "m": 81,
      "n": 82,
      "o": 83,
      "p": 84,
      "q": 85,
      "r": 86,
      "s": 87,
      "t": 88,
      "u": 89,
      "v": 90,
      "w": 91,
      "x": 92,
      "y": 93,
      "z": 94,
      "{": 95,
      "|": 96,
      "}": 97,
      "~": 98,
      "¡": 99,
      "¢": 100,
      "£": 101,
      "¤": 102,
      "¥": 103,
      "¦": 104,
      "§": 105,
      "¨": 106,
      "©": 107,
      "ª": 108,
      "«": 109,
      "¬": 110,
      "®": 111,
      "¯": 112,
      "°": 113,
      "±": 114,
      "²": 115,
      "³": 116,
      "´": 117,
      "µ": 118,
      "¶": 119,
      "·": 120,
      "¸": 121,
      "¹": 122,
      "º": 123,
      "»": 124,
      "¼": 125,
      "½": 126,
      "¾": 127,
      "¿": 128,
      "Â": 129,
      "Ã": 130,
      "Ä": 131,
      "Å": 132,
      "Æ": 133,
      "Ç": 134,
      "È": 135,
      "É": 136,
      "Ê": 137,
      "Ë": 138,
      "Ì": 139,
      "Í": 140,
      "Î": 141,
      "Ï": 142,
      "Ð": 143,
      "Ñ": 144,
      "Ò": 145,
      "Ó": 146,
      "Ô": 147,
      "Õ": 148,
      "Ö": 149,
      "×": 150,
      "Ø": 151,
      "Ù": 152,
      "Ú": 153,
      "Û": 154,
      "Ü": 155,
      "Ý": 156,
      "Þ": 157,
      "ß": 158,
      "à": 159,
      "á": 160,
      "â": 161,
      "ã": 162,
      "ä": 163,
      "å": 164,
      "æ": 165,
      "ç": 166,
      "è": 167,
      "é": 168,
      "ê": 169,
      "ë": 170,
      "ì": 171,
      "í": 172,
      "î": 173,
      "ï": 174,
      "ð": 175,
      "ó": 176,
      "ô": 177,
      "Ċ": 178,
      "Ġ": 179,
      "Ģ": 180,
      "ģ": 181,
      "Ĥ": 182,
      "ĥ": 183,
      "Ħ": 184,
      "ħ": 185,
      "Ĩ": 186,
      "ĩ": 187,
      "Ī": 188,
      "ī": 189,
      "Ĭ": 190,
      "ĭ": 191,
      "Į": 192,
      "į": 193,
      "İ": 194,
      "ı": 195,
      "Ĳ": 196,
      "ĳ": 197,
      "Ĵ": 198,
      "ĵ": 199,
      "Ķ": 200,
      "ķ": 201,
      "ĸ": 202,
      "Ĺ": 203,
      "ĺ": 204,
      "Ļ": 205,
      "ļ": 206,
      "Ľ": 207,
      "ľ": 208,
      "Ŀ": 209,
      "ŀ": 210,
      "Ł": 211,
      "ł": 212,
      "Ń": 213,
      "Ġt": 214,
      "he": 215,
      "Ġa": 216,
      "in": 217,
      "er": 218,
      "Ġthe": 219,
      "on": 220,
      "re": 221,
      "Ġo": 222,
      "ed": 223,
      "nd": 224,
      "Ġw": 225,
      "Ġs": 226,
      "at": 227,
      "or": 228,
      "is": 229,
      "en": 230,
      "an": 231,
      "ar": 232,
      "it": 233,
      "al": 234,
      "Ġof": 235,
      "Ġin": 236,
      "es": 237,
      "Ġf": 238,
      "Ġc": 239,
      "Ġb": 240,
      "as": 241,
      "Ġp": 242,
      "Ġand": 243,
      "ing": 244,
      "ic": 245,
      "ro": 246,
      "ion": 247,
      "Ġto": 248,
      "Ġm": 249,
      "le": 250,
      "Ġd": 251,
      "ou": 252,
      "ĠS": 253,
      "Ġh": 254,
      "il": 255,
      "Ġ1": 256,
      "ĠC": 257,
      "ĠA": 258,
      "ent": 259,
      "ĠT": 260,
      "st": 261,
      "Ġre": 262,
      "am": 263,
      "om": 264,
      "el": 265,
      "ĠM": 266,
      "ol": 267,
      "ct": 268,
      "Ġwas": 269,
      "Ġl": 270,
      "Ġ2": 271,
      "ad": 272,
      "Ġe": 273,
      "Ġn": 274,
      "ĠB": 275,
      "Ġth": 276,
      "ur": 277,
      "et": 278,
      "ch": 279,
      "iv": 280,
      "Ġon": 281,
      "ĠP": 282,
      "ĠH": 283,
      "Ġfor": 284,
      "ation": 285,
      "ĠI": 286,
      "id": 287,
      "ly": 288,
      "ce": 289,
      "ir": 290,
      "Ġis": 291,
      "ig": 292,
      "im": 293,
      "ot": 294,
      "us": 295,
      "ter": 296,
      "Ġg": 297,
      "ĠR": 298,
      "Ġas": 299,
      "ut": 300,
      "ra": 301,
      "la": 302,
      "Ġ20": 303,
      "Ġ19": 304,
      "Ġ(": 305,
      "ith": 306,
      "ow": 307,
      "ĠThe": 308,
      "ĠD": 309,
      "Ġbe": 310,
      "ers": 311,
      "un": 312,
      "em": 313,
      "Ġhe": 314,
      "ĠF": 315,
      "ĠL": 316,
      "Ġst": 317,
      "Ġwith": 318,
      "ĠN": 319,
      "ĠG": 320,
      "ist": 321,
      "Ġby": 322,
      "ĠW": 323,
      "th": 324,
      "ul": 325,
      "ĠJ": 326,
      "Ġat": 327,
      "ver": 328,
      "'s": 329,
      "Ġal": 330,
      "Ġwh": 331,
      "rom": 332,
      "os": 333,
      "ĠE": 334,
      "ay": 335,
      "um": 336,
      "Ġan": 337,
      "Ġcon": 338,
      "ge": 339,
      "ri": 340,
      "her": 341,
      "Ġthat": 342,
      "est": 343,
      "Ġfrom": 344,
      "Ġde": 345,
      "oc": 346,
      "ber": 347,
      "op": 348,
      "Ġv": 349,
      "Ġse": 350,
      "ĠO": 351,
      "Ġcom": 352,
      "Ġpro": 353,
      "Ġ\"": 354,
      "ain": 355,
      "ity": 356,
      "pe": 357,
      "Ġit": 358,
      "res": 359,
      "art": 360,
      "and": 361,
      "od": 362,
      "ac": 363,
      "av": 364,
      "ate": 365,
      "up": 366,
      "ies": 367,
      "Ġhis": 368,
      "ud": 369,
      "ew": 370,
      "if": 371,
      "ĠU": 372,
      "ĠK": 373,
      "ia": 374,
      "ort": 375,
      "ian": 376,
      "all": 377,
      "Ġ201": 378,
      "ard": 379,
      "ab": 380,
      "ub": 381,
      "ich": 382,
      "ore": 383,
      "se": 384,
      "ld": 385,
      "âĢ": 386,
      "ated": 387,
      "igh": 388,
      "ill": 389,
      "ak": 390,
      "Ġor": 391,
      "The": 392,
      "ĠIn": 393,
      "qu": 394,
      "ess": 395,
      "ip": 396,
      "ag": 397,
      "ary": 398,
      "ere": 399,
      "ĠSt": 400,
      "ov": 401,
      "ant": 402,
      "Ġare": 403,
      "Ġr": 404,
      "ive": 405,
      "ment": 406,
      "Ġch": 407,
      "ap": 408,
      "ug": 409,
      "Ġex": 410,
      "Ġwere": 411,
      "oun": 412,
      "ial": 413,
      "ong": 414,
      "our": 415,
      "und": 416,
      "ear": 417,
      "ĠCh": 418,
      "ame": 419,
      "ast": 420,
      "Ġ200": 421,
      "ine": 422,
      "ell": 423,
      "ust": 424,
      "Ġle": 425,
      "ĠV": 426,
      "ction": 427,
      "Ġwhich": 428,
      "ĠHe": 429,
      "red": 430,
      "ost": 431,
      "ish": 432,
      "og": 433,
      "ord": 434,
      "te": 435,
      "00": 436,
      "so": 437,
      "Ġy": 438,
      "uc": 439,
      "ical": 440,
      "Ġsh": 441,
      "ork": 442,
      "ran": 443,
      "mer": 444,
      "Ġcomp": 445,
      "ts": 446,
      "Ġpla": 447,
      "âĢĵ": 448,
      "ep": 449,
      "ue": 450,
      "ther": 451,
      "cl": 452,
      "Ġhad": 453,
      "irst": 454,
      "ie": 455,
      "Ġalso": 456,
      "ff": 457,
      "Ġun": 458,
      "Ġ18": 459,
      "ition": 460,
      "Ġk": 461,
      "ure": 462,
      "ous": 463,
      "ok": 464,
      "Ġnot": 465,
      "Ġhas": 466,
      "Ġfirst": 467,
      "ry": 468,
      "ĠUn": 469,
      "ign": 470,
      "fter": 471,
      "ric": 472,
      "erv": 473,
      "iz": 474,
      "ight": 475,
      "Ġwhe": 476,
      "Ġte": 477,
      "ire": 478,
      "ave": 479,
      "ass": 480,
      "Ġar": 481,
      "),": 482,
      "Ġ3": 483,
      "rit": 484,
      "ond": 485,
      "port": 486,
      "ome": 487,
      "ide": 488,
      "ĠIt": 489,
      "per": 490,
      "hed": 491,
      "own": 492,
      "man": 493,
      "Ġcont": 494,
      "wo": 495,
      "Ġro": 496,
      "ater": 497,
      "ice": 498,
      "ren": 499,
      "Ġtheir": 500,
      "Ġpart": 501,
      "Ġus": 502,
      "age": 503,
      "Ġits": 504,
      "Ġad": 505,
      "In": 506,
      "Ġap": 507,
      "Ġwho": 508,
      "ational": 509,
      "cc": 510,
      "Ġher": 511,
      "ree": 512,
      "Ġcl": 513,
      "Ġres": 514,
      "ount": 515,
      "sh": 516,
      "ect": 517,
      "amp": 518,
      "ember": 519,
      "to": 520,
      ").": 521,
      "ence": 522,
      "ime": 523,
      "ang": 524,
      "land": 525,
      "Ġj": 526,
      "Ġbut": 527,
      "Ġplay": 528,
      "ach": 529,
      "low": 530,
      "ens": 531,
      "ib": 532,
      "clud": 533,
      "Ġyear": 534,
      "ĠTh": 535,
      "ĠY": 536,
      "ound": 537,
      "ru": 538,
      "ack": 539,
      "orn": 540,
      "ult": 541,
      "Ġone": 542,
      "ory": 543,
      "Ġab": 544,
      "ould": 545,
      "out": 546,
      "ugh": 547,
      "Ġag": 548,
      "over": 549,
      "ations": 550,
      "ey": 551,
      "Ġtwo": 552,
      "Ġ199": 553,
      "ally": 554,
      "ark": 555,
      "ubl": 556,
      "uring": 557,
      "Ġinclud": 558,
      "Ġbec": 559,
      "tern": 560,
      "Ġhave": 561,
      "wn": 562,
      "Ġper": 563,
      "Ġrec": 564,
      "ĠAl": 565,
      "oin": 566,
      "ted": 567,
      "Ġthis": 568,
      "ade": 569,
      "ile": 570,
      "ates": 571,
      "fer": 572,
      "ool": 573,
      "ild": 574,
      "ik": 575,
      "Ġman": 576,
      "Ġbeen": 577,
      "ec": 578,
      "Ġwork": 579,
      "for": 580,
      "old": 581,
      "ĠAr": 582,
      "ased": 583,
      "ied": 584,
      "Ġsc": 585,
      "ĠMar": 586,
      "ited": 587,
      "Ġafter": 588,
      "ces": 589,
      "Ġen": 590,
      "Ġother": 591,
      "Ġ4": 592,
      "ress": 593,
      "ev": 594,
      "ite": 595,
      "iss": 596,
      "ivers": 597,
      "aw": 598,
      "Ġcomm": 599,
      "urn": 600,
      "we": 601,
      "act": 602,
      "ely": 603,
      "gh": 604,
      "ĠNew": 605,
      "19": 606,
      "are": 607,
      "ents": 608,
      "les": 609,
      "ph": 610,
      "uch": 611,
      "Ġim": 612,
      "ck": 613,
      "Ġshe": 614,
      "Ġdes": 615,
      "pt": 616,
      "ail": 617,
      "Ġsp": 618,
      "Ġup": 619,
      "ced": 620,
      "Ġover": 621,
      "Ġdis": 622,
      "chool": 623,
      "ons": 624,
      "ind": 625,
      "oy": 626,
      "ors": 627,
      "Ġout": 628,
      "Ġspe": 629,
      "ath": 630,
      "eb": 631,
      "ward": 632,
      "Ġoff": 633,
      "gan": 634,
      "Ġra": 635,
      "Ġnew": 636,
      "Ġthey": 637,
      "ĠAn": 638,
      "Ġserv": 639,
      "vel": 640,
      "ob": 641,
      "Ġ5": 642,
      "ss": 643,
      "ĠCom": 644,
      "Ġund": 645,
      "ions": 646,
      "ican": 647,
      "inal": 648,
      "Ġ198": 649,
      "Ġloc": 650,
      "able": 651,
      "Ġinto": 652,
      "20": 653,
      "Ġev": 654,
      "cted": 655,
      "ance": 656,
      "ton": 657,
      "Ġpre": 658,
      "ings": 659,
      "io": 660,
      "Ġall": 661,
      "ĠLe": 662,
      "ough": 663,
      "Ġele": 664,
      "outh": 665,
      "ood": 666,
      "ase": 667,
      "Ġtime": 668,
      "pl": 669,
      "Ġtra": 670,
      "Ġcol": 671,
      "ilm": 672,
      "Ġgro": 673,
      "ason": 674,
      "Ġsec": 675,
      "Ġne": 676,
      "rough": 677,
      "ished": 678,
      "ft": 679,
      "Ġunder": 680,
      "one": 681,
      "rib": 682,
      "Ġcan": 683,
      "orld": 684,
      "ose": 685,
      "Ġkn": 686,
      "way": 687,
      ".\"": 688,
      "ĠDe": 689,
      "ĠAmer": 690,
      "Ġpl": 691,
      "Ġbu": 692,
      "Ġbet": 693,
      "Ġreg": 694,
      "ious": 695,
      "Ġ197": 696,
      "Ġhim": 697,
      "iversity": 698,
      "oth": 699,
      "ral": 700,
      "Ġ6": 701,
      "ily": 702,
      "ne": 703,
      "ollow": 704,
      "ĠEn": 705,
      "ook": 706,
      "Ġwould": 707,
      "du": 708,
      "ram": 709,
      "Ġteam": 710,
      "ick": 711,
      "ans": 712,
      "Ġpubl": 713,
      "Ġwhen": 714,
      "orth": 715,
      "oh": 716,
      "Ġagain": 717,
      "Ġret": 718,
      "pr": 719,
      "ake": 720,
      "Ġmore": 721,
      "ual": 722,
      "Ġwhere": 723,
      "ics": 724,
      "ween": 725,
      "Ġyears": 726,
      "ship": 727,
      "ince": 728,
      "rad": 729,
      "olog": 730,
      "Ġcons": 731,
      "end": 732,
      "ock": 733,
      "ron": 734,
      "Ġop": 735,
      "Ġduring": 736,
      "ident": 737,
      "form": 738,
      "Ġstud": 739,
      "ener": 740,
      "Ġind": 741,
      "Ġacc": 742,
      "che": 743,
      "Ġrep": 744,
      "ating": 745,
      "ĠSh": 746,
      "ision": 747,
      "rans": 748,
      "Ġsub": 749,
      "Ġsup": 750,
      "ah": 751,
      "Ġcent": 752,
      "Ġfound": 753,
      "\".": 754,
      "ix": 755,
      "Ġpol": 756,
      "Ġqu": 757,
      "Ġme": 758,
      "Ġpr": 759,
      "Ġfilm": 760,
      "Ġform": 761,
      "ative": 762,
      "Âł": 763,
      "ict": 764,
      "Ġear": 765,
      "Ġass": 766,
      "Ġonly": 767,
      "Ġrele": 768,
      "Ġ196": 769,
      "use": 770,
      "Ġbetween": 771,
      "ular": 772,
      "Ġact": 773,
      "Ġinter": 774,
      "ĠShe": 775,
      "ins": 776,
      "ered": 777,
      "ouse": 778,
      "Ġfam": 779,
      "Ġspec": 780,
      "Ġmost": 781,
      "duc": 782,
      "ĠUniversity": 783,
      "Ġthree": 784,
      "Ġatt": 785,
      "overn": 786,
      "iel": 787,
      "ober": 788,
      "any": 789,
      "ank": 790,
      "Ġapp": 791,
      "Ġfollow": 792,
      "Ġco": 793,
      "ĠInd": 794,
      "fore": 795,
      "Ġseason": 796,
      "Ġmade": 797,
      "Ġpe": 798,
      "oci": 799,
      "Ġthrough": 800,
      "ĠCol": 801,
      "Ġpres": 802,
      "az": 803,
      "Ġ7": 804,
      "Ġrem": 805,
      "als": 806,
      "Ġlater": 807,
      "aj": 808,
      "eat": 809,
      "cess": 810,
      "Ġthere": 811,
      "ived": 812,
      "Ġthen": 813,
      "Ã©": 814,
      "ities": 815,
      "ĠZ": 816,
      "ames": 817,
      "ann": 818,
      "ever": 819,
      "ace": 820,
      "oot": 821,
      "Ġsecond": 822,
      "Ġthem": 823,
      "\",": 824,
      "Ġrel": 825,
      "ĠAmerican": 826,
      "une": 827,
      "Ġsy": 828,
      "Ġmov": 829,
      "Ġend": 830,
      "Ġabout": 831,
      "Ġnum": 832,
      "ee": 833,
      "ier": 834,
      "reat": 835,
      "Ġused": 836,
      "Ġbecame": 837,
      "ĠUnited": 838,
      "inn": 839,
      "Ġ194": 840,
      "air": 841,
      "eg": 842,
      "ll": 843,
      "emb": 844,
      "Ġdist": 845,
      "ific": 846,
      "ĠPro": 847,
      "ten": 848,
      "Ġpop": 849,
      "Ġsuch": 850,
      "ĠThis": 851,
      "Ġ17": 852,
      "Ġ8": 853,
      "Ġso": 854,
      "Ġac": 855,
      "Ġknown": 856,
      "ept": 857,
      "ĠMay": 858,
      "Ġprov": 859,
      "arg": 860,
      "Ġinv": 861,
      "hen": 862,
      "Ġdef": 863,
      "son": 864,
      "ale": 865,
      "ury": 866,
      "Ġent": 867,
      "ĠCon": 868,
      "ĠJan": 869,
      "Ġed": 870,
      "Ġam": 871,
      "ĠOn": 872,
      "Ġinc": 873,
      "Ġdec": 874,
      "Ġthan": 875,
      "Ġsome": 876,
      "ject": 877,
      "Ġfour": 878,
      "ines": 879,
      "Ġbeing": 880,
      "round": 881,
      "ife": 882,
      "Ġschool": 883,
      "iew": 884,
      "ve": 885,
      "erm": 886,
      "Ġtrans": 887,
      "ley": 888,
      "Ġ202": 889,
      "ĠSc": 890,
      "ople": 891,
      "Ġ195": 892,
      "eries": 893,
      "til": 894,
      "Ġrecord": 895,
      "Ġpos": 896,
      "Ġ9": 897,
      "usic": 898,
      "ement": 899,
      "att": 900,
      "ash": 901,
      "Ġwell": 902,
      "pos": 903,
      "ball": 904,
      "Ġart": 905,
      "Ġ10": 906,
      "Ġincluding": 907,
      "iam": 908,
      "Ġcall": 909,
      "Ġmon": 910,
      "ield": 911,
      "Ġagainst": 912,
      "ina": 913,
      "Ġset": 914,
      "ars": 915,
      "bum": 916,
      "ctor": 917,
      "ional": 918,
      "Ġdire": 919,
      "ĠEng": 920,
      "ĠJu": 921,
      "uary": 922,
      "ĠâĢĵ": 923,
      "ters": 924,
      "rict": 925,
      "ohn": 926,
      "iver": 927,
      "Ġdo": 928,
      "Ġappe": 929,
      "Ġlead": 930,
      "Ġ15": 931,
      "arri": 932,
      "ern": 933,
      "cy": 934,
      "ists": 935,
      "Ġbefore": 936,
      "stit": 937,
      "other": 938,
      "Ġ16": 939,
      "tain": 940,
      "000": 941,
      "Ġwhile": 942,
      "ĠNov": 943,
      "Ġsing": 944,
      "led": 945,
      "its": 946,
      "enn": 947,
      "ague": 948,
      "ĠComm": 949,
      "ugust": 950,
      "Ġadd": 951,
      "urch": 952,
      "ired": 953,
      "Ġsign": 954,
      "very": 955,
      "Ġcre": 956,
      "Ġcount": 957,
      "ures": 958,
      "ism": 959,
      "owever": 960,
      "ĠAs": 961,
      "Ġph": 962,
      "ĠWorld": 963,
      "ty": 964,
      "ex": 965,
      "Ġrece": 966,
      "Ġuntil": 967,
      "Ġalbum": 968,
      "der": 969,
      "Ġest": 970,
      "ute": 971,
      "ĠMarch": 972,
      "eptember": 973,
      "Ġsur": 974,
      "ural": 975,
      "Ġmed": 976,
      "erman": 977,
      "overnment": 978,
      "ĠAt": 979,
      "ĠNational": 980,
      "Ġgroup": 981,
      "ike": 982,
      "Ġmany": 983,
      "ise": 984,
      "ather": 985,
      "ĠAugust": 986,
      "Ġfamily": 987,
      "ctober": 988,
      "Ġbro": 989,
      "uro": 990,
      "Ġplayed": 991,
      "velop": 992,
      "ĠQ": 993,
      "stem": 994,
      "Ġown": 995,
      "ĠJanuary": 996,
      "Ġboth": 997,
      "uss": 998,
      "Ġmain": 999,
      "ĠFran": 1000,
      "ĠJune": 1001,
      "ĠSeptember": 1002,
      "Ġwrit": 1003,
      "Ġ193": 1004,
      "Ġshow": 1005,
      "Ġdevelop": 1006,
      "ĠIs": 1007,
      "pril": 1008,
      "amed": 1009,
      "Ġfin": 1010,
      "imes": 1011,
      "ized": 1012,
      "Ġgo": 1013,
      "illa": 1014,
      "ower": 1015,
      "ting": 1016,
      "Ġno": 1017,
      "Ġhigh": 1018,
      "cial": 1019,
      "aid": 1020,
      "mber": 1021,
      "ĠJuly": 1022,
      "ĠStates": 1023,
      "ĠOctober": 1024,
      "Ġcap": 1025,
      "Ġoper": 1026,
      "Ġem": 1027,
      "Ġnumber": 1028,
      "Ġpeople": 1029,
      "Ġreleased": 1030,
      "ĠAust": 1031,
      "ĠJohn": 1032,
      "ĠApril": 1033,
      "Ġwon": 1034,
      "ĠFor": 1035,
      "elf": 1036,
      "cember": 1037,
      "Ġmod": 1038,
      "Ġsever": 1039,
      "ution": 1040,
      "tend": 1041,
      "ved": 1042,
      "ĠCl": 1043,
      "Ġorig": 1044,
      "Ġ12": 1045,
      "ister": 1046,
      "Ġmin": 1047,
      "Ġbuild": 1048,
      "Ġstart": 1049,
      "Ġmet": 1050,
      "Ġday": 1051,
      "ys": 1052,
      "arl": 1053,
      "ĠPh": 1054,
      "ĠNovember": 1055,
      "ctions": 1056,
      "ird": 1057,
      "Ġann": 1058,
      "Ġname": 1059,
      "Ġmat": 1060,
      "Ġhist": 1061,
      "ives": 1062,
      "ĠSp": 1063,
      "ĠDecember": 1064,
      "18": 1065,
      "ulation": 1066,
      "Ġsong": 1067,
      "Ġoffic": 1068,
      "On": 1069,
      "Ġexp": 1070,
      "Ġmay": 1071,
      "ĠWar": 1072,
      "Ġdif": 1073,
      "ĠYork": 1074,
      "ĠBrit": 1075,
      "Ġfl": 1076,
      "ke": 1077,
      "Ġarea": 1078,
      "ampion": 1079,
      "rid": 1080,
      "ract": 1081,
      "Ġseries": 1082,
      "ternational": 1083,
      "the": 1084,
      "Ġgener": 1085,
      "ai": 1086,
      "ĠCount": 1087,
      "Ġback": 1088,
      "eng": 1089,
      "rent": 1090,
      "Ġdesign": 1091,
      "Ġcomple": 1092,
      "Ġsm": 1093,
      "ĠAd": 1094,
      "ebru": 1095,
      "Ġchar": 1096,
      "ple": 1097,
      "ebruary": 1098,
      "ĠCan": 1099,
      "ually": 1100,
      "ĠSouth": 1101,
      "Ġ-": 1102,
      "Ġfollowing": 1103,
      "ĠSchool": 1104,
      "ull": 1105,
      "ĠGerman": 1106,
      "ission": 1107,
      "my": 1108,
      "gram": 1109,
      "Ġopen": 1110,
      "Ġlong": 1111,
      "Ġsame": 1112,
      "xt": 1113,
      "ven": 1114,
      "Ġreturn": 1115,
      "omen": 1116,
      "Ġcalled": 1117,
      "erson": 1118,
      "ues": 1119,
      "Ġvar": 1120,
      "fess": 1121,
      "Ġrun": 1122,
      "Ġfeat": 1123,
      "ful": 1124,
      "Ġob": 1125,
      "Ġseveral": 1126,
      "ax": 1127,
      "uth": 1128,
      "ior": 1129,
      "ĠFebruary": 1130,
      "ks": 1131,
      "con": 1132,
      "by": 1133,
      "Ġpublic": 1134,
      "ause": 1135,
      "Ġcontin": 1136,
      "rop": 1137,
      "Ġsuc": 1138,
      "iet": 1139,
      "ootball": 1140,
      "Ġsystem": 1141,
      "por": 1142,
      "Ġ11": 1143,
      "Ġearly": 1144,
      "ital": 1145,
      "Ġwill": 1146,
      "ajor": 1147,
      "au": 1148,
      "els": 1149,
      "Ġstate": 1150,
      "Ġcolle": 1151,
      "rand": 1152,
      "Ġ&": 1153,
      "aking": 1154,
      "ised": 1155,
      "Ġorgan": 1156,
      "com": 1157,
      "Ġ14": 1158,
      "raph": 1159,
      "icip": 1160,
      "Ġint": 1161,
      "Ġformer": 1162,
      "Ġmusic": 1163,
      "rist": 1164,
      "ĠWh": 1165,
      "arm": 1166,
      "ĠCent": 1167,
      "Ġbegan": 1168,
      "Ġcity": 1169,
      "Ġ13": 1170,
      "Ġprodu": 1171,
      "Ġ.": 1172,
      "abl": 1173,
      "ross": 1174,
      "ium": 1175,
      "ĠEuro": 1176,
      "Ġjoin": 1177,
      "ued": 1178,
      "ets": 1179,
      "Ġgame": 1180,
      "duced": 1181,
      "ilt": 1182,
      "ants": 1183,
      "ped": 1184,
      "Ġsince": 1185,
      "ology": 1186,
      "ured": 1187,
      "ided": 1188,
      "iving": 1189,
      "stru": 1190,
      "Ġthese": 1191,
      "ient": 1192,
      "Ġbel": 1193,
      "Ġchild": 1194,
      "Ġgovernment": 1195,
      "ible": 1196,
      "ica": 1197,
      "resent": 1198,
      "ared": 1199,
      "Ġnear": 1200,
      "Ġcompet": 1201,
      "ments": 1202,
      "Ġhead": 1203,
      "ĠThey": 1204,
      "vent": 1205,
      "Ġremain": 1206,
      "ĠAss": 1207,
      "arch": 1208,
      "Ġ2010": 1209,
      "Ġ'": 1210,
      "Ġheld": 1211,
      "ined": 1212,
      "ange": 1213,
      "Ġuse": 1214,
      "ris": 1215,
      "Ġprom": 1216,
      "ility": 1217,
      "Ġany": 1218,
      "ret": 1219,
      "oard": 1220,
      "Ġsupport": 1221,
      "Ġcur": 1222,
      "Ġclub": 1223,
      "Ġalong": 1224,
      "Ġdid": 1225,
      "ĠAfter": 1226,
      "ĠGe": 1227,
      "Ġtown": 1228,
      "Ġinf": 1229,
      "âĢĻ": 1230,
      "ae": 1231,
      "Ġcommun": 1232,
      "arn": 1233,
      "Ġland": 1234,
      "Ġplace": 1235,
      "ĠHis": 1236,
      "oman": 1237,
      "Ġeff": 1238,
      "ĠAustral": 1239,
      "Ġlocated": 1240,
      "Ġ192": 1241,
      "Ġ2011": 1242,
      "Ġbl": 1243,
      "ĠNorth": 1244,
      "Ġair": 1245,
      "ales": 1246,
      "ene": 1247,
      "ble": 1248,
      "Ġbook": 1249,
      "pend": 1250,
      "Ġmember": 1251,
      "Ġwe": 1252,
      "ically": 1253,
      "ĠOr": 1254,
      "Ġpass": 1255,
      "ampionship": 1256,
      "Ġtook": 1257,
      "Ġtit": 1258,
      "embers": 1259,
      "Ġcare": 1260,
      "Ġpoin": 1261,
      "Ġserved": 1262,
      "ox": 1263,
      "10": 1264,
      "tle": 1265,
      "Ġnamed": 1266,
      "ĠTe": 1267,
      "Ġocc": 1268,
      "ĠCounty": 1269,
      "Ġpolit": 1270,
      "min": 1271,
      "Ġrev": 1272,
      "Ġdesc": 1273,
      "ĠGu": 1274,
      "Ġdisc": 1275,
      "Ġlocal": 1276,
      "Ġdr": 1277,
      "Ġgu": 1278,
      "Ġeach": 1279,
      "Ġvilla": 1280,
      "ery": 1281,
      "mp": 1282,
      "ĠMan": 1283,
      "Ġ2012": 1284,
      "ĠEurope": 1285,
      "Ġfinal": 1286,
      "ĠCity": 1287,
      "Ġsmall": 1288,
      "lay": 1289,
      "Ġprogram": 1290,
      "ĠPol": 1291,
      "ĠBritish": 1292,
      "ring": 1293,
      "aving": 1294,
      "ove": 1295,
      "umb": 1296,
      "Ġpopulation": 1297,
      "Ġdiffer": 1298,
      "let": 1299,
      "ĠState": 1300,
      "Ġsim": 1301,
      "Ġhouse": 1302,
      "ĠAll": 1303,
      "wards": 1304,
      "chn": 1305,
      "Ġhome": 1306,
      "Ġreceived": 1307,
      "ices": 1308,
      "Ġ2014": 1309,
      "af": 1310,
      "ĠPr": 1311,
      "Ġcompany": 1312,
      "Ġestabl": 1313,
      "ĠRe": 1314,
      "Ġborn": 1315,
      "ival": 1316,
      "ĠRep": 1317,
      "Ġband": 1318,
      "yl": 1319,
      "Ġ2013": 1320,
      "Ġmajor": 1321,
      "ored": 1322,
      "illion": 1323,
      "ĠLeague": 1324,
      "..": 1325,
      "Ġcould": 1326,
      "ps": 1327,
      "Ġstation": 1328,
      "ator": 1329,
      "Ġevent": 1330,
      "Ġinst": 1331,
      "augh": 1332,
      "Ġdep": 1333,
      "He": 1334,
      "Ġmembers": 1335,
      "Ġins": 1336,
      "Ġsuccess": 1337,
      "ĠBro": 1338,
      "lack": 1339,
      "ience": 1340,
      "ilit": 1341,
      "ounc": 1342,
      "ĠEd": 1343,
      "Ġclass": 1344,
      "Ġnational": 1345,
      "Ġ2009": 1346,
      "med": 1347,
      "Ġ2008": 1348,
      "ink": 1349,
      "ung": 1350,
      "alif": 1351,
      "ĠUS": 1352,
      "ott": 1353,
      "Ġ2015": 1354,
      "Ġreport": 1355,
      "ĠMon": 1356,
      "Ġage": 1357,
      "ĠCar": 1358,
      "erg": 1359,
      "Ġ$": 1360,
      "arge": 1361,
      "ĠAf": 1362,
      "Ġaround": 1363,
      "Ġ2016": 1364,
      "Ġstr": 1365,
      "Ġdue": 1366,
      "Ġspecies": 1367,
      "ĠMin": 1368,
      "born": 1369,
      "ĠII": 1370,
      "ĠColle": 1371,
      "ats": 1372,
      "ony": 1373,
      "oss": 1374,
      "inc": 1375,
      "Ġworld": 1376,
      "ording": 1377,
      "Ġtr": 1378,
      "Ġbas": 1379,
      "ivision": 1380,
      "Ġleft": 1381,
      "co": 1382,
      "ĠWill": 1383,
      "Ġprofess": 1384,
      "reen": 1385,
      "ane": 1386,
      "ĠBe": 1387,
      "ĠâĢ": 1388,
      "ians": 1389,
      "ĠCanad": 1390,
      "Ġref": 1391,
      "Ġline": 1392,
      "Ġbuilt": 1393,
      "ling": 1394,
      "ately": 1395,
      "Ġlist": 1396,
      "ages": 1397,
      "Ġpublished": 1398,
      "ourn": 1399,
      "ĠAm": 1400,
      "Ġsingle": 1401,
      "Ġold": 1402,
      "ĠHowever": 1403,
      "Ġ25": 1404,
      "Ġlast": 1405,
      "iness": 1406,
      "Ġext": 1407,
      "Ġeng": 1408,
      "Ġterm": 1409,
      "200": 1410,
      "Ġdown": 1411,
      "pro": 1412,
      "Ġdeb": 1413,
      "Ġbus": 1414,
      "ham": 1415,
      "itions": 1416,
      "Ġhel": 1417,
      "ograph": 1418,
      "Ġsix": 1419,
      "ourt": 1420,
      "ert": 1421,
      "orm": 1422,
      "ĠCo": 1423,
      "yn": 1424,
      "Ġbased": 1425,
      "cept": 1426,
      "alth": 1427,
      "Ġsaid": 1428,
      "ently": 1429,
      "arried": 1430,
      "pect": 1431,
      "ner": 1432,
      "hes": 1433,
      "Ġlaw": 1434,
      "Ġ2018": 1435,
      "Ġ2007": 1436,
      "ille": 1437,
      "oung": 1438,
      "rew": 1439,
      "me": 1440,
      "Ġdet": 1441,
      "Ġ2017": 1442,
      "ĠKing": 1443,
      "ety": 1444,
      "apan": 1445,
      "ĠWest": 1446,
      "Ġrepresent": 1447,
      "Ġnow": 1448,
      "ches": 1449,
      "Ġdied": 1450,
      "ality": 1451,
      "Ġtop": 1452,
      "iod": 1453,
      "Ġ30": 1454,
      "Ġfive": 1455,
      "atic": 1456,
      "Ã¡": 1457,
      "Ġappro": 1458,
      "Ġcharact": 1459,
      "Ġ2019": 1460,
      "ights": 1461,
      "Ġfootball": 1462,
      "Ġdescrib": 1463,
      "Ġrest": 1464,
      "que": 1465,
      "Ġcamp": 1466,
      "Ġ2020": 1467,
      "Ġ,": 1468,
      "ĠHer": 1469,
      "Ġwithin": 1470,
      "Ġnorth": 1471,
      ".,": 1472,
      "row": 1473,
      "Ġadv": 1474,
      "urg": 1475,
      "ien": 1476,
      "ondon": 1477,
      "Ġmark": 1478,
      "Ġcentury": 1479,
      "Ġcar": 1480,
      "aster": 1481,
      "Ġdeath": 1482,
      "ster": 1483,
      "Ġbuilding": 1484,
      "Ġincluded": 1485,
      "Ġconc": 1486,
      "ford": 1487,
      "rench": 1488,
      "ĠReg": 1489,
      "though": 1490,
      "ze": 1491,
      "bor": 1492,
      "day": 1493,
      "Ġinclude": 1494,
      "Ġ190": 1495,
      "ĠHar": 1496,
      "ĠChrist": 1497,
      "ouncil": 1498,
      "ides": 1499,
      "ese": 1500,
      "ature": 1501,
      "Ġthird": 1502,
      "Ġ191": 1503,
      "Ġpresent": 1504,
      "Ġty": 1505,
      "ially": 1506,
      "Ġbecause": 1507,
      "omin": 1508,
      "Ġconsid": 1509,
      "Th": 1510,
      "Ġ2006": 1511,
      "Ġtri": 1512,
      "tal": 1513,
      "Ġrequ": 1514,
      "Ġconf": 1515,
      "eder": 1516,
      "ively": 1517,
      "Ġlarge": 1518,
      "Ġpost": 1519,
      "Ġresult": 1520,
      "estern": 1521,
      "lev": 1522,
      "ration": 1523,
      "amb": 1524,
      "ĠSw": 1525,
      "ĠBar": 1526,
      "Ġcontro": 1527,
      "ĠJapan": 1528,
      "Ġfac": 1529,
      "ĠGeor": 1530,
      "Ġvers": 1531,
      "ief": 1532,
      "uff": 1533,
      "ĠEx": 1534,
      "ĠEl": 1535,
      "Ġvillage": 1536,
      "ĠPar": 1537,
      "Ġannoun": 1538,
      "ĠDist": 1539,
      "eth": 1540,
      "uck": 1541,
      "ĠMc": 1542,
      "ization": 1543,
      "used": 1544,
      "Ġ24": 1545,
      "ode": 1546,
      "ĠPart": 1547,
      "iven": 1548,
      "lish": 1549,
      "riev": 1550,
      "Ġmanag": 1551,
      "uthor": 1552,
      "Ġleg": 1553,
      "uk": 1554,
      "Ġallow": 1555,
      "vious": 1556,
      "reet": 1557,
      "Ġlarg": 1558,
      "Ġsouth": 1559,
      "ĠSe": 1560,
      "ald": 1561,
      "ĠLondon": 1562,
      "ĠAnd": 1563,
      "laim": 1564,
      "Ġlife": 1565,
      "Ġdra": 1566,
      "ĠX": 1567,
      "Ġmoved": 1568,
      "ocial": 1569,
      "Ġshort": 1570,
      "Ġvis": 1571,
      "Ġla": 1572,
      "Ġdem": 1573,
      "Ġpar": 1574,
      "eter": 1575,
      "Ġincre": 1576,
      "tended": 1577,
      "Ġpo": 1578,
      "ĠFrench": 1579,
      "ĠAb": 1580,
      "Ġjust": 1581,
      "ether": 1582,
      "ĠRuss": 1583,
      "Ġav": 1584,
      "ĠThere": 1585,
      "side": 1586,
      "Ġchildren": 1587,
      "ĠAfric": 1588,
      "Ġperson": 1589,
      "ata": 1590,
      "ĠCollege": 1591,
      "inning": 1592,
      "Ġled": 1593,
      "Ġcrit": 1594,
      "ays": 1595,
      "Ġperiod": 1596,
      "Ġcareer": 1597,
      "lor": 1598,
      "angu": 1599,
      "ĠBl": 1600,
      "Ġdifferent": 1601,
      "ize": 1602,
      "ified": 1603,
      "Ġ189": 1604,
      "Ġson": 1605,
      "Ġwomen": 1606,
      "ĠHigh": 1607,
      "artment": 1608,
      "Ġ21": 1609,
      "ged": 1610,
      "oad": 1611,
      "ering": 1612,
      "Ġaddition": 1613,
      "Ġlit": 1614,
      "Ġthose": 1615,
      "work": 1616,
      "Ġiss": 1617,
      "Ġcor": 1618,
      "Ġ2021": 1619,
      "rieved": 1620,
      "Ġstill": 1621,
      "Ġlike": 1622,
      "Ġperform": 1623,
      "ĠEnglish": 1624,
      "ining": 1625,
      "ĠÐ": 1626,
      "ĠPark": 1627,
      "Ġstand": 1628,
      "tt": 1629,
      "Ġresp": 1630,
      "Ġep": 1631,
      "Ġmen": 1632,
      "ana": 1633,
      "adem": 1634,
      "Ġcurrent": 1635,
      "idd": 1636,
      "Ġappear": 1637,
      "Ġanother": 1638,
      "hip": 1639,
      "ĠSy": 1640,
      "sc": 1641,
      "akes": 1642,
      "Ġwar": 1643,
      "Ġwater": 1644,
      "ĠRet": 1645,
      "ĠMed": 1646,
      "Ġtrad": 1647,
      "ĠComp": 1648,
      "urs": 1649,
      "Ġwin": 1650,
      "ison": 1651,
      "ington": 1652,
      "ency": 1653,
      "Ġannounced": 1654,
      "Ġrefer": 1655,
      "alf": 1656,
      "ves": 1657,
      "ĠChampionship": 1658,
      "ĠWilliam": 1659,
      "Ġexper": 1660,
      "Ġ22": 1661,
      "ĠAir": 1662,
      "Ġif": 1663,
      "ino": 1664,
      "ards": 1665,
      "ĠSec": 1666,
      "Ġside": 1667,
      "riend": 1668,
      "Ġmonth": 1669,
      "Ġeduc": 1670,
      "aul": 1671,
      "Ġconstru": 1672,
      "Ġbest": 1673,
      "anc": 1674,
      "Ġpower": 1675,
      "Ġfather": 1676,
      "Ġwee": 1677,
      "ote": 1678,
      "par": 1679,
      "ody": 1680,
      "Ġvery": 1681,
      "ument": 1682,
      "ĠHist": 1683,
      "Ġcountry": 1684,
      "Ġproject": 1685,
      "lu": 1686,
      "Ġamong": 1687,
      "Ġequ": 1688,
      "Ġ23": 1689,
      "ĠPres": 1690,
      "ĠDistrict": 1691,
      "ched": 1692,
      "uted": 1693,
      "Ġservice": 1694,
      "Ġhand": 1695,
      "12": 1696,
      "ridge": 1697,
      "ilitary": 1698,
      "Ġoriginal": 1699,
      "Ġmake": 1700,
      "Ġdel": 1701,
      "ges": 1702,
      "Ġport": 1703,
      "Ġgames": 1704,
      "osp": 1705,
      "ublic": 1706,
      "alk": 1707,
      "Ġhistory": 1708,
      "ĠCor": 1709,
      "Ġnon": 1710,
      "ĠRes": 1711,
      "Ġprevious": 1712,
      "ries": 1713,
      "read": 1714,
      "vers": 1715,
      "ĠInternational": 1716,
      "ociation": 1717,
      "Ġlevel": 1718,
      "sk": 1719,
      "Ġel": 1720,
      "Ġlate": 1721,
      "Ġstarted": 1722,
      "Ġpat": 1723,
      "17": 1724,
      "Ġsold": 1725,
      "Ġthough": 1726,
      "Ġdistrict": 1727,
      "ele": 1728,
      "ugg": 1729,
      "line": 1730,
      "ler": 1731,
      "Ġtitle": 1732,
      "ĠRiver": 1733,
      "Ġoften": 1734,
      "ĠItal": 1735,
      "ĠHouse": 1736,
      "ament": 1737,
      "ĠAcc": 1738,
      "Ġimport": 1739,
      "uman": 1740,
      "Ġrole": 1741,
      "Ġappoin": 1742,
      "Ġaward": 1743,
      "ĠAng": 1744,
      "Ġgrad": 1745,
      "ones": 1746,
      "ĠCup": 1747,
      "Ġestablished": 1748,
      "ociety": 1749,
      "15": 1750,
      "Ġcame": 1751,
      "ĠDep": 1752,
      "of": 1753,
      "rote": 1754,
      "conom": 1755,
      "ara": 1756,
      "Ġ188": 1757,
      "Ġwent": 1758,
      "Ġ2022": 1759,
      "Ġeven": 1760,
      "ray": 1761,
      "Ġattack": 1762,
      "Ġorder": 1763,
      "na": 1764,
      "reg": 1765,
      "epend": 1766,
      "rick": 1767,
      "lin": 1768,
      "Ġbeg": 1769,
      "yle": 1770,
      "sp": 1771,
      "ĠSup": 1772,
      "Ġjoined": 1773,
      "ĠDav": 1774,
      "Ġmillion": 1775,
      "Ġfe": 1776,
      "rest": 1777,
      "Ġworked": 1778,
      "ĠPhil": 1779,
      "Ġ\\": 1780,
      "ĠLa": 1781,
      "ummer": 1782,
      "Ġrepla": 1783,
      "isc": 1784,
      "Ġposs": 1785,
      "ploy": 1786,
      "Ã³": 1787,
      "Ġaff": 1788,
      "Ġfore": 1789,
      "Ġinit": 1790,
      "Ġbusiness": 1791,
      "Ġrese": 1792,
      "Ġstat": 1793,
      "Ġkill": 1794,
      "eneral": 1795,
      "Ġ2005": 1796,
      "ĠSan": 1797,
      "Ġship": 1798,
      "Ġ28": 1799,
      "Ġinvol": 1800,
      "ĠNo": 1801,
      "Ġ26": 1802,
      "Ġturn": 1803,
      "Ġround": 1804,
      "hem": 1805,
      "ness": 1806,
      "Ġgen": 1807,
      "Ġauthor": 1808,
      "Ġarch": 1809,
      "Ġes": 1810,
      "ilar": 1811,
      "Ġtotal": 1812,
      "ĠTr": 1813,
      "Ġcr": 1814,
      "ĠBr": 1815,
      "ense": 1816,
      "oph": 1817,
      "ĠRetrieved": 1818,
      "Ġfield": 1819,
      "Ġhistor": 1820,
      "Ġevery": 1821,
      "ta": 1822,
      "urther": 1823,
      "Ġsk": 1824,
      "ases": 1825,
      "Ġwhat": 1826,
      "Ġclos": 1827,
      "Ġ27": 1828,
      "Ġtrack": 1829,
      "ti": 1830,
      "ĠEngland": 1831,
      "Ġyoung": 1832,
      "Ġelection": 1833,
      "Ġ0": 1834,
      "Ġcontain": 1835,
      "Ġdescribed": 1836,
      "ĠArt": 1837,
      "ruct": 1838,
      "Ġvol": 1839,
      "Ġmuch": 1840,
      "Ġcharacter": 1841,
      "16": 1842,
      "Ġorigin": 1843,
      "Ġval": 1844,
      "levision": 1845,
      "Ġeffect": 1846,
      "Ġsol": 1847,
      "mit": 1848,
      "Ġactiv": 1849,
      "Ġchang": 1850,
      "Ġrad": 1851,
      "ĠIndian": 1852,
      "Ġvarious": 1853,
      "Ġmarried": 1854,
      "iber": 1855,
      "Ġreturned": 1856,
      "Ġfact": 1857,
      "off": 1858,
      "ĠEast": 1859,
      "ached": 1860,
      "hern": 1861,
      "Ġnext": 1862,
      "Ġtechn": 1863,
      "ords": 1864,
      "ĠMe": 1865,
      "Ġ2000": 1866,
      "forman": 1867,
      "Ġhaving": 1868,
      "Ġbecome": 1869,
      "posed": 1870,
      "ms": 1871,
      "Ġclaim": 1872,
      "Ġmag": 1873,
      "aff": 1874,
      "Ġpain": 1875,
      "Ġgeneral": 1876,
      "Ġcover": 1877,
      "Ġcult": 1878,
      "Ġcommon": 1879,
      "omet": 1880,
      "50": 1881,
      "Ġwrote": 1882,
      "Ġ2004": 1883,
      "Ġsit": 1884,
      "app": 1885,
      "Ġfre": 1886,
      "cent": 1887,
      "ours": 1888,
      "Ġgiven": 1889,
      "omb": 1890,
      "Ġtw": 1891,
      "Ġcommunity": 1892,
      "oon": 1893,
      "ÃŃ": 1894,
      "ront": 1895,
      "Ġprocess": 1896,
      "St": 1897,
      "cast": 1898,
      "useum": 1899,
      "minist": 1900,
      "avy": 1901,
      "Ġposition": 1902,
      "attle": 1903,
      "Ġfew": 1904,
      "ĠBy": 1905,
      "raft": 1906,
      "ournal": 1907,
      "field": 1908,
      "lands": 1909,
      "âĢĶ": 1910,
      "astern": 1911,
      "Ġ186": 1912,
      "oyal": 1913,
      "Ġdevelopment": 1914,
      "Ġproduced": 1915,
      "Ġprote": 1916,
      "Ġfem": 1917,
      "Ġsent": 1918,
      "Ġplayer": 1919,
      "ivil": 1920,
      "ĠRec": 1921,
      "Ġusing": 1922,
      "Ġinternational": 1923,
      "Ġca": 1924,
      "Ch": 1925,
      "irc": 1926,
      "ole": 1927,
      "Ġcreated": 1928,
      "ĠChurch": 1929,
      "ories": 1930,
      "ivid": 1931,
      "ĠGro": 1932,
      "orthern": 1933,
      "ush": 1934,
      "self": 1935,
      "ĠDuring": 1936,
      "Ġspecial": 1937,
      "Ġtem": 1938,
      "Ġmatch": 1939,
      "Ġbeh": 1940,
      "Ġbre": 1941,
      "cer": 1942,
      "ĠCouncil": 1943,
      "Ð°": 1944,
      "Ġtake": 1945,
      "Ġpp": 1946,
      "stitute": 1947,
      "Ġren": 1948,
      "Ġpolitical": 1949,
      "ĠGl": 1950,
      "Ġsite": 1951,
      "sequ": 1952,
      "outher": 1953,
      "Ã¼": 1954,
      "ĠSch": 1955,
      "Ġprim": 1956,
      "ask": 1957,
      "ĠPl": 1958,
      "itor": 1959,
      "urb": 1960,
      "13": 1961,
      "Ġ29": 1962,
      "ĠEuropean": 1963,
      "ention": 1964,
      "ots": 1965,
      "ĠAc": 1966,
      "Ġgr": 1967,
      "ead": 1968,
      "Ġlangu": 1969,
      "ested": 1970,
      "Ġcompos": 1971,
      "Ġway": 1972,
      "outhern": 1973,
      "14": 1974,
      "ĠArmy": 1975,
      "ander": 1976,
      "Ġcontinued": 1977,
      "hold": 1978,
      "ĠAustralia": 1979,
      "ops": 1980,
      "Ġelect": 1981,
      "Ġ187": 1982,
      "Ġhost": 1983,
      "After": 1984,
      "unicip": 1985,
      "ape": 1986,
      "aken": 1987,
      "ĠIndia": 1988,
      "ĠPe": 1989,
      "Ġparticip": 1990,
      "iron": 1991,
      "ĠParty": 1992,
      "Ġpresident": 1993,
      "Ġchurch": 1994,
      "int": 1995,
      "Ġhig": 1996,
      "ĠMich": 1997,
      "Ġfun": 1998,
      "Ġ100": 1999,
      "ĠPort": 2000,
      "itte": 2001,
      "Ġofficial": 2002,
      "Ġwritten": 2003,
      "Ġrail": 2004,
      "formation": 2005,
      "Ġstudents": 2006,
      "ĠStreet": 2007,
      "ning": 2008,
      "Ġhowever": 2009,
      "Ð¾": 2010,
      "Ġproduction": 2011,
      "Ġperforman": 2012,
      "ef": 2013,
      "iment": 2014,
      "Ġsl": 2015,
      "ico": 2016,
      "ĠPer": 2017,
      "Ġaccess": 2018,
      "ances": 2019,
      "ests": 2020,
      "ogn": 2021,
      "Ġdebut": 2022,
      "Ġtimes": 2023,
      "ĠAg": 2024,
      "oll": 2025,
      "Ġpri": 2026,
      "aliforn": 2027,
      "199": 2028,
      "Ġgreat": 2029,
      "Ġneed": 2030,
      "ĠRev": 2031,
      "lect": 2032,
      "ĠFrance": 2033,
      "uel": 2034,
      "Ġsw": 2035,
      "ference": 2036,
      "ishing": 2037,
      "Ġpartic": 2038,
      "Ġworks": 2039,
      "Ġexamp": 2040,
      "ellow": 2041,
      "ological": 2042,
      "Ġregion": 2043,
      "ama": 2044,
      "Ġpopular": 2045,
      "Ġintro": 2046,
      "As": 2047,
      "ĠDivision": 2048,
      "ĠMal": 2049,
      "alifornia": 2050,
      "Ġdirect": 2051,
      "Ġsee": 2052,
      "Ġpract": 2053,
      "Ġsimilar": 2054,
      "Ġappointed": 2055,
      "year": 2056,
      "ĠOne": 2057,
      "BC": 2058,
      "ĠPresident": 2059,
      "Ġroad": 2060,
      "hib": 2061,
      "Ġlab": 2062,
      "Ġfull": 2063,
      "Ġwithout": 2064,
      "Ġlost": 2065,
      "Ġmilitary": 2066,
      "âĢĿ": 2067,
      "rem": 2068,
      "ha": 2069,
      "Ġsigned": 2070,
      "atter": 2071,
      "Ġaver": 2072,
      "ĠBel": 2073,
      "ney": 2074,
      "Ġelected": 2075,
      "Ġprofessional": 2076,
      ",\"": 2077,
      "oted": 2078,
      "ĠAmerica": 2079,
      "ĠThese": 2080,
      "Ġbrother": 2081,
      "Ġparty": 2082,
      "rated": 2083,
      "ountain": 2084,
      "utes": 2085,
      "olution": 2086,
      "ividual": 2087,
      "ideo": 2088,
      "Ġopened": 2089,
      "ius": 2090,
      "Ġ2003": 2091,
      "ĠRoman": 2092,
      "ports": 2093,
      "Ġdays": 2094,
      "11": 2095,
      "ĠCalifornia": 2096,
      "Ġconsidered": 2097,
      "ĠEm": 2098,
      "ĠGeneral": 2099,
      "ĠAssociation": 2100,
      "ination": 2101,
      "right": 2102,
      "Ġresearch": 2103,
      "oor": 2104,
      "Ġattem": 2105,
      "less": 2106,
      "Ġright": 2107,
      "Ġident": 2108,
      "ĠAct": 2109,
      "ĠAp": 2110,
      "Ġfounded": 2111,
      "etwork": 2112,
      "Ġter": 2113,
      "Ġepis": 2114,
      "'t": 2115,
      "ĠSm": 2116,
      "Ġfriend": 2117,
      "Ġsocial": 2118,
      "Ġcomb": 2119,
      "An": 2120,
      "Ġhalf": 2121,
      "ij": 2122,
      "ream": 2123,
      "lex": 2124,
      "Ġdaugh": 2125,
      "alt": 2126,
      "Ġinvest": 2127,
      "Ġfurther": 2128,
      "Ġlim": 2129,
      "Ġdisp": 2130,
      "Ġmult": 2131,
      "Ġindust": 2132,
      "ĠChar": 2133,
      "It": 2134,
      "era": 2135,
      "Ġbroad": 2136,
      "ĠWhen": 2137,
      "ensus": 2138,
      "ĠQue": 2139,
      "Ġengine": 2140,
      "Ġversion": 2141,
      "Ġview": 2142,
      "Ġtelevision": 2143,
      "ma": 2144,
      "lymp": 2145,
      "Ġdeg": 2146,
      "ying": 2147,
      "Ġrecorded": 2148,
      "ĠHol": 2149,
      "ĠBra": 2150,
      "ĠQu": 2151,
      "ising": 2152,
      "Ġgradu": 2153,
      "ĠCanada": 2154,
      "ĠPal": 2155,
      "ont": 2156,
      "Ġreview": 2157,
      "Ġsqu": 2158,
      "Ġ2002": 2159,
      "Ġtog": 2160,
      "aign": 2161,
      "Ġdirector": 2162,
      "ĠNor": 2163,
      "rap": 2164,
      "icle": 2165,
      "ript": 2166,
      "Ġcontrol": 2167,
      "Ġtogether": 2168,
      "Ġappeared": 2169,
      "Ġproper": 2170,
      "Ġfind": 2171,
      "Ġimp": 2172,
      "Ġinflu": 2173,
      "ĠVal": 2174,
      "ership": 2175,
      "aper": 2176,
      "Ġeconom": 2177,
      "Ġstory": 2178,
      "Ã¶": 2179,
      "ĠOlymp": 2180,
      "Ġpriv": 2181,
      "Ġ1990": 2182,
      "Ġteams": 2183,
      "ĠUnion": 2184,
      "Ġindividual": 2185,
      "ĠMor": 2186,
      "ĠThom": 2187,
      "Ġreal": 2188,
      "Ġsurv": 2189,
      "ipp": 2190,
      "ittee": 2191,
      "iol": 2192,
      "Ġimportant": 2193,
      "ĠJames": 2194,
      "reek": 2195,
      "pecial": 2196,
      "Ġwife": 2197,
      "Ġreported": 2198,
      "Ġhold": 2199,
      "Ġmid": 2200,
      "anish": 2201,
      "ĠGeorge": 2202,
      "ĠDem": 2203,
      "ateg": 2204,
      "Ġhon": 2205,
      "Ġformed": 2206,
      "Ġ2001": 2207,
      "ville": 2208,
      "lear": 2209,
      "ĠOff": 2210,
      "Ġvict": 2211,
      "30": 2212,
      "oe": 2213,
      "Ġstruct": 2214,
      "Ġworking": 2215,
      "Ġcoach": 2216,
      "Ġmeet": 2217,
      "uit": 2218,
      "Ġpoints": 2219,
      "ĠRober": 2220,
      "Ġpoint": 2221,
      "be": 2222,
      "Ġgrow": 2223,
      "ww": 2224,
      "idence": 2225,
      "ope": 2226,
      "ĠâĢľ": 2227,
      "ĠRoyal": 2228,
      "ael": 2229,
      "ĠSen": 2230,
      "Ð¸": 2231,
      "iles": 2232,
      "ibr": 2233,
      "de": 2234,
      "dom": 2235,
      "Ġeast": 2236,
      "arliam": 2237,
      "ĠDes": 2238,
      "Ġareas": 2239,
      "Ġparticular": 2240,
      "Ġmaking": 2241,
      "Ġhelp": 2242,
      "Ġrelease": 2243,
      "ocr": 2244,
      "Ġcer": 2245,
      "irl": 2246,
      "Ġoffer": 2247,
      "Ġless": 2248,
      "Ðµ": 2249,
      "Ġten": 2250,
      "arliament": 2251,
      "ĠAustralian": 2252,
      "Ġweek": 2253,
      "ained": 2254,
      "ĠTra": 2255,
      "imately": 2256,
      "Ġoffice": 2257,
      "Ġcond": 2258,
      "nect": 2259,
      "ĠAward": 2260,
      "Ġrace": 2261,
      "atch": 2262,
      "ells": 2263,
      "Ġnov": 2264,
      "ĠWith": 2265,
      "Ġtradition": 2266,
      "Ġarr": 2267,
      "ably": 2268,
      "Ġcase": 2269,
      "ule": 2270,
      "Ġlow": 2271,
      "ya": 2272,
      "Ġfund": 2273,
      "Ġdest": 2274,
      "Ġgl": 2275,
      "ither": 2276,
      "Ġgood": 2277,
      "ences": 2278,
      "Ġdiv": 2279,
      "Ġwest": 2280,
      "itect": 2281,
      "Ġfail": 2282,
      "Ġdeveloped": 2283,
      "ĠHall": 2284,
      "iddle": 2285,
      "wh": 2286,
      "Ġavail": 2287,
      "ĠRich": 2288,
      "Ġstar": 2289,
      "ĠCourt": 2290,
      "ills": 2291,
      "Al": 2292,
      "olic": 2293,
      "ger": 2294,
      "ĠLou": 2295,
      "now": 2296,
      "pite": 2297,
      "go": 2298,
      "Ġ[": 2299,
      "uf": 2300,
      "ĠBer": 2301,
      "Ġshould": 2302,
      "Ġ()": 2303,
      "Ġread": 2304,
      "isted": 2305,
      "ĠStud": 2306,
      "cing": 2307,
      "itive": 2308,
      "Ġrank": 2309,
      "Ġhous": 2310,
      "aren": 2311,
      "ĠCompany": 2312,
      "plic": 2313,
      "Ġemploy": 2314,
      "CA": 2315,
      "Ġacross": 2316,
      "most": 2317,
      "Ġground": 2318,
      "iting": 2319,
      "hel": 2320,
      "van": 2321,
      "wood": 2322,
      "Ġaverage": 2323,
      "Ġaut": 2324,
      "hers": 2325,
      "Ġmother": 2326,
      "Ġplaying": 2327,
      "ĠSociety": 2328,
      "Ġothers": 2329,
      "ĠRoad": 2330,
      "Ġlaun": 2331,
      "Ġ1980": 2332,
      "Ġexample": 2333,
      "Ġtyp": 2334,
      "Ġtro": 2335,
      "estival": 2336,
      "igned": 2337,
      "Ġcontrib": 2338,
      "ĠVol": 2339,
      "ari": 2340,
      "Ġhimself": 2341,
      "ĠGermany": 2342,
      "eh": 2343,
      "ceed": 2344,
      "Ġrecogn": 2345,
      "This": 2346,
      "Ġget": 2347,
      "Ġhy": 2348,
      "ĠDepartment": 2349,
      "ĠKh": 2350,
      "Ġz": 2351,
      "anted": 2352,
      "ways": 2353,
      "Ġmater": 2354,
      "Ġindepend": 2355,
      "Ġleague": 2356,
      "Ġrock": 2357,
      "ashington": 2358,
      "ĠRed": 2359,
      "azine": 2360,
      "Ġfinished": 2361,
      "ĠPaul": 2362,
      "ĠPress": 2363,
      "iding": 2364,
      "Ġvideo": 2365,
      "aur": 2366,
      "ĠDavid": 2367,
      "utive": 2368,
      "Ġproduc": 2369,
      "Ġadminist": 2370,
      "Ġred": 2371,
      "Ġdoes": 2372,
      "ĠMag": 2373,
      "eal": 2374,
      "ification": 2375,
      "rab": 2376,
      "ĠBlack": 2377,
      "Ġnever": 2378,
      "Ġbody": 2379,
      "Ġfoc": 2380,
      "Ġevents": 2381,
      "nder": 2382,
      "ederal": 2383,
      "ĠDr": 2384,
      "Ġcampaign": 2385,
      "Ġmodern": 2386,
      "Ġtourn": 2387,
      "ademy": 2388,
      "ĠTimes": 2389,
      "Ġhuman": 2390,
      "Ġhow": 2391,
      "Ġcast": 2392,
      "Ġsuccessful": 2393,
      "Ġmot": 2394,
      "ett": 2395,
      "ĠChina": 2396,
      "shire": 2397,
      "val": 2398,
      "Ġbelie": 2399,
      "ula": 2400,
      "ston": 2401,
      "ago": 2402,
      "ĠMary": 2403,
      "Ġstrong": 2404,
      "ators": 2405,
      "Ġsepar": 2406,
      "Ġmonths": 2407,
      "ensive": 2408,
      "Ġalthough": 2409,
      "craft": 2410,
      "Ġcontract": 2411,
      "Ġord": 2412,
      "Ġmy": 2413,
      "Ġmar": 2414,
      "Ġliving": 2415,
      "iction": 2416,
      "ili": 2417,
      "ume": 2418,
      "Ġdaughter": 2419,
      "Ġavailable": 2420,
      "Ġservices": 2421,
      "Ġsuff": 2422,
      "Ġ1999": 2423,
      "Ġlive": 2424,
      "ĠWashington": 2425,
      "ming": 2426,
      "ĠFrom": 2427,
      "Ġgave": 2428,
      "Ġcompleted": 2429,
      "Ġeducation": 2430,
      "ought": 2431,
      "leg": 2432,
      "view": 2433,
      "men": 2434,
      "Ġfollowed": 2435,
      "istic": 2436,
      "Ġide": 2437,
      "Ġdefe": 2438,
      "Ġrul": 2439,
      "Ġ=": 2440,
      "ened": 2441,
      "Ġmunicip": 2442,
      "acy": 2443,
      "itz": 2444,
      "ĠHen": 2445,
      "Ġaway": 2446,
      "Ġ31": 2447,
      "rag": 2448,
      "Ġ50": 2449,
      "ĠCentral": 2450,
      "Ġfire": 2451,
      "ĠRail": 2452,
      "ĠArch": 2453,
      "ĠInstitute": 2454,
      "ĠPat": 2455,
      "ĠGroup": 2456,
      "ĠLaw": 2457,
      "Ġconstruction": 2458,
      "west": 2459,
      "rain": 2460,
      "Ġ1970": 2461,
      "Ġbecom": 2462,
      "Ġperformed": 2463,
      "Ġblack": 2464,
      "ults": 2465,
      "berg": 2466,
      "ique": 2467,
      "ĠJos": 2468,
      "anding": 2469,
      "Ġremained": 2470,
      "Ġcross": 2471,
      "Ġstyle": 2472,
      "Ġsele": 2473,
      "Ġfree": 2474,
      "ography": 2475,
      "Ġagre": 2476,
      "Ñģ": 2477,
      "ential": 2478,
      "Ġlight": 2479,
      "ĠMex": 2480,
      "Ġacqu": 2481,
      "Ġtaken": 2482,
      "Ġlet": 2483,
      "cis": 2484,
      "ificant": 2485,
      "ĠÃ": 2486,
      "ĠMart": 2487,
      "pted": 2488,
      "here": 2489,
      "ĠMac": 2490,
      "atural": 2491,
      "ĠCenter": 2492,
      "burg": 2493,
      "Ġregular": 2494,
      "ospital": 2495,
      "rian": 2496,
      "Ġlanguage": 2497,
      "ĠMusic": 2498,
      "Ġdoc": 2499,
      "Ġcost": 2500,
      "isl": 2501,
      "omm": 2502,
      "Ġsour": 2503,
      "alls": 2504,
      "Ġcour": 2505,
      "ĠClub": 2506,
      "gress": 2507,
      "inese": 2508,
      "ĠCong": 2509,
      "ĠFirst": 2510,
      "ani": 2511,
      "time": 2512,
      "Ġdesigned": 2513,
      "erb": 2514,
      "Ġphot": 2515,
      "Ġ1998": 2516,
      "Ġseven": 2517,
      "Ġassoci": 2518,
      "ĠDev": 2519,
      "viron": 2520,
      "ĠJew": 2521,
      "Ġgoal": 2522,
      "arian": 2523,
      "Ġtour": 2524,
      "ĠIsland": 2525,
      "Ġplayers": 2526,
      "Ġincludes": 2527,
      "ĠMad": 2528,
      "Ġstudy": 2529,
      "Ġawarded": 2530,
      "Ġimpro": 2531,
      "Ġput": 2532,
      "ĠJapanese": 2533,
      "ĠTur": 2534,
      "Ġsongs": 2535,
      "Ġeight": 2536,
      "arter": 2537,
      "Ġperformance": 2538,
      "bert": 2539,
      "ĠVir": 2540,
      "Ġboard": 2541,
      "Ġpress": 2542,
      "Ġonce": 2543,
      "Ġcirc": 2544,
      "Ġinj": 2545,
      "Ġdam": 2546,
      "sy": 2547,
      "elling": 2548,
      "Ġflow": 2549,
      "Ġsignificant": 2550,
      "ĠUK": 2551,
      "ala": 2552,
      "Ġexpl": 2553,
      "atory": 2554,
      "Ġprot": 2555,
      "gin": 2556,
      "Ġdev": 2557,
      "ĠAngel": 2558,
      "iers": 2559,
      "uty": 2560,
      "ĠWestern": 2561,
      "band": 2562,
      "ĠNe": 2563,
      "Ð½": 2564,
      "aker": 2565,
      "Ġphys": 2566,
      "ĠRussian": 2567,
      "ĠWe": 2568,
      "ĠServ": 2569,
      "Ġcompetition": 2570,
      "ka": 2571,
      "Ġleading": 2572,
      "ĠBay": 2573,
      "chie": 2574,
      "Ġcondu": 2575,
      "Ġfront": 2576,
      "Ġoriginally": 2577,
      "ores": 2578,
      "ades": 2579,
      "overnor": 2580,
      "Ġcand": 2581,
      "aged": 2582,
      "198": 2583,
      "Ġmarket": 2584,
      "ĠSam": 2585,
      "ĠGr": 2586,
      "ĠTown": 2587,
      "Ġmaterial": 2588,
      "airs": 2589,
      "hest": 2590,
      "ida": 2591,
      "Ġdirected": 2592,
      "Ġenc": 2593,
      "Ġsugg": 2594,
      "ĠPri": 2595,
      "Ġexec": 2596,
      "Ġweb": 2597,
      "Ġthroughout": 2598,
      "hod": 2599,
      "Ġlargest": 2600,
      "aint": 2601,
      "ĠAfrican": 2602,
      "Ġtre": 2603,
      "Ġfeatured": 2604,
      "roy": 2605,
      "ĠMinister": 2606,
      "ĠCap": 2607,
      "ean": 2608,
      "Ġsubsequ": 2609,
      "Ġ185": 2610,
      "Ġinvolved": 2611,
      "Ġhealth": 2612,
      "atives": 2613,
      "serv": 2614,
      "Ġ1996": 2615,
      "ump": 2616,
      "Ġcolla": 2617,
      "Ġwid": 2618,
      "Ġproduct": 2619,
      "Ġseen": 2620,
      "Ġhousehold": 2621,
      "Ġstated": 2622,
      "ĠSal": 2623,
      "ude": 2624,
      "aries": 2625,
      "ĠFl": 2626,
      "Ġtraining": 2627,
      "40": 2628,
      "Ġbank": 2629,
      "Ġfeatures": 2630,
      "Ġ1997": 2631,
      "Ġcourt": 2632,
      "fic": 2633,
      "Ġearl": 2634,
      "ĠCanadian": 2635,
      "ĠTex": 2636,
      "ĠProv": 2637,
      "25": 2638,
      "ĠCommun": 2639,
      "emor": 2640,
      "ĠCath": 2641,
      "asons": 2642,
      "rey": 2643,
      "ĠMuseum": 2644,
      "Ġtournament": 2645,
      "ilies": 2646,
      "Ġassist": 2647,
      "Ġgroups": 2648,
      "//": 2649,
      "Ġforces": 2650,
      "Ġliter": 2651,
      "Ġstage": 2652,
      "eph": 2653,
      "Ġtransfer": 2654,
      "Ġplan": 2655,
      "ĠAcademy": 2656,
      "back": 2657,
      "head": 2658,
      "sec": 2659,
      "Ġeventually": 2660,
      "Ġrelig": 2661,
      "Ġreb": 2662,
      "ona": 2663,
      "ky": 2664,
      "Ġbi": 2665,
      "Ġrelation": 2666,
      "Ġbo": 2667,
      "Ġtest": 2668,
      "istry": 2669,
      "Ġ40": 2670,
      "ĠJack": 2671,
      "Ġentire": 2672,
      "Ġvia": 2673,
      "Ġreplaced": 2674,
      "eep": 2675,
      "Ġcou": 2676,
      "ĠGrand": 2677,
      "ĠChinese": 2678,
      "Ġable": 2679,
      "den": 2680,
      "Ġexist": 2681,
      "ĠThomas": 2682,
      "ranch": 2683,
      "Ġder": 2684,
      "Ġadded": 2685,
      "erous": 2686,
      "ĠFilm": 2687,
      "ilities": 2688,
      "ĠChristian": 2689,
      "Ġwhite": 2690,
      "asing": 2691,
      "Ġ1960": 2692,
      "Ġmust": 2693,
      "ĠRobert": 2694,
      "ements": 2695,
      "Ġprivate": 2696,
      "ĠMet": 2697,
      "oms": 2698,
      "Ġsem": 2699,
      "Ġinformation": 2700,
      "Ġproble": 2701,
      "ĠRad": 2702,
      "Ġrespons": 2703,
      "Ġet": 2704,
      "elt": 2705,
      "Ġschools": 2706,
      "ĠGreat": 2707,
      "ength": 2708,
      "Ġsen": 2709,
      "Ġfourth": 2710,
      "imate": 2711,
      "Ġsound": 2712,
      "Ġdegree": 2713,
      "ĠItalian": 2714,
      "Ġscored": 2715,
      "ĠAfrica": 2716,
      "ĠSing": 2717,
      "Ġcountries": 2718,
      "22": 2719,
      "Ġarchitect": 2720,
      "ĠIr": 2721,
      "Ġepisode": 2722,
      "Ġchart": 2723,
      "utions": 2724,
      "ĠBill": 2725,
      "ĠCharles": 2726,
      "ibrary": 2727,
      "Ġpolice": 2728,
      "Ġyou": 2729,
      "cle": 2730,
      "ĠTV": 2731,
      "Ġcurrently": 2732,
      "uter": 2733,
      "II": 2734,
      "ĠScott": 2735,
      "ĠMiss": 2736,
      "vironment": 2737,
      "Ġstri": 2738,
      "icated": 2739,
      "ĠChe": 2740,
      "Ġradio": 2741,
      "Ġanim": 2742,
      "mar": 2743,
      "Ġcandid": 2744,
      "Ġfight": 2745,
      "atre": 2746,
      "za": 2747,
      "Ġreached": 2748,
      "Ġkilled": 2749,
      "At": 2750,
      "oul": 2751,
      "Ġclose": 2752,
      "Ġcritic": 2753,
      "ĠLat": 2754,
      "ergy": 2755,
      "Ġnetwork": 2756,
      "Ġpark": 2757,
      "mercial": 2758,
      "rig": 2759,
      "Ġloss": 2760,
      "bour": 2761,
      "ĠIts": 2762,
      "Ġprovided": 2763,
      "Ġsaw": 2764,
      "icy": 2765,
      "ĠAlex": 2766,
      "ĠHistory": 2767,
      "hood": 2768,
      "ids": 2769,
      "Ġpast": 2770,
      "Ġ1995": 2771,
      "incip": 2772,
      "Ġwind": 2773,
      "://": 2774,
      "Ġmodel": 2775,
      "Ġcapt": 2776,
      "Ġrespect": 2777,
      "Ġknow": 2778,
      "aching": 2779,
      "ĠVict": 2780,
      "Ġnovel": 2781,
      "ĠDemocr": 2782,
      "Ġanal": 2783,
      "Ġdou": 2784,
      "Ġill": 2785,
      "Ġleast": 2786,
      "ĠMark": 2787,
      "oice": 2788,
      "Ġfav": 2789,
      "Ġattended": 2790,
      "mb": 2791,
      "Ġcivil": 2792,
      "Ġcollege": 2793,
      "Ġbar": 2794,
      "ĠSim": 2795,
      "rought": 2796,
      "ĠWhile": 2797,
      "Ġrange": 2798,
      "board": 2799,
      "Ġcentral": 2800,
      "och": 2801,
      "embly": 2802,
      "rd": 2803,
      "ĠDon": 2804,
      "ĠMy": 2805,
      "Ġplaced": 2806,
      "Ġcommand": 2807,
      "idae": 2808,
      "Ġstates": 2809,
      "Ġabove": 2810,
      "Ġ1994": 2811,
      "Ġeither": 2812,
      "21": 2813,
      "itch": 2814,
      "ĠLouis": 2815,
      "medi": 2816,
      "ĠCommission": 2817,
      "ĠAccording": 2818,
      "Ġdecided": 2819,
      "aval": 2820,
      "Ġ1992": 2821,
      "Ġexpress": 2822,
      "Ġvot": 2823,
      "ĠSpanish": 2824,
      "Ã¤": 2825,
      "Ġsubject": 2826,
      "Ġconstit": 2827,
      "Ġviol": 2828,
      "Ġmus": 2829,
      "Ġchange": 2830,
      "Ġdiscover": 2831,
      "Ġtext": 2832,
      "pon": 2833,
      "Ġplant": 2834,
      "Ġaud": 2835,
      "Ġtreat": 2836,
      "urity": 2837,
      "Ġoccur": 2838,
      "ĠTrans": 2839,
      "oviet": 2840,
      "ĠGreen": 2841,
      "ĠCons": 2842,
      "ĠTo": 2843,
      "ned": 2844,
      "ician": 2845,
      "Ġarg": 2846,
      "thumb": 2847,
      "There": 2848,
      "ĠBut": 2849,
      "Ġrights": 2850,
      "ĠLos": 2851,
      "Ġspace": 2852,
      "ollowing": 2853,
      "rel": 2854,
      "rown": 2855,
      "ĠParis": 2856,
      "ĠWhite": 2857,
      "ĠGold": 2858,
      "ĠMus": 2859,
      "apt": 2860,
      "ĠTor": 2861,
      "ĠCal": 2862,
      "Ġlearn": 2863,
      "Ġpot": 2864,
      "uture": 2865,
      "Ġfif": 2866,
      "ĠMer": 2867,
      "ĠOp": 2868,
      "ishop": 2869,
      "Ġsitu": 2870,
      "ĠRepublic": 2871,
      "Ġprem": 2872,
      "Ġcop": 2873,
      "ems": 2874,
      "arily": 2875,
      "Ġlo": 2876,
      "ĠYear": 2877,
      "iation": 2878,
      "atal": 2879,
      "reland": 2880,
      "Ġshows": 2881,
      "ĠDel": 2882,
      "Ġinterest": 2883,
      "Ġfig": 2884,
      "ym": 2885,
      "hi": 2886,
      "order": 2887,
      "Äģ": 2888,
      "Ġachie": 2889,
      "Ġsil": 2890,
      "23": 2891,
      "Ġhit": 2892,
      "rael": 2893,
      "Ġtravel": 2894,
      "vert": 2895,
      "Ġupon": 2896,
      "Ġpur": 2897,
      "ena": 2898,
      "ria": 2899,
      "rup": 2900,
      "Ġintroduced": 2901,
      "Ġcenter": 2902,
      "road": 2903,
      "ĠNews": 2904,
      "lam": 2905,
      "ÑĢ": 2906,
      "Ġexhib": 2907,
      "ĠWil": 2908,
      "ving": 2909,
      "Ġsay": 2910,
      "ĠHistor": 2911,
      "ĠFootball": 2912,
      "Ġ1991": 2913,
      "oper": 2914,
      "Ġnight": 2915,
      "ply": 2916,
      "Ġmiss": 2917,
      "ini": 2918,
      "Ġjud": 2919,
      "Ġrepresented": 2920,
      "Ġeffort": 2921,
      "Ġstudio": 2922,
      "aves": 2923,
      "Ġchampionship": 2924,
      "Ġmeas": 2925,
      "ĠLab": 2926,
      "icles": 2927,
      "ĠFrancis": 2928,
      "Ġsection": 2929,
      "Ġgold": 2930,
      "Ġapprox": 2931,
      "Ġqualif": 2932,
      "Ġ1993": 2933,
      "ĠÂ": 2934,
      "ĠVirgin": 2935,
      "Ġdistrib": 2936,
      "ĠChic": 2937,
      "During": 2938,
      "ĠPla": 2939,
      "Ġfemale": 2940,
      "Ġ184": 2941,
      "Ġlisted": 2942,
      "uses": 2943,
      "sel": 2944,
      "ĠMichael": 2945,
      "Ġlook": 2946,
      "Ġcy": 2947,
      "ability": 2948,
      "ĠDire": 2949,
      "ĠCommittee": 2950,
      "Ġusually": 2951,
      "face": 2952,
      "ĠKore": 2953,
      "unn": 2954,
      "ĠSome": 2955,
      "Ar": 2956,
      "Ġdata": 2957,
      "Ġpreviously": 2958,
      "Ġconnect": 2959,
      "Ġhom": 2960,
      "ĠIm": 2961,
      "ĠInter": 2962,
      "ĠPet": 2963,
      "lav": 2964,
      "Ġwinning": 2965,
      "olf": 2966,
      "Ġser": 2967,
      "Ġnomin": 2968,
      "Ġinstead": 2969,
      "Ġsex": 2970,
      "Ġaircraft": 2971,
      "Ġdivision": 2972,
      "annel": 2973,
      "Ġcensus": 2974,
      "ĠZeal": 2975,
      "asc": 2976,
      "ĠBook": 2977,
      "Ġdraw": 2978,
      "Ġbehind": 2979,
      "Ġfarm": 2980,
      "eck": 2981,
      "Ġcapital": 2982,
      "Ġfilms": 2983,
      "Ġpay": 2984,
      "Ġoccup": 2985,
      "retary": 2986,
      "oz": 2987,
      "eleb": 2988,
      "60": 2989,
      "Ġactive": 2990,
      "197": 2991,
      "Wh": 2992,
      "gy": 2993,
      "Ġconv": 2994,
      "ĠCont": 2995,
      "ĠBu": 2996,
      "ĠZealand": 2997,
      "Ġdeal": 2998,
      "Ġpred": 2999,
      "ĠTexas": 3000,
      "duction": 3001,
      "Ġmean": 3002,
      "lim": 3003,
      "Ġprovide": 3004,
      "Ġmedia": 3005,
      "Ġdefeated": 3006,
      "irth": 3007,
      "ĠWomen": 3008,
      "ĠTer": 3009,
      "ĠCatholic": 3010,
      "stant": 3011,
      "mon": 3012,
      "Ġpurch": 3013,
      "oring": 3014,
      "Ġfar": 3015,
      "ĠKingdom": 3016,
      "Ġbrought": 3017,
      "ĠGovernment": 3018,
      "Ġmix": 3019,
      "ĠLake": 3020,
      "Ġended": 3021,
      "tained": 3022,
      "Ġneigh": 3023,
      "iences": 3024,
      "ĠDan": 3025,
      "ites": 3026,
      "tar": 3027,
      "Ġplann": 3028,
      "Ġbroadcast": 3029,
      "edy": 3030,
      "Ġriver": 3031,
      "Ġwhose": 3032,
      "Ġneg": 3033,
      "Ġsize": 3034,
      "ĠHenry": 3035,
      "Ġtrib": 3036,
      "km": 3037,
      "Ġlik": 3038,
      "Ġrather": 3039,
      "ĠSmith": 3040,
      "gen": 3041,
      "Ġbooks": 3042,
      "Ġmethod": 3043,
      "ĠSoviet": 3044,
      "elled": 3045,
      "Ġnorthern": 3046,
      "ĠVictor": 3047,
      "oo": 3048,
      "Ġparts": 3049,
      "Ġreve": 3050,
      "aled": 3051,
      "Ġmass": 3052,
      "ĠRock": 3053,
      "Ġcompan": 3054,
      "unk": 3055,
      "Ġrelationship": 3056,
      "ĠFrank": 3057,
      "ĠFore": 3058,
      "Ġsouthern": 3059,
      "ĠMa": 3060,
      "ĠBest": 3061,
      "NA": 3062,
      "Ġinvestig": 3063,
      "olk": 3064,
      "Ġsch": 3065,
      "odes": 3066,
      "ping": 3067,
      "ĠSant": 3068,
      "Ġcommercial": 3069,
      "ĠMont": 3070,
      "ÑĤ": 3071,
      "Ġgun": 3072,
      "ota": 3073,
      "ĠHill": 3074,
      "ĠPeter": 3075,
      "alled": 3076,
      "ĠHam": 3077,
      "Ġden": 3078,
      "oint": 3079,
      "pecially": 3080,
      "pan": 3081,
      "erve": 3082,
      "ĠMel": 3083,
      "ux": 3084,
      "ancial": 3085,
      "Ġtype": 3086,
      "ĠChicago": 3087,
      "...": 3088,
      "Ġbuildings": 3089,
      "ometimes": 3090,
      "ĠTom": 3091,
      "ror": 3092,
      "Ġalmost": 3093,
      "Ġjournal": 3094,
      "idents": 3095,
      "Ġmovement": 3096,
      "SA": 3097,
      "ĠBas": 3098,
      "ĠCarol": 3099,
      "Ġfamilies": 3100,
      "Ġpossible": 3101,
      "Ġran": 3102,
      "Ġchanged": 3103,
      "Ġartist": 3104,
      "iÄ": 3105,
      "Ġallowed": 3106,
      "kn": 3107,
      "Ġoutside": 3108,
      "thlet": 3109,
      "str": 3110,
      "ĠAtl": 3111,
      "ĠCongress": 3112,
      "ufact": 3113,
      "ada": 3114,
      "Ġorganization": 3115,
      "porary": 3116,
      "rial": 3117,
      "Ġregard": 3118,
      "24": 3119,
      "enced": 3120,
      "ein": 3121,
      "earch": 3122,
      "iter": 3123,
      "Ġsus": 3124,
      "Ġwriting": 3125,
      "Ġgrand": 3126,
      "Ġforce": 3127,
      "Ġruns": 3128,
      "Ġdocument": 3129,
      "lag": 3130,
      "iqu": 3131,
      "site": 3132,
      "Ġtransl": 3133,
      "ĠIsrael": 3134,
      "Ġcut": 3135,
      "clus": 3136,
      "istan": 3137,
      "irm": 3138,
      "ĠDay": 3139,
      "Ġfrequ": 3140,
      "Ġhard": 3141,
      "ĠFlor": 3142,
      "Ġfall": 3143,
      "ĠRichard": 3144,
      "Ġcoast": 3145,
      "pts": 3146,
      "Ġgoals": 3147,
      "abit": 3148,
      "ĠSwed": 3149,
      "Ġ1989": 3150,
      "ĠSecond": 3151,
      "ios": 3152,
      "Ġspent": 3153,
      "Ġlower": 3154,
      "Ġprimary": 3155,
      "rative": 3156,
      "Ġaction": 3157,
      "ĠArts": 3158,
      "heast": 3159,
      "Ġpers": 3160,
      "inent": 3161,
      "ĠIreland": 3162,
      "cies": 3163,
      "Ġrailway": 3164,
      "ĠBur": 3165,
      "ĠYou": 3166,
      "ita": 3167,
      "etball": 3168,
      "ĠAngeles": 3169,
      "Ġtax": 3170,
      "ĠCamp": 3171,
      "Ġask": 3172,
      "Ġindustry": 3173,
      "ola": 3174,
      "rim": 3175,
      "Ġlength": 3176,
      "uz": 3177,
      "Ġunits": 3178,
      "based": 3179,
      "ano": 3180,
      "Ġdefend": 3181,
      "ĠBen": 3182,
      "umn": 3183,
      "Ġaccording": 3184,
      "ĠGeorg": 3185,
      "ĠEar": 3186,
      "ĠWal": 3187,
      "Ġtaking": 3188,
      "ros": 3189,
      "Ġ1950": 3190,
      "Ġdeterm": 3191,
      "ĠRecords": 3192,
      "Ġbeginning": 3193,
      "ware": 3194,
      "Ġbur": 3195,
      "Ġstudies": 3196,
      "Ġplays": 3197,
      "ires": 3198,
      "Ġste": 3199,
      "Ġpromot": 3200,
      "unt": 3201,
      "ĠFestival": 3202,
      "iff": 3203,
      "Ġedition": 3204,
      "Ġblock": 3205,
      "ĠNot": 3206,
      "Ġtowards": 3207,
      "ows": 3208,
      "Ġmultip": 3209,
      "Ġowned": 3210,
      "Ġoppos": 3211,
      "Ġplat": 3212,
      "ĠCast": 3213,
      "Ġimm": 3214,
      "Ġkey": 3215,
      "Ġsoon": 3216,
      "Ġche": 3217,
      "Ġstudied": 3218,
      "ecess": 3219,
      "Ġcommission": 3220,
      "enth": 3221,
      "like": 3222,
      "ension": 3223,
      "Ġstop": 3224,
      "Ġ1988": 3225,
      "ura": 3226,
      "ĠFin": 3227,
      "Ġprison": 3228,
      "Ġwood": 3229,
      "Ġselected": 3230,
      "ĠSuper": 3231,
      "Ġstructure": 3232,
      "Ġmagazine": 3233,
      "Ġsummer": 3234,
      "rack": 3235,
      "Ġleader": 3236,
      "ĠTurk": 3237,
      "aps": 3238,
      "Ġisland": 3239,
      "essed": 3240,
      "ocal": 3241,
      "sych": 3242,
      "ĠJust": 3243,
      "Ġwhom": 3244,
      "ĠAnn": 3245,
      "Ġnoted": 3246,
      "Ġesc": 3247,
      "ift": 3248,
      "Ġever": 3249,
      "Ġgenus": 3250,
      "Ġclosed": 3251,
      "Ġapproximately": 3252,
      "well": 3253,
      "ises": 3254,
      "Ġitself": 3255,
      "ado": 3256,
      "Ġobserv": 3257,
      "wer": 3258,
      "Ġking": 3259,
      "ĠPac": 3260,
      "Ġcollection": 3261,
      "iety": 3262,
      "She": 3263,
      "arc": 3264,
      "ready": 3265,
      "ees": 3266,
      "Ġterrit": 3267,
      "Ġnatural": 3268,
      "Ġremov": 3269,
      "Ġanc": 3270,
      "ĠLeg": 3271,
      "ĠPlay": 3272,
      "olar": 3273,
      "Ġcomplex": 3274,
      "Ġconcern": 3275,
      "Ġanti": 3276,
      "Ġrequired": 3277,
      "Ġmatches": 3278,
      "oma": 3279,
      "ĠOther": 3280,
      "ounter": 3281,
      "27": 3282,
      "Ġobject": 3283,
      "Ġprincip": 3284,
      "ette": 3285,
      "Ġsenior": 3286,
      "pected": 3287,
      "ĠEduc": 3288,
      "Ġbreak": 3289,
      "rol": 3290,
      "ĠPublic": 3291,
      "ĠScot": 3292,
      "ĠParliament": 3293,
      "Ġ#": 3294,
      "adium": 3295,
      "ĠForce": 3296,
      "Ġespecially": 3297,
      "Ġlived": 3298,
      "For": 3299,
      "asion": 3300,
      "teg": 3301,
      "Ġlittle": 3302,
      "Ġceleb": 3303,
      "Ġtoo": 3304,
      "Ġfunction": 3305,
      "Ġ(\"": 3306,
      "Ġhigher": 3307,
      "Ġbase": 3308,
      "Ġhighest": 3309,
      "inner": 3310,
      "ĠPenn": 3311,
      "Ġtraditional": 3312,
      "ĠGra": 3313,
      "Ġentered": 3314,
      "ĠChampionships": 3315,
      "Ġindependent": 3316,
      "Ġroute": 3317,
      "eds": 3318,
      "iled": 3319,
      "Ġlaunched": 3320,
      "Ġdon": 3321,
      "ĠSur": 3322,
      "Ġarmy": 3323,
      "elop": 3324,
      "utch": 3325,
      "ground": 3326,
      "Ġfood": 3327,
      "oid": 3328,
      "Ġopt": 3329,
      "antic": 3330,
      "Ġ183": 3331,
      "chan": 3332,
      "udd": 3333,
      "Ġgirl": 3334,
      "ĠBoard": 3335,
      "itiz": 3336,
      "mark": 3337,
      "Ġcred": 3338,
      "Ġoperations": 3339,
      "Ġsystems": 3340,
      "Ġmoney": 3341,
      "Ġinstit": 3342,
      "fit": 3343,
      "ibility": 3344,
      "28": 3345,
      "FL": 3346,
      "Ġdate": 3347,
      "Ġfuture": 3348,
      "Ġquest": 3349,
      "ĠGod": 3350,
      "Ġnewsp": 3351,
      "Ġbelow": 3352,
      "Ġopening": 3353,
      "Ġcounty": 3354,
      "Ġvictory": 3355,
      "Ġwoman": 3356,
      "Ġ1987": 3357,
      "ĠOb": 3358,
      "Ð¾Ð": 3359,
      "ĠNavy": 3360,
      "aught": 3361,
      "ands": 3362,
      "Ġmur": 3363,
      "Ġenter": 3364,
      "Ġdram": 3365,
      "reme": 3366,
      "Ġprior": 3367,
      "ĠMil": 3368,
      "Ġge": 3369,
      "usband": 3370,
      "ĠSaint": 3371,
      "Ġself": 3372,
      "aring": 3373,
      "ĠBank": 3374,
      "Ġstaff": 3375,
      "Ġlack": 3376,
      "orpor": 3377,
      "oke": 3378,
      "Ġsettle": 3379,
      "oys": 3380,
      "Ġdecision": 3381,
      "ĠItaly": 3382,
      "ye": 3383,
      "uments": 3384,
      "ĠRob": 3385,
      "Ġmanufact": 3386,
      "Ġcentre": 3387,
      "Ġsett": 3388,
      "Ġpractice": 3389,
      "Ġcompeted": 3390,
      "26": 3391,
      "Ġball": 3392,
      "ras": 3393,
      "Ġearlier": 3394,
      "ĠAlthough": 3395,
      "ĠFound": 3396,
      "Ġnar": 3397,
      "ĠMexico": 3398,
      "Ġproperty": 3399,
      "ĠGo": 3400,
      "ĠSl": 3401,
      "ĠOlympics": 3402,
      "press": 3403,
      "Ã³n": 3404,
      "Ġsurround": 3405,
      "Ġpage": 3406,
      "known": 3407,
      "onn": 3408,
      "Ġrelated": 3409,
      "Ġmeans": 3410,
      "ĠKn": 3411,
      "Ġ1986": 3412,
      "Ġpersonal": 3413,
      "ĠBrown": 3414,
      "Ġbecoming": 3415,
      "ĠMass": 3416,
      "Ġmer": 3417,
      "Ġcal": 3418,
      "Ġissues": 3419,
      "ams": 3420,
      "aily": 3421,
      "ki": 3422,
      "Ġalready": 3423,
      "Ġteac": 3424,
      "Ġincreased": 3425,
      "Ġresults": 3426,
      "down": 3427,
      "ĠLiber": 3428,
      "Ġmanager": 3429,
      "Ġsat": 3430,
      "plied": 3431,
      "Ġsquad": 3432,
      "Ġadop": 3433,
      "FA": 3434,
      "ĠEmp": 3435,
      "Ġcome": 3436,
      "Ġexcept": 3437,
      "ĠSummer": 3438,
      "zil": 3439,
      "ficult": 3440,
      "Ġdestroy": 3441,
      "Ġemer": 3442,
      "ĠJournal": 3443,
      "arriage": 3444,
      "Ġstandard": 3445,
      "anded": 3446,
      "Ġthus": 3447,
      "org": 3448,
      "etic": 3449,
      "ĠBo": 3450,
      "Ġlocation": 3451,
      "arents": 3452,
      "igan": 3453,
      "Ġinitially": 3454,
      "Ġnumerous": 3455,
      "Ġcompanies": 3456,
      "Ġgenerally": 3457,
      "Ġ1984": 3458,
      "Ġmajority": 3459,
      "Ġdu": 3460,
      "Ġbattle": 3461,
      "inals": 3462,
      "itar": 3463,
      "bur": 3464,
      "ulated": 3465,
      "ĠDu": 3466,
      "roll": 3467,
      "29": 3468,
      "Ġkeep": 3469,
      "Ġindic": 3470,
      "unior": 3471,
      "Ġappearance": 3472,
      "ĠVirginia": 3473,
      "ID": 3474,
      "ublican": 3475,
      "Ġscore": 3476,
      "ĠHa": 3477,
      "Ġinterview": 3478,
      "Ġchair": 3479,
      "Ġattempt": 3480,
      "ricult": 3481,
      "Ġcontains": 3482,
      "Ġi": 3483,
      "ua": 3484,
      "Ġemb": 3485,
      "Ġminor": 3486,
      "action": 3487,
      "Ġscient": 3488,
      "overs": 3489,
      "Ġseat": 3490,
      "Ġapplic": 3491,
      "Ġrunning": 3492,
      "Ġdifficult": 3493,
      "Ġmedal": 3494,
      "ĠArab": 3495,
      "ĠRussia": 3496,
      "inary": 3497,
      "Ġmove": 3498,
      "Ġpen": 3499,
      "Ġcaused": 3500,
      "ĠAssembly": 3501,
      "ĠSqu": 3502,
      "Ġ1985": 3503,
      "Ġenvironment": 3504,
      "ils": 3505,
      "Ġhusband": 3506,
      "teen": 3507,
      "Ġsometimes": 3508,
      "Ġchief": 3509,
      "Ġcertain": 3510,
      "Ġoperated": 3511,
      "writ": 3512,
      "Ġstudent": 3513,
      "eff": 3514,
      "ĠWales": 3515,
      "ĠFort": 3516,
      "ĠScience": 3517,
      "Ġwide": 3518,
      "Ġassociated": 3519,
      "Ġunit": 3520,
      "Ġannual": 3521,
      "Acc": 3522,
      "ĠGames": 3523,
      "ĠNorthern": 3524,
      "mitted": 3525,
      "ĠStar": 3526,
      "Ġclear": 3527,
      "Ġcollabor": 3528,
      "Ġhor": 3529,
      "ĠOld": 3530,
      "imb": 3531,
      "Ġartists": 3532,
      "Ġcourse": 3533,
      "yr": 3534,
      "Ġterms": 3535,
      "uan": 3536,
      "Ġretired": 3537,
      "Ġadditional": 3538,
      "Ġwriter": 3539,
      "izing": 3540,
      "Ġwestern": 3541,
      "Ġsinger": 3542,
      "ĠTwo": 3543,
      "not": 3544,
      "ĠSir": 3545,
      "rying": 3546,
      "ersey": 3547,
      "ingu": 3548,
      "lying": 3549,
      "ĠPan": 3550,
      "Ã¨": 3551,
      "Ġolder": 3552,
      "Ġserving": 3553,
      "Ġpie": 3554,
      "TV": 3555,
      "ĠAwards": 3556,
      "Ġquarter": 3557,
      "ĠService": 3558,
      "Ġdom": 3559,
      "Ġdecl": 3560,
      "inct": 3561,
      "Ġlegal": 3562,
      "Ġbetter": 3563,
      "Ġmountain": 3564,
      "Ġdi": 3565,
      "Ġuniversity": 3566,
      "ĠIrish": 3567,
      "lo": 3568,
      "ĠEv": 3569,
      "venue": 3570,
      "Ġsupported": 3571,
      "icro": 3572,
      "ĠPre": 3573,
      "Ġpassed": 3574,
      "Sh": 3575,
      "Ġbig": 3576,
      "plement": 3577,
      "Ġthought": 3578,
      "ĠMos": 3579,
      "itt": 3580,
      "ĠCarl": 3581,
      "obal": 3582,
      "Ġarrest": 3583,
      "Ġattend": 3584,
      "ĠSince": 3585,
      "Ġprob": 3586,
      "Ġabs": 3587,
      "ĠOper": 3588,
      "ĠMur": 3589,
      "ĠTechn": 3590,
      "Ġ2023": 3591,
      "Ġwebsite": 3592,
      "ĠWork": 3593,
      "Ġeditor": 3594,
      "Ġthreat": 3595,
      "isions": 3596,
      "rief": 3597,
      "Ġtransport": 3598,
      "80": 3599,
      "Ġearned": 3600,
      "Ġforest": 3601,
      "Ġnine": 3602,
      "Ġclaimed": 3603,
      ");": 3604,
      "Åį": 3605,
      "Ġexc": 3606,
      "Ġforced": 3607,
      "Ġfinancial": 3608,
      "Ġens": 3609,
      "ĠOx": 3610,
      "gn": 3611,
      "Ġsubsequently": 3612,
      "Ġdig": 3613,
      "Ġcases": 3614,
      "ĠBattle": 3615,
      "cher": 3616,
      "Ġconsist": 3617,
      "Ġimmedi": 3618,
      "ĠFlorida": 3619,
      "Ġtrade": 3620,
      "vention": 3621,
      "ĠMr": 3622,
      "ĠSpe": 3623,
      "ĠMod": 3624,
      "ĠDo": 3625,
      "raw": 3626,
      "ero": 3627,
      "ĠSa": 3628,
      "ĠRos": 3629,
      "Ġeconomic": 3630,
      "ĠDen": 3631,
      "Ġofficer": 3632,
      "Ġdrop": 3633,
      "ĠResearch": 3634,
      "Ġissue": 3635,
      "ockey": 3636,
      "Ġcouncil": 3637,
      "ĠGreek": 3638,
      "Ġbelong": 3639,
      "BA": 3640,
      "Ġmission": 3641,
      "ĠColumb": 3642,
      "bon": 3643,
      "Ġ1983": 3644,
      "ĠAv": 3645,
      "anda": 3646,
      "Ġmusical": 3647,
      "Ġveh": 3648,
      "Ġgra": 3649,
      "eball": 3650,
      "ĠBrazil": 3651,
      "Ġevidence": 3652,
      "Ġfeature": 3653,
      "gl": 3654,
      "Ġsea": 3655,
      "Ġdiscuss": 3656,
      "ĠEducation": 3657,
      "ĠValley": 3658,
      "cel": 3659,
      "Ġer": 3660,
      "ider": 3661,
      "standing": 3662,
      "Ġremains": 3663,
      "Ġmeeting": 3664,
      "Ġsuper": 3665,
      "ĠClass": 3666,
      "Ġjob": 3667,
      "Ġmedical": 3668,
      "ih": 3669,
      "Ġsum": 3670,
      "Ġestablish": 3671,
      "cement": 3672,
      "iÄĩ": 3673,
      "Ġsyn": 3674,
      "Ġraised": 3675,
      "ato": 3676,
      "ĠUk": 3677,
      "Ġlimited": 3678,
      "Ġactivities": 3679,
      "change": 3680,
      "Ġmostly": 3681,
      "ĠEr": 3682,
      "Ġcreate": 3683,
      "Ġcust": 3684,
      "Ġ1982": 3685,
      "Ġchanges": 3686,
      "Ġshot": 3687,
      "ĠSun": 3688,
      "Ġlove": 3689,
      "ĠPost": 3690,
      "Ġequip": 3691,
      "ĠAlb": 3692,
      "Ġpresented": 3693,
      "ĠMill": 3694,
      "ĠWood": 3695,
      "Ġmunicipality": 3696,
      "Ġcomplete": 3697,
      "Ġprofessor": 3698,
      "azz": 3699,
      "Ġgoing": 3700,
      "Ġnews": 3701,
      "ĠHot": 3702,
      "Ġ60": 3703,
      "see": 3704,
      "ĠSouthern": 3705,
      "Ġtrain": 3706,
      "house": 3707,
      "ĠJoseph": 3708,
      "mm": 3709,
      "Ġsaf": 3710,
      "isk": 3711,
      "spe": 3712,
      "Ġded": 3713,
      "ĠWin": 3714,
      "stra": 3715,
      "ĠSk": 3716,
      "aut": 3717,
      "Ġhelped": 3718,
      "Ġaccount": 3719,
      "ĠPacific": 3720,
      "ĠJewish": 3721,
      "anced": 3722,
      "Ġpercent": 3723,
      "Ġaccom": 3724,
      "ternal": 3725,
      "Ġhot": 3726,
      "Ġreligious": 3727,
      "Ġ1979": 3728,
      "Ġgive": 3729,
      "ĠBus": 3730,
      "Ġparticularly": 3731,
      "arent": 3732,
      "ĠEle": 3733,
      "tic": 3734,
      "ĠOl": 3735,
      "Ġbirth": 3736,
      "Ġlegisl": 3737,
      "Ġculture": 3738,
      "Ġstay": 3739,
      "ĠConference": 3740,
      "mond": 3741,
      "Ġparents": 3742,
      "Ġcharacters": 3743,
      "Ġweeks": 3744,
      "Ġmanagement": 3745,
      "Ġ1972": 3746,
      "Ġplatform": 3747,
      "using": 3748,
      "Ġ1940": 3749,
      "istics": 3750,
      "col": 3751,
      "Ġbene": 3752,
      "ĠMost": 3753,
      "Ġcolor": 3754,
      "Ġgot": 3755,
      "Ġ1930": 3756,
      "ĠCur": 3757,
      "ĠRepublican": 3758,
      "Ġshown": 3759,
      "iro": 3760,
      "isation": 3761,
      "Ġgraduated": 3762,
      "Ġoverall": 3763,
      "Ġminutes": 3764,
      "Ġhours": 3765,
      "Ġincome": 3766,
      "Ġfle": 3767,
      "ati": 3768,
      "itan": 3769,
      "ĠUp": 3770,
      "Ġfailed": 3771,
      "Ġhum": 3772,
      "oir": 3773,
      "Ġvote": 3774,
      "inet": 3775,
      "bury": 3776,
      "Ġsom": 3777,
      "ĠInc": 3778,
      "Ġmultiple": 3779,
      "Amer": 3780,
      "According": 3781,
      "RA": 3782,
      "Ġlarger": 3783,
      "Ġlines": 3784,
      "ault": 3785,
      "ĠStev": 3786,
      "Ġpromoted": 3787,
      "Ġsports": 3788,
      "Ġchall": 3789,
      "wide": 3790,
      "Ġbound": 3791,
      "ipl": 3792,
      "Ġbelieved": 3793,
      "Ġleaving": 3794,
      "):": 3795,
      "ĠDemocratic": 3796,
      "Ġvir": 3797,
      "Ġ35": 3798,
      "ĠChief": 3799,
      "Ġdetail": 3800,
      "ĠProvince": 3801,
      "ĠIll": 3802,
      "Ġlonger": 3803,
      "Ġrap": 3804,
      "Ġquick": 3805,
      "Ġnames": 3806,
      "Ġinsp": 3807,
      "Ġscience": 3808,
      "Ġelections": 3809,
      "iance": 3810,
      "ĠSocial": 3811,
      "ĠSil": 3812,
      "Ġ1976": 3813,
      "Ġ1981": 3814,
      "iring": 3815,
      "ĠMartin": 3816,
      "ĠLu": 3817,
      "Ġfederal": 3818,
      "Ġincrease": 3819,
      "ylvan": 3820,
      "Ġ1945": 3821,
      "Ġprograms": 3822,
      "ĠDef": 3823,
      "Ġseasons": 3824,
      "Ġacquired": 3825,
      "Ġstep": 3826,
      "ĠLand": 3827,
      "ache": 3828,
      "ĠSpain": 3829,
      "aches": 3830,
      "ĠFre": 3831,
      "Ġreferred": 3832,
      "hy": 3833,
      "Ġforeign": 3834,
      "part": 3835,
      "Un": 3836,
      "Ġcarried": 3837,
      "Ġcolon": 3838,
      "ients": 3839,
      "ulf": 3840,
      "Ġmention": 3841,
      "onse": 3842,
      "Ġchap": 3843,
      "Ġlatter": 3844,
      "Ġhapp": 3845,
      "Ġfamous": 3846,
      "Ġremaining": 3847,
      "Ġsister": 3848,
      "ĠThat": 3849,
      "itation": 3850,
      "tion": 3851,
      "Ġpolicy": 3852,
      "ties": 3853,
      "ĠOffice": 3854,
      "Ġconsider": 3855,
      "Ġcomposed": 3856,
      "Ġstarting": 3857,
      "Ġinn": 3858,
      "rast": 3859,
      "enty": 3860,
      "Ġlay": 3861,
      "Ġ1974": 3862,
      "Ġbask": 3863,
      "ĠMat": 3864,
      "ĠTour": 3865,
      "Ġeastern": 3866,
      "Ġscreen": 3867,
      "ĠIran": 3868,
      "Ġstatus": 3869,
      "iy": 3870,
      "iger": 3871,
      "Ġproposed": 3872,
      "Ġoffered": 3873,
      "ĠHaw": 3874,
      "ĠCD": 3875,
      "Ġcell": 3876,
      "ession": 3877,
      "ĠProfess": 3878,
      "ĠLater": 3879,
      "Ġ1975": 3880,
      "Ġpolitician": 3881,
      "ĠRailway": 3882,
      "Ġpoet": 3883,
      "Ġ1978": 3884,
      "Ġarran": 3885,
      "uge": 3886,
      "ady": 3887,
      "ĠRadio": 3888,
      "35": 3889,
      "Ġ1968": 3890,
      "urban": 3891,
      "cript": 3892,
      "ĠBritain": 3893,
      "ĠEmpire": 3894,
      "arters": 3895,
      "selves": 3896,
      "bers": 3897,
      "Ġlos": 3898,
      "Ġthemselves": 3899,
      "Ġspecific": 3900,
      "imum": 3901,
      "ĠCamb": 3902,
      "AA": 3903,
      "ols": 3904,
      "\")": 3905,
      "Ġdepartment": 3906,
      "Ġant": 3907,
      "CC": 3908,
      "ĠMountain": 3909,
      "Ġ1920": 3910,
      "Ġmiddle": 3911,
      "Ġinstr": 3912,
      "Ġestim": 3913,
      "ĠTheir": 3914,
      "Ġarm": 3915,
      "ca": 3916,
      "ken": 3917,
      "ledge": 3918,
      "Ġaltern": 3919,
      "70": 3920,
      "ĠCivil": 3921,
      "Ġtroops": 3922,
      "Ġhospital": 3923,
      "www": 3924,
      "Ġnative": 3925,
      "196": 3926,
      "atively": 3927,
      "Ġlic": 3928,
      "45": 3929,
      "Ġbox": 3930,
      "Ðº": 3931,
      "ĠOh": 3932,
      "ĠArg": 3933,
      "emporary": 3934,
      "From": 3935,
      "Ġdiss": 3936,
      "Ġroom": 3937,
      "Ġtakes": 3938,
      "itors": 3939,
      "Ġrate": 3940,
      "ylvania": 3941,
      "oston": 3942,
      "ĠBelg": 3943,
      "ĠBig": 3944,
      "ĠPak": 3945,
      "Ġphil": 3946,
      "ication": 3947,
      "Ġsched": 3948,
      "ĠIII": 3949,
      "ĠSeries": 3950,
      "ysis": 3951,
      "Ġenergy": 3952,
      "Ġconsists": 3953,
      "Ġtoday": 3954,
      "iana": 3955,
      "ĠCam": 3956,
      "pose": 3957,
      "emorial": 3958,
      "Ġnorm": 3959,
      "Ġ65": 3960,
      "burgh": 3961,
      "Ġforms": 3962,
      "ĠHow": 3963,
      "fect": 3964,
      "90": 3965,
      "Ġindividuals": 3966,
      "ĠTw": 3967,
      "Ġsurface": 3968,
      "Ġbatt": 3969,
      "lah": 3970,
      "ĠSar": 3971,
      "ĠSub": 3972,
      "arden": 3973,
      "Ġresponse": 3974,
      "Ġcharg": 3975,
      "kins": 3976,
      "ao": 3977,
      "Ġseparate": 3978,
      "ĠCarolina": 3979,
      "Ġ1973": 3980,
      "Ġmainly": 3981,
      "Ġ1977": 3982,
      "ĠCla": 3983,
      "wan": 3984,
      "ĠFred": 3985,
      "Ġcateg": 3986,
      "ĠCO": 3987,
      "Ġeth": 3988,
      "Ġsucceed": 3989,
      "Ġver": 3990,
      "awa": 3991,
      "Ġ45": 3992,
      "ĠHon": 3993,
      "Ġguitar": 3994,
      "ĠSpr": 3995,
      "Ġprevent": 3996,
      "Ġtarg": 3997,
      "Ġstations": 3998,
      "Ġsequ": 3999,
      "wa": 4000,
      "Ġdepart": 4001,
      "Ġrecording": 4002,
      "Ġsoft": 4003,
      "ĠQueen": 4004,
      "Ġregional": 4005,
      "Ġadj": 4006,
      "ĠPeople": 4007,
      "Ġfifth": 4008,
      "Ġ1971": 4009,
      "ĠOxford": 4010,
      "Ġvariety": 4011,
      "ĠBet": 4012,
      "bre": 4013,
      "Ġword": 4014,
      "ĠBul": 4015,
      "rich": 4016,
      "inated": 4017,
      "add": 4018,
      "Ġmach": 4019,
      "Ġmarriage": 4020,
      "light": 4021,
      "Ġfort": 4022,
      "ĠJersey": 4023,
      "ali": 4024,
      "Ġsource": 4025,
      "ĠScotland": 4026,
      "ador": 4027,
      "elopment": 4028,
      "lit": 4029,
      "Ġdespite": 4030,
      "Ġsociety": 4031,
      "Ġexperience": 4032,
      "Ġtheory": 4033,
      "Ġhistorical": 4034,
      "Ġcitiz": 4035,
      "Ġarrived": 4036,
      "Ġ1969": 4037,
      "Ġpra": 4038,
      "Ġtransferred": 4039,
      "ĠJud": 4040,
      "Ġlabel": 4041,
      "Ġtemper": 4042,
      "aters": 4043,
      "Ġbrief": 4044,
      "Ġmale": 4045,
      "Ġuses": 4046,
      "Ġpoor": 4047,
      "Ġ180": 4048,
      "ĠMcC": 4049,
      "Ġpeak": 4050,
      "Ġbridge": 4051,
      "ĠSer": 4052,
      "ĠHealth": 4053,
      "Ġfellow": 4054,
      "ĠDutch": 4055,
      "Ġparticipated": 4056,
      "Ġcontinu": 4057,
      "reater": 4058,
      "ĠGal": 4059,
      "ĠRo": 4060,
      "va": 4061,
      "ĠLord": 4062,
      "Ġalongside": 4063,
      "ously": 4064,
      "irit": 4065,
      "Ġbring": 4066,
      "Ġturned": 4067,
      "ĠEastern": 4068,
      "Ġdeep": 4069,
      "ias": 4070,
      "Ġhere": 4071,
      "ĠMo": 4072,
      ".)": 4073,
      "Ġdemon": 4074,
      "Ġpil": 4075,
      "ĠLine": 4076,
      "Ġpartn": 4077,
      "Ġmem": 4078,
      "Ġserve": 4079,
      "Ġconditions": 4080,
      "Ġcrew": 4081,
      "ĠBow": 4082,
      "ares": 4083,
      "Ġbasketball": 4084,
      "ĠMah": 4085,
      "ĠGovernor": 4086,
      "Ġrecords": 4087,
      "emic": 4088,
      "eek": 4089,
      "ify": 4090,
      "ental": 4091,
      "Ġinfluence": 4092,
      "Ġappearances": 4093,
      "Ġissued": 4094,
      "erry": 4095,
      "ĠÂ£": 4096,
      "Ġhouses": 4097,
      "Ġdone": 4098,
      "ĠCro": 4099,
      "Ġalways": 4100,
      "ĠTri": 4101,
      "ĠGen": 4102,
      "Ã§": 4103,
      "Ġheavy": 4104,
      "ĠInf": 4105,
      "Ġmeaning": 4106,
      "Ġinteg": 4107,
      "American": 4108,
      "Ð»": 4109,
      "ĠUnder": 4110,
      "ĠBoston": 4111,
      "ĠOut": 4112,
      "ĠLatin": 4113,
      "Ġmanaged": 4114,
      "Ġborder": 4115,
      "apers": 4116,
      "Ġ1967": 4117,
      "AS": 4118,
      "uries": 4119,
      "Ġresponsible": 4120,
      "ĠLife": 4121,
      "antry": 4122,
      "ko": 4123,
      "Ġacadem": 4124,
      "ugby": 4125,
      "Ġaffect": 4126,
      "ĠEdward": 4127,
      "Ġextended": 4128,
      "ĠHel": 4129,
      "Ġprovides": 4130,
      "All": 4131,
      "Ġbomb": 4132,
      "bit": 4133,
      "Ġrequire": 4134,
      "chen": 4135,
      "Ġorganiz": 4136,
      "Ġplans": 4137,
      "ttp": 4138,
      "esh": 4139,
      "ging": 4140,
      "ĠFoundation": 4141,
      "Ġlikely": 4142,
      "ĠLong": 4143,
      "book": 4144,
      "ĠMain": 4145,
      "Ġmight": 4146,
      "ĠBBC": 4147,
      "Å¡": 4148,
      "ĠLee": 4149,
      "Ġlog": 4150,
      "Ġdise": 4151,
      "ĠJim": 4152,
      "play": 4153,
      "Ġasked": 4154,
      "aria": 4155,
      "ĠTheatre": 4156,
      "Ġyouth": 4157,
      "Ġships": 4158,
      "umed": 4159,
      "Ġshoot": 4160,
      "ervation": 4161,
      "Ġfinally": 4162,
      "Ġoperation": 4163,
      "Ġcultural": 4164,
      "ounts": 4165,
      "Ġcapac": 4166,
      "Ġface": 4167,
      "mission": 4168,
      "Ġnearby": 4169,
      "Ġmerg": 4170,
      "Ġcandidate": 4171,
      "sylvania": 4172,
      "Ġcomment": 4173,
      "ĠDirector": 4174,
      "Ġrecent": 4175,
      "Ġarticle": 4176,
      "Ġconstructed": 4177,
      "Ġsaying": 4178,
      "Ġ/": 4179,
      "Ġpasseng": 4180,
      "Ġdecla": 4181,
      "Ġnearly": 4182,
      "je": 4183,
      "ĠPrem": 4184,
      "ĠDou": 4185,
      "Ġtold": 4186,
      "war": 4187,
      "ĠSund": 4188,
      "Ġappears": 4189,
      "itude": 4190,
      "Ġlink": 4191,
      "ny": 4192,
      "een": 4193,
      "ĠYoung": 4194,
      "Ġpremi": 4195,
      "ansas": 4196,
      "ĠMot": 4197,
      "ĠBre": 4198,
      "Ġdiscovered": 4199,
      "ĠCoast": 4200,
      "ĠTeam": 4201,
      "Ġeas": 4202,
      "iant": 4203,
      "IS": 4204,
      "Ġincreasing": 4205,
      "Ġ1964": 4206,
      "Ġtracks": 4207,
      "Ġonline": 4208,
      "uts": 4209,
      "Ġhonor": 4210,
      "igr": 4211,
      "Ġprin": 4212,
      "Ġproducer": 4213,
      "uten": 4214,
      "ĠBroad": 4215,
      "yan": 4216,
      "ĠCle": 4217,
      "Ġmuseum": 4218,
      "Ġleave": 4219,
      "New": 4220,
      "vement": 4221,
      "cean": 4222,
      "ĠLibrary": 4223,
      "Ġenough": 4224,
      "abeth": 4225,
      "Ġexpla": 4226,
      "poration": 4227,
      "oura": 4228,
      "Ġprovince": 4229,
      "Ġnewspaper": 4230,
      "Ġpick": 4231,
      "Ġwanted": 4232,
      "Ġmakes": 4233,
      "Ġour": 4234,
      "cont": 4235,
      "ricket": 4236,
      "ora": 4237,
      "aya": 4238,
      "Ġproblems": 4239,
      "ĠMany": 4240,
      "gypt": 4241,
      "resp": 4242,
      "ĠSenate": 4243,
      "Ġdepend": 4244,
      "ĠPennsylvania": 4245,
      "ffic": 4246,
      "ĠSat": 4247,
      "Ġcovered": 4248,
      "ĠPortug": 4249,
      "rison": 4250,
      "Ġdirectly": 4251,
      "Ġtechnology": 4252,
      "itted": 4253,
      "adel": 4254,
      "Ġdefeat": 4255,
      "Ġmechan": 4256,
      "Ġult": 4257,
      "33": 4258,
      "ĠMiddle": 4259,
      "dney": 4260,
      "undred": 4261,
      "Ġnecess": 4262,
      "aka": 4263,
      "Ġconcept": 4264,
      "bar": 4265,
      "ĠBh": 4266,
      "Ġprimarily": 4267,
      "ĠMore": 4268,
      "ube": 4269,
      "Ġsn": 4270,
      "Ġpsych": 4271,
      "Ġoil": 4272,
      "irmed": 4273,
      "Ġcause": 4274,
      "da": 4275,
      "iano": 4276,
      "Ġresidents": 4277,
      "rac": 4278,
      "ng": 4279,
      "ĠCentre": 4280,
      "ĠFrancisco": 4281,
      "Ġprop": 4282,
      "ittle": 4283,
      "Ġ1965": 4284,
      "When": 4285,
      "Ġdouble": 4286,
      "Ġincorpor": 4287,
      "ĠRou": 4288,
      "iga": 4289,
      "ĠSystem": 4290,
      "Ġfirm": 4291,
      "Ġofficially": 4292,
      "unction": 4293,
      "ulations": 4294,
      "ensity": 4295,
      "class": 4296,
      "ĠIslam": 4297,
      "ĠTro": 4298,
      "rice": 4299,
      "ĠJo": 4300,
      "Ġparish": 4301,
      "Ġcorn": 4302,
      "ĠPhilipp": 4303,
      "inem": 4304,
      "His": 4305,
      "Ġelements": 4306,
      "ening": 4307,
      "Ã±": 4308,
      "Ġhouseholds": 4309,
      "ima": 4310,
      "Ġpaper": 4311,
      "Ġgrew": 4312,
      "Ġmaster": 4313,
      "ela": 4314,
      "Ġnature": 4315,
      "ĠâĢĶ": 4316,
      "Ġ1944": 4317,
      "Ġcities": 4318,
      "aped": 4319,
      "Ġbrand": 4320,
      "Ġprogress": 4321,
      "Ġrural": 4322,
      "ĠJul": 4323,
      "Ġconducted": 4324,
      "osoph": 4325,
      "Ġaddress": 4326,
      "Ġlevels": 4327,
      "orning": 4328,
      "ĠGh": 4329,
      "Ġinh": 4330,
      "Le": 4331,
      "king": 4332,
      "ĠEst": 4333,
      "Ġdomin": 4334,
      "ĠAre": 4335,
      "cend": 4336,
      "ĠIf": 4337,
      "ĠUr": 4338,
      "Ġ1966": 4339,
      "Ġwhole": 4340,
      "BS": 4341,
      "Ġneighbor": 4342,
      "ĠPoland": 4343,
      "Ġaim": 4344,
      "Ġrenamed": 4345,
      "ĠBi": 4346,
      "ips": 4347,
      "Ġchem": 4348,
      "no": 4349,
      "ĠDis": 4350,
      "Ġmovie": 4351,
      "ĠAsian": 4352,
      "ĠCreek": 4353,
      "Ġsla": 4354,
      "Ġdisplay": 4355,
      "75": 4356,
      "cepted": 4357,
      "Ġletter": 4358,
      "pla": 4359,
      "Ġess": 4360,
      "ĠHy": 4361,
      "Ġbr": 4362,
      "illed": 4363,
      "ĠHung": 4364,
      "ĠKent": 4365,
      "Ġaccessed": 4366,
      "peror": 4367,
      "more": 4368,
      "ĠAsia": 4369,
      "TA": 4370,
      "Ġwhether": 4371,
      "ications": 4372,
      "Ġofficers": 4373,
      "ounds": 4374,
      "struction": 4375,
      "Ġlives": 4376,
      "ĠOver": 4377,
      "Ġpositive": 4378,
      "ption": 4379,
      "Ġproducts": 4380,
      "ĠBerlin": 4381,
      "ĠGall": 4382,
      "ĠSecretary": 4383,
      "phy": 4384,
      "Ġadministrative": 4385,
      "ĠFederal": 4386,
      "Ġinitial": 4387,
      "ĠMen": 4388,
      "ira": 4389,
      "Ġhar": 4390,
      "stein": 4391,
      "Ġexecutive": 4392,
      "ĠRam": 4393,
      "ski": 4394,
      "ja": 4395,
      "rance": 4396,
      "Ġpath": 4397,
      "ĠEgypt": 4398,
      "ĠMichigan": 4399,
      "Ġfoot": 4400,
      "isters": 4401,
      "ocated": 4402,
      "Ġheadqu": 4403,
      "ĠSea": 4404,
      "Ġpan": 4405,
      "ĠAz": 4406,
      "ĠAccessed": 4407,
      "ederation": 4408,
      "Ġheart": 4409,
      "Ġassistant": 4410,
      "sen": 4411,
      "ellig": 4412,
      "portun": 4413,
      "Ġimpact": 4414,
      "ĠStan": 4415,
      "Ġactor": 4416,
      "onic": 4417,
      "Ġworkers": 4418,
      "win": 4419,
      "tainment": 4420,
      "Ġconver": 4421,
      "akers": 4422,
      "ĠLuc": 4423,
      "icted": 4424,
      "Ġordered": 4425,
      "law": 4426,
      "Ġspeed": 4427,
      "ĠFollowing": 4428,
      "Ġplanned": 4429,
      "Ġrevealed": 4430,
      "Ġdrug": 4431,
      "Ġshare": 4432,
      "onto": 4433,
      "Ġspread": 4434,
      "ĠOs": 4435,
      "Ġlif": 4436,
      "Ġvalue": 4437,
      "ĠSydney": 4438,
      "ĠColumbia": 4439,
      "ogue": 4440,
      "ĠBoth": 4441,
      "Ġidea": 4442,
      "ĠCharl": 4443,
      "Ġprominent": 4444,
      "ĠSong": 4445,
      "umber": 4446,
      "get": 4447,
      "Ġcontinue": 4448,
      "Ġsoldiers": 4449,
      "ĠEngine": 4450,
      "Ġnumbers": 4451,
      "Ġremoved": 4452,
      "Ġconfl": 4453,
      "ĠCr": 4454,
      "Ġfollows": 4455,
      "ĠTop": 4456,
      "Ġfriends": 4457,
      "36": 4458,
      "town": 4459,
      "ĠScottish": 4460,
      "Ġdivided": 4461,
      "ampions": 4462,
      "ĠOhio": 4463,
      "ully": 4464,
      "Ġ36": 4465,
      "ĠPrince": 4466,
      "ĠWilliams": 4467,
      "astic": 4468,
      "ech": 4469,
      "Ġwithd": 4470,
      "Ġdead": 4471,
      "ila": 4472,
      "ĠBal": 4473,
      "Ġpow": 4474,
      "Ġnation": 4475,
      "Ġnotable": 4476,
      "Ġdark": 4477,
      "ĠSo": 4478,
      "ieuten": 4479,
      "amily": 4480,
      "ĠVer": 4481,
      "omer": 4482,
      "Ġprojects": 4483,
      "Ġpotential": 4484,
      "Ġlaws": 4485,
      "Ġintended": 4486,
      "akh": 4487,
      "ĠJones": 4488,
      "ĠStation": 4489,
      "Ġx": 4490,
      "ources": 4491,
      "Ġreason": 4492,
      "li": 4493,
      "ĠPolish": 4494,
      "ĠMinistry": 4495,
      "Ġsal": 4496,
      "Ġtouch": 4497,
      "Ġproduce": 4498,
      "ĠPop": 4499,
      "Ġovers": 4500,
      "38": 4501,
      "Ġbasis": 4502,
      "iated": 4503,
      "mann": 4504,
      "ĠBob": 4505,
      "ek": 4506,
      "ĠOpen": 4507,
      "chester": 4508,
      "ĠSol": 4509,
      "mir": 4510,
      "ĠCross": 4511,
      "icient": 4512,
      "aging": 4513,
      "Ġstars": 4514,
      "ried": 4515,
      "Ġassigned": 4516,
      "ĠCorps": 4517,
      "Ġcollect": 4518,
      "reng": 4519,
      "Ġ80": 4520,
      "ĠGuard": 4521,
      "yard": 4522,
      "Ġunivers": 4523,
      "Ġkind": 4524,
      "Ġgrowth": 4525,
      "ĠMu": 4526,
      "Ġcapacity": 4527,
      "nam": 4528,
      "stone": 4529,
      "ĠOk": 4530,
      "ĠLy": 4531,
      "ĠJac": 4532,
      "rate": 4533,
      "Ġstories": 4534,
      "ĠMid": 4535,
      "Ġdedicated": 4536,
      "Ġminister": 4537,
      "can": 4538,
      "rif": 4539,
      "ĠDi": 4540,
      "Ġ1942": 4541,
      "Ġrespectively": 4542,
      "ĠÅ": 4543,
      "ĠDevelopment": 4544,
      "Ġfemales": 4545,
      "Ġsmaller": 4546,
      "ione": 4547,
      "enge": 4548,
      "Ġrule": 4549,
      "ounded": 4550,
      "Ġmoving": 4551,
      "Ġsecurity": 4552,
      "Ġpurs": 4553,
      "ĠKar": 4554,
      "Ġstrateg": 4555,
      "Ġamount": 4556,
      "Ġang": 4557,
      "Ġhighly": 4558,
      "ĠJohnson": 4559,
      "ĠEliz": 4560,
      "Ġfloor": 4561,
      "Ġmaintain": 4562,
      "inger": 4563,
      "Ġforward": 4564,
      "ĠVan": 4565,
      "Ġquickly": 4566,
      "AC": 4567,
      "ĠHospital": 4568,
      "ennis": 4569,
      "Ġreform": 4570,
      "dro": 4571,
      "Ġpurchased": 4572,
      "Ġautom": 4573,
      "edd": 4574,
      "Ġtreatment": 4575,
      "ieutenant": 4576,
      "Ġ1963": 4577,
      "Ġfootballer": 4578,
      "Ġefforts": 4579,
      "Ġscene": 4580,
      "Ġpositions": 4581,
      "emet": 4582,
      "oud": 4583,
      "Ġadministration": 4584,
      "ĠSand": 4585,
      "Ġyet": 4586,
      "Ġ1962": 4587,
      "ĠTem": 4588,
      "Ġterritory": 4589,
      "ĠGeorgia": 4590,
      "respond": 4591,
      "ez": 4592,
      "Ġ1948": 4593,
      "Ġdyn": 4594,
      "Ġwinner": 4595,
      "Ġimplement": 4596,
      "Ġtitled": 4597,
      "34": 4598,
      "ĠOrder": 4599,
      "etts": 4600,
      "Ġimmediately": 4601,
      "ĠAvenue": 4602,
      "Ġtal": 4603,
      "ES": 4604,
      "alle": 4605,
      "Ġupper": 4606,
      "ĠFC": 4607,
      "ronic": 4608,
      "Ġraces": 4609,
      "ĠTy": 4610,
      "Ġancient": 4611,
      "Ġmunicipal": 4612,
      "Ġsail": 4613,
      "irds": 4614,
      "Ġbranch": 4615,
      "ilding": 4616,
      "ĠBang": 4617,
      "Ġ1941": 4618,
      "Ġvotes": 4619,
      "Ġhistoric": 4620,
      "ella": 4621,
      "isher": 4622,
      "inois": 4623,
      "yer": 4624,
      "Ġsingles": 4625,
      "istered": 4626,
      "ĠKong": 4627,
      "Ġvac": 4628,
      "Ġrecover": 4629,
      "anks": 4630,
      "Ġparliament": 4631,
      "Ġcle": 4632,
      "Ġ70": 4633,
      "Ġrepe": 4634,
      "Ġopportun": 4635,
      "ĠMajor": 4636,
      "ĠTim": 4637,
      "ĠBC": 4638,
      "Ġsolo": 4639,
      "uer": 4640,
      "Ġagricult": 4641,
      "gend": 4642,
      "Ġinside": 4643,
      "Ġquestion": 4644,
      "hew": 4645,
      "ĠEarth": 4646,
      "ĠTre": 4647,
      "zy": 4648,
      "Ġagreed": 4649,
      "lab": 4650,
      "Ġsemi": 4651,
      "Ġeffects": 4652,
      "Ã¡n": 4653,
      "ĠMatt": 4654,
      "ĠMuslim": 4655,
      "ĠGar": 4656,
      "Ġwords": 4657,
      "ĠCy": 4658,
      "Ġcompared": 4659,
      "nic": 4660,
      "Ġgas": 4661,
      "vis": 4662,
      "itled": 4663,
      "Ġsettlement": 4664,
      "agement": 4665,
      "Ġfeaturing": 4666,
      "Ġconference": 4667,
      "greg": 4668,
      "Ġchampion": 4669,
      "stitution": 4670,
      "ĠCult": 4671,
      "ĠJr": 4672,
      "ograp": 4673,
      "ĠStep": 4674,
      "Ġfocus": 4675,
      "thing": 4676,
      "Ġcerem": 4677,
      "Ġleaves": 4678,
      "37": 4679,
      "Ġdeclared": 4680,
      "ĠOlympic": 4681,
      "Ġchannel": 4682,
      "Ġactivity": 4683,
      "Ġstreet": 4684,
      "195": 4685,
      "with": 4686,
      "Ġcounter": 4687,
      "Ġorganized": 4688,
      "Ġfavor": 4689,
      "Ġcontact": 4690,
      "Ġ|": 4691,
      "Ġprotect": 4692,
      "aces": 4693,
      "Ġ90": 4694,
      "oration": 4695,
      "Ġ179": 4696,
      "ĠStat": 4697,
      "39": 4698,
      "Ġbehav": 4699,
      "ĠField": 4700,
      "Ġgreen": 4701,
      "John": 4702,
      "eld": 4703,
      "ÅĤ": 4704,
      "ĠLove": 4705,
      "Ġdirection": 4706,
      "Ġuns": 4707,
      "Ġwor": 4708,
      "Ġgained": 4709,
      "ĠViet": 4710,
      "ĠOtt": 4711,
      "icine": 4712,
      "ĠRel": 4713,
      "Ġcommonly": 4714,
      "47": 4715,
      "ĠCE": 4716,
      "Ġattention": 4717,
      "Ġreach": 4718,
      "ii": 4719,
      "Ġstra": 4720,
      "Ġperman": 4721,
      "izes": 4722,
      "48": 4723,
      "Ġestimated": 4724,
      "Ġcharge": 4725,
      "ulpt": 4726,
      "Ġdrama": 4727,
      "ĠEnter": 4728,
      "andon": 4729,
      "Ġstore": 4730,
      "ĠTam": 4731,
      "Ġconne": 4732,
      "Ġagreement": 4733,
      "Ġ1943": 4734,
      "ĠAk": 4735,
      "Ġ1939": 4736,
      "ĠShow": 4737,
      "ancy": 4738,
      "urt": 4739,
      "Ġsources": 4740,
      "Ġconfirmed": 4741,
      "Ġ1946": 4742,
      "ĠWater": 4743,
      "ĠHistoric": 4744,
      "By": 4745,
      "bed": 4746,
      "Ġtable": 4747,
      "ĠDespite": 4748,
      "emy": 4749,
      "achus": 4750,
      "Ġplaces": 4751,
      "ĠHong": 4752,
      "ropol": 4753,
      "ĠArgent": 4754,
      "Ġreviews": 4755,
      "ĠBern": 4756,
      "ĠSports": 4757,
      "ĠWind": 4758,
      "ĠFer": 4759,
      "wick": 4760,
      "Ġelev": 4761,
      "Ġdestroyed": 4762,
      "ĠOffic": 4763,
      "Ġfeel": 4764,
      "ĠOf": 4765,
      "Ġsuffered": 4766,
      "ĠBrook": 4767,
      "Ġneeded": 4768,
      "ĠSerb": 4769,
      "obile": 4770,
      "Ġclubs": 4771,
      "Ġgiving": 4772,
      "ropical": 4773,
      "Ġroles": 4774,
      "Ġlies": 4775,
      "Ġscholar": 4776,
      "ova": 4777,
      "Ġextra": 4778,
      "Ġ1961": 4779,
      "Ġaccepted": 4780,
      "worth": 4781,
      "Ġsilver": 4782,
      "Ġleaders": 4783,
      "ronze": 4784,
      "mad": 4785,
      "Ġamb": 4786,
      "ĠUnivers": 4787,
      "ĠFour": 4788,
      "Ġhousing": 4789,
      "Ġstone": 4790,
      "Ġoccurred": 4791,
      "ĠIllinois": 4792,
      "uting": 4793,
      "ĠJes": 4794,
      "31": 4795,
      "ĠBlue": 4796,
      "perial": 4797,
      "Ġfacilities": 4798,
      "enes": 4799,
      "aug": 4800,
      "ĠFar": 4801,
      "Ġmedian": 4802,
      "Ġphysical": 4803,
      "ĠRome": 4804,
      "ĠPen": 4805,
      "Ġadopted": 4806,
      "Ġlargely": 4807,
      "Ġgain": 4808,
      "duce": 4809,
      "onom": 4810,
      "ĠCard": 4811,
      "orough": 4812,
      "iest": 4813,
      "set": 4814,
      "Ġapproach": 4815,
      "Ġfa": 4816,
      "Ġhosted": 4817,
      "ĠDie": 4818,
      "',": 4819,
      "ĠSupreme": 4820,
      "Ġnuc": 4821,
      "hens": 4822,
      "Ġtrial": 4823,
      "Ġbeat": 4824,
      "Ġunion": 4825,
      "ĠJackson": 4826,
      "Ġestate": 4827,
      "Ġ32": 4828,
      "ĠGood": 4829,
      "Ġthink": 4830,
      "Ġcab": 4831,
      "ĠToronto": 4832,
      "onia": 4833,
      "Ġelectric": 4834,
      "grad": 4835,
      "ĠReview": 4836,
      "ĠStr": 4837,
      "ĠIndepend": 4838,
      "Ġconclud": 4839,
      "ĠAsh": 4840,
      "resh": 4841,
      "oral": 4842,
      "ĠChap": 4843,
      "Ġut": 4844,
      "Ġcard": 4845,
      "ĠJustice": 4846,
      "Ġ1956": 4847,
      "Ġpet": 4848,
      "49": 4849,
      "ĠMas": 4850,
      "Ġawards": 4851,
      "Ġcommittee": 4852,
      "edom": 4853,
      "ĠMax": 4854,
      "AR": 4855,
      "Ġcomes": 4856,
      "ishes": 4857,
      "ĠWild": 4858,
      "Ġresulted": 4859,
      "Ġcaptured": 4860,
      "ĠCorporation": 4861,
      "Ġwidely": 4862,
      "Ġtarget": 4863,
      "Ġconsec": 4864,
      "Ġtypes": 4865,
      "Ġmax": 4866,
      "Ġcommunities": 4867,
      "riz": 4868,
      "rical": 4869,
      "ĠRegister": 4870,
      "nes": 4871,
      "Ġmurder": 4872,
      "ĠVictoria": 4873,
      "illy": 4874,
      "Ġretire": 4875,
      "ĠAndrew": 4876,
      "Ġrare": 4877,
      "Ġtypically": 4878,
      "Ġprobably": 4879,
      "math": 4880,
      "achusetts": 4881,
      "oles": 4882,
      "han": 4883,
      "Ġproblem": 4884,
      "ĠKenn": 4885,
      "Ġacting": 4886,
      "Ġconstitu": 4887,
      "EC": 4888,
      "ĠUl": 4889,
      "Ġweap": 4890,
      "Ġslow": 4891,
      "ĠPubl": 4892,
      "Ġstreng": 4893,
      "ĠHead": 4894,
      "ker": 4895,
      "iat": 4896,
      "Ġacademic": 4897,
      "FC": 4898,
      "Ġhundred": 4899,
      "Ġsplit": 4900,
      "ĠAlexander": 4901,
      "Ġoperating": 4902,
      "ĠCorn": 4903,
      "cles": 4904,
      "ĠAff": 4905,
      "Ġthr": 4906,
      "Ġ1947": 4907,
      "text": 4908,
      "Ġserves": 4909,
      "Ġleadership": 4910,
      "ĠMount": 4911,
      "thur": 4912,
      "fort": 4913,
      "ĠFI": 4914,
      "Ġability": 4915,
      "Ġpit": 4916,
      "Ġsevent": 4917,
      "Ġcoal": 4918,
      "Ġpresence": 4919,
      "Ġice": 4920,
      "Ġrat": 4921,
      "ĠQueens": 4922,
      "Ġtaught": 4923,
      "ĠElizabeth": 4924,
      "Ad": 4925,
      "ender": 4926,
      "aly": 4927,
      "Ġcoming": 4928,
      "Ġblood": 4929,
      "osen": 4930,
      "amin": 4931,
      "het": 4932,
      "Ġvon": 4933,
      "Ġsymb": 4934,
      "Ġlin": 4935,
      "500": 4936,
      "ĠTod": 4937,
      "46": 4938,
      "inity": 4939,
      "ĠKorea": 4940,
      "Ġcombined": 4941,
      "Ġgovernor": 4942,
      "With": 4943,
      "ga": 4944,
      "Ġalbums": 4945,
      "ĠAdd": 4946,
      "ologist": 4947,
      "adelph": 4948,
      "Ã¸": 4949,
      "Ġcoin": 4950,
      "Ġnewly": 4951,
      "Ġcat": 4952,
      "orter": 4953,
      "ĠKen": 4954,
      "Ġrecognized": 4955,
      "ĠDet": 4956,
      "ĠEll": 4957,
      "miss": 4958,
      "Ġrecon": 4959,
      "Ġpal": 4960,
      "rics": 4961,
      "Ġidentified": 4962,
      "ĠJean": 4963,
      "vest": 4964,
      "vey": 4965,
      "Ġformat": 4966,
      "Ġmixed": 4967,
      "Ġ1959": 4968,
      "ĠTime": 4969,
      "Ġcaptain": 4970,
      "Ġera": 4971,
      "emetery": 4972,
      "Ġnominated": 4973,
      "ĠMassachusetts": 4974,
      "bourne": 4975,
      "Ġ1958": 4976,
      "Ġexpanded": 4977,
      "bl": 4978,
      "Ġjoint": 4979,
      "Ġscoring": 4980,
      "ĠCat": 4981,
      "ctoral": 4982,
      "Ġvan": 4983,
      "Ġcorrespond": 4984,
      "Ġtherefore": 4985,
      "ĠEconom": 4986,
      "ĠMov": 4987,
      "ĠHind": 4988,
      "Ġdance": 4989,
      "ĠPrime": 4990,
      "uled": 4991,
      "Ġ38": 4992,
      "Ġquality": 4993,
      "Ġflight": 4994,
      "Ġwalk": 4995,
      "Ġcouple": 4996,
      "Ġyards": 4997,
      "Ġpeace": 4998,
      "Ġwa": 4999,
      "ĠIslands": 5000,
      "Ġ(;": 5001,
      "Ġly": 5002,
      "iate": 5003,
      "istance": 5004,
      "ression": 5005,
      "Ġsens": 5006,
      "Ġlosing": 5007,
      "range": 5008,
      "Ġowner": 5009,
      "ĠCop": 5010,
      "Ġflag": 5011,
      "Ġburied": 5012,
      "ĠRaj": 5013,
      "Ġrecently": 5014,
      "ivity": 5015,
      "Ġfell": 5016,
      "adelphia": 5017,
      "ommend": 5018,
      "Ġheav": 5019,
      "rence": 5020,
      "Ġconcent": 5021,
      "Ġpropos": 5022,
      "Ġresident": 5023,
      "Ġchairman": 5024,
      "ĠChild": 5025,
      "ĠRevolution": 5026,
      "Ġexpected": 5027,
      "Ġpainting": 5028,
      "Ġfr": 5029,
      "edia": 5030,
      "Ġmetal": 5031,
      "ĠVilla": 5032,
      "mas": 5033,
      "Ġplants": 5034,
      "Ġfast": 5035,
      "Ġseats": 5036,
      "Ġabandon": 5037,
      "olved": 5038,
      "pre": 5039,
      "ĠProgram": 5040,
      "Ġparties": 5041,
      "Ġoffers": 5042,
      "ographic": 5043,
      "Ġfelt": 5044,
      "ĠBrig": 5045,
      "Ġelim": 5046,
      "100": 5047,
      "ĠRepresent": 5048,
      "Ġreduced": 5049,
      "ĠEp": 5050,
      "Ġcritical": 5051,
      "ĠAnton": 5052,
      "ĠJer": 5053,
      "ĠCa": 5054,
      "Ġmentioned": 5055,
      "Ġlabor": 5056,
      "Ġ1957": 5057,
      "amber": 5058,
      "Ġequipment": 5059,
      "ĠWay": 5060,
      "Ġteacher": 5061,
      "US": 5062,
      "Ġsu": 5063,
      "aylor": 5064,
      "estic": 5065,
      "Ġgranted": 5066,
      "pass": 5067,
      "ctors": 5068,
      "ĠUSA": 5069,
      "Pro": 5070,
      "Ġlanguages": 5071,
      "Ġmill": 5072,
      "ĠRay": 5073,
      "Ġdistance": 5074,
      "inson": 5075,
      "Ġrules": 5076,
      "Ġvoice": 5077,
      "Ġcontrovers": 5078,
      "Ġurban": 5079,
      "ĠHor": 5080,
      "MS": 5081,
      "ouri": 5082,
      "Ġcomputer": 5083,
      "put": 5084,
      "Ġstream": 5085,
      "ĠLim": 5086,
      "yal": 5087,
      "Ġaffili": 5088,
      "ĠBa": 5089,
      "ĠInt": 5090,
      "ĠGame": 5091,
      "Ġmiles": 5092,
      "water": 5093,
      "Ġindustrial": 5094,
      "itness": 5095,
      "ĠProfessor": 5096,
      "Ġperformances": 5097,
      "Ġdistribution": 5098,
      "Ġobtained": 5099,
      "igen": 5100,
      "Ġcontest": 5101,
      "Ġranked": 5102,
      "wing": 5103,
      "ĠLittle": 5104,
      "Ġstrugg": 5105,
      "Ġtend": 5106,
      "ĠAthlet": 5107,
      "ĠLev": 5108,
      "Ġdia": 5109,
      "Ġtwice": 5110,
      "ecause": 5111,
      "ĠNations": 5112,
      "Ġpressure": 5113,
      "Ã©e": 5114,
      "gs": 5115,
      "ĠBridge": 5116,
      "Ġsquare": 5117,
      "encies": 5118,
      "alion": 5119,
      "Ġprovin": 5120,
      "Ġ37": 5121,
      "Ġ1952": 5122,
      "Ġfinish": 5123,
      "MA": 5124,
      "ĠCambridge": 5125,
      "Ġ44": 5126,
      "raine": 5127,
      "Ġdistinct": 5128,
      "Ġstre": 5129,
      "ules": 5130,
      "Ġcontent": 5131,
      "ĠStadium": 5132,
      "ĠConf": 5133,
      "Ġbad": 5134,
      "Ġresulting": 5135,
      "sex": 5136,
      "Ġir": 5137,
      "ĠHome": 5138,
      "Ġsuggested": 5139,
      "Ġliterature": 5140,
      "ibly": 5141,
      "ulty": 5142,
      "Ġsales": 5143,
      "Ġshowed": 5144,
      "ĠPakistan": 5145,
      "ĠPhiladelphia": 5146,
      "Ġdamage": 5147,
      "urer": 5148,
      "ĠMedia": 5149,
      "ĠBillboard": 5150,
      "Ġprep": 5151,
      "Ġcars": 5152,
      "Ġ(,": 5153,
      "ighter": 5154,
      "Ġsays": 5155,
      "ĠEs": 5156,
      "ĠNether": 5157,
      "Ġcontemporary": 5158,
      "Ġsexual": 5159,
      "Ġdigital": 5160,
      "ĠKe": 5161,
      "Ġcontroll": 5162,
      "outheast": 5163,
      "Ġ1955": 5164,
      "Ġpaint": 5165,
      "ĠSwedish": 5166,
      "Ġspons": 5167,
      "ĠWeek": 5168,
      "unte": 5169,
      "Sc": 5170,
      "Ġfigure": 5171,
      "Ġcondition": 5172,
      "Ġtitles": 5173,
      "Ġrecommend": 5174,
      "Ġofficials": 5175,
      "ĠJeff": 5176,
      "Ġ1949": 5177,
      "Ġpaid": 5178,
      "Ġvess": 5179,
      "hemat": 5180,
      "ĠLi": 5181,
      "Ġepisodes": 5182,
      "Ġthous": 5183,
      "Ġinjury": 5184,
      "which": 5185,
      "ĠâĢĺ": 5186,
      "Ġanalysis": 5187,
      "Ġserious": 5188,
      "Ġkept": 5189,
      "Ġfix": 5190,
      "Ġinform": 5191,
      "Ġcreation": 5192,
      "Ġformation": 5193,
      "CO": 5194,
      "Ġwing": 5195,
      "Ġdisease": 5196,
      "ĠSpecial": 5197,
      "Ġloan": 5198,
      "ĠNetwork": 5199,
      "ervative": 5200,
      "Ġsurrounding": 5201,
      "Ġmotor": 5202,
      "Ġwild": 5203,
      "32": 5204,
      "Ġauthorities": 5205,
      "Ġsearch": 5206,
      "ĠAlso": 5207,
      "Ġarrested": 5208,
      "ĠHuman": 5209,
      "Ġmodels": 5210,
      "ething": 5211,
      "Ġproviding": 5212,
      "ji": 5213,
      "ĠPolice": 5214,
      "una": 5215,
      "Ġcolumn": 5216,
      "Ġillust": 5217,
      "iser": 5218,
      "Ġmess": 5219,
      "Ġsecondary": 5220,
      "Ġpattern": 5221,
      "oty": 5222,
      "ĠDaniel": 5223,
      "ĠClark": 5224,
      "Ġcells": 5225,
      "Ġdoub": 5226,
      "Ġnort": 5227,
      "Ġspring": 5228,
      "Ġassociation": 5229,
      "Ġorganizations": 5230,
      "agon": 5231,
      "ricts": 5232,
      "load": 5233,
      "ĠLew": 5234,
      "ager": 5235,
      "ĠAtlantic": 5236,
      "Ġcampus": 5237,
      "sky": 5238,
      "ĠDar": 5239,
      "Ġcontinues": 5240,
      "ansion": 5241,
      "ĠDun": 5242,
      "à¸": 5243,
      "ba": 5244,
      "Ġ34": 5245,
      "Ġsculpt": 5246,
      "Ġ1954": 5247,
      "Ġcomedy": 5248,
      "ĠPremier": 5249,
      "ĠMir": 5250,
      "eller": 5251,
      "ĠCommon": 5252,
      "Ġmarked": 5253,
      "odies": 5254,
      "Ġtwenty": 5255,
      "ented": 5256,
      "nding": 5257,
      "Ġopposition": 5258,
      "Ġpack": 5259,
      "real": 5260,
      "ternet": 5261,
      "iling": 5262,
      "olid": 5263,
      "ĠRod": 5264,
      "IA": 5265,
      "Ġgrowing": 5266,
      "Ġreceive": 5267,
      "ancing": 5268,
      "pg": 5269,
      "ĠSanta": 5270,
      "Ġmales": 5271,
      "Ġslight": 5272,
      "nel": 5273,
      "ĠBishop": 5274,
      "ĠArm": 5275,
      "Ġ1953": 5276,
      "ĠRh": 5277,
      "Ġaccept": 5278,
      "Ġpict": 5279,
      "Ġdensity": 5280,
      "Ġknowledge": 5281,
      "ĠVen": 5282,
      "LA": 5283,
      "Ġsucceeded": 5284,
      "Ġ500": 5285,
      "ĠThree": 5286,
      "heim": 5287,
      "Ġwall": 5288,
      "Ġhop": 5289,
      "ighth": 5290,
      "ĠNaz": 5291,
      "Ġclaims": 5292,
      "PA": 5293,
      "Ġentry": 5294,
      "ĠSom": 5295,
      "ĠBol": 5296,
      "Ġdesignated": 5297,
      "ĠBusiness": 5298,
      "Ġbecomes": 5299,
      "Ġ)": 5300,
      "ĠAnt": 5301,
      "Ġteaching": 5302,
      "Ġgreater": 5303,
      "Ġcam": 5304,
      "ĠForest": 5305,
      "western": 5306,
      "orney": 5307,
      "One": 5308,
      "tario": 5309,
      "bs": 5310,
      "01": 5311,
      "ilton": 5312,
      "Ġboy": 5313,
      "gu": 5314,
      "ĠRoute": 5315,
      "Ġliber": 5316,
      "ttps": 5317,
      "Ġtried": 5318,
      "Ġcomplet": 5319,
      "eather": 5320,
      "Ġpun": 5321,
      "utional": 5322,
      "%)": 5323,
      "Ġlibrary": 5324,
      "Ġspot": 5325,
      "ĠBoy": 5326,
      "ĠLegisl": 5327,
      "Following": 5328,
      "ĠIndust": 5329,
      "ĠStudies": 5330,
      "elligence": 5331,
      "met": 5332,
      "Ġinstrument": 5333,
      "ĠUN": 5334,
      "iced": 5335,
      "ĠDuke": 5336,
      "ĠBell": 5337,
      "ennes": 5338,
      "Ġhall": 5339,
      "ĠBudd": 5340,
      "Ġlaunch": 5341,
      "Ġactress": 5342,
      "Ġpurpose": 5343,
      "Ġfestival": 5344,
      "Ġyounger": 5345,
      "ĠCas": 5346,
      "Ġfigures": 5347,
      "Ġheadquarters": 5348,
      "ection": 5349,
      "aling": 5350,
      "Ġblue": 5351,
      "Ġinspired": 5352,
      "ĠLes": 5353,
      "Ġ1918": 5354,
      "ĠNetherlands": 5355,
      "oren": 5356,
      "CAA": 5357,
      "Ġcommander": 5358,
      "Ġapplied": 5359,
      "osh": 5360,
      "ĠMarg": 5361,
      "Ġsites": 5362,
      "ĠHighway": 5363,
      "ĠRegiment": 5364,
      "ĠIra": 5365,
      "ĠPo": 5366,
      "ĠElect": 5367,
      "Ġchalleng": 5368,
      "Ġhabit": 5369,
      "bo": 5370,
      "ER": 5371,
      "ĠAnother": 5372,
      "ĠAdminist": 5373,
      "Ġsixth": 5374,
      "Ġactually": 5375,
      "ĠFle": 5376,
      "ĠBrad": 5377,
      "ables": 5378,
      "anta": 5379,
      "Ġbal": 5380,
      "ĠKir": 5381,
      "ĠBab": 5382,
      "Ġburn": 5383,
      "ĠKorean": 5384,
      "usion": 5385,
      "ĠRog": 5386,
      "Ġ1936": 5387,
      "ĠEnd": 5388,
      "Ġtrue": 5389,
      "Ġprof": 5390,
      "Ġsport": 5391,
      "itzer": 5392,
      "zech": 5393,
      "ĠPers": 5394,
      "Ġgives": 5395,
      "Ġtraffic": 5396,
      "Ġregions": 5397,
      "ĠAut": 5398,
      "Ġreturning": 5399,
      "ĠAirport": 5400,
      "ĠÎ": 5401,
      "Ġwear": 5402,
      "Ġsecret": 5403,
      "century": 5404,
      "ĠCastle": 5405,
      "imal": 5406,
      "ĠJoe": 5407,
      "ĠOrgan": 5408,
      "Ġ1951": 5409,
      "Ġcritics": 5410,
      "bro": 5411,
      "Ġ:": 5412,
      "Ġvisit": 5413,
      "ĠTal": 5414,
      "weight": 5415,
      "Ġbow": 5416,
      "occer": 5417,
      "Ġfacility": 5418,
      "Ġprec": 5419,
      "lers": 5420,
      "Ġsituated": 5421,
      "Ġconnected": 5422,
      "uate": 5423,
      "Ġalle": 5424,
      "Ġtrains": 5425,
      "rin": 5426,
      "Ġtower": 5427,
      "44": 5428,
      "ureau": 5429,
      "Ġextend": 5430,
      "ĠMaster": 5431,
      "Ġ1938": 5432,
      "ĠOntario": 5433,
      "yo": 5434,
      "Ġce": 5435,
      "Ġclimate": 5436,
      "Ġsupply": 5437,
      "Ġtim": 5438,
      "Ġfully": 5439,
      "uls": 5440,
      "Ġexperiment": 5441,
      "sey": 5442,
      "Ġtells": 5443,
      "Since": 5444,
      "riff": 5445,
      "ava": 5446,
      "Ġallowing": 5447,
      "Ġexisting": 5448,
      "Ġmeant": 5449,
      "Ġgovern": 5450,
      "erved": 5451,
      "Ġ39": 5452,
      "ĠBir": 5453,
      "Ġathlet": 5454,
      "85": 5455,
      "iary": 5456,
      "Ġunique": 5457,
      "osa": 5458,
      "ĠMun": 5459,
      "urd": 5460,
      "ĠWeb": 5461,
      "Ġalone": 5462,
      "orph": 5463,
      "Ġcert": 5464,
      "chestra": 5465,
      "Ġscientific": 5466,
      "Ġweight": 5467,
      "ucky": 5468,
      "Ġcompon": 5469,
      "ĠRegion": 5470,
      "Ġnarrow": 5471,
      "HL": 5472,
      "Ġvillages": 5473,
      "aven": 5474,
      "Ġsurvey": 5475,
      "pet": 5476,
      "Ġconcert": 5477,
      "Ġsituation": 5478,
      "Ġmom": 5479,
      "Ġpartner": 5480,
      "ĠSev": 5481,
      "kin": 5482,
      "Ġachieved": 5483,
      "Ġreports": 5484,
      "ĠAh": 5485,
      "Ġrisk": 5486,
      "Ġimage": 5487,
      "ĠDam": 5488,
      "Ġpolitics": 5489,
      "De": 5490,
      "Ġconflict": 5491,
      "Ã£": 5492,
      "room": 5493,
      "Ġrefused": 5494,
      "Ġattacks": 5495,
      "ĠTechnology": 5496,
      "Ġbill": 5497,
      "ĠSte": 5498,
      "Ġadvanced": 5499,
      "Ġcannot": 5500,
      "Ġfounder": 5501,
      "ĠBand": 5502,
      "Ġsuggest": 5503,
      "ĠTai": 5504,
      "Ġpromotion": 5505,
      "ĠFair": 5506,
      "ĠProject": 5507,
      "Ġshop": 5508,
      "aks": 5509,
      "Ġconsum": 5510,
      "Ġwant": 5511,
      "Ġec": 5512,
      "Ġsides": 5513,
      "Ġtree": 5514,
      "Ġbought": 5515,
      "Ġbrothers": 5516,
      "65": 5517,
      "ĠNight": 5518,
      "Ġfish": 5519,
      "ĠMagazine": 5520,
      "Ġpublication": 5521,
      "eral": 5522,
      "Ġpair": 5523,
      "Mar": 5524,
      "ĠForm": 5525,
      "Ġsons": 5526,
      "omot": 5527,
      "ĠCommunity": 5528,
      "bu": 5529,
      "ĠWilson": 5530,
      "uns": 5531,
      "Ġmaterials": 5532,
      "hedral": 5533,
      "Ġchosen": 5534,
      "ruit": 5535,
      "illery": 5536,
      "Ġvictim": 5537,
      "Ġvisited": 5538,
      "Ġ33": 5539,
      "ĠJunior": 5540,
      "Ġthir": 5541,
      "Ġdipl": 5542,
      "ropolitan": 5543,
      "ĠLt": 5544,
      "ĠIndones": 5545,
      "ashion": 5546,
      "aret": 5547,
      "ĠBad": 5548,
      "onym": 5549,
      "ĠSus": 5550,
      "vin": 5551,
      "kes": 5552,
      "gers": 5553,
      "Ġven": 5554,
      "Ġexam": 5555,
      "Ġple": 5556,
      "tra": 5557,
      "ĠTok": 5558,
      "Ġ64": 5559,
      "Ġspirit": 5560,
      "07": 5561,
      "Ġrelations": 5562,
      "ordin": 5563,
      "Ġconsisted": 5564,
      "Ġsuit": 5565,
      "ĠCub": 5566,
      "jpg": 5567,
      "ĠDa": 5568,
      "Ġapproved": 5569,
      "osophy": 5570,
      "ĠHan": 5571,
      "Ġsettled": 5572,
      "Ġmeasure": 5573,
      "Ġallows": 5574,
      "08": 5575,
      "Ġmicro": 5576,
      "lan": 5577,
      "Ġenj": 5578,
      "ĠMinn": 5579,
      "Ġcarri": 5580,
      "ĠHay": 5581,
      "everal": 5582,
      "Ġbronze": 5583,
      "Ġlot": 5584,
      "99": 5585,
      "Ġcompletely": 5586,
      "Ġdefined": 5587,
      "Ġnotes": 5588,
      "Ġportion": 5589,
      "ĠRac": 5590,
      "Be": 5591,
      "ĠTa": 5592,
      "Ġconduct": 5593,
      "Ġrain": 5594,
      "Ġrapid": 5595,
      "kh": 5596,
      "asty": 5597,
      "ois": 5598,
      "ĠMexican": 5599,
      "Ġ1919": 5600,
      "Ġbaseball": 5601,
      "Ġâ": 5602,
      "inners": 5603,
      "Ñĥ": 5604,
      "organ": 5605,
      "lyn": 5606,
      "ĠSab": 5607,
      "ĠColon": 5608,
      "Ġstock": 5609,
      "rie": 5610,
      "ĠCzech": 5611,
      "Ġroof": 5612,
      "Ġclasses": 5613,
      "ĠPower": 5614,
      "While": 5615,
      "ĠSciences": 5616,
      "left": 5617,
      "ĠDown": 5618,
      "Ġholds": 5619,
      "ĠGirl": 5620,
      "Ġmayor": 5621,
      "Ġdial": 5622,
      "ĠBatt": 5623,
      "Ġmagn": 5624,
      "Ġoldest": 5625,
      "Ph": 5626,
      "ifically": 5627,
      "IC": 5628,
      "ĠFederation": 5629,
      "Ġrestaur": 5630,
      "Ġ1937": 5631,
      "Ġproceed": 5632,
      "cow": 5633,
      "Ġcrim": 5634,
      "Ġreject": 5635,
      "Ġ+": 5636,
      "Ġaired": 5637,
      "Ġyellow": 5638,
      "Ġsubs": 5639,
      "fl": 5640,
      "Ġbegins": 5641,
      "ĠJon": 5642,
      "Cl": 5643,
      "Ġrelatively": 5644,
      "Ġsurn": 5645,
      "ĠCaptain": 5646,
      "Ġtheme": 5647,
      "ĠCirc": 5648,
      "05": 5649,
      "rec": 5650,
      "bi": 5651,
      "Ġfighting": 5652,
      "Ġfans": 5653,
      "athan": 5654,
      "09": 5655,
      "ĠSweden": 5656,
      "gian": 5657,
      "Ġunable": 5658,
      "Ġauthority": 5659,
      "Ġreference": 5660,
      "ĠCensus": 5661,
      "TC": 5662,
      "Ġsimply": 5663,
      "Ġroyal": 5664,
      "Ġgoes": 5665,
      "Ġcommissioned": 5666,
      "Ġattempted": 5667,
      "Ġreceiving": 5668,
      "ulate": 5669,
      "ĠReport": 5670,
      "Ãº": 5671,
      "Ġtalk": 5672,
      "Ġglobal": 5673,
      "Ġoccasion": 5674,
      "Ġthings": 5675,
      "Ġtemple": 5676,
      "Ġcreating": 5677,
      "Ġnecessary": 5678,
      "ĠKal": 5679,
      "erick": 5680,
      "SP": 5681,
      "ĠHu": 5682,
      "Ġcustom": 5683,
      "Ġsubsequent": 5684,
      "Ġprincipal": 5685,
      "ĠNic": 5686,
      "Â°": 5687,
      "Ġfeet": 5688,
      "Ġtheatre": 5689,
      "Ġgraph": 5690,
      "ĠLady": 5691,
      "ĠWel": 5692,
      "88": 5693,
      "ĠColor": 5694,
      "Ġportray": 5695,
      "eman": 5696,
      "Ġhands": 5697,
      "ains": 5698,
      "ĠTaylor": 5699,
      "mouth": 5700,
      "ĠMarsh": 5701,
      "ĠPrize": 5702,
      "Ġflood": 5703,
      "Ġbroke": 5704,
      "Ġmut": 5705,
      "Ġbott": 5706,
      "Born": 5707,
      "Ġversions": 5708,
      "ĠIraq": 5709,
      "Ġbillion": 5710,
      "ĠMilitary": 5711,
      "eding": 5712,
      "Ġfrequently": 5713,
      "Ġmis": 5714,
      "Ġqualified": 5715,
      "ĠEach": 5716,
      "bec": 5717,
      "Ġcode": 5718,
      "Ġ1917": 5719,
      "Ġaudience": 5720,
      "Ġformerly": 5721,
      "ĠFox": 5722,
      "uing": 5723,
      "Ġ1914": 5724,
      "Ġsets": 5725,
      "Ġrespond": 5726,
      "Ġadvert": 5727,
      "ĠDer": 5728,
      "ĠBeach": 5729,
      "Ġfounding": 5730,
      "cluding": 5731,
      "rum": 5732,
      "Ġsoftware": 5733,
      "arp": 5734,
      "ĠLight": 5735,
      "ressed": 5736,
      "ania": 5737,
      "ĠSu": 5738,
      "achelor": 5739,
      "Ġvolume": 5740,
      "Ġfought": 5741,
      "ori": 5742,
      "Ġfocused": 5743,
      "VID": 5744,
      "ĠChair": 5745,
      "Ġretirement": 5746,
      "imens": 5747,
      "ĠMedical": 5748,
      "pects": 5749,
      "Ġaged": 5750,
      "Äĥ": 5751,
      "Don": 5752,
      "Ġneighborhood": 5753,
      "55": 5754,
      "Ġ49": 5755,
      "Ġshared": 5756,
      "gar": 5757,
      "Ġaccident": 5758,
      "Ġvice": 5759,
      "anning": 5760,
      "ĠAbb": 5761,
      "Ġsafety": 5762,
      "Ġunderst": 5763,
      "Ġfaced": 5764,
      "Ã¼r": 5765,
      "Ġvoc": 5766,
      "Ġlect": 5767,
      "anguage": 5768,
      "Ġwinter": 5769,
      "umes": 5770,
      "oln": 5771,
      "Ġunknown": 5772,
      "Sp": 5773,
      "elve": 5774,
      "Ġopposed": 5775,
      "Ġattacked": 5776,
      "Is": 5777,
      "86": 5778,
      "ĠTurkey": 5779,
      "06": 5780,
      "Ġdropped": 5781,
      "enna": 5782,
      "Ġlake": 5783,
      "ika": 5784,
      "iques": 5785,
      "76": 5786,
      "Ġheight": 5787,
      "Ġstraight": 5788,
      "Ġcancer": 5789,
      "ĠPolit": 5790,
      "also": 5791,
      "ĠRom": 5792,
      "Ġelement": 5793,
      "'.": 5794,
      "Ġdaily": 5795,
      "Con": 5796,
      "OS": 5797,
      "ĠCountry": 5798,
      "Ġroll": 5799,
      "89": 5800,
      "ĠHun": 5801,
      "Ġdefin": 5802,
      "Ġnegot": 5803,
      "ĠMike": 5804,
      "ĠVi": 5805,
      "Ġstarring": 5806,
      "rip": 5807,
      "Ġoccupied": 5808,
      "Ġcontributed": 5809,
      "Ġentitled": 5810,
      "Ġultimately": 5811,
      "Ġrepresenting": 5812,
      "ocese": 5813,
      "Ġ1935": 5814,
      "ns": 5815,
      "Ġearth": 5816,
      "Ġarts": 5817,
      "Ġdescend": 5818,
      "Ġprotection": 5819,
      "ĠMaria": 5820,
      "ĠAlf": 5821,
      "Ġperforming": 5822,
      "Ġscheduled": 5823,
      "Ġeffective": 5824,
      "Ġrear": 5825,
      "ples": 5826,
      "Ġattra": 5827,
      "ĠEmperor": 5828,
      "ipe": 5829,
      "lywood": 5830,
      "writer": 5831,
      "Ġarms": 5832,
      "ĠAffairs": 5833,
      "Ġmethods": 5834,
      "Ġshortly": 5835,
      "pson": 5836,
      "Ġinaug": 5837,
      "Ġadapt": 5838,
      "ĠMelbourne": 5839,
      "IN": 5840,
      "Ġjourn": 5841,
      "ĠJoh": 5842,
      "ĠMP": 5843,
      "Ġ1900": 5844,
      "olished": 5845,
      "Ġguest": 5846,
      "Ġemployed": 5847,
      "Ġseem": 5848,
      "otic": 5849,
      "Ġdistingu": 5850,
      "Ġsand": 5851,
      "ĠNA": 5852,
      "Ġexchange": 5853,
      "idge": 5854,
      "Ġactions": 5855,
      "Ġspect": 5856,
      "iable": 5857,
      "Ġexclus": 5858,
      "VD": 5859,
      "Ġarchitecture": 5860,
      "Ġagent": 5861,
      "ĠPit": 5862,
      "Ed": 5863,
      "osis": 5864,
      "We": 5865,
      "Ġtrees": 5866,
      "hist": 5867,
      "Ġdocumentary": 5868,
      "Ġsomething": 5869,
      "Ġsurname": 5870,
      "raf": 5871,
      "apore": 5872,
      "ĠAnth": 5873,
      "iform": 5874,
      "Ġdrive": 5875,
      "Ġ1933": 5876,
      "Ġvocal": 5877,
      "Ġadvance": 5878,
      "Ġiron": 5879,
      "ĠSunday": 5880,
      "ito": 5881,
      "Ġarticles": 5882,
      "Ġtouchdown": 5883,
      "Ġpiece": 5884,
      "ĠMemorial": 5885,
      "ĠKel": 5886,
      "Ġconverted": 5887,
      "oto": 5888,
      "inth": 5889,
      "Ġanimals": 5890,
      "Ġmorning": 5891,
      "ĠMunicip": 5892,
      "Ġrob": 5893,
      "erc": 5894,
      "ĠNCAA": 5895,
      "Ġexpansion": 5896,
      "ĠLabor": 5897,
      "ĠMoscow": 5898,
      "Ġmap": 5899,
      "ĠZh": 5900,
      "ading": 5901,
      "ĠOcean": 5902,
      "bra": 5903,
      "ĠSlov": 5904,
      "ĠBalt": 5905,
      "ĠTest": 5906,
      "uties": 5907,
      "SR": 5908,
      "ĠSav": 5909,
      "ĠGree": 5910,
      "aska": 5911,
      "ĠBureau": 5912,
      "plies": 5913,
      "track": 5914,
      "Ġhorse": 5915,
      "Ġpermanent": 5916,
      "esota": 5917,
      "Ġcovers": 5918,
      "Ġengineering": 5919,
      "anna": 5920,
      "alo": 5921,
      "Ġfair": 5922,
      "Ġattempts": 5923,
      "rect": 5924,
      "outs": 5925,
      "Ġ...": 5926,
      "ĠCOVID": 5927,
      "ears": 5928,
      "pool": 5929,
      "ĠGolden": 5930,
      "Ġdistricts": 5931,
      "Ġending": 5932,
      "Ġeconomy": 5933,
      "life": 5934,
      "Ġdomestic": 5935,
      "owa": 5936,
      "urance": 5937,
      "onsin": 5938,
      "Ġalleged": 5939,
      "Ġinhabit": 5940,
      "ĠChris": 5941,
      "Ġdefense": 5942,
      "Ġdetermined": 5943,
      "ĠUkraine": 5944,
      "uccess": 5945,
      "Ġmaximum": 5946,
      "ĠWalk": 5947,
      "Ġfinishing": 5948,
      "hat": 5949,
      "Ġcrime": 5950,
      "Am": 5951,
      "Ã£o": 5952,
      "Ġsle": 5953,
      "amm": 5954,
      "Ġcombat": 5955,
      "à¤": 5956,
      "Ġ1929": 5957,
      "anth": 5958,
      "ĠMoh": 5959,
      "isconsin": 5960,
      "Ġextensive": 5961,
      "sis": 5962,
      "_{": 5963,
      "Ġvent": 5964,
      "ĠTownship": 5965,
      "ls": 5966,
      "rep": 5967,
      "ĠDavis": 5968,
      "Ġhighway": 5969,
      "regon": 5970,
      "Ġoppon": 5971,
      "Ġmemory": 5972,
      "enz": 5973,
      "Ġcopies": 5974,
      "Ġexhibition": 5975,
      "ĠHou": 5976,
      "ĠNiger": 5977,
      "ader": 5978,
      "fully": 5979,
      "ĠArthur": 5980,
      "ĠWars": 5981,
      "Ġsought": 5982,
      "ĠEth": 5983,
      "Ġcandidates": 5984,
      "ĠEarl": 5985,
      "rade": 5986,
      "Ġencoura": 5987,
      "42": 5988,
      "aki": 5989,
      "Ġetc": 5990,
      "ĠStephen": 5991,
      "ĠId": 5992,
      "Ġ1928": 5993,
      "41": 5994,
      "ami": 5995,
      "long": 5996,
      "Ġcalc": 5997,
      "Ġbass": 5998,
      "gal": 5999,
      "Ġjudge": 6000,
      "Ġcitizens": 6001,
      "phas": 6002,
      "iders": 6003,
      "inus": 6004,
      "Äį": 6005,
      "ĠKim": 6006,
      "77": 6007,
      "Ñı": 6008,
      "ĠKhan": 6009,
      "Ġtele": 6010,
      "ĠWat": 6011,
      "ĠFree": 6012,
      "wise": 6013,
      "Ġresources": 6014,
      "ĠDaily": 6015,
      "Ġconvers": 6016,
      "Ġsimple": 6017,
      "rowd": 6018,
      "66": 6019,
      "igration": 6020,
      "ĠFinal": 6021,
      "Ã¢": 6022,
      "Ġoccurs": 6023,
      "oured": 6024,
      "Ġconsult": 6025,
      "Ġvehicles": 6026,
      "olec": 6027,
      "udget": 6028,
      "ĠAtt": 6029,
      "jan": 6030,
      "anga": 6031,
      "Ġcontrast": 6032,
      "Ġbackground": 6033,
      "Ġonto": 6034,
      "former": 6035,
      "Ġrein": 6036,
      "Ġsense": 6037,
      "Ġprepar": 6038,
      "Ġinstitutions": 6039,
      "Ġfields": 6040,
      "ĠGer": 6041,
      "ĠLind": 6042,
      "Ġconsecutive": 6043,
      "PS": 6044,
      "AF": 6045,
      "Ġsamp": 6046,
      "ĠTrib": 6047,
      "ĠFire": 6048,
      "Ġenjoy": 6049,
      "ĠTrust": 6050,
      "Ġ75": 6051,
      "Ġmachine": 6052,
      "Ġattrib": 6053,
      "Ġ1934": 6054,
      "Ġinvited": 6055,
      "Ġrot": 6056,
      "ĠQueensland": 6057,
      "Ġstructures": 6058,
      "Ġkil": 6059,
      "Ġexpressed": 6060,
      "rog": 6061,
      "acter": 6062,
      "Ġoffices": 6063,
      "mun": 6064,
      "Ġnormal": 6065,
      "Ġcycl": 6066,
      "Will": 6067,
      "restling": 6068,
      "Ġrang": 6069,
      "ĠSquad": 6070,
      "arry": 6071,
      "Ġgirls": 6072,
      "ivals": 6073,
      "Ġhotel": 6074,
      "Ġletters": 6075,
      "Ġcho": 6076,
      "Ġlands": 6077,
      "Ġtrust": 6078,
      "Ġreasons": 6079,
      "Ġbey": 6080,
      "ĠJews": 6081,
      "ĠHart": 6082,
      "ĠCape": 6083,
      "stream": 6084,
      "ÃŃa": 6085,
      "ĠCommand": 6086,
      "oly": 6087,
      "ĠRa": 6088,
      "Ġ1910": 6089,
      "Ġunc": 6090,
      "ante": 6091,
      "ĠKa": 6092,
      "ĠMinnesota": 6093,
      "Ġplayoff": 6094,
      "Ġbegin": 6095,
      "ĠBla": 6096,
      "Ġresigned": 6097,
      "Ġ48": 6098,
      "ĠMarine": 6099,
      "Ġguns": 6100,
      "ĠAmericans": 6101,
      "ĠSpring": 6102,
      "Ġinvestigation": 6103,
      "Ġapplication": 6104,
      "iang": 6105,
      "Ġcategory": 6106,
      "ogs": 6107,
      "ĠUt": 6108,
      "ĠKansas": 6109,
      "Ġdecre": 6110,
      "ĠMarc": 6111,
      "Ġsetting": 6112,
      "iments": 6113,
      "wegian": 6114,
      "Ġox": 6115,
      "And": 6116,
      "Ġholding": 6117,
      "gest": 6118,
      "ĠStock": 6119,
      "ĠGreg": 6120,
      "Ġlearning": 6121,
      "ampton": 6122,
      "Ġmatter": 6123,
      "uct": 6124,
      "cycl": 6125,
      "Ä±": 6126,
      "lets": 6127,
      "Ġappoint": 6128,
      "ĠWisconsin": 6129,
      "78": 6130,
      "opher": 6131,
      "asy": 6132,
      "mes": 6133,
      "Ġcontaining": 6134,
      "urches": 6135,
      "rete": 6136,
      "rupt": 6137,
      "Ġslightly": 6138,
      "Ġapparent": 6139,
      "Ġairport": 6140,
      "iversary": 6141,
      "Ġceremony": 6142,
      "Ġidentity": 6143,
      "Ġbul": 6144,
      "Ġvalley": 6145,
      "ĠHo": 6146,
      "Ġsupporting": 6147,
      "Ġsuccessfully": 6148,
      "ĠSingapore": 6149,
      "95": 6150,
      "risis": 6151,
      "Ġ1922": 6152,
      "Ġbeyond": 6153,
      "Ġwrite": 6154,
      "ĠRoss": 6155,
      "agh": 6156,
      "Ġlyrics": 6157,
      "Ġsust": 6158,
      "Ġsector": 6159,
      "Ġracing": 6160,
      "ĠBos": 6161,
      "Ġtechnical": 6162,
      "Ġavoid": 6163,
      "incoln": 6164,
      "ĠUs": 6165,
      "Ġpolic": 6166,
      "ource": 6167,
      "iti": 6168,
      "Å«": 6169,
      "Ġcollected": 6170,
      "while": 6171,
      "Ġstating": 6172,
      "Ġtowns": 6173,
      "ĠPhilippines": 6174,
      "Ġupd": 6175,
      "ropri": 6176,
      "Ġ1932": 6177,
      "keep": 6178,
      "Ġwalls": 6179,
      "Ġestablishment": 6180,
      "Ġproperties": 6181,
      "vard": 6182,
      "Ġhydro": 6183,
      "ĠLewis": 6184,
      "Ġspeech": 6185,
      "ĠOregon": 6186,
      "Ġ1924": 6187,
      "Ġauth": 6188,
      "Ġdraft": 6189,
      "Ġpartnership": 6190,
      "ĠDor": 6191,
      "Ġentrance": 6192,
      "ĠAmong": 6193,
      "Ġfunding": 6194,
      "Ġseg": 6195,
      "Ġlocations": 6196,
      "ĠVietnam": 6197,
      "03": 6198,
      "ennessee": 6199,
      "Ġpatients": 6200,
      "Ġdecades": 6201,
      "Ġcompar": 6202,
      "Ġcart": 6203,
      "Ġdeliver": 6204,
      "IT": 6205,
      "Ġpowerful": 6206,
      "Ġneeds": 6207,
      "ĠForeign": 6208,
      "Ġabandoned": 6209,
      "Ġrough": 6210,
      "Ġdeveloping": 6211,
      "Ġresc": 6212,
      "ĠNap": 6213,
      "illing": 6214,
      "pur": 6215,
      "equ": 6216,
      "Ġends": 6217,
      "po": 6218,
      "Ġmerged": 6219,
      "uese": 6220,
      "inally": 6221,
      "itter": 6222,
      "Ġvehicle": 6223,
      "Ġrepresentative": 6224,
      "ĠFord": 6225,
      "iab": 6226,
      "ĠDec": 6227,
      "Ġinfluenced": 6228,
      "Some": 6229,
      "ĠPlan": 6230,
      "Ġvoted": 6231,
      "Ġdeploy": 6232,
      "ĠLeon": 6233,
      "Ġmarg": 6234,
      "ĠLabour": 6235,
      "Ġvirt": 6236,
      "ĠBrother": 6237,
      "Ġadvant": 6238,
      "Ġways": 6239,
      "Ġmetres": 6240,
      "Ġwealth": 6241,
      "Ġjournalist": 6242,
      "Ġrom": 6243,
      "yes": 6244,
      "Ġ1921": 6245,
      "Ġmulti": 6246,
      "Ġargued": 6247,
      "ĠSum": 6248,
      "Ġfresh": 6249,
      "Ġherself": 6250,
      "ĠBat": 6251,
      "ĠGre": 6252,
      "Ġhired": 6253,
      "ĠList": 6254,
      "ĠMalays": 6255,
      "ĠManchester": 6256,
      "oster": 6257,
      "Ġbrown": 6258,
      "position": 6259,
      "Ġ1912": 6260,
      "Ġpieces": 6261,
      "ĠBah": 6262,
      "Ġpraised": 6263,
      "Ġguard": 6264,
      "Ġfuel": 6265,
      "bell": 6266,
      "Ġcastle": 6267,
      "Ġreign": 6268,
      "Ġ300": 6269,
      "Ġviolence": 6270,
      "usc": 6271,
      "Ġtry": 6272,
      "olis": 6273,
      "Ġstorm": 6274,
      "ĠArea": 6275,
      "ĠPier": 6276,
      "Ġliterary": 6277,
      "ĠBarn": 6278,
      "rat": 6279,
      "rizona": 6280,
      "aph": 6281,
      "ĠFellow": 6282,
      "inder": 6283,
      "Ġalternative": 6284,
      "Ġjunior": 6285,
      "ĠBall": 6286,
      "anger": 6287,
      "osed": 6288,
      "Ġcontained": 6289,
      "ĠCab": 6290,
      "Ġwins": 6291,
      "ĠEP": 6292,
      "Ġ1927": 6293,
      "Ġcenturies": 6294,
      "Ġtemperature": 6295,
      "Ġ1931": 6296,
      "Ġregarding": 6297,
      "Ġethnic": 6298,
      "Ġglass": 6299,
      "Although": 6300,
      "ĠOrig": 6301,
      "ĠFa": 6302,
      "Ġenvironmental": 6303,
      "iations": 6304,
      "Ġtrav": 6305,
      "Ġgeneration": 6306,
      "fall": 6307,
      "prise": 6308,
      "Ġstadium": 6309,
      "Im": 6310,
      "inburgh": 6311,
      "elle": 6312,
      "ĠNorway": 6313,
      "ĠTennessee": 6314,
      "Ġemphas": 6315,
      "ĠSteve": 6316,
      "Ġpresidential": 6317,
      "Ġfunds": 6318,
      "ĠMedal": 6319,
      "rait": 6320,
      "Ġacts": 6321,
      "Ġsecretary": 6322,
      "ails": 6323,
      "ĠPhilip": 6324,
      "Ġhero": 6325,
      "Ġconcluded": 6326,
      "Ġincident": 6327,
      "rm": 6328,
      "Ġbra": 6329,
      "Ġpassing": 6330,
      "uv": 6331,
      "Ġdecor": 6332,
      "ĠGil": 6333,
      "Ġindependence": 6334,
      "ĠMissouri": 6335,
      "ĠAst": 6336,
      "zen": 6337,
      "cts": 6338,
      "Ġdoctor": 6339,
      "ublin": 6340,
      "Ġobserved": 6341,
      "Ġderived": 6342,
      "Ġclin": 6343,
      "Ġ1925": 6344,
      "Ġmind": 6345,
      "Ġfinds": 6346,
      "Ġphase": 6347,
      "Ġkick": 6348,
      "Ġmaintained": 6349,
      "pa": 6350,
      "ĠIV": 6351,
      "ĠWinter": 6352,
      "Ġswim": 6353,
      "place": 6354,
      "Ġcompete": 6355,
      "04": 6356,
      "ĠStaff": 6357,
      "ui": 6358,
      "orders": 6359,
      "anton": 6360,
      "Ġrefers": 6361,
      "Ġequal": 6362,
      "Ġplanning": 6363,
      "Ġ(),": 6364,
      "ĠNorwegian": 6365,
      "ĠMic": 6366,
      "%.": 6367,
      "do": 6368,
      "Ġfunctions": 6369,
      "rÃ©": 6370,
      "Ġconnection": 6371,
      "ateur": 6372,
      "ĠStand": 6373,
      "ĠWall": 6374,
      "DP": 6375,
      "Ġinstalled": 6376,
      "uration": 6377,
      "ĠColorado": 6378,
      "Ġspok": 6379,
      "Ġenemy": 6380,
      ".âĢĿ": 6381,
      "iÃ³n": 6382,
      "aming": 6383,
      "ĠArmen": 6384,
      "Ġtill": 6385,
      "Ġcalls": 6386,
      "aro": 6387,
      "ĠBooks": 6388,
      "ĠNative": 6389,
      "Ġbasic": 6390,
      "Ġ1916": 6391,
      "ĠEntertainment": 6392,
      "Ġformal": 6393,
      "Ġrise": 6394,
      "Ġjoining": 6395,
      "ĠHoly": 6396,
      "Ġpilot": 6397,
      "Ġcomposer": 6398,
      "Ġstrike": 6399,
      "wich": 6400,
      "Ġexistence": 6401,
      "Ġ55": 6402,
      "Ġ1923": 6403,
      "Ġdates": 6404,
      "Ġfolk": 6405,
      "Ġ1915": 6406,
      "Ġcorner": 6407,
      "itage": 6408,
      "Ġdiplom": 6409,
      "ĠChannel": 6410,
      "Ġeducated": 6411,
      "43": 6412,
      "from": 6413,
      "Ġexperien": 6414,
      "Ġsan": 6415,
      "itionally": 6416,
      "ĠManagement": 6417,
      "ĠDiv": 6418,
      "ogen": 6419,
      "Ġengaged": 6420,
      "ĠInfantry": 6421,
      "ĠIndiana": 6422,
      "isa": 6423,
      "ikh": 6424,
      "Ġregistered": 6425,
      "Ġdoing": 6426,
      "lines": 6427,
      "ĠSix": 6428,
      "DA": 6429,
      "Ġmel": 6430,
      "Ġlaid": 6431,
      "appe": 6432,
      "Ġgall": 6433,
      "Ġring": 6434,
      "ĠTs": 6435,
      "Ġrecognition": 6436,
      "Ġflat": 6437,
      "Ġincorporated": 6438,
      "Ġcas": 6439,
      "Ġpoly": 6440,
      "Ġreserve": 6441,
      "ĠBor": 6442,
      "Ġheavily": 6443,
      "Ġplot": 6444,
      "Ġmerch": 6445,
      "Ġfleet": 6446,
      "ĠArizona": 6447,
      "Ġimpr": 6448,
      "ĠTransport": 6449,
      "Ġpasses": 6450,
      "ĠVolume": 6451,
      "Ġprogramme": 6452,
      "Ġdetect": 6453,
      "aded": 6454,
      "Ġnob": 6455,
      "Ġshape": 6456,
      "ĠSri": 6457,
      "stead": 6458,
      "Ġrival": 6459,
      "Ġreaching": 6460,
      "obe": 6461,
      "Ġ1926": 6462,
      "ĠLo": 6463,
      "Ġhockey": 6464,
      "ĠFamily": 6465,
      "Ġworldwide": 6466,
      "Ġshowing": 6467,
      "Ġinternal": 6468,
      "Ġproved": 6469,
      "02": 6470,
      "ĠTurkish": 6471,
      "Ġfailure": 6472,
      "run": 6473,
      "ĠForces": 6474,
      "Ġquant": 6475,
      "Ġconstituency": 6476,
      "Ġharm": 6477,
      "Ġaccompan": 6478,
      "Ġrequest": 6479,
      "lain": 6480,
      "Ġreflect": 6481,
      "Ġcompl": 6482,
      "Ġsac": 6483,
      "ographer": 6484,
      "Ġinstall": 6485,
      "Ġeducational": 6486,
      "ĠAustria": 6487,
      "ĠLincoln": 6488,
      "ĠRen": 6489,
      "Ġgod": 6490,
      "SS": 6491,
      "79": 6492,
      "ĠShort": 6493,
      "ĠSem": 6494,
      "ĠBeng": 6495,
      "ques": 6496,
      "Ġaccused": 6497,
      "Ġinhabitants": 6498,
      "ĠMaryland": 6499,
      "\").": 6500,
      "ĠAlbert": 6501,
      "Ġvisual": 6502,
      "Ġinstru": 6503,
      "Ġpromote": 6504,
      "Ġnuclear": 6505,
      "ecutive": 6506,
      "Ġpremiered": 6507,
      "ĠLtd": 6508,
      "ĠFe": 6509,
      "Ġprefer": 6510,
      "ĠPass": 6511,
      "ĠOt": 6512,
      "ĠRegional": 6513,
      "ĠPortuguese": 6514,
      "Ġcricket": 6515,
      "ĠBarb": 6516,
      "aga": 6517,
      "cu": 6518,
      "ĠHard": 6519,
      "state": 6520,
      "\"),": 6521,
      "Ġ42": 6522,
      "Ġdiam": 6523,
      "come": 6524,
      "Ġhistorian": 6525,
      "Ġspecifically": 6526,
      "Ġ46": 6527,
      "itzerland": 6528,
      "rees": 6529,
      "usal": 6530,
      "Ġgar": 6531,
      "actions": 6532,
      "Ġfoundation": 6533,
      "alty": 6534,
      "ĠKer": 6535,
      "Ġcarry": 6536,
      "isf": 6537,
      "ĠBru": 6538,
      "Ġimportance": 6539,
      "Ġinterse": 6540,
      "hing": 6541,
      "iny": 6542,
      "million": 6543,
      "igation": 6544,
      "ĠHand": 6545,
      "igenous": 6546,
      "agan": 6547,
      "omy": 6548,
      "Ġ400": 6549,
      "isms": 6550,
      "Ġahead": 6551,
      "after": 6552,
      "Ġtoward": 6553,
      "iller": 6554,
      "Ġast": 6555,
      "Ġscale": 6556,
      "Ġda": 6557,
      "clusion": 6558,
      "Ġtwelve": 6559,
      "ĠJacob": 6560,
      "ourses": 6561,
      "ĠAuthor": 6562,
      "ception": 6563,
      "Ge": 6564,
      "Ġpaintings": 6565,
      "Ind": 6566,
      "ĠFame": 6567,
      "Ġimprove": 6568,
      "ĠFront": 6569,
      "Ġiniti": 6570,
      "ĠModern": 6571,
      "Ġstatement": 6572,
      "ĠToday": 6573,
      "olars": 6574,
      "urday": 6575,
      "ĠTen": 6576,
      "ĠChen": 6577,
      "under": 6578,
      "ĠWhit": 6579,
      "Ġhomes": 6580,
      "Ġinvasion": 6581,
      "Ġextrem": 6582,
      "des": 6583,
      "Ġviews": 6584,
      "ĠSecurity": 6585,
      "Ġmand": 6586,
      "Ġopin": 6587,
      "agues": 6588,
      "ĠWrit": 6589,
      "ĠPoint": 6590,
      "Ġprotein": 6591,
      "then": 6592,
      "Ġpoetry": 6593,
      "ghan": 6594,
      "ĠAdministration": 6595,
      "Com": 6596,
      "ĠPa": 6597,
      "hol": 6598,
      "Ġcausing": 6599,
      "Her": 6600,
      "Ġconsisting": 6601,
      "Ġsomeone": 6602,
      "Ġclosely": 6603,
      "Ġsuppor": 6604,
      "Ġconce": 6605,
      "Ġpassenger": 6606,
      "ĠBaron": 6607,
      "ĠBuilding": 6608,
      "Ġtask": 6609,
      "friend": 6610,
      "cha": 6611,
      "Ġorders": 6612,
      "Ġsteel": 6613,
      "Man": 6614,
      "Ġaffected": 6615,
      "Ġproducing": 6616,
      "Ġload": 6617,
      "Ġemployees": 6618,
      "Ġfram": 6619,
      "ĠBecause": 6620,
      "Ġlandsc": 6621,
      "Ġpul": 6622,
      "ogy": 6623,
      "ĠMiller": 6624,
      "El": 6625,
      "ĠNaval": 6626,
      "ĠBurn": 6627,
      "ĠColl": 6628,
      "ĠNFL": 6629,
      "acent": 6630,
      "uther": 6631,
      "Ġcanc": 6632,
      "Ġwarn": 6633,
      "Ġvolunte": 6634,
      "going": 6635,
      "Ġhyp": 6636,
      "ĠBefore": 6637,
      "Ġstarts": 6638,
      "ĠChristmas": 6639,
      "ieval": 6640,
      "ordon": 6641,
      "Ġconstant": 6642,
      "ĠIndependent": 6643,
      "ĠCre": 6644,
      "key": 6645,
      "Ġwatch": 6646,
      "Ġtrained": 6647,
      "ĠPrin": 6648,
      "Ġreligion": 6649,
      "Ġsole": 6650,
      "season": 6651,
      "aved": 6652,
      "erts": 6653,
      "Ġruled": 6654,
      "ĠJane": 6655,
      "atab": 6656,
      "Ġheard": 6657,
      "Ġaid": 6658,
      "ĠDig": 6659,
      "Ġtall": 6660,
      "iva": 6661,
      "mph": 6662,
      "ĠThen": 6663,
      "ĠRepresentatives": 6664,
      "Ġboat": 6665,
      "To": 6666,
      "Ġsale": 6667,
      "Ġjur": 6668,
      "tered": 6669,
      "ĠSwiss": 6670,
      "Ġcooper": 6671,
      "ĠTurn": 6672,
      "gency": 6673,
      "Ġnegative": 6674,
      "ĠEngineering": 6675,
      "Ġentirely": 6676,
      "Ġscenes": 6677,
      "Ġtrying": 6678,
      "2010": 6679,
      "olas": 6680,
      "TO": 6681,
      "oli": 6682,
      "utor": 6683,
      "Ġlocomot": 6684,
      "Ġdriver": 6685,
      "ĠSwitzerland": 6686,
      "Ġclassical": 6687,
      "where": 6688,
      "Ġescape": 6689,
      "Ġadult": 6690,
      "ĠAbout": 6691,
      "ĠHouston": 6692,
      "Ġideas": 6693,
      "Ġcriminal": 6694,
      "ĠStone": 6695,
      "Ġweapons": 6696,
      "Ġrebu": 6697,
      "Ġ1911": 6698,
      "ĠServices": 6699,
      "Ġcomposition": 6700,
      "Ġregiment": 6701,
      "Ġscript": 6702,
      "ĠThrough": 6703,
      "udi": 6704,
      "ĠPope": 6705,
      "heastern": 6706,
      "ĠBon": 6707,
      "Ġinjured": 6708,
      "ĠÄ": 6709,
      "Ġprofession": 6710,
      "Ġprice": 6711,
      "don": 6712,
      "Ġrugby": 6713,
      "Ġselection": 6714,
      "ĠLiberal": 6715,
      "mith": 6716,
      "Ġdescribes": 6717,
      "ushed": 6718,
      "zh": 6719,
      "ĠHamilton": 6720,
      "Ð²": 6721,
      "rine": 6722,
      "ÑģÑĤ": 6723,
      "Ġpowers": 6724,
      "Ġfactory": 6725,
      "Ġoccas": 6726,
      "Ġobtain": 6727,
      "Ġdismiss": 6728,
      "ĠMcG": 6729,
      "otes": 6730,
      "Ġfashion": 6731,
      "Ġbands": 6732,
      "net": 6733,
      "Ġseventh": 6734,
      "Des": 6735,
      "Ġchose": 6736,
      "ĠNick": 6737,
      "ĠAnne": 6738,
      "father": 6739,
      "ĠPlaces": 6740,
      "ĠCer": 6741,
      "ĠAbd": 6742,
      "point": 6743,
      "oes": 6744,
      "oa": 6745,
      "ĠFinn": 6746,
      "Ġdescript": 6747,
      "Ġnortheast": 6748,
      "Ġdeleg": 6749,
      "Ġinterior": 6750,
      "Ġregarded": 6751,
      "ĠProt": 6752,
      "rainian": 6753,
      "Ġ1913": 6754,
      "ĠSpace": 6755,
      "87": 6756,
      "Ġcru": 6757,
      "ĠGram": 6758,
      "utt": 6759,
      "Ġbatter": 6760,
      "Ġbriefly": 6761,
      "ĠIslamic": 6762,
      "Ġcrowd": 6763,
      "Ġagency": 6764,
      "Ġchemical": 6765,
      "ĠDal": 6766,
      "http": 6767,
      "ordan": 6768,
      "ĠLet": 6769,
      "Ġyour": 6770,
      "Ġkilling": 6771,
      "ographical": 6772,
      "ĠSquare": 6773,
      "Mc": 6774,
      "Ġreplace": 6775,
      "Ġopportunity": 6776,
      "ĠDomin": 6777,
      "Ġfranch": 6778,
      "term": 6779,
      "car": 6780,
      "Ġstrength": 6781,
      "Ġadvoc": 6782,
      "roit": 6783,
      "Ġshell": 6784,
      "ĠCroat": 6785,
      "Ġadap": 6786,
      "Ġbehavior": 6787,
      "ĠPrim": 6788,
      "ĠTelevision": 6789,
      "idel": 6790,
      "ĠGallery": 6791,
      "gor": 6792,
      "RC": 6793,
      "Ġanaly": 6794,
      "Ġtownship": 6795,
      "ĠMember": 6796,
      "ĠHeart": 6797,
      "Ġdemonstr": 6798,
      "Ġedge": 6799,
      "poses": 6800,
      "Ġbodies": 6801,
      "Ġreduce": 6802,
      "Ġextension": 6803,
      "ĠWalter": 6804,
      "ĠSimon": 6805,
      "anes": 6806,
      "ĠEven": 6807,
      "Ġcalling": 6808,
      "Ġbirds": 6809,
      "Ġimproved": 6810,
      "ĠBulg": 6811,
      "ĠKr": 6812,
      "ĠTemple": 6813,
      "Ġexped": 6814,
      "cyclop": 6815,
      "Ġtor": 6816,
      "=\"": 6817,
      "inema": 6818,
      "Ġbottom": 6819,
      "ĠSher": 6820,
      "Ġgraduate": 6821,
      "ĠBrigade": 6822,
      "ĠDue": 6823,
      "ĠFurther": 6824,
      "ĠNich": 6825,
      "Ġstandards": 6826,
      "Ġere": 6827,
      "ello": 6828,
      "ilation": 6829,
      "ĠPalest": 6830,
      "Ġdeliv": 6831,
      "Ġille": 6832,
      "pret": 6833,
      "pir": 6834,
      "px": 6835,
      "entially": 6836,
      "icts": 6837,
      "Ġfavour": 6838,
      "Ġanimal": 6839,
      "Ġreserv": 6840,
      "rations": 6841,
      "Ġment": 6842,
      "stan": 6843,
      "ifying": 6844,
      "IV": 6845,
      "ĠLiter": 6846,
      "ĠHarry": 6847,
      "weet": 6848,
      "Ġcatal": 6849,
      "burn": 6850,
      "Ġcreat": 6851,
      "Ġarmed": 6852,
      "haps": 6853,
      "election": 6854,
      "TS": 6855,
      "Ġdetails": 6856,
      "glas": 6857,
      "ĠAli": 6858,
      "ĠPage": 6859,
      "ivalent": 6860,
      "Ġlimit": 6861,
      "Ġpand": 6862,
      "Ġpoll": 6863,
      "Ġbelieve": 6864,
      "erse": 6865,
      "Ġresidence": 6866,
      "enh": 6867,
      "Ġagricultural": 6868,
      "ĠRights": 6869,
      "iants": 6870,
      "Ġoperate": 6871,
      "Ġmoth": 6872,
      "ĠHistorical": 6873,
      "Ġsuperv": 6874,
      "Ġdeputy": 6875,
      "iley": 6876,
      "ĠKy": 6877,
      "Ġresearc": 6878,
      "ĠTony": 6879,
      "ĠPrix": 6880,
      "Ġquite": 6881,
      "ĠHoward": 6882,
      "Ġped": 6883,
      "racy": 6884,
      "wealth": 6885,
      "oyd": 6886,
      "alu": 6887,
      "ryst": 6888,
      "ĠGab": 6889,
      "Ġresign": 6890,
      "ĠExpress": 6891,
      "icial": 6892,
      "Ġapart": 6893,
      "ban": 6894,
      "ĠSport": 6895,
      "Ġsubsid": 6896,
      "Ġdoor": 6897,
      "ĠHarvard": 6898,
      "orage": 6899,
      "ĠHockey": 6900,
      "ĠAge": 6901,
      "Ġcrown": 6902,
      "ologies": 6903,
      "Ġsubstant": 6904,
      "ĠColomb": 6905,
      "rator": 6906,
      "Ġchoice": 6907,
      "pective": 6908,
      "Ġgene": 6909,
      "Ġdebuted": 6910,
      "Ġeg": 6911,
      "owned": 6912,
      "Ġengineer": 6913,
      "Ġreally": 6914,
      "adi": 6915,
      "Ġ1908": 6916,
      "Ġseconds": 6917,
      "ĠTan": 6918,
      "Ġparalle": 6919,
      "Ġzone": 6920,
      "Ġparticipate": 6921,
      "anned": 6922,
      "64": 6923,
      "Ġ47": 6924,
      "zo": 6925,
      "Ġintroduction": 6926,
      "Ġsession": 6927,
      "ĠHur": 6928,
      "68": 6929,
      "apes": 6930,
      "ĠTel": 6931,
      "Ab": 6932,
      "Ä«": 6933,
      "Ġrepeated": 6934,
      "ĠHal": 6935,
      "ĠRoy": 6936,
      "orge": 6937,
      "ĠKat": 6938,
      "utation": 6939,
      "EA": 6940,
      "Ġacid": 6941,
      "ĠReal": 6942,
      "Ġleads": 6943,
      "fe": 6944,
      "Fran": 6945,
      "ounted": 6946,
      "icians": 6947,
      "ĠBan": 6948,
      "ĠDiego": 6949,
      "Ġrating": 6950,
      "Ex": 6951,
      "Ġban": 6952,
      "zer": 6953,
      "Ġdivers": 6954,
      "ĠFund": 6955,
      "ĠLive": 6956,
      "Ġmarine": 6957,
      "iful": 6958,
      "ĠPict": 6959,
      "Ġflu": 6960,
      "69": 6961,
      "Ġtropical": 6962,
      "Ġearliest": 6963,
      "ĠChile": 6964,
      "Ġcollaboration": 6965,
      "Ġsurg": 6966,
      "ĠGi": 6967,
      "Ġwitness": 6968,
      "Ġweather": 6969,
      "Ġgetting": 6970,
      "Ġexact": 6971,
      "ĠPot": 6972,
      "ĠWell": 6973,
      "ĠMississ": 6974,
      "eler": 6975,
      "ĠVice": 6976,
      "Ġemot": 6977,
      "Ġnorthwest": 6978,
      "Ġsurvived": 6979,
      "icide": 6980,
      "Ġrow": 6981,
      "Ġopera": 6982,
      "ĠTokyo": 6983,
      "ĠHeritage": 6984,
      "Ġracial": 6985,
      "ĠChart": 6986,
      "ĠOd": 6987,
      "Ġpros": 6988,
      "ippi": 6989,
      "teenth": 6990,
      "2011": 6991,
      "athe": 6992,
      "ĠKentucky": 6993,
      "Ġwaters": 6994,
      "Ġ1890": 6995,
      "Ġlegend": 6996,
      "ĠGreece": 6997,
      "ĠNa": 6998,
      "ista": 6999,
      "ĠDVD": 7000,
      "Ġhun": 7001,
      "Ġvalues": 7002,
      "ĠImperial": 7003,
      "Ġinterests": 7004,
      "Ġqual": 7005,
      "uerto": 7006,
      "Ġconsequ": 7007,
      "dam": 7008,
      "Ġfine": 7009,
      "Ġsusp": 7010,
      "Ġadjacent": 7011,
      "Ġcauses": 7012,
      "ums": 7013,
      "Ġcharges": 7014,
      "ĠRon": 7015,
      "Ġcontrolled": 7016,
      "ĠAlbum": 7017,
      "Ġdistributed": 7018,
      "ĠSaturday": 7019,
      "ĠEdinburgh": 7020,
      "Ġenl": 7021,
      "ommod": 7022,
      "chi": 7023,
      "Ġrejected": 7024,
      "Ġprogramming": 7025,
      "ĠIsraeli": 7026,
      "ĠIl": 7027,
      "ĠHollywood": 7028,
      "2008": 7029,
      "Ġmathemat": 7030,
      "Ġengines": 7031,
      "Ġhttp": 7032,
      "ĠDublin": 7033,
      "William": 7034,
      "67": 7035,
      "ĠLeb": 7036,
      "Ġax": 7037,
      "Ġsteam": 7038,
      "Ġcore": 7039,
      "ĠArk": 7040,
      "Ġresistance": 7041,
      "Ġancest": 7042,
      "Ġbelief": 7043,
      "Ġdefeating": 7044,
      "ĠAD": 7045,
      "ĠVis": 7046,
      "Ġmoment": 7047,
      "Ġpossibly": 7048,
      "Ġtransform": 7049,
      "Ġbudget": 7050,
      "opter": 7051,
      "lahoma": 7052,
      "Ġtransition": 7053,
      "uma": 7054,
      "iami": 7055,
      "odox": 7056,
      "Ġsymbol": 7057,
      "ĠBaseball": 7058,
      "ĠSquadron": 7059,
      "ĠYouth": 7060,
      "Ġpersonnel": 7061,
      "ĠMit": 7062,
      "ĠDesign": 7063,
      "eget": 7064,
      "ĠLike": 7065,
      "ĠSeat": 7066,
      "ĠCemetery": 7067,
      "Ġpione": 7068,
      "ĠNev": 7069,
      "ĠConnect": 7070,
      "ĠAdam": 7071,
      "Ġregularly": 7072,
      "Ġrevolution": 7073,
      "Ġcriticized": 7074,
      "Ġknock": 7075,
      "including": 7076,
      "ĠBou": 7077,
      "Ġsinging": 7078,
      "Ġcommitted": 7079,
      "Ġapplications": 7080,
      "ducing": 7081,
      "ĠTar": 7082,
      "Ġenroll": 7083,
      "ĠGaz": 7084,
      "Ne": 7085,
      "har": 7086,
      "rav": 7087,
      "Ġdelay": 7088,
      "ĠGib": 7089,
      "aux": 7090,
      "ifications": 7091,
      "Ġrenov": 7092,
      "cription": 7093,
      "Ġbishop": 7094,
      "Ġsections": 7095,
      "Ġgrounds": 7096,
      "Ġhair": 7097,
      "jo": 7098,
      "ĠSound": 7099,
      "ĠNow": 7100,
      "Ġsignal": 7101,
      "oslav": 7102,
      "ĠDur": 7103,
      "Ġisol": 7104,
      "level": 7105,
      "Ġdecade": 7106,
      "Ġrefuge": 7107,
      "ĠConstitution": 7108,
      "Ġfeed": 7109,
      "active": 7110,
      "ĠFac": 7111,
      "iot": 7112,
      "Ġdispla": 7113,
      "ĠPun": 7114,
      "Ġ41": 7115,
      "Ġchampions": 7116,
      "ĠGard": 7117,
      "star": 7118,
      "MP": 7119,
      "Ġcopy": 7120,
      "ĠAC": 7121,
      "antly": 7122,
      "labama": 7123,
      "ĠExecutive": 7124,
      "III": 7125,
      "Ġlawyer": 7126,
      "Ġsell": 7127,
      "Ġpup": 7128,
      "ĠLow": 7129,
      "2000": 7130,
      "Ġroads": 7131,
      "Ġcombination": 7132,
      "Ġdrawn": 7133,
      "Ġcharged": 7134,
      "ĠWy": 7135,
      "ĠGa": 7136,
      "Ġpandemic": 7137,
      "ĠBowl": 7138,
      "Ġusers": 7139,
      "2007": 7140,
      "Dav": 7141,
      "ĠCommunist": 7142,
      "Ġwriters": 7143,
      "ĠVillage": 7144,
      "Ġtechniques": 7145,
      "atures": 7146,
      "ĠBetween": 7147,
      "oming": 7148,
      "Ġopposite": 7149,
      "pha": 7150,
      "Ġmist": 7151,
      "rix": 7152,
      "ĠSee": 7153,
      "ĠMand": 7154,
      "Ġcorpor": 7155,
      "La": 7156,
      "uster": 7157,
      "ĠRand": 7158,
      "ĠNY": 7159,
      "Ġdamaged": 7160,
      "Ġtypical": 7161,
      "Col": 7162,
      "ĠDanish": 7163,
      "Ġones": 7164,
      "Ġobjects": 7165,
      "Ġlat": 7166,
      "rome": 7167,
      "ĠOak": 7168,
      "Ġworth": 7169,
      "ĠNik": 7170,
      "ĠRab": 7171,
      "ardo": 7172,
      "assador": 7173,
      "Ġdocuments": 7174,
      "ĠHotel": 7175,
      "ĠCatal": 7176,
      "agu": 7177,
      "Ste": 7178,
      "enses": 7179,
      "ads": 7180,
      "Ġarrang": 7181,
      "Ġadvantage": 7182,
      "Ġpainted": 7183,
      "night": 7184,
      "Ġcourts": 7185,
      "84": 7186,
      "Ġconvent": 7187,
      "Ġnick": 7188,
      "Ġgoods": 7189,
      "Ġstands": 7190,
      "mat": 7191,
      "Ġsolid": 7192,
      "dale": 7193,
      "Ġpassengers": 7194,
      "Ð´": 7195,
      "ĠIowa": 7196,
      "Ġminute": 7197,
      "idden": 7198,
      "ĠUkrainian": 7199,
      "Ġprize": 7200,
      "Ġselect": 7201,
      "Ġimages": 7202,
      "ĠDoctor": 7203,
      "Ġdry": 7204,
      "force": 7205,
      "Ġdesigns": 7206,
      "Ġmolec": 7207,
      "Ġbroken": 7208,
      "ĠArgentina": 7209,
      "Ð½Ð¸": 7210,
      "ructure": 7211,
      "Ġcommit": 7212,
      "Ġremark": 7213,
      "Ġclean": 7214,
      "Ġmeasures": 7215,
      "Ġseems": 7216,
      "ĠDick": 7217,
      "Ġchurches": 7218,
      "Ġassumed": 7219,
      "Ġretained": 7220,
      "BI": 7221,
      "ĠRugby": 7222,
      "Ġpurchase": 7223,
      "Ġshall": 7224,
      "Ġaccommod": 7225,
      "Ġadmitted": 7226,
      "Ġgrade": 7227,
      "amic": 7228,
      "ĠFM": 7229,
      "ĠCommonwealth": 7230,
      "ailed": 7231,
      "imore": 7232,
      "Ġislands": 7233,
      "Ġrailroad": 7234,
      "Ġbusinesses": 7235,
      "ĠLin": 7236,
      "Ġstanding": 7237,
      "Ġphotograph": 7238,
      "Ġpiano": 7239,
      "Ġjazz": 7240,
      "adow": 7241,
      "ci": 7242,
      "ĠHans": 7243,
      "arest": 7244,
      "Ġdelivered": 7245,
      "ĠPhys": 7246,
      "Ġmilit": 7247,
      "Ġheaded": 7248,
      "irt": 7249,
      "ogether": 7250,
      "ĠFrederick": 7251,
      "á»": 7252,
      "Ġwhy": 7253,
      "Ġwinners": 7254,
      "Ġmedium": 7255,
      "ĠDetroit": 7256,
      "ĠEarly": 7257,
      "Ġreleg": 7258,
      "Ġshut": 7259,
      "Ġgreatest": 7260,
      "Ġans": 7261,
      "Ġsuburb": 7262,
      "ĠLegislative": 7263,
      "Ġitems": 7264,
      "Re": 7265,
      "Ġcourses": 7266,
      "ĠGlobal": 7267,
      "ĠRose": 7268,
      "Ġeasily": 7269,
      "ĠOklahoma": 7270,
      "essions": 7271,
      "ĠConc": 7272,
      "Ġ;": 7273,
      "inking": 7274,
      "Ġfiction": 7275,
      "ĠVo": 7276,
      "uh": 7277,
      "Ġstarred": 7278,
      "Ġcontributions": 7279,
      "lov": 7280,
      "59": 7281,
      "last": 7282,
      "ĠInn": 7283,
      "enny": 7284,
      "ĠAnderson": 7285,
      "olt": 7286,
      "ĠAllen": 7287,
      "resents": 7288,
      "lad": 7289,
      "overty": 7290,
      "ĠClin": 7291,
      "ĠTaiwan": 7292,
      "Ġtrip": 7293,
      "finals": 7294,
      "vo": 7295,
      "Ġcosts": 7296,
      "Ġdidn": 7297,
      "icut": 7298,
      "issance": 7299,
      "Ġ150": 7300,
      "ĠBerg": 7301,
      "Ġdemand": 7302,
      "agen": 7303,
      "othing": 7304,
      "Ġpainter": 7305,
      "ĠBrand": 7306,
      "found": 7307,
      "83": 7308,
      "ĠFarm": 7309,
      "2009": 7310,
      "ĠAlabama": 7311,
      "ĠPuerto": 7312,
      "Ġdetermine": 7313,
      "ĠNag": 7314,
      "SC": 7315,
      "oen": 7316,
      "ĠQuebec": 7317,
      "ĠWho": 7318,
      "ĠSud": 7319,
      "Ġattached": 7320,
      "rant": 7321,
      "ictionary": 7322,
      "ĠHawai": 7323,
      "Ġstood": 7324,
      "Ġqualifying": 7325,
      "Ġproced": 7326,
      "Ġstreets": 7327,
      "ĠAssoci": 7328,
      "eta": 7329,
      "Ġhumans": 7330,
      "Ġcoll": 7331,
      "onds": 7332,
      "Ġtranslated": 7333,
      "Ġsend": 7334,
      "Ġgets": 7335,
      "Ġimmigr": 7336,
      "Ġcredited": 7337,
      "Ġrenew": 7338,
      "Ġprovincial": 7339,
      "Ġlooking": 7340,
      "Ġprotest": 7341,
      "Ġbenef": 7342,
      "ĠJay": 7343,
      "Ġhour": 7344,
      "Ã©s": 7345,
      "mi": 7346,
      "Ġ43": 7347,
      "Ġresidential": 7348,
      "Ġfactors": 7349,
      "Ġsoutheast": 7350,
      "Ġ1905": 7351,
      "Ġ1906": 7352,
      "ĠMayor": 7353,
      "Ġanniversary": 7354,
      "Ġowners": 7355,
      "Ġphilosophy": 7356,
      "{\\": 7357,
      "ourse": 7358,
      "ĠRem": 7359,
      "Ġexperienced": 7360,
      "Ġcheck": 7361,
      "Ġseed": 7362,
      "81": 7363,
      "Ġchain": 7364,
      "Ġpages": 7365,
      "Ġrooms": 7366,
      "ĠMiami": 7367,
      "ĠCost": 7368,
      "ĠCEO": 7369,
      "abled": 7370,
      "Ġaccompanied": 7371,
      "Ġstages": 7372,
      "Ġgrant": 7373,
      "ilst": 7374,
      "new": 7375,
      "ĠAgency": 7376,
      "Ġarchae": 7377,
      "box": 7378,
      "Ġnotably": 7379,
      "Ġexamples": 7380,
      "elson": 7381,
      "ĠKam": 7382,
      "evin": 7383,
      "Ġfreedom": 7384,
      "borough": 7385,
      "Ġsoci": 7386,
      "lades": 7387,
      "abad": 7388,
      "ĠDisc": 7389,
      "Ġhill": 7390,
      "Ġreality": 7391,
      "Ġoperates": 7392,
      "72": 7393,
      "ĠHills": 7394,
      "Ġ1909": 7395,
      "ĠSenior": 7396,
      "Ġfaith": 7397,
      "sch": 7398,
      "ĠFA": 7399,
      "pse": 7400,
      "Ġbrig": 7401,
      "ĠEag": 7402,
      "Ġcapture": 7403,
      "ED": 7404,
      "Ġformally": 7405,
      "Ġaer": 7406,
      "Ġtick": 7407,
      "ĠRang": 7408,
      "General": 7409,
      "Ġactual": 7410,
      "ĠLanc": 7411,
      "No": 7412,
      "Ġskills": 7413,
      "Ġstores": 7414,
      "Ġcited": 7415,
      "Ġdriving": 7416,
      "Ġgender": 7417,
      "ĠLank": 7418,
      "ugu": 7419,
      "Ġ1907": 7420,
      "Ġmusician": 7421,
      "insula": 7422,
      "ĠReb": 7423,
      "Ġrich": 7424,
      "ĠMontreal": 7425,
      "ĠWolf": 7426,
      "ĠBrian": 7427,
      "ĠPatrick": 7428,
      "uy": 7429,
      "ĠChildren": 7430,
      "Ġrepresents": 7431,
      "Ġheat": 7432,
      "Ġ52": 7433,
      "Ġunsuccess": 7434,
      "ĠSel": 7435,
      "Ġaw": 7436,
      "lock": 7437,
      "Ġduty": 7438,
      "ĠMississippi": 7439,
      "Ã«": 7440,
      "ĠLas": 7441,
      "Ġwings": 7442,
      "Ġboys": 7443,
      "Ġcommune": 7444,
      "ĠLast": 7445,
      "Ġalleg": 7446,
      "ĠThird": 7447,
      "2005": 7448,
      "Ġsouthwest": 7449,
      "Ġsignificantly": 7450,
      "Ġstrip": 7451,
      "Ġrestored": 7452,
      "ĠDenmark": 7453,
      "Ġgarden": 7454,
      "Ġreaction": 7455,
      "istical": 7456,
      "Ġbrick": 7457,
      "Ġdated": 7458,
      "Ġrecip": 7459,
      "Ġreading": 7460,
      "ĠRural": 7461,
      "Ġshift": 7462,
      "Ġcircum": 7463,
      "Ġthrow": 7464,
      "Ġcarbon": 7465,
      "ser": 7466,
      "62": 7467,
      "Ġrestrict": 7468,
      "Ġdepth": 7469,
      "Ġsuspend": 7470,
      "Ġmusicians": 7471,
      "lected": 7472,
      "ĠAle": 7473,
      "otte": 7474,
      "emble": 7475,
      "ĠDrag": 7476,
      "Ġseparated": 7477,
      "Ġmotion": 7478,
      "Ġselling": 7479,
      "71": 7480,
      "ĠThus": 7481,
      "Ġtrail": 7482,
      "ĠUC": 7483,
      "Ġinvestment": 7484,
      "ega": 7485,
      "Ġmort": 7486,
      "ture": 7487,
      "ĠInternet": 7488,
      "Ġattract": 7489,
      "east": 7490,
      "iner": 7491,
      "ĠJuan": 7492,
      "related": 7493,
      "ĠTerrit": 7494,
      "Ġalt": 7495,
      "Ġnor": 7496,
      "inate": 7497,
      "Ġcolonial": 7498,
      "othes": 7499,
      "rik": 7500,
      "ĠInformation": 7501,
      "ooth": 7502,
      "ĠBeat": 7503,
      "61": 7504,
      "Ġbran": 7505,
      "aver": 7506,
      "ĠDC": 7507,
      "Ġshooting": 7508,
      "ĠSky": 7509,
      "ht": 7510,
      "ĠKaz": 7511,
      "2006": 7512,
      "eline": 7513,
      "ĠOnly": 7514,
      "ĠSamuel": 7515,
      ".'": 7516,
      "Ġstopped": 7517,
      "aired": 7518,
      "ho": 7519,
      "Ġroutes": 7520,
      "argo": 7521,
      "Ġcrisis": 7522,
      "rene": 7523,
      "avalry": 7524,
      "Ġconcerns": 7525,
      "thodox": 7526,
      "Ġsomew": 7527,
      "ĠRailroad": 7528,
      "ĠTreat": 7529,
      "Ġ1880": 7530,
      "ni": 7531,
      "Ġcaught": 7532,
      "ĠBrazilian": 7533,
      "Ġvocals": 7534,
      "ĠDeputy": 7535,
      "uri": 7536,
      "ĠPap": 7537,
      "ĠPalace": 7538,
      "ĠDouglas": 7539,
      "ymn": 7540,
      "Ġpriest": 7541,
      "rak": 7542,
      "63": 7543,
      "ĠSeveral": 7544,
      "Ġpolicies": 7545,
      "Ġdynasty": 7546,
      "Ġmembership": 7547,
      "Ġsequence": 7548,
      "ĠAfghan": 7549,
      "Ġfired": 7550,
      "ĠLieutenant": 7551,
      "Ġthick": 7552,
      "74": 7553,
      "Ġveter": 7554,
      "Ġinstitution": 7555,
      "Ã¥": 7556,
      "Ġarranged": 7557,
      "Ġarrival": 7558,
      "Ġdoll": 7559,
      "En": 7560,
      "Ġbed": 7561,
      "ĠBelgium": 7562,
      "ĠOttoman": 7563,
      "oviÄĩ": 7564,
      "82": 7565,
      "Ġsed": 7566,
      "Ġwindows": 7567,
      "rane": 7568,
      "Ġflo": 7569,
      "rell": 7570,
      "Ġprotected": 7571,
      "ocracy": 7572,
      "ĠLyn": 7573,
      "Ġpublishing": 7574,
      "Ġintelligence": 7575,
      "Ġwounded": 7576,
      "ĠReserve": 7577,
      "Ġflying": 7578,
      "Ġmine": 7579,
      "ĠEnvironment": 7580,
      "who": 7581,
      "eland": 7582,
      "ĠRey": 7583,
      "Ġfranchise": 7584,
      "ĠABC": 7585,
      "Ġtries": 7586,
      "coming": 7587,
      "Ġsuggests": 7588,
      "Ġfiled": 7589,
      "ĠCooper": 7590,
      "ĠBry": 7591,
      "ĠSilver": 7592,
      "nold": 7593,
      "Ġpurposes": 7594,
      "ĠHamp": 7595,
      "ĠBattalion": 7596,
      "Ġlegislation": 7597,
      "ĠNar": 7598,
      "Ġinterested": 7599,
      "Ġcontext": 7600,
      "enc": 7601,
      "unnel": 7602,
      "Ġfly": 7603,
      "cious": 7604,
      "Ġnothing": 7605,
      "rong": 7606,
      "Ġduties": 7607,
      "eas": 7608,
      "ĠGuide": 7609,
      "Ġtail": 7610,
      "ĠMicro": 7611,
      "May": 7612,
      "Ġedited": 7613,
      "Ġcompris": 7614,
      "ĠVar": 7615,
      "ĠCra": 7616,
      "Ġcitizen": 7617,
      "Ġshel": 7618,
      "Ġtank": 7619,
      "Ġjourney": 7620,
      "ĠAlber": 7621,
      "vements": 7622,
      "enez": 7623,
      "Ġlearned": 7624,
      "Ġrefere": 7625,
      "hard": 7626,
      "ĠPitts": 7627,
      "Ġclimb": 7628,
      "Ġgraduating": 7629,
      "ĠAthletic": 7630,
      "ĠAmb": 7631,
      "uj": 7632,
      "di": 7633,
      "ĠJam": 7634,
      "ĠShah": 7635,
      "Ġpool": 7636,
      "yles": 7637,
      "Ġcommunication": 7638,
      "ĠProte": 7639,
      "Ġjustice": 7640,
      "ET": 7641,
      "Ġsave": 7642,
      "ĠEric": 7643,
      "ĠJesus": 7644,
      "IP": 7645,
      "Ġbrain": 7646,
      "ĠMoore": 7647,
      "Ġtack": 7648,
      "Ġanth": 7649,
      "Ġflowers": 7650,
      "Ġdefensive": 7651,
      "Ġelectronic": 7652,
      "Ġadapted": 7653,
      "ĠVienna": 7654,
      "Ġgrass": 7655,
      "Ġkilomet": 7656,
      "ctic": 7657,
      "ĠMach": 7658,
      "iverpool": 7659,
      "onder": 7660,
      "ĠGordon": 7661,
      "51": 7662,
      "2012": 7663,
      "eless": 7664,
      "Ġpreced": 7665,
      "ĠBanglades": 7666,
      "Ġtheater": 7667,
      "ĠRecord": 7668,
      "ĠRol": 7669,
      "Ġinher": 7670,
      "rang": 7671,
      "Ġmining": 7672,
      "ĠAnthony": 7673,
      "Ġpublications": 7674,
      "Ġcomic": 7675,
      "ĠAM": 7676,
      "Ġsevere": 7677,
      "Ġnote": 7678,
      "Ġnaval": 7679,
      "ĠHarris": 7680,
      "Ġcarrying": 7681,
      "Ġdegrees": 7682,
      "Ġtranslation": 7683,
      "Ġmeters": 7684,
      "ÃŃn": 7685,
      "Ġaccur": 7686,
      "Ġdies": 7687,
      "Ġchance": 7688,
      "ĠKey": 7689,
      "coh": 7690,
      "Ġ51": 7691,
      "ogle": 7692,
      "Ġimprison": 7693,
      "aine": 7694,
      "mers": 7695,
      "lig": 7696,
      "Ġdivor": 7697,
      "Ġclassified": 7698,
      "Ġfaculty": 7699,
      "etime": 7700,
      "ĠArchitect": 7701,
      "ogan": 7702,
      "Ġadvis": 7703,
      "Ġneighbour": 7704,
      "Ġpersons": 7705,
      "ĠIndonesia": 7706,
      "ĠPublishing": 7707,
      "Ġprepared": 7708,
      "Ġdaughters": 7709,
      "ĠChall": 7710,
      "Ġfactor": 7711,
      "ĠJordan": 7712,
      "Ġunus": 7713,
      "pen": 7714,
      "ners": 7715,
      "Ġstayed": 7716,
      "Ġ1904": 7717,
      "angel": 7718,
      "Ġexpression": 7719,
      "aron": 7720,
      "ellite": 7721,
      "Ġdevice": 7722,
      "Ġvo": 7723,
      "person": 7724,
      "Ġinvolving": 7725,
      "rons": 7726,
      "ĠCook": 7727,
      "ĠTamil": 7728,
      "Ġlinked": 7729,
      "Ġscholars": 7730,
      "LC": 7731,
      "Ġcolour": 7732,
      "Ġbiggest": 7733,
      "Ġham": 7734,
      "autiful": 7735,
      "ĠSon": 7736,
      "Ġinnov": 7737,
      "odge": 7738,
      "Ġorganisation": 7739,
      "ugar": 7740,
      "ĠAntonio": 7741,
      "ĠKarl": 7742,
      "Ġsuccessor": 7743,
      "Ġunderstanding": 7744,
      "Ġfan": 7745,
      "crib": 7746,
      "inian": 7747,
      "ĠCulture": 7748,
      "Ġdating": 7749,
      "ĠMountains": 7750,
      "pat": 7751,
      "Ġchallenge": 7752,
      "Ġsubjects": 7753,
      "Ġsynthe": 7754,
      "ĠErn": 7755,
      "ĠBack": 7756,
      "ĠDefense": 7757,
      "ĠSeattle": 7758,
      "Ġreturns": 7759,
      "ĠPed": 7760,
      "ĠAtlanta": 7761,
      "ĠAustrian": 7762,
      "52": 7763,
      "ĠRoberts": 7764,
      "ships": 7765,
      "ĠPhill": 7766,
      "Ġwindow": 7767,
      "Ġvary": 7768,
      "Ġphen": 7769,
      "Ġresponsibility": 7770,
      "hab": 7771,
      "Ġcompetitions": 7772,
      "Ġherit": 7773,
      "Ġdemonst": 7774,
      "ĠDisney": 7775,
      "Ġnom": 7776,
      "Ġutil": 7777,
      "ĠGulf": 7778,
      "'m": 7779,
      "Ġmedicine": 7780,
      "GB": 7781,
      "Ġcycle": 7782,
      "ĠCare": 7783,
      "ĠBaltimore": 7784,
      "Ġdiagn": 7785,
      "ext": 7786,
      "Ġownership": 7787,
      "ĠBuck": 7788,
      "allas": 7789,
      "Ġpeaked": 7790,
      "ĠBart": 7791,
      "ĠStew": 7792,
      "Ġotherwise": 7793,
      "Ġdivisions": 7794,
      "orf": 7795,
      "Ġconqu": 7796,
      "ĠLam": 7797,
      "urrent": 7798,
      "Ġpopularity": 7799,
      "aked": 7800,
      "Ġprime": 7801,
      "ĠConnecticut": 7802,
      "Ġprosec": 7803,
      "Ġmissing": 7804,
      "Ġadvent": 7805,
      "EN": 7806,
      "ĠMetropolitan": 7807,
      "ĠIS": 7808,
      "Ġlocality": 7809,
      "atabase": 7810,
      "ensed": 7811,
      "ĠStory": 7812,
      "itional": 7813,
      "ĠBask": 7814,
      "ĠCrown": 7815,
      "heme": 7816,
      "ĠRow": 7817,
      "ĠFern": 7818,
      "Ġcrossing": 7819,
      "ithuan": 7820,
      "Ġvictims": 7821,
      "Ġeye": 7822,
      "ĠCricket": 7823,
      "chell": 7824,
      "Ġauthors": 7825,
      "ĠHop": 7826,
      "97": 7827,
      "Ġcriticism": 7828,
      "Ġassault": 7829,
      "duct": 7830,
      "Ġturns": 7831,
      "rett": 7832,
      "inch": 7833,
      "Ġassistance": 7834,
      "Ġfra": 7835,
      "Ġensure": 7836,
      "Ġnomination": 7837,
      "ĠStudios": 7838,
      "54": 7839,
      "ĠCru": 7840,
      "elli": 7841,
      "Ap": 7842,
      "ĠUpon": 7843,
      "Ġmonument": 7844,
      "Ġ1901": 7845,
      "wen": 7846,
      "igg": 7847,
      "Ġappointment": 7848,
      "Ġrestaurant": 7849,
      "ultan": 7850,
      "zi": 7851,
      "igious": 7852,
      "ibl": 7853,
      "ĠMission": 7854,
      "rastructure": 7855,
      "Ġflows": 7856,
      "ovo": 7857,
      "92": 7858,
      "ĠPeters": 7859,
      "Ġretail": 7860,
      "ĠCow": 7861,
      "Ġign": 7862,
      "Ġhits": 7863,
      "Ġdifference": 7864,
      "Ġtennis": 7865,
      "Ġcoastal": 7866,
      "Ġreplacement": 7867,
      "gow": 7868,
      "ÑģÐº": 7869,
      "Ġ1902": 7870,
      "OR": 7871,
      "Ġcommemor": 7872,
      "Ġretrieved": 7873,
      "len": 7874,
      "vant": 7875,
      "ĠGarden": 7876,
      "ĠMem": 7877,
      "Ġsigning": 7878,
      "icate": 7879,
      "ĠAud": 7880,
      "isd": 7881,
      "Ġpractices": 7882,
      "Ġmemorial": 7883,
      "story": 7884,
      "Ġdifferences": 7885,
      "rapy": 7886,
      "Ġrecru": 7887,
      "Ġterror": 7888,
      "ĠFil": 7889,
      "istant": 7890,
      "ĠLang": 7891,
      "Ġmurd": 7892,
      "53": 7893,
      "Ġsquadron": 7894,
      "Ġstret": 7895,
      "umin": 7896,
      "ĠPortugal": 7897,
      "Ġbat": 7898,
      "ĠThough": 7899,
      "Ġteachers": 7900,
      "ĠLawrence": 7901,
      "Ġvide": 7902,
      "apolis": 7903,
      "ĠLiverpool": 7904,
      "Ġinterpret": 7905,
      "unch": 7906,
      "ĠSchools": 7907,
      "Ġmedals": 7908,
      "Ġveget": 7909,
      "ĠSingh": 7910,
      "Ġ1903": 7911,
      "ĠLouisiana": 7912,
      "2004": 7913,
      "roup": 7914,
      "unes": 7915,
      "atherine": 7916,
      "Ã©t": 7917,
      "ĠWelsh": 7918,
      "Ġrelative": 7919,
      "iece": 7920,
      "Ġthousands": 7921,
      "Ġweekly": 7922,
      "ĠOrchestra": 7923,
      "Ġuniform": 7924,
      "ĠÃī": 7925,
      "Ġteen": 7926,
      "roke": 7927,
      "icks": 7928,
      "Ġsun": 7929,
      "Ġequivalent": 7930,
      "Ġheritage": 7931,
      "Ġaspects": 7932,
      "Ġfrag": 7933,
      "frac": 7934,
      "Ġbuy": 7935,
      "bal": 7936,
      "shaped": 7937,
      "Ġtesting": 7938,
      "Ġamend": 7939,
      "ĠPeace": 7940,
      "ĠSet": 7941,
      "Ġrates": 7942,
      "Ġsort": 7943,
      "Ġactors": 7944,
      "Ġpoverty": 7945,
      "Ġwave": 7946,
      "GA": 7947,
      "ĠMargaret": 7948,
      "73": 7949,
      "Ġhors": 7950,
      "Ġassembly": 7951,
      "ãĢ": 7952,
      "agn": 7953,
      "ifer": 7954,
      "Ġcous": 7955,
      "Ð¾Ð²": 7956,
      "ĠYug": 7957,
      "98": 7958,
      "Ġcovering": 7959,
      "Ġdepos": 7960,
      "ĠOpera": 7961,
      "ĠOfficer": 7962,
      "96": 7963,
      "Ġoccupation": 7964,
      "ĠMaur": 7965,
      "inding": 7966,
      "lete": 7967,
      "ĠGlas": 7968,
      "ĠHug": 7969,
      "Ġcompeting": 7970,
      "Ġkid": 7971,
      "Ġoffensive": 7972,
      "Ġrose": 7973,
      "veland": 7974,
      "ĠMeth": 7975,
      "ahn": 7976,
      "profit": 7977,
      "Ġdie": 7978,
      "ĠChampions": 7979,
      "rage": 7980,
      "Ġevening": 7981,
      "Ġprisoners": 7982,
      "casting": 7983,
      "Ġ1870": 7984,
      "56": 7985,
      "Ġuser": 7986,
      "ĠMoon": 7987,
      "58": 7988,
      "Ġparliamentary": 7989,
      "ĠRun": 7990,
      "ĠAlexand": 7991,
      "hyth": 7992,
      "ĠTrump": 7993,
      "ĠHere": 7994,
      "Ġcoordin": 7995,
      "Ġappropri": 7996,
      "acc": 7997,
      "break": 7998,
      "ĠImp": 7999,
      "ĠMcK": 8000,
      "Ġsoil": 8001,
      "ĠDeb": 8002,
      "laimed": 8003,
      "Ġparallel": 8004,
      "ishment": 8005,
      "uous": 8006,
      "edding": 8007,
      "ĠIron": 8008,
      "ĠMalaysia": 8009,
      "Ġheads": 8010,
      "Ġcold": 8011,
      "rates": 8012,
      "ĠDream": 8013,
      "Ġdenied": 8014,
      "Ġmouth": 8015,
      "Ġextremely": 8016,
      "ĠPA": 8017,
      "cester": 8018,
      "ĠAdditionally": 8019,
      "estyle": 8020,
      "ĠPear": 8021,
      "Ġmyth": 8022,
      "2013": 8023,
      "iki": 8024,
      "Ġoption": 8025,
      "Ġscheme": 8026,
      "Ġroughly": 8027,
      "ĠLocal": 8028,
      "Ġlists": 8029,
      "ellect": 8030,
      "ridges": 8031,
      "Ð¼": 8032,
      "Ġdisappe": 8033,
      "Ġnickn": 8034,
      "Ġindicate": 8035,
      "Ġappearing": 8036,
      "Ġstudying": 8037,
      "ials": 8038,
      "Ġopinion": 8039,
      "Ġdeclined": 8040,
      "ĠHungarian": 8041,
      "Ġadding": 8042,
      "West": 8043,
      "Ġsoundtrack": 8044,
      "Ġchildhood": 8045,
      "Ġclassic": 8046,
      "ï¼": 8047,
      "Ġfixed": 8048,
      "Ġuniversities": 8049,
      "Ġbanks": 8050,
      "Ã´": 8051,
      "Ġwithdraw": 8052,
      "ĠNep": 8053,
      "ĠRap": 8054,
      "ĠCleveland": 8055,
      "final": 8056,
      "Ġfer": 8057,
      "astery": 8058,
      "Ġplate": 8059,
      "PC": 8060,
      "ando": 8061,
      "Ġtemporary": 8062,
      "mingham": 8063,
      "Ġreplacing": 8064,
      "Ġquestions": 8065,
      "ĠNav": 8066,
      "OC": 8067,
      "ĠAuthority": 8068,
      "ĠOperation": 8069,
      "inter": 8070,
      "aby": 8071,
      "top": 8072,
      "tery": 8073,
      "nia": 8074,
      "ucks": 8075,
      "Ġartistic": 8076,
      "If": 8077,
      "ĠRio": 8078,
      "Ġcorrect": 8079,
      "Ġstorage": 8080,
      "Ġago": 8081,
      "stances": 8082,
      "Ġelectoral": 8083,
      "Ġexplained": 8084,
      "itals": 8085,
      "ĠMatthew": 8086,
      "ĠFal": 8087,
      "Ġnovels": 8088,
      "olph": 8089,
      "ĠInvest": 8090,
      "Ġemp": 8091,
      "ĠDean": 8092,
      "emen": 8093,
      "ester": 8094,
      "Ġchapter": 8095,
      "ĠTourn": 8096,
      "Ġassess": 8097,
      "ĠDonald": 8098,
      "ework": 8099,
      "door": 8100,
      "ayan": 8101,
      "ĠEncyclop": 8102,
      "ĠNatural": 8103,
      "ĠWhe": 8104,
      "Ġproposal": 8105,
      "ĠDNA": 8106,
      "lon": 8107,
      "ĠAlliance": 8108,
      "Ġsurre": 8109,
      "Ġwooden": 8110,
      "ĠAlan": 8111,
      "acher": 8112,
      "chang": 8113,
      "ilk": 8114,
      "ĠNort": 8115,
      "Ġgang": 8116,
      "merce": 8117,
      "marine": 8118,
      "ĠWalker": 8119,
      "Ġmobile": 8120,
      "oca": 8121,
      "Ġlosses": 8122,
      "Ġmedieval": 8123,
      "Ġrecept": 8124,
      "Ġhosts": 8125,
      "Ġtie": 8126,
      "ĠConvention": 8127,
      "ĠAnna": 8128,
      "Ġpapers": 8129,
      "mosp": 8130,
      "Ġentering": 8131,
      "Ġvert": 8132,
      "Ġtied": 8133,
      "93": 8134,
      "nal": 8135,
      "die": 8136,
      "ĠMedicine": 8137,
      "Ġoffering": 8138,
      "olo": 8139,
      "osm": 8140,
      "ĠKings": 8141,
      "Ġliqu": 8142,
      "Ġben": 8143,
      "orial": 8144,
      "Ġinfluential": 8145,
      "ĠPC": 8146,
      "Ġenh": 8147,
      "iency": 8148,
      "ivated": 8149,
      "Ġinstance": 8150,
      "Ġappeal": 8151,
      "Ġencounter": 8152,
      "ĠChairman": 8153,
      "ĠRyan": 8154,
      "ĠMond": 8155,
      "Ġevolution": 8156,
      "ruption": 8157,
      "uda": 8158,
      "Ġdebate": 8159,
      "uren": 8160,
      "ÑĮ": 8161,
      "ĠBroadway": 8162,
      "ĠNazi": 8163,
      "Ġcapable": 8164,
      "Ġpicture": 8165,
      "ĠRace": 8166,
      "amps": 8167,
      "Ġartillery": 8168,
      "ĠHispan": 8169,
      "race": 8170,
      "Ġtechnique": 8171,
      "ĠRy": 8172,
      "Ġtheore": 8173,
      "Ġdim": 8174,
      "Sch": 8175,
      "ĠPlace": 8176,
      "intend": 8177,
      "Ġeliminated": 8178,
      "miral": 8179,
      "aints": 8180,
      "ĠSA": 8181,
      "asa": 8182,
      "rove": 8183,
      "ĠGrant": 8184,
      "Ġaggreg": 8185,
      "ĠPow": 8186,
      "ĠRan": 8187,
      "Ġdevices": 8188,
      "ĠRot": 8189,
      "Ġ120": 8190,
      "iop": 8191,
      "idency": 8192,
      "arat": 8193,
      "aman": 8194,
      "ĠLane": 8195,
      "Ġachieve": 8196,
      "Ġbranches": 8197,
      "Ġ54": 8198,
      "Ġthreatened": 8199,
      "Ġcelebrated": 8200,
      "Ġhelping": 8201,
      "ĠMorgan": 8202,
      "ĠBush": 8203,
      "Ġbit": 8204,
      "ĠChem": 8205,
      "ĠTig": 8206,
      "orer": 8207,
      "NS": 8208,
      "Ġprocesses": 8209,
      "atically": 8210,
      "Ġstruck": 8211,
      "ĠOm": 8212,
      "ĠKennedy": 8213,
      "ĠFrid": 8214,
      "Ġperfect": 8215,
      "Ġexpedition": 8216,
      "ĠUpper": 8217,
      "ĠSR": 8218,
      "Ġraise": 8219,
      "Ġcoverage": 8220,
      "ĠMarket": 8221,
      "ĠBuff": 8222,
      "Ġrounds": 8223,
      "Ġpoem": 8224,
      "ige": 8225,
      "Ġmental": 8226,
      "Ġfinding": 8227,
      "57": 8228,
      "Ġperhaps": 8229,
      "ĠHonor": 8230,
      "Ġexplos": 8231,
      "ocks": 8232,
      "Ġforests": 8233,
      "ĠHungary": 8234,
      "Ġfinals": 8235,
      "Ġexpert": 8236,
      "Ġindicated": 8237,
      "Ġboundary": 8238,
      "Ġaccounts": 8239,
      "Ġforming": 8240,
      "Ġsolution": 8241,
      "ĠRub": 8242,
      "ĠMetro": 8243,
      "ĠCrit": 8244,
      "ĠSaf": 8245,
      "xts": 8246,
      "Ġrequirements": 8247,
      "oche": 8248,
      "94": 8249,
      "tenance": 8250,
      "ĠEnergy": 8251,
      "cho": 8252,
      "Ġcredit": 8253,
      "ĠBull": 8254,
      "ushing": 8255,
      "ĠFinland": 8256,
      "Ġpenalty": 8257,
      "dy": 8258,
      "Ġattorney": 8259,
      "ĠPsych": 8260,
      "Image": 8261,
      "Ġcontra": 8262,
      "ĠCommander": 8263,
      "ĠRick": 8264,
      "Ġwarm": 8265,
      "ĠPittsburgh": 8266,
      "Jan": 8267,
      "ĠHit": 8268,
      "Ġsuspended": 8269,
      "TP": 8270,
      "ĠAlfred": 8271,
      "rient": 8272,
      "Ġeighth": 8273,
      "Ġvessels": 8274,
      "Ġsnow": 8275,
      "Ġru": 8276,
      "Ġincreasingly": 8277,
      "Ġunf": 8278,
      "acon": 8279,
      "Ġsurrounded": 8280,
      "pers": 8281,
      "Ġmeets": 8282,
      "Or": 8283,
      "Ġexperiences": 8284,
      "ĠNon": 8285,
      "Ġeleven": 8286,
      "Ġrequires": 8287,
      "Ġdowntown": 8288,
      "Ġcup": 8289,
      "ĠYugoslav": 8290,
      "EFA": 8291,
      "olly": 8292,
      "Ġbringing": 8293,
      "mate": 8294,
      "ĠCathedral": 8295,
      "Ġrelief": 8296,
      "ĠConservative": 8297,
      "ĠWard": 8298,
      "Ġbelonging": 8299,
      "Ġprohib": 8300,
      "Ġcrop": 8301,
      "asters": 8302,
      "Ġmessage": 8303,
      "Ġaffairs": 8304,
      "lac": 8305,
      "'re": 8306,
      "ĠAy": 8307,
      "lem": 8308,
      "aments": 8309,
      "Ġ1898": 8310,
      "dd": 8311,
      "ĠJohann": 8312,
      "Ġfalls": 8313,
      "Ġfal": 8314,
      "Ġdonated": 8315,
      "Ġsynd": 8316,
      "Ġstrongly": 8317,
      "ĠLib": 8318,
      "Ġsupposed": 8319,
      "oni": 8320,
      "NC": 8321,
      "Ã³w": 8322,
      "ĠDyn": 8323,
      "HS": 8324,
      "ÈĻ": 8325,
      "Ġdirectors": 8326,
      "Ġimag": 8327,
      "Ġweak": 8328,
      "Ġlasted": 8329,
      "Ġcollections": 8330,
      "ĠAgricult": 8331,
      "ĠOnce": 8332,
      "Ġlap": 8333,
      "ĠAustin": 8334,
      "Ġlanding": 8335,
      "Ġexception": 8336,
      "ĠMovement": 8337,
      "Ġfilled": 8338,
      "Ġexisted": 8339,
      "ĠGran": 8340,
      "Ġcomponents": 8341,
      "ĠFive": 8342,
      "hr": 8343,
      "ĠBangladesh": 8344,
      "PR": 8345,
      "Ġsecure": 8346,
      "Ġannually": 8347,
      "ĠEconomic": 8348,
      "ĠPur": 8349,
      "ĠLl": 8350,
      "Ġwheel": 8351,
      "seud": 8352,
      "riot": 8353,
      "Ġcatch": 8354,
      "ĠAndre": 8355,
      "Two": 8356,
      "orrow": 8357,
      "ĠDave": 8358,
      "ĠChamber": 8359,
      "eed": 8360,
      "ĠTit": 8361,
      "Ġreputation": 8362,
      "MC": 8363,
      "Ġgather": 8364,
      "Ġconcrete": 8365,
      "Ġassign": 8366,
      "ĠBirmingham": 8367,
      "91": 8368,
      "ĠFall": 8369,
      "Ġfruit": 8370,
      "ĠSac": 8371,
      "Ġstrategy": 8372,
      "resident": 8373,
      "Ġhabitat": 8374,
      "Ġframe": 8375,
      "arth": 8376,
      "Ġeyes": 8377,
      "ĠColonel": 8378,
      "Ġ53": 8379,
      "ĠTrade": 8380,
      "Ġweekend": 8381,
      "cht": 8382,
      "Ġmile": 8383,
      "ĠVenez": 8384,
      "ĠPas": 8385,
      "umbent": 8386,
      "Ġbes": 8387,
      "rena": 8388,
      "Ġnations": 8389,
      "ouver": 8390,
      "Ġcool": 8391,
      "ĠConfeder": 8392,
      "ĠJosÃ©": 8393,
      "Ġenfor": 8394,
      "df": 8395,
      "Ġapproval": 8396,
      "Ġmanner": 8397,
      "ighters": 8398,
      "ĠNash": 8399,
      "gon": 8400,
      "2014": 8401,
      "ĠSha": 8402,
      "bridge": 8403,
      "Ġshif": 8404,
      "ishers": 8405,
      "ãĥ": 8406,
      "isition": 8407,
      "Ġpitch": 8408,
      ".;": 8409,
      "ĠLeban": 8410,
      "Ġposted": 8411,
      "bishop": 8412,
      "Ġfishing": 8413,
      "Ġacted": 8414,
      "Ġfilmed": 8415,
      "ĠLithuan": 8416,
      "Å¾": 8417,
      "Ġalcoh": 8418,
      "Ġwides": 8419,
      "2003": 8420,
      "ĠPrior": 8421,
      "ĠMrs": 8422,
      "omes": 8423,
      "Ġble": 8424,
      "Ġmanufacturing": 8425,
      "called": 8426,
      "Ġemergency": 8427,
      "Ġcontested": 8428,
      "bach": 8429,
      "Ġrend": 8430,
      "Ġchampionships": 8431,
      "ĠHindu": 8432,
      "ĠNob": 8433,
      "Ġexerc": 8434,
      "pes": 8435,
      "look": 8436,
      "Ġbenefit": 8437,
      "Ġlieutenant": 8438,
      "pread": 8439,
      "Ġvisitors": 8440,
      "300": 8441,
      "sea": 8442,
      "Ġinstruments": 8443,
      "ĠMorris": 8444,
      "Ġkingdom": 8445,
      "Ġdog": 8446,
      "Ġcompletion": 8447,
      "phone": 8448,
      "Rober": 8449,
      "ĠJun": 8450,
      "Ġmob": 8451,
      "ĠAR": 8452,
      "ÅĦ": 8453,
      "ĠKelly": 8454,
      "ĠDeath": 8455,
      "Ġinvolvement": 8456,
      "Ġ1899": 8457,
      "Ġlicense": 8458,
      "These": 8459,
      "Ġmodified": 8460,
      "otype": 8461,
      "orus": 8462,
      "Ãł": 8463,
      "ĠYour": 8464,
      "Ġassociate": 8465,
      "ĠBrothers": 8466,
      "ĠStewart": 8467,
      "Most": 8468,
      "FM": 8469,
      "lie": 8470,
      "Ġhappened": 8471,
      "2015": 8472,
      "Ġcharts": 8473,
      "ĠFriend": 8474,
      "Ġtur": 8475,
      "Ġlov": 8476,
      "Ġaccompl": 8477,
      "ailand": 8478,
      "Ġdrew": 8479,
      "ĠKevin": 8480,
      "ĠWhat": 8481,
      "Ġrepro": 8482,
      "Ġconsiderable": 8483,
      "ĠWorks": 8484,
      "Ġplane": 8485,
      "ĠFleet": 8486,
      "ĠCA": 8487,
      "ĠMean": 8488,
      "Ġvoting": 8489,
      "ounced": 8490,
      "ĠWa": 8491,
      "Ġsurviving": 8492,
      "Ġjurisd": 8493,
      "Ġelder": 8494,
      "igrated": 8495,
      "ĠBrooklyn": 8496,
      "ocation": 8497,
      "onian": 8498,
      "Ġtenure": 8499,
      "aptist": 8500,
      "ranean": 8501,
      "Ġequipped": 8502,
      "Ġcounties": 8503,
      "Other": 8504,
      "ĠSurvey": 8505,
      "iege": 8506,
      "Ġvisiting": 8507,
      "hand": 8508,
      "Ġamateur": 8509,
      "Ġreact": 8510,
      "Ġparticipation": 8511,
      "ĠRussell": 8512,
      "Ġextens": 8513,
      "Ġplus": 8514,
      "DS": 8515,
      "gressive": 8516,
      "cal": 8517,
      "Ġdress": 8518,
      "ĠOrthodox": 8519,
      "anny": 8520,
      "ĠDallas": 8521,
      "2001": 8522,
      "ĠEver": 8523,
      "%,": 8524,
      "ĠChron": 8525,
      "Ġneut": 8526,
      "Ġthin": 8527,
      "ĠYouT": 8528,
      "ĠBed": 8529,
      "EE": 8530,
      "Ġexecuted": 8531,
      "Ġguitarist": 8532,
      "ĠMadrid": 8533,
      "ĠVik": 8534,
      "Ġrecre": 8535,
      "rov": 8536,
      "ensis": 8537,
      "ĠFIFA": 8538,
      "Ġdecline": 8539,
      "ĠApp": 8540,
      "ĠPrad": 8541,
      "Ġtheat": 8542,
      "Ġsoccer": 8543,
      "Ġpanel": 8544,
      "graduate": 8545,
      "omas": 8546,
      "ĠThompson": 8547,
      "ashed": 8548,
      "Ġadaptation": 8549,
      "hus": 8550,
      "Ġmarkets": 8551,
      "ĠWW": 8552,
      "Ġendemic": 8553,
      "ĠCampbell": 8554,
      "rama": 8555,
      "Ġ56": 8556,
      "Ġdefence": 8557,
      "usalem": 8558,
      "inist": 8559,
      "Ã©n": 8560,
      "Ġdrawing": 8561,
      "Ġfear": 8562,
      "Ġrecordings": 8563,
      "ĠSn": 8564,
      "Ġshares": 8565,
      "Ġdraf": 8566,
      "oom": 8567,
      "Ġmovements": 8568,
      "ĠDak": 8569,
      "Ġpopulations": 8570,
      "ĠGuardian": 8571,
      "Ġvessel": 8572,
      "rub": 8573,
      "Ġfit": 8574,
      "amental": 8575,
      "ĠHorn": 8576,
      "Ġelevation": 8577,
      "ĠLimited": 8578,
      "ĠWol": 8579,
      "Ġdistinguished": 8580,
      "anian": 8581,
      "ĠDark": 8582,
      "ĠFried": 8583,
      "ĠRoger": 8584,
      "din": 8585,
      "Ġclassification": 8586,
      "Ġthirty": 8587,
      "ĠMarie": 8588,
      "Ġsentenced": 8589,
      "lap": 8590,
      "ĠEnt": 8591,
      "Ġabsor": 8592,
      "Pr": 8593,
      "poss": 8594,
      "ĠEqu": 8595,
      "udes": 8596,
      "Ġ1896": 8597,
      "ĠLower": 8598,
      "Ġrecommended": 8599,
      "Ġprint": 8600,
      "ĠGon": 8601,
      "Ġmoder": 8602,
      "ĠChampion": 8603,
      "Ġruling": 8604,
      "asure": 8605,
      "gi": 8606,
      "ĠComics": 8607,
      "bat": 8608,
      "Ġvic": 8609,
      "aware": 8610,
      "ĠBachelor": 8611,
      "Ġcook": 8612,
      "uters": 8613,
      "cknow": 8614,
      "Ġcircuit": 8615,
      "Ġmountains": 8616,
      "Ġseek": 8617,
      "erbai": 8618,
      "Ġturb": 8619,
      "Ġgrown": 8620,
      "Ġsufficient": 8621,
      "ĠUEFA": 8622,
      "wall": 8623,
      "mathb": 8624,
      "sson": 8625,
      "Ġsatisf": 8626,
      "auty": 8627,
      "attan": 8628,
      "https": 8629,
      "Ġyoungest": 8630,
      "Ġlob": 8631,
      "Ġbot": 8632,
      "rock": 8633,
      "Ġvenue": 8634,
      "inea": 8635,
      "Ġattributed": 8636,
      "ĠNelson": 8637,
      "ĠArkansas": 8638,
      "Ġillegal": 8639,
      "Ġcontinuing": 8640,
      "oria": 8641,
      "Ġinnings": 8642,
      "Ġspiritual": 8643,
      "illo": 8644,
      "ĠPortland": 8645,
      "unc": 8646,
      "Ġinjuries": 8647,
      "ĠTheater": 8648,
      "ĠVictorian": 8649,
      "Ġattracted": 8650,
      "Ġsomewhat": 8651,
      "ĠVinc": 8652,
      "Ġmeetings": 8653,
      "ĠSenator": 8654,
      "tha": 8655,
      "Ġjobs": 8656,
      "aste": 8657,
      "Ġnewspapers": 8658,
      "ĠTournament": 8659,
      "Ġcamera": 8660,
      "hai": 8661,
      "ĠAnti": 8662,
      "erk": 8663,
      "Ġexpect": 8664,
      "Ġhang": 8665,
      "ĠSarah": 8666,
      "Ġspoke": 8667,
      "ĠRobinson": 8668,
      "Ġremainder": 8669,
      "Ġster": 8670,
      "ĠBoys": 8671,
      "Ġminimum": 8672,
      "Ġ1895": 8673,
      "Ġreun": 8674,
      "Ġdesigner": 8675,
      "DF": 8676,
      "Ġpod": 8677,
      "inction": 8678,
      "otton": 8679,
      "Ġwidespread": 8680,
      "ĠEmer": 8681,
      "ector": 8682,
      "ĠPlayer": 8683,
      "Ġinfantry": 8684,
      "Ġearn": 8685,
      "Ġcabinet": 8686,
      "Ġ1897": 8687,
      "Ġfest": 8688,
      "Ġtraveled": 8689,
      "Ġtreated": 8690,
      "ĠCamer": 8691,
      "ĠYears": 8692,
      "ĠMurray": 8693,
      "nik": 8694,
      "ĠRomania": 8695,
      "udden": 8696,
      "Ġpric": 8697,
      "Ġskin": 8698,
      "ulating": 8699,
      "Ġintention": 8700,
      "ĠGlasgow": 8701,
      "ĠScient": 8702,
      "Ġrepresentation": 8703,
      "ario": 8704,
      "Ġassass": 8705,
      "ĠNord": 8706,
      "rehens": 8707,
      "ĠBruce": 8708,
      "Ġcontroversial": 8709,
      "ĠComple": 8710,
      "ĠCapital": 8711,
      "estone": 8712,
      "Ã¶r": 8713,
      "oda": 8714,
      "Ġ1860": 8715,
      "Ġdeaths": 8716,
      "Ġrepresentatives": 8717,
      "master": 8718,
      "Ġplatforms": 8719,
      "Ġgenre": 8720,
      "ĠNation": 8721,
      "ĠExt": 8722,
      "ĠCentury": 8723,
      "ĠUtah": 8724,
      "ĠFranklin": 8725,
      "ĠNorman": 8726,
      "Ġvisible": 8727,
      "ellectual": 8728,
      "Ġrivers": 8729,
      "elected": 8730,
      "Ġsegment": 8731,
      "ĠDead": 8732,
      "Ġnet": 8733,
      "bean": 8734,
      "Ġpreserved": 8735,
      "ĠMethod": 8736,
      "Ġhuge": 8737,
      "Ġfled": 8738,
      "dr": 8739,
      "ĠSi": 8740,
      "antasy": 8741,
      "Ġinaugural": 8742,
      "Ġlandscape": 8743,
      "Qu": 8744,
      "ĠFel": 8745,
      "cons": 8746,
      "ĠKan": 8747,
      "icon": 8748,
      "ĠThailand": 8749,
      "Ġretain": 8750,
      "ĠJose": 8751,
      "Ġacknow": 8752,
      "Ġdefending": 8753,
      "Ġfile": 8754,
      "Ġbeet": 8755,
      "ĠSin": 8756,
      "However": 8757,
      "mod": 8758,
      "ME": 8759,
      "Ġchanging": 8760,
      "Ġspeak": 8761,
      "ĠCarib": 8762,
      "ĠHeb": 8763,
      "Ġhonour": 8764,
      "ologists": 8765,
      "ĠAgain": 8766,
      "Ġ57": 8767,
      "osph": 8768,
      "Te": 8769,
      "Ġcouples": 8770,
      "Ġportrayed": 8771,
      "ĠMotor": 8772,
      "Ġdemolished": 8773,
      "Ġshore": 8774,
      "Ġstatue": 8775,
      "Ġintersection": 8776,
      "Ġsurf": 8777,
      "ON": 8778,
      "ĠKon": 8779,
      "struct": 8780,
      "ĠDefence": 8781,
      "Ġfil": 8782,
      "Hist": 8783,
      "kee": 8784,
      "Ġdescription": 8785,
      "Ġagriculture": 8786,
      "cell": 8787,
      "olia": 8788,
      "Ġeffectively": 8789,
      "Ġhttps": 8790,
      "Ġreleases": 8791,
      "Ġemerged": 8792,
      "Ġbird": 8793,
      "Ġexpos": 8794,
      "ĠNBA": 8795,
      "Ġcontroversy": 8796,
      "ĠYouTube": 8797,
      "ĠWright": 8798,
      "Ġcancelled": 8799,
      "iri": 8800,
      "oples": 8801,
      "zz": 8802,
      "Ġparent": 8803,
      "Ġremember": 8804,
      "hu": 8805,
      "ripts": 8806,
      "style": 8807,
      "Ġwhilst": 8808,
      "keeper": 8809,
      "ĠMarshall": 8810,
      "Ġsurgery": 8811,
      "ĠHerald": 8812,
      "Ġeld": 8813,
      "ĠHell": 8814,
      "Ġtests": 8815,
      "Ġranking": 8816,
      "Ġleaf": 8817,
      "Ġhur": 8818,
      "ĠTraining": 8819,
      "Ġ().": 8820,
      "2002": 8821,
      "ĠDance": 8822,
      "Ġmidfield": 8823,
      "terior": 8824,
      "Ġchapel": 8825,
      "Ġpray": 8826,
      "ĠFinnish": 8827,
      "Ġarchitectural": 8828,
      "Ġreportedly": 8829,
      "Ġinfrastructure": 8830,
      "lace": 8831,
      "ĠTrophy": 8832,
      "ĠMA": 8833,
      "stic": 8834,
      "ĠAS": 8835,
      "cm": 8836,
      "Ġregime": 8837,
      "Ġatmosp": 8838,
      "Ġvalid": 8839,
      "Ġsuicide": 8840,
      "ĠVenezuel": 8841,
      "Ġpregn": 8842,
      "ĠRound": 8843,
      "ashi": 8844,
      "Ġthemes": 8845,
      "ĪĴ": 8846,
      "ĠProtest": 8847,
      "obi": 8848,
      "iors": 8849,
      "ĠHend": 8850,
      "List": 8851,
      "Ġerected": 8852,
      "ĠCarter": 8853,
      "Ġvideos": 8854,
      "Ġwhereas": 8855,
      "ĠMong": 8856,
      "jamin": 8857,
      "ĠAdams": 8858,
      "ĠJerusalem": 8859,
      "ĠEU": 8860,
      "rity": 8861,
      "Ġoccasionally": 8862,
      "ussian": 8863,
      "ilty": 8864,
      "eneration": 8865,
      "Ġsleep": 8866,
      "ĠBelgian": 8867,
      "Ġrif": 8868,
      "Ġteach": 8869,
      "Ġdeparture": 8870,
      "TE": 8871,
      "Ġsym": 8872,
      "Ġurg": 8873,
      "Ġjump": 8874,
      "Can": 8875,
      "ingly": 8876,
      "ultane": 8877,
      "ĠKnight": 8878,
      "Ġproport": 8879,
      "usted": 8880,
      "ĠRichmond": 8881,
      "iterranean": 8882,
      "asi": 8883,
      "ĠSerbia": 8884,
      "LS": 8885,
      "Ġresolution": 8886,
      "ĠFood": 8887,
      "Ġupdated": 8888,
      "Ġcousin": 8889,
      "Ġmissed": 8890,
      "Ġhighlight": 8891,
      "erted": 8892,
      "Bet": 8893,
      "Ġfrequency": 8894,
      "Christ": 8895,
      "ĠKu": 8896,
      "Ġrelocated": 8897,
      "hammad": 8898,
      "ĠTrad": 8899,
      "ĠOur": 8900,
      "ĠNeb": 8901,
      "Ġunderground": 8902,
      "ĠIss": 8903,
      "annels": 8904,
      "ĠKit": 8905,
      "Ġdream": 8906,
      "ĠRico": 8907,
      "Ġconvention": 8908,
      "oba": 8909,
      "ĠRacing": 8910,
      "ĠChand": 8911,
      "Ġoccasions": 8912,
      "Ġemployment": 8913,
      "Ġvolumes": 8914,
      "rating": 8915,
      "ĠApple": 8916,
      "ancouver": 8917,
      "David": 8918,
      "Ġsupporters": 8919,
      "ported": 8920,
      "igible": 8921,
      "Ġillness": 8922,
      "Ġmir": 8923,
      "Car": 8924,
      "ĠAzerbai": 8925,
      "atur": 8926,
      "Donald": 8927,
      "ivan": 8928,
      "Ġpron": 8929,
      "ĠOrganization": 8930,
      "uation": 8931,
      "Ġkm": 8932,
      "ĠStanley": 8933,
      "host": 8934,
      "tes": 8935,
      "Eng": 8936,
      "eton": 8937,
      "Ġprinted": 8938,
      "Ġbid": 8939,
      "opal": 8940,
      "ĠVic": 8941,
      "ancell": 8942,
      "Ġfict": 8943,
      "Ġ1893": 8944,
      "Many": 8945,
      "Ġmaintenance": 8946,
      "ĠMack": 8947,
      "Ġdiameter": 8948,
      "Ġprotests": 8949,
      "Ġtell": 8950,
      "Ġuncle": 8951,
      "theless": 8952,
      "othe": 8953,
      "Ġvs": 8954,
      "leans": 8955,
      "ĠHold": 8956,
      "Ġanch": 8957,
      "archy": 8958,
      "Ġknew": 8959,
      "Ġhip": 8960,
      "ĠPy": 8961,
      "riel": 8962,
      "izon": 8963,
      "Ġexcell": 8964,
      "ĠBox": 8965,
      "Ġfoss": 8966,
      "ĠIns": 8967,
      "ĠNam": 8968,
      "ocol": 8969,
      "Ġfurn": 8970,
      "Co": 8971,
      "ĠPad": 8972,
      "Ġrapidly": 8973,
      "Ġtribe": 8974,
      "endar": 8975,
      "Ġwick": 8976,
      "mates": 8977,
      "Ġviewed": 8978,
      "pop": 8979,
      "Ġpredomin": 8980,
      "ulu": 8981,
      "ĠDelhi": 8982,
      "ĠDerby": 8983,
      "2016": 8984,
      "Ġtempor": 8985,
      "ĠNigeria": 8986,
      "alia": 8987,
      "Ġundert": 8988,
      "Ġdomain": 8989,
      "mund": 8990,
      "iac": 8991,
      "Ġwrites": 8992,
      "Ġclaiming": 8993,
      "Ġinner": 8994,
      "Ġblocks": 8995,
      "Ġunderstand": 8996,
      "opes": 8997,
      "Ø§": 8998,
      "Ġabroad": 8999,
      "Ġlongest": 9000,
      "Ġanything": 9001,
      "ĠCole": 9002,
      "Ġsafe": 9003,
      "oven": 9004,
      "Ñĭ": 9005,
      "Ġcompetitive": 9006,
      "ĠBasketball": 9007,
      "quir": 9008,
      "Ġtools": 9009,
      "usk": 9010,
      "Ġadmin": 9011,
      "ĠDictionary": 9012,
      "language": 9013,
      "Ġoutput": 9014,
      "Ġdiscovery": 9015,
      "ruction": 9016,
      "Ġ1889": 9017,
      "orship": 9018,
      "ijing": 9019,
      "high": 9020,
      "ĠBomb": 9021,
      "Ġcharacterized": 9022,
      "anner": 9023,
      "Ġsustain": 9024,
      "ĠGirls": 9025,
      "ĠÐ¿": 9026,
      "ĠRomanian": 9027,
      "Ġmo": 9028,
      "Ġvision": 9029,
      "ĠUnit": 9030,
      "later": 9031,
      "Ġabsence": 9032,
      "rele": 9033,
      "ĠNBC": 9034,
      "Sw": 9035,
      "leton": 9036,
      "ĠCanal": 9037,
      "amo": 9038,
      "Ġbeach": 9039,
      "Ġfacing": 9040,
      "ĠCBS": 9041,
      "Ġperiods": 9042,
      "Ġboats": 9043,
      "Ġcul": 9044,
      "Ġthousand": 9045,
      "HA": 9046,
      "ersed": 9047,
      "Bl": 9048,
      "Ġstress": 9049,
      "ennial": 9050,
      "ĠJudge": 9051,
      "Ġentertainment": 9052,
      "Ġrelationships": 9053,
      "ĠFact": 9054,
      "itially": 9055,
      "Ġcards": 9056,
      "oga": 9057,
      "Ġbattles": 9058,
      "Ġbehalf": 9059,
      "ĠChristopher": 9060,
      "Ġschedule": 9061,
      "Ġtow": 9062,
      "Ġencouraged": 9063,
      "ocratic": 9064,
      "ĠGraham": 9065,
      "ĠHampshire": 9066,
      "Ġhearing": 9067,
      "Ġoperational": 9068,
      "Ġattending": 9069,
      "ĠAngl": 9070,
      "Ġbacter": 9071,
      "contin": 9072,
      "Ġeverything": 9073,
      "Ġparticipants": 9074,
      "ĠEgyptian": 9075,
      "Ġfriendly": 9076,
      "Ġdang": 9077,
      "Ġcenters": 9078,
      "acre": 9079,
      "Ġlock": 9080,
      "Ġnav": 9081,
      "Ġaimed": 9082,
      "Ġspoken": 9083,
      "Ġconcerned": 9084,
      "Ġhal": 9085,
      "Har": 9086,
      "ĠNever": 9087,
      "Ġpoems": 9088,
      "ÃŁ": 9089,
      "ĠBrist": 9090,
      "Ġmassive": 9091,
      "ĠMort": 9092,
      "Ġafterwards": 9093,
      "Ġ58": 9094,
      "Ġsupplies": 9095,
      "Ġgreatly": 9096,
      "enger": 9097,
      "Ġsuffering": 9098,
      "ĠMilan": 9099,
      "ĠBernard": 9100,
      "gie": 9101,
      "Ġrecovered": 9102,
      "Ġpublicly": 9103,
      "cut": 9104,
      "Ġmart": 9105,
      "hythm": 9106,
      "cribed": 9107,
      "Ġwrong": 9108,
      "Ġproc": 9109,
      "iah": 9110,
      "My": 9111,
      "iph": 9112,
      "ĠSS": 9113,
      "athy": 9114,
      "Ġarc": 9115,
      "ĠAnc": 9116,
      "Ġduo": 9117,
      "ĠStandard": 9118,
      "ĠDh": 9119,
      "Ġphone": 9120,
      "ĠMaj": 9121,
      "antine": 9122,
      "ĠOrleans": 9123,
      "eo": 9124,
      "Ġsupports": 9125,
      "andal": 9126,
      "ĠRena": 9127,
      "Ġpredecess": 9128,
      "Ġdepending": 9129,
      "Ġimmediate": 9130,
      "ĠBris": 9131,
      "Ġtact": 9132,
      "ĠMediterranean": 9133,
      "ĠDub": 9134,
      "Ġnetworks": 9135,
      "ĠIndians": 9136,
      "Ġconcerts": 9137,
      "Ġtrading": 9138,
      "Ġgradually": 9139,
      "Ġbegun": 9140,
      "Ġdialect": 9141,
      "Î±": 9142,
      "ĠGermans": 9143,
      "Ġhorses": 9144,
      "Ġcrash": 9145,
      "encing": 9146,
      "Ġunusual": 9147,
      "Ġhundreds": 9148,
      "ĠRain": 9149,
      "mentary": 9150,
      "Ġ66": 9151,
      "ĠDra": 9152,
      "bound": 9153,
      "James": 9154,
      "stad": 9155,
      "ĠNeg": 9156,
      "Ġsentence": 9157,
      "Ġpremiere": 9158,
      "Ġ1894": 9159,
      "ĠSC": 9160,
      "ĠAqu": 9161,
      "ĠPlant": 9162,
      "tical": 9163,
      "Ġdescribe": 9164,
      "Ġturning": 9165,
      "ĠBeck": 9166,
      "Ġsatellite": 9167,
      "ĠLanka": 9168,
      "DC": 9169,
      "gate": 9170,
      "Ġmissions": 9171,
      "eva": 9172,
      "Ġcommanded": 9173,
      "Ġastron": 9174,
      "ĠPrincess": 9175,
      "fare": 9176,
      "ĠPolitical": 9177,
      "Ġbear": 9178,
      "Ġathletes": 9179,
      "ĠLud": 9180,
      "esc": 9181,
      "Ġconstitution": 9182,
      "Ġcommented": 9183,
      "ĠSerbian": 9184,
      "ĠTreaty": 9185,
      "Ġ59": 9186,
      "Ġcategories": 9187,
      "They": 9188,
      "ricted": 9189,
      "uki": 9190,
      "ĠVancouver": 9191,
      "Ġsudden": 9192,
      "pany": 9193,
      "ĠBud": 9194,
      "arks": 9195,
      "ĠTower": 9196,
      "abilities": 9197,
      "Ġexists": 9198,
      "ĠBase": 9199,
      "Ġgovernments": 9200,
      "ĠBible": 9201,
      "enter": 9202,
      "Ġ1892": 9203,
      "was": 9204,
      "avan": 9205,
      "Ġsubd": 9206,
      "Ġsoul": 9207,
      "ivation": 9208,
      "Ġ85": 9209,
      "asts": 9210,
      "Ġtoured": 9211,
      "Ġproducers": 9212,
      "ĠHum": 9213,
      "Ġ1885": 9214,
      "care": 9215,
      "ĠRud": 9216,
      "ĠCass": 9217,
      "Ġresearchers": 9218,
      "Ġrebuilt": 9219,
      "Ġ95": 9220,
      "ivate": 9221,
      "ĠAP": 9222,
      "Ġspending": 9223,
      "Ġcontribution": 9224,
      "Ġcompilation": 9225,
      "Ġcreative": 9226,
      "Ãª": 9227,
      "Ġterritories": 9228,
      "ĠMes": 9229,
      "Ġdescent": 9230,
      "fish": 9231,
      "Ġworksh": 9232,
      "Ġcolony": 9233,
      "ÑĢÐ°": 9234,
      "Ġinstrumental": 9235,
      "Ġorganised": 9236,
      "Ġindigenous": 9237,
      "Ġdepict": 9238,
      "ĠYorkshire": 9239,
      "\";": 9240,
      "Ġchamber": 9241,
      "ĠAld": 9242,
      "ÅŁ": 9243,
      "arma": 9244,
      "Ġexternal": 9245,
      "Ġwine": 9246,
      "bane": 9247,
      "RS": 9248,
      "Ġ1891": 9249,
      "IL": 9250,
      "kov": 9251,
      "ĠCultural": 9252,
      "Star": 9253,
      "iration": 9254,
      "ĠNad": 9255,
      "ĠSection": 9256,
      "Ġpassage": 9257,
      "ĠHud": 9258,
      "Ġagencies": 9259,
      "Ġpercentage": 9260,
      "Ġcoalition": 9261,
      "Ġadults": 9262,
      "Ġamongst": 9263,
      "ĠAmaz": 9264,
      "ĠInstead": 9265,
      "Ġnone": 9266,
      "ĠNorm": 9267,
      "Ġearning": 9268,
      "mphony": 9269,
      "but": 9270,
      "ĠFr": 9271,
      "aku": 9272,
      "Ġopportunities": 9273,
      "Ġrestoration": 9274,
      "Ġvoters": 9275,
      "Ġdefinition": 9276,
      "ĠCarm": 9277,
      "Ġgone": 9278,
      "Ġdetailed": 9279,
      "issue": 9280,
      "Ġqualify": 9281,
      "Ġ72": 9282,
      "ĠManh": 9283,
      "Ġidentify": 9284,
      "ĠFine": 9285,
      "Ġneuro": 9286,
      "ulum": 9287,
      "ĠGill": 9288,
      "Ġcharacteristics": 9289,
      "Ġ250": 9290,
      "Ġversus": 9291,
      "Ġninth": 9292,
      "inf": 9293,
      "ĠEdition": 9294,
      "eenth": 9295,
      "eria": 9296,
      "Ġcasual": 9297,
      "atin": 9298,
      "roc": 9299,
      "emed": 9300,
      "ductions": 9301,
      "Ġactivist": 9302,
      "Despite": 9303,
      "ducted": 9304,
[...]
