{
  "version": "1.0",
  "truncation": null,
  "padding": null,
  "added_tokens": [
    {
      "id": 0,
      "content": "[UNK]",
      "single_word": false,
      "lstrip": false,
      "rstrip": false,
      "normalized": false,
      "special": true
    },
    {
      "id": 1,
      "content": "[CLS]",
      "single_word": false,
      "lstrip": false,
      "rstrip": false,
      "normalized": false,
      "special": true
    },
    {
      "id": 2,
      "content": "[SEP]",
      "single_word": false,
      "lstrip": false,
      "rstrip": false,
      "normalized": false,
      "special": true
    },
    {
      "id": 3,
      "content": "[PAD]",
      "single_word": false,
      "lstrip": false,
      "rstrip": false,
      "normalized": false,
      "special": true
    },
    {
      "id": 4,
      "content": "[MASK]",
      "single_word": false,
      "lstrip": false,
      "rstrip": false,
      "normalized": false,
      "special": true
    }
  ],
  "normalizer": null,
  "pre_tokenizer": {
    "type": "Sequence",
    "pretokenizers": [
      {
        "type": "Split",
        "pattern": {
          "Regex": "(?i:'s|'t|'re|'ve|'m|'ll|'d)|[^\\r\\n\\p{L}\\p{N}]?\\p{L}+|\\p{N}{1,3}| ?[^\\s\\p{L}\\p{N}]+[\\r\\n]*|\\s*[\\r\\n]+|\\s+(?!\\S)|\\s+"
        },
        "behavior": "MergedWithNext",
        "invert": false
      },
      {
        "type": "ByteLevel",
        "add_prefix_space": false,
        "trim_offsets": true,
        "use_regex": false
      }
    ]
  },
  "post_processor": null,
  "decoder": null,
  "model": {
    "type": "BPE",
    "dropout": null,
    "unk_token": "[UNK]",
    "continuing_subword_prefix": null,
    "end_of_word_suffix": null,
    "fuse_unk": false,
    "byte_fallback": false,
    "ignore_merges": false,
    "vocab": {
      "[UNK]": 0,
      "[CLS]": 1,
      "[SEP]": 2,
      "[PAD]": 3,
      "[MASK]": 4,
      "!": 5,
      "\"": 6,
      "#": 7,
      "$": 8,
      "%": 9,
      "&": 10,
      "'": 11,
      "(": 12,
      ")": 13,
      "*": 14,
      "+": 15,
      ",": 16,
      "-": 17,
      ".": 18,
      "/": 19,
      "0": 20,
      "1": 21,
      "2": 22,
      "3": 23,
      "4": 24,
      "5": 25,
      "6": 26,
      "7": 27,
      "8": 28,
      "9": 29,
      ":": 30,
      ";": 31,
      "<": 32,
      "=": 33,
      ">": 34,
      "?": 35,
      "@": 36,
      "A": 37,
      "B": 38,
      "C": 39,
      "D": 40,
      "E": 41,
      "F": 42,
      "G": 43,
      "H": 44,
      "I": 45,
      "J": 46,
      "K": 47,
      "L": 48,
      "M": 49,
      "N": 50,
      "O": 51,
      "P": 52,
      "Q": 53,
      "R": 54,
      "S": 55,
      "T": 56,
      "U": 57,
      "V": 58,
      "W": 59,
      "X": 60,
      "Y": 61,
      "Z": 62,
      "[": 63,
      "\\": 64,
      "]": 65,
      "^": 66,
      "_": 67,
      "`": 68,
      "a": 69,
      "b": 70,
      "c": 71,
      "d": 72,
      "e": 73,
      "f": 74,
      "g": 75,
      "h": 76,
      "i": 77,
      "j": 78,
      "k": 79,
      "l": 80,
      "m": 81,
      "n": 82,
      "o": 83,
      "p": 84,
      "q": 85,
      "r": 86,
      "s": 87,
      "t": 88,
      "u": 89,
      "v": 90,
      "w": 91,
      "x": 92,
      "y": 93,
      "z": 94,
      "{": 95,
      "|": 96,
      "}": 97,
      "~": 98,
      "¡": 99,
      "¢": 100,
      "£": 101,
      "¤": 102,
      "¥": 103,
      "¦": 104,
      "§": 105,
      "¨": 106,
      "©": 107,
      "ª": 108,
      "«": 109,
      "¬": 110,
      "®": 111,
      "¯": 112,
      "°": 113,
      "±": 114,
      "²": 115,
      "³": 116,
      "´": 117,
      "µ": 118,
      "¶": 119,
      "·": 120,
      "¸": 121,
      "¹": 122,
      "º": 123,
      "»": 124,
      "¼": 125,
      "½": 126,
      "¾": 127,
      "¿": 128,
      "Â": 129,
      "Ã": 130,
      "Ä": 131,
      "Å": 132,
      "Æ": 133,
      "Ç": 134,
      "È": 135,
      "É": 136,
      "Ê": 137,
      "Ë": 138,
      "Ì": 139,
      "Í": 140,
      "Î": 141,
      "Ï": 142,
      "Ð": 143,
      "Ñ": 144,
      "Ò": 145,
      "Ó": 146,
      "Ô": 147,
      "Õ": 148,
      "Ö": 149,
      "×": 150,
      "Ø": 151,
      "Ù": 152,
      "Ú": 153,
      "Û": 154,
      "Ü": 155,
      "Ý": 156,
      "Þ": 157,
      "ß": 158,
      "à": 159,
      "á": 160,
      "â": 161,
      "ã": 162,
      "ä": 163,
      "å": 164,
      "æ": 165,
      "ç": 166,
      "è": 167,
      "é": 168,
      "ê": 169,
      "ë": 170,
      "ì": 171,
      "í": 172,
      "î": 173,
      "ï": 174,
      "ð": 175,
      "ñ": 176,
      "ò": 177,
      "ó": 178,
      "ô": 179,
      "Ā": 180,
      "ā": 181,
      "Ă": 182,
      "ă": 183,
      "Ą": 184,
      "ą": 185,
      "Ć": 186,
      "ć": 187,
      "Ĉ": 188,
      "ĉ": 189,
      "Ċ": 190,
      "ċ": 191,
      "Č": 192,
      "č": 193,
      "Ď": 194,
      "ď": 195,
      "Đ": 196,
      "đ": 197,
      "Ē": 198,
      "ē": 199,
      "Ĕ": 200,
      "ĕ": 201,
      "Ė": 202,
      "ė": 203,
      "Ę": 204,
      "ę": 205,
      "Ě": 206,
      "ě": 207,
      "Ĝ": 208,
      "ĝ": 209,
      "Ğ": 210,
      "ğ": 211,
      "Ġ": 212,
      "ġ": 213,
      "Ģ": 214,
      "ģ": 215,
      "Ĥ": 216,
      "ĥ": 217,
      "Ħ": 218,
      "ħ": 219,
      "Ĩ": 220,
      "ĩ": 221,
      "Ī": 222,
      "ī": 223,
      "Ĭ": 224,
      "ĭ": 225,
      "Į": 226,
      "į": 227,
      "İ": 228,
      "ı": 229,
      "Ĳ": 230,
      "ĳ": 231,
      "Ĵ": 232,
      "ĵ": 233,
      "Ķ": 234,
      "ķ": 235,
      "ĸ": 236,
      "Ĺ": 237,
      "ĺ": 238,
      "Ļ": 239,
      "ļ": 240,
      "Ľ": 241,
      "ľ": 242,
      "Ŀ": 243,
      "ŀ": 244,
      "Ł": 245,
      "ł": 246,
      "Ń": 247,
      "Ġt": 248,
      "ĠĠ": 249,
      "Ġa": 250,
      "he": 251,
      "in": 252,
      "re": 253,
      "Ġs": 254,
      "on": 255,
      "Ġthe": 256,
      "er": 257,
      "Ġw": 258,
      "at": 259,
      "ou": 260,
      "ĠĠĠĠ": 261,
      "it": 262,
      "Ġc": 263,
      "or": 264,
      "is": 265,
      "nd": 266,
      "Ġb": 267,
      "ing": 268,
      "Ġf": 269,
      "en": 270,
      "es": 271,
      "Ġm": 272,
      "Ġo": 273,
      "ed": 274,
      "Ġp": 275,
      "Ġto": 276,
      "an": 277,
      "Ġd": 278,
      "al": 279,
      "Ġh": 280,
      "Ġth": 281,
      "ar": 282,
      "le": 283,
      "Ġin": 284,
      "Ġand": 285,
      "as": 286,
      "Ġof": 287,
      "ĠI": 288,
      "om": 289,
      "ic": 290,
      "Ġl": 291,
      "Ġn": 292,
      "ion": 293,
      "ll": 294,
      "Ġg": 295,
      "et": 296,
      "st": 297,
      "ve": 298,
      "ĊĊ": 299,
      "Ġe": 300,
      "Ġy": 301,
      "Ġre": 302,
      "ly": 303,
      "ot": 304,
      "ow": 305,
      "ct": 306,
      "ent": 307,
      "Ġis": 308,
      "Ġbe": 309,
      "id": 310,
      "Ġyou": 311,
      "ut": 312,
      "se": 313,
      "Ġit": 314,
      "Ġu": 315,
      "ĠĠĠ": 316,
      "ro": 317,
      "ĠĠĠĠĠĠĠĠ": 318,
      "im": 319,
      "Ġon": 320,
      "Ġthat": 321,
      "ay": 322,
      "ad": 323,
      "Ġhe": 324,
      "am": 325,
      "Ġ\"": 326,
      "Ġfor": 327,
      "âĢ": 328,
      "ld": 329,
      "ac": 330,
      "ver": 331,
      "ig": 332,
      "ĠT": 333,
      "Ġst": 334,
      "ith": 335,
      "ĠS": 336,
      "if": 337,
      "ke": 338,
      "Ġha": 339,
      "Ġwh": 340,
      "ĠA": 341,
      "Ġwith": 342,
      "Ġan": 343,
      "oo": 344,
      "Ġwe": 345,
      "ce": 346,
      "out": 347,
      "ur": 348,
      "ir": 349,
      "Ġas": 350,
      "ch": 351,
      "Ġ(": 352,
      "ation": 353,
      ".Ċ": 354,
      "ter": 355,
      "il": 356,
      "ĠC": 357,
      "Ġwas": 358,
      "'s": 359,
      "ht": 360,
      "Ġthis": 361,
      "Ġr": 362,
      "ag": 363,
      "Ġse": 364,
      "pe": 365,
      "ate": 366,
      "ill": 367,
      "ol": 368,
      "her": 369,
      "ould": 370,
      "ri": 371,
      "em": 372,
      "ĠM": 373,
      "ul": 374,
      "ab": 375,
      "pp": 376,
      "Ġnot": 377,
      "Ġcon": 378,
      "Ġhave": 379,
      "un": 380,
      "ore": 381,
      "ĠĠĠĠĠĠĠ": 382,
      "Ġne": 383,
      "Ġare": 384,
      "Ġdo": 385,
      "Ġat": 386,
      "est": 387,
      "od": 388,
      ".\"": 389,
      "um": 390,
      "us": 391,
      "Ġv": 392,
      "ain": 393,
      "th": 394,
      "ĠB": 395,
      "Ġcom": 396,
      "Ġde": 397,
      "qu": 398,
      "ust": 399,
      "ĠH": 400,
      "ers": 401,
      "Ġbut": 402,
      "'t": 403,
      "Ġpro": 404,
      "Ġor": 405,
      "ess": 406,
      "Ġex": 407,
      "ant": 408,
      "rom": 409,
      "Ġk": 410,
      "ist": 411,
      "Ġ=": 412,
      "Ġj": 413,
      "ĠP": 414,
      "Ġsh": 415,
      "el": 416,
      "ight": 417,
      "--": 418,
      "op": 419,
      "Ġli": 420,
      ".ĊĊ": 421,
      "ĠW": 422,
      "Ġso": 423,
      "âĢĻ": 424,
      "nt": 425,
      "ally": 426,
      "ĠThe": 427,
      "Ġme": 428,
      "Ġcan": 429,
      "Ġmy": 430,
      "and": 431,
      "ome": 432,
      "ĠD": 433,
      "Ġal": 434,
      "Ġsu": 435,
      "os": 436,
      "res": 437,
      "art": 438,
      "our": 439,
      "ame": 440,
      "Ġ-": 441,
      "..": 442,
      "Ġfrom": 443,
      "ack": 444,
      "ie": 445,
      "ort": 446,
      "Ġab": 447,
      "Ġch": 448,
      "all": 449,
      "ap": 450,
      "ĠL": 451,
      "Ġle": 452,
      "Ġhis": 453,
      "ive": 454,
      "Ġtr": 455,
      ";Ċ": 456,
      "ĠF": 457,
      "ĠR": 458,
      "Ġall": 459,
      "Ġwhe": 460,
      "oc": 461,
      "Ġwor": 462,
      "ment": 463,
      "ĠĊ": 464,
      "ity": 465,
      "ĠN": 466,
      "ook": 467,
      "ect": 468,
      "ind": 469,
      "Ġby": 470,
      "ard": 471,
      "pt": 472,
      "one": 473,
      "Ġus": 474,
      "oug": 475,
      "Ġup": 476,
      "act": 477,
      "Ġif": 478,
      "red": 479,
      "Ġlike": 480,
      "te": 481,
      "Ġout": 482,
      "00": 483,
      "ĠG": 484,
      "pl": 485,
      "ĠE": 486,
      "iv": 487,
      "Ġthey": 488,
      "ak": 489,
      "ue": 490,
      "Ġyour": 491,
      "ine": 492,
      "Ġget": 493,
      "ost": 494,
      "Ġpl": 495,
      "ge": 496,
      "ide": 497,
      "ĠO": 498,
      "Ġgo": 499,
      "Ġcl": 500,
      "age": 501,
      "ies": 502,
      "ĠĠĠĠĠĠĠĠĠĠĠĠĠĠĠĠ": 503,
      "ound": 504,
      "very": 505,
      "Ġjust": 506,
      "ast": 507,
      "Ġwill": 508,
      "Ġone": 509,
      "Ġkn": 510,
      "ass": 511,
      "ime": 512,
      "**": 513,
      "Ġher": 514,
      "Ġwould": 515,
      "ich": 516,
      "ud": 517,
      "Ġsome": 518,
      "able": 519,
      "ake": 520,
      "ile": 521,
      "Ġthere": 522,
      "Ġany": 523,
      "The": 524,
      "au": 525,
      "ong": 526,
      "Ġabout": 527,
      "ure": 528,
      "âĢľ": 529,
      "//": 530,
      "ink": 531,
      "ther": 532,
      "Ġhas": 533,
      "ice": 534,
      "Ġwhat": 535,
      "âĢĿ": 536,
      "ĠJ": 537,
      "ff": 538,
      "to": 539,
      "ction": 540,
      "iz": 541,
      "are": 542,
      "ase": 543,
      "per": 544,
      "ough": 545,
      "ple": 546,
      "Ġar": 547,
      "Ġad": 548,
      "Ġknow": 549,
      "og": 550,
      "av": 551,
      "Ġhad": 552,
      "Ġ{": 553,
      "ood": 554,
      "Ġfe": 555,
      "Ġmore": 556,
      "Ġwhen": 557,
      "ks": 558,
      "ated": 559,
      "Ġqu": 560,
      "ub": 561,
      "ble": 562,
      "Ġte": 563,
      "ult": 564,
      "ous": 565,
      "Ġim": 566,
      "int": 567,
      "ite": 568,
      "ace": 569,
      "Ġi": 570,
      "Ġ<": 571,
      "âĢĻs": 572,
      "xt": 573,
      "so": 574,
      "Ġen": 575,
      "cl": 576,
      "hat": 577,
      ",Ċ": 578,
      "Ġhim": 579,
      "Ġwho": 580,
      "ial": 581,
      "Ġthem": 582,
      "Ġsa": 583,
      "ry": 584,
      "hing": 585,
      "orm": 586,
      "ans": 587,
      "Ġwhich": 588,
      "Ġshe": 589,
      "'m": 590,
      "=\"": 591,
      "con": 592,
      "Ġno": 593,
      "Ġwere": 594,
      "ions": 595,
      "Ġtime": 596,
      "Ġwant": 597,
      "com": 598,
      "Ġ$": 599,
      "ep": 600,
      ")Ċ": 601,
      "20": 602,
      "Ġother": 603,
      "own": 604,
      "Ġ*": 605,
      "ven": 606,
      "ear": 607,
      "ick": 608,
      "ck": 609,
      "ĠU": 610,
      "ose": 611,
      "Ġman": 612,
      "Ġgr": 613,
      "ere": 614,
      "urn": 615,
      "Ġag": 616,
      "ause": 617,
      "Ġres": 618,
      "Ġtheir": 619,
      "Ġdon": 620,
      "ra": 621,
      "Ġcont": 622,
      ");Ċ": 623,
      "ays": 624,
      "ip": 625,
      "Ġun": 626,
      ">Ċ": 627,
      "Ġhow": 628,
      "ire": 629,
      "ĠIt": 630,
      "Ġ[": 631,
      "Ġwork": 632,
      "ber": 633,
      "Ġbeen": 634,
      "ail": 635,
      "ove": 636,
      "Ġam": 637,
      "Ġ'": 638,
      "Ġ+": 639,
      "Ġsc": 640,
      "Ġbec": 641,
      "ang": 642,
      "ance": 643,
      "cc": 644,
      "reat": 645,
      "Ġlook": 646,
      "Ġpe": 647,
      "Ġnew": 648,
      "Ġpr": 649,
      "ress": 650,
      "ĠY": 651,
      "Ġcould": 652,
      "Ġthan": 653,
      "ory": 654,
      "----": 655,
      "Ġdid": 656,
      "his": 657,
      "Ġover": 658,
      "Ġinto": 659,
      ").": 660,
      "Ġneed": 661,
      "ach": 662,
      "ign": 663,
      "Ġthink": 664,
      "ings": 665,
      "ĠĠĠĠĠĠĠĠĠĠĠ": 666,
      "Ġdis": 667,
      "Ġback": 668,
      "Ġ}": 669,
      "ord": 670,
      ":ĊĊ": 671,
      "ary": 672,
      "ĠK": 673,
      "lf": 674,
      "Ġthen": 675,
      "Ġoff": 676,
      "Ġonly": 677,
      "end": 678,
      "ru": 679,
      "itt": 680,
      "Ġ{Ċ": 681,
      "ople": 682,
      "irst": 683,
      "port": 684,
      "Ġper": 685,
      "Ġcomp": 686,
      "ree": 687,
      "Ġpre": 688,
      "ode": 689,
      "Ġsee": 690,
      "lic": 691,
      "čĊ": 692,
      "10": 693,
      "Ġuse": 694,
      "?\"": 695,
      "ia": 696,
      "ull": 697,
      "ject": 698,
      "Ġapp": 699,
      "get": 700,
      "fter": 701,
      "ount": 702,
      "ens": 703,
      "tr": 704,
      "ty": 705,
      "Ġtw": 706,
      "Ġsaid": 707,
      "ĠHe": 708,
      "Ġbecause": 709,
      "ata": 710,
      "ical": 711,
      "Ġsp": 712,
      "Ġpeople": 713,
      "ations": 714,
      "Ġalso": 715,
      ":Ċ": 716,
      "du": 717,
      "Ġnow": 718,
      "ence": 719,
      "Ġpart": 720,
      "nder": 721,
      "Ġway": 722,
      "vel": 723,
      "ild": 724,
      "we": 725,
      "Ġevery": 726,
      "omet": 727,
      "form": 728,
      "ob": 729,
      "fere": 730,
      "Ġbet": 731,
      "Ġdoes": 732,
      "ĠIn": 733,
      "vers": 734,
      "Ġspe": 735,
      "ĠV": 736,
      "Ġshould": 737,
      "li": 738,
      "de": 739,
      "gr": 740,
      "Ġyear": 741,
      "ĠâĢľ": 742,
      "Ġbl": 743,
      "ne": 744,
      "hed": 745,
      "'re": 746,
      "iew": 747,
      "ov": 748,
      "ft": 749,
      "ĠĠĠĠĠ": 750,
      "Ġfirst": 751,
      "Ġbr": 752,
      "Ġser": 753,
      "Ġreally": 754,
      "ents": 755,
      "fore": 756,
      "ition": 757,
      "Ġpo": 758,
      "uch": 759,
      "Ġgood": 760,
      "Ġro": 761,
      "Ġhere": 762,
      "Ġright": 763,
      "Ġmake": 764,
      "ade": 765,
      "ell": 766,
      "other": 767,
      "ath": 768,
      "Ġour": 769,
      "Ġthr": 770,
      "Ġtoo": 771,
      "Ġread": 772,
      "ps": 773,
      "...": 774,
      "oy": 775,
      "ĉĉ": 776,
      "Ġwr": 777,
      "ious": 778,
      "Ġeven": 779,
      "Ġvery": 780,
      "()": 781,
      "ors": 782,
      "Ġtwo": 783,
      "Ġset": 784,
      "Ġbu": 785,
      "ting": 786,
      "ock": 787,
      "Ġadd": 788,
      "Ġact": 789,
      "Ġdown": 790,
      "Ġdif": 791,
      ";ĊĊ": 792,
      "Ġmuch": 793,
      "âĢĻt": 794,
      "</": 795,
      "Ġsm": 796,
      "Ġafter": 797,
      "Ġke": 798,
      "'ve": 799,
      "Ġsomet": 800,
      "self": 801,
      "ning": 802,
      "ark": 803,
      "be": 804,
      "Ġgoing": 805,
      "In": 806,
      "oll": 807,
      "Ġwhere": 808,
      "Ġret": 809,
      "Ġagain": 810,
      "Ġunder": 811,
      "Ġwell": 812,
      "Ġgu": 813,
      "iss": 814,
      "bs": 815,
      "Ġfl": 816,
      "ys": 817,
      "old": 818,
      "Ġfun": 819,
      "Ġstart": 820,
      "://": 821,
      "Ġthese": 822,
      "),": 823,
      "read": 824,
      "Ġcomm": 825,
      "Ġmay": 826,
      "Ġsay": 827,
      "Ġtry": 828,
      "Ġclass": 829,
      "201": 830,
      "Ġhel": 831,
      "Ġinst": 832,
      "Ġgot": 833,
      "Ġval": 834,
      "Ġbook": 835,
      "Ġdes": 836,
      "Ġplay": 837,
      "ish": 838,
      "ex": 839,
      "ĠCh": 840,
      "ange": 841,
      "the": 842,
      "Ġits": 843,
      "ool": 844,
      "Ġdef": 845,
      "Ġbefore": 846,
      "ows": 847,
      "Ġusing": 848,
      "ont": 849,
      "ond": 850,
      "wn": 851,
      "ually": 852,
      "Ġrem": 853,
      "Ġcall": 854,
      "atch": 855,
      "pect": 856,
      "It": 857,
      "ize": 858,
      "Ġhand": 859,
      "Ġstill": 860,
      "Ġstr": 861,
      "lect": 862,
      "ĠSt": 863,
      "ual": 864,
      "ci": 865,
      "ces": 866,
      "Ġpos": 867,
      "igh": 868,
      "ER": 869,
      "==": 870,
      "yst": 871,
      "Ġend": 872,
      "ater": 873,
      "Ġsomething": 874,
      ".âĢĿ": 875,
      "ĠThis": 876,
      "?Ċ": 877,
      "ought": 878,
      "thing": 879,
      "Ġmost": 880,
      "Ġthrough": 881,
      "Ġrec": 882,
      "ict": 883,
      "ert": 884,
      "ener": 885,
      "Ġem": 886,
      "ah": 887,
      "12": 888,
      "Ġbeing": 889,
      "Ġfind": 890,
      "Ġdiffere": 891,
      "ms": 892,
      "19": 893,
      "Ġsame": 894,
      "oth": 895,
      "ates": 896,
      "Ġhelp": 897,
      "ons": 898,
      "Ġacc": 899,
      "alk": 900,
      "ix": 901,
      "Ġfeel": 902,
      "ific": 903,
      "ise": 904,
      "Ġass": 905,
      "Ġrun": 906,
      "way": 907,
      "Ġlong": 908,
      "ib": 909,
      "ave": 910,
      "Ġlet": 911,
      "les": 912,
      "ublic": 913,
      "han": 914,
      "Ġche": 915,
      "ily": 916,
      "clud": 917,
      "ian": 918,
      "ng": 919,
      "ype": 920,
      "up": 921,
      "Ġinter": 922,
      "ars": 923,
      "Ġcol": 924,
      "aking": 925,
      "You": 926,
      "ating": 927,
      "pro": 928,
      "err": 929,
      "ible": 930,
      "ystem": 931,
      "Ġreturn": 932,
      "ife": 933,
      "Ġhapp": 934,
      "cri": 935,
      "cept": 936,
      "cess": 937,
      "Ġrel": 938,
      "vent": 939,
      "ĠYou": 940,
      "tp": 941,
      "ittle": 942,
      "ving": 943,
      "hen": 944,
      "ince": 945,
      ".com": 946,
      "ss": 947,
      "ĠIf": 948,
      "cre": 949,
      "Ġchar": 950,
      "put": 951,
      "ax": 952,
      "pen": 953,
      "pr": 954,
      "Ġmod": 955,
      "Ġcons": 956,
      "11": 957,
      "IN": 958,
      "__": 959,
      "Ġsupp": 960,
      "but": 961,
      "ful": 962,
      "ww": 963,
      "Ġgreat": 964,
      "Ġph": 965,
      "ew": 966,
      "Ġmet": 967,
      "Ġpoint": 968,
      "Ġsim": 969,
      "Ġob": 970,
      "ĠBut": 971,
      "'ll": 972,
      "?ĊĊ": 973,
      "Ġ&": 974,
      "ĠAnd": 975,
      "ĠâĢ": 976,
      "ative": 977,
      "Ġproble": 978,
      "Ġsl": 979,
      "Ġlittle": 980,
      "ph": 981,
      "Ġinte": 982,
      "ug": 983,
      "Ġtake": 984,
      "Ġmany": 985,
      "Ġused": 986,
      "Ġthose": 987,
      "ĠĠĠĠĠĠĠĠĠĠĠĠĠĠĠ": 988,
      "Ġseem": 989,
      "str": 990,
      "ec": 991,
      "Ġ:": 992,
      "Ġaround": 993,
      "ĠWe": 994,
      "Ġatt": 995,
      "Ġdidn": 996,
      "Ġreg": 997,
      "ced": 998,
      "hes": 999,
      "Ġ.": 1000,
      "Ġac": 1001,
      "\",": 1002,
      "ues": 1003,
      "Ġcr": 1004,
      "day": 1005,
      "Ġbel": 1006,
      "Ġdata": 1007,
      "uck": 1008,
      "ased": 1009,
      "Ġfin": 1010,
      "Ġ/": 1011,
      "What": 1012,
      "Ġlast": 1013,
      "Ġcur": 1014,
      "oad": 1015,
      "Ġnum": 1016,
      "ever": 1017,
      "ied": 1018,
      "Ġwhile": 1019,
      "ward": 1020,
      "Ġmade": 1021,
      "mer": 1022,
      "ments": 1023,
      "--------": 1024,
      "Ġlot": 1025,
      "Ġco": 1026,
      "cond": 1027,
      "owing": 1028,
      "Ġyears": 1029,
      "ody": 1030,
      "Ġown": 1031,
      "Ġint": 1032,
      "!\"": 1033,
      "Ġthings": 1034,
      "Ġdifferent": 1035,
      "Ġfunction": 1036,
      "erson": 1037,
      "led": 1038,
      "ower": 1039,
      "imes": 1040,
      "ox": 1041,
      "15": 1042,
      "aw": 1043,
      "Ġlist": 1044,
      "ular": 1045,
      "ON": 1046,
      "riend": 1047,
      "Ġent": 1048,
      "its": 1049,
      "Ġfoll": 1050,
      "Ġ_": 1051,
      "val": 1052,
      "Ġel": 1053,
      "Ġnever": 1054,
      "Ġvar": 1055,
      "nce": 1056,
      "ork": 1057,
      "ved": 1058,
      "Ġreal": 1059,
      "Ġmin": 1060,
      "(\"": 1061,
      "ote": 1062,
      "Ġput": 1063,
      "ways": 1064,
      "ics": 1065,
      "Ġname": 1066,
      "Ġeach": 1067,
      "ead": 1068,
      "rent": 1069,
      "ield": 1070,
      "Ġfr": 1071,
      "io": 1072,
      "lease": 1073,
      "Ġtri": 1074,
      "akes": 1075,
      "Ġsuch": 1076,
      "ween": 1077,
      "Ġday": 1078,
      "Ġsub": 1079,
      "ages": 1080,
      "sh": 1081,
      "Ġdec": 1082,
      "vice": 1083,
      "This": 1084,
      "app": 1085,
      "Ġquest": 1086,
      "Ġ\\": 1087,
      "St": 1088,
      "Ġins": 1089,
      "Ġsure": 1090,
      "Ġmon": 1091,
      "Ġhead": 1092,
      "Ġspec": 1093,
      "air": 1094,
      "ather": 1095,
      "erm": 1096,
      "Ġfound": 1097,
      "olog": 1098,
      "ient": 1099,
      "Ġcre": 1100,
      "Ġ//": 1101,
      "Ġlove": 1102,
      "ef": 1103,
      "Ġthing": 1104,
      "ample": 1105,
      "Ġstud": 1106,
      "ason": 1107,
      "16": 1108,
      "Ġbetter": 1109,
      "Ġbetween": 1110,
      "Ġ|": 1111,
      "ident": 1112,
      "Ġfew": 1113,
      "ility": 1114,
      "Ġdoesn": 1115,
      "rest": 1116,
      "Ġboth": 1117,
      "tern": 1118,
      "Ġ}Ċ": 1119,
      "Ġcor": 1120,
      "Ġrequ": 1121,
      "der": 1122,
      "Ġinv": 1123,
      "Ġconf": 1124,
      "ically": 1125,
      "ery": 1126,
      "gg": 1127,
      "200": 1128,
      "Ġx": 1129,
      "He": 1130,
      "ĠĊĊ": 1131,
      "amp": 1132,
      "Ġsur": 1133,
      "Ġcode": 1134,
      "Ġlife": 1135,
      "arch": 1136,
      "Ġap": 1137,
      "br": 1138,
      "Ġwithout": 1139,
      "000": 1140,
      "Ġfile": 1141,
      "Ġask": 1142,
      "olut": 1143,
      "Ġtrans": 1144,
      "Ġbit": 1145,
      "pos": 1146,
      "Ġform": 1147,
      "Ġanother": 1148,
      "'d": 1149,
      "uth": 1150,
      "Ġfact": 1151,
      "We": 1152,
      "ames": 1153,
      ")ĊĊ": 1154,
      "oup": 1155,
      "30": 1156,
      "Ġet": 1157,
      "ny": 1158,
      "als": 1159,
      "Ġtest": 1160,
      "AT": 1161,
      "Ġwhy": 1162,
      "az": 1163,
      "ml": 1164,
      "ves": 1165,
      "Ġthought": 1166,
      ",\"": 1167,
      "Ġproblem": 1168,
      "ĠShe": 1169,
      "ner": 1170,
      "Ġcome": 1171,
      "Ġprodu": 1172,
      "18": 1173,
      "Ġsince": 1174,
      "Ġgener": 1175,
      "Ġsecond": 1176,
      "any": 1177,
      "Ġgl": 1178,
      "Ġinclud": 1179,
      "oot": 1180,
      "Ġalways": 1181,
      "14": 1182,
      "ash": 1183,
      "ope": 1184,
      "hod": 1185,
      "Ġperson": 1186,
      "ably": 1187,
      "Ġhigh": 1188,
      "irect": 1189,
      "Ġvalue": 1190,
      "text": 1191,
      "Ġpres": 1192,
      "ton": 1193,
      "ST": 1194,
      "ared": 1195,
      "Ġkeep": 1196,
      "Ġsystem": 1197,
      "Ġdet": 1198,
      "Ġwee": 1199,
      "ense": 1200,
      "ruct": 1201,
      "ures": 1202,
      "set": 1203,
      "Ġeff": 1204,
      "Ġmight": 1205,
      "Ġgiv": 1206,
      ",âĢĿ": 1207,
      "Ġfil": 1208,
      "div": 1209,
      "ĠSo": 1210,
      "Ġturn": 1211,
      "Ġnext": 1212,
      "cy": 1213,
      "}ĊĊ": 1214,
      "->": 1215,
      "pend": 1216,
      "Ġhard": 1217,
      "Ġopen": 1218,
      "ger": 1219,
      "Ġtell": 1220,
      "here": 1221,
      "oid": 1222,
      "Ġresult": 1223,
      "Ġfriend": 1224,
      "ern": 1225,
      "cript": 1226,
      "13": 1227,
      "****": 1228,
      "dd": 1229,
      "RE": 1230,
      "Ġbest": 1231,
      "Ġgame": 1232,
      "less": 1233,
      "ities": 1234,
      "Ġcle": 1235,
      "view": 1236,
      "Ġey": 1237,
      "Ġcase": 1238,
      "hy": 1239,
      "uring": 1240,
      "Ġposs": 1241,
      "25": 1242,
      "Ġshow": 1243,
      "Ġpublic": 1244,
      "\"Ċ": 1245,
      "ale": 1246,
      ".âĢĿĊ": 1247,
      "Ġcar": 1248,
      "ribut": 1249,
      "ray": 1250,
      "Ġcount": 1251,
      "Ġeas": 1252,
      "Ġtrying": 1253,
      "ren": 1254,
      "Ġcomple": 1255,
      "ĠAl": 1256,
      "uff": 1257,
      "Ġold": 1258,
      "\">": 1259,
      "ource": 1260,
      "Ġiss": 1261,
      "ĠUn": 1262,
      "Ġgive": 1263,
      "Ġbig": 1264,
      "Ġide": 1265,
      "ank": 1266,
      "Ġkind": 1267,
      "ins": 1268,
      "ts": 1269,
      "',": 1270,
      "na": 1271,
      "ited": 1272,
      "und": 1273,
      "Ġexper": 1274,
      "ters": 1275,
      "Ġworld": 1276,
      "velop": 1277,
      "Ġdoing": 1278,
      "nect": 1279,
      "stand": 1280,
      "ĠĠĠĠĠĠĠĠĠĠĠĠĠĠĠĠĠĠĠĠĠĠĠĠĠĠĠĠĠĠĠĠ": 1281,
      "ĠX": 1282,
      "::": 1283,
      "Ġtalk": 1284,
      "Ġcharact": 1285,
      "ee": 1286,
      "not": 1287,
      "Ġpol": 1288,
      "Ġmean": 1289,
      "Ġsmall": 1290,
      "ĠThey": 1291,
      "Ġthough": 1292,
      "Ġactually": 1293,
      "ator": 1294,
      "ouse": 1295,
      "Ġprov": 1296,
      "Ġpass": 1297,
      "Ġelse": 1298,
      "press": 1299,
      "Ġear": 1300,
      "ĠRe": 1301,
      "AR": 1302,
      "Ġsign": 1303,
      "Ġnumber": 1304,
      "line": 1305,
      "iting": 1306,
      "ik": 1307,
      ");ĊĊ": 1308,
      "Ġpost": 1309,
      "ices": 1310,
      "ines": 1311,
      "ok": 1312,
      "Ġmem": 1313,
      "('": 1314,
      "-s": 1315,
      "100": 1316,
      "ready": 1317,
      "Ġaway": 1318,
      "Re": 1319,
      "Ġdist": 1320,
      "ument": 1321,
      "Ġmat": 1322,
      "of": 1323,
      "Ġstate": 1324,
      "Ġprob": 1325,
      "Ġloc": 1326,
      "Ġtype": 1327,
      "EN": 1328,
      "ream": 1329,
      "Ġdr": 1330,
      "http": 1331,
      "Ġstory": 1332,
      "Ġfam": 1333,
      "par": 1334,
      "aug": 1335,
      "Ġerr": 1336,
      "ĠWhat": 1337,
      "Ġinterest": 1338,
      "Ġcour": 1339,
      "ĠAs": 1340,
      "\":": 1341,
      "Ġfar": 1342,
      "Ġanything": 1343,
      "ump": 1344,
      "Ġable": 1345,
      "Ġinf": 1346,
      "17": 1347,
      "Than": 1348,
      "ier": 1349,
      "ĠĠĠĠĠĠĠĠĠ": 1350,
      "org": 1351,
      "ĠHow": 1352,
      "ized": 1353,
      ",ĊĊ": 1354,
      "Ġline": 1355,
      "ĠThere": 1356,
      "Ġpat": 1357,
      "ĠĠĠĠĠĠ": 1358,
      "eah": 1359,
      "Ġthree": 1360,
      "50": 1361,
      "If": 1362,
      "man": 1363,
      "ret": 1364,
      "ets": 1365,
      "rol": 1366,
      "IT": 1367,
      "atic": 1368,
      "eng": 1369,
      "OR": 1370,
      "Ġconst": 1371,
      "-b": 1372,
      "tring": 1373,
      "ined": 1374,
      "Ġenough": 1375,
      "Ġmain": 1376,
      "Ġed": 1377,
      "Ġplace": 1378,
      "ness": 1379,
      "Ġmov": 1380,
      "Ġlooking": 1381,
      "Ġgetting": 1382,
      "ired": 1383,
      "Ġpar": 1384,
      "Ġsupport": 1385,
      "Ġcare": 1386,
      "AN": 1387,
      "Ġalready": 1388,
      "arent": 1389,
      "Ġhappen": 1390,
      "Ġtop": 1391,
      "Ġav": 1392,
      "Ġchange": 1393,
      "Ġagainst": 1394,
      "formation": 1395,
      "HE": 1396,
      "Ġopt": 1397,
      "LE": 1398,
      "Ġbuild": 1399,
      "chool": 1400,
      "Ġsomeone": 1401,
      "version": 1402,
      "Ġsk": 1403,
      "Ġht": 1404,
      "ider": 1405,
      "Ġdone": 1406,
      "And": 1407,
      "gin": 1408,
      "Ġresp": 1409,
      "Ġleft": 1410,
      "work": 1411,
      "Ġcurrent": 1412,
      "Ġexpl": 1413,
      "gram": 1414,
      "Ġimport": 1415,
      "ĠTh": 1416,
      "Ġhome": 1417,
      "Ġchang": 1418,
      "But": 1419,
      "Ġunt": 1420,
      "Ġbelie": 1421,
      "ither": 1422,
      "ling": 1423,
      "Ġmonth": 1424,
      "Ġquestion": 1425,
      "Ġ@": 1426,
      "Ġcou": 1427,
      "{Ċ": 1428,
      "ross": 1429,
      "fr": 1430,
      "me": 1431,
      "Ġchild": 1432,
      "ately": 1433,
      "Ġz": 1434,
      "ational": 1435,
      "Ġdevelop": 1436,
      "name": 1437,
      "ĠThat": 1438,
      "vious": 1439,
      "usic": 1440,
      "Ġsw": 1441,
      "Ġ</": 1442,
      "Ġunderstand": 1443,
      "pped": 1444,
      "Ġbeh": 1445,
      "Con": 1446,
      "ĠIs": 1447,
      "for": 1448,
      "Ġdisc": 1449,
      "ault": 1450,
      "Ġstand": 1451,
      "Ġmethod": 1452,
      "Ġhaving": 1453,
      "32": 1454,
      "ature": 1455,
      "alth": 1456,
      "yn": 1457,
      "Ġâ": 1458,
      "Ġword": 1459,
      "ĠTr": 1460,
      "yp": 1461,
      "ĠFor": 1462,
      "Ġprocess": 1463,
      "Ġexpect": 1464,
      "ted": 1465,
      "))": 1466,
      "Ġbre": 1467,
      "ience": 1468,
      "Pro": 1469,
      "ten": 1470,
      "ement": 1471,
      "ards": 1472,
      "Ġpret": 1473,
      "Ġmust": 1474,
      "roll": 1475,
      "Ġfull": 1476,
      "How": 1477,
      "====": 1478,
      "sw": 1479,
      "ĠMy": 1480,
      "Ġext": 1481,
      "Ex": 1482,
      "ify": 1483,
      "ute": 1484,
      "Ġmed": 1485,
      "Ġwar": 1486,
      "Ġworking": 1487,
      "SE": 1488,
      "hip": 1489,
      "ivers": 1490,
      "Ġref": 1491,
      "Ġpri": 1492,
      "ided": 1493,
      "24": 1494,
      "Ġexample": 1495,
      "ID": 1496,
      "ĠAr": 1497,
      "add": 1498,
      "med": 1499,
      "uss": 1500,
      "ware": 1501,
      "Ġdri": 1502,
      "ext": 1503,
      "Ġcheck": 1504,
      "ĠDe": 1505,
      "oh": 1506,
      "ava": 1507,
      "Âł": 1508,
      "Ġpretty": 1509,
      "Ġlar": 1510,
      "Ġ#": 1511,
      "}Ċ": 1512,
      "ird": 1513,
      "Ġdirect": 1514,
      "ention": 1515,
      "cent": 1516,
      "Ġever": 1517,
      "Ġappro": 1518,
      "ĠQ": 1519,
      "kay": 1520,
      "roid": 1521,
      "Ġrep": 1522,
      "Ġwa": 1523,
      "oint": 1524,
      "Ġeyes": 1525,
      ".j": 1526,
      "ĠSh": 1527,
      "Ġev": 1528,
      "Ġ--": 1529,
      "Ġele": 1530,
      "Ġmom": 1531,
      "iter": 1532,
      "Ġuntil": 1533,
      "Ġwom": 1534,
      "comm": 1535,
      "Ġmess": 1536,
      "AL": 1537,
      "Ġbad": 1538,
      "iness": 1539,
      "uc": 1540,
      "ists": 1541,
      "Ġbus": 1542,
      "ertain": 1543,
      "Ġprobably": 1544,
      "Ġless": 1545,
      "So": 1546,
      "inal": 1547,
      "ĠLet": 1548,
      "cial": 1549,
      "Ġface": 1550,
      "sp": 1551,
      "Ġlead": 1552,
      "ym": 1553,
      "Ch": 1554,
      "rap": 1555,
      ".c": 1556,
      "Ġbas": 1557,
      "ĊĊĊ": 1558,
      "Ġplan": 1559,
      "Ġside": 1560,
      "www": 1561,
      "Ġtimes": 1562,
      "Ġind": 1563,
      "gan": 1564,
      "Ġsays": 1565,
      "Ġlevel": 1566,
      "gs": 1567,
      "Ġteam": 1568,
      "Ġobject": 1569,
      "ality": 1570,
      "ains": 1571,
      "Ġcontin": 1572,
      "Ġleast": 1573,
      "els": 1574,
      "Ġseems": 1575,
      "Ġ}ĊĊ": 1576,
      "Ġonce": 1577,
      "Ġ,": 1578,
      "my": 1579,
      "tps": 1580,
      "Ġorder": 1581,
      "oney": 1582,
      "most": 1583,
      "play": 1584,
      "ered": 1585,
      "ĠCom": 1586,
      "Ġreport": 1587,
      "ism": 1588,
      "?âĢĿ": 1589,
      "Ġanyone": 1590,
      "ering": 1591,
      "Ġpartic": 1592,
      "aj": 1593,
      "aps": 1594,
      "sc": 1595,
      "over": 1596,
      "Ġeverything": 1597,
      "ently": 1598,
      "Ġpossible": 1599,
      "Ġsit": 1600,
      "Ġrest": 1601,
      "upp": 1602,
      "Ġreason": 1603,
      "Ġtrue": 1604,
      "Ġinformation": 1605,
      "Ġfollowing": 1606,
      "ĠPro": 1607,
      "Ġnight": 1608,
      "40": 1609,
      "Ġproper": 1610,
      "Ġfree": 1611,
      "();Ċ": 1612,
      "bsp": 1613,
      "ished": 1614,
      "Let": 1615,
      "ched": 1616,
      "Ġhum": 1617,
      "Ġwon": 1618,
      "elt": 1619,
      "min": 1620,
      "Ġlear": 1621,
      "Ġworks": 1622,
      "Ġview": 1623,
      "Ð¾": 1624,
      "Ġduring": 1625,
      "Thanks": 1626,
      "idd": 1627,
      "Ġpur": 1628,
      "row": 1629,
      "Ġmult": 1630,
      "Ġtext": 1631,
      "Ġprot": 1632,
      "this": 1633,
      "Ġprogram": 1634,
      "Ġproject": 1635,
      "Ġmark": 1636,
      "nbsp": 1637,
      "Ġisn": 1638,
      "load": 1639,
      "Ġart": 1640,
      "bers": 1641,
      "net": 1642,
      "Ġjob": 1643,
      "Ġcalled": 1644,
      "Ġcap": 1645,
      "ases": 1646,
      "Name": 1647,
      "Ġtried": 1648,
      "Ġcame": 1649,
      "Ġmiss": 1650,
      "View": 1651,
      "Ġnothing": 1652,
      "ional": 1653,
      "Ġpower": 1654,
      ".\"Ċ": 1655,
      "Ġschool": 1656,
      "ush": 1657,
      "Ġwanted": 1658,
      "wh": 1659,
      "Ġsing": 1660,
      "Ġdays": 1661,
      "ember": 1662,
      "Ġmakes": 1663,
      "Ġlight": 1664,
      "olution": 1665,
      "Ġself": 1666,
      "ants": 1667,
      "ĠĠĠĠĠĠĠĠĠĠĠĠĠĠĠĠĠĠĠ": 1668,
      "CT": 1669,
      "Ġvis": 1670,
      "ott": 1671,
      "meric": 1672,
      "ustom": 1673,
      "gether": 1674,
      "Ġequ": 1675,
      "ides": 1676,
      "date": 1677,
      "Ġroom": 1678,
      "uthor": 1679,
      "Ġstarted": 1680,
      "ained": 1681,
      "Ġwent": 1682,
      "Ġmove": 1683,
      "22": 1684,
      "iet": 1685,
      "ĠSe": 1686,
      "reen": 1687,
      "Is": 1688,
      "Ġuser": 1689,
      "Ġlog": 1690,
      "land": 1691,
      "aining": 1692,
      "Ġeffect": 1693,
      "ats": 1694,
      "Ġmaking": 1695,
      "As": 1696,
      "Ġmind": 1697,
      "ĠWh": 1698,
      "irl": 1699,
      "Ġgroup": 1700,
      "Ġconnect": 1701,
      "chn": 1702,
      "oice": 1703,
      "body": 1704,
      "ised": 1705,
      "-c": 1706,
      "Ġes": 1707,
      "Ġcourse": 1708,
      "!!": 1709,
      "-f": 1710,
      ".S": 1711,
      "Hi": 1712,
      ".s": 1713,
      "].": 1714,
      "Ġidea": 1715,
      "Ġversion": 1716,
      "att": 1717,
      "ology": 1718,
      "used": 1719,
      "Ġwasn": 1720,
      "##": 1721,
      "ric": 1722,
      "Ġweek": 1723,
      "ES": 1724,
      ";čĊ": 1725,
      "Ġtold": 1726,
      "Ġappe": 1727,
      "Ġhour": 1728,
      "(-": 1729,
      "aring": 1730,
      "ĠZ": 1731,
      "ĠBr": 1732,
      "ccess": 1733,
      "ital": 1734,
      "Ġerror": 1735,
      "alse": 1736,
      "Ġyet": 1737,
      "ĠCl": 1738,
      "Ġid": 1739,
      "Ġcent": 1740,
      "let": 1741,
      "raw": 1742,
      "Ġinc": 1743,
      "erv": 1744,
      "ĠÐ": 1745,
      "ma": 1746,
      "Ġpack": 1747,
      "Cl": 1748,
      "Ġtook": 1749,
      "aut": 1750,
      "-m": 1751,
      "alf": 1752,
      "Ġtogether": 1753,
      "Ġsound": 1754,
      "Ġincre": 1755,
      "son": 1756,
      "Ġadv": 1757,
      "ails": 1758,
      "ule": 1759,
      ".m": 1760,
      "ified": 1761,
      "Ġeither": 1762,
      "bl": 1763,
      "cul": 1764,
      "osed": 1765,
      "rect": 1766,
      "Ġkey": 1767,
      "opy": 1768,
      "Ġdoc": 1769,
      "ĠĠĊ": 1770,
      "ĠAll": 1771,
      "cont": 1772,
      "Ġhold": 1773,
      "Ġcomplete": 1774,
      "ured": 1775,
      "tend": 1776,
      "My": 1777,
      "by": 1778,
      ".org": 1779,
      "cur": 1780,
      "def": 1781,
      "Ġrepl": 1782,
      "Ġaut": 1783,
      "Ġpay": 1784,
      "ĠAn": 1785,
      "To": 1786,
      ".p": 1787,
      "Ġhope": 1788,
      "Ġfield": 1789,
      "Ġfamily": 1790,
      "Ġansw": 1791,
      "aster": 1792,
      "Id": 1793,
      "Ġwrong": 1794,
      "Ġpick": 1795,
      "oss": 1796,
      "Ġmoney": 1797,
      "Ġproduct": 1798,
      "Ġwhole": 1799,
      "lication": 1800,
      "ĠNew": 1801,
      "gy": 1802,
      "Ġinstall": 1803,
      "ctions": 1804,
      "Ġperform": 1805,
      "Ġkill": 1806,
      "joy": 1807,
      "Ġmar": 1808,
      "ĠAmeric": 1809,
      "Ġcommun": 1810,
      "Ġpage": 1811,
      "ully": 1812,
      "64": 1813,
      "....": 1814,
      "60": 1815,
      "_t": 1816,
      "OM": 1817,
      "Ġdem": 1818,
      "23": 1819,
      "ization": 1820,
      "ask": 1821,
      "-d": 1822,
      "No": 1823,
      "Ġcreate": 1824,
      "Ġmen": 1825,
      "Ġsol": 1826,
      "dit": 1827,
      "orn": 1828,
      "Ġuh": 1829,
      "ency": 1830,
      "action": 1831,
      "ĠWhen": 1832,
      "ane": 1833,
      "OU": 1834,
      "back": 1835,
      "Ġnon": 1836,
      "illion": 1837,
      "Ġtable": 1838,
      "Ġtem": 1839,
      "ref": 1840,
      "For": 1841,
      "List": 1842,
      "que": 1843,
      "Ġseen": 1844,
      "ung": 1845,
      "where": 1846,
      "bed": 1847,
      "ches": 1848,
      ".g": 1849,
      "oard": 1850,
      "Ġnice": 1851,
      "Ġbelieve": 1852,
      "Ġquick": 1853,
      "itive": 1854,
      "right": 1855,
      "fect": 1856,
      "lay": 1857,
      "Ġrunning": 1858,
      "Ġimportant": 1859,
      "Ġalmost": 1860,
      "aces": 1861,
      "Ġclear": 1862,
      "IC": 1863,
      ".get": 1864,
      "âĢ¦": 1865,
      "head": 1866,
      "Ġrece": 1867,
      "ision": 1868,
      "ned": 1869,
      "Ġsugg": 1870,
      "use": 1871,
      "rop": 1872,
      "Ġsuggest": 1873,
      "fl": 1874,
      "----------------": 1875,
      "ories": 1876,
      "-t": 1877,
      "Ġokay": 1878,
      "ĠNo": 1879,
      "Ġcontrol": 1880,
      "Ġdefin": 1881,
      "Ġfore": 1882,
      "Ġwind": 1883,
      "LL": 1884,
      "Ġshort": 1885,
      "Ġfour": 1886,
      "Ġinde": 1887,
      "Ġquite": 1888,
      "ilar": 1889,
      "ape": 1890,
      "Ġpast": 1891,
      "Ġissue": 1892,
      "che": 1893,
      "fort": 1894,
      "Ġsize": 1895,
      "ference": 1896,
      "Com": 1897,
      "ged": 1898,
      "ler": 1899,
      "Ġstop": 1900,
      "That": 1901,
      "ĠTHE": 1902,
      "Ġtoday": 1903,
      "Ġinstead": 1904,
      "fe": 1905,
      "Ġoper": 1906,
      "arget": 1907,
      "onse": 1908,
      "Ġclose": 1909,
      "Ġmaybe": 1910,
      "Ġeveryone": 1911,
      "Ġmeans": 1912,
      "String": 1913,
      "ailable": 1914,
      "Ġenjoy": 1915,
      "yle": 1916,
      "gle": 1917,
      "80": 1918,
      "Ġbro": 1919,
      "Ġdi": 1920,
      "Ġgiven": 1921,
      "Ġgover": 1922,
      "oved": 1923,
      "ED": 1924,
      "Ġaccess": 1925,
      "IS": 1926,
      "Ġcharacter": 1927,
      "There": 1928,
      "Ġmulti": 1929,
      "Ġfine": 1930,
      "-p": 1931,
      "Ġpop": 1932,
      "eter": 1933,
      "igure": 1934,
      "Cont": 1935,
      "Ġdiv": 1936,
      "ache": 1937,
      "outh": 1938,
      "Ġopp": 1939,
      ".,": 1940,
      "Ġ*/": 1941,
      "Ġpull": 1942,
      "onna": 1943,
      "Ġbreak": 1944,
      "html": 1945,
      "\">Ċ": 1946,
      "Ġcertain": 1947,
      "Ġlater": 1948,
      "ior": 1949,
      "Ġbody": 1950,
      "Ġlooked": 1951,
      "Ġevent": 1952,
      "Ġfelt": 1953,
      "Ġwater": 1954,
      "umn": 1955,
      "Ġbased": 1956,
      "oes": 1957,
      "ike": 1958,
      "Ġcell": 1959,
      "ina": 1960,
      "Ġlink": 1961,
      "Ġfix": 1962,
      "iversity": 1963,
      "owed": 1964,
      "ĠOr": 1965,
      "ene": 1966,
      "AM": 1967,
      "...\"": 1968,
      "Ġvide": 1969,
      "Ġlooks": 1970,
      "data": 1971,
      "ĠFr": 1972,
      "OT": 1973,
      "Ġanal": 1974,
      "vate": 1975,
      "ux": 1976,
      "Ġetc": 1977,
      "\",Ċ": 1978,
      "iles": 1979,
      "Ġgirl": 1980,
      ">ĊĊ": 1981,
      "Ġprof": 1982,
      "itle": 1983,
      "Ġwatch": 1984,
      "Ðµ": 1985,
      "Ġpresent": 1986,
      "ception": 1987,
      "ĠCon": 1988,
      "side": 1989,
      "Ġdeal": 1990,
      "ser": 1991,
      "Ġstring": 1992,
      "Tr": 1993,
      "Ġasked": 1994,
      "Ġhimself": 1995,
      "Ġhttp": 1996,
      "pping": 1997,
      "itch": 1998,
      "Ġlarge": 1999,
      "Ġsoft": 2000,
      "ĠUS": 2001,
      "AS": 2002,
      "Ġboy": 2003,
      "Ġprom": 2004,
      "Ġwalk": 2005,
      "ister": 2006,
      "ĠâĢĵ": 2007,
      "Ġwithin": 2008,
      "ivity": 2009,
      "27": 2010,
      "ĠBl": 2011,
      "ients": 2012,
      "Ġspecific": 2013,
      "Ġbusiness": 2014,
      "face": 2015,
      "Ġsn": 2016,
      "Ġcal": 2017,
      "ET": 2018,
      "Ġothers": 2019,
      "âĢĻm": 2020,
      "ĠEx": 2021,
      "fun": 2022,
      "Ġinvest": 2023,
      "AP": 2024,
      "ouble": 2025,
      "Ġaff": 2026,
      "Ġgonna": 2027,
      "ING": 2028,
      "Ġnear": 2029,
      "Ġbuy": 2030,
      "ron": 2031,
      "Ġsingle": 2032,
      "ength": 2033,
      "wards": 2034,
      "Ġ)": 2035,
      "Ġ=>": 2036,
      "Ġvari": 2037,
      "Ġstuff": 2038,
      "ploy": 2039,
      "Ġserver": 2040,
      "Ġwin": 2041,
      "Ġfriends": 2042,
      ".l": 2043,
      "Ġdesign": 2044,
      "ural": 2045,
      "Ġgovern": 2046,
      "fully": 2047,
      "ĠNot": 2048,
      "cially": 2049,
      "Ġve": 2050,
      "Ġago": 2051,
      "idth": 2052,
      "Ġlim": 2053,
      "Ġitem": 2054,
      "Ġwond": 2055,
      "key": 2056,
      "vert": 2057,
      "Ġeasy": 2058,
      "Ġmodel": 2059,
      "Ġmanag": 2060,
      "Ġplease": 2061,
      "Ġhealth": 2062,
      "Ġlow": 2063,
      "Ġcomes": 2064,
      "âĢĻre": 2065,
      "Ġ==": 2066,
      "unt": 2067,
      "ole": 2068,
      "lection": 2069,
      "Ġguys": 2070,
      "Ġsuper": 2071,
      "Ġkid": 2072,
      "ĠBe": 2073,
      "ots": 2074,
      "Type": 2075,
      "Ġstudy": 2076,
      "Ġhist": 2077,
      "Ġorig": 2078,
      "ann": 2079,
      "Ġter": 2080,
      "sel": 2081,
      "ĠAt": 2082,
      "new": 2083,
      "type": 2084,
      "Ar": 2085,
      "ĠLe": 2086,
      "Ġexp": 2087,
      "28": 2088,
      "Ġcommon": 2089,
      "Ġyoung": 2090,
      "Ġseries": 2091,
      "cle": 2092,
      "Ġmeet": 2093,
      "Ġhouse": 2094,
      "Ġrecord": 2095,
      "ĠHowever": 2096,
      "Val": 2097,
      "rist": 2098,
      "ration": 2099,
      "gt": 2100,
      "Ġrather": 2101,
      "Ġyeah": 2102,
      "oke": 2103,
      "Ġalong": 2104,
      "21": 2105,
      "],": 2106,
      "Ġtechn": 2107,
      "cing": 2108,
      "import": 2109,
      "Ġhalf": 2110,
      "Ð°": 2111,
      "var": 2112,
      "iron": 2113,
      "ohn": 2114,
      "ived": 2115,
      "Ġavailable": 2116,
      "utes": 2117,
      "ume": 2118,
      "********": 2119,
      "Ġarg": 2120,
      "Ġmoment": 2121,
      "Ġum": 2122,
      "class": 2123,
      "Ġsever": 2124,
      "Ġnet": 2125,
      "Ġtot": 2126,
      "Ġlaw": 2127,
      "Ð¸": 2128,
      "Ġfiles": 2129,
      "Ġca": 2130,
      "Ġnorm": 2131,
      "]Ċ": 2132,
      "Ġexact": 2133,
      "Ġmyself": 2134,
      ".ĊĊĊ": 2135,
      "Ġabove": 2136,
      "Ġocc": 2137,
      "Ġlive": 2138,
      "oud": 2139,
      "ply": 2140,
      "Ġtyp": 2141,
      "ĠOn": 2142,
      "-l": 2143,
      "Ġcouldn": 2144,
      "Al": 2145,
      "Ġheart": 2146,
      "ĠGr": 2147,
      "Ġcompany": 2148,
      "Res": 2149,
      "ored": 2150,
      "Ġcoming": 2151,
      "Ġest": 2152,
      "Ġsend": 2153,
      "https": 2154,
      "ives": 2155,
      "26": 2156,
      "ĠCan": 2157,
      "Ġstep": 2158,
      "Ġann": 2159,
      "99": 2160,
      "Ġmonths": 2161,
      "ground": 2162,
      "Ġstrong": 2163,
      "Ġsaying": 2164,
      "Ġcorrect": 2165,
      "Ġabs": 2166,
      "Ġmor": 2167,
      "Ġreading": 2168,
      "orry": 2169,
      "Ġ>": 2170,
      "Ġpress": 2171,
      "Ġconsider": 2172,
      "ND": 2173,
      "Ġpain": 2174,
      "Ġred": 2175,
      "ror": 2176,
      "ability": 2177,
      "ctor": 2178,
      "augh": 2179,
      "Ġhands": 2180,
      "Ġlocal": 2181,
      "Ġcustom": 2182,
      "Music": 2183,
      "ried": 2184,
      "oun": 2185,
      "commend": 2186,
      "plement": 2187,
      "reg": 2188,
      "Un": 2189,
      "irt": 2190,
      "Ġsort": 2191,
      "abel": 2192,
      "Ġexperience": 2193,
      "Data": 2194,
      "Ġneeds": 2195,
      "Ġinit": 2196,
      "ajor": 2197,
      "Ġperfect": 2198,
      "Ġport": 2199,
      "Ġfail": 2200,
      "Ġstay": 2201,
      "Ġseveral": 2202,
      "AC": 2203,
      "Ġop": 2204,
      "][": 2205,
      "ries": 2206,
      "unch": 2207,
      "ium": 2208,
      "ĠTo": 2209,
      "Ġrese": 2210,
      "Ġanswer": 2211,
      "ination": 2212,
      "Ġsimilar": 2213,
      "Wh": 2214,
      "Ġinside": 2215,
      "oin": 2216,
      "33": 2217,
      "Ġ!": 2218,
      "aken": 2219,
      "Ġstruct": 2220,
      "Ġtra": 2221,
      "Ġfall": 2222,
      ")/": 2223,
      "Col": 2224,
      "29": 2225,
      "Ġcountry": 2226,
      "Ġknew": 2227,
      "rew": 2228,
      "Ġguess": 2229,
      "Ġ%": 2230,
      "fer": 2231,
      "Ġoften": 2232,
      "Ġcharacters": 2233,
      "ION": 2234,
      "ential": 2235,
      "Ġsaw": 2236,
      "ift": 2237,
      "Ġexist": 2238,
      "requ": 2239,
      "pecially": 2240,
      "uation": 2241,
      ".h": 2242,
      "ey": 2243,
      "Ġcost": 2244,
      "Ġhig": 2245,
      "aid": 2246,
      "ĠâĪ": 2247,
      "Sh": 2248,
      "Ġsent": 2249,
      "ging": 2250,
      "Ġparent": 2251,
      "Ġcut": 2252,
      "Ġtaking": 2253,
      "ral": 2254,
      ".t": 2255,
      "Ġcreat": 2256,
      "duct": 2257,
      "Ġenc": 2258,
      ".d": 2259,
      "Ġreview": 2260,
      "Ġbehind": 2261,
      "Ġrequest": 2262,
      "Ġresults": 2263,
      "Ġselect": 2264,
      "Ġsimple": 2265,
      "file": 2266,
      "mit": 2267,
      "urther": 2268,
      "Ġeng": 2269,
      "string": 2270,
      "ands": 2271,
      "Ġneeded": 2272,
      "Ġgets": 2273,
      "Ġaw": 2274,
      "angu": 2275,
      "empt": 2276,
      "Ġvoid": 2277,
      "Ġyes": 2278,
      "Ġincluding": 2279,
      "ording": 2280,
      "Ġfuck": 2281,
      "Th": 2282,
      "When": 2283,
      "aim": 2284,
      "Ġpath": 2285,
      "Ġparticular": 2286,
      "aving": 2287,
      "cer": 2288,
      "Ġmatter": 2289,
      "Ġguy": 2290,
      "word": 2291,
      "Ġexpress": 2292,
      "âĢĶ": 2293,
      "Ġpot": 2294,
      "atus": 2295,
      "uture": 2296,
      "leep": 2297,
      "Ġrecommend": 2298,
      "aper": 2299,
      "Ġdat": 2300,
      "Ġentire": 2301,
      "icle": 2302,
      "Ġair": 2303,
      "ables": 2304,
      "Ġsum": 2305,
      "Ġsoon": 2306,
      "Ġrelations": 2307,
      "Ġwords": 2308,
      "ĠMay": 2309,
      "itting": 2310,
      "45": 2311,
      "She": 2312,
      "arr": 2313,
      "miss": 2314,
      "Ġload": 2315,
      "Ġ**": 2316,
      "Ð½": 2317,
      "Ġauthor": 2318,
      "Ġcouple": 2319,
      "Ġcannot": 2320,
      "Ġacross": 2321,
      "Ġdocument": 2322,
      "Ġhuman": 2323,
      "ĉĉĉĉ": 2324,
      "Ġsuccess": 2325,
      "Ġdam": 2326,
      "bject": 2327,
      "Ġimage": 2328,
      "_p": 2329,
      "td": 2330,
      "Ġsource": 2331,
      "Ġfav": 2332,
      "](": 2333,
      "Ġdepend": 2334,
      "Ġspace": 2335,
      "ĠPh": 2336,
      "Ġident": 2337,
      "Ġleg": 2338,
      "Ġwhether": 2339,
      "35": 2340,
      "Ġcontent": 2341,
      "artment": 2342,
      "Ġfront": 2343,
      "ession": 2344,
      "oogle": 2345,
      "ude": 2346,
      "Ġhours": 2347,
      "Ġvideo": 2348,
      "Ġwrite": 2349,
      "ien": 2350,
      "itten": 2351,
      "oci": 2352,
      "ances": 2353,
      "Ġant": 2354,
      "Ġaccount": 2355,
      "using": 2356,
      ").ĊĊ": 2357,
      "_m": 2358,
      "De": 2359,
      "/s": 2360,
      "though": 2361,
      "____": 2362,
      "Ġdiff": 2363,
      ").Ċ": 2364,
      "Not": 2365,
      "uild": 2366,
      "Ġdoor": 2367,
      "Ġbegin": 2368,
      "At": 2369,
      "itely": 2370,
      "Ġfoc": 2371,
      "Ġsex": 2372,
      "Ġleave": 2373,
      "ĠInd": 2374,
      "Ġpract": 2375,
      "An": 2376,
      "Oh": 2377,
      "Im": 2378,
      "Ġchildren": 2379,
      "Ġbecome": 2380,
      "aced": 2381,
      "ÑĤ": 2382,
      "umb": 2383,
      "Ġdue": 2384,
      "arm": 2385,
      "Ġwouldn": 2386,
      "Ġremember": 2387,
      "Ġbox": 2388,
      "px": 2389,
      "Ġminutes": 2390,
      "Ġwomen": 2391,
      "AD": 2392,
      "Ġandroid": 2393,
      "isk": 2394,
      "Ġadded": 2395,
      "Ġaddress": 2396,
      "fig": 2397,
      "ones": 2398,
      "ley": 2399,
      "Ġmajor": 2400,
      "_c": 2401,
      "Ġchanges": 2402,
      "urs": 2403,
      "acy": 2404,
      "Ġgovernment": 2405,
      "Ġsense": 2406,
      "By": 2407,
      "Ġblack": 2408,
      "off": 2409,
      "Ġprint": 2410,
      "Ġ*/Ċ": 2411,
      "_s": 2412,
      "Ġhappy": 2413,
      "!ĊĊ": 2414,
      "ĠâĢĶ": 2415,
      "ĠMar": 2416,
      "Ġmessage": 2417,
      "ĠÎ": 2418,
      "Ġservice": 2419,
      "Ġissues": 2420,
      "Ġbed": 2421,
      "icro": 2422,
      "Ġproblems": 2423,
      "ateg": 2424,
      "Ġclos": 2425,
      "ising": 2426,
      ">čĊ": 2427,
      "Ġvalues": 2428,
      "ples": 2429,
      ");": 2430,
      "Ġhowever": 2431,
      "Ġposition": 2432,
      "Ġcompl": 2433,
      "Ġimplement": 2434,
      "Ġbase": 2435,
      "Ġdiscuss": 2436,
      "Ġarea": 2437,
      "Ġimpro": 2438,
      "gress": 2439,
      "Ġapplication": 2440,
      "Ġoffic": 2441,
      "ĠIN": 2442,
      "Ġbelow": 2443,
      "Ġbring": 2444,
      "Ġprotect": 2445,
      "no": 2446,
      "Ġhon": 2447,
      "><": 2448,
      "Ġbar": 2449,
      "Ġhit": 2450,
      "All": 2451,
      "Ġmultiple": 2452,
      "Ġaddition": 2453,
      "clude": 2454,
      "Ġlay": 2455,
      "ĠThen": 2456,
      "ĠPr": 2457,
      "Ġflo": 2458,
      "ulation": 2459,
      "ams": 2460,
      "ules": 2461,
      "itor": 2462,
      "resent": 2463,
      "ively": 2464,
      "with": 2465,
      "Ġgames": 2466,
      "Ġcomb": 2467,
      "viron": 2468,
      "Ġfight": 2469,
      "Ġur": 2470,
      "Ġgoes": 2471,
      "Ġarray": 2472,
      "Ġmag": 2473,
      "ĠGod": 2474,
      "uro": 2475,
      "90": 2476,
      "lish": 2477,
      "Ġthinking": 2478,
      "book": 2479,
      "Ġprevious": 2480,
      "($": 2481,
      "Ġphone": 2482,
      "Ġtalking": 2483,
      "ips": 2484,
      "iddle": 2485,
      "Ġgeneral": 2486,
      "70": 2487,
      "Ġquestions": 2488,
      "like": 2489,
      "ially": 2490,
      "++": 2491,
      "Ġfuture": 2492,
      "ĠHis": 2493,
      "UT": 2494,
      "Ġrele": 2495,
      "Ġprivate": 2496,
      "apt": 2497,
      "osp": 2498,
      "Ġstre": 2499,
      "ĠMr": 2500,
      "Ġtre": 2501,
      "Ġfood": 2502,
      "Ġgen": 2503,
      "On": 2504,
      "Ġrelationship": 2505,
      "Ġtreat": 2506,
      "-h": 2507,
      "ources": 2508,
      "ĠEng": 2509,
      "Se": 2510,
      "Ġorgan": 2511,
      "Ġslow": 2512,
      "()Ċ": 2513,
      "icult": 2514,
      "ĠJust": 2515,
      "ony": 2516,
      "DE": 2517,
      "ĠAd": 2518,
      "Ġvol": 2519,
      "Ġhear": 2520,
      "conom": 2521,
      "Ġterm": 2522,
      "Ġtakes": 2523,
      "value": 2524,
      "App": 2525,
      "ĠÂ": 2526,
      "atever": 2527,
      "ison": 2528,
      "Ġheard": 2529,
      "Ġmention": 2530,
      "Text": 2531,
      "por": 2532,
      "Ġbooks": 2533,
      "ming": 2534,
      "ĠOF": 2535,
      "Ġhappened": 2536,
      "Ġworth": 2537,
      "Ġmillion": 2538,
      "ai": 2539,
      "apter": 2540,
      "opt": 2541,
      "ached": 2542,
      "return": 2543,
      "Ġsolution": 2544,
      "Ġconc": 2545,
      "Ġelect": 2546,
      "ĠAlso": 2547,
      "Ġsimply": 2548,
      "Ġsat": 2549,
      "itical": 2550,
      "light": 2551,
      "Ġamount": 2552,
      "vices": 2553,
      "Ġwait": 2554,
      "-in": 2555,
      "Ġplaying": 2556,
      "Ġearly": 2557,
      "Well": 2558,
      "Ð¾Ð": 2559,
      "II": 2560,
      "Ġinvol": 2561,
      "bt": 2562,
      "/d": 2563,
      "ĠĠĠĠĠĠĠĠĠĠĠĠĠĠĠĠĠĠĠĠĠĠĠ": 2564,
      "ĠSp": 2565,
      "SS": 2566,
      "abase": 2567,
      "lement": 2568,
      "Ġturned": 2569,
      "ĠSte": 2570,
      "Ġben": 2571,
      "Ġforward": 2572,
      "uk": 2573,
      "Ġtarget": 2574,
      "order": 2575,
      "Ġfive": 2576,
      "ĠOne": 2577,
      "Ġlost": 2578,
      "col": 2579,
      "Ġimp": 2580,
      "ken": 2581,
      "aterial": 2582,
      ".e": 2583,
      "ĠThan": 2584,
      "Ġfinal": 2585,
      ".html": 2586,
      "Ġmarket": 2587,
      "Ġstore": 2588,
      "Ġespecially": 2589,
      "========": 2590,
      "rc": 2591,
      "come": 2592,
      "Ġyourself": 2593,
      "Ġmeas": 2594,
      "ĠJohn": 2595,
      "Ġdescri": 2596,
      "Ġattack": 2597,
      "Ġknown": 2598,
      "Ġsal": 2599,
      "Ġpoints": 2600,
      "fo": 2601,
      "Ġoh": 2602,
      "Ġsearch": 2603,
      "Ġthird": 2604,
      "/m": 2605,
      "reci": 2606,
      "Ġpie": 2607,
      "Ġobs": 2608,
      "Ġgave": 2609,
      "rel": 2610,
      "Ġmother": 2611,
      "36": 2612,
      "aph": 2613,
      "selves": 2614,
      "ecut": 2615,
      "Ġtool": 2616,
      "atter": 2617,
      "Ġgrow": 2618,
      "They": 2619,
      "Ġexc": 2620,
      "_d": 2621,
      "ilt": 2622,
      "Ġcopy": 2623,
      "ĠAm": 2624,
      "uration": 2625,
      "ued": 2626,
      "Ġinput": 2627,
      "iver": 2628,
      "Ġexactly": 2629,
      "-w": 2630,
      "roller": 2631,
      "ĠĠĠĠĠĠĠĠĠĠĠĠĠ": 2632,
      "**Ċ": 2633,
      "CH": 2634,
      "ĠCol": 2635,
      "ML": 2636,
      "With": 2637,
      "Ġcompletely": 2638,
      "ouch": 2639,
      "Ġlikely": 2640,
      "iod": 2641,
      "ians": 2642,
      "Ġpict": 2643,
      "ification": 2644,
      "ĠNow": 2645,
      "uppose": 2646,
      "\".": 2647,
      "Ġredu": 2648,
      "more": 2649,
      "Ġcolor": 2650,
      "Ġaction": 2651,
      "cription": 2652,
      "oose": 2653,
      "Ġage": 2654,
      "Ġspecial": 2655,
      "oop": 2656,
      "ĠDo": 2657,
      "ĠSc": 2658,
      "31": 2659,
      "Ġfinally": 2660,
      "ĠChrist": 2661,
      "go": 2662,
      "ique": 2663,
      "Ġcomput": 2664,
      "Ġnull": 2665,
      "Ġfire": 2666,
      "orth": 2667,
      "ĠWith": 2668,
      "Ġdate": 2669,
      "Ġrespect": 2670,
      "Ġresponse": 2671,
      "Ġfalse": 2672,
      "Ġsite": 2673,
      "Ġvoice": 2674,
      "Ġcreated": 2675,
      "ĠRes": 2676,
      "Ġra": 2677,
      "idence": 2678,
      "Ġste": 2679,
      "ager": 2680,
      "Ġwriting": 2681,
      "lex": 2682,
      "odel": 2683,
      "olute": 2684,
      "vironment": 2685,
      "Ñģ": 2686,
      "Ġdisplay": 2687,
      "comp": 2688,
      "Ġdig": 2689,
      "Ġweb": 2690,
      "ney": 2691,
      "Ġaccept": 2692,
      "unk": 2693,
      "Ġdeath": 2694,
      "antly": 2695,
      "34": 2696,
      "37": 2697,
      "Ġinteresting": 2698,
      "/p": 2699,
      "Ġfurther": 2700,
      "box": 2701,
      "ĠÃ": 2702,
      "Ġhaven": 2703,
      "Ġparam": 2704,
      "Ġhair": 2705,
      "inux": 2706,
      "Ġtaken": 2707,
      "Ġlonger": 2708,
      "Ġbeaut": 2709,
      "anguage": 2710,
      "co": 2711,
      "Ġprovide": 2712,
      "Ġswe": 2713,
      "38": 2714,
      "ibility": 2715,
      "ury": 2716,
      "medi": 2717,
      "nal": 2718,
      "ĠĠĠĠĠĠĠĠĠĠĠĠ": 2719,
      "list": 2720,
      "Ġitself": 2721,
      "Ġwhite": 2722,
      "Ġdefinitely": 2723,
      "ÑĢ": 2724,
      "\")": 2725,
      "asing": 2726,
      "onent": 2727,
      "ĠApp": 2728,
      "Ġwoman": 2729,
      "Ġprice": 2730,
      "ama": 2731,
      "pper": 2732,
      "Ġpercent": 2733,
      "ĠTe": 2734,
      "Ġoutside": 2735,
      "Ġexpected": 2736,
      "Ġsurpr": 2737,
      "></": 2738,
      "Ġones": 2739,
      "Ġcir": 2740,
      "iction": 2741,
      "Ġusually": 2742,
      "ĠPl": 2743,
      "RO": 2744,
      "Ġoutput": 2745,
      "Ġnormal": 2746,
      "Ġla": 2747,
      "Ġhot": 2748,
      "Ġphys": 2749,
      "âĢĻve": 2750,
      "Ġlik": 2751,
      "Get": 2752,
      "ĠAny": 2753,
      "Ġwritten": 2754,
      "ĠUniversity": 2755,
      "Ġdefault": 2756,
      "Ġdifficult": 2757,
      "andom": 2758,
      "IM": 2759,
      "._": 2760,
      "Ser": 2761,
      "ĠAfter": 2762,
      ".f": 2763,
      "Ġsocial": 2764,
      "Value": 2765,
      "Ġclean": 2766,
      "ĠSer": 2767,
      "Ġquality": 2768,
      "atures": 2769,
      "imal": 2770,
      "Ġsignific": 2771,
      "idual": 2772,
      "function": 2773,
      "Ġ`": 2774,
      "Ġrequire": 2775,
      "Ġmach": 2776,
      "ubl": 2777,
      "Ġcard": 2778,
      "Ġappreci": 2779,
      "Ġhistory": 2780,
      "AG": 2781,
      "ication": 2782,
      "Ġhur": 2783,
      "Ġfast": 2784,
      "Ġresearch": 2785,
      "Ġfill": 2786,
      "Ġconfig": 2787,
      "IG": 2788,
      "_C": 2789,
      "?âĢĿĊ": 2790,
      "yth": 2791,
      "ires": 2792,
      "ster": 2793,
      "Ġscri": 2794,
      "plate": 2795,
      "ĠString": 2796,
      "ĠIm": 2797,
      "Ġrelease": 2798,
      "Ġland": 2799,
      "Ġcomment": 2800,
      "oe": 2801,
      "âĢľI": 2802,
      "Ġmatch": 2803,
      "ograp": 2804,
      "ension": 2805,
      "UR": 2806,
      "ĠĠĠĠĠĠĠĠĠĠ": 2807,
      "âĢĻd": 2808,
      "Ġbott": 2809,
      "Ġfeeling": 2810,
      "Ġcity": 2811,
      "Ġnecess": 2812,
      "Ġcover": 2813,
      "Ġshows": 2814,
      "Ġweeks": 2815,
      "code": 2816,
      "une": 2817,
      "print": 2818,
      "Ġblock": 2819,
      "tract": 2820,
      "ffic": 2821,
      "Ġscreen": 2822,
      "Be": 2823,
      "gest": 2824,
      "uge": 2825,
      "Ġcommand": 2826,
      "Ġdom": 2827,
      "Ġcommunity": 2828,
      "inter": 2829,
      "lt": 2830,
      "Ġshare": 2831,
      "Ġoriginal": 2832,
      "ites": 2833,
      "ãģ": 2834,
      "Ġdead": 2835,
      "Ġdeep": 2836,
      "haps": 2837,
      "01": 2838,
      "pri": 2839,
      "iding": 2840,
      "Ġoption": 2841,
      "Ġdark": 2842,
      "Ġfather": 2843,
      "\");Ċ": 2844,
      "Ġ?": 2845,
      "Ġeconom": 2846,
      "that": 2847,
      "Ġder": 2848,
      "Ġcontr": 2849,
      "Int": 2850,
      "Ġterms": 2851,
      "Ġsleep": 2852,
      "rodu": 2853,
      "Ġsqu": 2854,
      "Ġmot": 2855,
      "ety": 2856,
      "Ġworked": 2857,
      "ysis": 2858,
      "ython": 2859,
      "ĠTrump": 2860,
      "Ġwants": 2861,
      "Ġbreat": 2862,
      "Ġmusic": 2863,
      "(s": 2864,
      "ari": 2865,
      "Ġstyle": 2866,
      "Ġindiv": 2867,
      "Ġsil": 2868,
      "202": 2869,
      "ribute": 2870,
      "rror": 2871,
      "Ġobvious": 2872,
      "Item": 2873,
      "Ġdeterm": 2874,
      "Ġfavor": 2875,
      "Ġscript": 2876,
      "Ġhost": 2877,
      "ĊĊĊĊ": 2878,
      "Now": 2879,
      "Ġdevelopment": 2880,
      "Ġusers": 2881,
      "'Ċ": 2882,
      "Ġseason": 2883,
      "user": 2884,
      "Ġhor": 2885,
      "Object": 2886,
      "Ġinclude": 2887,
      "ili": 2888,
      "Ġlearn": 2889,
      "Ġtrack": 2890,
      "af": 2891,
      "ogn": 2892,
      "ql": 2893,
      "$$": 2894,
      "Ġquickly": 2895,
      "span": 2896,
      "Ġheav": 2897,
      "Ġener": 2898,
      "Ġfair": 2899,
      "Ġwhatever": 2900,
      "public": 2901,
      "lling": 2902,
      "AB": 2903,
      "Ġsepar": 2904,
      "Ġphot": 2905,
      "Gr": 2906,
      "Ġsometimes": 2907,
      "ges": 2908,
      "55": 2909,
      "ze": 2910,
      "Ġdest": 2911,
      "which": 2912,
      "Ġcolumn": 2913,
      "ĠâĢĺ": 2914,
      "bug": 2915,
      "Ġhigher": 2916,
      "Ġcurrently": 2917,
      "Any": 2918,
      "Ġspend": 2919,
      "Qu": 2920,
      "Ġfollow": 2921,
      "Ġsituation": 2922,
      "_P": 2923,
      "////": 2924,
      "ĠMed": 2925,
      "lock": 2926,
      "iff": 2927,
      "ags": 2928,
      "OL": 2929,
      "raft": 2930,
      "indows": 2931,
      "mon": 2932,
      "Ġpatients": 2933,
      "}{": 2934,
      "Ġspeak": 2935,
      "_id": 2936,
      "48": 2937,
      "OS": 2938,
      "amer": 2939,
      "rite": 2940,
      "Ġcond": 2941,
      "bit": 2942,
      "../": 2943,
      "Ġbehav": 2944,
      "zy": 2945,
      "Ġmax": 2946,
      "item": 2947,
      "ĠHar": 2948,
      "US": 2949,
      "Ġneg": 2950,
      "Ġwonder": 2951,
      "ental": 2952,
      "čĊčĊ": 2953,
      "Ġtotal": 2954,
      "Ġupon": 2955,
      "Ġfit": 2956,
      "ties": 2957,
      "Ġsym": 2958,
      "Ġattempt": 2959,
      "Ġcamp": 2960,
      "Ġrange": 2961,
      "Ġloved": 2962,
      "39": 2963,
      "older": 2964,
      "Ġblood": 2965,
      "Ġmorning": 2966,
      "Ġcool": 2967,
      "Ġamong": 2968,
      "ello": 2969,
      "ek": 2970,
      "obal": 2971,
      "ĠMan": 2972,
      "Ã©": 2973,
      "Ġserious": 2974,
      "Ġrad": 2975,
      "num": 2976,
      "-y": 2977,
      "imate": 2978,
      "resp": 2979,
      "Ġq": 2980,
      "ators": 2981,
      "icy": 2982,
      "Ġ...": 2983,
      "acing": 2984,
      "reed": 2985,
      "IL": 2986,
      "how": 2987,
      "met": 2988,
      "199": 2989,
      "Ġcause": 2990,
      "Add": 2991,
      "OP": 2992,
      "')": 2993,
      "Ġdep": 2994,
      "ĉĉĉ": 2995,
      "just": 2996,
      "php": 2997,
      "Ġvia": 2998,
      "ĠAND": 2999,
      "cell": 3000,
      "lib": 3001,
      "Ġlisten": 3002,
      "Ġrout": 3003,
      "Ġtowards": 3004,
      "];Ċ": 3005,
      "Ġfund": 3006,
      "Here": 3007,
      "uly": 3008,
      "Ġperiod": 3009,
      "ills": 3010,
      "Ġallow": 3011,
      "Ġclick": 3012,
      "usion": 3013,
      "âĢĻll": 3014,
      "Ġground": 3015,
      "Ġsorry": 3016,
      "Ġimag": 3017,
      "iful": 3018,
      "itted": 3019,
      "ocal": 3020,
      "istic": 3021,
      "Ġvi": 3022,
      "44": 3023,
      "lege": 3024,
      "Ġclaim": 3025,
      "Ġdecided": 3026,
      "ying": 3027,
      "Yeah": 3028,
      "Yes": 3029,
      "include": 3030,
      "ival": 3031,
      "cher": 3032,
      "ĠCal": 3033,
      "ocr": 3034,
      "Ġfigure": 3035,
      "resh": 3036,
      "Ġthank": 3037,
      "ĠRep": 3038,
      "room": 3039,
      "amed": 3040,
      "icense": 3041,
      "Ġchanged": 3042,
      "Ġsus": 3043,
      "Ġlate": 3044,
      "aged": 3045,
      "Ġdro": 3046,
      "Ġsix": 3047,
      "essage": 3048,
      "ENT": 3049,
      "tain": 3050,
      "oring": 3051,
      "Ġlibr": 3052,
      "_S": 3053,
      "Ġindividual": 3054,
      "ensive": 3055,
      "(x": 3056,
      "Hello": 3057,
      "Ġdraw": 3058,
      "Ġ$\\": 3059,
      "Ġready": 3060,
      "Or": 3061,
      "oups": 3062,
      "75": 3063,
      "log": 3064,
      "Ġliter": 3065,
      "Ġknows": 3066,
      "reme": 3067,
      "Ġwindow": 3068,
      "Ġchance": 3069,
      "ĠFl": 3070,
      "Ġstatic": 3071,
      "mp": 3072,
      "Ġrepresent": 3073,
      "Ġalone": 3074,
      "oon": 3075,
      "irm": 3076,
      "enc": 3077,
      "leg": 3078,
      "Ġparty": 3079,
      ".set": 3080,
      "Ġabsolute": 3081,
      "Ġdifference": 3082,
      "aff": 3083,
      "Ġmass": 3084,
      "-st": 3085,
      "Ġsubject": 3086,
      "iced": 3087,
      "rem": 3088,
      "Ġaren": 3089,
      "Ġaccording": 3090,
      "Ġindex": 3091,
      "ĠInst": 3092,
      "iled": 3093,
      "Ġsett": 3094,
      "Ġupdate": 3095,
      "Ġfing": 3096,
      "curity": 3097,
      "Ġassoci": 3098,
      "Ġtrad": 3099,
      "Ġbuilding": 3100,
      "Ġgives": 3101,
      "time": 3102,
      "File": 3103,
      "Ġsave": 3104,
      "Ġver": 3105,
      "Ġcases": 3106,
      "Ġmaterial": 3107,
      "ero": 3108,
      "Ġslight": 3109,
      "Ġnews": 3110,
      "ĠSome": 3111,
      "itions": 3112,
      "Ġways": 3113,
      "amples": 3114,
      "Ġcontinue": 3115,
      "ĠAmerican": 3116,
      "PI": 3117,
      "amb": 3118,
      "now": 3119,
      "Ġkids": 3120,
      "Ġshit": 3121,
      "Ġhref": 3122,
      "wise": 3123,
      "Ġgone": 3124,
      "aves": 3125,
      "aught": 3126,
      "Ġenergy": 3127,
      "sy": 3128,
      "Can": 3129,
      "Ġfoot": 3130,
      "anger": 3131,
      "Ġtax": 3132,
      "Why": 3133,
      "culate": 3134,
      "ĠCar": 3135,
      "Ġwebs": 3136,
      "Ġround": 3137,
      "Ġcult": 3138,
      "ilit": 3139,
      "astic": 3140,
      "Ġconcern": 3141,
      "ption": 3142,
      "Ġmembers": 3143,
      "Ġnetwork": 3144,
      "quest": 3145,
      "Ġcontact": 3146,
      ".w": 3147,
      "const": 3148,
      "Ġpersonal": 3149,
      "Ġhonest": 3150,
      "chie": 3151,
      "Ġthread": 3152,
      "Ġple": 3153,
      "Ġpred": 3154,
      "Ġbrother": 3155,
      "Ġavoid": 3156,
      "Ġdistribut": 3157,
      "uses": 3158,
      "Ġteac": 3159,
      "Ġseemed": 3160,
      "tes": 3161,
      "chan": 3162,
      "cho": 3163,
      "Ġhop": 3164,
      "bar": 3165,
      "Ġrespons": 3166,
      "Ġaffect": 3167,
      "ĠThese": 3168,
      "pose": 3169,
      "Ġemploy": 3170,
      "Ġliving": 3171,
      "board": 3172,
      "ĠInt": 3173,
      "Ġenvironment": 3174,
      "Ġrate": 3175,
      "Ġrequired": 3176,
      "Ġlower": 3177,
      "Ġonline": 3178,
      "Ġsens": 3179,
      "Ġbi": 3180,
      "/c": 3181,
      "QL": 3182,
      "Fr": 3183,
      "Ġinfl": 3184,
      "Ġregard": 3185,
      "Ġpaper": 3186,
      "!âĢĿ": 3187,
      "ledge": 3188,
      "Ġapproach": 3189,
      "from": 3190,
      ".C": 3191,
      "sole": 3192,
      "Of": 3193,
      "Man": 3194,
      "ĠSystem": 3195,
      "inary": 3196,
      "unity": 3197,
      "Ġcoun": 3198,
      "Ġaud": 3199,
      "Ġnames": 3200,
      "Ġmemory": 3201,
      "Ġplayers": 3202,
      "uments": 3203,
      "ica": 3204,
      "Ġlanguage": 3205,
      "Ġinterested": 3206,
      "azing": 3207,
      "Ġimm": 3208,
      "Ġweight": 3209,
      "Ġep": 3210,
      "Ġbenef": 3211,
      "Ġrecently": 3212,
      "Ġcy": 3213,
      "Ġgiving": 3214,
      "Ġbutton": 3215,
      "index": 3216,
      "izing": 3217,
      "Ġopin": 3218,
      "ibly": 3219,
      "Ġrisk": 3220,
      "Ġwall": 3221,
      "orld": 3222,
      "cret": 3223,
      "Ġden": 3224,
      "hel": 3225,
      "Ġstandard": 3226,
      "Ġimmedi": 3227,
      "!Ċ": 3228,
      "ball": 3229,
      "Ġthemselves": 3230,
      "Ġstudents": 3231,
      "overed": 3232,
      "Ġeasily": 3233,
      "Ġbackground": 3234,
      "['": 3235,
      "Ġupd": 3236,
      "Ġelement": 3237,
      "Reg": 3238,
      "Ġexcept": 3239,
      "Ġeye": 3240,
      "ĠDr": 3241,
      "Ġprim": 3242,
      "test": 3243,
      "Ġsoftware": 3244,
      "AA": 3245,
      "ae": 3246,
      "Ġdatabase": 3247,
      "Ġhappens": 3248,
      ".x": 3249,
      "Ġign": 3250,
      "',Ċ": 3251,
      "Ġstarting": 3252,
      "ĠDon": 3253,
      "Ġmap": 3254,
      "Ind": 3255,
      "/w": 3256,
      "icated": 3257,
      "Ġbab": 3258,
      "().": 3259,
      "ĠCent": 3260,
      "Ġnod": 3261,
      "Ġpers": 3262,
      "error": 3263,
      "Ġstra": 3264,
      "Ġwish": 3265,
      "Do": 3266,
      "/*": 3267,
      "Ġparents": 3268,
      "Ġnote": 3269,
      "Ġarm": 3270,
      "Ġperformance": 3271,
      "Ġattention": 3272,
      "Ġclient": 3273,
      "nces": 3274,
      "frac": 3275,
      "Ġproperty": 3276,
      "ises": 3277,
      "Ġfell": 3278,
      "Class": 3279,
      "Ġassum": 3280,
      "):Ċ": 3281,
      "ĠTH": 3282,
      "Ġsto": 3283,
      "ĠMe": 3284,
      "Ġoptions": 3285,
      "verage": 3286,
      "Ġeffort": 3287,
      "ences": 3288,
      "~~": 3289,
      "ternal": 3290,
      "Ġmedia": 3291,
      "Ġrelated": 3292,
      "Ġhuge": 3293,
      "Ġemail": 3294,
      "65": 3295,
      "Ġpositive": 3296,
      "Set": 3297,
      "Ġson": 3298,
      "FF": 3299,
      "Ġsequ": 3300,
      "Ġreceived": 3301,
      "Ġvarious": 3302,
      "Ġball": 3303,
      "_{": 3304,
      "TER": 3305,
      "ĠEn": 3306,
      "Ġtitle": 3307,
      "hem": 3308,
      "Ġrole": 3309,
      "Ġcross": 3310,
      "Ġcontext": 3311,
      "Ġpan": 3312,
      "05": 3313,
      "mission": 3314,
      "you": 3315,
      "-g": 3316,
      "Ġorg": 3317,
      "lier": 3318,
      "abor": 3319,
      "Ġkiss": 3320,
      "Ġcompet": 3321,
      "Ġang": 3322,
      "uf": 3323,
      "Ġextra": 3324,
      "Ġinstance": 3325,
      "Ġframe": 3326,
      "inst": 3327,
      "input": 3328,
      "ada": 3329,
      "ological": 3330,
      "ief": 3331,
      "mm": 3332,
      "Ġlines": 3333,
      "Ġagree": 3334,
      "Ġtouch": 3335,
      "Ġda": 3336,
      "='": 3337,
      "ilities": 3338,
      "Ġdecl": 3339,
      "icate": 3340,
      "ĠWill": 3341,
      "####": 3342,
      "ĠPer": 3343,
      "Ġplayer": 3344,
      "aughter": 3345,
      "Ġ*Ċ": 3346,
      "Ġut": 3347,
      "Ġnat": 3348,
      "49": 3349,
      "Ġappear": 3350,
      "igned": 3351,
      "ube": 3352,
      "Ġchall": 3353,
      "Ġextend": 3354,
      "Ġhell": 3355,
      "ainer": 3356,
      "Ġuses": 3357,
      "Ġbo": 3358,
      "atform": 3359,
      "ĉif": 3360,
      "Hey": 3361,
      "ĠNe": 3362,
      "ades": 3363,
      "bb": 3364,
      "Ġseeing": 3365,
      "perty": 3366,
      "wo": 3367,
      "Ġhttps": 3368,
      "Ġkept": 3369,
      "arter": 3370,
      "IP": 3371,
      "Ġmis": 3372,
      "500": 3373,
      "Ġdrink": 3374,
      "Ġeduc": 3375,
      "Ġill": 3376,
      "eters": 3377,
      "Ġrecent": 3378,
      "Ġsafe": 3379,
      "One": 3380,
      "atory": 3381,
      "Ġund": 3382,
      "Ġcry": 3383,
      "ta": 3384,
      "Ġstraight": 3385,
      "Ġvalid": 3386,
      "Ġplayed": 3387,
      "Ġcat": 3388,
      "Ġcomfort": 3389,
      "orks": 3390,
      "Ġmissing": 3391,
      "ĠâĪĴ": 3392,
      "urope": 3393,
      ".\"ĊĊ": 3394,
      "Ġdrive": 3395,
      "iki": 3396,
      "itut": 3397,
      "ĠQu": 3398,
      "Ġexecut": 3399,
      "ait": 3400,
      "Ġautom": 3401,
      "Ġbeautiful": 3402,
      "Ġspeed": 3403,
      "En": 3404,
      "Ġpurch": 3405,
      "Ġgod": 3406,
      "Ġbecom": 3407,
      "Ġmiddle": 3408,
      "Time": 3409,
      "-r": 3410,
      "OW": 3411,
      "do": 3412,
      "Ġfan": 3413,
      "Ġhy": 3414,
      "Ġlat": 3415,
      "Ġimprove": 3416,
      "_f": 3417,
      "CC": 3418,
      ".java": 3419,
      "ĠHer": 3420,
      "Ġnumbers": 3421,
      "ops": 3422,
      "Ġmoving": 3423,
      "47": 3424,
      "epartment": 3425,
      "Ġheld": 3426,
      "Ġ!=": 3427,
      "Ġsupposed": 3428,
      "ls": 3429,
      "Ġlack": 3430,
      "Ġskin": 3431,
      "IR": 3432,
      "_M": 3433,
      "ection": 3434,
      "Ġevents": 3435,
      "Ġdev": 3436,
      "Ġpolice": 3437,
      "Ġdetails": 3438,
      "Ġmouth": 3439,
      "Ġintrodu": 3440,
      "eth": 3441,
      "Ġanalysis": 3442,
      "rugg": 3443,
      "Ġinvestig": 3444,
      "mb": 3445,
      "Ġcoll": 3446,
      "Ġluck": 3447,
      "VE": 3448,
      "Ġforce": 3449,
      "Ġideas": 3450,
      "Ġcatch": 3451,
      "']": 3452,
      "Error": 3453,
      "_T": 3454,
      "Ġdirectly": 3455,
      "pec": 3456,
      "Ġactiv": 3457,
      "down": 3458,
      "Ġpackage": 3459,
      "Ġrandom": 3460,
      "imum": 3461,
      "ĠPe": 3462,
      "Ġmer": 3463,
      "Ġindust": 3464,
      "Ġsong": 3465,
      "Ġpotential": 3466,
      "aries": 3467,
      "aint": 3468,
      "Just": 3469,
      "Ġdou": 3470,
      "Ġfeels": 3471,
      "/j": 3472,
      "66": 3473,
      "Exception": 3474,
      "ĠBy": 3475,
      "pace": 3476,
      "mber": 3477,
      "ethod": 3478,
      "ha": 3479,
      "Ġlength": 3480,
      "Form": 3481,
      "Ġactual": 3482,
      "Ġdire": 3483,
      "Ad": 3484,
      "Key": 3485,
      "ynam": 3486,
      "cks": 3487,
      "Ġinitial": 3488,
      "Ġhandle": 3489,
      "Ġcompan": 3490,
      "what": 3491,
      "Ġsetting": 3492,
      "lim": 3493,
      "sing": 3494,
      "Ġstri": 3495,
      "Ġformat": 3496,
      "Ġmachine": 3497,
      "Ġsubs": 3498,
      "icks": 3499,
      "ĠRE": 3500,
      "ague": 3501,
      "Ġshot": 3502,
      "ospital": 3503,
      "Ġfocus": 3504,
      "Ġdevice": 3505,
      "pty": 3506,
      "asons": 3507,
      "Ġachie": 3508,
      "Ġreported": 3509,
      "Ġfeatures": 3510,
      "Ġcells": 3511,
      "Ġcomplex": 3512,
      "Ġparts": 3513,
      "95": 3514,
      "lying": 3515,
      "Che": 3516,
      "Don": 3517,
      "ecause": 3518,
      "erved": 3519,
      "ĠST": 3520,
      "Ġmovie": 3521,
      "Ġbegan": 3522,
      "Ġfeed": 3523,
      "Ph": 3524,
      "ĠMin": 3525,
      "Ġincluded": 3526,
      "ĠMc": 3527,
      "ceed": 3528,
      "top": 3529,
      "Ġque": 3530,
      "OD": 3531,
      "Ġbuilt": 3532,
      "ĠIS": 3533,
      "NS": 3534,
      "Ġitems": 3535,
      "Ġlives": 3536,
      "Ġdouble": 3537,
      "Ġoffice": 3538,
      "Ġopport": 3539,
      "pite": 3540,
      "aging": 3541,
      "Ġcomments": 3542,
      "ĉreturn": 3543,
      "rix": 3544,
      "char": 3545,
      "):": 3546,
      "Ġbrought": 3547,
      "Ġbought": 3548,
      "ĠEven": 3549,
      "change": 3550,
      "Ġshown": 3551,
      "Ġnovel": 3552,
      "Ġgun": 3553,
      "math": 3554,
      "df": 3555,
      "Ġsmile": 3556,
      "agn": 3557,
      "eral": 3558,
      "Ġ->": 3559,
      "\"I": 3560,
      "yl": 3561,
      "ocument": 3562,
      "Ġcred": 3563,
      "param": 3564,
      "Ġgroups": 3565,
      "iety": 3566,
      "]ĊĊ": 3567,
      "Ġdie": 3568,
      "airs": 3569,
      "Ġdrop": 3570,
      "Ġloss": 3571,
      "can": 3572,
      ".)": 3573,
      "Ġtown": 3574,
      "ync": 3575,
      "Ġincrease": 3576,
      "ober": 3577,
      "nes": 3578,
      "ĠEvery": 3579,
      "Ġpropos": 3580,
      "Ġvot": 3581,
      "ils": 3582,
      "/b": 3583,
      "Ġroll": 3584,
      "Ġremain": 3585,
      "Ġran": 3586,
      "Ġemot": 3587,
      "Ġsecurity": 3588,
      "Ġvariable": 3589,
      "Ġarticle": 3590,
      "04": 3591,
      "Ġamazing": 3592,
      "Ġregular": 3593,
      "Ġblue": 3594,
      "86": 3595,
      "Ġsy": 3596,
      "Thank": 3597,
      "Ġoffer": 3598,
      "ara": 3599,
      "Ġbasically": 3600,
      "Ġstatement": 3601,
      "ĠFe": 3602,
      "Ġmode": 3603,
      "...Ċ": 3604,
      "Ġmoved": 3605,
      "Ġrecogn": 3606,
      "Ġdru": 3607,
      "itter": 3608,
      "Ġmethods": 3609,
      "script": 3610,
      "idered": 3611,
      "PE": 3612,
      "&nbsp": 3613,
      "ns": 3614,
      "Ġviol": 3615,
      ")*": 3616,
      "Ġintegr": 3617,
      "iday": 3618,
      "Ġpoor": 3619,
      "ATE": 3620,
      ".M": 3621,
      "Ġwebsite": 3622,
      "Ġwatching": 3623,
      "Ġplug": 3624,
      "Ġremove": 3625,
      "Ġonto": 3626,
      "attle": 3627,
      "path": 3628,
      "aste": 3629,
      "ĠKe": 3630,
      "ocation": 3631,
      "Le": 3632,
      "ĠCont": 3633,
      "Ġexperien": 3634,
      "struct": 3635,
      "ĠWhy": 3636,
      "Ġtrust": 3637,
      "Ġtypes": 3638,
      "ana": 3639,
      "earch": 3640,
      "ushed": 3641,
      "ounds": 3642,
      "HT": 3643,
      "Ġservices": 3644,
      "After": 3645,
      "Ġprogress": 3646,
      "Ġsection": 3647,
      "Ġhom": 3648,
      ":\"": 3649,
      "ales": 3650,
      "Ġwide": 3651,
      "bing": 3652,
      "urch": 3653,
      "Ġchoice": 3654,
      "lected": 3655,
      "-to": 3656,
      "Ġboard": 3657,
      "sl": 3658,
      "Ġconnection": 3659,
      "#include": 3660,
      "\";Ċ": 3661,
      "ners": 3662,
      "Ġroad": 3663,
      "Ġconsidered": 3664,
      "ĠRed": 3665,
      ".P": 3666,
      "Ġeat": 3667,
      "ULL": 3668,
      "ened": 3669,
      "Ġswitch": 3670,
      "host": 3671,
      "Ġmix": 3672,
      "Act": 3673,
      "ĠThanks": 3674,
      "Ġlo": 3675,
      "vant": 3676,
      "Ġofficial": 3677,
      "ĠGu": 3678,
      "pre": 3679,
      "(t": 3680,
      "define": 3681,
      "Ġgrab": 3682,
      "Ġpiece": 3683,
      "Ġuseful": 3684,
      "Ġlearning": 3685,
      "Please": 3686,
      "ĠGe": 3687,
      "Ġrow": 3688,
      "Ġanyway": 3689,
      "^{": 3690,
      "Ġquery": 3691,
      "arily": 3692,
      "Ġexpression": 3693,
      "ĠEurope": 3694,
      "ring": 3695,
      "ĠWindows": 3696,
      "Ġvers": 3697,
      "Ġknowledge": 3698,
      "-year": 3699,
      ".D": 3700,
      "Ġdownload": 3701,
      "AY": 3702,
      "Ġlock": 3703,
      "ruction": 3704,
      "Ġstream": 3705,
      "pack": 3706,
      "Ġstructure": 3707,
      "Ġlibrary": 3708,
      "imin": 3709,
      "Ġextreme": 3710,
      "Ġwife": 3711,
      "Test": 3712,
      "Ġcomputer": 3713,
      "band": 3714,
      "aling": 3715,
      "ishing": 3716,
      "_F": 3717,
      "88": 3718,
      "TH": 3719,
      "anch": 3720,
      "Context": 3721,
      ".net": 3722,
      "Ġpicture": 3723,
      "rupt": 3724,
      "Ġthanks": 3725,
      "Ġess": 3726,
      "mod": 3727,
      "Ġbeginning": 3728,
      "Ġdeg": 3729,
      "abled": 3730,
      "Ġdefined": 3731,
      "NA": 3732,
      "...ĊĊ": 3733,
      "46": 3734,
      "****************": 3735,
      "ously": 3736,
      "\"/": 3737,
      "ĠHere": 3738,
      "Inst": 3739,
      "Ġpolitical": 3740,
      "State": 3741,
      "Ġheight": 3742,
      "Ġmid": 3743,
      "Ġpicked": 3744,
      "))Ċ": 3745,
      "field": 3746,
      "Ġpubl": 3747,
      "Ġ&&": 3748,
      "sequ": 3749,
      "Ġnotice": 3750,
      "anced": 3751,
      "Ġstates": 3752,
      "lete": 3753,
      "soft": 3754,
      "Ġalthough": 3755,
      "reet": 3756,
      "ining": 3757,
      "VER": 3758,
      "Ġbottom": 3759,
      "ĠAmerica": 3760,
      "Ġdream": 3761,
      "ernel": 3762,
      "Ġwat": 3763,
      "Ġadvance": 3764,
      "ocks": 3765,
      "fortun": 3766,
      "Ġimmediately": 3767,
      "Ġprovided": 3768,
      "Ġdise": 3769,
      "Ġmechan": 3770,
      "ĠBar": 3771,
      "erve": 3772,
      "Ġdamage": 3773,
      "Ġcondition": 3774,
      "Ġtree": 3775,
      "iment": 3776,
      "ĠAS": 3777,
      "img": 3778,
      "Ġability": 3779,
      "dden": 3780,
      "Ġbur": 3781,
      "Ġce": 3782,
      "group": 3783,
      "void": 3784,
      "Ġplaces": 3785,
      "EM": 3786,
      "Ġmeant": 3787,
      ".ap": 3788,
      "Ġeasier": 3789,
      "Ġsun": 3790,
      "ĠUnited": 3791,
      "ĠYork": 3792,
      "Ġlimit": 3793,
      "Ġjoin": 3794,
      "Ġstories": 3795,
      "ores": 3796,
      "Path": 3797,
      "Ġreference": 3798,
      "Ġsystems": 3799,
      "PS": 3800,
      "Ġnecessary": 3801,
      "\"ĊĊ": 3802,
      "ĠEm": 3803,
      "uz": 3804,
      "plit": 3805,
      "Ġcompared": 3806,
      "inally": 3807,
      "config": 3808,
      ".r": 3809,
      "ports": 3810,
      "Ġjud": 3811,
      "Ġrepe": 3812,
      "ament": 3813,
      "Ġslightly": 3814,
      "idge": 3815,
      "point": 3816,
      "ĠĠĠĠĠĠĠĠĠĠĠĠĠĠ": 3817,
      "Ġwaiting": 3818,
      "ĠAss": 3819,
      "gen": 3820,
      "Ġallowed": 3821,
      "Ġdecision": 3822,
      "Ġaverage": 3823,
      "trans": 3824,
      "Ġrespond": 3825,
      "Ġengine": 3826,
      "ĠMaybe": 3827,
      "[i": 3828,
      "icon": 3829,
      "Ġfunctions": 3830,
      "Ġinvolved": 3831,
      "Ġmist": 3832,
      "Ġtravel": 3833,
      "Ġnoticed": 3834,
      "Ġcand": 3835,
      "left": 3836,
      "isc": 3837,
      "udd": 3838,
      "iny": 3839,
      "Ġarri": 3840,
      "From": 3841,
      "Ġadmin": 3842,
      "annel": 3843,
      "Ġfeet": 3844,
      "query": 3845,
      "Ġsudden": 3846,
      "Ġfavorite": 3847,
      "Ġprior": 3848,
      "Comp": 3849,
      "Ġasking": 3850,
      "Over": 3851,
      "Ġshoot": 3852,
      "_D": 3853,
      "ĠNOT": 3854,
      "ride": 3855,
      "ĠGet": 3856,
      "irth": 3857,
      "Ġliked": 3858,
      "aved": 3859,
      "Ġarms": 3860,
      "ius": 3861,
      "Ġpatch": 3862,
      "Ġbal": 3863,
      "aur": 3864,
      "undred": 3865,
      ".b": 3866,
      "Ġmentioned": 3867,
      "Ġsoci": 3868,
      "(Ċ": 3869,
      "Ġdeli": 3870,
      "Ġboo": 3871,
      "Ġfeature": 3872,
      "ilter": 3873,
      "dered": 3874,
      "sub": 3875,
      "Ġearlier": 3876,
      "Ġparticip": 3877,
      "xx": 3878,
      "ĠĠĠĠĠĠĠĠĠĠĠĠĠĠĠĠĠĠĠĠĠĠĠĠĠĠĠ": 3879,
      "verse": 3880,
      "Ġcra": 3881,
      "ĠÏ": 3882,
      "Ġsounds": 3883,
      "Ġhate": 3884,
      "Ġimpact": 3885,
      "Ġroot": 3886,
      "Ġrev": 3887,
      "Ġbecame": 3888,
      "kend": 3889,
      "ĠPC": 3890,
      "Ð»": 3891,
      "ĠPres": 3892,
      "ael": 3893,
      "dev": 3894,
      "Event": 3895,
      "ded": 3896,
      "enty": 3897,
      "iling": 3898,
      "07": 3899,
      "ocol": 3900,
      ".in": 3901,
      "Ġfactors": 3902,
      "Ġherself": 3903,
      "Ġwidth": 3904,
      "inding": 3905,
      "ares": 3906,
      "();ĊĊ": 3907,
      "Ġopinion": 3908,
      "Ġproducts": 3909,
      "(m": 3910,
      "content": 3911,
      "Ġformer": 3912,
      "Ġton": 3913,
      "ris": 3914,
      "ĠOh": 3915,
      "Ġjava": 3916,
      "Ġimages": 3917,
      "300": 3918,
      "Ġ},Ċ": 3919,
      "Ġstatus": 3920,
      "Ġrelative": 3921,
      "ditions": 3922,
      "Ġlevels": 3923,
      "xy": 3924,
      "ĠVal": 3925,
      "Ġsuff": 3926,
      "/g": 3927,
      ".st": 3928,
      "olve": 3929,
      "oph": 3930,
      "Ġcook": 3931,
      "Ġgraph": 3932,
      "Ġanim": 3933,
      "ino": 3934,
      "Ġtreatment": 3935,
      "atically": 3936,
      "Ġspent": 3937,
      "Ġconditions": 3938,
      "Ġten": 3939,
      "ĠEd": 3940,
      "asp": 3941,
      "Ġmeeting": 3942,
      "ialog": 3943,
      "Ġfem": 3944,
      "Ġfrequ": 3945,
      "Ġfac": 3946,
      "Ġpresident": 3947,
      "Ġabsolutely": 3948,
      "avid": 3949,
      "Ġprep": 3950,
      "Ġnearly": 3951,
      "layout": 3952,
      "Ġjour": 3953,
      "ees": 3954,
      "Ġfucking": 3955,
      "Ġpen": 3956,
      "Ġsignificant": 3957,
      "Ġpassed": 3958,
      "--------------------------------": 3959,
      "cast": 3960,
      "Ġtraining": 3961,
      "Ġstar": 3962,
      "Ġfig": 3963,
      "Ġprevent": 3964,
      "08": 3965,
      "Ġconsum": 3966,
      "reate": 3967,
      "het": 3968,
      "Sc": 3969,
      "asc": 3970,
      "Ġjump": 3971,
      "[]": 3972,
      "ults": 3973,
      "frame": 3974,
      "Ġbaby": 3975,
      "Ġelements": 3976,
      "ĠDem": 3977,
      "bol": 3978,
      "((": 3979,
      "CE": 3980,
      "ĠID": 3981,
      "(d": 3982,
      "Ġfloor": 3983,
      "hood": 3984,
      "Ġfactor": 3985,
      "vin": 3986,
      "ipe": 3987,
      "Ġfollowed": 3988,
      "Ġperhaps": 3989,
      "aul": 3990,
      "RI": 3991,
      "orrow": 3992,
      "Ġreve": 3993,
      "\")Ċ": 3994,
      "ĠPar": 3995,
      "Ġshowed": 3996,
      "acement": 3997,
      "Ġthous": 3998,
      "oom": 3999,
      "true": 4000,
      "Ġlif": 4001,
      "Ġarch": 4002,
      "ashing": 4003,
      "Ġdetail": 4004,
      "Ġapplic": 4005,
      "Ġchoose": 4006,
      "Ġwel": 4007,
      "Ġanymore": 4008,
      "Ġolder": 4009,
      "OC": 4010,
      "ĠWar": 4011,
      "kn": 4012,
      "oly": 4013,
      "oul": 4014,
      "isf": 4015,
      "':": 4016,
      "su": 4017,
      "Ġpulled": 4018,
      "Ġcalls": 4019,
      "Ġsold": 4020,
      "Ġ{čĊ": 4021,
      "Ġrules": 4022,
      "},": 4023,
      "Ġspot": 4024,
      "Ġgoal": 4025,
      "77": 4026,
      "Are": 4027,
      "Ġ(-": 4028,
      "Ġpages": 4029,
      "amm": 4030,
      "part": 4031,
      "Pr": 4032,
      "Read": 4033,
      "Array": 4034,
      "Ġban": 4035,
      "aled": 4036,
      "ky": 4037,
      "Ġsurv": 4038,
      "Ġboot": 4039,
      "Ġcompanies": 4040,
      "ĠWhile": 4041,
      "Cal": 4042,
      "Ġclosed": 4043,
      "Ġvisit": 4044,
      "Ġexplain": 4045,
      "Ġcold": 4046,
      "ĠList": 4047,
      "ĠState": 4048,
      "Ġcertainly": 4049,
      "Ġglobal": 4050,
      "Ġworry": 4051,
      "Image": 4052,
      "OST": 4053,
      "02": 4054,
      "umber": 4055,
      "Ġpractice": 4056,
      "Ġbug": 4057,
      "tered": 4058,
      "ĠOR": 4059,
      "Ġstrugg": 4060,
      "Ġprefer": 4061,
      "ĠTO": 4062,
      "Ġaware": 4063,
      "Ġstopped": 4064,
      "Ġhurt": 4065,
      "Ġmail": 4066,
      "ĠAb": 4067,
      "ĠYour": 4068,
      "Ġpattern": 4069,
      "42": 4070,
      "Ġstick": 4071,
      "ĠEnglish": 4072,
      "Ġplot": 4073,
      "Ġtransl": 4074,
      "Ġgrowth": 4075,
      "Ġstudies": 4076,
      "ĠChar": 4077,
      "idden": 4078,
      "ategory": 4079,
      "Ġtim": 4080,
      "pression": 4081,
      "ĠAdd": 4082,
      "lear": 4083,
      "85": 4084,
      "open": 4085,
      "Ġconvers": 4086,
      "ĠCor": 4087,
      "Ġimpl": 4088,
      "Ġstarts": 4089,
      "upid": 4090,
      "Ġoccur": 4091,
      "_b": 4092,
      "TP": 4093,
      "Ġnode": 4094,
      "dom": 4095,
      "Ġvict": 4096,
      "Ġwrote": 4097,
      "ĠAct": 4098,
      "ĠWell": 4099,
      "Ġsell": 4100,
      "Ġforg": 4101,
      "place": 4102,
      "Ġinstalled": 4103,
      "ĠOf": 4104,
      "_l": 4105,
      "Ġmut": 4106,
      "Ġir": 4107,
      "Ġadding": 4108,
      "ĠHT": 4109,
      "Ġconsist": 4110,
      "));Ċ": 4111,
      "Ġunique": 4112,
      "Ġhundred": 4113,
      "UN": 4114,
      "Ġbehavior": 4115,
      "Ġcommit": 4116,
      "oding": 4117,
      "men": 4118,
      "_n": 4119,
      "Then": 4120,
      "Ġthoughts": 4121,
      "agon": 4122,
      "Ġgrad": 4123,
      "Ġcapt": 4124,
      "ĠCo": 4125,
      "Ġunless": 4126,
      "Ġdoll": 4127,
      "Ġthreat": 4128,
      "itional": 4129,
      "Ġlose": 4130,
      "Ġ/*": 4131,
      "ĠOb": 4132,
      "Ġshut": 4133,
      "Ġ{ĊĊ": 4134,
      "Up": 4135,
      "Ġnone": 4136,
      "lied": 4137,
      "emplate": 4138,
      "Ġended": 4139,
      "Ġhang": 4140,
      "apping": 4141,
      "iant": 4142,
      "ĠIntern": 4143,
      "oves": 4144,
      "Ġbasic": 4145,
      "Ġmostly": 4146,
      "CL": 4147,
      "Ġmeasure": 4148,
      "Ġtend": 4149,
      "SD": 4150,
      "Ġlips": 4151,
      "-up": 4152,
      "Ġcenter": 4153,
      "New": 4154,
      "icles": 4155,
      "PL": 4156,
      "Ġscen": 4157,
      "esome": 4158,
      "Ġesc": 4159,
      "Ġer": 4160,
      "Ġahead": 4161,
      "Ġcirc": 4162,
      "Ġlocation": 4163,
      "EX": 4164,
      "amera": 4165,
      "rief": 4166,
      "Ġadditional": 4167,
      "06": 4168,
      "Ġcast": 4169,
      "gn": 4170,
      "reak": 4171,
      "Ġclasses": 4172,
      "iving": 4173,
      "Ġrelig": 4174,
      ".js": 4175,
      "Ġthrow": 4176,
      "Ġfilm": 4177,
      "Ġmur": 4178,
      "rs": 4179,
      "(f": 4180,
      "ĠSam": 4181,
      "Ġforeign": 4182,
      "rible": 4183,
      "Ġcarry": 4184,
      "Ġadvice": 4185,
      "Ġmine": 4186,
      "ady": 4187,
      "ighb": 4188,
      "inner": 4189,
      "Def": 4190,
      "\\\\": 4191,
      "anc": 4192,
      "ĠEl": 4193,
      "url": 4194,
      "ĠSci": 4195,
      "Out": 4196,
      "/l": 4197,
      "Ġempty": 4198,
      "Ġbreath": 4199,
      "Ġstd": 4200,
      "icit": 4201,
      "urrent": 4202,
      "map": 4203,
      "Ġgreen": 4204,
      "Ġgrand": 4205,
      "Ġenjoyed": 4206,
      "Ġcountries": 4207,
      "Ġmeaning": 4208,
      "09": 4209,
      "Ġprofess": 4210,
      "Ġproduction": 4211,
      "Ġfixed": 4212,
      "ĠStates": 4213,
      "Ġmember": 4214,
      "Ġquiet": 4215,
      "ĠSm": 4216,
      "Ġargument": 4217,
      "Ġtesting": 4218,
      "ĠGoogle": 4219,
      "Ġseconds": 4220,
      "Ġloop": 4221,
      "Ġcollege": 4222,
      "________": 4223,
      "Ġwhose": 4224,
      "?\"Ċ": 4225,
      "Ġ\"\"": 4226,
      "connect": 4227,
      "Ġleaving": 4228,
      "lean": 4229,
      "Ġtight": 4230,
      "aign": 4231,
      "Ġhighly": 4232,
      "itic": 4233,
      "valu": 4234,
      "Ġrid": 4235,
      "Ġreasons": 4236,
      "ald": 4237,
      "king": 4238,
      "hib": 4239,
      "Ġdescribed": 4240,
      "Ġcontribut": 4241,
      "Ġderiv": 4242,
      "obile": 4243,
      "Ġactivity": 4244,
      "Par": 4245,
      "Lay": 4246,
      "ĠGerm": 4247,
      ")$": 4248,
      "Ġrights": 4249,
      "Ġdog": 4250,
      "Ġevidence": 4251,
      "Ġslowly": 4252,
      "}$": 4253,
      "ros": 4254,
      "Ġdemon": 4255,
      "Ġtruth": 4256,
      "ĠChe": 4257,
      "Ġkilled": 4258,
      "Ġfully": 4259,
      "itory": 4260,
      "fs": 4261,
      "Ġsitting": 4262,
      "User": 4263,
      "arely": 4264,
      "Ġflow": 4265,
      "yond": 4266,
      "Ġtask": 4267,
      "IF": 4268,
      "Ġpolicy": 4269,
      "itude": 4270,
      "-M": 4271,
      "onents": 4272,
      "db": 4273,
      "Ġtal": 4274,
      "Ġfinished": 4275,
      "Ġunderstanding": 4276,
      "uel": 4277,
      "Ġphysical": 4278,
      "Ġcalling": 4279,
      "Ġnatural": 4280,
      "ani": 4281,
      "Ġpush": 4282,
      "-based": 4283,
      "Ġburn": 4284,
      "ĠGener": 4285,
      "fortunately": 4286,
      "ĠChina": 4287,
      "istration": 4288,
      "Ġsche": 4289,
      "ĠOpen": 4290,
      "Ġmodule": 4291,
      "ustr": 4292,
      "rec": 4293,
      "iam": 4294,
      "well": 4295,
      "odes": 4296,
      "Ġworse": 4297,
      "Ġsad": 4298,
      "Ġ__": 4299,
      "Ġsweet": 4300,
      "ĠReg": 4301,
      "Ġclearly": 4302,
      "(p": 4303,
      "ese": 4304,
      "Your": 4305,
      "Ġpurpose": 4306,
      "Ġweak": 4307,
      "ĠJan": 4308,
      "Ġweird": 4309,
      "Ġtelling": 4310,
      "Ġareas": 4311,
      "Ġ:=": 4312,
      "Ġreach": 4313,
      "roy": 4314,
      "Ġdirection": 4315,
      "apan": 4316,
      "respond": 4317,
      "Ġgold": 4318,
      "Ġlos": 4319,
      "BC": 4320,
      "Ġ]": 4321,
      "ĠAg": 4322,
      "Ġwarm": 4323,
      "67": 4324,
      "Ġhus": 4325,
      "Field": 4326,
      "Ġhelps": 4327,
      "Ġintern": 4328,
      "Ġhero": 4329,
      "Ġconcept": 4330,
      "Ġopened": 4331,
      "Ġlatest": 4332,
      "upport": 4333,
      "#define": 4334,
      "Ġurl": 4335,
      "entially": 4336,
      "ĠSw": 4337,
      "Suppose": 4338,
      "ĠGl": 4339,
      "ij": 4340,
      "orage": 4341,
      "Ġmus": 4342,
      "ĠJack": 4343,
      "image": 4344,
      "Ġcreating": 4345,
      "mary": 4346,
      "ĠNet": 4347,
      "\"></": 4348,
      "Ġmilit": 4349,
      "Ġ;": 4350,
      "inc": 4351,
      "Ġmount": 4352,
      "Ġfinan": 4353,
      "Ġcontains": 4354,
      "Ġputting": 4355,
      "Ġ<<": 4356,
      "acc": 4357,
      "EL": 4358,
      "ĠLicense": 4359,
      "Ġmicro": 4360,
      "see": 4361,
      "Ġteacher": 4362,
      "Des": 4363,
      "ĠSu": 4364,
      "aven": 4365,
      "ĠDes": 4366,
      "sure": 4367,
      "Ġtom": 4368,
      "ĠTV": 4369,
      "Ġconstruct": 4370,
      "Ġforget": 4371,
      "Ġaltern": 4372,
      "ĠRepublic": 4373,
      "Ġmodels": 4374,
      "Ġruns": 4375,
      "\").": 4376,
      "Ġweap": 4377,
      "Ġsolid": 4378,
      "Ġfailed": 4379,
      "ĠSim": 4380,
      "Ġobjects": 4381,
      "Ġassociated": 4382,
      "oving": 4383,
      "Pl": 4384,
      "Ġge": 4385,
      "(n": 4386,
      "Ġallows": 4387,
      "Date": 4388,
      "ĠSuppose": 4389,
      "Ġdetect": 4390,
      "/t": 4391,
      "Ġobviously": 4392,
      "Ġband": 4393,
      "Ġtour": 4394,
      "Ġinterface": 4395,
      "sec": 4396,
      "Ġappears": 4397,
      "Ġstat": 4398,
      "ROM": 4399,
      ";&": 4400,
      "Ġbrows": 4401,
      "rie": 4402,
      "valid": 4403,
      "object": 4404,
      "ĠCH": 4405,
      "idget": 4406,
      "03": 4407,
      "Ġeffects": 4408,
      "mitted": 4409,
      "Ġheavy": 4410,
      "First": 4411,
      "UM": 4412,
      "Ġfear": 4413,
      "Ġwondering": 4414,
      "Ġinflu": 4415,
      "itute": 4416,
      "aching": 4417,
      "Ġprec": 4418,
      "Ġplatform": 4419,
      "_name": 4420,
      "Ġdress": 4421,
      "Ġdriver": 4422,
      "True": 4423,
      "),Ċ": 4424,
      "aming": 4425,
      "Ġtemper": 4426,
      "_Ċ": 4427,
      "aches": 4428,
      "Table": 4429,
      "Ġgirls": 4430,
      "ĠWH": 4431,
      "_st": 4432,
      "Ġstupid": 4433,
      "UL": 4434,
      "ĠFirst": 4435,
      "_N": 4436,
      "Ġindustry": 4437,
      "Ġbound": 4438,
      "poss": 4439,
      ".php": 4440,
      "Ġapply": 4441,
      "Ġchest": 4442,
      "Ġbiggest": 4443,
      "Ġcollection": 4444,
      "Ġstreng": 4445,
      "').": 4446,
      "web": 4447,
      "Ġreb": 4448,
      "while": 4449,
      "ĠJava": 4450,
      "Ġreturns": 4451,
      "Ġseparate": 4452,
      "sum": 4453,
      "Ġbrain": 4454,
      "enn": 4455,
      "Ġdied": 4456,
      "Ġtrouble": 4457,
      "Ġeffic": 4458,
      "button": 4459,
      "apped": 4460,
      "ram": 4461,
      "Request": 4462,
      "âĢĺ": 4463,
      "Ġdynam": 4464,
      "select": 4465,
      "../../": 4466,
      "Ġtechnology": 4467,
      ".ex": 4468,
      "oto": 4469,
      "/f": 4470,
      "RL": 4471,
      "198": 4472,
      "ĠPlease": 4473,
      "urg": 4474,
      "-S": 4475,
      "Ġprime": 4476,
      "irtual": 4477,
      "istance": 4478,
      "ĠPresident": 4479,
      "}\\": 4480,
      "Ġ/>Ċ": 4481,
      "ĠYes": 4482,
      "da": 4483,
      "ĠPart": 4484,
      "Ġestab": 4485,
      "Ġcalcul": 4486,
      "pm": 4487,
      "(c": 4488,
      "Ġnegative": 4489,
      "Ġreleased": 4490,
      "Some": 4491,
      "Ġpair": 4492,
      "57": 4493,
      "');Ċ": 4494,
      "Ġdeb": 4495,
      "indow": 4496,
      "Log": 4497,
      "ĠFrom": 4498,
      "Ġdivided": 4499,
      "Ġstage": 4500,
      "asy": 4501,
      "Ġconsole": 4502,
      "59": 4503,
      "pring": 4504,
      "Ġshall": 4505,
      "ibr": 4506,
      "Ġanti": 4507,
      "-n": 4508,
      "ga": 4509,
      "Ġarr": 4510,
      "actions": 4511,
      "grad": 4512,
      "hest": 4513,
      "ocket": 4514,
      "Ġdirectory": 4515,
      "Ġsmaller": 4516,
      "-e": 4517,
      "ichael": 4518,
      "41": 4519,
      "Ġled": 4520,
      "Ġshouldn": 4521,
      "Ġproperties": 4522,
      "Ġexisting": 4523,
      "Ġactive": 4524,
      ".A": 4525,
      "Ġbuff": 4526,
      "ĠGood": 4527,
      "ushing": 4528,
      "Ġprote": 4529,
      "uh": 4530,
      "ender": 4531,
      "Ġinfo": 4532,
      "Ġholding": 4533,
      "Ġ$(": 4534,
      "iven": 4535,
      "Ġï": 4536,
      "Ġbeat": 4537,
      "mail": 4538,
      "Ġbank": 4539,
      "ĠAM": 4540,
      "Ġinj": 4541,
      "ĠIP": 4542,
      "Query": 4543,
      "Ġunit": 4544,
      "-C": 4545,
      "Ġneighb": 4546,
      "Ġwilling": 4547,
      "Ġcounter": 4548,
      "omething": 4549,
      "emy": 4550,
      "istry": 4551,
      "pha": 4552,
      "edia": 4553,
      "68": 4554,
      "Index": 4555,
      "iliar": 4556,
      "Ġturns": 4557,
      "Ġfingers": 4558,
      "ĠON": 4559,
      "ĠRuss": 4560,
      "ĠSouth": 4561,
      "However": 4562,
      ">>": 4563,
      "Ġdaughter": 4564,
      "43": 4565,
      ")\"": 4566,
      "ios": 4567,
      "bo": 4568,
      "ĠWorld": 4569,
      "ĠMon": 4570,
      ".add": 4571,
      "ĠAust": 4572,
      "Ġsecret": 4573,
      "Ġdanger": 4574,
      "ening": 4575,
      "Ġinn": 4576,
      "ograph": 4577,
      "Ġsatisf": 4578,
      "Ġdel": 4579,
      "Ġpaid": 4580,
      "Hand": 4581,
      "width": 4582,
      "ĠCity": 4583,
      "Ġshowing": 4584,
      "Ġfinding": 4585,
      "Fl": 4586,
      "ersion": 4587,
      "Ġhappening": 4588,
      "Look": 4589,
      "Ġbroad": 4590,
      "Ġnature": 4591,
      "Ġpressure": 4592,
      "gor": 4593,
      "Ġpopular": 4594,
      "oles": 4595,
      "Ġspir": 4596,
      "atur": 4597,
      "Ġnational": 4598,
      "vis": 4599,
      "erc": 4600,
      "ĠKing": 4601,
      "arg": 4602,
      "Ġrom": 4603,
      "Ġsec": 4604,
      "??": 4605,
      "icrosoft": 4606,
      "Ġtotally": 4607,
      "ivil": 4608,
      "Ġsession": 4609,
      "ĠBrit": 4610,
      "ĠMark": 4611,
      "Ġthus": 4612,
      "Ġhelped": 4613,
      "Ġbirth": 4614,
      "ĠAng": 4615,
      "Ġenter": 4616,
      "Ġglass": 4617,
      "array": 4618,
      "Ġsomewhere": 4619,
      "Ġstars": 4620,
      "ĠLike": 4621,
      "Element": 4622,
      "Ġtag": 4623,
      "Ġfields": 4624,
      ".R": 4625,
      "Ġbroken": 4626,
      "Ġhusband": 4627,
      "Ġbag": 4628,
      "init": 4629,
      "Ġstock": 4630,
      "option": 4631,
      "ĠComm": 4632,
      "Ġcampaign": 4633,
      "Ġotherwise": 4634,
      "base": 4635,
      "Ġmanagement": 4636,
      "Ġrock": 4637,
      "Controller": 4638,
      "izes": 4639,
      "Good": 4640,
      "omb": 4641,
      "Ġletters": 4642,
      "Ġminute": 4643,
      "Ġeight": 4644,
      "Ġvote": 4645,
      "ĠAPI": 4646,
      "Ġcrazy": 4647,
      "Ġ\"[": 4648,
      "lin": 4649,
      ".y": 4650,
      "ids": 4651,
      "aa": 4652,
      "ĠMore": 4653,
      "Ġtests": 4654,
      "Ġ~": 4655,
      "ferences": 4656,
      "Ġopportunity": 4657,
      "ĠAN": 4658,
      "Ġbeyond": 4659,
      "Size": 4660,
      "Ġspread": 4661,
      "iring": 4662,
      "link": 4663,
      "atives": 4664,
      "Ġreturned": 4665,
      "pendent": 4666,
      "Ġfinish": 4667,
      "ĠComp": 4668,
      "ĠHarry": 4669,
      "arest": 4670,
      "create": 4671,
      "Ġderivative": 4672,
      "Button": 4673,
      "Ġlots": 4674,
      "Ġfed": 4675,
      "XX": 4676,
      "Ġstudent": 4677,
      "Ġtick": 4678,
      "active": 4679,
      "Ġsample": 4680,
      "ooth": 4681,
      "ĠNorth": 4682,
      "Ġcaught": 4683,
      "appoint": 4684,
      "ĠAre": 4685,
      "Ġrealize": 4686,
      "ĠNULL": 4687,
      "ipped": 4688,
      "Ġrule": 4689,
      "Info": 4690,
      "Ġoil": 4691,
      "Ġmaster": 4692,
      "_L": 4693,
      "Ġwalked": 4694,
      "Ġwear": 4695,
      "Ġsteps": 4696,
      "Ġcontract": 4697,
      "Ġquarter": 4698,
      "Ġtruly": 4699,
      "Ðº": 4700,
      "erg": 4701,
      "MS": 4702,
      "Ġneck": 4703,
      "Ġ\"(": 4704,
      "ĠSince": 4705,
      "Box": 4706,
      "ui": 4707,
      "ithub": 4708,
      "400": 4709,
      "Ġreceive": 4710,
      "encies": 4711,
      "Ġsurface": 4712,
      "Ġsummer": 4713,
      "Service": 4714,
      "Ġcloser": 4715,
      "istics": 4716,
      "rench": 4717,
      "ALL": 4718,
      "_B": 4719,
      "Ġdoubt": 4720,
      "Ġclot": 4721,
      "\\n": 4722,
      "ĠNote": 4723,
      "Ġthroughout": 4724,
      "hent": 4725,
      "Ġglad": 4726,
      "Ġlaug": 4727,
      "Ġresources": 4728,
      "Ġdisease": 4729,
      "Ġgenerally": 4730,
      "arently": 4731,
      "Ġsrc": 4732,
      "Ġstress": 4733,
      "ĠData": 4734,
      "aly": 4735,
      "Ġaim": 4736,
      "Code": 4737,
      "Ġadvant": 4738,
      "ems": 4739,
      "Ġeducation": 4740,
      "Ġexam": 4741,
      "Ġassume": 4742,
      "Ġeventually": 4743,
      "gl": 4744,
      "Ġfat": 4745,
      "ĠGo": 4746,
      "Manager": 4747,
      "Ġfilter": 4748,
      "cellent": 4749,
      "Ġaf": 4750,
      "ĠPat": 4751,
      "mas": 4752,
      "android": 4753,
      "Ġwelcome": 4754,
      "Ġpopulation": 4755,
      "ĠSee": 4756,
      "Ġcharge": 4757,
      "SON": 4758,
      "Ġkit": 4759,
      "Ġachieve": 4760,
      "Ġsetup": 4761,
      "69": 4762,
      "ĠCount": 4763,
      "Ġpatient": 4764,
      "\",\"": 4765,
      "ĠMac": 4766,
      "Ġfant": 4767,
      "ulate": 4768,
      "Ġsubst": 4769,
      "imately": 4770,
      "ĠOS": 4771,
      "check": 4772,
      "Ġextremely": 4773,
      "anged": 4774,
      "ifying": 4775,
      "azon": 4776,
      "ran": 4777,
      "osh": 4778,
      "orge": 4779,
      "Ġlab": 4780,
      "Ġoppos": 4781,
      "ĠMost": 4782,
      "sych": 4783,
      "Ġscene": 4784,
      "Ġreached": 4785,
      "isplay": 4786,
      "ĠTw": 4787,
      "iber": 4788,
      "Ġfa": 4789,
      "Ġrat": 4790,
      "Ġoverall": 4791,
      "Ġnamed": 4792,
      "Ġcourt": 4793,
      "Ġecho": 4794,
      "Ġparameters": 4795,
      "Ġsem": 4796,
      "Color": 4797,
      "Ġcompar": 4798,
      "Ġdu": 4799,
      "Ġlaugh": 4800,
      "ĠĠĠĠĠĠĠĠĠĠĠĠĠĠĠĠĠ": 4801,
      "unction": 4802,
      "Ġincludes": 4803,
      "Config": 4804,
      "Ġdistance": 4805,
      "================": 4806,
      "Ġmedical": 4807,
      "osis": 4808,
      "iler": 4809,
      "Ġincreased": 4810,
      "Ġregion": 4811,
      "cel": 4812,
      "lient": 4813,
      "Ġvir": 4814,
      "Ġmanaged": 4815,
      "Ġlimited": 4816,
      "\"><": 4817,
      "Ġplus": 4818,
      "(),": 4819,
      "untu": 4820,
      "Ġdim": 4821,
      "Ġlearned": 4822,
      "Ġproperly": 4823,
      "tained": 4824,
      "Ñĥ": 4825,
      "actory": 4826,
      "Ġparticularly": 4827,
      "ĠSE": 4828,
      "Ġequal": 4829,
      "Ġsmart": 4830,
      "oken": 4831,
      "isp": 4832,
      "iot": 4833,
      "gorith": 4834,
      "/r": 4835,
      "Ġdespite": 4836,
      "works": 4837,
      "ights": 4838,
      "Ġleaders": 4839,
      "Ġdeveloped": 4840,
      "Ġok": 4841,
      "\"/>Ċ": 4842,
      "mar": 4843,
      "Ġtools": 4844,
      "ĠHouse": 4845,
      "ĠPol": 4846,
      "Ġappreciated": 4847,
      "Ġyell": 4848,
      "May": 4849,
      "Ġkick": 4850,
      "ĠSet": 4851,
      "89": 4852,
      "Ġmill": 4853,
      "Trans": 4854,
      "ĠWhich": 4855,
      "Ġcomfortable": 4856,
      "Ġsister": 4857,
      "illa": 4858,
      "UE": 4859,
      "Okay": 4860,
      "Ġtherefore": 4861,
      "Ġtopic": 4862,
      "Ġcandid": 4863,
      "Ġlarger": 4864,
      "Ġaccur": 4865,
      "under": 4866,
      "Ġappropri": 4867,
      "-re": 4868,
      "Ġselected": 4869,
      "Ġinterview": 4870,
      "Ġchanging": 4871,
      "ordin": 4872,
      "HP": 4873,
      "Ġzero": 4874,
      "known": 4875,
      "150": 4876,
      "ecute": 4877,
      "Ġappreciate": 4878,
      "istr": 4879,
      ".n": 4880,
      "Ġcore": 4881,
      "cd": 4882,
      "Ġ||": 4883,
      "Us": 4884,
      "Ġprojects": 4885,
      "raph": 4886,
      "Ġprimary": 4887,
      "Ġbillion": 4888,
      "gu": 4889,
      "Ġimagine": 4890,
      "Ġquant": 4891,
      "Ġdistr": 4892,
      "ondon": 4893,
      "ĠTom": 4894,
      "Ġble": 4895,
      "Ġremind": 4896,
      "Ġreplacement": 4897,
      "pected": 4898,
      "itable": 4899,
      "ka": 4900,
      "Ġplans": 4901,
      "Ġmilitary": 4902,
      "87": 4903,
      "asure": 4904,
      "Ġcontinued": 4905,
      "vey": 4906,
      "Ġnor": 4907,
      "Ġfunny": 4908,
      "Ġcamera": 4909,
      "Ġmessages": 4910,
      "Ġtrade": 4911,
      "Ġperfectly": 4912,
      "Ġawesome": 4913,
      "Ġerrors": 4914,
      "LECT": 4915,
      "Ġdad": 4916,
      "bum": 4917,
      "Ġattend": 4918,
      "Ġtheory": 4919,
      "ĠDoes": 4920,
      "Ġpublished": 4921,
      "Ġcontinu": 4922,
      "Ġcop": 4923,
      "aker": 4924,
      "Ġsequence": 4925,
      "////////": 4926,
      "ĠOther": 4927,
      "rey": 4928,
      "Ġbecomes": 4929,
      "Ġfresh": 4930,
      "clus": 4931,
      "arp": 4932,
      "iqu": 4933,
      "height": 4934,
      "Ġincreasing": 4935,
      "Ġdocumentation": 4936,
      "Ġgas": 4937,
      "Ġadjust": 4938,
      "Ġscr": 4939,
      "ANT": 4940,
      "Ġclin": 4941,
      "Regards": 4942,
      "Ġsociety": 4943,
      "Ġcollect": 4944,
      "ham": 4945,
      "Ġscale": 4946,
      "table": 4947,
      "Where": 4948,
      "Ġdiscussion": 4949,
      "Ġstrange": 4950,
      "Ġparameter": 4951,
      "Ġgrowing": 4952,
      "Ġkeeping": 4953,
      "ÂłÂł": 4954,
      "KE": 4955,
      "appe": 4956,
      "Per": 4957,
      "Ġdisappoint": 4958,
      "56": 4959,
      "Ġknowing": 4960,
      "Ġpoly": 4961,
      "Ġfollows": 4962,
      "avig": 4963,
      "ipp": 4964,
      "flow": 4965,
      "Ġvariables": 4966,
      "Ġremoved": 4967,
      "ounce": 4968,
      "acity": 4969,
      "pg": 4970,
      "Ġseven": 4971,
      "ico": 4972,
      "-se": 4973,
      "enge": 4974,
      "equ": 4975,
      "anted": 4976,
      "Ġcaused": 4977,
      "Ġrub": 4978,
      "PC": 4979,
      "Line": 4980,
      "ora": 4981,
      "Ġborder": 4982,
      "ula": 4983,
      "des": 4984,
      "Ġlabel": 4985,
      "eta": 4986,
      "Ġwalking": 4987,
      "ech": 4988,
      "inct": 4989,
      "ĠCD": 4990,
      "Ġstood": 4991,
      "Ġexpos": 4992,
      "Ġcancer": 4993,
      "pective": 4994,
      "Ġrace": 4995,
      "Ġvs": 4996,
      "ĠIT": 4997,
      "ERE": 4998,
      ".'": 4999,
      "Ġmo": 5000,
      "acter": 5001,
      "Ġdemand": 5002,
      "(b": 5003,
      "nding": 5004,
      ":**Ċ": 5005,
      "ĠWest": 5006,
      "igr": 5007,
      "Ġfol": 5008,
      "Ġfinancial": 5009,
      "UI": 5010,
      "olutions": 5011,
      "Ġhospital": 5012,
      "Map": 5013,
      "Ġprovides": 5014,
      "Ġwild": 5015,
      "Build": 5016,
      "Does": 5017,
      "mark": 5018,
      "Ġpredict": 5019,
      "ĠJe": 5020,
      "Ġshared": 5021,
      "Model": 5022,
      "conf": 5023,
      "Ġinform": 5024,
      "ĠĠĊĊ": 5025,
      "ĠAp": 5026,
      "Ġcards": 5027,
      "ounced": 5028,
      "Ġbul": 5029,
      "terday": 5030,
      "RA": 5031,
      ".log": 5032,
      "ĠCO": 5033,
      "Ġtrig": 5034,
      "Ġliterally": 5035,
      "iation": 5036,
      "ipping": 5037,
      "Ġposted": 5038,
      "Ġdesk": 5039,
      "Ġedge": 5040,
      "Ġreplace": 5041,
      "Ġheat": 5042,
      "Ġreality": 5043,
      "Layout": 5044,
      "result": 5045,
      "Att": 5046,
      "lebr": 5047,
      "Ġnearest": 5048,
      "abs": 5049,
      "onday": 5050,
      "grade": 5051,
      "Ġlegal": 5052,
      "$$Ċ": 5053,
      "}}": 5054,
      "oms": 5055,
      "-old": 5056,
      "ĠDemocr": 5057,
      "Ġcoff": 5058,
      "iously": 5059,
      "Br": 5060,
      "Ġodd": 5061,
      "ĠBecause": 5062,
      "ĠEar": 5063,
      "ĠNational": 5064,
      "Ġincred": 5065,
      "Ġrestr": 5066,
      "Ġscience": 5067,
      "possible": 5068,
      "Ġstaff": 5069,
      "Ġvolume": 5070,
      "ests": 5071,
      "some": 5072,
      "ĠOur": 5073,
      "Ġmodern": 5074,
      "product": 5075,
      "izer": 5076,
      "Ġfamiliar": 5077,
      "SP": 5078,
      "Ġanaly": 5079,
      "alled": 5080,
      "ĠDE": 5081,
      "Ġdescription": 5082,
      "Ġdemonstr": 5083,
      "Ġleading": 5084,
      "Ġdistribution": 5085,
      "isions": 5086,
      "Ġjobs": 5087,
      "itation": 5088,
      "Ġpark": 5089,
      "Ġculture": 5090,
      "avas": 5091,
      "Ġaspect": 5092,
      "Ġstack": 5093,
      "ĠCr": 5094,
      "etch": 5095,
      "Ġgreater": 5096,
      "Stream": 5097,
      "uffer": 5098,
      "uary": 5099,
      "Bl": 5100,
      "Ġconduct": 5101,
      ")(": 5102,
      "Ġweekend": 5103,
      "Ġsettings": 5104,
      "Ġsolve": 5105,
      "120": 5106,
      "Ġstanding": 5107,
      "_r": 5108,
      "OK": 5109,
      "Ġult": 5110,
      "&gt": 5111,
      "ĠLinux": 5112,
      "ĠOct": 5113,
      "MA": 5114,
      "Ġblog": 5115,
      "Ġstrength": 5116,
      "Ġfirm": 5117,
      "Ġhoping": 5118,
      "ship": 5119,
      "Ġsurprised": 5120,
      "static": 5121,
      "){Ċ": 5122,
      "Ġcontain": 5123,
      "ĠStud": 5124,
      "Ġdaily": 5125,
      "Also": 5126,
      "friend": 5127,
      "Ġrequires": 5128,
      "Ġcorrectly": 5129,
      "Ġpeace": 5130,
      "Ġconversation": 5131,
      "Ġrot": 5132,
      "Ġsuddenly": 5133,
      "Ġcorrespond": 5134,
      "Ġplaced": 5135,
      "raid": 5136,
      "hern": 5137,
      "Ġsets": 5138,
      "ulated": 5139,
      "Ġraised": 5140,
      "Ġfaster": 5141,
      "stream": 5142,
      "iers": 5143,
      "ĠFriday": 5144,
      "Ġtele": 5145,
      "Ġnil": 5146,
      "otal": 5147,
      "current": 5148,
      "ĠDean": 5149,
      "Ġwood": 5150,
      "ĠBlack": 5151,
      "uke": 5152,
      "Link": 5153,
      "Ġcredit": 5154,
      "Ġstuck": 5155,
      "Ġeconomic": 5156,
      "Ġship": 5157,
      "Ġchem": 5158,
      "Ġfont": 5159,
      ");čĊ": 5160,
      "omin": 5161,
      "Ġimplementation": 5162,
      "Ġsales": 5163,
      "ifier": 5164,
      "ĠJapan": 5165,
      "anks": 5166,
      "Ġchannel": 5167,
      "Ġexception": 5168,
      "js": 5169,
      "Ġuns": 5170,
      "Ġopening": 5171,
      "Ġhighest": 5172,
      "ormal": 5173,
      "hold": 5174,
      "Ġhadn": 5175,
      "Ġencour": 5176,
      "illy": 5177,
      "Ġbrand": 5178,
      "ĠEdit": 5179,
      "Me": 5180,
      "Ġintend": 5181,
      "Ġrealized": 5182,
      "enu": 5183,
      ":layout": 5184,
      "Ġpossibly": 5185,
      "Ġintr": 5186,
      "Ġletter": 5187,
      "Ġord": 5188,
      "Department": 5189,
      "chen": 5190,
      "Ġconfiguration": 5191,
      "Ġfolder": 5192,
      "round": 5193,
      "Inter": 5194,
      "AND": 5195,
      "Node": 5196,
      "........": 5197,
      "alt": 5198,
      "ev": 5199,
      "oat": 5200,
      "angle": 5201,
      "Ġwonderful": 5202,
      "ĠAc": 5203,
      "Ġsomehow": 5204,
      "Ent": 5205,
      "ĠHigh": 5206,
      "Ġwatched": 5207,
      "Ġrob": 5208,
      "ĠFile": 5209,
      "Ġfans": 5210,
      "pril": 5211,
      "Ġbatter": 5212,
      "clusion": 5213,
      "avascript": 5214,
      "Ġbigger": 5215,
      "ĠWeb": 5216,
      "Ġspect": 5217,
      "position": 5218,
      "Ġbright": 5219,
      "Ġbes": 5220,
      "uster": 5221,
      "Ġsaf": 5222,
      "Ġindic": 5223,
      "Ġsick": 5224,
      "Ġedit": 5225,
      "ses": 5226,
      "());Ċ": 5227,
      "ario": 5228,
      "Ġcapital": 5229,
      "Ġlean": 5230,
      "Ġpun": 5231,
      "Ġemb": 5232,
      "Ġattract": 5233,
      "PD": 5234,
      "Ġcomponent": 5235,
      "Ġreports": 5236,
      "Ġdecide": 5237,
      "$,": 5238,
      "ding": 5239,
      "Ġconnected": 5240,
      "Ġannoy": 5241,
      "Ġmajority": 5242,
      "Ġshoulder": 5243,
      "wr": 5244,
      "(i": 5245,
      "Ġchalleng": 5246,
      "icine": 5247,
      "ĠDavid": 5248,
      "ĠYOU": 5249,
      "Ġactions": 5250,
      "emic": 5251,
      "Ġbunch": 5252,
      "Ñı": 5253,
      "Ġapplications": 5254,
      "Ġshape": 5255,
      "Ġinternet": 5256,
      "Ġwindows": 5257,
      "Ġentry": 5258,
      "False": 5259,
      "level": 5260,
      "ĠMarch": 5261,
      "Ġpow": 5262,
      "ĠDef": 5263,
      "Ġexcited": 5264,
      "ĠSen": 5265,
      "AME": 5266,
      "Ã³": 5267,
      "ategy": 5268,
      "{\\": 5269,
      "51": 5270,
      "la": 5271,
      "Sub": 5272,
      "97": 5273,
      "ãĤ": 5274,
      "Ġhar": 5275,
      "PU": 5276,
      "asks": 5277,
      "Ġapart": 5278,
      "Ġbill": 5279,
      "Ġcorner": 5280,
      "âĢĿĊ": 5281,
      "Ġusual": 5282,
      "Ġtrain": 5283,
      "Ġperformed": 5284,
      "Ġ:)": 5285,
      "ĠGreat": 5286,
      "ille": 5287,
      ".L": 5288,
      "term": 5289,
      "IB": 5290,
      "ĠThank": 5291,
      "yr": 5292,
      "ĠCenter": 5293,
      "Ġwra": 5294,
      "ĠAfr": 5295,
      "Ġtrip": 5296,
      "Ġeffective": 5297,
      "Ġdont": 5298,
      "Ġdefine": 5299,
      "anna": 5300,
      "Ġbud": 5301,
      "Ġcareer": 5302,
      "Ġveh": 5303,
      "ĠAug": 5304,
      "Ð²": 5305,
      "Content": 5306,
      "Ste": 5307,
      "Ġdesigned": 5308,
      "Ġproced": 5309,
      "-A": 5310,
      "Ġ($": 5311,
      "ĠCON": 5312,
      "func": 5313,
      "Ġhistor": 5314,
      "ĠOver": 5315,
      "coming": 5316,
      "Ġmenu": 5317,
      "aked": 5318,
      "ĠLog": 5319,
      "ups": 5320,
      "Ġacqu": 5321,
      "Ġbeg": 5322,
      "example": 5323,
      "pir": 5324,
      "pi": 5325,
      "ĠPM": 5326,
      "---": 5327,
      "start": 5328,
      "/or": 5329,
      "-sh": 5330,
      "rael": 5331,
      "Ġscient": 5332,
      "Ġdrag": 5333,
      "_h": 5334,
      "Ġterr": 5335,
      "eed": 5336,
      "ias": 5337,
      "Ġloud": 5338,
      "Ġassess": 5339,
      "info": 5340,
      "click": 5341,
      "IV": 5342,
      "58": 5343,
      "Ġtells": 5344,
      ".T": 5345,
      "Ġworst": 5346,
      "ccording": 5347,
      "Ġinsert": 5348,
      "ĠBen": 5349,
      "Ġtwice": 5350,
      "unday": 5351,
      "Ġoccas": 5352,
      "Ġconver": 5353,
      "Ġclub": 5354,
      "vere": 5355,
      "Ġinternal": 5356,
      "Ġauto": 5357,
      "only": 5358,
      "oman": 5359,
      "Ġpassword": 5360,
      "omen": 5361,
      "Ġconstant": 5362,
      "Ġpal": 5363,
      "ĠAlex": 5364,
      "Ġflat": 5365,
      "default": 5366,
      "ART": 5367,
      "GB": 5368,
      "Ġnation": 5369,
      "ĠSub": 5370,
      "=\\": 5371,
      "Ġdiagn": 5372,
      "/Ċ": 5373,
      "Did": 5374,
      "Calculate": 5375,
      "ĠNS": 5376,
      "urance": 5377,
      "ĠĠĠĠĠĠĠĠĠĠĠĠĠĠĠĠĠĠĠĠĠĠĠĠĠĠĠĠĠĠĠ": 5378,
      "*s": 5379,
      "Ġreader": 5380,
      "cat": 5381,
      "ĠAR": 5382,
      "Ġapplied": 5383,
      "Ġbroke": 5384,
      "';Ċ": 5385,
      "md": 5386,
      "ĠRead": 5387,
      "gers": 5388,
      "Source": 5389,
      "Ġcompos": 5390,
      ".N": 5391,
      "Ġdevices": 5392,
      "Ġgotten": 5393,
      "Ġmovement": 5394,
      "Ġpowerful": 5395,
      "Ġshock": 5396,
      "Ġprin": 5397,
      "\"]": 5398,
      "Ġdegree": 5399,
      "Ġfilled": 5400,
      "Ġbasis": 5401,
      "ĠPeople": 5402,
      "Ġì": 5403,
      "case": 5404,
      "Ġbattle": 5405,
      "ancy": 5406,
      "Come": 5407,
      "Ġthinks": 5408,
      "antic": 5409,
      "Ġring": 5410,
      "ensions": 5411,
      "cons": 5412,
      "Ġscore": 5413,
      "Ġsmiled": 5414,
      "Ġsynt": 5415,
      "Ġtemplate": 5416,
      "Ġdry": 5417,
      "Ġcoffee": 5418,
      "Ġeverybody": 5419,
      "Ġupdated": 5420,
      "')Ċ": 5421,
      "Ġearth": 5422,
      "wood": 5423,
      "ools": 5424,
      "Ġdomain": 5425,
      "cles": 5426,
      "Message": 5427,
      "Ġturning": 5428,
      "System": 5429,
      "Ġkernel": 5430,
      "Ġending": 5431,
      "Ġdecre": 5432,
      "Ġrap": 5433,
      "Ġplanning": 5434,
      "Ġalgorith": 5435,
      "Ġminor": 5436,
      "ĠAT": 5437,
      "-pro": 5438,
      "*t": 5439,
      "ki": 5440,
      "ĠLou": 5441,
      "Ġanswers": 5442,
      "Ġflu": 5443,
      "Ġforced": 5444,
      "orial": 5445,
      "itiz": 5446,
      "ĠTrans": 5447,
      "Ġmanager": 5448,
      "197": 5449,
      "Edit": 5450,
      "(new": 5451,
      "These": 5452,
      "esus": 5453,
      "Ġcosts": 5454,
      "Ġepis": 5455,
      "Ð¼": 5456,
      "Ġauth": 5457,
      "Rec": 5458,
      "'.": 5459,
      "semb": 5460,
      "Ġconcent": 5461,
      "Ġappropriate": 5462,
      "Ġmissed": 5463,
      "Ġsen": 5464,
      "Ġcelebr": 5465,
      "ptions": 5466,
      "ĠMat": 5467,
      "ya": 5468,
      "rees": 5469,
      "inese": 5470,
      "Ġhyp": 5471,
      "state": 5472,
      "*x": 5473,
      "(a": 5474,
      "Ġexamples": 5475,
      "Ġrough": 5476,
      "force": 5477,
      "ĠJune": 5478,
      "look": 5479,
      "illed": 5480,
      "acebook": 5481,
      "Ġweren": 5482,
      "ications": 5483,
      "While": 5484,
      "IA": 5485,
      "Ġremote": 5486,
      "Ġcheap": 5487,
      "msg": 5488,
      "rt": 5489,
      "Ġpreviously": 5490,
      "Ġpresence": 5491,
      "ufact": 5492,
      "Ab": 5493,
      "Ġestim": 5494,
      "gment": 5495,
      "Ġrelevant": 5496,
      "pass": 5497,
      "Ġtoward": 5498,
      ".id": 5499,
      "Ġgenerated": 5500,
      "SQL": 5501,
      "ĠLondon": 5502,
      "Ġpsych": 5503,
      "za": 5504,
      "Ġdropped": 5505,
      "Ġgro": 5506,
      "ĠOut": 5507,
      "Ġfairly": 5508,
      "Ġmir": 5509,
      "Who": 5510,
      "Ġqual": 5511,
      "Ġboys": 5512,
      "Ġdrug": 5513,
      "uesday": 5514,
      "berg": 5515,
      "Ġsimpl": 5516,
      "Ġsuccessful": 5517,
      "52": 5518,
      "ĠJames": 5519,
      "ican": 5520,
      "Ġtransfer": 5521,
      "Bar": 5522,
      "oices": 5523,
      ".W": 5524,
      "Ġbrief": 5525,
      "Ġforgot": 5526,
      "pat": 5527,
      "alle": 5528,
      "ATION": 5529,
      "adding": 5530,
      "Ġentirely": 5531,
      "ĠSan": 5532,
      "ander": 5533,
      "Ġchair": 5534,
      "Every": 5535,
      "Ġadvantage": 5536,
      "phone": 5537,
      "Ġregarding": 5538,
      "rep": 5539,
      ".--": 5540,
      "rip": 5541,
      "ĠRem": 5542,
      "*c": 5543,
      "``": 5544,
      "âĢľYou": 5545,
      "Count": 5546,
      "$.": 5547,
      "Ġskills": 5548,
      "âĪ": 5549,
      "Ġafraid": 5550,
      "ulations": 5551,
      "98": 5552,
      "arrow": 5553,
      "Sim": 5554,
      "rome": 5555,
      "Ġconsidering": 5556,
      "rm": 5557,
      "ensity": 5558,
      "acle": 5559,
      "Ġcivil": 5560,
      "*w": 5561,
      "/(-": 5562,
      "rian": 5563,
      "rough": 5564,
      "Ã¡": 5565,
      "estern": 5566,
      "arc": 5567,
      "inn": 5568,
      "Ġfault": 5569,
      "rd": 5570,
      "ii": 5571,
      "Ġcontroller": 5572,
      "-a": 5573,
      "DB": 5574,
      "Ġfemale": 5575,
      "Ġoptim": 5576,
      "*p": 5577,
      "Rep": 5578,
      "ĠGeneral": 5579,
      "ername": 5580,
      "NT": 5581,
      "-time": 5582,
      "Method": 5583,
      "pret": 5584,
      "Ġfeelings": 5585,
      "EE": 5586,
      "ĠMonday": 5587,
      "Ġmagic": 5588,
      "*d": 5589,
      "Ġanywhere": 5590,
      "post": 5591,
      "ours": 5592,
      "*n": 5593,
      "label": 5594,
      "Ġevalu": 5595,
      "-de": 5596,
      "Ġoperation": 5597,
      "arsh": 5598,
      "Ġpictures": 5599,
      "_type": 5600,
      "Ġhasn": 5601,
      "ĠOnce": 5602,
      "Ġpriv": 5603,
      "ÃŃ": 5604,
      "Ġwearing": 5605,
      "Ġprograms": 5606,
      "*i": 5607,
      "Ġspirit": 5608,
      "Ġconv": 5609,
      "Ġdefinition": 5610,
      "*a": 5611,
      "DS": 5612,
      "ĠSteve": 5613,
      "aturday": 5614,
      "Ġexcellent": 5615,
      "show": 5616,
      "(\\": 5617,
      "Ġdetermine": 5618,
      "ĠSchool": 5619,
      "ĠSept": 5620,
      "Which": 5621,
      "agement": 5622,
      "otes": 5623,
      "Ġprop": 5624,
      "Ġje": 5625,
      "Property": 5626,
      "*y": 5627,
      "Ġteams": 5628,
      "Ġgenerate": 5629,
      "Ġseat": 5630,
      "api": 5631,
      "page": 5632,
      "Click": 5633,
      "*v": 5634,
      "Ġstreet": 5635,
      "Ġsafety": 5636,
      "Ġsources": 5637,
      "Ġcustomers": 5638,
      "*z": 5639,
      "*h": 5640,
      "irty": 5641,
      "*f": 5642,
      "oper": 5643,
      "cil": 5644,
      "ursday": 5645,
      "Ġautomatically": 5646,
      "ĠURL": 5647,
      "etic": 5648,
      "Group": 5649,
      "Ã¤": 5650,
      "Ġhook": 5651,
      "Connect": 5652,
      ".apache": 5653,
      "Ġtransform": 5654,
      "gar": 5655,
      "title": 5656,
      "*r": 5657,
      "ĠUp": 5658,
      "*k": 5659,
      "ĠDis": 5660,
      "Ġexerc": 5661,
      "ission": 5662,
      "Ġeconomy": 5663,
      "Ġensure": 5664,
      "Ġxml": 5665,
      "Ġlib": 5666,
      "Ġmonitor": 5667,
      "*m": 5668,
      "ĠSQL": 5669,
      "Ġkeeps": 5670,
      "Ġbelong": 5671,
      "Ġmargin": 5672,
      "ography": 5673,
      "*j": 5674,
      "*o": 5675,
      "*b": 5676,
      "*g": 5677,
      "*l": 5678,
      "arant": 5679,
      "Ġtemperature": 5680,
      "*q": 5681,
      "Mod": 5682,
      "ITH": 5683,
      "Ġsomebody": 5684,
      "Ġdoctor": 5685,
      "},Ċ": 5686,
      "Ġpet": 5687,
      "urb": 5688,
      "Start": 5689,
      "*u": 5690,
      "ctors": 5691,
      "Ġpure": 5692,
      "Ġexists": 5693,
      "iance": 5694,
      "Ġdestroy": 5695,
      "Ġbenefit": 5696,
      "riage": 5697,
      "Ġends": 5698,
      "Since": 5699,
      "Ġrecords": 5700,
      "Ġcrow": 5701,
      "Ġlayer": 5702,
      "ĠFOR": 5703,
      "ĠAustral": 5704,
      "Ġlegs": 5705,
      "itics": 5706,
      "Ġchecked": 5707,
      "Ġ\\Ċ": 5708,
      "Ġ+=": 5709,
      "ette": 5710,
      "ĠPaul": 5711,
      "INT": 5712,
      "Ġsaved": 5713,
      "Ġexpand": 5714,
      "ĠApril": 5715,
      "Ġtomorrow": 5716,
      "Ġyesterday": 5717,
      "Ġcru": 5718,
      "001": 5719,
      "Ġmale": 5720,
      "ĠPark": 5721,
      "Ġthick": 5722,
      "ĠDan": 5723,
      "dr": 5724,
      "stract": 5725,
      "uns": 5726,
      "ĠPal": 5727,
      "Ġinternational": 5728,
      "rypt": 5729,
      "Ġpieces": 5730,
      "Ġ///": 5731,
      "child": 5732,
      "there": 5733,
      "Ġsites": 5734,
      "esh": 5735,
      "ĠMichael": 5736,
      "ednes": 5737,
      "olved": 5738,
      "ĠHealth": 5739,
      "bon": 5740,
      "Ġbrowser": 5741,
      "Ġproduce": 5742,
      "End": 5743,
      "uts": 5744,
      ")/(-": 5745,
      "]\"": 5746,
      "ĠTest": 5747,
      "ĠSunday": 5748,
      "Ġlinks": 5749,
      "Ġtonight": 5750,
      "Ġgar": 5751,
      "ĠSch": 5752,
      "Ġunf": 5753,
      "ĠLook": 5754,
      "ln": 5755,
      "format": 5756,
      "Ġlived": 5757,
      "Ġ});Ċ": 5758,
      "Ġsmell": 5759,
      "Ġsuggestions": 5760,
      "actor": 5761,
      "(function": 5762,
      "101": 5763,
      "enses": 5764,
      "Ġmac": 5765,
      "iforn": 5766,
      "Ġbuying": 5767,
      "FL": 5768,
      "oz": 5769,
      "Ġchapter": 5770,
      "Ġfighting": 5771,
      "Ġleaves": 5772,
      "53": 5773,
      "ĠView": 5774,
      "Ġexpensive": 5775,
      "ords": 5776,
      "night": 5777,
      "Ġpurchase": 5778,
      "compl": 5779,
      "have": 5780,
      "CA": 5781,
      "Ġsplit": 5782,
      "fficient": 5783,
      "Web": 5784,
      "Ġcovered": 5785,
      "next": 5786,
      "Ġhonestly": 5787,
      "olf": 5788,
      "Frame": 5789,
      "Ġborn": 5790,
      "prot": 5791,
      "ĠII": 5792,
      "Ġcustomer": 5793,
      "ĠJuly": 5794,
      "Ġrefer": 5795,
      "search": 5796,
      "Ġdriving": 5797,
      "ĠSO": 5798,
      "Ġrank": 5799,
      "_H": 5800,
      "Ġsurprise": 5801,
      "Ġax": 5802,
      "/(": 5803,
      "was": 5804,
      "Override": 5805,
      "vention": 5806,
      "Ġtired": 5807,
      "Ġnumer": 5808,
      "ĠChapter": 5809,
      "ashington": 5810,
      "Ġassert": 5811,
      "ĠIts": 5812,
      "Ġkeys": 5813,
      "Ġmaintain": 5814,
      "Ġsomewhat": 5815,
      "Ġimpress": 5816,
      "olic": 5817,
      "lor": 5818,
      "Ġloves": 5819,
      "Ġsuggested": 5820,
      "ednesday": 5821,
      "ĠFeb": 5822,
      "Ġanybody": 5823,
      "ford": 5824,
      "ĠPost": 5825,
      "Ġrich": 5826,
      "rl": 5827,
      "Ġsurround": 5828,
      "GL": 5829,
      "ometimes": 5830,
      "creen": 5831,
      "ado": 5832,
      "CP": 5833,
      "ĠSy": 5834,
      "ĠInc": 5835,
      "ĠBro": 5836,
      "123": 5837,
      "ĠCour": 5838,
      "Ġsupported": 5839,
      "ĠSpe": 5840,
      "Ġremains": 5841,
      "Ġassign": 5842,
      "Ġsexual": 5843,
      "IST": 5844,
      "adow": 5845,
      "ABLE": 5846,
      "Ġ((": 5847,
      "Ġcash": 5848,
      "Ġelection": 5849,
      "ĠAD": 5850,
      "ĠWhite": 5851,
      "ĠFROM": 5852,
      "Ġchallenge": 5853,
      "Ġunits": 5854,
      "orter": 5855,
      "vision": 5856,
      "Ġversions": 5857,
      "-B": 5858,
      "Ġalbum": 5859,
      "Ġreduce": 5860,
      "oted": 5861,
      "&amp": 5862,
      "Ġ)Ċ": 5863,
      "ĠDay": 5864,
      "idents": 5865,
      "ĠBY": 5866,
      "ponse": 5867,
      "Ġassuming": 5868,
      "ttp": 5869,
      "Sp": 5870,
      "oking": 5871,
      "Ġscream": 5872,
      "Ġsignal": 5873,
      "ĠIndia": 5874,
      "ĠUK": 5875,
      "std": 5876,
      "Ġvictim": 5877,
      "(self": 5878,
      "Ġice": 5879,
      "########": 5880,
      "sm": 5881,
      "Great": 5882,
      "(l": 5883,
      "(int": 5884,
      "110": 5885,
      "-of": 5886,
      "ĠNove": 5887,
      "\":\"": 5888,
      "request": 5889,
      "Ġnotes": 5890,
      "**(-": 5891,
      "_to": 5892,
      "llig": 5893,
      "Ġhelping": 5894,
      "Ġprem": 5895,
      "vest": 5896,
      "Ġhelpful": 5897,
      "Ġextract": 5898,
      "Am": 5899,
      "client": 5900,
      "Input": 5901,
      "Ġimpossible": 5902,
      "urt": 5903,
      "[\"": 5904,
      "ĠTable": 5905,
      "54": 5906,
      "Ġded": 5907,
      "TE": 5908,
      "Ġrates": 5909,
      ":\\": 5910,
      "ĠFed": 5911,
      "ifornia": 5912,
      "Listener": 5913,
      "Ġseriously": 5914,
      "ologies": 5915,
      "Ġplenty": 5916,
      "Ġprove": 5917,
      "tings": 5918,
      "Ġstret": 5919,
      "Ġobtained": 5920,
      "ilies": 5921,
      "Ġblank": 5922,
      "URL": 5923,
      "ĠCons": 5924,
      "EW": 5925,
      "/h": 5926,
      "okes": 5927,
      "tee": 5928,
      "real": 5929,
      "cr": 5930,
      "Ġupload": 5931,
      "ĠObama": 5932,
      "Ġheader": 5933,
      "ulous": 5934,
      "Ġmanage": 5935,
      "ua": 5936,
      "ĠUI": 5937,
      "Ġtab": 5938,
      "Ġbranch": 5939,
      "begin": 5940,
      "-D": 5941,
      "aud": 5942,
      "vi": 5943,
      "Author": 5944,
      "Ġcrack": 5945,
      "HA": 5946,
      "Ġconvert": 5947,
      "Ġmarried": 5948,
      "Ġproposed": 5949,
      ",'": 5950,
      "Ġregards": 5951,
      "Ġindeed": 5952,
      "xml": 5953,
      "ĠFire": 5954,
      "Ġbarely": 5955,
      "ĠBE": 5956,
      "lee": 5957,
      "Ġsymbol": 5958,
      "ĠObject": 5959,
      "Ġvill": 5960,
      "aze": 5961,
      "ributes": 5962,
      "Ġresource": 5963,
      "Activity": 5964,
      "Ġfaith": 5965,
      "cember": 5966,
      "parent": 5967,
      "Ġhealthy": 5968,
      "Ġvirtual": 5969,
      "Ġexternal": 5970,
      "Ġplant": 5971,
      "Right": 5972,
      "Ġworried": 5973,
      "Result": 5974,
      "project": 5975,
      "Ġleader": 5976,
      "Ġprepared": 5977,
      "ĠAlthough": 5978,
      "/lib": 5979,
      "Ġcritical": 5980,
      "Ġpresented": 5981,
      "Ġdetermined": 5982,
      "Ġpartner": 5983,
      "ronic": 5984,
      "Ġwhom": 5985,
      "CK": 5986,
      "Ġeating": 5987,
      "Note": 5988,
      "ĠFacebook": 5989,
      "Ġsig": 5990,
      "Ġhous": 5991,
      "related": 5992,
      "then": 5993,
      "Ġconfused": 5994,
      "Ġconflic": 5995,
      "ĠEX": 5996,
      "venue": 5997,
      "Ġrac": 5998,
      "ĠChristmas": 5999,
      "Ġ(!": 6000,
      "Ġtested": 6001,
      "olor": 6002,
      "ename": 6003,
      "Ġmobile": 6004,
      "Ġdecent": 6005,
      "ĠWho": 6006,
      "ida": 6007,
      "Go": 6008,
      "ĠCanada": 6009,
      "Best": 6010,
      "ĠIsrael": 6011,
      "His": 6012,
      "emp": 6013,
      "ĠJanuary": 6014,
      "Ñĭ": 6015,
      "zen": 6016,
      "See": 6017,
      "ĠTuesday": 6018,
      "ĠPeter": 6019,
      "omas": 6020,
      "Ġflag": 6021,
      "Ġspecifically": 6022,
      "ĠTime": 6023,
      "Ġyounger": 6024,
      "ðŁ": 6025,
      "Ġphase": 6026,
      "Ġconcerned": 6027,
      "96": 6028,
      "Ļª": 6029,
      "Ġ);Ċ": 6030,
      "anel": 6031,
      "Ġpersonally": 6032,
      "plete": 6033,
      "-and": 6034,
      "800": 6035,
      "illing": 6036,
      "ĠÐ¿": 6037,
      "Ġcontroll": 6038,
      "(r": 6039,
      "nel": 6040,
      "Ġbath": 6041,
      "ĠPublic": 6042,
      "aints": 6043,
      "Ġprofessional": 6044,
      "Back": 6045,
      "ĠSaturday": 6046,
      "Ġhall": 6047,
      "Ġsolutions": 6048,
      "Ġdigit": 6049,
      "Ġdamn": 6050,
      "Ġthousands": 6051,
      "Ġforms": 6052,
      "ala": 6053,
      "itz": 6054,
      "Ġgreatest": 6055,
      "server": 6056,
      "APTER": 6057,
      "Ġgain": 6058,
      "Ġmatrix": 6059,
      "/n": 6060,
      "ighter": 6061,
      "itect": 6062,
      ";]": 6063,
      "overn": 6064,
      "ĠIM": 6065,
      "Ġviews": 6066,
      "Ġgent": 6067,
      "ĠFrench": 6068,
      "ï¼": 6069,
      "Ġ[&": 6070,
      "Ġfloat": 6071,
      "github": 6072,
      "Ġworkers": 6073,
      "Ġhol": 6074,
      "Ġalive": 6075,
      "Ġstation": 6076,
      "Ġstrategy": 6077,
      "Ġdelete": 6078,
      "rial": 6079,
      "CD": 6080,
      "Ġspoke": 6081,
      "Ġnuc": 6082,
      "icip": 6083,
      "lam": 6084,
      "isher": 6085,
      "opyright": 6086,
      "Ġchurch": 6087,
      "bin": 6088,
      "Ġtalked": 6089,
      "Ġdepends": 6090,
      "Ġspecies": 6091,
      ")\\": 6092,
      "Ġvector": 6093,
      "FA": 6094,
      "!--": 6095,
      "Ġbalance": 6096,
      "Ġvideos": 6097,
      "','": 6098,
      "Ġprotein": 6099,
      "ĠRob": 6100,
      "Ġspeaking": 6101,
      "__&": 6102,
      "Client": 6103,
      "ĠDet": 6104,
      "oday": 6105,
      "Ġremainder": 6106,
      "Ġcute": 6107,
      "isted": 6108,
      "Ġordered": 6109,
      "ĠHTML": 6110,
      "ker": 6111,
      "ĠApple": 6112,
      "Ġfolks": 6113,
      "Ġknock": 6114,
      "Ġapparently": 6115,
      "Ġtraffic": 6116,
      "Ġindependent": 6117,
      "Ġ|Ċ": 6118,
      "Script": 6119,
      "<div": 6120,
      "Ġreflect": 6121,
      "Ġscan": 6122,
      "ĠResearch": 6123,
      ";__&": 6124,
      "Ġbudget": 6125,
      "Ġmanufact": 6126,
      "Ġshop": 6127,
      "ailed": 6128,
      "ĠLord": 6129,
      "-the": 6130,
      "IO": 6131,
      "Ġdialog": 6132,
      "Em": 6133,
      "111": 6134,
      "$(": 6135,
      "urity": 6136,
      "ishes": 6137,
      "(e": 6138,
      "oor": 6139,
      "Ġmental": 6140,
      "Call": 6141,
      "DA": 6142,
      "ĠOP": 6143,
      "ervices": 6144,
      "Ġsamples": 6145,
      "layer": 6146,
      "Ġbusy": 6147,
      "Ġrows": 6148,
      ".âĢĿĊĊ": 6149,
      "FS": 6150,
      "uto": 6151,
      "Ġobserv": 6152,
      "Ġcitiz": 6153,
      "Ġsides": 6154,
      "Ġattached": 6155,
      "Handler": 6156,
      "Ġdollars": 6157,
      "Ġrender": 6158,
      "unning": 6159,
      "Ġlie": 6160,
      "ĠText": 6161,
      "Ġfailure": 6162,
      "ĠMag": 6163,
      "Ġpicking": 6164,
      "Ġrain": 6165,
      "ĠThursday": 6166,
      "ĠClass": 6167,
      "Ġment": 6168,
      "Ġentertain": 6169,
      "Ġkitchen": 6170,
      "Ġthro": 6171,
      "ĠSuper": 6172,
      "Ġuint": 6173,
      "Ġspending": 6174,
      "Ġalternative": 6175,
      "ÑģÑĤ": 6176,
      "Ġdeploy": 6177,
      "ĠRec": 6178,
      "Ġterrible": 6179,
      "erver": 6180,
      "Ġdefend": 6181,
      "ĠEv": 6182,
      "Ġcomponents": 6183,
      "600": 6184,
      "Ġnoise": 6185,
      "UG": 6186,
      "ulf": 6187,
      "ĠWhere": 6188,
      "awn": 6189,
      "Ġhide": 6190,
      "reedom": 6191,
      "Ġschools": 6192,
      "Ġanx": 6193,
      "Ġincor": 6194,
      "Ġdepending": 6195,
      "Ġwaste": 6196,
      "ITY": 6197,
      "();": 6198,
      "BS": 6199,
      "Ġplays": 6200,
      "Ġclothes": 6201,
      "Ġhun": 6202,
      "aine": 6203,
      "Ġoffered": 6204,
      "Ġlaunch": 6205,
      "sv": 6206,
      "olly": 6207,
      "zz": 6208,
      "Ġaccident": 6209,
      "Ke": 6210,
      "âĢ¬": 6211,
      "Ġexperim": 6212,
      "Ġboss": 6213,
      "78": 6214,
      "Ġraise": 6215,
      "ago": 6216,
      "Ġtrick": 6217,
      "Ġproof": 6218,
      "Ġtears": 6219,
      "Ġagreed": 6220,
      "kin": 6221,
      "ĠSoc": 6222,
      "Ġtum": 6223,
      "vas": 6224,
      "ĠĠĠĠĊ": 6225,
      "._Ċ": 6226,
      "Maybe": 6227,
      "Ġbutt": 6228,
      "Action": 6229,
      "Ġstorage": 6230,
      ".F": 6231,
      "ounter": 6232,
      "Ġcentral": 6233,
      "ĊĊĊĊĊ": 6234,
      "ĠRich": 6235,
      "Ġfederal": 6236,
      "(this": 6237,
      "Ġbow": 6238,
      "Ġpool": 6239,
      "block": 6240,
      "à¤": 6241,
      "Ġiter": 6242,
      "Ġcloud": 6243,
      "Ġactivities": 6244,
      "Ġbehavi": 6245,
      "ĠChinese": 6246,
      "Ġpaying": 6247,
      "Ġdebug": 6248,
      "Ġtherap": 6249,
      "Ġking": 6250,
      "typ": 6251,
      "Ġobserved": 6252,
      "ĠAmericans": 6253,
      "Ġsmooth": 6254,
      "Ġsending": 6255,
      "bes": 6256,
      "Ġhearing": 6257,
      "'S": 6258,
      "pecific": 6259,
      "/ĊĊ": 6260,
      "-P": 6261,
      "ĠFree": 6262,
      "size": 6263,
      "196": 6264,
      "Ġexchange": 6265,
      "Ġhey": 6266,
      "ĠMer": 6267,
      "Ġdisappe": 6268,
      "overy": 6269,
      "atabase": 6270,
      "Ġshirt": 6271,
      "win": 6272,
      "Ġsuppose": 6273,
      "Ġlosing": 6274,
      "Ġannounced": 6275,
      "py": 6276,
      "Ġreaction": 6277,
      "Ġcontinues": 6278,
      "Ġdinner": 6279,
      "ĠPython": 6280,
      "build": 6281,
      "Ġmad": 6282,
      "Ġcas": 6283,
      "Ġgift": 6284,
      "Ġwanting": 6285,
      "Ġpushed": 6286,
      "irk": 6287,
      "ruit": 6288,
      "Column": 6289,
      "hand": 6290,
      "Ġoffers": 6291,
      "ptr": 6292,
      "Ġexplained": 6293,
      "ds": 6294,
      "apers": 6295,
      "ums": 6296,
      "Ġharder": 6297,
      "ĠOnly": 6298,
      "ashion": 6299,
      "ancing": 6300,
      "Ġanimals": 6301,
      "Ġbenefits": 6302,
      "ideo": 6303,
      "Ġ^": 6304,
      "Ġprices": 6305,
      "!!!": 6306,
      "ĠStr": 6307,
      "ĠCong": 6308,
      "FT": 6309,
      "odies": 6310,
      "250": 6311,
      "Ġsitu": 6312,
      "DR": 6313,
      "Ġtables": 6314,
      "};ĊĊ": 6315,
      "Ġunable": 6316,
      "Open": 6317,
      "Ġloan": 6318,
      "context": 6319,
      "ORT": 6320,
      "Ġplugin": 6321,
      "ĠDepartment": 6322,
      "Ġharm": 6323,
      "Ġpray": 6324,
      "Ġmoments": 6325,
      "ĠAugust": 6326,
      "Cheers": 6327,
      "gend": 6328,
      "Ġcausing": 6329,
      "claim": 6330,
      "yan": 6331,
      "clip": 6332,
      "ĠWashington": 6333,
      "Ġpromise": 6334,
      "ESS": 6335,
      "Ġafford": 6336,
      "Ġaudio": 6337,
      "itution": 6338,
      "Ġlogic": 6339,
      "ĠChristian": 6340,
      "Ġmouse": 6341,
      "ĠNovember": 6342,
      "number": 6343,
      "hi": 6344,
      "Ġcert": 6345,
      "ulti": 6346,
      "AX": 6347,
      "Ġwit": 6348,
      "FO": 6349,
      "Ġsuck": 6350,
      "Ġoperations": 6351,
      "ĠOK": 6352,
      "Ġnodded": 6353,
      "rier": 6354,
      "Ġevening": 6355,
      "Ġequival": 6356,
      "Ġsignificantly": 6357,
      "Ġsyn": 6358,
      "ĠUs": 6359,
      "Ġwhenever": 6360,
      "eturn": 6361,
      "Ġperspective": 6362,
      "ĠStreet": 6363,
      "Ġmiles": 6364,
      "THE": 6365,
      "ĠOff": 6366,
      "Ġguide": 6367,
      "Ġincome": 6368,
      "Head": 6369,
      "Ġbuffer": 6370,
      "ĠBritish": 6371,
      "Ġapprox": 6372,
      "align": 6373,
      "icker": 6374,
      "(R": 6375,
      "Ġtreated": 6376,
      "oma": 6377,
      "Ġmort": 6378,
      "ĠLouis": 6379,
      "âĶ": 6380,
      "Ġresponsible": 6381,
      "den": 6382,
      "Ġfeedback": 6383,
      "Our": 6384,
      ".print": 6385,
      "Number": 6386,
      "Ġdescribe": 6387,
      "ĠBel": 6388,
      "process": 6389,
      "root": 6390,
      "BA": 6391,
      ".*": 6392,
      "Ġconsequ": 6393,
      "Ġpoll": 6394,
      "agment": 6395,
      "ĠAmazon": 6396,
      "Ġride": 6397,
      "Ġexplan": 6398,
      "ria": 6399,
      "Ġserve": 6400,
      "Ġchamp": 6401,
      "Ġcock": 6402,
      "ĠAndroid": 6403,
      "Ġpulling": 6404,
      "ERS": 6405,
      "Ġestabl": 6406,
      "Ġbecoming": 6407,
      "Ġindividuals": 6408,
      "acket": 6409,
      "Base": 6410,
      "Gener": 6411,
      "Ġfamilies": 6412,
      "Ġclim": 6413,
      "Ġru": 6414,
      "ĠWednesday": 6415,
      "Ġsoul": 6416,
      "Check": 6417,
      "72": 6418,
      "Ġjo": 6419,
      "Ġsight": 6420,
      "stood": 6421,
      "102": 6422,
      "Ġintellig": 6423,
      "Ġposts": 6424,
      "icing": 6425,
      "ĠĠĠĠĠĠĠĠĠĠĠĠĠĠĠĠĠĠĠĠĠĠĠĠĠĠĠĠĠĠĠĠĠĠĠĠĠĠĠĠĠĠĠĠĠĠĠĠ": 6426,
      "reement": 6427,
      "document": 6428,
      "Ġreply": 6429,
      "Ġradio": 6430,
      "Ġproduced": 6431,
      "Ġextension": 6432,
      "anges": 6433,
      "ĠEnd": 6434,
      "Ġinfluence": 6435,
      "Ġdifferences": 6436,
      "SL": 6437,
      "Ġguard": 6438,
      "atal": 6439,
      "Ġsir": 6440,
      "Ġstom": 6441,
      "ructions": 6442,
      "Ġtaste": 6443,
      "usr": 6444,
      "Ġpin": 6445,
      "bel": 6446,
      "Ġmil": 6447,
      "Ã§": 6448,
      "Ġforever": 6449,
      "package": 6450,
      "Ġpassing": 6451,
      "Ġliber": 6452,
      "eps": 6453,
      "Ġfocused": 6454,
      "Ġcauses": 6455,
      "ĠED": 6456,
      "cal": 6457,
      "color": 6458,
      "ustration": 6459,
      "eline": 6460,
      "tyle": 6461,
      "Ġfinger": 6462,
      "Ġsurg": 6463,
      "Ã£": 6464,
      "plug": 6465,
      "ĠUSA": 6466,
      "Ġnormally": 6467,
      "yles": 6468,
      "bian": 6469,
      "-th": 6470,
      "Ġroute": 6471,
      "ingly": 6472,
      "Ġflex": 6473,
      "ĠAP": 6474,
      "Ġmetal": 6475,
      "Ġpackages": 6476,
      "Char": 6477,
      "ban": 6478,
      "Ġstored": 6479,
      "Ġneither": 6480,
      "Ġdigital": 6481,
      "uled": 6482,
      "Ġty": 6483,
      ".py": 6484,
      "ression": 6485,
      "_RE": 6486,
      "Ġasks": 6487,
      "Ġappeared": 6488,
      "ĠTechn": 6489,
      "fix": 6490,
      "Comm": 6491,
      "Ġdirector": 6492,
      "Ġexperienced": 6493,
      "Ġleads": 6494,
      "ashed": 6495,
      "/v": 6496,
      "ĠName": 6497,
      "ĠAnt": 6498,
      "Ġadvert": 6499,
      "Ġvisual": 6500,
      "ÐµÐ½": 6501,
      "Ġil": 6502,
      "Ġcommer": 6503,
      "Ġ<-": 6504,
      "Ġauthors": 6505,
      "Ġwave": 6506,
      "ĠMart": 6507,
      "ste": 6508,
      "Ġtill": 6509,
      "Ġphoto": 6510,
      "ÑĮ": 6511,
      "ĠEngland": 6512,
      "weight": 6513,
      "ĠInternet": 6514,
      "Ġsand": 6515,
      "ĠMiss": 6516,
      "Ð´": 6517,
      "Ġspeech": 6518,
      "Ġchat": 6519,
      "Ġstable": 6520,
      "ĠDid": 6521,
      "Create": 6522,
      "when": 6523,
      "Ġteen": 6524,
      "sembly": 6525,
      "Load": 6526,
      "iest": 6527,
      "CS": 6528,
      "eper": 6529,
      "util": 6530,
      "she": 6531,
      ".png": 6532,
      "Ġupdates": 6533,
      "Ġalert": 6534,
      "count": 6535,
      "Ġdraft": 6536,
      "Ġhidden": 6537,
      "Ġcup": 6538,
      "ĠFound": 6539,
      "Ġtow": 6540,
      "Ġdistributed": 6541,
      "Ġmission": 6542,
      "ĠWould": 6543,
      "ĠUser": 6544,
      "bec": 6545,
      "Ġconfir": 6546,
      "Ġspell": 6547,
      "ceived": 6548,
      "Ġrespectively": 6549,
      "lig": 6550,
      "uman": 6551,
      "ogen": 6552,
      "ested": 6553,
      "Ġdangerous": 6554,
      "dule": 6555,
      "Ġtransport": 6556,
      "Ġinteger": 6557,
      "ena": 6558,
      "wered": 6559,
      "lause": 6560,
      "76": 6561,
      "Ġattribute": 6562,
      "pename": 6563,
      "Ġcars": 6564,
      "etime": 6565,
      "inte": 6566,
      "Ġvan": 6567,
      "Ġwhis": 6568,
      "eds": 6569,
      "Ġgeneration": 6570,
      "Ġtough": 6571,
      "ĠPhil": 6572,
      "iverse": 6573,
      "ĠSun": 6574,
      "Ġfif": 6575,
      "dro": 6576,
      "ãĢ": 6577,
      ".de": 6578,
      "Ġhighlight": 6579,
      "Ġprotected": 6580,
      "ads": 6581,
      "ĠEuropean": 6582,
      "arts": 6583,
      "Ġefficient": 6584,
      "Ġrelax": 6585,
      "ĠSher": 6586,
      "ĠFigure": 6587,
      "Ġcompare": 6588,
      "Ġforces": 6589,
      ".</": 6590,
      "Point": 6591,
      "Ġbool": 6592,
      "ĠCalifornia": 6593,
      "ĠGroup": 6594,
      "Ġclients": 6595,
      "Ġmaximum": 6596,
      "Ġeditor": 6597,
      "Ġcolumns": 6598,
      "Ġsuspect": 6599,
      "mat": 6600,
      "Ġchain": 6601,
      "Ġtries": 6602,
      "Thread": 6603,
      "ĠDecember": 6604,
      "Ġarguments": 6605,
      "ĠPort": 6606,
      "Ġarrived": 6607,
      "79": 6608,
      "Ġrelatively": 6609,
      "VID": 6610,
      "Ġwire": 6611,
      "Ġboyfriend": 6612,
      "ĠSl": 6613,
      "()ĊĊ": 6614,
      ".length": 6615,
      "FC": 6616,
      "Te": 6617,
      "Ġintended": 6618,
      "iate": 6619,
      "Ġstated": 6620,
      "ĠEast": 6621,
      "ĠMS": 6622,
      "Ġgrew": 6623,
      "erry": 6624,
      "icted": 6625,
      "lation": 6626,
      "Ġvac": 6627,
      "war": 6628,
      "Ġidentify": 6629,
      "ĠSeptember": 6630,
      "ĠCounty": 6631,
      "Ġminimum": 6632,
      "ä¸": 6633,
      "Ġtiny": 6634,
      "coh": 6635,
      "IX": 6636,
      "else": 6637,
      "Ġbond": 6638,
      "/L": 6639,
      "otic": 6640,
      "Ġletting": 6641,
      "Ã£o": 6642,
      "SELECT": 6643,
      "Ġcorpor": 6644,
      "Ġextends": 6645,
      "Ġans": 6646,
      "Ġsupply": 6647,
      "Ġjournal": 6648,
      "Ġtun": 6649,
      "nings": 6650,
      "\">čĊ": 6651,
      "GR": 6652,
      "Ġ[Ċ": 6653,
      "Ġcircum": 6654,
      "ruary": 6655,
      "ĠArt": 6656,
      "Ġorganization": 6657,
      "Last": 6658,
      "Ġcarried": 6659,
      "ictionary": 6660,
      "Ġupper": 6661,
      "Ġcombination": 6662,
      "hered": 6663,
      "osen": 6664,
      "Ġunlike": 6665,
      "pc": 6666,
      "CTION": 6667,
      "=\"#": 6668,
      "ye": 6669,
      "Ġguarant": 6670,
      "Ġboost": 6671,
      "ba": 6672,
      "lies": 6673,
      "Phone": 6674,
      "Ġselection": 6675,
      "Ġfigured": 6676,
      "Ġfourth": 6677,
      "Ġmoves": 6678,
      "Ġowner": 6679,
      "amily": 6680,
      "Ġlikes": 6681,
      "ĠDate": 6682,
      "ĠJim": 6683,
      "cient": 6684,
      "Ġspin": 6685,
      "output": 6686,
      "ĠServer": 6687,
      "Ġcolle": 6688,
      "Ġofficials": 6689,
      "write": 6690,
      "ĠQue": 6691,
      "ĠYeah": 6692,
      "ffect": 6693,
      "Ġpros": 6694,
      "Ġcoordin": 6695,
      "John": 6696,
      "ĠCL": 6697,
      "mathbb": 6698,
      "<T": 6699,
      "-L": 6700,
      "Ġefforts": 6701,
      "ĠOctober": 6702,
      "Ġfly": 6703,
      "Ġprison": 6704,
      "Ġshift": 6705,
      ".txt": 6706,
      "outs": 6707,
      "ota": 6708,
      "/M": 6709,
      "Ġclinical": 6710,
      "Ġoperator": 6711,
      "istribut": 6712,
      "ĠMor": 6713,
      "untime": 6714,
      "Ġcontaining": 6715,
      "Ġdiscovered": 6716,
      "AGE": 6717,
      "Ġadm": 6718,
      "ĠInstitute": 6719,
      "uzz": 6720,
      "ĠBO": 6721,
      "uby": 6722,
      "Ġdelay": 6723,
      "gi": 6724,
      "128": 6725,
      "aped": 6726,
      "Ġregister": 6727,
      "ILE": 6728,
      "Ġtit": 6729,
      "Ġlicense": 6730,
      "Ġprotocol": 6731,
      "private": 6732,
      "-ex": 6733,
      "_IN": 6734,
      "Ġbother": 6735,
      "180": 6736,
      "first": 6737,
      "ĠBoth": 6738,
      "Ġfinds": 6739,
      "Ġmaterials": 6740,
      "Ġbattery": 6741,
      "after": 6742,
      "Control": 6743,
      "Page": 6744,
      "Ġlaws": 6745,
      "Ġobtain": 6746,
      "Ġcentury": 6747,
      "dy": 6748,
      "Ġexperiment": 6749,
      "Ġdefense": 6750,
      "Ġlistening": 6751,
      "they": 6752,
      "has": 6753,
      "Ġwriter": 6754,
      "Ġflash": 6755,
      "ocs": 6756,
      "<?": 6757,
      "Ġarrest": 6758,
      "Ġfalling": 6759,
      "cribe": 6760,
      "arian": 6761,
      "Ġfarm": 6762,
      "omy": 6763,
      "Ġprompt": 6764,
      "iders": 6765,
      "Ġ()": 6766,
      "Ġnarr": 6767,
      "rawn": 6768,
      "Ġdepth": 6769,
      "ucky": 6770,
      "Ġdebt": 6771,
      "Factory": 6772,
      "Ġmere": 6773,
      "Ġtraditional": 6774,
      "Ġnative": 6775,
      "och": 6776,
      "Ġenemy": 6777,
      "ĠEarth": 6778,
      "ĠMod": 6779,
      "Ġauthent": 6780,
      "Ġintroduced": 6781,
      "inf": 6782,
      "Ġmassive": 6783,
      "Because": 6784,
      "Ġguid": 6785,
      "Ġshif": 6786,
      "Ġshoes": 6787,
      "Ġaccompl": 6788,
      "Ġlapt": 6789,
      "Ġfold": 6790,
      "${": 6791,
      "ĠJew": 6792,
      "Ġvariety": 6793,
      "Ġmistake": 6794,
      "ĠBas": 6795,
      "ĠDO": 6796,
      "Ġcritic": 6797,
      "itty": 6798,
      "Ġconstantly": 6799,
      "TC": 6800,
      "afe": 6801,
      "_R": 6802,
      "Ġwanna": 6803,
      "Ġsuit": 6804,
      "ĠSD": 6805,
      "192": 6806,
      "TS": 6807,
      "Gu": 6808,
      "Ġdeveloping": 6809,
      "Ġdb": 6810,
      "([": 6811,
      "house": 6812,
      "Ġhardware": 6813,
      "Ġ:Ċ": 6814,
      "call": 6815,
      "Ġrise": 6816,
      "Ġproceed": 6817,
      "Ġpanel": 6818,
      "Ġproud": 6819,
      "Ġsnow": 6820,
      "Ġeth": 6821,
      "max": 6822,
      "Ġunc": 6823,
      "!âĢĿĊ": 6824,
      "Ġprocesses": 6825,
      "Ġsea": 6826,
      "Ġprofile": 6827,
      "porary": 6828,
      "Ass": 6829,
      "going": 6830,
      "Param": 6831,
      "Ġadmit": 6832,
      "âĢľIt": 6833,
      "produ": 6834,
      "Ġpython": 6835,
      "Ġrare": 6836,
      "255": 6837,
      "Ġhtml": 6838,
      "Select": 6839,
      "Ġanimal": 6840,
      "Ñĩ": 6841,
      ".jpg": 6842,
      ".google": 6843,
      "bi": 6844,
      "Ġthin": 6845,
      "Ġgrin": 6846,
      "Ġcolors": 6847,
      "Ġholds": 6848,
      "Ġwed": 6849,
      "rib": 6850,
      "Ġgentle": 6851,
      "ading": 6852,
      "ĠFrank": 6853,
      "Ġservers": 6854,
      "river": 6855,
      "buntu": 6856,
      "asm": 6857,
      "''": 6858,
      "Ġupgrade": 6859,
      "Ġterror": 6860,
      "anda": 6861,
      "akers": 6862,
      "ĠEach": 6863,
      ".B": 6864,
      "Ġconference": 6865,
      "mt": 6866,
      "Ġdrugs": 6867,
      "Rem": 6868,
      "section": 6869,
      "ĠRober": 6870,
      "ĠTony": 6871,
      "olar": 6872,
      "ĠDel": 6873,
      "Ġweapons": 6874,
      "ĠPD": 6875,
      "ĠNews": 6876,
      "_data": 6877,
      "Ġtrail": 6878,
      "CR": 6879,
      "Ġrepos": 6880,
      "Ġcrime": 6881,
      "Ġexplicit": 6882,
      "eries": 6883,
      "aws": 6884,
      "Ġyield": 6885,
      "Ġalgorithm": 6886,
      "chers": 6887,
      "Ġnobody": 6888,
      "-T": 6889,
      "uit": 6890,
      "Ġproviding": 6891,
      "Sorry": 6892,
      "Ġprocessing": 6893,
      "ĠTheir": 6894,
      "Ġclaims": 6895,
      "iden": 6896,
      "Ġreli": 6897,
      "UD": 6898,
      "Ġcurious": 6899,
      "Ġpointed": 6900,
      "Ġkinda": 6901,
      "izations": 6902,
      "Ġbull": 6903,
      "ĠInstead": 6904,
      "oub": 6905,
      "Ġkilling": 6906,
      "Ġpregn": 6907,
      "Ġisol": 6908,
      "local": 6909,
      "ĠMal": 6910,
      "Filter": 6911,
      "email": 6912,
      "hetic": 6913,
      "ĠBook": 6914,
      "ĠBig": 6915,
      "Ġidentified": 6916,
      "/S": 6917,
      "ĠInter": 6918,
      "Ġprinci": 6919,
      "Ġwarning": 6920,
      "Ġignore": 6921,
      "ooper": 6922,
      "Ġreviews": 6923,
      "ferent": 6924,
      "ERT": 6925,
      "arser": 6926,
      "Ġrequests": 6927,
      "ura": 6928,
      "Ġangry": 6929,
      "ecurity": 6930,
      "ĠId": 6931,
      "ĠAngel": 6932,
      "Ġdynamic": 6933,
      "Ġcontainer": 6934,
      "Ġtransition": 6935,
      "Application": 6936,
      "igration": 6937,
      "Two": 6938,
      "Ġwake": 6939,
      "160": 6940,
      "PA": 6941,
      "Ġsees": 6942,
      "etc": 6943,
      "Ġmanner": 6944,
      "(&": 6945,
      "ears": 6946,
      "Ġenable": 6947,
      "Ġspl": 6948,
      "ĠArray": 6949,
      "ottom": 6950,
      "Work": 6951,
      "close": 6952,
      "Ġhole": 6953,
      "ĠPre": 6954,
      "property": 6955,
      "Ġmovies": 6956,
      "secut": 6957,
      "Ġwal": 6958,
      "Ġinvestment": 6959,
      "Ġbreaking": 6960,
      "Ġfish": 6961,
      "Ġexperiences": 6962,
      "Format": 6963,
      "attr": 6964,
      "ĠStar": 6965,
      "Ġlists": 6966,
      "Ġmedium": 6967,
      "ĠAL": 6968,
      "zed": 6969,
      "ĠKore": 6970,
      "ĠGreen": 6971,
      "Ġtone": 6972,
      "Ġrepeated": 6973,
      "Ġrestaur": 6974,
      "University": 6975,
      "ĠIndian": 6976,
      "Ġhat": 6977,
      "Ġgoals": 6978,
      "ĠJesus": 6979,
      "Applause": 6980,
      "Instance": 6981,
      "-term": 6982,
      "Ġchief": 6983,
      "Ġhint": 6984,
      "ato": 6985,
      "oded": 6986,
      "Ġelectric": 6987,
      "Ġhung": 6988,
      "ĠLove": 6989,
      "PT": 6990,
      "Ġlaughed": 6991,
      "-Ċ": 6992,
      "63": 6993,
      "Ġrevealed": 6994,
      "Ġsquare": 6995,
      "Ġmotiv": 6996,
      "Ġrelationships": 6997,
      "ixt": 6998,
      "Cell": 6999,
      "sey": 7000,
      "cket": 7001,
      "ji": 7002,
      "ĠMany": 7003,
      "Ġtong": 7004,
      "Det": 7005,
      "oyal": 7006,
      "sq": 7007,
      "ĠTwo": 7008,
      "legal": 7009,
      "Version": 7010,
      "Ġmarriage": 7011,
      "Ġtrial": 7012,
      "OUT": 7013,
      "Ġcycle": 7014,
      "Ġcalm": 7015,
      "Ġforth": 7016,
      "={": 7017,
      "ĠNO": 7018,
      "Response": 7019,
      "Ġmurder": 7020,
      "perties": 7021,
      "ĠHope": 7022,
      "Ġshell": 7023,
      "ILL": 7024,
      "ructure": 7025,
      "ById": 7026,
      "arden": 7027,
      "Ġthousand": 7028,
      "Pre": 7029,
      "Ġadvent": 7030,
      "Ġnine": 7031,
      "ching": 7032,
      "].ĊĊ": 7033,
      "Ġlocated": 7034,
      "clipse": 7035,
      "Ġlisted": 7036,
      "ĠMicrosoft": 7037,
      "Ġstrateg": 7038,
      "ĠLO": 7039,
      "Ġcategory": 7040,
      "Ġowners": 7041,
      "ĠPHP": 7042,
      "Ġopposite": 7043,
      "Ġsilence": 7044,
      "fg": 7045,
      "ĠTR": 7046,
      "Ġsched": 7047,
      "aks": 7048,
      "Mr": 7049,
      "ĠâĢ«": 7050,
      "Ġneighbor": 7051,
      "ĠForm": 7052,
      "Ġreplaced": 7053,
      "Ġthroat": 7054,
      "sor": 7055,
      "Ġframework": 7056,
      "inated": 7057,
      "Ġskill": 7058,
      "Ġmainly": 7059,
      "Ġtall": 7060,
      "ĠTim": 7061,
      "Ġlip": 7062,
      "Ġdut": 7063,
      "Ġinterpret": 7064,
      "Ġgay": 7065,
      "ĠĠĠĠĠĠĠĠĠĠĠĠĠĠĠĠĠĠĠĠĠ": 7066,
      "ĠCA": 7067,
      "Ġsuccessfully": 7068,
      "Equ": 7069,
      "Ġclosest": 7070,
      "Ġhumans": 7071,
      "Ġattacks": 7072,
      "Ġaccepted": 7073,
      "Ġphotos": 7074,
      "Ext": 7075,
      "Ġviolence": 7076,
      "Ġreject": 7077,
      "ĠUN": 7078,
      "Ġrecommended": 7079,
      "Default": 7080,
      "Ġridic": 7081,
      "-R": 7082,
      "ĠScott": 7083,
      "Ġinsurance": 7084,
      "Ġlights": 7085,
      "Ġ?ĊĊ": 7086,
      "_ST": 7087,
      "Ġbringing": 7088,
      "Ġevil": 7089,
      "Ġapps": 7090,
      "main": 7091,
      "IGHT": 7092,
      "Ġspring": 7093,
      "Ġreligious": 7094,
      "Ġbird": 7095,
      "inder": 7096,
      "Ġfro": 7097,
      "Ġpossibility": 7098,
      "Ġserial": 7099,
      "ĠProject": 7100,
      "=\"@": 7101,
      "())": 7102,
      "Ġhack": 7103,
      "Ġadministration": 7104,
      "Ġweather": 7105,
      "Ġbrings": 7106,
      "Ġlets": 7107,
      "ĠKen": 7108,
      "ĠCourt": 7109,
      "Ġamb": 7110,
      "ĠMet": 7111,
      "])": 7112,
      "_,": 7113,
      "Ġdisk": 7114,
      "organ": 7115,
      ".Get": 7116,
      "GE": 7117,
      "Ġreaders": 7118,
      "ĠMax": 7119,
      "Ġallowing": 7120,
      "Ġhopefully": 7121,
      "fast": 7122,
      "Ġnecessarily": 7123,
      "sql": 7124,
      "iger": 7125,
      "ĠWITH": 7126,
      "isters": 7127,
      "allel": 7128,
      "amps": 7129,
      "Ġscroll": 7130,
      "Ġassist": 7131,
      ".xml": 7132,
      "Ġtheme": 7133,
      "ĠType": 7134,
      "Ġscope": 7135,
      "Ġchecking": 7136,
      "istan": 7137,
      "Ġhyper": 7138,
      "Off": 7139,
      "ipment": 7140,
      "Ġâī": 7141,
      "ector": 7142,
      "Ġsentence": 7143,
      "Hel": 7144,
      "Ġmel": 7145,
      "ango": 7146,
      "INE": 7147,
      "Ġconserv": 7148,
      "Ġmyst": 7149,
      "Ġsky": 7150,
      "Ġreplied": 7151,
      "Ġlargest": 7152,
      "CON": 7153,
      "TR": 7154,
      "ĠScience": 7155,
      "dp": 7156,
      "istered": 7157,
      "ĠBi": 7158,
      "anta": 7159,
      "Ġdecisions": 7160,
      "ĠLast": 7161,
      "Net": 7162,
      "Ġnerv": 7163,
      "Ġlabor": 7164,
      "YPE": 7165,
      "Ġromance": 7166,
      "ĠXML": 7167,
      "craft": 7168,
      "ĠTwitter": 7169,
      "Ġcomparison": 7170,
      "Ġlinear": 7171,
      "Ġcompleted": 7172,
      "ĠĠĠĠĠĠĠĠĠĠĠĠĠĠĠĠĠĠĠĠĠĠĠĠĠĠĠĠĠĠĠĠĠĠĠĠĠĠĠĠĠĠĠĠĠĠĠĠĠĠĠĠĠĠĠĠĠĠĠĠĠĠĠĠ": 7173,
      "eger": 7174,
      "Ġfab": 7175,
      "Ġscared": 7176,
      "ionally": 7177,
      "Ġdesper": 7178,
      "ona": 7179,
      "pic": 7180,
      "Ġepisode": 7181,
      "Ġsigned": 7182,
      "Ã¶": 7183,
      "Ġegg": 7184,
      "missions": 7185,
      "uri": 7186,
      "Ġgotta": 7187,
      "Ġescape": 7188,
      "ĠGeorge": 7189,
      "ville": 7190,
      "Ġreact": 7191,
      "Ġteaching": 7192,
      "Ref": 7193,
      "Ġdeliver": 7194,
      "Ġemotional": 7195,
      "Ġstomach": 7196,
      "irectory": 7197,
      "hh": 7198,
      "ĠMus": 7199,
      "sg": 7200,
      "Ġgir": 7201,
      "hell": 7202,
      "utorial": 7203,
      "Ġstrings": 7204,
      "Ġtwe": 7205,
      "Ġiron": 7206,
      "Ġphil": 7207,
      "anging": 7208,
      "omic": 7209,
      "ĠPS": 7210,
      "Row": 7211,
      "Ġcareful": 7212,
      "Ġbytes": 7213,
      "standing": 7214,
      "cular": 7215,
      "CM": 7216,
      "framework": 7217,
      "ita": 7218,
      "Ġtou": 7219,
      "roph": 7220,
      "uing": 7221,
      "ikip": 7222,
      ":**": 7223,
      "Ġjourney": 7224,
      "Ġcompile": 7225,
      "Ġapartment": 7226,
      "Ġdocuments": 7227,
      "noon": 7228,
      "ĠTherefore": 7229,
      "ader": 7230,
      "lfriend": 7231,
      "Ġsecure": 7232,
      "cos": 7233,
      "Ġreduced": 7234,
      "Status": 7235,
      "!!!!": 7236,
      "Ġimplemented": 7237,
      "_W": 7238,
      "header": 7239,
      "ashes": 7240,
      "cs": 7241,
      "Ġanswered": 7242,
      "lands": 7243,
      "Ġpa": 7244,
      "atin": 7245,
      "Ġmask": 7246,
      "Ġadds": 7247,
      ">(": 7248,
      "should": 7249,
      "Connection": 7250,
      "Ġscrew": 7251,
      "Ġclar": 7252,
      "Another": 7253,
      "-F": 7254,
      "Ġwet": 7255,
      "last": 7256,
      "Ġyours": 7257,
      "Ġconfirm": 7258,
      "Ġequivalent": 7259,
      "Have": 7260,
      "viously": 7261,
      "ĠANY": 7262,
      "oked": 7263,
      "kins": 7264,
      "ĠâĢ¢": 7265,
      "gent": 7266,
      "ected": 7267,
      "false": 7268,
      "ĠAtt": 7269,
      "Ġsympt": 7270,
      "iform": 7271,
      "Ġloaded": 7272,
      "Ġconstruction": 7273,
      "-v": 7274,
      "ĠHave": 7275,
      "Ġhundreds": 7276,
      "ĠService": 7277,
      "care": 7278,
      "Ġplastic": 7279,
      "Ġalcoh": 7280,
      "ĠĠĠĊ": 7281,
      "%)": 7282,
      "enter": 7283,
      "Ġweapon": 7284,
      "Ġplane": 7285,
      "will": 7286,
      "Ġcommunication": 7287,
      "Ġdealing": 7288,
      "icity": 7289,
      "UB": 7290,
      "Ġexpert": 7291,
      "Ġstro": 7292,
      "ifications": 7293,
      "Ġvisible": 7294,
      "Ġaudience": 7295,
      "CO": 7296,
      "Ġlady": 7297,
      "ĠCalculate": 7298,
      "ano": 7299,
      ".out": 7300,
      "ĠFebruary": 7301,
      "Ġannounce": 7302,
      "style": 7303,
      "Ġsac": 7304,
      "iro": 7305,
      "avigation": 7306,
      "61": 7307,
      "ĠMedical": 7308,
      "len": 7309,
      "Ġpurchased": 7310,
      "appy": 7311,
      "ston": 7312,
      "Ġrent": 7313,
      "ftware": 7314,
      "vider": 7315,
      "Ġsin": 7316,
      "Ġlinked": 7317,
      "ĠGold": 7318,
      "ACK": 7319,
      "install": 7320,
      "Update": 7321,
      "hens": 7322,
      "Ġentered": 7323,
      "More": 7324,
      "Ġhes": 7325,
      "Server": 7326,
      "Ġarchitect": 7327,
      "EO": 7328,
      "ĠGerman": 7329,
      "ĉĉĉĉĉ": 7330,
      "-H": 7331,
      "ĠInternational": 7332,
      "?)": 7333,
      "cor": 7334,
      "Ġicon": 7335,
      "Ġsevere": 7336,
      "ĠAnother": 7337,
      "Ġpushing": 7338,
      ":(": 7339,
      "Ġinsp": 7340,
      "Ġmotion": 7341,
      "ĠNone": 7342,
      "Ġtrigger": 7343,
      "Ġadult": 7344,
      "*(": 7345,
      "ASS": 7346,
      "andon": 7347,
      "obby": 7348,
      "ĠGermany": 7349,
      "ĠBill": 7350,
      "-cont": 7351,
      "ãĥ": 7352,
      "obj": 7353,
      "END": 7354,
      "Ġaside": 7355,
      "ĠAir": 7356,
      "otype": 7357,
      "ĠHospital": 7358,
      "Ġcommercial": 7359,
      "ĠGen": 7360,
      "Ġexpecting": 7361,
      "iques": 7362,
      "62": 7363,
      "Component": 7364,
      "Ġspecified": 7365,
      "Ġremem": 7366,
      "Ġsch": 7367,
      "Ġpolic": 7368,
      "ĠCongress": 7369,
      "ĠMary": 7370,
      "Ġfreedom": 7371,
      "Ġfort": 7372,
      "Ġdemocr": 7373,
      "Ġemployees": 7374,
      "Ġnodes": 7375,
      "Vis": 7376,
      "Ġlucky": 7377,
      "Output": 7378,
      "=>": 7379,
      "erves": 7380,
      "IZ": 7381,
      "iency": 7382,
      "_.": 7383,
      "Str": 7384,
      "Ġlogin": 7385,
      "Ġteeth": 7386,
      "Ġmole": 7387,
      "Ġprocedure": 7388,
      "ĠTex": 7389,
      "Ġrequirements": 7390,
      "yes": 7391,
      "source": 7392,
      "Ġaffected": 7393,
      "âĢ¢": 7394,
      "Ġvent": 7395,
      "Ġvision": 7396,
      "Ġremaining": 7397,
      "190": 7398,
      "ĠÐ²": 7399,
      "Ġfails": 7400,
      "Ġreasonable": 7401,
      "Ġprotection": 7402,
      "~~~~": 7403,
      "âĢĵ": 7404,
      "Ã¼": 7405,
      "ikipedia": 7406,
      "Ġunderstood": 7407,
      "TO": 7408,
      "isation": 7409,
      "Ġbinary": 7410,
      "Ġplain": 7411,
      "_i": 7412,
      "Ġawk": 7413,
      "lets": 7414,
      "Pos": 7415,
      "âĢľWe": 7416,
      "Child": 7417,
      "256": 7418,
      "ini": 7419,
      "Ġestablished": 7420,
      "Ġbrown": 7421,
      "Ġcapacity": 7422,
      "Ġmodify": 7423,
      "tt": 7424,
      "avor": 7425,
      "aniel": 7426,
      "Ġtypically": 7427,
      "iller": 7428,
      "ĠUse": 7429,
      "ĠJSON": 7430,
      "Ġsongs": 7431,
      "Ġusage": 7432,
      "LD": 7433,
      "lla": 7434,
      "Ġphen": 7435,
      "Ġnoted": 7436,
      "cknow": 7437,
      "Ġdeck": 7438,
      "Ġtrees": 7439,
      "tex": 7440,
      "Ġutil": 7441,
      "Ġvehicle": 7442,
      "Ġalloc": 7443,
      "Ġagreement": 7444,
      "Pe": 7445,
      "Ġmixed": 7446,
      "Ġexercise": 7447,
      "ĠMad": 7448,
      "Ġalle": 7449,
      "Ð¾Ð²": 7450,
      "Ġcab": 7451,
      "ĠHall": 7452,
      "break": 7453,
      "Ġnose": 7454,
      "ĠLa": 7455,
      "Ġrapid": 7456,
      "Ġshooting": 7457,
      "ĠAssoci": 7458,
      "Ġresulting": 7459,
      "Ġtechnical": 7460,
      "Ġinstructions": 7461,
      "Ġeverywhere": 7462,
      "ĠSP": 7463,
      "Ġlaptop": 7464,
      "Ġtank": 7465,
      "Ġ(\"": 7466,
      "ĠSH": 7467,
      "Like": 7468,
      "Ġpartners": 7469,
      "cp": 7470,
      "opping": 7471,
      "chron": 7472,
      "endar": 7473,
      "Ġ(Ċ": 7474,
      "ĠPR": 7475,
      "]]": 7476,
      "emory": 7477,
      "Ġfootball": 7478,
      "ĠSand": 7479,
      "Ġoccup": 7480,
      "-like": 7481,
      "Ġextended": 7482,
      "Ġing": 7483,
      "ĠĠĠĠĠĠĠĠĠĠĠĠĠĠĠĠĠĠ": 7484,
      "Ġinner": 7485,
      "Ġratio": 7486,
      "Ġcoach": 7487,
      "Ġgreatly": 7488,
      "Ġcart": 7489,
      "Ġsust": 7490,
      "ĠCall": 7491,
      "Post": 7492,
      "ypes": 7493,
      "Ġfrustr": 7494,
      "issue": 7495,
      "Ġvirus": 7496,
      ".to": 7497,
      "Ġresear": 7498,
      "blem": 7499,
      ".app": 7500,
      "Ġbits": 7501,
      "cluding": 7502,
      "BO": 7503,
      "Ġcandidate": 7504,
      "Ġdesire": 7505,
      "Ġtongue": 7506,
      "Ġdepartment": 7507,
      "Ġapolog": 7508,
      "Ġstorm": 7509,
      "LY": 7510,
      "Ġparties": 7511,
      "ĠHel": 7512,
      ")?Ċ": 7513,
      "Ġstands": 7514,
      "Ġplanet": 7515,
      "Ġprepar": 7516,
      "isis": 7517,
      "Ġdivide": 7518,
      "pered": 7519,
      "UST": 7520,
      "bered": 7521,
      "Ġ/**Ċ": 7522,
      "iteria": 7523,
      "igen": 7524,
      "abilities": 7525,
      "Ġsharing": 7526,
      "Ġliqu": 7527,
      "Ġfashion": 7528,
      "Ġmatters": 7529,
      "names": 7530,
      "Ġconstr": 7531,
      "rum": 7532,
      "Ġlayout": 7533,
      ")/(": 7534,
      "ifferent": 7535,
      "eless": 7536,
      "Ġidentity": 7537,
      ".re": 7538,
      "ĠRepublican": 7539,
      "Ġspr": 7540,
      "rive": 7541,
      "Ġinvestigation": 7542,
      "URE": 7543,
      "ao": 7544,
      "uries": 7545,
      "Ġacting": 7546,
      ".)ĊĊ": 7547,
      "Ġopens": 7548,
      "blog": 7549,
      "Ġresolution": 7550,
      "ĠCOM": 7551,
      "\"You": 7552,
      "Ġfavour": 7553,
      "Dear": 7554,
      "Ġputs": 7555,
      "about": 7556,
      "Ġsituations": 7557,
      "Ġacid": 7558,
      "isco": 7559,
      "efined": 7560,
      "greg": 7561,
      "make": 7562,
      "gex": 7563,
      "Ġtalent": 7564,
      "Ġshoulders": 7565,
      "ĠFrance": 7566,
      "Ġmatches": 7567,
      "IES": 7568,
      "comfort": 7569,
      "********************************": 7570,
      "Ġofficer": 7571,
      "Will": 7572,
      "reddit": 7573,
      "195": 7574,
      "Use": 7575,
      "GA": 7576,
      "Ġ$('": 7577,
      "%,": 7578,
      "Ġessentially": 7579,
      "'ĊĊ": 7580,
      "ĠFin": 7581,
      "Ġpipe": 7582,
      "Ġindu": 7583,
      "Options": 7584,
      "Ġjudge": 7585,
      "Ġexplanation": 7586,
      "Ġbear": 7587,
      "Ġgig": 7588,
      "Ġwealth": 7589,
      "Ġagent": 7590,
      "va": 7591,
      "Ġbon": 7592,
      "ĠRight": 7593,
      "Ġscenario": 7594,
      "Ġvert": 7595,
      "Ġraw": 7596,
      "ĠJon": 7597,
      "ĠMike": 7598,
      "burg": 7599,
      "Ġthrows": 7600,
      "/C": 7601,
      "expected": 7602,
      "Ġgoogle": 7603,
      "Ġpassion": 7604,
      "ansion": 7605,
      "Ġdisappointed": 7606,
      "Ġcache": 7607,
      "long": 7608,
      "Ġupset": 7609,
      "});ĊĊ": 7610,
      "Ġintent": 7611,
      "ĠWork": 7612,
      "Ġ[]": 7613,
      "ira": 7614,
      "Ġconfidence": 7615,
      "Ġconfirmed": 7616,
      "arry": 7617,
      "usiness": 7618,
      ".Add": 7619,
      "adata": 7620,
      "Ġplate": 7621,
      "Ġreligion": 7622,
      "ERR": 7623,
      "ĠVery": 7624,
      "ements": 7625,
      "Even": 7626,
      "AV": 7627,
      "orough": 7628,
      "GET": 7629,
      "imp": 7630,
      "oder": 7631,
      "(v": 7632,
      "inking": 7633,
      "Ġloose": 7634,
      "arn": 7635,
      "Style": 7636,
      "Ġconcerns": 7637,
      "ima": 7638,
      "Ġlic": 7639,
      "Project": 7640,
      "Ġpleasure": 7641,
      "Ġtypical": 7642,
      "IE": 7643,
      "Ġtip": 7644,
      "ĠMedicine": 7645,
      "Ġaccounts": 7646,
      "Ġclock": 7647,
      "Ġemerg": 7648,
      "Ġmm": 7649,
      "update": 7650,
      "Ġcorresponding": 7651,
      "ĠTor": 7652,
      "rant": 7653,
      "/k": 7654,
      "Ġhits": 7655,
      "Ġchick": 7656,
      "Ġsearching": 7657,
      "imgur": 7658,
      "Ġretrie": 7659,
      "Ġdrivers": 7660,
      ".se": 7661,
      "Ġoperating": 7662,
      "Ġcities": 7663,
      "Ġcateg": 7664,
      "Ġmanual": 7665,
      "Ġpul": 7666,
      "ĠMake": 7667,
      "ĠGovern": 7668,
      "ĠCheck": 7669,
      "crete": 7670,
      "Ġdevelopers": 7671,
      "Ġhug": 7672,
      "Ġequipment": 7673,
      "Ġtips": 7674,
      "Ġcircumst": 7675,
      "(S": 7676,
      "Ġteach": 7677,
      "Ġplanned": 7678,
      "Ġpointer": 7679,
      "Ġblind": 7680,
      "isms": 7681,
      "Part": 7682,
      "ĠHE": 7683,
      "endif": 7684,
      "Ġcitizens": 7685,
      "Ġafternoon": 7686,
      "ĠStill": 7687,
      ".is": 7688,
      "_re": 7689,
      "sd": 7690,
      "ibrary": 7691,
      "even": 7692,
      "bably": 7693,
      "Current": 7694,
      "ih": 7695,
      "Ġsale": 7696,
      "III": 7697,
      "Ġreturning": 7698,
      "Window": 7699,
      "Ġcant": 7700,
      "rit": 7701,
      "ambda": 7702,
      "ĠĠĠĠĠĠĠĠĠĠĠĠĠĠĠĠĠĠĠĠ": 7703,
      "Ġfellow": 7704,
      "ĠSecond": 7705,
      "istory": 7706,
      "home": 7707,
      "ĠThose": 7708,
      "template": 7709,
      "Ġcarefully": 7710,
      "Ġbat": 7711,
      "Ġsharp": 7712,
      "ĠVis": 7713,
      "imer": 7714,
      "undle": 7715,
      "Ġgirlfriend": 7716,
      "ĠUSB": 7717,
      "Ġlatter": 7718,
      "ĠJo": 7719,
      "âĶĢ": 7720,
      "reens": 7721,
      "84": 7722,
      "Ġorigin": 7723,
      "Ġcombined": 7724,
      "Ġselling": 7725,
      "Ġsighed": 7726,
      "Ġequation": 7727,
      "umbled": 7728,
      "Ġtoken": 7729,
      "fit": 7730,
      "Ġbegins": 7731,
      "onic": 7732,
      "Ġexit": 7733,
      "Ġzone": 7734,
      "TA": 7735,
      "Ġgrown": 7736,
      "Ġdance": 7737,
      "Ġfantastic": 7738,
      "ĠBet": 7739,
      "ĠLong": 7740,
      "uy": 7741,
      "ATH": 7742,
      "Ġtemp": 7743,
      "Ġfrequency": 7744,
      "response": 7745,
      "Ġunivers": 7746,
      "Ġfacing": 7747,
      "Ġcomplicated": 7748,
      "ĠThus": 7749,
      "Ġmechanism": 7750,
      "ĠDB": 7751,
      "Ġconven": 7752,
      "ĠRussia": 7753,
      "Ġtens": 7754,
      "Builder": 7755,
      "Ġideal": 7756,
      "Ġsenior": 7757,
      "Ġdiet": 7758,
      "Init": 7759,
      "Ġpolitics": 7760,
      "ĠCode": 7761,
      "ÑĢÐ°": 7762,
      "ifer": 7763,
      "ĠâĢ¦": 7764,
      "draw": 7765,
      "130": 7766,
      "onym": 7767,
      "Ġchosen": 7768,
      "Ne": 7769,
      "Ġlad": 7770,
      "Ġinject": 7771,
      "Ġacknow": 7772,
      "Ġimproved": 7773,
      "Ġlying": 7774,
      "Ġsouth": 7775,
      "Ġliterature": 7776,
      "acks": 7777,
      "Ġdisag": 7778,
      "ĠCopyright": 7779,
      "Dr": 7780,
      "Ġwinter": 7781,
      "ĠSmith": 7782,
      "Ġsports": 7783,
      "bal": 7784,
      "Ġbathroom": 7785,
      "Ġgather": 7786,
      "Ġchose": 7787,
      "Ġdele": 7788,
      "Ġdude": 7789,
      "ĠPet": 7790,
      "-k": 7791,
      "essions": 7792,
      "unte": 7793,
      "ĠGN": 7794,
      "dir": 7795,
      "ĠÂ£": 7796,
      "Ġstores": 7797,
      "istent": 7798,
      "191": 7799,
      "poses": 7800,
      "dis": 7801,
      "rr": 7802,
      "________________": 7803,
      "access": 7804,
      "MP": 7805,
      "Ġaccurate": 7806,
      "Mat": 7807,
      "RS": 7808,
      "ĠVer": 7809,
      "agram": 7810,
      "Ġtalks": 7811,
      "ĠPRO": 7812,
      "Ġstatements": 7813,
      "ĠSil": 7814,
      "Ġmanually": 7815,
      "Ġsmallest": 7816,
      "Ġextr": 7817,
      "rid": 7818,
      "ĠFig": 7819,
      "ĠSk": 7820,
      "velopment": 7821,
      "Ġlaun": 7822,
      "ĠKey": 7823,
      "Ġannoying": 7824,
      "iat": 7825,
      "Ð·": 7826,
      "Ġadvanced": 7827,
      "Ġbehaviour": 7828,
      "Ġsurvey": 7829,
      "cluded": 7830,
      "tw": 7831,
      "Ġdecades": 7832,
      "ĠTeam": 7833,
      "umer": 7834,
      "Ġwinning": 7835,
      "Ġcontrast": 7836,
      "anguages": 7837,
      "Ġtor": 7838,
      "Ġsmoke": 7839,
      "Ġtea": 7840,
      "Ġstrict": 7841,
      "73": 7842,
      "Ġlinux": 7843,
      "scope": 7844,
      "71": 7845,
      "ĠHam": 7846,
      "unities": 7847,
      "ifact": 7848,
      "Ġgently": 7849,
      "Resource": 7850,
      "ĠChris": 7851,
      "Ġbottle": 7852,
      "/wiki": 7853,
      "Ġgear": 7854,
      "Ġdiss": 7855,
      "Ġconsistent": 7856,
      "Ġdear": 7857,
      "before": 7858,
      "/re": 7859,
      "Ġjoined": 7860,
      "ĠPlay": 7861,
      "ĠCS": 7862,
      "108": 7863,
      "amin": 7864,
      "Ġcompat": 7865,
      "ĠCollege": 7866,
      "Label": 7867,
      "Ġdiscussed": 7868,
      "Many": 7869,
      "ĠÂµ": 7870,
      "Ġjson": 7871,
      "ĠRel": 7872,
      "Ġincredibly": 7873,
      "ogy": 7874,
      "kes": 7875,
      "ĠÑģ": 7876,
      "^^": 7877,
      "***": 7878,
      "ĠEngine": 7879,
      "Ġleague": 7880,
      "Ġ[[": 7881,
      "bert": 7882,
      "Ġpill": 7883,
      "Ġcapable": 7884,
      "core": 7885,
      "Ġprogramming": 7886,
      "Ġcircle": 7887,
      "ĠHill": 7888,
      "gener": 7889,
      "who": 7890,
      "Ġcrowd": 7891,
      "Ġnorth": 7892,
      "event": 7893,
      "Ġtasks": 7894,
      "ingu": 7895,
      "inger": 7896,
      "Ġpub": 7897,
      "raz": 7898,
      "Ġsigns": 7899,
      "float": 7900,
      "Ġinstallation": 7901,
      "ho": 7902,
      "Ġdogs": 7903,
      ".v": 7904,
      "edu": 7905,
      "Ġblame": 7906,
      "LS": 7907,
      "Ġcontrols": 7908,
      "ĠClint": 7909,
      "Ġdetailed": 7910,
      "phas": 7911,
      "Ġcreates": 7912,
      "Ġserved": 7913,
      "assword": 7914,
      "VM": 7915,
      "Ġfacts": 7916,
      "ĠPri": 7917,
      "Ġinstr": 7918,
      "Ġuniverse": 7919,
      "91": 7920,
      "Ġblocks": 7921,
      "Ġconfident": 7922,
      "Ġwitness": 7923,
      "Ġunknown": 7924,
      "Ġkinds": 7925,
      "Ġlunch": 7926,
      "inity": 7927,
      "Ġbell": 7928,
      "Ġessential": 7929,
      "\");ĊĊ": 7930,
      "ĠBrown": 7931,
      "Ġsuc": 7932,
      "ournal": 7933,
      "Ġcro": 7934,
      "Ġfunctionality": 7935,
      "Ġalcohol": 7936,
      "Ġemer": 7937,
      "EXT": 7938,
      "Very": 7939,
      "Ġregardless": 7940,
      "ĠWin": 7941,
      "Ġexecute": 7942,
      "Ġgrabbed": 7943,
      "Ġbelieved": 7944,
      "Ġsli": 7945,
      "Ġneut": 7946,
      "faces": 7947,
      "ĠAustralia": 7948,
      "ĠStep": 7949,
      "_in": 7950,
      "ĠCap": 7951,
      "tion": 7952,
      "orters": 7953,
      "ĠWAR": 7954,
      "_A": 7955,
      "Mark": 7956,
      "Ut": 7957,
      "itors": 7958,
      "eks": 7959,
      "/D": 7960,
      "Ġtrend": 7961,
      "icial": 7962,
      "âĪĴ": 7963,
      "ĠShould": 7964,
      "rence": 7965,
      "ownload": 7966,
      "Ġgit": 7967,
      "_set": 7968,
      "Ġmachines": 7969,
      "Ġpressed": 7970,
      "Ġdefe": 7971,
      "Ġalign": 7972,
      "iel": 7973,
      "ĠHas": 7974,
      "Ġped": 7975,
      "Ġcontents": 7976,
      "PM": 7977,
      "Ġpit": 7978,
      "Ġ\"/": 7979,
      "options": 7980,
      "ĠHy": 7981,
      "Ġarticles": 7982,
      "arrass": 7983,
      "izont": 7984,
      "Ġwalls": 7985,
      "Ġphilos": 7986,
      "umps": 7987,
      "LO": 7988,
      "center": 7989,
      "Ġcrash": 7990,
      "Ġdumb": 7991,
      "Ġfre": 7992,
      "lo": 7993,
      "OME": 7994,
      "Ġlies": 7995,
      "Ġourselves": 7996,
      "ĠGive": 7997,
      "Ġheads": 7998,
      "Ġsupports": 7999,
      "Ġexistence": 8000,
      "Ġjoy": 8001,
      "Ġexpressed": 8002,
      "Ġangle": 8003,
      "Ġcompetition": 8004,
      "Ġschedule": 8005,
      "Ñħ": 8006,
      "(data": 8007,
      "Ġmotor": 8008,
      "999": 8009,
      "iminal": 8010,
      "otion": 8011,
      "would": 8012,
      "entry": 8013,
      "Ġmeat": 8014,
      "ĠEvent": 8015,
      "Ġbirthday": 8016,
      "RC": 8017,
      "essed": 8018,
      "remove": 8019,
      "olid": 8020,
      "Ġshares": 8021,
      "ĠLife": 8022,
      "Ġstandards": 8023,
      "Ġlaid": 8024,
      "Ġmeasures": 8025,
      "ivered": 8026,
      "Ġvul": 8027,
      "Ġfits": 8028,
      "lines": 8029,
      "Ġlegis": 8030,
      "Ġcreation": 8031,
      "ĠLu": 8032,
      "Ġchoices": 8033,
      "fa": 8034,
      "Ġmystery": 8035,
      "Ġawkward": 8036,
      "nam": 8037,
      "Ġsurgery": 8038,
      "ollow": 8039,
      "obs": 8040,
      "Http": 8041,
      "Ġdrawn": 8042,
      "wide": 8043,
      "Ġcable": 8044,
      "ĠJoe": 8045,
      "ĠFoundation": 8046,
      "Ġcrisis": 8047,
      "ĠJul": 8048,
      "lder": 8049,
      "-day": 8050,
      "Ġplants": 8051,
      "thread": 8052,
      "ĠDi": 8053,
      "Ġtail": 8054,
      "Ġillustr": 8055,
      "ca": 8056,
      "Ġdistinct": 8057,
      "Ġchuck": 8058,
      "adio": 8059,
      "Ġpositions": 8060,
      "args": 8061,
      "arks": 8062,
      "pload": 8063,
      "Ġstaring": 8064,
      "Ob": 8065,
      "ĠCoun": 8066,
      "images": 8067,
      "Ġtheore": 8068,
      "ATA": 8069,
      "ester": 8070,
      "Ġappoint": 8071,
      "Ġparticipants": 8072,
      "/x": 8073,
      "uate": 8074,
      "Next": 8075,
      "node": 8076,
      "Ġcos": 8077,
      "Ġconvin": 8078,
      "Ġdebate": 8079,
      "outhern": 8080,
      "sem": 8081,
      "Ġreferences": 8082,
      "Ġhistorical": 8083,
      "Ġscenes": 8084,
      "Ġlol": 8085,
      "ĠHell": 8086,
      "Ġdistrict": 8087,
      "ccount": 8088,
      "ACE": 8089,
      "avy": 8090,
      "Ġoriginally": 8091,
      "-on": 8092,
      "fess": 8093,
      "plot": 8094,
      "Fe": 8095,
      "kit": 8096,
      "Ġuniversity": 8097,
      "Ġteachers": 8098,
      "ighs": 8099,
      "Ġclimate": 8100,
      "ĠBay": 8101,
      "hab": 8102,
      "iveness": 8103,
      "VD": 8104,
      "aser": 8105,
      "Ġcollected": 8106,
      "Ġhotel": 8107,
      "Ġsufficient": 8108,
      "Ġdrinking": 8109,
      "ĠBack": 8110,
      "ĠSur": 8111,
      ".âĢĻ": 8112,
      "raq": 8113,
      "Ġbuttons": 8114,
      "comes": 8115,
      "yy": 8116,
      "Ġpatches": 8117,
      "ĠMex": 8118,
      "Ġappearance": 8119,
      "Ġwww": 8120,
      "IND": 8121,
      "Ġpocket": 8122,
      "81": 8123,
      "Ġpants": 8124,
      "92": 8125,
      "Ġmillions": 8126,
      "Ġacad": 8127,
      "Ġ*/ĊĊ": 8128,
      "Ill": 8129,
      "Ġgrid": 8130,
      "Ġnut": 8131,
      "Ġmoder": 8132,
      "ĠTrue": 8133,
      "inks": 8134,
      "Ġlawy": 8135,
      "ĠCast": 8136,
      "ĠNY": 8137,
      "ĠAfrica": 8138,
      ".io": 8139,
      "\"It": 8140,
      "ĠUnfortunately": 8141,
      "Ġresponsibility": 8142,
      "_size": 8143,
      "Ġlen": 8144,
      "ĠTry": 8145,
      "Ġfaces": 8146,
      "ĠTexas": 8147,
      "-N": 8148,
      "Ġrecognize": 8149,
      "non": 8150,
      "Ġwrapped": 8151,
      "Ġjoint": 8152,
      "BI": 8153,
      "Ġdrawing": 8154,
      "aded": 8155,
      "ĠHD": 8156,
      "Ġinjury": 8157,
      "Ġinteraction": 8158,
      "Ġoffering": 8159,
      "Ġkeyboard": 8160,
      "\\\"": 8161,
      ")*(": 8162,
      "may": 8163,
      "-ch": 8164,
      "Ġinterrupt": 8165,
      "Ġbreast": 8166,
      "ĠLaw": 8167,
      "ĠSource": 8168,
      "ĠMain": 8169,
      "âķ": 8170,
      "Ġabuse": 8171,
      "don": 8172,
      "-j": 8173,
      "Ġbra": 8174,
      "Ġ*)": 8175,
      "ĠCould": 8176,
      "icago": 8177,
      "Grid": 8178,
      "Ġoffset": 8179,
      "ĠRussian": 8180,
      "140": 8181,
      "Ġna": 8182,
      "izz": 8183,
      "âĢľWhat": 8184,
      "Ġbusinesses": 8185,
      "ometry": 8186,
      "ĠSometimes": 8187,
      "ĠArch": 8188,
      "ĠThomas": 8189,
      "74": 8190,
      "Using": 8191,
      "Ġfuel": 8192,
      "Ġflight": 8193,
      "ORD": 8194,
      "Ġthrown": 8195,
      "ĠApache": 8196,
      "Ġstead": 8197,
      "Ġseek": 8198,
      "ĠSir": 8199,
      "@example": 8200,
      "Ġblow": 8201,
      "Ġdisplayed": 8202,
      "Ġ.Ċ": 8203,
      "UP": 8204,
      "Ġattach": 8205,
      "ĠWhe": 8206,
      "Ġpermission": 8207,
      "ĠBer": 8208,
      "Ġbyte": 8209,
      "tle": 8210,
      "Ġspecify": 8211,
      "Ġintention": 8212,
      "iable": 8213,
      "graph": 8214,
      "Ġgrade": 8215,
      "Ġsurprising": 8216,
      "oil": 8217,
      "Ġtaught": 8218,
      "Â°": 8219,
      "Ġsubmit": 8220,
      "Ġpotentially": 8221,
      "{{": 8222,
      "ĠCanad": 8223,
      "bra": 8224,
      "aren": 8225,
      "%%": 8226,
      "Ġwrt": 8227,
      "alpha": 8228,
      "ĠEs": 8229,
      "Ġstayed": 8230,
      "];ĊĊ": 8231,
      "ICE": 8232,
      "(String": 8233,
      "Ġannual": 8234,
      "obe": 8235,
      "Ġmodified": 8236,
      "Ġnic": 8237,
      "Ġinstant": 8238,
      "assert": 8239,
      "apes": 8240,
      "Ġobj": 8241,
      "Ġnervous": 8242,
      "Ġadults": 8243,
      "Ġdelivery": 8244,
      "ja": 8245,
      "Ġforest": 8246,
      "Ġbugs": 8247,
      "Ġtherapy": 8248,
      "Ġexport": 8249,
      "uous": 8250,
      "Ġmeasured": 8251,
      "Ġnuclear": 8252,
      "Ġexplore": 8253,
      "Ġchallenges": 8254,
      "arted": 8255,
      "Ġsav": 8256,
      "resents": 8257,
      "Ġsucceed": 8258,
      "Ġreceiving": 8259,
      "Ġpowers": 8260,
      ".name": 8261,
      "ĠSM": 8262,
      "Ġwedding": 8263,
      "celer": 8264,
      "Attribute": 8265,
      "Ġlit": 8266,
      "your": 8267,
      "Ġrecall": 8268,
      "ĠSal": 8269,
      "/)": 8270,
      "ĠMrs": 8271,
      "ingle": 8272,
      "Ġpand": 8273,
      ".on": 8274,
      "Ġmath": 8275,
      "Command": 8276,
      "Ġpleased": 8277,
      ".println": 8278,
      "Ġadapt": 8279,
      "Ġimportance": 8280,
      "parse": 8281,
      "ĠCas": 8282,
      "ONE": 8283,
      "Url": 8284,
      "ĠDa": 8285,
      "Ġstruggle": 8286,
      "Ġiniti": 8287,
      "ĠBank": 8288,
      "cean": 8289,
      "ĠTHIS": 8290,
      "Ġpolicies": 8291,
      "Ø§": 8292,
      "Ġrolled": 8293,
      "vm": 8294,
      "ucks": 8295,
      "194": 8296,
      "Other": 8297,
      "LC": 8298,
      "Ġfriendly": 8299,
      ".create": 8300,
      "ĠPower": 8301,
      "(h": 8302,
      "Ġshout": 8303,
      "Ġ<=": 8304,
      "usted": 8305,
      "reek": 8306,
      "admin": 8307,
      "Rel": 8308,
      "Ġclassic": 8309,
      "font": 8310,
      "Ġsan": 8311,
      "Ġchemical": 8312,
      "ĠWas": 8313,
      "Ġjoke": 8314,
      "Ġpump": 8315,
      "Ġshook": 8316,
      "find": 8317,
      "Ġ>=": 8318,
      "van": 8319,
      "Ġemotions": 8320,
      "icked": 8321,
      "Ġsear": 8322,
      "Ġbind": 8323,
      "Ġbodies": 8324,
      "Ġdoub": 8325,
      "pense": 8326,
      "ĠSoftware": 8327,
      "Ġhorrible": 8328,
      "ĠPerhaps": 8329,
      "Ġstronger": 8330,
      "Ġgender": 8331,
      "Ġthrew": 8332,
      "lie": 8333,
      "gly": 8334,
      "ampl": 8335,
      "Gl": 8336,
      "imation": 8337,
      "Ġembarrass": 8338,
      "]:": 8339,
      "_de": 8340,
      "{\"": 8341,
      "ĠIslam": 8342,
      "lessly": 8343,
      "Ge": 8344,
      "erring": 8345,
      "ĠAgain": 8346,
      "Ġfunctional": 8347,
      "clusive": 8348,
      "/**Ċ": 8349,
      "Ġembed": 8350,
      "outube": 8351,
      "Ġmal": 8352,
      "Ġ...Ċ": 8353,
      "Ġorders": 8354,
      "cm": 8355,
      "ĠVir": 8356,
      "WH": 8357,
      "Ġfamous": 8358,
      "ĠNothing": 8359,
      "ĠFurther": 8360,
      "message": 8361,
      "Ġmanip": 8362,
      "ictor": 8363,
      "Ah": 8364,
      "Ġyellow": 8365,
      "ĠDec": 8366,
      "Ġdomin": 8367,
      "ĠĠĠĠĠĠĠĠĠĠĠĠĠĠĠĠĠĠĠĠĠĠĠĠĠĠĠĠĠĠĠĠĠĠĠ": 8368,
      "Ġoccurred": 8369,
      "ked": 8370,
      "82": 8371,
      "_V": 8372,
      "Ġfasc": 8373,
      "hesis": 8374,
      "Ġ..": 8375,
      "Ġresistance": 8376,
      "Ġroutine": 8377,
      "Ġdupl": 8378,
      "-x": 8379,
      "Mode": 8380,
      "83": 8381,
      "Ġconducted": 8382,
      "Ġë": 8383,
      "Ġdump": 8384,
      "oong": 8385,
      "Ġaspects": 8386,
      "Ġlocked": 8387,
      "Ġscientific": 8388,
      "olt": 8389,
      "++)": 8390,
      "rency": 8391,
      "Ġtech": 8392,
      "Ġrepository": 8393,
      "ĠPhys": 8394,
      "Ġalright": 8395,
      "Ġ===": 8396,
      "ola": 8397,
      "ressed": 8398,
      "Ġske": 8399,
      "sim": 8400,
      "**(": 8401,
      "_list": 8402,
      "ĠPlus": 8403,
      "Ġincident": 8404,
      "Ġpaint": 8405,
      "Ġdiscover": 8406,
      "Ġrecorded": 8407,
      "(j": 8408,
      "Ġcommitted": 8409,
      "Ġinvent": 8410,
      "125": 8411,
      "udio": 8412,
      "iner": 8413,
      "Ġ:-": 8414,
      "eting": 8415,
      "Ġboolean": 8416,
      "Wr": 8417,
      "Product": 8418,
      "thanks": 8419,
      "Ed": 8420,
      "Ġextent": 8421,
      "Ġsector": 8422,
      "road": 8423,
      "Ġsubsequ": 8424,
      "unc": 8425,
      "ĠSC": 8426,
      "Ġconsult": 8427,
      "ĠALL": 8428,
      "âĢľThe": 8429,
      "Ġmaps": 8430,
      "Ġconflict": 8431,
      "SH": 8432,
      "Ġsaving": 8433,
      "Ġmarketing": 8434,
      "Ġenabled": 8435,
      "ĠHen": 8436,
      "aret": 8437,
      "Ġpretend": 8438,
      "105": 8439,
      "ĠAnn": 8440,
      "Ġlaughing": 8441,
      "Ġpadding": 8442,
      "Ġmagnet": 8443,
      "Mon": 8444,
      "rehens": 8445,
      "libr": 8446,
      "_w": 8447,
      "estic": 8448,
      "orders": 8449,
      "Ġsleeping": 8450,
      "Ġgene": 8451,
      "Ġrepeat": 8452,
      "Once": 8453,
      "/P": 8454,
      "eding": 8455,
      "ASE": 8456,
      "ĠCPU": 8457,
      "Ġrose": 8458,
      "whel": 8459,
      "Ġju": 8460,
      ".J": 8461,
      "ĠChurch": 8462,
      "ìĿ": 8463,
      "Ġdatas": 8464,
      "Ġpurposes": 8465,
      "Ġexhib": 8466,
      "incip": 8467,
      ".util": 8468,
      "Ġatm": 8469,
      "ĠPerson": 8470,
      "Ġjustice": 8471,
      "Ġdating": 8472,
      "Ġsyntax": 8473,
      "Ġexciting": 8474,
      "Ġconcentr": 8475,
      "Ġthrowing": 8476,
      "Ġcapture": 8477,
      "ĠDNA": 8478,
      "clos": 8479,
      "Ġwine": 8480,
      "ĠBefore": 8481,
      "Ġspaces": 8482,
      "(w": 8483,
      "Access": 8484,
      "oute": 8485,
      "atively": 8486,
      "Ġcrew": 8487,
      "astructure": 8488,
      "uine": 8489,
      "Ġos": 8490,
      "Ġ},": 8491,
      "93": 8492,
      "ĠIran": 8493,
      "Ġestablish": 8494,
      "Ġhash": 8495,
      "Ġbreaks": 8496,
      "Ġhanging": 8497,
      "Ġhorse": 8498,
      "Ġhandling": 8499,
      "Ġinterval": 8500,
      "Ġopinions": 8501,
      "Process": 8502,
      "Ġformula": 8503,
      "Ġhomes": 8504,
      "users": 8505,
      "Ġlibraries": 8506,
      "Ġridiculous": 8507,
      "Ġloo": 8508,
      "(k": 8509,
      "According": 8510,
      "Ġsymptoms": 8511,
      "ĠSum": 8512,
      "Ġanxiety": 8513,
      ".)Ċ": 8514,
      "Eng": 8515,
      "Ġears": 8516,
      "ĠPut": 8517,
      "umin": 8518,
      "Ġsupporting": 8519,
      "Ġdescript": 8520,
      "application": 8521,
      "Ġfunds": 8522,
      "Ġfrequently": 8523,
      "ULT": 8524,
      "Before": 8525,
      "Ġpix": 8526,
      "Ġhardly": 8527,
      "bre": 8528,
      "ĠFore": 8529,
      "etr": 8530,
      "Ġcrying": 8531,
      "_DE": 8532,
      "Ġmodules": 8533,
      "aka": 8534,
      "/st": 8535,
      "Su": 8536,
      "lements": 8537,
      "ounded": 8538,
      "âĢĺâĢĺ": 8539,
      "Ġstops": 8540,
      "ĠĠĠĠĠĠĠĠĠĠĠĠĠĠĠĠĠĠĠĠĠĠĠĠĠ": 8541,
      "\"The": 8542,
      "Mar": 8543,
      "Ġtags": 8544,
      "Ġrecip": 8545,
      "Ġoverride": 8546,
      "utter": 8547,
      "/a": 8548,
      "Ġcharges": 8549,
      "Ġclosing": 8550,
      "#if": 8551,
      "ĠGame": 8552,
      "Ġinvolve": 8553,
      "WE": 8554,
      "Ġbot": 8555,
      "ĠError": 8556,
      "Ġwheel": 8557,
      "Ġsilent": 8558,
      "Ġbeer": 8559,
      "azy": 8560,
      "Ġcommunities": 8561,
      "IME": 8562,
      "Ġtechniques": 8563,
      "teen": 8564,
      "Ġtro": 8565,
      "run": 8566,
      "ĠIraq": 8567,
      "because": 8568,
      "Ġdying": 8569,
      "Has": 8570,
      "ĠMethod": 8571,
      "ifies": 8572,
      "Only": 8573,
      "ĠUsing": 8574,
      "Token": 8575,
      "!\"Ċ": 8576,
      "annels": 8577,
      "ĠÎ±": 8578,
      "Ġcraft": 8579,
      "Ġarmy": 8580,
      "Ġswit": 8581,
      "apse": 8582,
      "@\"": 8583,
      "Ġvast": 8584,
      "Ġng": 8585,
      "orida": 8586,
      "Ġbeauty": 8587,
      "Ġconnections": 8588,
      "ĠDirect": 8589,
      "Try": 8590,
      "Find": 8591,
      "values": 8592,
      "ĠTur": 8593,
      "Ġportion": 8594,
      "Ġfeat": 8595,
      "ĠImage": 8596,
      "Ġnarrow": 8597,
      "fall": 8598,
      "legate": 8599,
      "Ġ['": 8600,
      "ĠĠĠĠĠĠĠĠĠĠĠĠĠĠĠĠĠĠĠĠĠĠĠĠ": 8601,
      "({Ċ": 8602,
      "Ġindicate": 8603,
      "Î±": 8604,
      "Ġbedroom": 8605,
      "Ġprofit": 8606,
      "PO": 8607,
      "Change": 8608,
      "ĠRobert": 8609,
      "Ġloading": 8610,
      "erest": 8611,
      "Ġresolve": 8612,
      "Ġrepresents": 8613,
      "alysis": 8614,
      "ĠSure": 8615,
      ")-": 8616,
      "umes": 8617,
      "],Ċ": 8618,
      "abet": 8619,
      "Ġ});ĊĊ": 8620,
      "Ġbund": 8621,
      "Ä±": 8622,
      "ipher": 8623,
      "strap": 8624,
      "Ġdelic": 8625,
      "bf": 8626,
      "Ġinteract": 8627,
      "ilty": 8628,
      "Ġreads": 8629,
      "Ġencoding": 8630,
      "700": 8631,
      "Ġinstitut": 8632,
      "Ġmirror": 8633,
      "files": 8634,
      "ARD": 8635,
      "oting": 8636,
      "Ġparse": 8637,
      "ĠiPhone": 8638,
      "Ġcouch": 8639,
      "(y": 8640,
      "help": 8641,
      "Ġgenuine": 8642,
      "Ġasleep": 8643,
      "Ġcircumstances": 8644,
      "ifest": 8645,
      "Ġinterests": 8646,
      "Ġsnap": 8647,
      "Ġ\"$": 8648,
      "Ġopportunities": 8649,
      "Ġrounded": 8650,
      "Ġheavily": 8651,
      ".class": 8652,
      "Ġstim": 8653,
      "Ġalt": 8654,
      "Ġargue": 8655,
      "ARE": 8656,
      "////////////////": 8657,
      "-off": 8658,
      "EDIT": 8659,
      "shot": 8660,
      "Ġfle": 8661,
      "Ġregul": 8662,
      "owned": 8663,
      "Ġrevenue": 8664,
      "Could": 8665,
      "isa": 8666,
      "Ġpink": 8667,
      "OB": 8668,
      "empl": 8669,
      "Ġscheme": 8670,
      "Ġofficers": 8671,
      "Ġphr": 8672,
      "Ġbinding": 8673,
      "({": 8674,
      "pu": 8675,
      "Ġboat": 8676,
      "ographic": 8677,
      "Ġlovely": 8678,
      "ORE": 8679,
      "ĠNever": 8680,
      "Width": 8681,
      "tn": 8682,
      "Ġchecks": 8683,
      "arge": 8684,
      "MT": 8685,
      "Ġoccurs": 8686,
      "onest": 8687,
      "Ġcoverage": 8688,
      "Ġresist": 8689,
      "Ġthreads": 8690,
      "SA": 8691,
      "Ġbike": 8692,
      "ĠIll": 8693,
      "Ġreset": 8694,
      "Ġsole": 8695,
      "echo": 8696,
      "VI": 8697,
      "inet": 8698,
      "PR": 8699,
      "Ġaggress": 8700,
      "omain": 8701,
      "avity": 8702,
      "Ġcharged": 8703,
      "wa": 8704,
      "Ġsilver": 8705,
      "Ġinnoc": 8706,
      "Car": 8707,
      "foo": 8708,
      "Impl": 8709,
      "Ġqueue": 8710,
      "ackage": 8711,
      "Ġuncle": 8712,
      "elta": 8713,
      "Fig": 8714,
      "ami": 8715,
      "Ġmarked": 8716,
      "itionally": 8717,
      "Ġcommands": 8718,
      "Ġantib": 8719,
      "(T": 8720,
      "Ġremark": 8721,
      "\"We": 8722,
      "orted": 8723,
      "Ġprecise": 8724,
      "GG": 8725,
      "Ġcluster": 8726,
      "Address": 8727,
      "94": 8728,
      "ĠWal": 8729,
      "Ġboxes": 8730,
      "Ġinfr": 8731,
      "Ġstone": 8732,
      "Ġris": 8733,
      "module": 8734,
      "Ġfigures": 8735,
      "Ġlanguages": 8736,
      "nav": 8737,
      "ĠMel": 8738,
      "Ġincreases": 8739,
      "Ġpatterns": 8740,
      "imens": 8741,
      "Ġdram": 8742,
      "Ġvolunte": 8743,
      "!)": 8744,
      "\\Ċ": 8745,
      "Ġfur": 8746,
      "zing": 8747,
      "ĠâĪĪ": 8748,
      "#endif": 8749,
      "Ġtutorial": 8750,
      "rick": 8751,
      "Ġstudied": 8752,
      "ĠLeague": 8753,
      "Ġdesired": 8754,
      "Ġbench": 8755,
      "izontal": 8756,
      "Ġmarkets": 8757,
      "alloc": 8758,
      "ruck": 8759,
      "Ġcow": 8760,
      "Ġfool": 8761,
      "Ġcutting": 8762,
      "Ġcompiler": 8763,
      "Ġpace": 8764,
      "\".Ċ": 8765,
      "esc": 8766,
      "Ġmemories": 8767,
      "opp": 8768,
      "Ñĸ": 8769,
      "edit": 8770,
      "Ġshr": 8771,
      "Users": 8772,
      "Ġboring": 8773,
      "eg": 8774,
      "Ġanger": 8775,
      "Ġtruck": 8776,
      "Adapter": 8777,
      "ĠFind": 8778,
      "Ġyouth": 8779,
      "ĠUbuntu": 8780,
      "Ð¿": 8781,
      "Ġticket": 8782,
      "Ġsecondary": 8783,
      "eping": 8784,
      "-level": 8785,
      "Ġcallback": 8786,
      "athan": 8787,
      "ket": 8788,
      "ĠConst": 8789,
      "Ġexecutive": 8790,
      "awa": 8791,
      "Ġdegrees": 8792,
      "rog": 8793,
      "ĠAccording": 8794,
      "Ġgap": 8795,
      "âĻª": 8796,
      "kg": 8797,
      "Ġlegend": 8798,
      "Ġperman": 8799,
      "ĠTimes": 8800,
      "ĠParty": 8801,
      "Ġpractical": 8802,
      "Ġquote": 8803,
      "jo": 8804,
      "103": 8805,
      "Ġdispl": 8806,
      "Ġartist": 8807,
      "Ġposting": 8808,
      "Ġagency": 8809,
      "ĠJapanese": 8810,
      "Ġ};Ċ": 8811,
      "ĠChild": 8812,
      "Ġunfortunately": 8813,
      "heet": 8814,
      "Ġcheek": 8815,
      "(g": 8816,
      "Ġleadership": 8817,
      "cious": 8818,
      "Ġfake": 8819,
      "Ġeffectively": 8820,
      "Ġdoors": 8821,
      "wall": 8822,
      "urally": 8823,
      "Ġhitting": 8824,
      "osc": 8825,
      "Ġinnov": 8826,
      "Entity": 8827,
      "bits": 8828,
      "xsl": 8829,
      ".append": 8830,
      "Ġexcuse": 8831,
      "ĠCouncil": 8832,
      "Ġsle": 8833,
      "Ġtechnique": 8834,
      "ĠDen": 8835,
      "ĠMur": 8836,
      "ĠUnder": 8837,
      "duc": 8838,
      "Make": 8839,
      "Ġstructures": 8840,
      "Ġenvironmental": 8841,
      "Ġcalculated": 8842,
      "mes": 8843,
      "Configuration": 8844,
      "Ag": 8845,
      "Ġvacc": 8846,
      "Ġtaxes": 8847,
      "Ġattributes": 8848,
      "//Ċ": 8849,
      "ĠGO": 8850,
      "Ġtypename": 8851,
      "Reader": 8852,
      "ĠBest": 8853,
      "orig": 8854,
      "/.": 8855,
      "src": 8856,
      "Ġgate": 8857,
      "Ġcorrel": 8858,
      "ubb": 8859,
      "Ġsuggests": 8860,
      "-color": 8861,
      "Ġbridge": 8862,
      "summary": 8863,
      "ĠSenate": 8864,
      "Ġinstances": 8865,
      "ĠHome": 8866,
      "estion": 8867,
      "Ġreporting": 8868,
      "/com": 8869,
      "ĠFranc": 8870,
      "inite": 8871,
      "Ġgiant": 8872,
      "oongi": 8873,
      "Ġvalu": 8874,
      "ĠColor": 8875,
      "-G": 8876,
      "Ġdensity": 8877,
      "Ġstruggling": 8878,
      "asant": 8879,
      "elines": 8880,
      "Ġdiam": 8881,
      "Ġresponses": 8882,
      "ĠĠĠĠĠĠĠĠĠĠĠĠĠĠĠĠĠĠĠĠĠĠ": 8883,
      "address": 8884,
      "Top": 8885,
      "TT": 8886,
      "Ġstrongly": 8887,
      "Ġtur": 8888,
      "Ġinhib": 8889,
      "Ġwhereas": 8890,
      "erek": 8891,
      "ĠHA": 8892,
      "oston": 8893,
      "valuation": 8894,
      "Ġmood": 8895,
      "hemat": 8896,
      "/B": 8897,
      "Sum": 8898,
      "notation": 8899,
      "ĠRev": 8900,
      "ĠEU": 8901,
      "_ID": 8902,
      "rend": 8903,
      "ĠGal": 8904,
      "Ġcharacteristics": 8905,
      "env": 8906,
      "Ġfunding": 8907,
      "ĠME": 8908,
      "Ġintense": 8909,
      "pa": 8910,
      "Ġultimately": 8911,
      "ictions": 8912,
      "Ġinher": 8913,
      "Ġretail": 8914,
      "Ġentity": 8915,
      ".I": 8916,
      "ustomer": 8917,
      "-W": 8918,
      "cend": 8919,
      "Ġpapers": 8920,
      "Ġpor": 8921,
      "Ġoutcome": 8922,
      "uan": 8923,
      "Ġpod": 8924,
      "MD": 8925,
      "ĠThough": 8926,
      "ĠÃĹ": 8927,
      "ĠPL": 8928,
      "Ġbeside": 8929,
      "ĠBlue": 8930,
      "itar": 8931,
      "zer": 8932,
      "Ġrend": 8933,
      "Ġcriteria": 8934,
      "127": 8935,
      "Ġmigr": 8936,
      "Ġcovers": 8937,
      "Ġsensitive": 8938,
      "plex": 8939,
      "avis": 8940,
      "ificate": 8941,
      "VC": 8942,
      "Template": 8943,
      "Ġinfection": 8944,
      "Ġrefere": 8945,
      "Ġrating": 8946,
      "-\\": 8947,
      "ĠAut": 8948,
      "Ġnetworks": 8949,
      "AST": 8950,
      "Ġelimin": 8951,
      "bor": 8952,
      "ĠBern": 8953,
      "Ġwrit": 8954,
      "ĠFinally": 8955,
      "ĠEveryone": 8956,
      "Ġhydro": 8957,
      "taining": 8958,
      "ervlet": 8959,
      "ĠWil": 8960,
      "Ġconstructor": 8961,
      "Ġgenes": 8962,
      "Ġflying": 8963,
      "orable": 8964,
      "ĠValue": 8965,
      "Ġmagn": 8966,
      "Ġdan": 8967,
      "Ġsuggestion": 8968,
      "Ġattempts": 8969,
      ".\"\"": 8970,
      "oost": 8971,
      "Ġnegot": 8972,
      "Run": 8973,
      "Ġhopes": 8974,
      "Ã³n": 8975,
      "Ġstaying": 8976,
      "168": 8977,
      "Ġsheet": 8978,
      "inked": 8979,
      "Ġfalls": 8980,
      "exp": 8981,
      "Ġpercentage": 8982,
      ".data": 8983,
      "Ġexha": 8984,
      ".lang": 8985,
      "Ġdrunk": 8986,
      "ĠArab": 8987,
      "iece": 8988,
      "thur": 8989,
      "Ġnumerous": 8990,
      "Ġcere": 8991,
      "Menu": 8992,
      "ĠCapt": 8993,
      ".find": 8994,
      "Ġwrites": 8995,
      "Ġcriminal": 8996,
      "())Ċ": 8997,
      "Ġentries": 8998,
      "Stack": 8999,
      "Ġregret": 9000,
      "Ġregions": 9001,
      "ĠVol": 9002,
      "orse": 9003,
      "ĠIII": 9004,
      "Her": 9005,
      "oration": 9006,
      "Ġillegal": 9007,
      "ointer": 9008,
      "Ġsurvive": 9009,
      "Ġvoters": 9010,
      "unit": 9011,
      "ĠIV": 9012,
      "Ġparallel": 9013,
      "Ġul": 9014,
      "MB": 9015,
      "ĠWHERE": 9016,
      "POST": 9017,
      "ophy": 9018,
      "Ġvulner": 9019,
      "ĠBuild": 9020,
      "Ġquit": 9021,
      "Ġdreams": 9022,
      "background": 9023,
      "Ġdeeply": 9024,
      "193": 9025,
      "Ġpil": 9026,
      "around": 9027,
      "Ġsport": 9028,
      "icide": 9029,
      "Spe": 9030,
      "Ġdesktop": 9031,
      "ĠOffice": 9032,
      "Ġease": 9033,
      "Ġtransaction": 9034,
      "Ġuniform": 9035,
      "Location": 9036,
      "Ġvel": 9037,
      "Ġevolution": 9038,
      "Ġconfigure": 9039,
      "TF": 9040,
      "pending": 9041,
      "China": 9042,
      "ĠSciences": 9043,
      "Max": 9044,
      "Ġcreative": 9045,
      "atural": 9046,
      "Ġrelation": 9047,
      "Ġlimits": 9048,
      "azine": 9049,
      "ĠCR": 9050,
      "aver": 9051,
      "Ġbrill": 9052,
      "ARY": 9053,
      "ĠCard": 9054,
      "jango": 9055,
      "Most": 9056,
      "Ġdeserve": 9057,
      "};Ċ": 9058,
      "Min": 9059,
      "ĠTra": 9060,
      "orthern": 9061,
      "Ġshower": 9062,
      "Task": 9063,
      "ĠSherlock": 9064,
      "Ġargs": 9065,
      "Ġawful": 9066,
      "YS": 9067,
      "asty": 9068,
      "amn": 9069,
      "EC": 9070,
      "Ġchoo": 9071,
      "QU": 9072,
      "Ġguns": 9073,
      "ateful": 9074,
      "sche": 9075,
      "Ġdates": 9076,
      "ĠJud": 9077,
      "Would": 9078,
      "ubuntu": 9079,
      ".k": 9080,
      "uint": 9081,
      "ĠNext": 9082,
      "HTML": 9083,
      "Ġsoftly": 9084,
      "Ġformed": 9085,
      "ocus": 9086,
      "Ġprepare": 9087,
      "Ġbreathing": 9088,
      "Uh": 9089,
      "Ġmoon": 9090,
      "ĠEverything": 9091,
      "words": 9092,
      "ushes": 9093,
      "prise": 9094,
      ".sh": 9095,
      "strong": 9096,
      "emies": 9097,
      "lers": 9098,
      "Valid": 9099,
      "ĠLI": 9100,
      "Ġlegit": 9101,
      "ĠChicago": 9102,
      "Block": 9103,
      "Ġintroduce": 9104,
      "Love": 9105,
      "sk": 9106,
      "Ġconclusion": 9107,
      "Ġxmlns": 9108,
      "Ġreward": 9109,
      "Buffer": 9110,
      "Ġpiss": 9111,
      "Ġemergency": 9112,
      "Ġdeeper": 9113,
      "ĠParis": 9114,
      "Ġdirty": 9115,
      "roduction": 9116,
      "Header": 9117,
      "ĠZe": 9118,
      "Ġjer": 9119,
      "NG": 9120,
      "edy": 9121,
      "ĠUnion": 9122,
      "Ġrestaurant": 9123,
      "Ġdust": 9124,
      "ĠIF": 9125,
      "Ġgym": 9126,
      "Ġoverwhel": 9127,
      "git": 9128,
      "Ġ}čĊ": 9129,
      "Ġowned": 9130,
      "ĠMinister": 9131,
      "ĠDemocrats": 9132,
      "Ġshipping": 9133,
      "Provider": 9134,
      "}.": 9135,
      "anish": 9136,
      "ĠRepublicans": 9137,
      "good": 9138,
      "mate": 9139,
      "Ġcurve": 9140,
      "Ġisland": 9141,
      "Ġemphas": 9142,
      "uddy": 9143,
      "(_": 9144,
      "Ġles": 9145,
      "Ġbackup": 9146,
      "âķĲ": 9147,
      "Ġmilk": 9148,
      "(*": 9149,
      "Ġremained": 9150,
      "Ġabsor": 9151,
      ".pro": 9152,
      "ĠSorry": 9153,
      "ĠMuslim": 9154,
      "ĠTy": 9155,
      "ĠStart": 9156,
      "news": 9157,
      "ĠÐ¸": 9158,
      "Ġabandon": 9159,
      "ĠÐ½": 9160,
      "104": 9161,
      "ĠBell": 9162,
      "aning": 9163,
      "ĠIr": 9164,
      "Ġscar": 9165,
      "ĠAdam": 9166,
      "ĠYet": 9167,
      "Ġmuscle": 9168,
      "oral": 9169,
      "ulture": 9170,
      "Ġgaze": 9171,
      "ĠJO": 9172,
      "CI": 9173,
      "Ġdeveloper": 9174,
      "Ġshots": 9175,
      "Ġliquid": 9176,
      "rim": 9177,
      "icking": 9178,
      "Ġtranslation": 9179,
      "Ġreprodu": 9180,
      "player": 9181,
      "Ġvictory": 9182,
      ".....": 9183,
      "Sl": 9184,
      "ĠCreate": 9185,
      "iser": 9186,
      "lled": 9187,
      "Ġvary": 9188,
      "Ġbin": 9189,
      "Ġincredible": 9190,
      "Ġhabit": 9191,
      "ĠExt": 9192,
      "Ġpy": 9193,
      "Ġrelief": 9194,
      "Ġnamespace": 9195,
      "MENT": 9196,
      "Ġhesit": 9197,
      "ï¼Į": 9198,
      "ĠÂ·": 9199,
      "Ġsugar": 9200,
      "Ġsegment": 9201,
      "Ġpra": 9202,
      "Ġexposed": 9203,
      "oolean": 9204,
      "ĠMatt": 9205,
      "Ġdepression": 9206,
      "Ġimprovement": 9207,
      "Ġ''": 9208,
      "_v": 9209,
      "mo": 9210,
      "360": 9211,
      "enced": 9212,
      "Ġuncomfort": 9213,
      "ĠCOVID": 9214,
      "Ġcalculate": 9215,
      "Ġdedicated": 9216,
      "Ġdelivered": 9217,
      "Ġthorough": 9218,
      "ĠWall": 9219,
      "Ġignored": 9220,
      "Ġinitially": 9221,
      "Ġassumed": 9222,
      "Ġrig": 9223,
      "Ġpractices": 9224,
      "Ġdelight": 9225,
      "Ġgall": 9226,
      "Ġcombat": 9227,
      "Ġunus": 9228,
      "uid": 9229,
      "ĠJeff": 9230,
      "Ġprofession": 9231,
      "apters": 9232,
      "amental": 9233,
      "ĠAuthor": 9234,
      "Ġtack": 9235,
      "issues": 9236,
      ")=": 9237,
      "Ġmanufacture": 9238,
      "Ġfabric": 9239,
      "Ġsne": 9240,
      "had": 9241,
      "Ġslide": 9242,
      "ĠCurrent": 9243,
      "-line": 9244,
      "ĠProgram": 9245,
      "-out": 9246,
      "Ġtwenty": 9247,
      "ĠGrand": 9248,
      "Pol": 9249,
      "Android": 9250,
      "Ġexpectations": 9251,
      "Ġriver": 9252,
      "Ġstepped": 9253,
      "(const": 9254,
      "Ġdeclared": 9255,
      "ĠLee": 9256,
      "Ġgeneric": 9257,
      "ĠNA": 9258,
      "Ġspark": 9259,
      "ĠWE": 9260,
      "vy": 9261,
      "çļ": 9262,
      "Ġsquee": 9263,
      "mates": 9264,
      "normal": 9265,
      "ibilities": 9266,
      "ĠSn": 9267,
      "ĠWestern": 9268,
      "Ġreform": 9269,
      "?!": 9270,
      "-size": 9271,
      "Ġstreets": 9272,
      "infty": 9273,
      "OUR": 9274,
      "ĠRoad": 9275,
      "ĠRyan": 9276,
      "./": 9277,
      "Ġrarely": 9278,
      "Ġelev": 9279,
      "ĠDark": 9280,
      "OO": 9281,
      "Ġunion": 9282,
      "Ġadop": 9283,
      "_get": 9284,
      "Height": 9285,
      "Ġapproved": 9286,
      "Ġassigned": 9287,
      "Ġsmiling": 9288,
      "fox": 9289,
      "+\\": 9290,
      "Ġcandidates": 9291,
      "Ġduty": 9292,
      "Ġphp": 9293,
      "vents": 9294,
      "Ġsake": 9295,
      "Function": 9296,
      "Ġscreens": 9297,
      "ruption": 9298,
      "Ġsuffering": 9299,
      "lections": 9300,
      "Ġcollabor": 9301,
      "ĠFlorida": 9302,
      "Ġneighborhood": 9303,
      "Ġcarbon": 9304,
      "enger": 9305,
      "Ġredirect": 9306,
      "BE": 9307,
      "Ġ$$": 9308,
      "ĠKn": 9309,
      "Ġmistakes": 9310,
      "Wait": 9311,
      "erer": 9312,
      "Ġwrap": 9313,
      "Ġaward": 9314,
      "uten": 9315,
      "112": 9316,
      "ĠSecurity": 9317,
      "Ġfantasy": 9318,
      "-related": 9319,
      "elf": 9320,
      "Ġresc": 9321,
      "ĠVersion": 9322,
      "INK": 9323,
      "Ġopposed": 9324,
      "ĠIE": 9325,
      "Ġrecovery": 9326,
      "ĠHaw": 9327,
      "match": 9328,
      "Ġstared": 9329,
      "Ġcream": 9330,
      "çļĦ": 9331,
      "Ġintelligence": 9332,
      "ĠMartin": 9333,
      "omed": 9334,
      "Ġ-->Ċ": 9335,
      "NC": 9336,
      "hance": 9337,
      "Ġloving": 9338,
      "-be": 9339,
      "romise": 9340,
      "Ġlocations": 9341,
      "OCK": 9342,
      "âĶĢâĶĢ": 9343,
      "ĠCarol": 9344,
      "Ġdollar": 9345,
      "Ġsubstant": 9346,
      "Ġreverse": 9347,
      "Ġseeking": 9348,
      "ĠBur": 9349,
      "ĠTake": 9350,
      "Ġbeta": 9351,
      "Ġunw": 9352,
      "wing": 9353,
      "Ġwidely": 9354,
      "rical": 9355,
      "Ġproposal": 9356,
      "Ġupgrad": 9357,
      "ĠCHAPTER": 9358,
      "Ġinsight": 9359,
      ")čĊ": 9360,
      "orney": 9361,
      "(){Ċ": 9362,
      "ĠĊĊĊ": 9363,
      "Ġbone": 9364,
      "Ġapproaches": 9365,
      "aehy": 9366,
      "/A": 9367,
      "Range": 9368,
      "ĠTechnology": 9369,
      "null": 9370,
      "Ġmatching": 9371,
      "ĠCompany": 9372,
      "ĠNor": 9373,
      "Ġcarrying": 9374,
      "ĠModel": 9375,
      "Items": 9376,
      "necess": 9377,
      "Oper": 9378,
      "ĠJer": 9379,
      "ione": 9380,
      "ko": 9381,
      "AAAA": 9382,
      "El": 9383,
      "Ġquietly": 9384,
      "Ġpriority": 9385,
      "Ġrecording": 9386,
      "initely": 9387,
      "Ġacts": 9388,
      "sqrt": 9389,
      "ĨĴ": 9390,
      "ĠRon": 9391,
      "agraph": 9392,
      "Ġ$(\"": 9393,
      "Ġrum": 9394,
      "Ġtroub": 9395,
      "Ġain": 9396,
      "command": 9397,
      "Ġknife": 9398,
      "Ġchart": 9399,
      "ensed": 9400,
      "Ġvaluable": 9401,
      "Ġham": 9402,
      "Second": 9403,
      "Ġadmitted": 9404,
      "Ġmic": 9405,
      "ĠGNU": 9406,
      "Ġreduction": 9407,
      "ĠStand": 9408,
      "orp": 9409,
      "Dis": 9410,
      "--Ċ": 9411,
      "Ġflood": 9412,
      "ĠJose": 9413,
      ">,": 9414,
      "aron": 9415,
      "Ġestimated": 9416,
      "dk": 9417,
      "Ġguilty": 9418,
      "Ġinvestors": 9419,
      "Ġconcentration": 9420,
      "Ġghost": 9421,
      "edef": 9422,
      "Ġsalt": 9423,
      "udo": 9424,
      "ĠEDIT": 9425,
      "Ġshame": 9426,
      "ĠReal": 9427,
      ".ĊĊĊĊĊ": 9428,
      "posed": 9429,
      "Ġshel": 9430,
      "vector": 9431,
      "Ġclosely": 9432,
      "Title": 9433,
      "Ġrepresentation": 9434,
      "Ġstrike": 9435,
      "spe": 9436,
      "Ġatmosp": 9437,
      "display": 9438,
      "Ġapproximately": 9439,
      "ĠNE": 9440,
      "Ġbesides": 9441,
      "Panel": 9442,
      "sters": 9443,
      "ĠReturn": 9444,
      "cipl": 9445,
      "Ġsacr": 9446,
      "------------": 9447,
      "wiki": 9448,
      "Ġsweat": 9449,
      "ĠLuc": 9450,
      "Ġcontained": 9451,
      "ĠFort": 9452,
      "Ġpolitic": 9453,
      "ĠKeith": 9454,
      "ĠER": 9455,
      "Ġfruit": 9456,
      "fol": 9457,
      "Ġrect": 9458,
      "Ġsolved": 9459,
      "Ġhence": 9460,
      "900": 9461,
      "Ok": 9462,
      "angers": 9463,
      ".spring": 9464,
      "ffff": 9465,
      "Ġaid": 9466,
      "agger": 9467,
      "Ġexecution": 9468,
[...]
