{
  "version": "1.0",
  "truncation": null,
  "padding": null,
  "added_tokens": [
    {
      "id": 0,
      "content": "<|begin_of_text|>",
      "single_word": false,
      "lstrip": false,
      "rstrip": false,
      "normalized": false,
      "special": true
    },
    {
      "id": 1,
      "content": "<|end_of_text|>",
      "single_word": false,
      "lstrip": false,
      "rstrip": false,
      "normalized": false,
      "special": true
    },
    {
      "id": 2,
      "content": "<|reserved_special_token_0|>",
      "single_word": false,
      "lstrip": false,
      "rstrip": false,
      "normalized": false,
      "special": true
    },
    {
      "id": 3,
      "content": "<|reserved_special_token_1|>",
      "single_word": false,
      "lstrip": false,
      "rstrip": false,
      "normalized": false,
      "special": true
    },
    {
      "id": 4,
      "content": "<|reserved_special_token_2|>",
      "single_word": false,
      "lstrip": false,
      "rstrip": false,
      "normalized": false,
      "special": true
    },
    {
      "id": 5,
      "content": "<|reserved_special_token_3|>",
      "single_word": false,
      "lstrip": false,
      "rstrip": false,
      "normalized": false,
      "special": true
    },
    {
      "id": 6,
      "content": "<|start_header_id|>",
      "single_word": false,
      "lstrip": false,
      "rstrip": false,
      "normalized": false,
      "special": true
    },
    {
      "id": 7,
      "content": "<|end_header_id|>",
      "single_word": false,
      "lstrip": false,
      "rstrip": false,
      "normalized": false,
      "special": true
    },
    {
      "id": 8,
      "content": "<|reserved_special_token_4|>",
      "single_word": false,
      "lstrip": false,
      "rstrip": false,
      "normalized": false,
      "special": true
    },
    {
      "id": 9,
      "content": "<|eot_id|>",
      "single_word": false,
      "lstrip": false,
      "rstrip": false,
      "normalized": false,
      "special": true
    },
    {
      "id": 10,
      "content": "<|reserved_special_token_5|>",
      "single_word": false,
      "lstrip": false,
      "rstrip": false,
      "normalized": false,
      "special": true
    },
    {
      "id": 11,
      "content": "<|reserved_special_token_6|>",
      "single_word": false,
      "lstrip": false,
      "rstrip": false,
      "normalized": false,
      "special": true
    },
    {
      "id": 12,
      "content": "<|reserved_special_token_7|>",
      "single_word": false,
      "lstrip": false,
      "rstrip": false,
      "normalized": false,
      "special": true
    },
    {
      "id": 13,
      "content": "<|reserved_special_token_8|>",
      "single_word": false,
      "lstrip": false,
      "rstrip": false,
      "normalized": false,
      "special": true
    },
    {
      "id": 14,
      "content": "<|reserved_special_token_9|>",
      "single_word": false,
      "lstrip": false,
      "rstrip": false,
      "normalized": false,
      "special": true
    },
    {
      "id": 15,
      "content": "<|reserved_special_token_10|>",
      "single_word": false,
      "lstrip": false,
      "rstrip": false,
      "normalized": false,
      "special": true
    },
    {
      "id": 16,
      "content": "<|reserved_special_token_11|>",
      "single_word": false,
      "lstrip": false,
      "rstrip": false,
      "normalized": false,
      "special": true
    },
    {
      "id": 17,
      "content": "<|reserved_special_token_12|>",
      "single_word": false,
      "lstrip": false,
      "rstrip": false,
      "normalized": false,
      "special": true
    },
    {
      "id": 18,
      "content": "<|reserved_special_token_13|>",
      "single_word": false,
      "lstrip": false,
      "rstrip": false,
      "normalized": false,
      "special": true
    },
    {
      "id": 19,
      "content": "<|reserved_special_token_14|>",
      "single_word": false,
      "lstrip": false,
      "rstrip": false,
      "normalized": false,
      "special": true
    },
    {
      "id": 20,
      "content": "<|reserved_special_token_15|>",
      "single_word": false,
      "lstrip": false,
      "rstrip": false,
      "normalized": false,
      "special": true
    },
    {
      "id": 21,
      "content": "<|reserved_special_token_16|>",
      "single_word": false,
      "lstrip": false,
      "rstrip": false,
      "normalized": false,
      "special": true
    },
    {
      "id": 22,
      "content": "<|reserved_special_token_17|>",
      "single_word": false,
      "lstrip": false,
      "rstrip": false,
      "normalized": false,
      "special": true
    },
    {
      "id": 23,
      "content": "<|reserved_special_token_18|>",
      "single_word": false,
      "lstrip": false,
      "rstrip": false,
      "normalized": false,
      "special": true
    },
    {
      "id": 24,
      "content": "<|reserved_special_token_19|>",
      "single_word": false,
      "lstrip": false,
      "rstrip": false,
      "normalized": false,
      "special": true
    },
    {
      "id": 25,
      "content": "<|reserved_special_token_20|>",
      "single_word": false,
      "lstrip": false,
      "rstrip": false,
      "normalized": false,
      "special": true
    },
    {
      "id": 26,
      "content": "<|reserved_special_token_21|>",
      "single_word": false,
      "lstrip": false,
      "rstrip": false,
      "normalized": false,
      "special": true
    },
    {
      "id": 27,
      "content": "<|reserved_special_token_22|>",
      "single_word": false,
      "lstrip": false,
      "rstrip": false,
      "normalized": false,
      "special": true
    },
    {
      "id": 28,
      "content": "<|reserved_special_token_23|>",
      "single_word": false,
      "lstrip": false,
      "rstrip": false,
      "normalized": false,
      "special": true
    },
    {
      "id": 29,
      "content": "<|reserved_special_token_24|>",
      "single_word": false,
      "lstrip": false,
      "rstrip": false,
      "normalized": false,
      "special": true
    },
    {
      "id": 30,
      "content": "<|reserved_special_token_25|>",
      "single_word": false,
      "lstrip": false,
      "rstrip": false,
      "normalized": false,
      "special": true
    },
    {
      "id": 31,
      "content": "<|reserved_special_token_26|>",
      "single_word": false,
      "lstrip": false,
      "rstrip": false,
      "normalized": false,
      "special": true
    },
    {
      "id": 32,
      "content": "<|reserved_special_token_27|>",
      "single_word": false,
      "lstrip": false,
      "rstrip": false,
      "normalized": false,
      "special": true
    },
    {
      "id": 33,
      "content": "<|reserved_special_token_28|>",
      "single_word": false,
      "lstrip": false,
      "rstrip": false,
      "normalized": false,
      "special": true
    },
    {
      "id": 34,
      "content": "<|reserved_special_token_29|>",
      "single_word": false,
      "lstrip": false,
      "rstrip": false,
      "normalized": false,
      "special": true
    },
    {
      "id": 35,
      "content": "<|reserved_special_token_30|>",
      "single_word": false,
      "lstrip": false,
      "rstrip": false,
      "normalized": false,
      "special": true
    },
    {
      "id": 36,
      "content": "<|reserved_special_token_31|>",
      "single_word": false,
      "lstrip": false,
      "rstrip": false,
      "normalized": false,
      "special": true
    },
    {
      "id": 37,
      "content": "<|reserved_special_token_32|>",
      "single_word": false,
      "lstrip": false,
      "rstrip": false,
      "normalized": false,
      "special": true
    },
    {
      "id": 38,
      "content": "<|reserved_special_token_33|>",
      "single_word": false,
      "lstrip": false,
      "rstrip": false,
      "normalized": false,
      "special": true
    },
    {
      "id": 39,
      "content": "<|reserved_special_token_34|>",
      "single_word": false,
      "lstrip": false,
      "rstrip": false,
      "normalized": false,
      "special": true
    },
    {
      "id": 40,
      "content": "<|reserved_special_token_35|>",
      "single_word": false,
      "lstrip": false,
      "rstrip": false,
      "normalized": false,
      "special": true
    },
    {
      "id": 41,
      "content": "<|reserved_special_token_36|>",
      "single_word": false,
      "lstrip": false,
      "rstrip": false,
      "normalized": false,
      "special": true
    },
    {
      "id": 42,
      "content": "<|reserved_special_token_37|>",
      "single_word": false,
      "lstrip": false,
      "rstrip": false,
      "normalized": false,
      "special": true
    },
    {
      "id": 43,
      "content": "<|reserved_special_token_38|>",
      "single_word": false,
      "lstrip": false,
      "rstrip": false,
      "normalized": false,
      "special": true
    },
    {
      "id": 44,
      "content": "<|reserved_special_token_39|>",
      "single_word": false,
      "lstrip": false,
      "rstrip": false,
      "normalized": false,
      "special": true
    },
    {
      "id": 45,
      "content": "<|reserved_special_token_40|>",
      "single_word": false,
      "lstrip": false,
      "rstrip": false,
      "normalized": false,
      "special": true
    },
    {
      "id": 46,
      "content": "<|reserved_special_token_41|>",
      "single_word": false,
      "lstrip": false,
      "rstrip": false,
      "normalized": false,
      "special": true
    },
    {
      "id": 47,
      "content": "<|reserved_special_token_42|>",
      "single_word": false,
      "lstrip": false,
      "rstrip": false,
      "normalized": false,
      "special": true
    },
    {
      "id": 48,
      "content": "<|reserved_special_token_43|>",
      "single_word": false,
      "lstrip": false,
      "rstrip": false,
      "normalized": false,
      "special": true
    },
    {
      "id": 49,
      "content": "<|reserved_special_token_44|>",
      "single_word": false,
      "lstrip": false,
      "rstrip": false,
      "normalized": false,
      "special": true
    },
    {
      "id": 50,
      "content": "<|reserved_special_token_45|>",
      "single_word": false,
      "lstrip": false,
      "rstrip": false,
      "normalized": false,
      "special": true
    },
    {
      "id": 51,
      "content": "<|reserved_special_token_46|>",
      "single_word": false,
      "lstrip": false,
      "rstrip": false,
      "normalized": false,
      "special": true
    },
    {
      "id": 52,
      "content": "<|reserved_special_token_47|>",
      "single_word": false,
      "lstrip": false,
      "rstrip": false,
      "normalized": false,
      "special": true
    },
    {
      "id": 53,
      "content": "<|reserved_special_token_48|>",
      "single_word": false,
      "lstrip": false,
      "rstrip": false,
      "normalized": false,
      "special": true
    },
    {
      "id": 54,
      "content": "<|reserved_special_token_49|>",
      "single_word": false,
      "lstrip": false,
      "rstrip": false,
      "normalized": false,
      "special": true
    },
    {
      "id": 55,
      "content": "<|reserved_special_token_50|>",
      "single_word": false,
      "lstrip": false,
      "rstrip": false,
      "normalized": false,
      "special": true
    },
    {
      "id": 56,
      "content": "<|reserved_special_token_51|>",
      "single_word": false,
      "lstrip": false,
      "rstrip": false,
      "normalized": false,
      "special": true
    },
    {
      "id": 57,
      "content": "<|reserved_special_token_52|>",
      "single_word": false,
      "lstrip": false,
      "rstrip": false,
      "normalized": false,
      "special": true
    },
    {
      "id": 58,
      "content": "<|reserved_special_token_53|>",
      "single_word": false,
      "lstrip": false,
      "rstrip": false,
      "normalized": false,
      "special": true
    },
    {
      "id": 59,
      "content": "<|reserved_special_token_54|>",
      "single_word": false,
      "lstrip": false,
      "rstrip": false,
      "normalized": false,
      "special": true
    },
    {
      "id": 60,
      "content": "<|reserved_special_token_55|>",
      "single_word": false,
      "lstrip": false,
      "rstrip": false,
      "normalized": false,
      "special": true
    },
    {
      "id": 61,
      "content": "<|reserved_special_token_56|>",
      "single_word": false,
      "lstrip": false,
      "rstrip": false,
      "normalized": false,
      "special": true
    },
    {
      "id": 62,
      "content": "<|reserved_special_token_57|>",
      "single_word": false,
      "lstrip": false,
      "rstrip": false,
      "normalized": false,
      "special": true
    },
    {
      "id": 63,
      "content": "<|reserved_special_token_58|>",
      "single_word": false,
      "lstrip": false,
      "rstrip": false,
      "normalized": false,
      "special": true
    },
    {
      "id": 64,
      "content": "<|reserved_special_token_59|>",
      "single_word": false,
      "lstrip": false,
      "rstrip": false,
      "normalized": false,
      "special": true
    },
    {
      "id": 65,
      "content": "<|reserved_special_token_60|>",
      "single_word": false,
      "lstrip": false,
      "rstrip": false,
      "normalized": false,
      "special": true
    },
    {
      "id": 66,
      "content": "<|reserved_special_token_61|>",
      "single_word": false,
      "lstrip": false,
      "rstrip": false,
      "normalized": false,
      "special": true
    },
    {
      "id": 67,
      "content": "<|reserved_special_token_62|>",
      "single_word": false,
      "lstrip": false,
      "rstrip": false,
      "normalized": false,
      "special": true
    },
    {
      "id": 68,
      "content": "<|reserved_special_token_63|>",
      "single_word": false,
      "lstrip": false,
      "rstrip": false,
      "normalized": false,
      "special": true
    },
    {
      "id": 69,
      "content": "<|reserved_special_token_64|>",
      "single_word": false,
      "lstrip": false,
      "rstrip": false,
      "normalized": false,
      "special": true
    },
    {
      "id": 70,
      "content": "<|reserved_special_token_65|>",
      "single_word": false,
      "lstrip": false,
      "rstrip": false,
      "normalized": false,
      "special": true
    },
    {
      "id": 71,
      "content": "<|reserved_special_token_66|>",
      "single_word": false,
      "lstrip": false,
      "rstrip": false,
      "normalized": false,
      "special": true
    },
    {
      "id": 72,
      "content": "<|reserved_special_token_67|>",
      "single_word": false,
      "lstrip": false,
      "rstrip": false,
      "normalized": false,
      "special": true
    },
    {
      "id": 73,
      "content": "<|reserved_special_token_68|>",
      "single_word": false,
      "lstrip": false,
      "rstrip": false,
      "normalized": false,
      "special": true
    },
    {
      "id": 74,
      "content": "<|reserved_special_token_69|>",
      "single_word": false,
      "lstrip": false,
      "rstrip": false,
      "normalized": false,
      "special": true
    },
    {
      "id": 75,
      "content": "<|reserved_special_token_70|>",
      "single_word": false,
      "lstrip": false,
      "rstrip": false,
      "normalized": false,
      "special": true
    },
    {
      "id": 76,
      "content": "<|reserved_special_token_71|>",
      "single_word": false,
      "lstrip": false,
      "rstrip": false,
      "normalized": false,
      "special": true
    },
    {
      "id": 77,
      "content": "<|reserved_special_token_72|>",
      "single_word": false,
      "lstrip": false,
      "rstrip": false,
      "normalized": false,
      "special": true
    },
    {
      "id": 78,
      "content": "<|reserved_special_token_73|>",
      "single_word": false,
      "lstrip": false,
      "rstrip": false,
      "normalized": false,
      "special": true
    },
    {
      "id": 79,
      "content": "<|reserved_special_token_74|>",
      "single_word": false,
      "lstrip": false,
      "rstrip": false,
      "normalized": false,
      "special": true
    },
    {
      "id": 80,
      "content": "<|reserved_special_token_75|>",
      "single_word": false,
      "lstrip": false,
      "rstrip": false,
      "normalized": false,
      "special": true
    },
    {
      "id": 81,
      "content": "<|reserved_special_token_76|>",
      "single_word": false,
      "lstrip": false,
      "rstrip": false,
      "normalized": false,
      "special": true
    },
    {
      "id": 82,
      "content": "<|reserved_special_token_77|>",
      "single_word": false,
      "lstrip": false,
      "rstrip": false,
      "normalized": false,
      "special": true
    },
    {
      "id": 83,
      "content": "<|reserved_special_token_78|>",
      "single_word": false,
      "lstrip": false,
      "rstrip": false,
      "normalized": false,
      "special": true
    },
    {
      "id": 84,
      "content": "<|reserved_special_token_79|>",
      "single_word": false,
      "lstrip": false,
      "rstrip": false,
      "normalized": false,
      "special": true
    },
    {
      "id": 85,
      "content": "<|reserved_special_token_80|>",
      "single_word": false,
      "lstrip": false,
      "rstrip": false,
      "normalized": false,
      "special": true
    },
    {
      "id": 86,
      "content": "<|reserved_special_token_81|>",
      "single_word": false,
      "lstrip": false,
      "rstrip": false,
      "normalized": false,
      "special": true
    },
    {
      "id": 87,
      "content": "<|reserved_special_token_82|>",
      "single_word": false,
      "lstrip": false,
      "rstrip": false,
      "normalized": false,
      "special": true
    },
    {
      "id": 88,
      "content": "<|reserved_special_token_83|>",
      "single_word": false,
      "lstrip": false,
      "rstrip": false,
      "normalized": false,
      "special": true
    },
    {
      "id": 89,
      "content": "<|reserved_special_token_84|>",
      "single_word": false,
      "lstrip": false,
      "rstrip": false,
      "normalized": false,
      "special": true
    },
    {
      "id": 90,
      "content": "<|reserved_special_token_85|>",
      "single_word": false,
      "lstrip": false,
      "rstrip": false,
      "normalized": false,
      "special": true
    },
    {
      "id": 91,
      "content": "<|reserved_special_token_86|>",
      "single_word": false,
      "lstrip": false,
      "rstrip": false,
      "normalized": false,
      "special": true
    },
    {
      "id": 92,
      "content": "<|reserved_special_token_87|>",
      "single_word": false,
      "lstrip": false,
      "rstrip": false,
      "normalized": false,
      "special": true
    },
    {
      "id": 93,
      "content": "<|reserved_special_token_88|>",
      "single_word": false,
      "lstrip": false,
      "rstrip": false,
      "normalized": false,
      "special": true
    },
    {
      "id": 94,
      "content": "<|reserved_special_token_89|>",
      "single_word": false,
      "lstrip": false,
      "rstrip": false,
      "normalized": false,
      "special": true
    },
    {
      "id": 95,
      "content": "<|reserved_special_token_90|>",
      "single_word": false,
      "lstrip": false,
      "rstrip": false,
      "normalized": false,
      "special": true
    },
    {
      "id": 96,
      "content": "<|reserved_special_token_91|>",
      "single_word": false,
      "lstrip": false,
      "rstrip": false,
      "normalized": false,
      "special": true
    },
    {
      "id": 97,
      "content": "<|reserved_special_token_92|>",
      "single_word": false,
      "lstrip": false,
      "rstrip": false,
      "normalized": false,
      "special": true
    },
    {
      "id": 98,
      "content": "<|reserved_special_token_93|>",
      "single_word": false,
      "lstrip": false,
      "rstrip": false,
      "normalized": false,
      "special": true
    },
    {
      "id": 99,
      "content": "<|reserved_special_token_94|>",
      "single_word": false,
      "lstrip": false,
      "rstrip": false,
      "normalized": false,
      "special": true
    },
    {
      "id": 100,
      "content": "<|reserved_special_token_95|>",
      "single_word": false,
      "lstrip": false,
      "rstrip": false,
      "normalized": false,
      "special": true
    },
    {
      "id": 101,
      "content": "<|reserved_special_token_96|>",
      "single_word": false,
      "lstrip": false,
      "rstrip": false,
      "normalized": false,
      "special": true
    },
    {
      "id": 102,
      "content": "<|reserved_special_token_97|>",
      "single_word": false,
      "lstrip": false,
      "rstrip": false,
      "normalized": false,
      "special": true
    },
    {
      "id": 103,
      "content": "<|reserved_special_token_98|>",
      "single_word": false,
      "lstrip": false,
      "rstrip": false,
      "normalized": false,
      "special": true
    },
    {
      "id": 104,
      "content": "<|reserved_special_token_99|>",
      "single_word": false,
      "lstrip": false,
      "rstrip": false,
      "normalized": false,
      "special": true
    },
    {
      "id": 105,
      "content": "<|reserved_special_token_100|>",
      "single_word": false,
      "lstrip": false,
      "rstrip": false,
      "normalized": false,
      "special": true
    },
    {
      "id": 106,
      "content": "<|reserved_special_token_101|>",
      "single_word": false,
      "lstrip": false,
      "rstrip": false,
      "normalized": false,
      "special": true
    },
    {
      "id": 107,
      "content": "<|reserved_special_token_102|>",
      "single_word": false,
      "lstrip": false,
      "rstrip": false,
      "normalized": false,
      "special": true
    },
    {
      "id": 108,
      "content": "<|reserved_special_token_103|>",
      "single_word": false,
      "lstrip": false,
      "rstrip": false,
      "normalized": false,
      "special": true
    },
    {
      "id": 109,
      "content": "<|reserved_special_token_104|>",
      "single_word": false,
      "lstrip": false,
      "rstrip": false,
      "normalized": false,
      "special": true
    },
    {
      "id": 110,
      "content": "<|reserved_special_token_105|>",
      "single_word": false,
      "lstrip": false,
      "rstrip": false,
      "normalized": false,
      "special": true
    },
    {
      "id": 111,
      "content": "<|reserved_special_token_106|>",
      "single_word": false,
      "lstrip": false,
      "rstrip": false,
      "normalized": false,
      "special": true
    },
    {
      "id": 112,
      "content": "<|reserved_special_token_107|>",
      "single_word": false,
      "lstrip": false,
      "rstrip": false,
      "normalized": false,
      "special": true
    },
    {
      "id": 113,
      "content": "<|reserved_special_token_108|>",
      "single_word": false,
      "lstrip": false,
      "rstrip": false,
      "normalized": false,
      "special": true
    },
    {
      "id": 114,
      "content": "<|reserved_special_token_109|>",
      "single_word": false,
      "lstrip": false,
      "rstrip": false,
      "normalized": false,
      "special": true
    },
    {
      "id": 115,
      "content": "<|reserved_special_token_110|>",
      "single_word": false,
      "lstrip": false,
      "rstrip": false,
      "normalized": false,
      "special": true
    },
    {
      "id": 116,
      "content": "<|reserved_special_token_111|>",
      "single_word": false,
      "lstrip": false,
      "rstrip": false,
      "normalized": false,
      "special": true
    },
    {
      "id": 117,
      "content": "<|reserved_special_token_112|>",
      "single_word": false,
      "lstrip": false,
      "rstrip": false,
      "normalized": false,
      "special": true
    },
    {
      "id": 118,
      "content": "<|reserved_special_token_113|>",
      "single_word": false,
      "lstrip": false,
      "rstrip": false,
      "normalized": false,
      "special": true
    },
    {
      "id": 119,
      "content": "<|reserved_special_token_114|>",
      "single_word": false,
      "lstrip": false,
      "rstrip": false,
      "normalized": false,
      "special": true
    },
    {
      "id": 120,
      "content": "<|reserved_special_token_115|>",
      "single_word": false,
      "lstrip": false,
      "rstrip": false,
      "normalized": false,
      "special": true
    },
    {
      "id": 121,
      "content": "<|reserved_special_token_116|>",
      "single_word": false,
      "lstrip": false,
      "rstrip": false,
      "normalized": false,
      "special": true
    },
    {
      "id": 122,
      "content": "<|reserved_special_token_117|>",
      "single_word": false,
      "lstrip": false,
      "rstrip": false,
      "normalized": false,
      "special": true
    },
    {
      "id": 123,
      "content": "<|reserved_special_token_118|>",
      "single_word": false,
      "lstrip": false,
      "rstrip": false,
      "normalized": false,
      "special": true
    },
    {
      "id": 124,
      "content": "<|reserved_special_token_119|>",
      "single_word": false,
      "lstrip": false,
      "rstrip": false,
      "normalized": false,
      "special": true
    },
    {
      "id": 125,
      "content": "<|reserved_special_token_120|>",
      "single_word": false,
      "lstrip": false,
      "rstrip": false,
      "normalized": false,
      "special": true
    },
    {
      "id": 126,
      "content": "<|reserved_special_token_121|>",
      "single_word": false,
      "lstrip": false,
      "rstrip": false,
      "normalized": false,
      "special": true
    },
    {
      "id": 127,
      "content": "<|reserved_special_token_122|>",
      "single_word": false,
      "lstrip": false,
      "rstrip": false,
      "normalized": false,
      "special": true
    },
    {
      "id": 128,
      "content": "<|reserved_special_token_123|>",
      "single_word": false,
      "lstrip": false,
      "rstrip": false,
      "normalized": false,
      "special": true
    },
    {
      "id": 129,
      "content": "<|reserved_special_token_124|>",
      "single_word": false,
      "lstrip": false,
      "rstrip": false,
      "normalized": false,
      "special": true
    },
    {
      "id": 130,
      "content": "<|reserved_special_token_125|>",
      "single_word": false,
      "lstrip": false,
      "rstrip": false,
      "normalized": false,
      "special": true
    },
    {
      "id": 131,
      "content": "<|reserved_special_token_126|>",
      "single_word": false,
      "lstrip": false,
      "rstrip": false,
      "normalized": false,
      "special": true
    },
    {
      "id": 132,
      "content": "<|reserved_special_token_127|>",
      "single_word": false,
      "lstrip": false,
      "rstrip": false,
      "normalized": false,
      "special": true
    },
    {
      "id": 133,
      "content": "<|reserved_special_token_128|>",
      "single_word": false,
      "lstrip": false,
      "rstrip": false,
      "normalized": false,
      "special": true
    },
    {
      "id": 134,
      "content": "<|reserved_special_token_129|>",
      "single_word": false,
      "lstrip": false,
      "rstrip": false,
      "normalized": false,
      "special": true
    },
    {
      "id": 135,
      "content": "<|reserved_special_token_130|>",
      "single_word": false,
      "lstrip": false,
      "rstrip": false,
      "normalized": false,
      "special": true
    },
    {
      "id": 136,
      "content": "<|reserved_special_token_131|>",
      "single_word": false,
      "lstrip": false,
      "rstrip": false,
      "normalized": false,
      "special": true
    },
    {
      "id": 137,
      "content": "<|reserved_special_token_132|>",
      "single_word": false,
      "lstrip": false,
      "rstrip": false,
      "normalized": false,
      "special": true
    },
    {
      "id": 138,
      "content": "<|reserved_special_token_133|>",
      "single_word": false,
      "lstrip": false,
      "rstrip": false,
      "normalized": false,
      "special": true
    },
    {
      "id": 139,
      "content": "<|reserved_special_token_134|>",
      "single_word": false,
      "lstrip": false,
      "rstrip": false,
      "normalized": false,
      "special": true
    },
    {
      "id": 140,
      "content": "<|reserved_special_token_135|>",
      "single_word": false,
      "lstrip": false,
      "rstrip": false,
      "normalized": false,
      "special": true
    },
    {
      "id": 141,
      "content": "<|reserved_special_token_136|>",
      "single_word": false,
      "lstrip": false,
      "rstrip": false,
      "normalized": false,
      "special": true
    },
    {
      "id": 142,
      "content": "<|reserved_special_token_137|>",
      "single_word": false,
      "lstrip": false,
      "rstrip": false,
      "normalized": false,
      "special": true
    },
    {
      "id": 143,
      "content": "<|reserved_special_token_138|>",
      "single_word": false,
      "lstrip": false,
      "rstrip": false,
      "normalized": false,
      "special": true
    },
    {
      "id": 144,
      "content": "<|reserved_special_token_139|>",
      "single_word": false,
      "lstrip": false,
      "rstrip": false,
      "normalized": false,
      "special": true
    },
    {
      "id": 145,
      "content": "<|reserved_special_token_140|>",
      "single_word": false,
      "lstrip": false,
      "rstrip": false,
      "normalized": false,
      "special": true
    },
    {
      "id": 146,
      "content": "<|reserved_special_token_141|>",
      "single_word": false,
      "lstrip": false,
      "rstrip": false,
      "normalized": false,
      "special": true
    },
    {
      "id": 147,
      "content": "<|reserved_special_token_142|>",
      "single_word": false,
      "lstrip": false,
      "rstrip": false,
      "normalized": false,
      "special": true
    },
    {
      "id": 148,
      "content": "<|reserved_special_token_143|>",
      "single_word": false,
      "lstrip": false,
      "rstrip": false,
      "normalized": false,
      "special": true
    },
    {
      "id": 149,
      "content": "<|reserved_special_token_144|>",
      "single_word": false,
      "lstrip": false,
      "rstrip": false,
      "normalized": false,
      "special": true
    },
    {
      "id": 150,
      "content": "<|reserved_special_token_145|>",
      "single_word": false,
      "lstrip": false,
      "rstrip": false,
      "normalized": false,
      "special": true
    },
    {
      "id": 151,
      "content": "<|reserved_special_token_146|>",
      "single_word": false,
      "lstrip": false,
      "rstrip": false,
      "normalized": false,
      "special": true
    },
    {
      "id": 152,
      "content": "<|reserved_special_token_147|>",
      "single_word": false,
      "lstrip": false,
      "rstrip": false,
      "normalized": false,
      "special": true
    },
    {
      "id": 153,
      "content": "<|reserved_special_token_148|>",
      "single_word": false,
      "lstrip": false,
      "rstrip": false,
      "normalized": false,
      "special": true
    },
    {
      "id": 154,
      "content": "<|reserved_special_token_149|>",
      "single_word": false,
      "lstrip": false,
      "rstrip": false,
      "normalized": false,
      "special": true
    },
    {
      "id": 155,
      "content": "<|reserved_special_token_150|>",
      "single_word": false,
      "lstrip": false,
      "rstrip": false,
      "normalized": false,
      "special": true
    },
    {
      "id": 156,
      "content": "<|reserved_special_token_151|>",
      "single_word": false,
      "lstrip": false,
      "rstrip": false,
      "normalized": false,
      "special": true
    },
    {
      "id": 157,
      "content": "<|reserved_special_token_152|>",
      "single_word": false,
      "lstrip": false,
      "rstrip": false,
      "normalized": false,
      "special": true
    },
    {
      "id": 158,
      "content": "<|reserved_special_token_153|>",
      "single_word": false,
      "lstrip": false,
      "rstrip": false,
      "normalized": false,
      "special": true
    },
    {
      "id": 159,
      "content": "<|reserved_special_token_154|>",
      "single_word": false,
      "lstrip": false,
      "rstrip": false,
      "normalized": false,
      "special": true
    },
    {
      "id": 160,
      "content": "<|reserved_special_token_155|>",
      "single_word": false,
      "lstrip": false,
      "rstrip": false,
      "normalized": false,
      "special": true
    },
    {
      "id": 161,
      "content": "<|reserved_special_token_156|>",
      "single_word": false,
      "lstrip": false,
      "rstrip": false,
      "normalized": false,
      "special": true
    },
    {
      "id": 162,
      "content": "<|reserved_special_token_157|>",
      "single_word": false,
      "lstrip": false,
      "rstrip": false,
      "normalized": false,
      "special": true
    },
    {
      "id": 163,
      "content": "<|reserved_special_token_158|>",
      "single_word": false,
      "lstrip": false,
      "rstrip": false,
      "normalized": false,
      "special": true
    },
    {
      "id": 164,
      "content": "<|reserved_special_token_159|>",
      "single_word": false,
      "lstrip": false,
      "rstrip": false,
      "normalized": false,
      "special": true
    },
    {
      "id": 165,
      "content": "<|reserved_special_token_160|>",
      "single_word": false,
      "lstrip": false,
      "rstrip": false,
      "normalized": false,
      "special": true
    },
    {
      "id": 166,
      "content": "<|reserved_special_token_161|>",
      "single_word": false,
      "lstrip": false,
      "rstrip": false,
      "normalized": false,
      "special": true
    },
    {
      "id": 167,
      "content": "<|reserved_special_token_162|>",
      "single_word": false,
      "lstrip": false,
      "rstrip": false,
      "normalized": false,
      "special": true
    },
    {
      "id": 168,
      "content": "<|reserved_special_token_163|>",
      "single_word": false,
      "lstrip": false,
      "rstrip": false,
      "normalized": false,
      "special": true
    },
    {
      "id": 169,
      "content": "<|reserved_special_token_164|>",
      "single_word": false,
      "lstrip": false,
      "rstrip": false,
      "normalized": false,
      "special": true
    },
    {
      "id": 170,
      "content": "<|reserved_special_token_165|>",
      "single_word": false,
      "lstrip": false,
      "rstrip": false,
      "normalized": false,
      "special": true
    },
    {
      "id": 171,
      "content": "<|reserved_special_token_166|>",
      "single_word": false,
      "lstrip": false,
      "rstrip": false,
      "normalized": false,
      "special": true
    },
    {
      "id": 172,
      "content": "<|reserved_special_token_167|>",
      "single_word": false,
      "lstrip": false,
      "rstrip": false,
      "normalized": false,
      "special": true
    },
    {
      "id": 173,
      "content": "<|reserved_special_token_168|>",
      "single_word": false,
      "lstrip": false,
      "rstrip": false,
      "normalized": false,
      "special": true
    },
    {
      "id": 174,
      "content": "<|reserved_special_token_169|>",
      "single_word": false,
      "lstrip": false,
      "rstrip": false,
      "normalized": false,
      "special": true
    },
    {
      "id": 175,
      "content": "<|reserved_special_token_170|>",
      "single_word": false,
      "lstrip": false,
      "rstrip": false,
      "normalized": false,
      "special": true
    },
    {
      "id": 176,
      "content": "<|reserved_special_token_171|>",
      "single_word": false,
      "lstrip": false,
      "rstrip": false,
      "normalized": false,
      "special": true
    },
    {
      "id": 177,
      "content": "<|reserved_special_token_172|>",
      "single_word": false,
      "lstrip": false,
      "rstrip": false,
      "normalized": false,
      "special": true
    },
    {
      "id": 178,
      "content": "<|reserved_special_token_173|>",
      "single_word": false,
      "lstrip": false,
      "rstrip": false,
      "normalized": false,
      "special": true
    },
    {
      "id": 179,
      "content": "<|reserved_special_token_174|>",
      "single_word": false,
      "lstrip": false,
      "rstrip": false,
      "normalized": false,
      "special": true
    },
    {
      "id": 180,
      "content": "<|reserved_special_token_175|>",
      "single_word": false,
      "lstrip": false,
      "rstrip": false,
      "normalized": false,
      "special": true
    },
    {
      "id": 181,
      "content": "<|reserved_special_token_176|>",
      "single_word": false,
      "lstrip": false,
      "rstrip": false,
      "normalized": false,
      "special": true
    },
    {
      "id": 182,
      "content": "<|reserved_special_token_177|>",
      "single_word": false,
      "lstrip": false,
      "rstrip": false,
      "normalized": false,
      "special": true
    },
    {
      "id": 183,
      "content": "<|reserved_special_token_178|>",
      "single_word": false,
      "lstrip": false,
      "rstrip": false,
      "normalized": false,
      "special": true
    },
    {
      "id": 184,
      "content": "<|reserved_special_token_179|>",
      "single_word": false,
      "lstrip": false,
      "rstrip": false,
      "normalized": false,
      "special": true
    },
    {
      "id": 185,
      "content": "<|reserved_special_token_180|>",
      "single_word": false,
      "lstrip": false,
      "rstrip": false,
      "normalized": false,
      "special": true
    },
    {
      "id": 186,
      "content": "<|reserved_special_token_181|>",
      "single_word": false,
      "lstrip": false,
      "rstrip": false,
      "normalized": false,
      "special": true
    },
    {
      "id": 187,
      "content": "<|reserved_special_token_182|>",
      "single_word": false,
      "lstrip": false,
      "rstrip": false,
      "normalized": false,
      "special": true
    },
    {
      "id": 188,
      "content": "<|reserved_special_token_183|>",
      "single_word": false,
      "lstrip": false,
      "rstrip": false,
      "normalized": false,
      "special": true
    },
    {
      "id": 189,
      "content": "<|reserved_special_token_184|>",
      "single_word": false,
      "lstrip": false,
      "rstrip": false,
      "normalized": false,
      "special": true
    },
    {
      "id": 190,
      "content": "<|reserved_special_token_185|>",
      "single_word": false,
      "lstrip": false,
      "rstrip": false,
      "normalized": false,
      "special": true
    },
    {
      "id": 191,
      "content": "<|reserved_special_token_186|>",
      "single_word": false,
      "lstrip": false,
      "rstrip": false,
      "normalized": false,
      "special": true
    },
    {
      "id": 192,
      "content": "<|reserved_special_token_187|>",
      "single_word": false,
      "lstrip": false,
      "rstrip": false,
      "normalized": false,
      "special": true
    },
    {
      "id": 193,
      "content": "<|reserved_special_token_188|>",
      "single_word": false,
      "lstrip": false,
      "rstrip": false,
      "normalized": false,
      "special": true
    },
    {
      "id": 194,
      "content": "<|reserved_special_token_189|>",
      "single_word": false,
      "lstrip": false,
      "rstrip": false,
      "normalized": false,
      "special": true
    },
    {
      "id": 195,
      "content": "<|reserved_special_token_190|>",
      "single_word": false,
      "lstrip": false,
      "rstrip": false,
      "normalized": false,
      "special": true
    },
    {
      "id": 196,
      "content": "<|reserved_special_token_191|>",
      "single_word": false,
      "lstrip": false,
      "rstrip": false,
      "normalized": false,
      "special": true
    },
    {
      "id": 197,
      "content": "<|reserved_special_token_192|>",
      "single_word": false,
      "lstrip": false,
      "rstrip": false,
      "normalized": false,
      "special": true
    },
    {
      "id": 198,
      "content": "<|reserved_special_token_193|>",
      "single_word": false,
      "lstrip": false,
      "rstrip": false,
      "normalized": false,
      "special": true
    },
    {
      "id": 199,
      "content": "<|reserved_special_token_194|>",
      "single_word": false,
      "lstrip": false,
      "rstrip": false,
      "normalized": false,
      "special": true
    },
    {
      "id": 200,
      "content": "<|reserved_special_token_195|>",
      "single_word": false,
      "lstrip": false,
      "rstrip": false,
      "normalized": false,
      "special": true
    },
    {
      "id": 201,
      "content": "<|reserved_special_token_196|>",
      "single_word": false,
      "lstrip": false,
      "rstrip": false,
      "normalized": false,
      "special": true
    },
    {
      "id": 202,
      "content": "<|reserved_special_token_197|>",
      "single_word": false,
      "lstrip": false,
      "rstrip": false,
      "normalized": false,
      "special": true
    },
    {
      "id": 203,
      "content": "<|reserved_special_token_198|>",
      "single_word": false,
      "lstrip": false,
      "rstrip": false,
      "normalized": false,
      "special": true
    },
    {
      "id": 204,
      "content": "<|reserved_special_token_199|>",
      "single_word": false,
      "lstrip": false,
      "rstrip": false,
      "normalized": false,
      "special": true
    },
    {
      "id": 205,
      "content": "<|reserved_special_token_200|>",
      "single_word": false,
      "lstrip": false,
      "rstrip": false,
      "normalized": false,
      "special": true
    },
    {
      "id": 206,
      "content": "<|reserved_special_token_201|>",
      "single_word": false,
      "lstrip": false,
      "rstrip": false,
      "normalized": false,
      "special": true
    },
    {
      "id": 207,
      "content": "<|reserved_special_token_202|>",
      "single_word": false,
      "lstrip": false,
      "rstrip": false,
      "normalized": false,
      "special": true
    },
    {
      "id": 208,
      "content": "<|reserved_special_token_203|>",
      "single_word": false,
      "lstrip": false,
      "rstrip": false,
      "normalized": false,
      "special": true
    },
    {
      "id": 209,
      "content": "<|reserved_special_token_204|>",
      "single_word": false,
      "lstrip": false,
      "rstrip": false,
      "normalized": false,
      "special": true
    },
    {
      "id": 210,
      "content": "<|reserved_special_token_205|>",
      "single_word": false,
      "lstrip": false,
      "rstrip": false,
      "normalized": false,
      "special": true
    },
    {
      "id": 211,
      "content": "<|reserved_special_token_206|>",
      "single_word": false,
      "lstrip": false,
      "rstrip": false,
      "normalized": false,
      "special": true
    },
    {
      "id": 212,
      "content": "<|reserved_special_token_207|>",
      "single_word": false,
      "lstrip": false,
      "rstrip": false,
      "normalized": false,
      "special": true
    },
    {
      "id": 213,
      "content": "<|reserved_special_token_208|>",
      "single_word": false,
      "lstrip": false,
      "rstrip": false,
      "normalized": false,
      "special": true
    },
    {
      "id": 214,
      "content": "<|reserved_special_token_209|>",
      "single_word": false,
      "lstrip": false,
      "rstrip": false,
      "normalized": false,
      "special": true
    },
    {
      "id": 215,
      "content": "<|reserved_special_token_210|>",
      "single_word": false,
      "lstrip": false,
      "rstrip": false,
      "normalized": false,
      "special": true
    },
    {
      "id": 216,
      "content": "<|reserved_special_token_211|>",
      "single_word": false,
      "lstrip": false,
      "rstrip": false,
      "normalized": false,
      "special": true
    },
    {
      "id": 217,
      "content": "<|reserved_special_token_212|>",
      "single_word": false,
      "lstrip": false,
      "rstrip": false,
      "normalized": false,
      "special": true
    },
    {
      "id": 218,
      "content": "<|reserved_special_token_213|>",
      "single_word": false,
      "lstrip": false,
      "rstrip": false,
      "normalized": false,
      "special": true
    },
    {
      "id": 219,
      "content": "<|reserved_special_token_214|>",
      "single_word": false,
      "lstrip": false,
      "rstrip": false,
      "normalized": false,
      "special": true
    },
    {
      "id": 220,
      "content": "<|reserved_special_token_215|>",
      "single_word": false,
      "lstrip": false,
      "rstrip": false,
      "normalized": false,
      "special": true
    },
    {
      "id": 221,
      "content": "<|reserved_special_token_216|>",
      "single_word": false,
      "lstrip": false,
      "rstrip": false,
      "normalized": false,
      "special": true
    },
    {
      "id": 222,
      "content": "<|reserved_special_token_217|>",
      "single_word": false,
      "lstrip": false,
      "rstrip": false,
      "normalized": false,
      "special": true
    },
    {
      "id": 223,
      "content": "<|reserved_special_token_218|>",
      "single_word": false,
      "lstrip": false,
      "rstrip": false,
      "normalized": false,
      "special": true
    },
    {
      "id": 224,
      "content": "<|reserved_special_token_219|>",
      "single_word": false,
      "lstrip": false,
      "rstrip": false,
      "normalized": false,
      "special": true
    },
    {
      "id": 225,
      "content": "<|reserved_special_token_220|>",
      "single_word": false,
      "lstrip": false,
      "rstrip": false,
      "normalized": false,
      "special": true
    },
    {
      "id": 226,
      "content": "<|reserved_special_token_221|>",
      "single_word": false,
      "lstrip": false,
      "rstrip": false,
      "normalized": false,
      "special": true
    },
    {
      "id": 227,
      "content": "<|reserved_special_token_222|>",
      "single_word": false,
      "lstrip": false,
      "rstrip": false,
      "normalized": false,
      "special": true
    },
    {
      "id": 228,
      "content": "<|reserved_special_token_223|>",
      "single_word": false,
      "lstrip": false,
      "rstrip": false,
      "normalized": false,
      "special": true
    },
    {
      "id": 229,
      "content": "<|reserved_special_token_224|>",
      "single_word": false,
      "lstrip": false,
      "rstrip": false,
      "normalized": false,
      "special": true
    },
    {
      "id": 230,
      "content": "<|reserved_special_token_225|>",
      "single_word": false,
      "lstrip": false,
      "rstrip": false,
      "normalized": false,
      "special": true
    },
    {
      "id": 231,
      "content": "<|reserved_special_token_226|>",
      "single_word": false,
      "lstrip": false,
      "rstrip": false,
      "normalized": false,
      "special": true
    },
    {
      "id": 232,
      "content": "<|reserved_special_token_227|>",
      "single_word": false,
      "lstrip": false,
      "rstrip": false,
      "normalized": false,
      "special": true
    },
    {
      "id": 233,
      "content": "<|reserved_special_token_228|>",
      "single_word": false,
      "lstrip": false,
      "rstrip": false,
      "normalized": false,
      "special": true
    },
    {
      "id": 234,
      "content": "<|reserved_special_token_229|>",
      "single_word": false,
      "lstrip": false,
      "rstrip": false,
      "normalized": false,
      "special": true
    },
    {
      "id": 235,
      "content": "<|reserved_special_token_230|>",
      "single_word": false,
      "lstrip": false,
      "rstrip": false,
      "normalized": false,
      "special": true
    },
    {
      "id": 236,
      "content": "<|reserved_special_token_231|>",
      "single_word": false,
      "lstrip": false,
      "rstrip": false,
      "normalized": false,
      "special": true
    },
    {
      "id": 237,
      "content": "<|reserved_special_token_232|>",
      "single_word": false,
      "lstrip": false,
      "rstrip": false,
      "normalized": false,
      "special": true
    },
    {
      "id": 238,
      "content": "<|reserved_special_token_233|>",
      "single_word": false,
      "lstrip": false,
      "rstrip": false,
      "normalized": false,
      "special": true
    },
    {
      "id": 239,
      "content": "<|reserved_special_token_234|>",
      "single_word": false,
      "lstrip": false,
      "rstrip": false,
      "normalized": false,
      "special": true
    },
    {
      "id": 240,
      "content": "<|reserved_special_token_235|>",
      "single_word": false,
      "lstrip": false,
      "rstrip": false,
      "normalized": false,
      "special": true
    },
    {
      "id": 241,
      "content": "<|reserved_special_token_236|>",
      "single_word": false,
      "lstrip": false,
      "rstrip": false,
      "normalized": false,
      "special": true
    },
    {
      "id": 242,
      "content": "<|reserved_special_token_237|>",
      "single_word": false,
      "lstrip": false,
      "rstrip": false,
      "normalized": false,
      "special": true
    },
    {
      "id": 243,
      "content": "<|reserved_special_token_238|>",
      "single_word": false,
      "lstrip": false,
      "rstrip": false,
      "normalized": false,
      "special": true
    },
    {
      "id": 244,
      "content": "<|reserved_special_token_239|>",
      "single_word": false,
      "lstrip": false,
      "rstrip": false,
      "normalized": false,
      "special": true
    },
    {
      "id": 245,
      "content": "<|reserved_special_token_240|>",
      "single_word": false,
      "lstrip": false,
      "rstrip": false,
      "normalized": false,
      "special": true
    },
    {
      "id": 246,
      "content": "<|reserved_special_token_241|>",
      "single_word": false,
      "lstrip": false,
      "rstrip": false,
      "normalized": false,
      "special": true
    },
    {
      "id": 247,
      "content": "<|reserved_special_token_242|>",
      "single_word": false,
      "lstrip": false,
      "rstrip": false,
      "normalized": false,
      "special": true
    },
    {
      "id": 248,
      "content": "<|reserved_special_token_243|>",
      "single_word": false,
      "lstrip": false,
      "rstrip": false,
      "normalized": false,
      "special": true
    },
    {
      "id": 249,
      "content": "<|reserved_special_token_244|>",
      "single_word": false,
      "lstrip": false,
      "rstrip": false,
      "normalized": false,
      "special": true
    },
    {
      "id": 250,
      "content": "<|reserved_special_token_245|>",
      "single_word": false,
      "lstrip": false,
      "rstrip": false,
      "normalized": false,
      "special": true
    },
    {
      "id": 251,
      "content": "<|reserved_special_token_246|>",
      "single_word": false,
      "lstrip": false,
      "rstrip": false,
      "normalized": false,
      "special": true
    },
    {
      "id": 252,
      "content": "<|reserved_special_token_247|>",
      "single_word": false,
      "lstrip": false,
      "rstrip": false,
      "normalized": false,
      "special": true
    },
    {
      "id": 253,
      "content": "<|reserved_special_token_248|>",
      "single_word": false,
      "lstrip": false,
      "rstrip": false,
      "normalized": false,
      "special": true
    },
    {
      "id": 254,
      "content": "<|reserved_special_token_249|>",
      "single_word": false,
      "lstrip": false,
      "rstrip": false,
      "normalized": false,
      "special": true
    },
    {
      "id": 255,
      "content": "<|reserved_special_token_250|>",
      "single_word": false,
      "lstrip": false,
      "rstrip": false,
      "normalized": false,
      "special": true
    }
  ],
  "normalizer": null,
  "pre_tokenizer": {
    "type": "Sequence",
    "pretokenizers": [
      {
        "type": "Split",
        "pattern": {
          "Regex": "(?i:'s|'t|'re|'ve|'m|'ll|'d)|[^\\r\\n\\p{L}\\p{N}]?\\p{L}+|\\p{N}{1,3}| ?[^\\s\\p{L}\\p{N}]+[\\r\\n]*|\\s*[\\r\\n]+|\\s+(?!\\S)|\\s+"
        },
        "behavior": "Isolated",
        "invert": false
      },
      {
        "type": "ByteLevel",
        "add_prefix_space": false,
        "trim_offsets": true,
        "use_regex": false
      }
    ]
  },
  "post_processor": {
    "type": "Sequence",
    "processors": [
      {
        "type": "ByteLevel",
        "add_prefix_space": true,
        "trim_offsets": false,
        "use_regex": true
      },
      {
        "type": "TemplateProcessing",
        "single": [
          {
            "SpecialToken": {
              "id": "<|begin_of_text|>",
              "type_id": 0
            }
          },
          {
            "Sequence": {
              "id": "A",
              "type_id": 0
            }
          }
        ],
        "pair": [
          {
            "SpecialToken": {
              "id": "<|begin_of_text|>",
              "type_id": 0
            }
          },
          {
            "Sequence": {
              "id": "A",
              "type_id": 0
            }
          },
          {
            "SpecialToken": {
              "id": "<|begin_of_text|>",
              "type_id": 1
            }
          },
          {
            "Sequence": {
              "id": "B",
              "type_id": 1
            }
          }
        ],
        "special_tokens": {
          "<|begin_of_text|>": {
            "id": "<|begin_of_text|>",
            "ids": [
              128000
            ],
            "tokens": [
              "<|begin_of_text|>"
            ]
          }
        }
      }
    ]
  },
  "decoder": {
    "type": "ByteLevel",
    "add_prefix_space": true,
    "trim_offsets": true,
    "use_regex": true
  },
  "model": {
    "type": "BPE",
    "dropout": null,
    "unk_token": null,
    "continuing_subword_prefix": null,
    "end_of_word_suffix": null,
    "fuse_unk": false,
    "byte_fallback": false,
    "ignore_merges": true,
    "vocab": {
      "<|begin_of_text|>": 0,
      "<|end_of_text|>": 1,
      "<|reserved_special_token_0|>": 2,
      "<|reserved_special_token_1|>": 3,
      "<|reserved_special_token_2|>": 4,
      "<|reserved_special_token_3|>": 5,
      "<|start_header_id|>": 6,
      "<|end_header_id|>": 7,
      "<|reserved_special_token_4|>": 8,
      "<|eot_id|>": 9,
      "<|reserved_special_token_5|>": 10,
      "<|reserved_special_token_6|>": 11,
      "<|reserved_special_token_7|>": 12,
      "<|reserved_special_token_8|>": 13,
      "<|reserved_special_token_9|>": 14,
      "<|reserved_special_token_10|>": 15,
      "<|reserved_special_token_11|>": 16,
      "<|reserved_special_token_12|>": 17,
      "<|reserved_special_token_13|>": 18,
      "<|reserved_special_token_14|>": 19,
      "<|reserved_special_token_15|>": 20,
      "<|reserved_special_token_16|>": 21,
      "<|reserved_special_token_17|>": 22,
      "<|reserved_special_token_18|>": 23,
      "<|reserved_special_token_19|>": 24,
      "<|reserved_special_token_20|>": 25,
      "<|reserved_special_token_21|>": 26,
      "<|reserved_special_token_22|>": 27,
      "<|reserved_special_token_23|>": 28,
      "<|reserved_special_token_24|>": 29,
      "<|reserved_special_token_25|>": 30,
      "<|reserved_special_token_26|>": 31,
      "<|reserved_special_token_27|>": 32,
      "<|reserved_special_token_28|>": 33,
      "<|reserved_special_token_29|>": 34,
      "<|reserved_special_token_30|>": 35,
      "<|reserved_special_token_31|>": 36,
      "<|reserved_special_token_32|>": 37,
      "<|reserved_special_token_33|>": 38,
      "<|reserved_special_token_34|>": 39,
      "<|reserved_special_token_35|>": 40,
      "<|reserved_special_token_36|>": 41,
      "<|reserved_special_token_37|>": 42,
      "<|reserved_special_token_38|>": 43,
      "<|reserved_special_token_39|>": 44,
      "<|reserved_special_token_40|>": 45,
      "<|reserved_special_token_41|>": 46,
      "<|reserved_special_token_42|>": 47,
      "<|reserved_special_token_43|>": 48,
      "<|reserved_special_token_44|>": 49,
      "<|reserved_special_token_45|>": 50,
      "<|reserved_special_token_46|>": 51,
      "<|reserved_special_token_47|>": 52,
      "<|reserved_special_token_48|>": 53,
      "<|reserved_special_token_49|>": 54,
      "<|reserved_special_token_50|>": 55,
      "<|reserved_special_token_51|>": 56,
      "<|reserved_special_token_52|>": 57,
      "<|reserved_special_token_53|>": 58,
      "<|reserved_special_token_54|>": 59,
      "<|reserved_special_token_55|>": 60,
      "<|reserved_special_token_56|>": 61,
      "<|reserved_special_token_57|>": 62,
      "<|reserved_special_token_58|>": 63,
      "<|reserved_special_token_59|>": 64,
      "<|reserved_special_token_60|>": 65,
      "<|reserved_special_token_61|>": 66,
      "<|reserved_special_token_62|>": 67,
      "<|reserved_special_token_63|>": 68,
      "<|reserved_special_token_64|>": 69,
      "<|reserved_special_token_65|>": 70,
      "<|reserved_special_token_66|>": 71,
      "<|reserved_special_token_67|>": 72,
      "<|reserved_special_token_68|>": 73,
      "<|reserved_special_token_69|>": 74,
      "<|reserved_special_token_70|>": 75,
      "<|reserved_special_token_71|>": 76,
      "<|reserved_special_token_72|>": 77,
      "<|reserved_special_token_73|>": 78,
      "<|reserved_special_token_74|>": 79,
      "<|reserved_special_token_75|>": 80,
      "<|reserved_special_token_76|>": 81,
      "<|reserved_special_token_77|>": 82,
      "<|reserved_special_token_78|>": 83,
      "<|reserved_special_token_79|>": 84,
      "<|reserved_special_token_80|>": 85,
      "<|reserved_special_token_81|>": 86,
      "<|reserved_special_token_82|>": 87,
      "<|reserved_special_token_83|>": 88,
      "<|reserved_special_token_84|>": 89,
      "<|reserved_special_token_85|>": 90,
      "<|reserved_special_token_86|>": 91,
      "<|reserved_special_token_87|>": 92,
      "<|reserved_special_token_88|>": 93,
      "<|reserved_special_token_89|>": 94,
      "<|reserved_special_token_90|>": 95,
      "<|reserved_special_token_91|>": 96,
      "<|reserved_special_token_92|>": 97,
      "<|reserved_special_token_93|>": 98,
      "<|reserved_special_token_94|>": 99,
      "<|reserved_special_token_95|>": 100,
      "<|reserved_special_token_96|>": 101,
      "<|reserved_special_token_97|>": 102,
      "<|reserved_special_token_98|>": 103,
      "<|reserved_special_token_99|>": 104,
      "<|reserved_special_token_100|>": 105,
      "<|reserved_special_token_101|>": 106,
      "<|reserved_special_token_102|>": 107,
      "<|reserved_special_token_103|>": 108,
      "<|reserved_special_token_104|>": 109,
      "<|reserved_special_token_105|>": 110,
      "<|reserved_special_token_106|>": 111,
      "<|reserved_special_token_107|>": 112,
      "<|reserved_special_token_108|>": 113,
      "<|reserved_special_token_109|>": 114,
      "<|reserved_special_token_110|>": 115,
      "<|reserved_special_token_111|>": 116,
      "<|reserved_special_token_112|>": 117,
      "<|reserved_special_token_113|>": 118,
      "<|reserved_special_token_114|>": 119,
      "<|reserved_special_token_115|>": 120,
      "<|reserved_special_token_116|>": 121,
      "<|reserved_special_token_117|>": 122,
      "<|reserved_special_token_118|>": 123,
      "<|reserved_special_token_119|>": 124,
      "<|reserved_special_token_120|>": 125,
      "<|reserved_special_token_121|>": 126,
      "<|reserved_special_token_122|>": 127,
      "<|reserved_special_token_123|>": 128,
      "<|reserved_special_token_124|>": 129,
      "<|reserved_special_token_125|>": 130,
      "<|reserved_special_token_126|>": 131,
      "<|reserved_special_token_127|>": 132,
      "<|reserved_special_token_128|>": 133,
      "<|reserved_special_token_129|>": 134,
      "<|reserved_special_token_130|>": 135,
      "<|reserved_special_token_131|>": 136,
      "<|reserved_special_token_132|>": 137,
      "<|reserved_special_token_133|>": 138,
      "<|reserved_special_token_134|>": 139,
      "<|reserved_special_token_135|>": 140,
      "<|reserved_special_token_136|>": 141,
      "<|reserved_special_token_137|>": 142,
      "<|reserved_special_token_138|>": 143,
      "<|reserved_special_token_139|>": 144,
      "<|reserved_special_token_140|>": 145,
      "<|reserved_special_token_141|>": 146,
      "<|reserved_special_token_142|>": 147,
      "<|reserved_special_token_143|>": 148,
      "<|reserved_special_token_144|>": 149,
      "<|reserved_special_token_145|>": 150,
      "<|reserved_special_token_146|>": 151,
      "<|reserved_special_token_147|>": 152,
      "<|reserved_special_token_148|>": 153,
      "<|reserved_special_token_149|>": 154,
      "<|reserved_special_token_150|>": 155,
      "<|reserved_special_token_151|>": 156,
      "<|reserved_special_token_152|>": 157,
      "<|reserved_special_token_153|>": 158,
      "<|reserved_special_token_154|>": 159,
      "<|reserved_special_token_155|>": 160,
      "<|reserved_special_token_156|>": 161,
      "<|reserved_special_token_157|>": 162,
      "<|reserved_special_token_158|>": 163,
      "<|reserved_special_token_159|>": 164,
      "<|reserved_special_token_160|>": 165,
      "<|reserved_special_token_161|>": 166,
      "<|reserved_special_token_162|>": 167,
      "<|reserved_special_token_163|>": 168,
      "<|reserved_special_token_164|>": 169,
      "<|reserved_special_token_165|>": 170,
      "<|reserved_special_token_166|>": 171,
      "<|reserved_special_token_167|>": 172,
      "<|reserved_special_token_168|>": 173,
      "<|reserved_special_token_169|>": 174,
      "<|reserved_special_token_170|>": 175,
      "<|reserved_special_token_171|>": 176,
      "<|reserved_special_token_172|>": 177,
      "<|reserved_special_token_173|>": 178,
      "<|reserved_special_token_174|>": 179,
      "<|reserved_special_token_175|>": 180,
      "<|reserved_special_token_176|>": 181,
      "<|reserved_special_token_177|>": 182,
      "<|reserved_special_token_178|>": 183,
      "<|reserved_special_token_179|>": 184,
      "<|reserved_special_token_180|>": 185,
      "<|reserved_special_token_181|>": 186,
      "<|reserved_special_token_182|>": 187,
      "<|reserved_special_token_183|>": 188,
      "<|reserved_special_token_184|>": 189,
      "<|reserved_special_token_185|>": 190,
      "<|reserved_special_token_186|>": 191,
      "<|reserved_special_token_187|>": 192,
      "<|reserved_special_token_188|>": 193,
      "<|reserved_special_token_189|>": 194,
      "<|reserved_special_token_190|>": 195,
      "<|reserved_special_token_191|>": 196,
      "<|reserved_special_token_192|>": 197,
      "<|reserved_special_token_193|>": 198,
      "<|reserved_special_token_194|>": 199,
      "<|reserved_special_token_195|>": 200,
      "<|reserved_special_token_196|>": 201,
      "<|reserved_special_token_197|>": 202,
      "<|reserved_special_token_198|>": 203,
      "<|reserved_special_token_199|>": 204,
      "<|reserved_special_token_200|>": 205,
      "<|reserved_special_token_201|>": 206,
      "<|reserved_special_token_202|>": 207,
      "<|reserved_special_token_203|>": 208,
      "<|reserved_special_token_204|>": 209,
      "<|reserved_special_token_205|>": 210,
      "<|reserved_special_token_206|>": 211,
      "<|reserved_special_token_207|>": 212,
      "<|reserved_special_token_208|>": 213,
      "<|reserved_special_token_209|>": 214,
      "<|reserved_special_token_210|>": 215,
      "<|reserved_special_token_211|>": 216,
      "<|reserved_special_token_212|>": 217,
      "<|reserved_special_token_213|>": 218,
      "<|reserved_special_token_214|>": 219,
      "<|reserved_special_token_215|>": 220,
      "<|reserved_special_token_216|>": 221,
      "<|reserved_special_token_217|>": 222,
      "<|reserved_special_token_218|>": 223,
      "<|reserved_special_token_219|>": 224,
      "<|reserved_special_token_220|>": 225,
      "<|reserved_special_token_221|>": 226,
      "<|reserved_special_token_222|>": 227,
      "<|reserved_special_token_223|>": 228,
      "<|reserved_special_token_224|>": 229,
      "<|reserved_special_token_225|>": 230,
      "<|reserved_special_token_226|>": 231,
      "<|reserved_special_token_227|>": 232,
      "<|reserved_special_token_228|>": 233,
      "<|reserved_special_token_229|>": 234,
      "<|reserved_special_token_230|>": 235,
      "<|reserved_special_token_231|>": 236,
      "<|reserved_special_token_232|>": 237,
      "<|reserved_special_token_233|>": 238,
      "<|reserved_special_token_234|>": 239,
      "<|reserved_special_token_235|>": 240,
      "<|reserved_special_token_236|>": 241,
      "<|reserved_special_token_237|>": 242,
      "<|reserved_special_token_238|>": 243,
      "<|reserved_special_token_239|>": 244,
      "<|reserved_special_token_240|>": 245,
      "<|reserved_special_token_241|>": 246,
      "<|reserved_special_token_242|>": 247,
      "<|reserved_special_token_243|>": 248,
      "<|reserved_special_token_244|>": 249,
      "<|reserved_special_token_245|>": 250,
      "<|reserved_special_token_246|>": 251,
      "<|reserved_special_token_247|>": 252,
      "<|reserved_special_token_248|>": 253,
      "<|reserved_special_token_249|>": 254,
      "<|reserved_special_token_250|>": 255,
      "!": 256,
      "\"": 257,
      "#": 258,
      "$": 259,
      "%": 260,
      "&": 261,
      "'": 262,
      "(": 263,
      ")": 264,
      "*": 265,
      "+": 266,
      ",": 267,
      "-": 268,
      ".": 269,
      "/": 270,
      "0": 271,
      "1": 272,
      "2": 273,
      "3": 274,
      "4": 275,
      "5": 276,
      "6": 277,
      "7": 278,
      "8": 279,
      "9": 280,
      ":": 281,
      ";": 282,
      "<": 283,
      "=": 284,
      ">": 285,
      "?": 286,
      "@": 287,
      "A": 288,
      "B": 289,
      "C": 290,
      "D": 291,
      "E": 292,
      "F": 293,
      "G": 294,
      "H": 295,
      "I": 296,
      "J": 297,
      "K": 298,
      "L": 299,
      "M": 300,
      "N": 301,
      "O": 302,
      "P": 303,
      "Q": 304,
      "R": 305,
      "S": 306,
      "T": 307,
      "U": 308,
      "V": 309,
      "W": 310,
      "X": 311,
      "Y": 312,
      "Z": 313,
      "[": 314,
      "\\": 315,
      "]": 316,
      "^": 317,
      "_": 318,
      "`": 319,
      "a": 320,
      "b": 321,
      "c": 322,
      "d": 323,
      "e": 324,
      "f": 325,
      "g": 326,
      "h": 327,
      "i": 328,
      "j": 329,
      "k": 330,
      "l": 331,
      "m": 332,
      "n": 333,
      "o": 334,
      "p": 335,
      "q": 336,
      "r": 337,
      "s": 338,
      "t": 339,
      "u": 340,
      "v": 341,
      "w": 342,
      "x": 343,
      "y": 344,
      "z": 345,
      "{": 346,
      "|": 347,
      "}": 348,
      "~": 349,
      "¡": 350,
      "¢": 351,
      "£": 352,
      "¤": 353,
      "¥": 354,
      "¦": 355,
      "§": 356,
      "¨": 357,
      "©": 358,
      "ª": 359,
      "«": 360,
      "¬": 361,
      "®": 362,
      "¯": 363,
      "°": 364,
      "±": 365,
      "²": 366,
      "³": 367,
      "´": 368,
      "µ": 369,
      "¶": 370,
      "·": 371,
      "¸": 372,
      "¹": 373,
      "º": 374,
      "»": 375,
      "¼": 376,
      "½": 377,
      "¾": 378,
      "¿": 379,
      "Â": 380,
      "Ã": 381,
      "Ä": 382,
      "Å": 383,
      "Æ": 384,
      "Ç": 385,
      "È": 386,
      "É": 387,
      "Ê": 388,
      "Ë": 389,
      "Ì": 390,
      "Í": 391,
      "Î": 392,
      "Ï": 393,
      "Ð": 394,
      "Ñ": 395,
      "Ò": 396,
      "Ó": 397,
      "Ô": 398,
      "Õ": 399,
      "Ö": 400,
      "×": 401,
      "Ø": 402,
      "Ù": 403,
      "Ú": 404,
      "Û": 405,
      "Ü": 406,
      "Ý": 407,
      "Þ": 408,
      "ß": 409,
      "à": 410,
      "á": 411,
      "â": 412,
      "ã": 413,
      "ä": 414,
      "å": 415,
      "æ": 416,
      "ç": 417,
      "è": 418,
      "é": 419,
      "ê": 420,
      "ë": 421,
      "ì": 422,
      "í": 423,
      "î": 424,
      "ï": 425,
      "ð": 426,
      "ó": 427,
      "ô": 428,
      "ĉ": 429,
      "Ċ": 430,
      "Ġ": 431,
      "Ģ": 432,
      "ģ": 433,
      "Ĥ": 434,
      "ĥ": 435,
      "Ħ": 436,
      "ħ": 437,
      "Ĩ": 438,
      "ĩ": 439,
      "Ī": 440,
      "ī": 441,
      "Ĭ": 442,
      "ĭ": 443,
      "Į": 444,
      "į": 445,
      "İ": 446,
      "ı": 447,
      "Ĳ": 448,
      "ĳ": 449,
      "Ĵ": 450,
      "ĵ": 451,
      "Ķ": 452,
      "ķ": 453,
      "ĸ": 454,
      "Ĺ": 455,
      "ĺ": 456,
      "Ļ": 457,
      "ļ": 458,
      "Ľ": 459,
      "ľ": 460,
      "Ŀ": 461,
      "ŀ": 462,
      "Ł": 463,
      "ł": 464,
      "Ń": 465,
      "Ġt": 466,
      "he": 467,
      "in": 468,
      "Ġa": 469,
      "er": 470,
      "on": 471,
      "Ġthe": 472,
      "re": 473,
      "an": 474,
      "or": 475,
      "en": 476,
      "at": 477,
      "ed": 478,
      "Ġo": 479,
      "st": 480,
      "al": 481,
      "Ġw": 482,
      "ar": 483,
      "it": 484,
      "Ġof": 485,
      "nd": 486,
      "Ġin": 487,
      "Ġs": 488,
      "es": 489,
      "Ġf": 490,
      "is": 491,
      "Ġc": 492,
      "Ġb": 493,
      "ic": 494,
      "Ġp": 495,
      "ing": 496,
      "Ġand": 497,
      "as": 498,
      "ion": 499,
      "ro": 500,
      "le": 501,
      "ĠS": 502,
      "ĊĊ": 503,
      "Ġto": 504,
      "Ġm": 505,
      "Ġd": 506,
      "ĠC": 507,
      "ou": 508,
      "ĠA": 509,
      "il": 510,
      "ent": 511,
      "Ġh": 512,
      "ĠT": 513,
      "am": 514,
      "ĠM": 515,
      "om": 516,
      "el": 517,
      "ol": 518,
      "Ġre": 519,
      "Ġ(": 520,
      "ct": 521,
      "ĠB": 522,
      "Ġl": 523,
      "19": 524,
      "ad": 525,
      "ĠP": 526,
      "ur": 527,
      ".ĊĊ": 528,
      "et": 529,
      "ch": 530,
      "iv": 531,
      "ers": 532,
      "ĠH": 533,
      "ation": 534,
      "Ġwas": 535,
      "Ġn": 536,
      "Ġe": 537,
      "ig": 538,
      "ĠI": 539,
      "20": 540,
      "ir": 541,
      "id": 542,
      "ot": 543,
      "Ġth": 544,
      "ĠR": 545,
      "us": 546,
      "ce": 547,
      "Ġfor": 548,
      "Ġon": 549,
      "ay": 550,
      "ĠD": 551,
      "ly": 552,
      "im": 553,
      "ĠL": 554,
      "ist": 555,
      "ut": 556,
      "ĠF": 557,
      "Ġis": 558,
      "ra": 559,
      "Ġg": 560,
      "ĠG": 561,
      "Ġas": 562,
      "ow": 563,
      "em": 564,
      "ĠN": 565,
      "un": 566,
      "ĠThe": 567,
      "th": 568,
      "ĠW": 569,
      "ith": 570,
      "Ġbe": 571,
      "and": 572,
      "Ġst": 573,
      "her": 574,
      "ter": 575,
      "ul": 576,
      "âĢ": 577,
      "ĠJ": 578,
      "Ġwith": 579,
      "ĠE": 580,
      "Ġby": 581,
      "Ġal": 582,
      "ag": 583,
      "um": 584,
      "os": 585,
      "rom": 586,
      "op": 587,
      "ac": 588,
      "ver": 589,
      "'s": 590,
      "Ġat": 591,
      "ri": 592,
      "Ġwh": 593,
      "ĠO": 594,
      "Ġan": 595,
      "oc": 596,
      "Ġde": 597,
      "Ġcon": 598,
      "ian": 599,
      "Ġfrom": 600,
      "Ġhe": 601,
      "âĢĵ": 602,
      "ĠK": 603,
      "ia": 604,
      "Ġv": 605,
      "ain": 606,
      "ber": 607,
      "Ġthat": 608,
      "all": 609,
      "ity": 610,
      "od": 611,
      "res": 612,
      "ies": 613,
      "est": 614,
      "Ġ\"": 615,
      "ĠU": 616,
      "av": 617,
      "art": 618,
      "Ġcom": 619,
      "ab": 620,
      "if": 621,
      "ate": 622,
      "Ġpro": 623,
      "ill": 624,
      "201": 625,
      "up": 626,
      "ew": 627,
      "ort": 628,
      "Ġse": 629,
      "ard": 630,
      "ud": 631,
      "pe": 632,
      "ces": 633,
      "ĠSt": 634,
      "Ġpl": 635,
      "200": 636,
      "Ġit": 637,
      "ak": 638,
      "ub": 639,
      "igh": 640,
      "ip": 641,
      "Ġhis": 642,
      "se": 643,
      "ore": 644,
      "ich": 645,
      "ov": 646,
      "ast": 647,
      "nt": 648,
      "Ġor": 649,
      "ld": 650,
      "ap": 651,
      "qu": 652,
      "ated": 653,
      "ant": 654,
      "ary": 655,
      "ment": 656,
      "ish": 657,
      "ĠCh": 658,
      "ĠIn": 659,
      "The": 660,
      "ge": 661,
      "fer": 662,
      "mer": 663,
      "ive": 664,
      "Ġr": 665,
      "ĠV": 666,
      "og": 667,
      "our": 668,
      "ong": 669,
      "ial": 670,
      "ug": 671,
      "18": 672,
      "Ġ|": 673,
      "Ġch": 674,
      "Ġare": 675,
      "end": 676,
      "ine": 677,
      "ĠĊ": 678,
      "und": 679,
      "Ġex": 680,
      "ks": 681,
      "ere": 682,
      "ell": 683,
      ")Ċ": 684,
      "ust": 685,
      "ear": 686,
      "ep": 687,
      "ction": 688,
      "ame": 689,
      "ord": 690,
      "so": 691,
      "ire": 692,
      "Ġ||": 693,
      "Ġwere": 694,
      "uc": 695,
      "ure": 696,
      "ran": 697,
      "ight": 698,
      "ical": 699,
      "Ġle": 700,
      "ost": 701,
      "ie": 702,
      "ue": 703,
      "),": 704,
      "ign": 705,
      "ĠHe": 706,
      "Ġwhich": 707,
      "Ġalso": 708,
      "ĠUn": 709,
      "are": 710,
      "ess": 711,
      "ric": 712,
      "Ġcomp": 713,
      "cl": 714,
      "Ġsh": 715,
      "ther": 716,
      "rit": 717,
      "199": 718,
      "Ġplay": 719,
      "Ġy": 720,
      "Ġk": 721,
      "ff": 722,
      "ry": 723,
      "ass": 724,
      "age": 725,
      "irst": 726,
      "man": 727,
      "port": 728,
      "feren": 729,
      "ĠâĢĵ": 730,
      "ount": 731,
      "ition": 732,
      "ous": 733,
      "Re": 734,
      "Ġun": 735,
      ".Ċ": 736,
      "ork": 737,
      "te": 738,
      "iz": 739,
      "ack": 740,
      "ts": 741,
      "Ġar": 742,
      "erv": 743,
      "ond": 744,
      "ational": 745,
      "Ġcl": 746,
      "Ġhad": 747,
      "ide": 748,
      "hed": 749,
      "Ġte": 750,
      "ĠY": 751,
      "per": 752,
      "tern": 753,
      "ok": 754,
      "land": 755,
      "ang": 756,
      "ory": 757,
      "ations": 758,
      "ican": 759,
      "ice": 760,
      "Ġnot": 761,
      "Ġhas": 762,
      "ne": 763,
      "pl": 764,
      "Ġfirst": 765,
      "ng": 766,
      "ave": 767,
      "00": 768,
      "own": 769,
      "ferences": 770,
      "ome": 771,
      "fter": 772,
      "ĠIt": 773,
      "Ġwhe": 774,
      "Ġro": 775,
      "ib": 776,
      "ater": 777,
      "orn": 778,
      "amp": 779,
      "Ġcont": 780,
      "References": 781,
      "198": 782,
      "Ġus": 783,
      "ens": 784,
      "wo": 785,
      "ach": 786,
      "ĠAl": 787,
      "ph": 788,
      "ite": 789,
      "In": 790,
      "ĠTh": 791,
      "Ġad": 792,
      "ree": 793,
      "ates": 794,
      "ions": 795,
      "ult": 796,
      "ilm": 797,
      "Ġpart": 798,
      "ople": 799,
      "ited": 800,
      "ime": 801,
      "Ġwho": 802,
      "Ġtheir": 803,
      "ru": 804,
      "Ġint": 805,
      "Ġap": 806,
      "ĠAr": 807,
      "Ġres": 808,
      "Ġj": 809,
      "aw": 810,
      "Ġits": 811,
      "ound": 812,
      "Ġher": 813,
      "ember": 814,
      "ath": 815,
      "ool": 816,
      "ubl": 817,
      "ke": 818,
      "ĠRe": 819,
      "merican": 820,
      "ĠMar": 821,
      "ivers": 822,
      "out": 823,
      "pt": 824,
      "over": 825,
      "ace": 826,
      "ild": 827,
      "Ġab": 828,
      "ors": 829,
      "iss": 830,
      "Ġbut": 831,
      "eople": 832,
      "clud": 833,
      "oll": 834,
      "Ġac": 835,
      "197": 836,
      "Ġyear": 837,
      "Ġone": 838,
      "inal": 839,
      "ĠLe": 840,
      "ile": 841,
      "ball": 842,
      "ugh": 843,
      "old": 844,
      "Ġ-": 845,
      "ade": 846,
      "ould": 847,
      "Ġper": 848,
      "Ġrec": 849,
      "ual": 850,
      "ĠNew": 851,
      "ress": 852,
      "Ġag": 853,
      "for": 854,
      "oot": 855,
      "ents": 856,
      "ence": 857,
      "Ġman": 858,
      "hip": 859,
      "wn": 860,
      "uring": 861,
      "Ġsc": 862,
      "les": 863,
      "act": 864,
      "ward": 865,
      "oy": 866,
      "Ġtwo": 867,
      "Ġhave": 868,
      "Ġinclud": 869,
      "oin": 870,
      "Ġbec": 871,
      "ons": 872,
      "chool": 873,
      "ss": 874,
      "ased": 875,
      "ect": 876,
      "Ġdes": 877,
      "io": 878,
      "Ġthis": 879,
      "Ġen": 880,
      "Ġall": 881,
      "vel": 882,
      "ĠDe": 883,
      "ob": 884,
      "we": 885,
      "one": 886,
      "ied": 887,
      "ern": 888,
      "196": 889,
      "ings": 890,
      "ail": 891,
      "ark": 892,
      "ĠCom": 893,
      "ase": 894,
      "Ġfilm": 895,
      "Ġcomm": 896,
      "Ġbeen": 897,
      "ind": 898,
      "ĠĊĊ": 899,
      "gh": 900,
      "Ġother": 901,
      "urn": 902,
      "ics": 903,
      "ee": 904,
      "ted": 905,
      "outh": 906,
      "ĠĠ": 907,
      "Ġdis": 908,
      "Ġafter": 909,
      "uch": 910,
      "Ġim": 911,
      "ely": 912,
      "ft": 913,
      "ral": 914,
      "gan": 915,
      "able": 916,
      "17": 917,
      "ished": 918,
      "red": 919,
      "oh": 920,
      "Ġoff": 921,
      "ah": 922,
      "ton": 923,
      "ec": 924,
      "Ġsp": 925,
      "ury": 926,
      "ren": 927,
      "cted": 928,
      "iversity": 929,
      "ance": 930,
      "Ġlin": 931,
      "Ġup": 932,
      "Ġout": 933,
      "orld": 934,
      "ood": 935,
      "ĠAmerican": 936,
      "ision": 937,
      "Ġover": 938,
      "Ġserv": 939,
      "Ġra": 940,
      "pec": 941,
      "Ġpeople": 942,
      "ont": 943,
      "Ġshe": 944,
      "eb": 945,
      "194": 946,
      "olog": 947,
      "rib": 948,
      "ram": 949,
      "way": 950,
      "Ġev": 951,
      "Ġnew": 952,
      "Ġund": 953,
      "du": 954,
      "Ġloc": 955,
      "Ġthey": 956,
      "ans": 957,
      "Ex": 958,
      "195": 959,
      "ale": 960,
      "Ġne": 961,
      "olle": 962,
      "cess": 963,
      "cent": 964,
      "Ġinto": 965,
      "Ġwork": 966,
      "10": 967,
      "ames": 968,
      "Ġele": 969,
      "ough": 970,
      "ason": 971,
      "Âł": 972,
      "Ġtra": 973,
      "ists": 974,
      "Ġgro": 975,
      "eral": 976,
      "orth": 977,
      "ĠSh": 978,
      "Ġpre": 979,
      "Ġact": 980,
      "che": 981,
      "ose": 982,
      "ternal": 983,
      "Ġatt": 984,
      "ootball": 985,
      ").": 986,
      "ĠUnited": 987,
      "Ġcan": 988,
      "Ã©": 989,
      "ake": 990,
      "ict": 991,
      "Ġtime": 992,
      "rans": 993,
      "az": 994,
      "Ġsec": 995,
      "Ġbu": 996,
      "rough": 997,
      "ily": 998,
      "iel": 999,
      "Ġunder": 1000,
      "ick": 1001,
      "vi": 1002,
      "duc": 1003,
      "16": 1004,
      "ix": 1005,
      "ĠZ": 1006,
      "ve": 1007,
      "ĠInd": 1008,
      "ĠUniversity": 1009,
      "ll": 1010,
      "ik": 1011,
      "Ġpol": 1012,
      "ince": 1013,
      "Ġlinks": 1014,
      "als": 1015,
      "rad": 1016,
      "oci": 1017,
      "oth": 1018,
      "Ġkn": 1019,
      "ife": 1020,
      "pr": 1021,
      "15": 1022,
      "form": 1023,
      "Ġpubl": 1024,
      "Ġreg": 1025,
      "External": 1026,
      "ident": 1027,
      "oun": 1028,
      "ĠPro": 1029,
      "Ġhim": 1030,
      "eat": 1031,
      "Ġbet": 1032,
      "Ġteam": 1033,
      "ins": 1034,
      "reat": 1035,
      "aj": 1036,
      "ities": 1037,
      "use": 1038,
      "ier": 1039,
      "inn": 1040,
      "Ġpr": 1041,
      "Ġplayers": 1042,
      "ouse": 1043,
      "ck": 1044,
      "emb": 1045,
      "193": 1046,
      "ina": 1047,
      "Ġwhen": 1048,
      "ann": 1049,
      "Ġwould": 1050,
      "ars": 1051,
      "ollow": 1052,
      "Ġmore": 1053,
      "att": 1054,
      "usic": 1055,
      "Ġcent": 1056,
      "Ġyears": 1057,
      "Ġest": 1058,
      "ober": 1059,
      "ative": 1060,
      "Ġcons": 1061,
      "ween": 1062,
      "ĠâĢ": 1063,
      "Ġop": 1064,
      "Ġco": 1065,
      "Ġind": 1066,
      "overn": 1067,
      "eries": 1068,
      "Ġagain": 1069,
      "iving": 1070,
      "ular": 1071,
      "resent": 1072,
      "raph": 1073,
      "Ġduring": 1074,
      "ced": 1075,
      "Ġbo": 1076,
      "Ġret": 1077,
      "Ġform": 1078,
      "Ġstud": 1079,
      "Ġwhere": 1080,
      "Ġsub": 1081,
      "der": 1082,
      "bum": 1083,
      "round": 1084,
      "abl": 1085,
      "air": 1086,
      "Ġass": 1087,
      "12": 1088,
      "ĠSc": 1089,
      "ĠCl": 1090,
      "any": 1091,
      "Ġsup": 1092,
      "Ġqu": 1093,
      "ĠStates": 1094,
      "Ġgen": 1095,
      "ĠEng": 1096,
      "ĠAn": 1097,
      "ock": 1098,
      "Ġme": 1099,
      "ohn": 1100,
      "Ġonly": 1101,
      "enn": 1102,
      "Ġfound": 1103,
      "arl": 1104,
      "Ġfl": 1105,
      "ional": 1106,
      "Ġsy": 1107,
      "ash": 1108,
      "Ġrel": 1109,
      "Ġrele": 1110,
      "Ġbetween": 1111,
      "Ġfam": 1112,
      "iam": 1113,
      "pro": 1114,
      "Ġbir": 1115,
      "Ġspec": 1116,
      "ĠShe": 1117,
      "ounty": 1118,
      "Ġfootball": 1119,
      "192": 1120,
      "Ġmost": 1121,
      "erman": 1122,
      "ific": 1123,
      "istory": 1124,
      "cc": 1125,
      "Ġinter": 1126,
      "Ġed": 1127,
      "Ġabout": 1128,
      "ague": 1129,
      "istric": 1130,
      "Ġart": 1131,
      "Ġthree": 1132,
      "fore": 1133,
      "ley": 1134,
      "ex": 1135,
      "ths": 1136,
      "Ġseason": 1137,
      "ctor": 1138,
      "Ġthrough": 1139,
      "Ġrem": 1140,
      "ield": 1141,
      "ating": 1142,
      "202": 1143,
      "Ġmade": 1144,
      "Ġalbum": 1145,
      "iver": 1146,
      "191": 1147,
      "ron": 1148,
      "ĠAs": 1149,
      "Ġnum": 1150,
      "Ġlater": 1151,
      "Ġused": 1152,
      "Ġend": 1153,
      "Ġfollow": 1154,
      "Ġthem": 1155,
      "Ġsing": 1156,
      "inist": 1157,
      "Ġthere": 1158,
      "ever": 1159,
      "Ġwrit": 1160,
      "erson": 1161,
      "Ġmov": 1162,
      "mp": 1163,
      "ograph": 1164,
      "ĠIs": 1165,
      "une": 1166,
      "ank": 1167,
      "ower": 1168,
      "Ġthen": 1169,
      "erm": 1170,
      "ept": 1171,
      "velop": 1172,
      "Ġsecond": 1173,
      ".\"": 1174,
      "ten": 1175,
      "14": 1176,
      "son": 1177,
      "ived": 1178,
      "arg": 1179,
      "Ġso": 1180,
      "13": 1181,
      "hen": 1182,
      "ĠFran": 1183,
      "Ġdef": 1184,
      "Ġpop": 1185,
      "ures": 1186,
      "ĠQ": 1187,
      "uss": 1188,
      "ĠThis": 1189,
      "ines": 1190,
      "arly": 1191,
      "ject": 1192,
      "ĠSp": 1193,
      "Ġdire": 1194,
      "oss": 1195,
      "omen": 1196,
      "Ġtrans": 1197,
      "Ġschool": 1198,
      "ement": 1199,
      "ari": 1200,
      "ert": 1201,
      "Ġrecord": 1202,
      "Ġinv": 1203,
      "ĠWar": 1204,
      "Ġsuch": 1205,
      "ĠWorld": 1206,
      "ĠComm": 1207,
      "Ġknown": 1208,
      "ĠJohn": 1209,
      "ism": 1210,
      "Ġmed": 1211,
      "ĠAust": 1212,
      "istrict": 1213,
      "ys": 1214,
      "ĠNational": 1215,
      "Ġset": 1216,
      "Ġent": 1217,
      "Ġthan": 1218,
      "Ġbecame": 1219,
      "\",": 1220,
      "stit": 1221,
      "uro": 1222,
      "ĠJan": 1223,
      "ĠMay": 1224,
      "Ġph": 1225,
      "Ġprov": 1226,
      "ai": 1227,
      "its": 1228,
      "cy": 1229,
      "ural": 1230,
      "Ġinc": 1231,
      "Ġam": 1232,
      "ĠCon": 1233,
      "ĠCounty": 1234,
      "Ġestabl": 1235,
      "ĠPh": 1236,
      "ĠFor": 1237,
      "ĠBl": 1238,
      "Ġsome": 1239,
      "ments": 1240,
      "ternational": 1241,
      "|-": 1242,
      "Ġ&": 1243,
      "ax": 1244,
      "Ġbl": 1245,
      "pos": 1246,
      "ĠBrit": 1247,
      "urch": 1248,
      "ise": 1249,
      "Ġfour": 1250,
      "els": 1251,
      "Ġbeing": 1252,
      "Ġseries": 1253,
      "Ġlead": 1254,
      "Ġcall": 1255,
      "ĠSchool": 1256,
      "ute": 1257,
      "ays": 1258,
      "eth": 1259,
      "Ġdo": 1260,
      "Ġwell": 1261,
      "other": 1262,
      "Ġgroup": 1263,
      "ĠCan": 1264,
      "ĠOn": 1265,
      "ĠAt": 1266,
      "ey": 1267,
      "ty": 1268,
      "Ġincluding": 1269,
      "ike": 1270,
      "let": 1271,
      "ĠPl": 1272,
      "stem": 1273,
      "Ġsong": 1274,
      "Ġappe": 1275,
      "arri": 1276,
      "com": 1277,
      "very": 1278,
      "Ġagainst": 1279,
      "ĠSouth": 1280,
      ")ĊĊ": 1281,
      "ctions": 1282,
      "ampions": 1283,
      "Ġdeath": 1284,
      "ĠJu": 1285,
      "ĠYork": 1286,
      "uary": 1287,
      "ather": 1288,
      "ĠGerman": 1289,
      "ven": 1290,
      "ians": 1291,
      "ĠNov": 1292,
      "rist": 1293,
      "rid": 1294,
      "ull": 1295,
      "arn": 1296,
      "ĠAd": 1297,
      "ugust": 1298,
      "ae": 1299,
      "ution": 1300,
      "areer": 1301,
      "my": 1302,
      "ĠWest": 1303,
      "ered": 1304,
      "til": 1305,
      "ired": 1306,
      "amed": 1307,
      "eptember": 1308,
      "Ġadd": 1309,
      "ives": 1310,
      "Ġsur": 1311,
      "Ġbefore": 1312,
      "by": 1313,
      "Ġrece": 1314,
      "11": 1315,
      "Ġwhile": 1316,
      "190": 1317,
      "Ġdevelop": 1318,
      "ology": 1319,
      "Ġshow": 1320,
      "born": 1321,
      "Ġbro": 1322,
      "overnment": 1323,
      "ĠOr": 1324,
      "ctober": 1325,
      "Ġoper": 1326,
      "Ġsign": 1327,
      "elf": 1328,
      "=\"": 1329,
      "Ġmay": 1330,
      "Ġmod": 1331,
      "Ġpolit": 1332,
      "Ġmany": 1333,
      "owever": 1334,
      "Ġoffic": 1335,
      "aid": 1336,
      "Ġno": 1337,
      "Ġown": 1338,
      "Ġbuild": 1339,
      "Ġcap": 1340,
      "-s": 1341,
      "Ġmusic": 1342,
      "ized": 1343,
      "Ġgo": 1344,
      "Ġhigh": 1345,
      "ĠAugust": 1346,
      "Ġfamily": 1347,
      "Ġdec": 1348,
      "ues": 1349,
      "Ġmain": 1350,
      "ica": 1351,
      "Ġuntil": 1352,
      "lev": 1353,
      "ĠSeptember": 1354,
      "Ġorig": 1355,
      "au": 1356,
      "Ġnumber": 1357,
      "ĠCent": 1358,
      "rand": 1359,
      "Ġchar": 1360,
      "ets": 1361,
      "Ġbirths": 1362,
      "Ġboth": 1363,
      "ĠMarch": 1364,
      "ery": 1365,
      "Ġrep": 1366,
      "lish": 1367,
      "ollege": 1368,
      "fess": 1369,
      "embers": 1370,
      "eng": 1371,
      "istor": 1372,
      "Ġcre": 1373,
      "mber": 1374,
      "ient": 1375,
      "uth": 1376,
      "pril": 1377,
      "ott": 1378,
      "ef": 1379,
      "Ġname": 1380,
      "oman": 1381,
      "ĠOctober": 1382,
      "ris": 1383,
      "Ġmon": 1384,
      "ĠGe": 1385,
      "ved": 1386,
      "gram": 1387,
      "itt": 1388,
      "Ġback": 1389,
      "Ġplayed": 1390,
      "ĠAustral": 1391,
      "ĠJanuary": 1392,
      "xt": 1393,
      "ants": 1394,
      "Ġem": 1395,
      "wards": 1396,
      "ple": 1397,
      "ĠâĢĶ": 1398,
      "stru": 1399,
      "Ġexp": 1400,
      "ĠJune": 1401,
      "arm": 1402,
      "cember": 1403,
      "ital": 1404,
      "ained": 1405,
      "ĠWh": 1406,
      "Ġreleased": 1407,
      "ulation": 1408,
      "Ġsever": 1409,
      "ĠMan": 1410,
      "ĠTe": 1411,
      "Ġgu": 1412,
      "Ch": 1413,
      "ission": 1414,
      "ajor": 1415,
      "21": 1416,
      "Ġdesign": 1417,
      "ĠJuly": 1418,
      "000": 1419,
      "ium": 1420,
      "ior": 1421,
      "25": 1422,
      "30": 1423,
      "isc": 1424,
      "Ġcount": 1425,
      "yl": 1426,
      "imes": 1427,
      "ampionship": 1428,
      "ross": 1429,
      "Ġarea": 1430,
      "ĠApril": 1431,
      "ages": 1432,
      "Ġdif": 1433,
      "por": 1434,
      "ĠNorth": 1435,
      "ract": 1436,
      "Ġformer": 1437,
      "ĠPr": 1438,
      "ĠAss": 1439,
      "ĠBritish": 1440,
      "eg": 1441,
      "ĠLeague": 1442,
      "Ġfeat": 1443,
      "duced": 1444,
      "Ġmat": 1445,
      "ĠEuro": 1446,
      "Ġdesc": 1447,
      "ared": 1448,
      "ret": 1449,
      "Ġwon": 1450,
      "Ġstart": 1451,
      "ĠNovember": 1452,
      "Ġorgan": 1453,
      "vent": 1454,
      "Ġprodu": 1455,
      "Ġann": 1456,
      "ird": 1457,
      "See": 1458,
      "icip": 1459,
      "-cent": 1460,
      "olor": 1461,
      "fl": 1462,
      "ĠCity": 1463,
      "Ġsystem": 1464,
      "Ġopen": 1465,
      "ĠGu": 1466,
      "led": 1467,
      "Ġlife": 1468,
      "resident": 1469,
      "ĠCo": 1470,
      "Ġrun": 1471,
      "rop": 1472,
      "Ġclass": 1473,
      "St": 1474,
      "ually": 1475,
      "ĠPol": 1476,
      "ety": 1477,
      "ĠDecember": 1478,
      "Ġsm": 1479,
      "American": 1480,
      "ket": 1481,
      "Ġext": 1482,
      "Ġacc": 1483,
      "hes": 1484,
      "cept": 1485,
      "ports": 1486,
      "Ġfilms": 1487,
      "Ġob": 1488,
      "\".": 1489,
      "Ġstate": 1490,
      "ography": 1491,
      "ause": 1492,
      "arch": 1493,
      "Ġwill": 1494,
      "ĠEd": 1495,
      "Ġgame": 1496,
      "Ġpublic": 1497,
      "Ġlong": 1498,
      "..": 1499,
      "ĠState": 1500,
      "apan": 1501,
      "ĠRep": 1502,
      "On": 1503,
      "ĠCal": 1504,
      "Ġcalled": 1505,
      "levision": 1506,
      "ilt": 1507,
      "ebru": 1508,
      "ebruary": 1509,
      "ung": 1510,
      "-century": 1511,
      "ĠII": 1512,
      "anc": 1513,
      "ales": 1514,
      "ĠBo": 1515,
      "rent": 1516,
      "ove": 1517,
      "Ġdr": 1518,
      "Ġsame": 1519,
      "ĠAll": 1520,
      "inc": 1521,
      "con": 1522,
      "ĠCar": 1523,
      "ĠKing": 1524,
      "yle": 1525,
      "ner": 1526,
      "ĠReg": 1527,
      "amb": 1528,
      "ility": 1529,
      "Ġcommun": 1530,
      "Ġdep": 1531,
      "ilit": 1532,
      "ĠBro": 1533,
      "189": 1534,
      "aking": 1535,
      "ĠCanad": 1536,
      "Ġseveral": 1537,
      "view": 1538,
      "ĠWill": 1539,
      "ĠAf": 1540,
      "Ġcity": 1541,
      "Ġchild": 1542,
      "af": 1543,
      "rat": 1544,
      "Ġreturn": 1545,
      "Ġfinal": 1546,
      "Ġfin": 1547,
      "ĠSe": 1548,
      "yn": 1549,
      "oint": 1550,
      "ony": 1551,
      "Ġair": 1552,
      "ange": 1553,
      "chn": 1554,
      "Ġsuc": 1555,
      "Ġcareer": 1556,
      "ible": 1557,
      "rench": 1558,
      "right": 1559,
      "Ġfollowing": 1560,
      "ially": 1561,
      "orks": 1562,
      "Ġearly": 1563,
      "ured": 1564,
      "ped": 1565,
      "Ġcontin": 1566,
      "Ġtown": 1567,
      ").ĊĊ": 1568,
      "the": 1569,
      "ful": 1570,
      "sh": 1571,
      "ĠBe": 1572,
      "Ġ'": 1573,
      "Ġlist": 1574,
      "ĠFebruary": 1575,
      "ices": 1576,
      "ains": 1577,
      "ally": 1578,
      "Ã¡": 1579,
      "Ġmin": 1580,
      "Ġcur": 1581,
      "ster": 1582,
      "reen": 1583,
      "ĠEurope": 1584,
      "ĠAm": 1585,
      "ring": 1586,
      "Ġbel": 1587,
      "Ġsince": 1588,
      "bo": 1589,
      "ience": 1590,
      "ata": 1591,
      "Ġoriginal": 1592,
      "Ġprogram": 1593,
      "Ġnear": 1594,
      "ised": 1595,
      "Ġcompet": 1596,
      "24": 1597,
      "ham": 1598,
      "Ġdisc": 1599,
      "Ġany": 1600,
      "âĢĻ": 1601,
      "angu": 1602,
      "ĠĠĠĠ": 1603,
      "ese": 1604,
      "ble": 1605,
      "ĠFl": 1606,
      "ided": 1607,
      "ued": 1608,
      "Ġthese": 1609,
      "orm": 1610,
      "ival": 1611,
      "ended": 1612,
      "Ġhead": 1613,
      "ille": 1614,
      "sp": 1615,
      "Ġplace": 1616,
      "ze": 1617,
      "ane": 1618,
      "Ġwomen": 1619,
      "Ġnamed": 1620,
      "Ġbased": 1621,
      "Ġclub": 1622,
      "Ġbegan": 1623,
      "Ġwe": 1624,
      "ĠPar": 1625,
      "ĠThey": 1626,
      "Ġvill": 1627,
      "Ġcomple": 1628,
      "Ġuse": 1629,
      "Ġtit": 1630,
      "Ġland": 1631,
      "Ġeff": 1632,
      "ious": 1633,
      "Ġprom": 1634,
      "Ġsupport": 1635,
      "aint": 1636,
      "Ġmet": 1637,
      "Ġmembers": 1638,
      ".S": 1639,
      "ĠUS": 1640,
      "ĠBar": 1641,
      "iness": 1642,
      "Ġapp": 1643,
      "ality": 1644,
      "Ġmember": 1645,
      "-l": 1646,
      "Ġeng": 1647,
      "Ġgovernment": 1648,
      "Ġdist": 1649,
      "Ġheld": 1650,
      "Ġestablished": 1651,
      "augh": 1652,
      "ically": 1653,
      "ĠGeor": 1654,
      "Ġpass": 1655,
      "ivision": 1656,
      "pect": 1657,
      "Ġalong": 1658,
      "ĠHis": 1659,
      "ĠJapan": 1660,
      "itions": 1661,
      "ounc": 1662,
      "ĠChrist": 1663,
      "Ġdescrib": 1664,
      "ĠAfter": 1665,
      "188": 1666,
      "Ġlocated": 1667,
      "tt": 1668,
      "-d": 1669,
      "me": 1670,
      "urg": 1671,
      "Ġcharact": 1672,
      "ien": 1673,
      "ĠAnd": 1674,
      "ĠHar": 1675,
      "ana": 1676,
      "Ġdid": 1677,
      "Ġocc": 1678,
      ":ĊĊ": 1679,
      "ode": 1680,
      "Ġeach": 1681,
      "ĠSw": 1682,
      "alth": 1683,
      "Ġlaw": 1684,
      "ford": 1685,
      "Ġsim": 1686,
      "ondon": 1687,
      "ino": 1688,
      "Ġyou": 1689,
      "ky": 1690,
      "ĠCol": 1691,
      "row": 1692,
      "ĠEnglish": 1693,
      "ĠEl": 1694,
      "aced": 1695,
      "ator": 1696,
      "ĠMc": 1697,
      "ĠGen": 1698,
      "Ġband": 1699,
      "ney": 1700,
      "ĠPart": 1701,
      "ublic": 1702,
      "ĠEx": 1703,
      "lymp": 1704,
      "ington": 1705,
      "Ġpos": 1706,
      "He": 1707,
      "ociation": 1708,
      "ĠCollege": 1709,
      "Ġtr": 1710,
      "ĠAir": 1711,
      "que": 1712,
      "uk": 1713,
      "ches": 1714,
      "ĠEast": 1715,
      "23": 1716,
      "ats": 1717,
      "Ġinst": 1718,
      "ored": 1719,
      "erg": 1720,
      "ourn": 1721,
      "Ġbus": 1722,
      "ined": 1723,
      "ĠAfric": 1724,
      "aving": 1725,
      "Ġstation": 1726,
      "Ġmajor": 1727,
      "Ġtook": 1728,
      "ett": 1729,
      "Ġsmall": 1730,
      "rew": 1731,
      "ĠChampionship": 1732,
      "Ġline": 1733,
      "Ġhouse": 1734,
      "eter": 1735,
      "med": 1736,
      "Ġhome": 1737,
      "ourt": 1738,
      "ards": 1739,
      "ights": 1740,
      "ĠAb": 1741,
      "illion": 1742,
      "Ġnational": 1743,
      "ĠRo": 1744,
      "ps": 1745,
      "aces": 1746,
      "Ġcompany": 1747,
      "adem": 1748,
      "Ġsl": 1749,
      "Ġpopulation": 1750,
      "Ġworld": 1751,
      "Ġperson": 1752,
      "Ġvari": 1753,
      "int": 1754,
      "aul": 1755,
      "Ġserved": 1756,
      "22": 1757,
      "Th": 1758,
      "ĠLondon": 1759,
      "Ġbas": 1760,
      "Ġlocal": 1761,
      "Ġgeneral": 1762,
      "Ġgames": 1763,
      "-b": 1764,
      "Ġalign": 1765,
      "Ġvers": 1766,
      "-t": 1767,
      "ĠFrench": 1768,
      "Ġborn": 1769,
      "Ġleg": 1770,
      "ature": 1771,
      "Ġcentury": 1772,
      "arge": 1773,
      "ĠDistrict": 1774,
      "ĠX": 1775,
      "ĠMed": 1776,
      "Ġvi": 1777,
      "Ġpublished": 1778,
      "ĠWilliam": 1779,
      "Ġtelevision": 1780,
      "Ġcould": 1781,
      "Ġappro": 1782,
      "Ġevent": 1783,
      "iet": 1784,
      "Ġbuilt": 1785,
      "Ġsuccess": 1786,
      "Ġprofess": 1787,
      "Ġ$": 1788,
      "Ġreceived": 1789,
      "ĠRuss": 1790,
      "ffic": 1791,
      "Ġmanag": 1792,
      "ĠHigh": 1793,
      "Ġjoin": 1794,
      "ilitary": 1795,
      "Ġdeb": 1796,
      "186": 1797,
      "Ġpo": 1798,
      "Ġsingle": 1799,
      "Ġstr": 1800,
      "vers": 1801,
      "50": 1802,
      "ara": 1803,
      "Ġterm": 1804,
      "ief": 1805,
      "ides": 1806,
      "ĠSy": 1807,
      "Ġaround": 1808,
      "Ġcolle": 1809,
      "rol": 1810,
      "ĠHer": 1811,
      "Al": 1812,
      "ately": 1813,
      "26": 1814,
      "ows": 1815,
      "ummer": 1816,
      "-f": 1817,
      "ified": 1818,
      "ords": 1819,
      "Ġold": 1820,
      "Living": 1821,
      "ording": 1822,
      "Ġdue": 1823,
      "uthor": 1824,
      "187": 1825,
      "omin": 1826,
      "Ġnow": 1827,
      "Ġhel": 1828,
      "27": 1829,
      "ouncil": 1830,
      "ĠCup": 1831,
      "arried": 1832,
      "ĠComp": 1833,
      "28": 1834,
      "Ġeduc": 1835,
      "Ġspecies": 1836,
      "ev": 1837,
      "side": 1838,
      "Ġlast": 1839,
      "aus": 1840,
      "ocial": 1841,
      "Ġty": 1842,
      "ration": 1843,
      "umn": 1844,
      "Ġage": 1845,
      "ĠSec": 1846,
      "ĠItal": 1847,
      "Ġpresent": 1848,
      "ling": 1849,
      "Ġep": 1850,
      "iod": 1851,
      "Ġleft": 1852,
      "Ã³": 1853,
      "idd": 1854,
      "raft": 1855,
      "Ġhistory": 1856,
      "aim": 1857,
      "oph": 1858,
      "reet": 1859,
      "ĠHowever": 1860,
      "\"Ċ": 1861,
      "Ġcar": 1862,
      "ization": 1863,
      "ĠHouse": 1864,
      "ĠDav": 1865,
      "Ġsix": 1866,
      "Ġcamp": 1867,
      "co": 1868,
      "artment": 1869,
      "Ġla": 1870,
      "ĠArt": 1871,
      "ĠPark": 1872,
      "Ġrest": 1873,
      "ĠAng": 1874,
      "ĠCor": 1875,
      "color": 1876,
      "Ġplayer": 1877,
      "Ġorder": 1878,
      "Ġdet": 1879,
      ":Ċ": 1880,
      "tal": 1881,
      "umb": 1882,
      "van": 1883,
      "ink": 1884,
      "Ġpar": 1885,
      "Ġtop": 1886,
      "ele": 1887,
      "ĠSup": 1888,
      "uf": 1889,
      "iven": 1890,
      "akes": 1891,
      "Ġnorth": 1892,
      "Ġwithin": 1893,
      "Ġsaid": 1894,
      "Ġrepresent": 1895,
      "People": 1896,
      "Ġshort": 1897,
      "ones": 1898,
      "Ġ.": 1899,
      "Ġtri": 1900,
      "Ġinclude": 1901,
      "ĠRes": 1902,
      "ideo": 1903,
      "Ġdied": 1904,
      "ĠLa": 1905,
      "ether": 1906,
      "anguage": 1907,
      "ĠPhil": 1908,
      "Ġvillage": 1909,
      "Ġfive": 1910,
      "Ġday": 1911,
      "oks": 1912,
      "100": 1913,
      "Ġdiffer": 1914,
      "hem": 1915,
      "ently": 1916,
      "Ġ,": 1917,
      "ison": 1918,
      "Ġstyle": 1919,
      "Un": 1920,
      "Ġcol": 1921,
      "urther": 1922,
      "Ġbecause": 1923,
      "ĠMe": 1924,
      "Ġrequ": 1925,
      "though": 1926,
      "ĠInternational": 1927,
      "ĠNo": 1928,
      "alk": 1929,
      "ĠRiver": 1930,
      "iforn": 1931,
      "aster": 1932,
      "Ġdescribed": 1933,
      "urs": 1934,
      "ument": 1935,
      "Ġdown": 1936,
      "ler": 1937,
      "na": 1938,
      "ĠGl": 1939,
      "oyal": 1940,
      "ene": 1941,
      "Ġref": 1942,
      "ĠIndian": 1943,
      "Ġbuilding": 1944,
      "Ġlarge": 1945,
      "Ġmen": 1946,
      "Ġthird": 1947,
      "Ġpost": 1948,
      "Ġincluded": 1949,
      "Ġconsid": 1950,
      "29": 1951,
      "ĠTr": 1952,
      "sc": 1953,
      "ote": 1954,
      "Ġchildren": 1955,
      "reg": 1956,
      "ifornia": 1957,
      ".,": 1958,
      "Ġpower": 1959,
      "ively": 1960,
      "ference": 1961,
      "Ġstand": 1962,
      "rest": 1963,
      "ridge": 1964,
      "ĠOlymp": 1965,
      "ÃŃ": 1966,
      "Ã¼": 1967,
      "Ġresult": 1968,
      "tain": 1969,
      "Ġmark": 1970,
      "ald": 1971,
      "Ġadm": 1972,
      "Ġdem": 1973,
      "Ġreport": 1974,
      "ĠAc": 1975,
      "ĠEngland": 1976,
      "Ġsouth": 1977,
      "vious": 1978,
      "riend": 1979,
      "ĠEn": 1980,
      "conom": 1981,
      "osp": 1982,
      "Ġson": 1983,
      "ĠSan": 1984,
      "ĠRec": 1985,
      "ody": 1986,
      "adio": 1987,
      "key": 1988,
      "Ġlo": 1989,
      "ico": 1990,
      "era": 1991,
      "uman": 1992,
      "cture": 1993,
      "Ġbook": 1994,
      "useum": 1995,
      "Ġcor": 1996,
      "uck": 1997,
      "Ġlarg": 1998,
      "rag": 1999
    },
    "merges": [
      "Ġ t",
      "h e",
      "i n",
      "Ġ a",
      "e r",
      "o n",
      "Ġt he",
      "r e",
      "a n",
      "o r",
      "e n",
      "a t",
      "e d",
      "Ġ o",
      "s t",
      "a l",
      "Ġ w",
      "a r",
      "i t",
      "Ġo f",
      "n d",
      "Ġ in",
      "Ġ s",
      "e s",
      "Ġ f",
      "i s",
      "Ġ c",
      "Ġ b",
      "i c",
      "Ġ p",
      "in g",
      "Ġa nd",
      "a s",
      "i on",
      "r o",
      "l e",
      "Ġ S",
      "Ċ Ċ",
      "Ġt o",
      "Ġ m",
      "Ġ d",
      "Ġ C",
      "o u",
      "Ġ A",
      "i l",
      "en t",
      "Ġ h",
      "Ġ T",
      "a m",
      "Ġ M",
      "o m",
      "e l",
      "o l",
      "Ġ re",
      "Ġ (",
      "c t",
      "Ġ B",
      "Ġ l",
      "1 9",
      "a d",
      "Ġ P",
      "u r",
      ". ĊĊ",
      "e t",
      "c h",
      "i v",
      "er s",
      "Ġ H",
      "at ion",
      "Ġw as",
      "Ġ n",
      "Ġ e",
      "i g",
      "Ġ I",
      "2 0",
      "i r",
      "i d",
      "o t",
      "Ġt h",
      "Ġ R",
      "u s",
      "c e",
      "Ġf or",
      "Ġ on",
      "a y",
      "Ġ D",
      "l y",
      "i m",
      "Ġ L",
      "i st",
      "u t",
      "Ġ F",
      "Ġ is",
      "r a",
      "Ġ g",
      "Ġ G",
      "Ġa s",
      "o w",
      "e m",
      "Ġ N",
      "u n",
      "ĠT he",
      "t h",
      "Ġ W",
      "it h",
      "Ġb e",
      "an d",
      "Ġ st",
      "he r",
      "t er",
      "u l",
      "â Ģ",
      "Ġ J",
      "Ġw ith",
      "Ġ E",
      "Ġb y",
      "Ġa l",
      "a g",
      "u m",
      "o s",
      "ro m",
      "o p",
      "a c",
      "v er",
      "' s",
      "Ġa t",
      "r i",
      "Ġw h",
      "Ġ O",
      "Ġa n",
      "o c",
      "Ġd e",
      "Ġc on",
      "i an",
      "Ġf rom",
      "Ġ he",
      "âĢ ĵ",
      "Ġ K",
      "i a",
      "Ġ v",
      "a in",
      "b er",
      "Ġth at",
      "al l",
      "it y",
      "o d",
      "re s",
      "i es",
      "e st",
      "Ġ \"",
      "Ġ U",
      "a v",
      "ar t",
      "Ġc om",
      "a b",
      "i f",
      "at e",
      "Ġp ro",
      "il l",
      "20 1",
      "u p",
      "e w",
      "or t",
      "Ġs e",
      "ar d",
      "u d",
      "p e",
      "c es",
      "ĠS t",
      "Ġp l",
      "20 0",
      "Ġ it",
      "a k",
      "u b",
      "ig h",
      "i p",
      "Ġh is",
      "s e",
      "o re",
      "ic h",
      "o v",
      "a st",
      "n t",
      "Ġ or",
      "l d",
      "a p",
      "q u",
      "at ed",
      "an t",
      "ar y",
      "m ent",
      "is h",
      "ĠC h",
      "ĠI n",
      "T he",
      "g e",
      "f er",
      "m er",
      "iv e",
      "Ġ r",
      "Ġ V",
      "o g",
      "ou r",
      "on g",
      "i al",
      "u g",
      "1 8",
      "Ġ |",
      "Ġc h",
      "Ġa re",
      "en d",
      "in e",
      "Ġ Ċ",
      "u nd",
      "Ġe x",
      "k s",
      "er e",
      "el l",
      ") Ċ",
      "u st",
      "e ar",
      "e p",
      "ct ion",
      "am e",
      "or d",
      "s o",
      "i re",
      "Ġ| |",
      "Ġw ere",
      "u c",
      "u re",
      "r an",
      "igh t",
      "ic al",
      "Ġ le",
      "o st",
      "i e",
      "u e",
      ") ,",
      "ig n",
      "ĠH e",
      "Ġwh ich",
      "Ġal so",
      "ĠU n",
      "a re",
      "es s",
      "r ic",
      "Ġcom p",
      "c l",
      "Ġs h",
      "t her",
      "r it",
      "19 9",
      "Ġpl ay",
      "Ġ y",
      "Ġ k",
      "f f",
      "r y",
      "as s",
      "ag e",
      "ir st",
      "m an",
      "p ort",
      "fer en",
      "Ġ âĢĵ",
      "ou nt",
      "it ion",
      "ou s",
      "R e",
      "Ġ un",
      ". Ċ",
      "or k",
      "t e",
      "i z",
      "ac k",
      "t s",
      "Ġa r",
      "er v",
      "on d",
      "ation al",
      "Ġc l",
      "Ġh ad",
      "id e",
      "he d",
      "Ġt e",
      "Ġ Y",
      "p er",
      "ter n",
      "o k",
      "l and",
      "an g",
      "or y",
      "ation s",
      "ic an",
      "ic e",
      "Ġn ot",
      "Ġh as",
      "n e",
      "p l",
      "Ġf irst",
      "n g",
      "av e",
      "0 0",
      "ow n",
      "feren ces",
      "om e",
      "f ter",
      "ĠI t",
      "Ġw he",
      "Ġ ro",
      "i b",
      "at er",
      "or n",
      "am p",
      "Ġcon t",
      "Re ferences",
      "19 8",
      "Ġ us",
      "en s",
      "w o",
      "a ch",
      "ĠA l",
      "p h",
      "it e",
      "I n",
      "ĠT h",
      "Ġa d",
      "re e",
      "at es",
      "ion s",
      "ul t",
      "il m",
      "Ġp art",
      "op le",
      "it ed",
      "im e",
      "Ġwh o",
      "Ġthe ir",
      "r u",
      "Ġin t",
      "Ġa p",
      "ĠA r",
      "Ġre s",
      "Ġ j",
      "a w",
      "Ġit s",
      "ou nd",
      "Ġ her",
      "em ber",
      "at h",
      "o ol",
      "ub l",
      "k e",
      "ĠR e",
      "mer ican",
      "ĠM ar",
      "iv ers",
      "ou t",
      "p t",
      "o ver",
      "a ce",
      "il d",
      "Ġa b",
      "or s",
      "is s",
      "Ġb ut",
      "e ople",
      "cl ud",
      "ol l",
      "Ġa c",
      "19 7",
      "Ġy ear",
      "Ġon e",
      "in al",
      "ĠL e",
      "i le",
      "b all",
      "ug h",
      "ol d",
      "Ġ -",
      "ad e",
      "ou ld",
      "Ġp er",
      "Ġre c",
      "u al",
      "ĠN ew",
      "res s",
      "Ġa g",
      "f or",
      "o ot",
      "ent s",
      "en ce",
      "Ġm an",
      "h ip",
      "w n",
      "ur ing",
      "Ġs c",
      "l es",
      "a ct",
      "w ard",
      "o y",
      "Ġt wo",
      "Ġh ave",
      "Ġin clud",
      "o in",
      "Ġbe c",
      "on s",
      "ch ool",
      "s s",
      "as ed",
      "e ct",
      "Ġd es",
      "i o",
      "Ġth is",
      "Ġ en",
      "Ġal l",
      "v el",
      "ĠD e",
      "o b",
      "w e",
      "on e",
      "i ed",
      "er n",
      "19 6",
      "ing s",
      "a il",
      "ar k",
      "ĠC om",
      "as e",
      "Ġf ilm",
      "Ġcom m",
      "Ġbe en",
      "in d",
      "Ġ ĊĊ",
      "g h",
      "Ġo ther",
      "ur n",
      "ic s",
      "e e",
      "t ed",
      "ou th",
      "Ġ Ġ",
      "Ġd is",
      "Ġa fter",
      "u ch",
      "Ġ im",
      "el y",
      "f t",
      "r al",
      "g an",
      "ab le",
      "1 7",
      "is hed",
      "re d",
      "o h",
      "Ġof f",
      "a h",
      "t on",
      "e c",
      "Ġs p",
      "ur y",
      "re n",
      "ct ed",
      "ivers ity",
      "an ce",
      "Ġl in",
      "Ġ up",
      "Ġo ut",
      "or ld",
      "o od",
      "ĠA merican",
      "is ion",
      "Ġo ver",
      "Ġs erv",
      "Ġ ra",
      "pe c",
      "Ġp eople",
      "on t",
      "Ġs he",
      "e b",
      "19 4",
      "ol og",
      "ri b",
      "r am",
      "w ay",
      "Ġe v",
      "Ġn ew",
      "Ġ und",
      "d u",
      "Ġl oc",
      "Ġthe y",
      "an s",
      "E x",
      "19 5",
      "al e",
      "Ġn e",
      "ol le",
      "ces s",
      "c ent",
      "Ġint o",
      "Ġw ork",
      "1 0",
      "am es",
      "Ġe le",
      "ou gh",
      "as on",
      "Â ł",
      "Ġt ra",
      "ist s",
      "Ġg ro",
      "er al",
      "or th",
      "ĠS h",
      "Ġp re",
      "Ġa ct",
      "c he",
      "os e",
      "tern al",
      "Ġat t",
      "oot ball",
      ") .",
      "ĠUn ited",
      "Ġc an",
      "Ã ©",
      "ak e",
      "ic t",
      "Ġt ime",
      "ran s",
      "a z",
      "Ġse c",
      "Ġb u",
      "ro ugh",
      "il y",
      "i el",
      "Ġund er",
      "ic k",
      "v i",
      "d uc",
      "1 6",
      "i x",
      "Ġ Z",
      "v e",
      "ĠI nd",
      "ĠUn iversity",
      "l l",
      "i k",
      "Ġp ol",
      "in ce",
      "Ġlin ks",
      "al s",
      "r ad",
      "oc i",
      "ot h",
      "Ġk n",
      "if e",
      "p r",
      "1 5",
      "for m",
      "Ġp ubl",
      "Ġre g",
      "Ex ternal",
      "id ent",
      "ou n",
      "ĠP ro",
      "Ġh im",
      "e at",
      "Ġb et",
      "Ġte am",
      "in s",
      "re at",
      "a j",
      "it ies",
      "us e",
      "i er",
      "in n",
      "Ġp r",
      "Ġplay ers",
      "ou se",
      "c k",
      "em b",
      "19 3",
      "in a",
      "Ġwhe n",
      "an n",
      "Ġw ould",
      "ar s",
      "oll ow",
      "Ġm ore",
      "at t",
      "us ic",
      "Ġc ent",
      "Ġyear s",
      "Ġe st",
      "o ber",
      "at ive",
      "Ġcon s",
      "we en",
      "Ġ âĢ",
      "Ġo p",
      "Ġc o",
      "Ġin d",
      "over n",
      "er ies",
      "Ġag ain",
      "iv ing",
      "ul ar",
      "res ent",
      "ra ph",
      "Ġd uring",
      "c ed",
      "Ġb o",
      "Ġre t",
      "Ġfor m",
      "Ġst ud",
      "Ġwhe re",
      "Ġs ub",
      "d er",
      "b um",
      "ro und",
      "ab l",
      "a ir",
      "Ġas s",
      "1 2",
      "ĠS c",
      "ĠC l",
      "an y",
      "Ġs up",
      "Ġ qu",
      "ĠSt ates",
      "Ġg en",
      "ĠE ng",
      "ĠA n",
      "oc k",
      "Ġm e",
      "oh n",
      "Ġon ly",
      "en n",
      "Ġf ound",
      "ar l",
      "Ġf l",
      "ion al",
      "Ġs y",
      "as h",
      "Ġre l",
      "Ġre le",
      "Ġbet ween",
      "Ġf am",
      "i am",
      "p ro",
      "Ġb ir",
      "Ġs pec",
      "ĠS he",
      "ount y",
      "Ġf ootball",
      "19 2",
      "Ġm ost",
      "er man",
      "if ic",
      "ist ory",
      "c c",
      "Ġin ter",
      "Ġ ed",
      "Ġab out",
      "ag ue",
      "ist ric",
      "Ġar t",
      "Ġth ree",
      "f ore",
      "le y",
      "e x",
      "th s",
      "Ġse ason",
      "ct or",
      "Ġth rough",
      "Ġre m",
      "iel d",
      "at ing",
      "20 2",
      "Ġm ade",
      "Ġal bum",
      "iv er",
      "19 1",
      "r on",
      "ĠA s",
      "Ġn um",
      "Ġl ater",
      "Ġus ed",
      "Ġ end",
      "Ġf ollow",
      "Ġthe m",
      "Ġs ing",
      "in ist",
      "Ġthe re",
      "e ver",
      "Ġw rit",
      "ers on",
      "Ġm ov",
      "m p",
      "og raph",
      "ĠI s",
      "un e",
      "an k",
      "ow er",
      "Ġthe n",
      "er m",
      "ep t",
      "vel op",
      "Ġsec ond",
      ". \"",
      "t en",
      "1 4",
      "s on",
      "iv ed",
      "ar g",
      "Ġs o",
      "1 3",
      "he n",
      "ĠF ran",
      "Ġde f",
      "Ġp op",
      "u res",
      "Ġ Q",
      "us s",
      "ĠTh is",
      "in es",
      "ar ly",
      "j ect",
      "ĠS p",
      "Ġd ire",
      "os s",
      "om en",
      "Ġt rans",
      "Ġs chool",
      "em ent",
      "ar i",
      "er t",
      "Ġrec ord",
      "Ġin v",
      "ĠW ar",
      "Ġs uch",
      "ĠW orld",
      "ĠCom m",
      "Ġkn own",
      "ĠJ ohn",
      "is m",
      "Ġm ed",
      "ĠA ust",
      "istric t",
      "y s",
      "ĠN ational",
      "Ġs et",
      "Ġ ent",
      "Ġth an",
      "Ġbec ame",
      "\" ,",
      "st it",
      "u ro",
      "ĠJ an",
      "ĠM ay",
      "Ġp h",
      "Ġpro v",
      "a i",
      "it s",
      "c y",
      "ur al",
      "Ġin c",
      "Ġa m",
      "ĠC on",
      "ĠC ounty",
      "Ġest abl",
      "ĠP h",
      "ĠF or",
      "ĠB l",
      "Ġs ome",
      "ment s",
      "tern ational",
      "| -",
      "Ġ &",
      "a x",
      "Ġb l",
      "p os",
      "ĠB rit",
      "ur ch",
      "is e",
      "Ġf our",
      "el s",
      "Ġbe ing",
      "Ġs eries",
      "Ġle ad",
      "Ġc all",
      "ĠS chool",
      "ut e",
      "ay s",
      "et h",
      "Ġd o",
      "Ġw ell",
      "ot her",
      "Ġgro up",
      "ĠC an",
      "ĠO n",
      "ĠA t",
      "e y",
      "t y",
      "Ġinclud ing",
      "i ke",
      "le t",
      "ĠP l",
      "st em",
      "Ġs ong",
      "Ġap pe",
      "ar ri",
      "c om",
      "ver y",
      "Ġagain st",
      "ĠS outh",
      ") ĊĊ",
      "ction s",
      "amp ions",
      "Ġde ath",
      "ĠJ u",
      "ĠY ork",
      "u ary",
      "at her",
      "ĠG erman",
      "v en",
      "ian s",
      "ĠN ov",
      "r ist",
      "r id",
      "ul l",
      "ar n",
      "ĠA d",
      "ug ust",
      "a e",
      "ut ion",
      "are er",
      "m y",
      "ĠW est",
      "er ed",
      "t il",
      "ire d",
      "am ed",
      "ept ember",
      "Ġad d",
      "iv es",
      "Ġs ur",
      "Ġbe fore",
      "b y",
      "Ġre ce",
      "1 1",
      "Ġwh ile",
      "19 0",
      "Ġde velop",
      "olog y",
      "Ġsh ow",
      "b orn",
      "Ġb ro",
      "overn ment",
      "ĠO r",
      "ct ober",
      "Ġo per",
      "Ġs ign",
      "el f",
      "= \"",
      "Ġm ay",
      "Ġm od",
      "Ġpol it",
      "Ġman y",
      "ow ever",
      "Ġoff ic",
      "a id",
      "Ġn o",
      "Ġo wn",
      "Ġbu ild",
      "Ġc ap",
      "- s",
      "Ġm usic",
      "iz ed",
      "Ġg o",
      "Ġh igh",
      "ĠA ugust",
      "Ġfam ily",
      "Ġde c",
      "u es",
      "Ġm ain",
      "ic a",
      "Ġun til",
      "le v",
      "ĠS eptember",
      "Ġor ig",
      "a u",
      "Ġnum ber",
      "ĠC ent",
      "r and",
      "Ġch ar",
      "et s",
      "Ġbir ths",
      "Ġb oth",
      "ĠMar ch",
      "er y",
      "Ġre p",
      "l ish",
      "olle ge",
      "f ess",
      "emb ers",
      "en g",
      "ist or",
      "Ġc re",
      "m ber",
      "i ent",
      "ut h",
      "pr il",
      "ot t",
      "e f",
      "Ġn ame",
      "om an",
      "ĠO ctober",
      "r is",
      "Ġm on",
      "ĠG e",
      "v ed",
      "g ram",
      "it t",
      "Ġb ack",
      "Ġplay ed",
      "ĠAust ral",
      "ĠJan uary",
      "x t",
      "ant s",
      "Ġe m",
      "ward s",
      "p le",
      "ĠâĢ Ķ",
      "st ru",
      "Ġex p",
      "ĠJ une",
      "ar m",
      "ce mber",
      "it al",
      "ain ed",
      "ĠW h",
      "Ġrele ased",
      "ul ation",
      "Ġse ver",
      "ĠM an",
      "ĠT e",
      "Ġg u",
      "C h",
      "iss ion",
      "aj or",
      "2 1",
      "Ġdes ign",
      "ĠJu ly",
      "00 0",
      "i um",
      "i or",
      "2 5",
      "3 0",
      "is c",
      "Ġc ount",
      "y l",
      "im es",
      "ampions hip",
      "ro ss",
      "Ġare a",
      "ĠA pril",
      "ag es",
      "Ġd if",
      "p or",
      "ĠN orth",
      "ra ct",
      "Ġfor mer",
      "ĠP r",
      "ĠA ss",
      "ĠBrit ish",
      "e g",
      "ĠLe ague",
      "Ġf eat",
      "duc ed",
      "Ġm at",
      "ĠE uro",
      "Ġdes c",
      "are d",
      "re t",
      "Ġw on",
      "Ġst art",
      "ĠNov ember",
      "Ġor gan",
      "v ent",
      "Ġpro du",
      "Ġan n",
      "ir d",
      "S ee",
      "ic ip",
      "- cent",
      "ol or",
      "f l",
      "ĠC ity",
      "Ġsy stem",
      "Ġop en",
      "ĠG u",
      "l ed",
      "Ġl ife",
      "res ident",
      "ĠC o",
      "Ġr un",
      "ro p",
      "Ġcl ass",
      "S t",
      "ual ly",
      "ĠP ol",
      "et y",
      "ĠDe cember",
      "Ġs m",
      "A merican",
      "k et",
      "Ġex t",
      "Ġac c",
      "he s",
      "ce pt",
      "port s",
      "Ġfilm s",
      "Ġo b",
      "\" .",
      "Ġst ate",
      "ograph y",
      "a use",
      "ar ch",
      "Ġw ill",
      "ĠE d",
      "Ġg ame",
      "Ġpubl ic",
      "Ġl ong",
      ". .",
      "ĠSt ate",
      "ap an",
      "ĠR ep",
      "O n",
      "ĠC al",
      "Ġcall ed",
      "lev ision",
      "il t",
      "eb ru",
      "ebru ary",
      "un g",
      "-cent ury",
      "ĠI I",
      "an c",
      "al es",
      "ĠB o",
      "re nt",
      "ov e",
      "Ġd r",
      "Ġs ame",
      "ĠAl l",
      "in c",
      "c on",
      "ĠC ar",
      "ĠK ing",
      "y le",
      "n er",
      "ĠRe g",
      "am b",
      "il ity",
      "Ġcomm un",
      "Ġde p",
      "il it",
      "ĠB ro",
      "18 9",
      "ak ing",
      "ĠCan ad",
      "Ġsever al",
      "vi ew",
      "ĠW ill",
      "ĠA f",
      "Ġc ity",
      "Ġch ild",
      "a f",
      "r at",
      "Ġret urn",
      "Ġf inal",
      "Ġf in",
      "ĠS e",
      "y n",
      "oin t",
      "on y",
      "Ġa ir",
      "an ge",
      "ch n",
      "Ġs uc",
      "Ġc areer",
      "ib le",
      "ren ch",
      "r ight",
      "Ġfollow ing",
      "ial ly",
      "or ks",
      "Ġe arly",
      "ure d",
      "p ed",
      "Ġcont in",
      "Ġto wn",
      ") .ĊĊ",
      "t he",
      "f ul",
      "s h",
      "ĠB e",
      "Ġ '",
      "Ġl ist",
      "ĠF ebruary",
      "ic es",
      "ain s",
      "al ly",
      "Ã ¡",
      "Ġm in",
      "Ġc ur",
      "st er",
      "re en",
      "ĠEuro pe",
      "ĠA m",
      "r ing",
      "Ġb el",
      "Ġs ince",
      "b o",
      "i ence",
      "at a",
      "Ġorig inal",
      "Ġpro gram",
      "Ġn ear",
      "is ed",
      "Ġcomp et",
      "2 4",
      "h am",
      "Ġdis c",
      "Ġan y",
      "âĢ Ļ",
      "ang u",
      "ĠĠ ĠĠ",
      "es e",
      "b le",
      "ĠF l",
      "id ed",
      "u ed",
      "Ġthe se",
      "or m",
      "iv al",
      "end ed",
      "Ġhe ad",
      "il le",
      "s p",
      "Ġpl ace",
      "z e",
      "an e",
      "Ġw omen",
      "Ġn amed",
      "Ġb ased",
      "Ġcl ub",
      "Ġbe gan",
      "Ġw e",
      "ĠP ar",
      "ĠThe y",
      "Ġv ill",
      "Ġcomp le",
      "Ġus e",
      "Ġt it",
      "Ġl and",
      "Ġe ff",
      "i ous",
      "Ġp rom",
      "Ġsup port",
      "ain t",
      "Ġm et",
      "Ġm embers",
      ". S",
      "ĠU S",
      "ĠB ar",
      "in ess",
      "Ġap p",
      "al ity",
      "Ġm ember",
      "- l",
      "Ġen g",
      "Ġg overnment",
      "Ġd ist",
      "Ġhe ld",
      "Ġestabl ished",
      "a ugh",
      "ical ly",
      "ĠGe or",
      "Ġp ass",
      "iv ision",
      "pe ct",
      "Ġal ong",
      "ĠH is",
      "ĠJ apan",
      "ition s",
      "oun c",
      "ĠCh rist",
      "Ġdesc rib",
      "ĠA fter",
      "18 8",
      "Ġloc ated",
      "t t",
      "- d",
      "m e",
      "ur g",
      "Ġchar act",
      "i en",
      "ĠA nd",
      "ĠH ar",
      "an a",
      "Ġd id",
      "Ġo cc",
      ": ĊĊ",
      "od e",
      "Ġe ach",
      "ĠS w",
      "al th",
      "Ġl aw",
      "f ord",
      "Ġs im",
      "ond on",
      "in o",
      "Ġy ou",
      "k y",
      "ĠC ol",
      "ro w",
      "ĠEng lish",
      "ĠE l",
      "ac ed",
      "at or",
      "ĠM c",
      "ĠG en",
      "Ġb and",
      "ne y",
      "ĠP art",
      "ubl ic",
      "ĠE x",
      "ly mp",
      "ing ton",
      "Ġp os",
      "H e",
      "oci ation",
      "ĠC ollege",
      "Ġt r",
      "ĠA ir",
      "qu e",
      "u k",
      "che s",
      "ĠE ast",
      "2 3",
      "at s",
      "Ġin st",
      "ore d",
      "er g",
      "our n",
      "Ġb us",
      "in ed",
      "ĠAf ric",
      "av ing",
      "Ġst ation",
      "Ġm ajor",
      "Ġto ok",
      "et t",
      "Ġsm all",
      "re w",
      "ĠCh ampionship",
      "Ġl ine",
      "Ġh ouse",
      "et er",
      "m ed",
      "Ġh ome",
      "our t",
      "ard s",
      "ight s",
      "ĠA b",
      "ill ion",
      "Ġn ational",
      "ĠR o",
      "p s",
      "ac es",
      "Ġcomp any",
      "ad em",
      "Ġs l",
      "Ġpop ulation",
      "Ġw orld",
      "Ġp erson",
      "Ġv ari",
      "in t",
      "a ul",
      "Ġserv ed",
      "2 2",
      "T h",
      "ĠL ondon",
      "Ġb as",
      "Ġloc al",
      "Ġgen eral",
      "Ġg ames",
      "- b",
      "Ġal ign",
      "Ġv ers",
      "- t",
      "ĠF rench",
      "Ġb orn",
      "Ġle g",
      "at ure",
      "Ġcent ury",
      "ar ge",
      "ĠD istrict",
      "Ġ X",
      "ĠM ed",
      "Ġv i",
      "Ġpubl ished",
      "ĠWill iam",
      "Ġte levision",
      "Ġc ould",
      "Ġap pro",
      "Ġev ent",
      "i et",
      "Ġbu ilt",
      "Ġsuc cess",
      "Ġpro fess",
      "Ġ $",
      "Ġrece ived",
      "ĠR uss",
      "ff ic",
      "Ġman ag",
      "ĠH igh",
      "Ġj oin",
      "ilit ary",
      "Ġde b",
      "18 6",
      "Ġp o",
      "Ġsing le",
      "Ġst r",
      "v ers",
      "5 0",
      "ar a",
      "Ġt erm",
      "ie f",
      "id es",
      "ĠS y",
      "Ġa round",
      "Ġc olle",
      "ro l",
      "ĠH er",
      "A l",
      "at ely",
      "2 6",
      "ow s",
      "um mer",
      "- f",
      "if ied",
      "ord s",
      "Ġo ld",
      "L iving",
      "ord ing",
      "Ġd ue",
      "uth or",
      "18 7",
      "om in",
      "Ġn ow",
      "Ġhe l",
      "2 7",
      "ounc il",
      "ĠC up",
      "arri ed",
      "ĠCom p",
      "2 8",
      "Ġed uc",
      "Ġspec ies",
      "e v",
      "s ide",
      "Ġl ast",
      "a us",
      "oc ial",
      "Ġt y",
      "r ation",
      "um n",
      "Ġa ge",
      "ĠS ec",
      "ĠIt al",
      "Ġp resent",
      "l ing",
      "Ġe p",
      "i od",
      "Ġle ft",
      "Ã ³",
      "id d",
      "ra ft",
      "Ġh istory",
      "a im",
      "op h",
      "re et",
      "ĠH owever",
      "\" Ċ",
      "Ġc ar",
      "iz ation",
      "ĠH ouse",
      "ĠD av",
      "Ġs ix",
      "Ġc amp",
      "c o",
      "art ment",
      "Ġl a",
      "ĠAr t",
      "ĠP ark",
      "Ġre st",
      "ĠA ng",
      "ĠC or",
      "c olor",
      "Ġplay er",
      "Ġor der",
      "Ġd et",
      ": Ċ",
      "t al",
      "um b",
      "v an",
      "in k",
      "Ġp ar",
      "Ġto p",
      "e le",
      "ĠS up",
      "u f",
      "iv en",
      "ak es",
      "Ġn orth",
      "Ġwith in",
      "Ġs aid",
      "Ġrep resent",
      "P eople",
      "Ġsh ort",
      "on es",
      "Ġ .",
      "Ġt ri",
      "Ġinclud e",
      "ĠR es",
      "ide o",
      "Ġd ied",
      "ĠL a",
      "et her",
      "angu age",
      "ĠPh il",
      "Ġvill age",
      "Ġf ive",
      "Ġd ay",
      "o ks",
      "1 00",
      "Ġdif fer",
      "he m",
      "ent ly",
      "Ġ ,",
      "is on",
      "Ġst yle",
      "U n",
      "Ġc ol",
      "ur ther",
      "Ġbec ause",
      "ĠM e",
      "Ġre qu",
      "th ough",
      "ĠIn ternational",
      "ĠN o",
      "al k",
      "ĠR iver",
      "if orn",
      "ast er",
      "Ġdescrib ed",
      "ur s",
      "um ent",
      "Ġd own",
      "l er",
      "n a",
      "ĠG l",
      "oy al",
      "en e",
      "Ġre f",
      "ĠInd ian",
      "Ġbuild ing",
      "Ġl arge",
      "Ġm en",
      "Ġth ird",
      "Ġp ost",
      "Ġinclud ed",
      "Ġcons id",
      "2 9",
      "ĠT r",
      "s c",
      "ot e",
      "Ġchild ren",
      "re g",
      "iforn ia",
      ". ,",
      "Ġp ower",
      "iv ely",
      "feren ce",
      "Ġst and",
      "re st",
      "rid ge",
      "ĠO lymp",
      "Ã Ń",
      "Ã ¼",
      "Ġres ult",
      "t ain",
      "Ġm ark",
      "al d",
      "Ġad m",
      "Ġd em",
      "Ġre port",
      "ĠA c",
      "ĠEng land",
      "Ġs outh",
      "vi ous",
      "ri end",
      "ĠE n",
      "con om",
      "os p",
      "Ġs on",
      "ĠS an",
      "ĠRe c",
      "od y",
      "ad io",
      "ke y",
      "Ġl o",
      "ic o",
      "er a",
      "um an",
      "ct ure",
      "Ġbo ok",
      "use um",
      "Ġc or",
      "uc k",
      "Ġl arg",
      "ra g"
    ]
  }
}