{
  "version": "1.0",
  "truncation": null,
  "padding": null,
  "added_tokens": [
    {
      "id": 0,
      "content": "<|begin_of_text|>",
      "single_word": false,
      "lstrip": false,
      "rstrip": false,
      "normalized": false,
      "special": true
    },
    {
      "id": 1,
      "content": "<|end_of_text|>",
      "single_word": false,
      "lstrip": false,
      "rstrip": false,
      "normalized": false,
      "special": true
    },
    {
      "id": 2,
      "content": "<|reserved_special_token_0|>",
      "single_word": false,
      "lstrip": false,
      "rstrip": false,
      "normalized": false,
      "special": true
    },
    {
      "id": 3,
      "content": "<|reserved_special_token_1|>",
      "single_word": false,
      "lstrip": false,
      "rstrip": false,
      "normalized": false,
      "special": true
    },
    {
      "id": 4,
      "content": "<|reserved_special_token_2|>",
      "single_word": false,
      "lstrip": false,
      "rstrip": false,
      "normalized": false,
      "special": true
    },
    {
      "id": 5,
      "content": "<|reserved_special_token_3|>",
      "single_word": false,
      "lstrip": false,
      "rstrip": false,
      "normalized": false,
      "special": true
    },
    {
      "id": 6,
      "content": "<|start_header_id|>",
      "single_word": false,
      "lstrip": false,
      "rstrip": false,
      "normalized": false,
      "special": true
    },
    {
      "id": 7,
      "content": "<|end_header_id|>",
      "single_word": false,
      "lstrip": false,
      "rstrip": false,
      "normalized": false,
      "special": true
    },
    {
      "id": 8,
      "content": "<|reserved_special_token_4|>",
      "single_word": false,
      "lstrip": false,
      "rstrip": false,
      "normalized": false,
      "special": true
    },
    {
      "id": 9,
      "content": "<|eot_id|>",
      "single_word": false,
      "lstrip": false,
      "rstrip": false,
      "normalized": false,
      "special": true
    },
    {
      "id": 10,
      "content": "<|reserved_special_token_5|>",
      "single_word": false,
      "lstrip": false,
      "rstrip": false,
      "normalized": false,
      "special": true
    },
    {
      "id": 11,
      "content": "<|reserved_special_token_6|>",
      "single_word": false,
      "lstrip": false,
      "rstrip": false,
      "normalized": false,
      "special": true
    },
    {
      "id": 12,
      "content": "<|reserved_special_token_7|>",
      "single_word": false,
      "lstrip": false,
      "rstrip": false,
      "normalized": false,
      "special": true
    },
    {
      "id": 13,
      "content": "<|reserved_special_token_8|>",
      "single_word": false,
      "lstrip": false,
      "rstrip": false,
      "normalized": false,
      "special": true
    },
    {
      "id": 14,
      "content": "<|reserved_special_token_9|>",
      "single_word": false,
      "lstrip": false,
      "rstrip": false,
      "normalized": false,
      "special": true
    },
    {
      "id": 15,
      "content": "<|reserved_special_token_10|>",
      "single_word": false,
      "lstrip": false,
      "rstrip": false,
      "normalized": false,
      "special": true
    },
    {
      "id": 16,
      "content": "<|reserved_special_token_11|>",
      "single_word": false,
      "lstrip": false,
      "rstrip": false,
      "normalized": false,
      "special": true
    },
    {
      "id": 17,
      "content": "<|reserved_special_token_12|>",
      "single_word": false,
      "lstrip": false,
      "rstrip": false,
      "normalized": false,
      "special": true
    },
    {
      "id": 18,
      "content": "<|reserved_special_token_13|>",
      "single_word": false,
      "lstrip": false,
      "rstrip": false,
      "normalized": false,
      "special": true
    },
    {
      "id": 19,
      "content": "<|reserved_special_token_14|>",
      "single_word": false,
      "lstrip": false,
      "rstrip": false,
      "normalized": false,
      "special": true
    },
    {
      "id": 20,
      "content": "<|reserved_special_token_15|>",
      "single_word": false,
      "lstrip": false,
      "rstrip": false,
      "normalized": false,
      "special": true
    },
    {
      "id": 21,
      "content": "<|reserved_special_token_16|>",
      "single_word": false,
      "lstrip": false,
      "rstrip": false,
      "normalized": false,
      "special": true
    },
    {
      "id": 22,
      "content": "<|reserved_special_token_17|>",
      "single_word": false,
      "lstrip": false,
      "rstrip": false,
      "normalized": false,
      "special": true
    },
    {
      "id": 23,
      "content": "<|reserved_special_token_18|>",
      "single_word": false,
      "lstrip": false,
      "rstrip": false,
      "normalized": false,
      "special": true
    },
    {
      "id": 24,
      "content": "<|reserved_special_token_19|>",
      "single_word": false,
      "lstrip": false,
      "rstrip": false,
      "normalized": false,
      "special": true
    },
    {
      "id": 25,
      "content": "<|reserved_special_token_20|>",
      "single_word": false,
      "lstrip": false,
      "rstrip": false,
      "normalized": false,
      "special": true
    },
    {
      "id": 26,
      "content": "<|reserved_special_token_21|>",
      "single_word": false,
      "lstrip": false,
      "rstrip": false,
      "normalized": false,
      "special": true
    },
    {
      "id": 27,
      "content": "<|reserved_special_token_22|>",
      "single_word": false,
      "lstrip": false,
      "rstrip": false,
      "normalized": false,
      "special": true
    },
    {
      "id": 28,
      "content": "<|reserved_special_token_23|>",
      "single_word": false,
      "lstrip": false,
      "rstrip": false,
      "normalized": false,
      "special": true
    },
    {
      "id": 29,
      "content": "<|reserved_special_token_24|>",
      "single_word": false,
      "lstrip": false,
      "rstrip": false,
      "normalized": false,
      "special": true
    },
    {
      "id": 30,
      "content": "<|reserved_special_token_25|>",
      "single_word": false,
      "lstrip": false,
      "rstrip": false,
      "normalized": false,
      "special": true
    },
    {
      "id": 31,
      "content": "<|reserved_special_token_26|>",
      "single_word": false,
      "lstrip": false,
      "rstrip": false,
      "normalized": false,
      "special": true
    },
    {
      "id": 32,
      "content": "<|reserved_special_token_27|>",
      "single_word": false,
      "lstrip": false,
      "rstrip": false,
      "normalized": false,
      "special": true
    },
    {
      "id": 33,
      "content": "<|reserved_special_token_28|>",
      "single_word": false,
      "lstrip": false,
      "rstrip": false,
      "normalized": false,
      "special": true
    },
    {
      "id": 34,
      "content": "<|reserved_special_token_29|>",
      "single_word": false,
      "lstrip": false,
      "rstrip": false,
      "normalized": false,
      "special": true
    },
    {
      "id": 35,
      "content": "<|reserved_special_token_30|>",
      "single_word": false,
      "lstrip": false,
      "rstrip": false,
      "normalized": false,
      "special": true
    },
    {
      "id": 36,
      "content": "<|reserved_special_token_31|>",
      "single_word": false,
      "lstrip": false,
      "rstrip": false,
      "normalized": false,
      "special": true
    },
    {
      "id": 37,
      "content": "<|reserved_special_token_32|>",
      "single_word": false,
      "lstrip": false,
      "rstrip": false,
      "normalized": false,
      "special": true
    },
    {
      "id": 38,
      "content": "<|reserved_special_token_33|>",
      "single_word": false,
      "lstrip": false,
      "rstrip": false,
      "normalized": false,
      "special": true
    },
    {
      "id": 39,
      "content": "<|reserved_special_token_34|>",
      "single_word": false,
      "lstrip": false,
      "rstrip": false,
      "normalized": false,
      "special": true
    },
    {
      "id": 40,
      "content": "<|reserved_special_token_35|>",
      "single_word": false,
      "lstrip": false,
      "rstrip": false,
      "normalized": false,
      "special": true
    },
    {
      "id": 41,
      "content": "<|reserved_special_token_36|>",
      "single_word": false,
      "lstrip": false,
      "rstrip": false,
      "normalized": false,
      "special": true
    },
    {
      "id": 42,
      "content": "<|reserved_special_token_37|>",
      "single_word": false,
      "lstrip": false,
      "rstrip": false,
      "normalized": false,
      "special": true
    },
    {
      "id": 43,
      "content": "<|reserved_special_token_38|>",
      "single_word": false,
      "lstrip": false,
      "rstrip": false,
      "normalized": false,
      "special": true
    },
    {
      "id": 44,
      "content": "<|reserved_special_token_39|>",
      "single_word": false,
      "lstrip": false,
      "rstrip": false,
      "normalized": false,
      "special": true
    },
    {
      "id": 45,
      "content": "<|reserved_special_token_40|>",
      "single_word": false,
      "lstrip": false,
      "rstrip": false,
      "normalized": false,
      "special": true
    },
    {
      "id": 46,
      "content": "<|reserved_special_token_41|>",
      "single_word": false,
      "lstrip": false,
      "rstrip": false,
      "normalized": false,
      "special": true
    },
    {
      "id": 47,
      "content": "<|reserved_special_token_42|>",
      "single_word": false,
      "lstrip": false,
      "rstrip": false,
      "normalized": false,
      "special": true
    },
    {
      "id": 48,
      "content": "<|reserved_special_token_43|>",
      "single_word": false,
      "lstrip": false,
      "rstrip": false,
      "normalized": false,
      "special": true
    },
    {
      "id": 49,
      "content": "<|reserved_special_token_44|>",
      "single_word": false,
      "lstrip": false,
      "rstrip": false,
      "normalized": false,
      "special": true
    },
    {
      "id": 50,
      "content": "<|reserved_special_token_45|>",
      "single_word": false,
      "lstrip": false,
      "rstrip": false,
      "normalized": false,
      "special": true
    },
    {
      "id": 51,
      "content": "<|reserved_special_token_46|>",
      "single_word": false,
      "lstrip": false,
      "rstrip": false,
      "normalized": false,
      "special": true
    },
    {
      "id": 52,
      "content": "<|reserved_special_token_47|>",
      "single_word": false,
      "lstrip": false,
      "rstrip": false,
      "normalized": false,
      "special": true
    },
    {
      "id": 53,
      "content": "<|reserved_special_token_48|>",
      "single_word": false,
      "lstrip": false,
      "rstrip": false,
      "normalized": false,
      "special": true
    },
    {
      "id": 54,
      "content": "<|reserved_special_token_49|>",
      "single_word": false,
      "lstrip": false,
      "rstrip": false,
      "normalized": false,
      "special": true
    },
    {
      "id": 55,
      "content": "<|reserved_special_token_50|>",
      "single_word": false,
      "lstrip": false,
      "rstrip": false,
      "normalized": false,
      "special": true
    },
    {
      "id": 56,
      "content": "<|reserved_special_token_51|>",
      "single_word": false,
      "lstrip": false,
      "rstrip": false,
      "normalized": false,
      "special": true
    },
    {
      "id": 57,
      "content": "<|reserved_special_token_52|>",
      "single_word": false,
      "lstrip": false,
      "rstrip": false,
      "normalized": false,
      "special": true
    },
    {
      "id": 58,
      "content": "<|reserved_special_token_53|>",
      "single_word": false,
      "lstrip": false,
      "rstrip": false,
      "normalized": false,
      "special": true
    },
    {
      "id": 59,
      "content": "<|reserved_special_token_54|>",
      "single_word": false,
      "lstrip": false,
      "rstrip": false,
      "normalized": false,
      "special": true
    },
    {
      "id": 60,
      "content": "<|reserved_special_token_55|>",
      "single_word": false,
      "lstrip": false,
      "rstrip": false,
      "normalized": false,
      "special": true
    },
    {
      "id": 61,
      "content": "<|reserved_special_token_56|>",
      "single_word": false,
      "lstrip": false,
      "rstrip": false,
      "normalized": false,
      "special": true
    },
    {
      "id": 62,
      "content": "<|reserved_special_token_57|>",
      "single_word": false,
      "lstrip": false,
      "rstrip": false,
      "normalized": false,
      "special": true
    },
    {
      "id": 63,
      "content": "<|reserved_special_token_58|>",
      "single_word": false,
      "lstrip": false,
      "rstrip": false,
      "normalized": false,
      "special": true
    },
    {
      "id": 64,
      "content": "<|reserved_special_token_59|>",
      "single_word": false,
      "lstrip": false,
      "rstrip": false,
      "normalized": false,
      "special": true
    },
    {
      "id": 65,
      "content": "<|reserved_special_token_60|>",
      "single_word": false,
      "lstrip": false,
      "rstrip": false,
      "normalized": false,
      "special": true
    },
    {
      "id": 66,
      "content": "<|reserved_special_token_61|>",
      "single_word": false,
      "lstrip": false,
      "rstrip": false,
      "normalized": false,
      "special": true
    },
    {
      "id": 67,
      "content": "<|reserved_special_token_62|>",
      "single_word": false,
      "lstrip": false,
      "rstrip": false,
      "normalized": false,
      "special": true
    },
    {
      "id": 68,
      "content": "<|reserved_special_token_63|>",
      "single_word": false,
      "lstrip": false,
      "rstrip": false,
      "normalized": false,
      "special": true
    },
    {
      "id": 69,
      "content": "<|reserved_special_token_64|>",
      "single_word": false,
      "lstrip": false,
      "rstrip": false,
      "normalized": false,
      "special": true
    },
    {
      "id": 70,
      "content": "<|reserved_special_token_65|>",
      "single_word": false,
      "lstrip": false,
      "rstrip": false,
      "normalized": false,
      "special": true
    },
    {
      "id": 71,
      "content": "<|reserved_special_token_66|>",
      "single_word": false,
      "lstrip": false,
      "rstrip": false,
      "normalized": false,
      "special": true
    },
    {
      "id": 72,
      "content": "<|reserved_special_token_67|>",
      "single_word": false,
      "lstrip": false,
      "rstrip": false,
      "normalized": false,
      "special": true
    },
    {
      "id": 73,
      "content": "<|reserved_special_token_68|>",
      "single_word": false,
      "lstrip": false,
      "rstrip": false,
      "normalized": false,
      "special": true
    },
    {
      "id": 74,
      "content": "<|reserved_special_token_69|>",
      "single_word": false,
      "lstrip": false,
      "rstrip": false,
      "normalized": false,
      "special": true
    },
    {
      "id": 75,
      "content": "<|reserved_special_token_70|>",
      "single_word": false,
      "lstrip": false,
      "rstrip": false,
      "normalized": false,
      "special": true
    },
    {
      "id": 76,
      "content": "<|reserved_special_token_71|>",
      "single_word": false,
      "lstrip": false,
      "rstrip": false,
      "normalized": false,
      "special": true
    },
    {
      "id": 77,
      "content": "<|reserved_special_token_72|>",
      "single_word": false,
      "lstrip": false,
      "rstrip": false,
      "normalized": false,
      "special": true
    },
    {
      "id": 78,
      "content": "<|reserved_special_token_73|>",
      "single_word": false,
      "lstrip": false,
      "rstrip": false,
      "normalized": false,
      "special": true
    },
    {
      "id": 79,
      "content": "<|reserved_special_token_74|>",
      "single_word": false,
      "lstrip": false,
      "rstrip": false,
      "normalized": false,
      "special": true
    },
    {
      "id": 80,
      "content": "<|reserved_special_token_75|>",
      "single_word": false,
      "lstrip": false,
      "rstrip": false,
      "normalized": false,
      "special": true
    },
    {
      "id": 81,
      "content": "<|reserved_special_token_76|>",
      "single_word": false,
      "lstrip": false,
      "rstrip": false,
      "normalized": false,
      "special": true
    },
    {
      "id": 82,
      "content": "<|reserved_special_token_77|>",
      "single_word": false,
      "lstrip": false,
      "rstrip": false,
      "normalized": false,
      "special": true
    },
    {
      "id": 83,
      "content": "<|reserved_special_token_78|>",
      "single_word": false,
      "lstrip": false,
      "rstrip": false,
      "normalized": false,
      "special": true
    },
    {
      "id": 84,
      "content": "<|reserved_special_token_79|>",
      "single_word": false,
      "lstrip": false,
      "rstrip": false,
      "normalized": false,
      "special": true
    },
    {
      "id": 85,
      "content": "<|reserved_special_token_80|>",
      "single_word": false,
      "lstrip": false,
      "rstrip": false,
      "normalized": false,
      "special": true
    },
    {
      "id": 86,
      "content": "<|reserved_special_token_81|>",
      "single_word": false,
      "lstrip": false,
      "rstrip": false,
      "normalized": false,
      "special": true
    },
    {
      "id": 87,
      "content": "<|reserved_special_token_82|>",
      "single_word": false,
      "lstrip": false,
      "rstrip": false,
      "normalized": false,
      "special": true
    },
    {
      "id": 88,
      "content": "<|reserved_special_token_83|>",
      "single_word": false,
      "lstrip": false,
      "rstrip": false,
      "normalized": false,
      "special": true
    },
    {
      "id": 89,
      "content": "<|reserved_special_token_84|>",
      "single_word": false,
      "lstrip": false,
      "rstrip": false,
      "normalized": false,
      "special": true
    },
    {
      "id": 90,
      "content": "<|reserved_special_token_85|>",
      "single_word": false,
      "lstrip": false,
      "rstrip": false,
      "normalized": false,
      "special": true
    },
    {
      "id": 91,
      "content": "<|reserved_special_token_86|>",
      "single_word": false,
      "lstrip": false,
      "rstrip": false,
      "normalized": false,
      "special": true
    },
    {
      "id": 92,
      "content": "<|reserved_special_token_87|>",
      "single_word": false,
      "lstrip": false,
      "rstrip": false,
      "normalized": false,
      "special": true
    },
    {
      "id": 93,
      "content": "<|reserved_special_token_88|>",
      "single_word": false,
      "lstrip": false,
      "rstrip": false,
      "normalized": false,
      "special": true
    },
    {
      "id": 94,
      "content": "<|reserved_special_token_89|>",
      "single_word": false,
      "lstrip": false,
      "rstrip": false,
      "normalized": false,
      "special": true
    },
    {
      "id": 95,
      "content": "<|reserved_special_token_90|>",
      "single_word": false,
      "lstrip": false,
      "rstrip": false,
      "normalized": false,
      "special": true
    },
    {
      "id": 96,
      "content": "<|reserved_special_token_91|>",
      "single_word": false,
      "lstrip": false,
      "rstrip": false,
      "normalized": false,
      "special": true
    },
    {
      "id": 97,
      "content": "<|reserved_special_token_92|>",
      "single_word": false,
      "lstrip": false,
      "rstrip": false,
      "normalized": false,
      "special": true
    },
    {
      "id": 98,
      "content": "<|reserved_special_token_93|>",
      "single_word": false,
      "lstrip": false,
      "rstrip": false,
      "normalized": false,
      "special": true
    },
    {
      "id": 99,
      "content": "<|reserved_special_token_94|>",
      "single_word": false,
      "lstrip": false,
      "rstrip": false,
      "normalized": false,
      "special": true
    },
    {
      "id": 100,
      "content": "<|reserved_special_token_95|>",
      "single_word": false,
      "lstrip": false,
      "rstrip": false,
      "normalized": false,
      "special": true
    },
    {
      "id": 101,
      "content": "<|reserved_special_token_96|>",
      "single_word": false,
      "lstrip": false,
      "rstrip": false,
      "normalized": false,
      "special": true
    },
    {
      "id": 102,
      "content": "<|reserved_special_token_97|>",
      "single_word": false,
      "lstrip": false,
      "rstrip": false,
      "normalized": false,
      "special": true
    },
    {
      "id": 103,
      "content": "<|reserved_special_token_98|>",
      "single_word": false,
      "lstrip": false,
      "rstrip": false,
      "normalized": false,
      "special": true
    },
    {
      "id": 104,
      "content": "<|reserved_special_token_99|>",
      "single_word": false,
      "lstrip": false,
      "rstrip": false,
      "normalized": false,
      "special": true
    },
    {
      "id": 105,
      "content": "<|reserved_special_token_100|>",
      "single_word": false,
      "lstrip": false,
      "rstrip": false,
      "normalized": false,
      "special": true
    },
    {
      "id": 106,
      "content": "<|reserved_special_token_101|>",
      "single_word": false,
      "lstrip": false,
      "rstrip": false,
      "normalized": false,
      "special": true
    },
    {
      "id": 107,
      "content": "<|reserved_special_token_102|>",
      "single_word": false,
      "lstrip": false,
      "rstrip": false,
      "normalized": false,
      "special": true
    },
    {
      "id": 108,
      "content": "<|reserved_special_token_103|>",
      "single_word": false,
      "lstrip": false,
      "rstrip": false,
      "normalized": false,
      "special": true
    },
    {
      "id": 109,
      "content": "<|reserved_special_token_104|>",
      "single_word": false,
      "lstrip": false,
      "rstrip": false,
      "normalized": false,
      "special": true
    },
    {
      "id": 110,
      "content": "<|reserved_special_token_105|>",
      "single_word": false,
      "lstrip": false,
      "rstrip": false,
      "normalized": false,
      "special": true
    },
    {
      "id": 111,
      "content": "<|reserved_special_token_106|>",
      "single_word": false,
      "lstrip": false,
      "rstrip": false,
      "normalized": false,
      "special": true
    },
    {
      "id": 112,
      "content": "<|reserved_special_token_107|>",
      "single_word": false,
      "lstrip": false,
      "rstrip": false,
      "normalized": false,
      "special": true
    },
    {
      "id": 113,
      "content": "<|reserved_special_token_108|>",
      "single_word": false,
      "lstrip": false,
      "rstrip": false,
      "normalized": false,
      "special": true
    },
    {
      "id": 114,
      "content": "<|reserved_special_token_109|>",
      "single_word": false,
      "lstrip": false,
      "rstrip": false,
      "normalized": false,
      "special": true
    },
    {
      "id": 115,
      "content": "<|reserved_special_token_110|>",
      "single_word": false,
      "lstrip": false,
      "rstrip": false,
      "normalized": false,
      "special": true
    },
    {
      "id": 116,
      "content": "<|reserved_special_token_111|>",
      "single_word": false,
      "lstrip": false,
      "rstrip": false,
      "normalized": false,
      "special": true
    },
    {
      "id": 117,
      "content": "<|reserved_special_token_112|>",
      "single_word": false,
      "lstrip": false,
      "rstrip": false,
      "normalized": false,
      "special": true
    },
    {
      "id": 118,
      "content": "<|reserved_special_token_113|>",
      "single_word": false,
      "lstrip": false,
      "rstrip": false,
      "normalized": false,
      "special": true
    },
    {
      "id": 119,
      "content": "<|reserved_special_token_114|>",
      "single_word": false,
      "lstrip": false,
      "rstrip": false,
      "normalized": false,
      "special": true
    },
    {
      "id": 120,
      "content": "<|reserved_special_token_115|>",
      "single_word": false,
      "lstrip": false,
      "rstrip": false,
      "normalized": false,
      "special": true
    },
    {
      "id": 121,
      "content": "<|reserved_special_token_116|>",
      "single_word": false,
      "lstrip": false,
      "rstrip": false,
      "normalized": false,
      "special": true
    },
    {
      "id": 122,
      "content": "<|reserved_special_token_117|>",
      "single_word": false,
      "lstrip": false,
      "rstrip": false,
      "normalized": false,
      "special": true
    },
    {
      "id": 123,
      "content": "<|reserved_special_token_118|>",
      "single_word": false,
      "lstrip": false,
      "rstrip": false,
      "normalized": false,
      "special": true
    },
    {
      "id": 124,
      "content": "<|reserved_special_token_119|>",
      "single_word": false,
      "lstrip": false,
      "rstrip": false,
      "normalized": false,
      "special": true
    },
    {
      "id": 125,
      "content": "<|reserved_special_token_120|>",
      "single_word": false,
      "lstrip": false,
      "rstrip": false,
      "normalized": false,
      "special": true
    },
    {
      "id": 126,
      "content": "<|reserved_special_token_121|>",
      "single_word": false,
      "lstrip": false,
      "rstrip": false,
      "normalized": false,
      "special": true
    },
    {
      "id": 127,
      "content": "<|reserved_special_token_122|>",
      "single_word": false,
      "lstrip": false,
      "rstrip": false,
      "normalized": false,
      "special": true
    },
    {
      "id": 128,
      "content": "<|reserved_special_token_123|>",
      "single_word": false,
      "lstrip": false,
      "rstrip": false,
      "normalized": false,
      "special": true
    },
    {
      "id": 129,
      "content": "<|reserved_special_token_124|>",
      "single_word": false,
      "lstrip": false,
      "rstrip": false,
      "normalized": false,
      "special": true
    },
    {
      "id": 130,
      "content": "<|reserved_special_token_125|>",
      "single_word": false,
      "lstrip": false,
      "rstrip": false,
      "normalized": false,
      "special": true
    },
    {
      "id": 131,
      "content": "<|reserved_special_token_126|>",
      "single_word": false,
      "lstrip": false,
      "rstrip": false,
      "normalized": false,
      "special": true
    },
    {
      "id": 132,
      "content": "<|reserved_special_token_127|>",
      "single_word": false,
      "lstrip": false,
      "rstrip": false,
      "normalized": false,
      "special": true
    },
    {
      "id": 133,
      "content": "<|reserved_special_token_128|>",
      "single_word": false,
      "lstrip": false,
      "rstrip": false,
      "normalized": false,
      "special": true
    },
    {
      "id": 134,
      "content": "<|reserved_special_token_129|>",
      "single_word": false,
      "lstrip": false,
      "rstrip": false,
      "normalized": false,
      "special": true
    },
    {
      "id": 135,
      "content": "<|reserved_special_token_130|>",
      "single_word": false,
      "lstrip": false,
      "rstrip": false,
      "normalized": false,
      "special": true
    },
    {
      "id": 136,
      "content": "<|reserved_special_token_131|>",
      "single_word": false,
      "lstrip": false,
      "rstrip": false,
      "normalized": false,
      "special": true
    },
    {
      "id": 137,
      "content": "<|reserved_special_token_132|>",
      "single_word": false,
      "lstrip": false,
      "rstrip": false,
      "normalized": false,
      "special": true
    },
    {
      "id": 138,
      "content": "<|reserved_special_token_133|>",
      "single_word": false,
      "lstrip": false,
      "rstrip": false,
      "normalized": false,
      "special": true
    },
    {
      "id": 139,
      "content": "<|reserved_special_token_134|>",
      "single_word": false,
      "lstrip": false,
      "rstrip": false,
      "normalized": false,
      "special": true
    },
    {
      "id": 140,
      "content": "<|reserved_special_token_135|>",
      "single_word": false,
      "lstrip": false,
      "rstrip": false,
      "normalized": false,
      "special": true
    },
    {
      "id": 141,
      "content": "<|reserved_special_token_136|>",
      "single_word": false,
      "lstrip": false,
      "rstrip": false,
      "normalized": false,
      "special": true
    },
    {
      "id": 142,
      "content": "<|reserved_special_token_137|>",
      "single_word": false,
      "lstrip": false,
      "rstrip": false,
      "normalized": false,
      "special": true
    },
    {
      "id": 143,
      "content": "<|reserved_special_token_138|>",
      "single_word": false,
      "lstrip": false,
      "rstrip": false,
      "normalized": false,
      "special": true
    },
    {
      "id": 144,
      "content": "<|reserved_special_token_139|>",
      "single_word": false,
      "lstrip": false,
      "rstrip": false,
      "normalized": false,
      "special": true
    },
    {
      "id": 145,
      "content": "<|reserved_special_token_140|>",
      "single_word": false,
      "lstrip": false,
      "rstrip": false,
      "normalized": false,
      "special": true
    },
    {
      "id": 146,
      "content": "<|reserved_special_token_141|>",
      "single_word": false,
      "lstrip": false,
      "rstrip": false,
      "normalized": false,
      "special": true
    },
    {
      "id": 147,
      "content": "<|reserved_special_token_142|>",
      "single_word": false,
      "lstrip": false,
      "rstrip": false,
      "normalized": false,
      "special": true
    },
    {
      "id": 148,
      "content": "<|reserved_special_token_143|>",
      "single_word": false,
      "lstrip": false,
      "rstrip": false,
      "normalized": false,
      "special": true
    },
    {
      "id": 149,
      "content": "<|reserved_special_token_144|>",
      "single_word": false,
      "lstrip": false,
      "rstrip": false,
      "normalized": false,
      "special": true
    },
    {
      "id": 150,
      "content": "<|reserved_special_token_145|>",
      "single_word": false,
      "lstrip": false,
      "rstrip": false,
      "normalized": false,
      "special": true
    },
    {
      "id": 151,
      "content": "<|reserved_special_token_146|>",
      "single_word": false,
      "lstrip": false,
      "rstrip": false,
      "normalized": false,
      "special": true
    },
    {
      "id": 152,
      "content": "<|reserved_special_token_147|>",
      "single_word": false,
      "lstrip": false,
      "rstrip": false,
      "normalized": false,
      "special": true
    },
    {
      "id": 153,
      "content": "<|reserved_special_token_148|>",
      "single_word": false,
      "lstrip": false,
      "rstrip": false,
      "normalized": false,
      "special": true
    },
    {
      "id": 154,
      "content": "<|reserved_special_token_149|>",
      "single_word": false,
      "lstrip": false,
      "rstrip": false,
      "normalized": false,
      "special": true
    },
    {
      "id": 155,
      "content": "<|reserved_special_token_150|>",
      "single_word": false,
      "lstrip": false,
      "rstrip": false,
      "normalized": false,
      "special": true
    },
    {
      "id": 156,
      "content": "<|reserved_special_token_151|>",
      "single_word": false,
      "lstrip": false,
      "rstrip": false,
      "normalized": false,
      "special": true
    },
    {
      "id": 157,
      "content": "<|reserved_special_token_152|>",
      "single_word": false,
      "lstrip": false,
      "rstrip": false,
      "normalized": false,
      "special": true
    },
    {
      "id": 158,
      "content": "<|reserved_special_token_153|>",
      "single_word": false,
      "lstrip": false,
      "rstrip": false,
      "normalized": false,
      "special": true
    },
    {
      "id": 159,
      "content": "<|reserved_special_token_154|>",
      "single_word": false,
      "lstrip": false,
      "rstrip": false,
      "normalized": false,
      "special": true
    },
    {
      "id": 160,
      "content": "<|reserved_special_token_155|>",
      "single_word": false,
      "lstrip": false,
      "rstrip": false,
      "normalized": false,
      "special": true
    },
    {
      "id": 161,
      "content": "<|reserved_special_token_156|>",
      "single_word": false,
      "lstrip": false,
      "rstrip": false,
      "normalized": false,
      "special": true
    },
    {
      "id": 162,
      "content": "<|reserved_special_token_157|>",
      "single_word": false,
      "lstrip": false,
      "rstrip": false,
      "normalized": false,
      "special": true
    },
    {
      "id": 163,
      "content": "<|reserved_special_token_158|>",
      "single_word": false,
      "lstrip": false,
      "rstrip": false,
      "normalized": false,
      "special": true
    },
    {
      "id": 164,
      "content": "<|reserved_special_token_159|>",
      "single_word": false,
      "lstrip": false,
      "rstrip": false,
      "normalized": false,
      "special": true
    },
    {
      "id": 165,
      "content": "<|reserved_special_token_160|>",
      "single_word": false,
      "lstrip": false,
      "rstrip": false,
      "normalized": false,
      "special": true
    },
    {
      "id": 166,
      "content": "<|reserved_special_token_161|>",
      "single_word": false,
      "lstrip": false,
      "rstrip": false,
      "normalized": false,
      "special": true
    },
    {
      "id": 167,
      "content": "<|reserved_special_token_162|>",
      "single_word": false,
      "lstrip": false,
      "rstrip": false,
      "normalized": false,
      "special": true
    },
    {
      "id": 168,
      "content": "<|reserved_special_token_163|>",
      "single_word": false,
      "lstrip": false,
      "rstrip": false,
      "normalized": false,
      "special": true
    },
    {
      "id": 169,
      "content": "<|reserved_special_token_164|>",
      "single_word": false,
      "lstrip": false,
      "rstrip": false,
      "normalized": false,
      "special": true
    },
    {
      "id": 170,
      "content": "<|reserved_special_token_165|>",
      "single_word": false,
      "lstrip": false,
      "rstrip": false,
      "normalized": false,
      "special": true
    },
    {
      "id": 171,
      "content": "<|reserved_special_token_166|>",
      "single_word": false,
      "lstrip": false,
      "rstrip": false,
      "normalized": false,
      "special": true
    },
    {
      "id": 172,
      "content": "<|reserved_special_token_167|>",
      "single_word": false,
      "lstrip": false,
      "rstrip": false,
      "normalized": false,
      "special": true
    },
    {
      "id": 173,
      "content": "<|reserved_special_token_168|>",
      "single_word": false,
      "lstrip": false,
      "rstrip": false,
      "normalized": false,
      "special": true
    },
    {
      "id": 174,
      "content": "<|reserved_special_token_169|>",
      "single_word": false,
      "lstrip": false,
      "rstrip": false,
      "normalized": false,
      "special": true
    },
    {
      "id": 175,
      "content": "<|reserved_special_token_170|>",
      "single_word": false,
      "lstrip": false,
      "rstrip": false,
      "normalized": false,
      "special": true
    },
    {
      "id": 176,
      "content": "<|reserved_special_token_171|>",
      "single_word": false,
      "lstrip": false,
      "rstrip": false,
      "normalized": false,
      "special": true
    },
    {
      "id": 177,
      "content": "<|reserved_special_token_172|>",
      "single_word": false,
      "lstrip": false,
      "rstrip": false,
      "normalized": false,
      "special": true
    },
    {
      "id": 178,
      "content": "<|reserved_special_token_173|>",
      "single_word": false,
      "lstrip": false,
      "rstrip": false,
      "normalized": false,
      "special": true
    },
    {
      "id": 179,
      "content": "<|reserved_special_token_174|>",
      "single_word": false,
      "lstrip": false,
      "rstrip": false,
      "normalized": false,
      "special": true
    },
    {
      "id": 180,
      "content": "<|reserved_special_token_175|>",
      "single_word": false,
      "lstrip": false,
      "rstrip": false,
      "normalized": false,
      "special": true
    },
    {
      "id": 181,
      "content": "<|reserved_special_token_176|>",
      "single_word": false,
      "lstrip": false,
      "rstrip": false,
      "normalized": false,
      "special": true
    },
    {
      "id": 182,
      "content": "<|reserved_special_token_177|>",
      "single_word": false,
      "lstrip": false,
      "rstrip": false,
      "normalized": false,
      "special": true
    },
    {
      "id": 183,
      "content": "<|reserved_special_token_178|>",
      "single_word": false,
      "lstrip": false,
      "rstrip": false,
      "normalized": false,
      "special": true
    },
    {
      "id": 184,
      "content": "<|reserved_special_token_179|>",
      "single_word": false,
      "lstrip": false,
      "rstrip": false,
      "normalized": false,
      "special": true
    },
    {
      "id": 185,
      "content": "<|reserved_special_token_180|>",
      "single_word": false,
      "lstrip": false,
      "rstrip": false,
      "normalized": false,
      "special": true
    },
    {
      "id": 186,
      "content": "<|reserved_special_token_181|>",
      "single_word": false,
      "lstrip": false,
      "rstrip": false,
      "normalized": false,
      "special": true
    },
    {
      "id": 187,
      "content": "<|reserved_special_token_182|>",
      "single_word": false,
      "lstrip": false,
      "rstrip": false,
      "normalized": false,
      "special": true
    },
    {
      "id": 188,
      "content": "<|reserved_special_token_183|>",
      "single_word": false,
      "lstrip": false,
      "rstrip": false,
      "normalized": false,
      "special": true
    },
    {
      "id": 189,
      "content": "<|reserved_special_token_184|>",
      "single_word": false,
      "lstrip": false,
      "rstrip": false,
      "normalized": false,
      "special": true
    },
    {
      "id": 190,
      "content": "<|reserved_special_token_185|>",
      "single_word": false,
      "lstrip": false,
      "rstrip": false,
      "normalized": false,
      "special": true
    },
    {
      "id": 191,
      "content": "<|reserved_special_token_186|>",
      "single_word": false,
      "lstrip": false,
      "rstrip": false,
      "normalized": false,
      "special": true
    },
    {
      "id": 192,
      "content": "<|reserved_special_token_187|>",
      "single_word": false,
      "lstrip": false,
      "rstrip": false,
      "normalized": false,
      "special": true
    },
    {
      "id": 193,
      "content": "<|reserved_special_token_188|>",
      "single_word": false,
      "lstrip": false,
      "rstrip": false,
      "normalized": false,
      "special": true
    },
    {
      "id": 194,
      "content": "<|reserved_special_token_189|>",
      "single_word": false,
      "lstrip": false,
      "rstrip": false,
      "normalized": false,
      "special": true
    },
    {
      "id": 195,
      "content": "<|reserved_special_token_190|>",
      "single_word": false,
      "lstrip": false,
      "rstrip": false,
      "normalized": false,
      "special": true
    },
    {
      "id": 196,
      "content": "<|reserved_special_token_191|>",
      "single_word": false,
      "lstrip": false,
      "rstrip": false,
      "normalized": false,
      "special": true
    },
    {
      "id": 197,
      "content": "<|reserved_special_token_192|>",
      "single_word": false,
      "lstrip": false,
      "rstrip": false,
      "normalized": false,
      "special": true
    },
    {
      "id": 198,
      "content": "<|reserved_special_token_193|>",
      "single_word": false,
      "lstrip": false,
      "rstrip": false,
      "normalized": false,
      "special": true
    },
    {
      "id": 199,
      "content": "<|reserved_special_token_194|>",
      "single_word": false,
      "lstrip": false,
      "rstrip": false,
      "normalized": false,
      "special": true
    },
    {
      "id": 200,
      "content": "<|reserved_special_token_195|>",
      "single_word": false,
      "lstrip": false,
      "rstrip": false,
      "normalized": false,
      "special": true
    },
    {
      "id": 201,
      "content": "<|reserved_special_token_196|>",
      "single_word": false,
      "lstrip": false,
      "rstrip": false,
      "normalized": false,
      "special": true
    },
    {
      "id": 202,
      "content": "<|reserved_special_token_197|>",
      "single_word": false,
      "lstrip": false,
      "rstrip": false,
      "normalized": false,
      "special": true
    },
    {
      "id": 203,
      "content": "<|reserved_special_token_198|>",
      "single_word": false,
      "lstrip": false,
      "rstrip": false,
      "normalized": false,
      "special": true
    },
    {
      "id": 204,
      "content": "<|reserved_special_token_199|>",
      "single_word": false,
      "lstrip": false,
      "rstrip": false,
      "normalized": false,
      "special": true
    },
    {
      "id": 205,
      "content": "<|reserved_special_token_200|>",
      "single_word": false,
      "lstrip": false,
      "rstrip": false,
      "normalized": false,
      "special": true
    },
    {
      "id": 206,
      "content": "<|reserved_special_token_201|>",
      "single_word": false,
      "lstrip": false,
      "rstrip": false,
      "normalized": false,
      "special": true
    },
    {
      "id": 207,
      "content": "<|reserved_special_token_202|>",
      "single_word": false,
      "lstrip": false,
      "rstrip": false,
      "normalized": false,
      "special": true
    },
    {
      "id": 208,
      "content": "<|reserved_special_token_203|>",
      "single_word": false,
      "lstrip": false,
      "rstrip": false,
      "normalized": false,
      "special": true
    },
    {
      "id": 209,
      "content": "<|reserved_special_token_204|>",
      "single_word": false,
      "lstrip": false,
      "rstrip": false,
      "normalized": false,
      "special": true
    },
    {
      "id": 210,
      "content": "<|reserved_special_token_205|>",
      "single_word": false,
      "lstrip": false,
      "rstrip": false,
      "normalized": false,
      "special": true
    },
    {
      "id": 211,
      "content": "<|reserved_special_token_206|>",
      "single_word": false,
      "lstrip": false,
      "rstrip": false,
      "normalized": false,
      "special": true
    },
    {
      "id": 212,
      "content": "<|reserved_special_token_207|>",
      "single_word": false,
      "lstrip": false,
      "rstrip": false,
      "normalized": false,
      "special": true
    },
    {
      "id": 213,
      "content": "<|reserved_special_token_208|>",
      "single_word": false,
      "lstrip": false,
      "rstrip": false,
      "normalized": false,
      "special": true
    },
    {
      "id": 214,
      "content": "<|reserved_special_token_209|>",
      "single_word": false,
      "lstrip": false,
      "rstrip": false,
      "normalized": false,
      "special": true
    },
    {
      "id": 215,
      "content": "<|reserved_special_token_210|>",
      "single_word": false,
      "lstrip": false,
      "rstrip": false,
      "normalized": false,
      "special": true
    },
    {
      "id": 216,
      "content": "<|reserved_special_token_211|>",
      "single_word": false,
      "lstrip": false,
      "rstrip": false,
      "normalized": false,
      "special": true
    },
    {
      "id": 217,
      "content": "<|reserved_special_token_212|>",
      "single_word": false,
      "lstrip": false,
      "rstrip": false,
      "normalized": false,
      "special": true
    },
    {
      "id": 218,
      "content": "<|reserved_special_token_213|>",
      "single_word": false,
      "lstrip": false,
      "rstrip": false,
      "normalized": false,
      "special": true
    },
    {
      "id": 219,
      "content": "<|reserved_special_token_214|>",
      "single_word": false,
      "lstrip": false,
      "rstrip": false,
      "normalized": false,
      "special": true
    },
    {
      "id": 220,
      "content": "<|reserved_special_token_215|>",
      "single_word": false,
      "lstrip": false,
      "rstrip": false,
      "normalized": false,
      "special": true
    },
    {
      "id": 221,
      "content": "<|reserved_special_token_216|>",
      "single_word": false,
      "lstrip": false,
      "rstrip": false,
      "normalized": false,
      "special": true
    },
    {
      "id": 222,
      "content": "<|reserved_special_token_217|>",
      "single_word": false,
      "lstrip": false,
      "rstrip": false,
      "normalized": false,
      "special": true
    },
    {
      "id": 223,
      "content": "<|reserved_special_token_218|>",
      "single_word": false,
      "lstrip": false,
      "rstrip": false,
      "normalized": false,
      "special": true
    },
    {
      "id": 224,
      "content": "<|reserved_special_token_219|>",
      "single_word": false,
      "lstrip": false,
      "rstrip": false,
      "normalized": false,
      "special": true
    },
    {
      "id": 225,
      "content": "<|reserved_special_token_220|>",
      "single_word": false,
      "lstrip": false,
      "rstrip": false,
      "normalized": false,
      "special": true
    },
    {
      "id": 226,
      "content": "<|reserved_special_token_221|>",
      "single_word": false,
      "lstrip": false,
      "rstrip": false,
      "normalized": false,
      "special": true
    },
    {
      "id": 227,
      "content": "<|reserved_special_token_222|>",
      "single_word": false,
      "lstrip": false,
      "rstrip": false,
      "normalized": false,
      "special": true
    },
    {
      "id": 228,
      "content": "<|reserved_special_token_223|>",
      "single_word": false,
      "lstrip": false,
      "rstrip": false,
      "normalized": false,
      "special": true
    },
    {
      "id": 229,
      "content": "<|reserved_special_token_224|>",
      "single_word": false,
      "lstrip": false,
      "rstrip": false,
      "normalized": false,
      "special": true
    },
    {
      "id": 230,
      "content": "<|reserved_special_token_225|>",
      "single_word": false,
      "lstrip": false,
      "rstrip": false,
      "normalized": false,
      "special": true
    },
    {
      "id": 231,
      "content": "<|reserved_special_token_226|>",
      "single_word": false,
      "lstrip": false,
      "rstrip": false,
      "normalized": false,
      "special": true
    },
    {
      "id": 232,
      "content": "<|reserved_special_token_227|>",
      "single_word": false,
      "lstrip": false,
      "rstrip": false,
      "normalized": false,
      "special": true
    },
    {
      "id": 233,
      "content": "<|reserved_special_token_228|>",
      "single_word": false,
      "lstrip": false,
      "rstrip": false,
      "normalized": false,
      "special": true
    },
    {
      "id": 234,
      "content": "<|reserved_special_token_229|>",
      "single_word": false,
      "lstrip": false,
      "rstrip": false,
      "normalized": false,
      "special": true
    },
    {
      "id": 235,
      "content": "<|reserved_special_token_230|>",
      "single_word": false,
      "lstrip": false,
      "rstrip": false,
      "normalized": false,
      "special": true
    },
    {
      "id": 236,
      "content": "<|reserved_special_token_231|>",
      "single_word": false,
      "lstrip": false,
      "rstrip": false,
      "normalized": false,
      "special": true
    },
    {
      "id": 237,
      "content": "<|reserved_special_token_232|>",
      "single_word": false,
      "lstrip": false,
      "rstrip": false,
      "normalized": false,
      "special": true
    },
    {
      "id": 238,
      "content": "<|reserved_special_token_233|>",
      "single_word": false,
      "lstrip": false,
      "rstrip": false,
      "normalized": false,
      "special": true
    },
    {
      "id": 239,
      "content": "<|reserved_special_token_234|>",
      "single_word": false,
      "lstrip": false,
      "rstrip": false,
      "normalized": false,
      "special": true
    },
    {
      "id": 240,
      "content": "<|reserved_special_token_235|>",
      "single_word": false,
      "lstrip": false,
      "rstrip": false,
      "normalized": false,
      "special": true
    },
    {
      "id": 241,
      "content": "<|reserved_special_token_236|>",
      "single_word": false,
      "lstrip": false,
      "rstrip": false,
      "normalized": false,
      "special": true
    },
    {
      "id": 242,
      "content": "<|reserved_special_token_237|>",
      "single_word": false,
      "lstrip": false,
      "rstrip": false,
      "normalized": false,
      "special": true
    },
    {
      "id": 243,
      "content": "<|reserved_special_token_238|>",
      "single_word": false,
      "lstrip": false,
      "rstrip": false,
      "normalized": false,
      "special": true
    },
    {
      "id": 244,
      "content": "<|reserved_special_token_239|>",
      "single_word": false,
      "lstrip": false,
      "rstrip": false,
      "normalized": false,
      "special": true
    },
    {
      "id": 245,
      "content": "<|reserved_special_token_240|>",
      "single_word": false,
      "lstrip": false,
      "rstrip": false,
      "normalized": false,
      "special": true
    },
    {
      "id": 246,
      "content": "<|reserved_special_token_241|>",
      "single_word": false,
      "lstrip": false,
      "rstrip": false,
      "normalized": false,
      "special": true
    },
    {
      "id": 247,
      "content": "<|reserved_special_token_242|>",
      "single_word": false,
      "lstrip": false,
      "rstrip": false,
      "normalized": false,
      "special": true
    },
    {
      "id": 248,
      "content": "<|reserved_special_token_243|>",
      "single_word": false,
      "lstrip": false,
      "rstrip": false,
      "normalized": false,
      "special": true
    },
    {
      "id": 249,
      "content": "<|reserved_special_token_244|>",
      "single_word": false,
      "lstrip": false,
      "rstrip": false,
      "normalized": false,
      "special": true
    },
    {
      "id": 250,
      "content": "<|reserved_special_token_245|>",
      "single_word": false,
      "lstrip": false,
      "rstrip": false,
      "normalized": false,
      "special": true
    },
    {
      "id": 251,
      "content": "<|reserved_special_token_246|>",
      "single_word": false,
      "lstrip": false,
      "rstrip": false,
      "normalized": false,
      "special": true
    },
    {
      "id": 252,
      "content": "<|reserved_special_token_247|>",
      "single_word": false,
      "lstrip": false,
      "rstrip": false,
      "normalized": false,
      "special": true
    },
    {
      "id": 253,
      "content": "<|reserved_special_token_248|>",
      "single_word": false,
      "lstrip": false,
      "rstrip": false,
      "normalized": false,
      "special": true
    },
    {
      "id": 254,
      "content": "<|reserved_special_token_249|>",
      "single_word": false,
      "lstrip": false,
      "rstrip": false,
      "normalized": false,
      "special": true
    },
    {
      "id": 255,
      "content": "<|reserved_special_token_250|>",
      "single_word": false,
      "lstrip": false,
      "rstrip": false,
      "normalized": false,
      "special": true
    }
  ],
  "normalizer": null,
  "pre_tokenizer": {
    "type": "Sequence",
    "pretokenizers": [
      {
        "type": "Split",
        "pattern": {
          "Regex": "(?i:'s|'t|'re|'ve|'m|'ll|'d)|[^\\r\\n\\p{L}\\p{N}]?\\p{L}+|\\p{N}{1,3}| ?[^\\s\\p{L}\\p{N}]+[\\r\\n]*|\\s*[\\r\\n]+|\\s+(?!\\S)|\\s+"
        },
        "behavior": "Isolated",
        "invert": false
      },
      {
        "type": "ByteLevel",
        "add_prefix_space": false,
        "trim_offsets": true,
        "use_regex": false
      }
    ]
  },
  "post_processor": {
    "type": "Sequence",
    "processors": [
      {
        "type": "ByteLevel",
        "add_prefix_space": true,
        "trim_offsets": false,
        "use_regex": true
      },
      {
        "type": "TemplateProcessing",
        "single": [
          {
            "SpecialToken": {
              "id": "<|begin_of_text|>",
              "type_id": 0
            }
          },
          {
            "Sequence": {
              "id": "A",
              "type_id": 0
            }
          }
        ],
        "pair": [
          {
            "SpecialToken": {
              "id": "<|begin_of_text|>",
              "type_id": 0
            }
          },
          {
            "Sequence": {
              "id": "A",
              "type_id": 0
            }
          },
          {
            "SpecialToken": {
              "id": "<|begin_of_text|>",
              "type_id": 1
            }
          },
          {
            "Sequence": {
              "id": "B",
              "type_id": 1
            }
          }
        ],
        "special_tokens": {
          "<|begin_of_text|>": {
            "id": "<|begin_of_text|>",
            "ids": [
              128000
            ],
            "tokens": [
              "<|begin_of_text|>"
            ]
          }
        }
      }
    ]
  },
  "decoder": {
    "type": "ByteLevel",
    "add_prefix_space": true,
    "trim_offsets": true,
    "use_regex": true
  },
  "model": {
    "type": "BPE",
    "dropout": null,
    "unk_token": null,
    "continuing_subword_prefix": null,
    "end_of_word_suffix": null,
    "fuse_unk": false,
    "byte_fallback": false,
    "ignore_merges": true,
    "vocab": {
      "<|begin_of_text|>": 0,
      "<|end_of_text|>": 1,
      "<|reserved_special_token_0|>": 2,
      "<|reserved_special_token_1|>": 3,
      "<|reserved_special_token_2|>": 4,
      "<|reserved_special_token_3|>": 5,
      "<|start_header_id|>": 6,
      "<|end_header_id|>": 7,
      "<|reserved_special_token_4|>": 8,
      "<|eot_id|>": 9,
      "<|reserved_special_token_5|>": 10,
      "<|reserved_special_token_6|>": 11,
      "<|reserved_special_token_7|>": 12,
      "<|reserved_special_token_8|>": 13,
      "<|reserved_special_token_9|>": 14,
      "<|reserved_special_token_10|>": 15,
      "<|reserved_special_token_11|>": 16,
      "<|reserved_special_token_12|>": 17,
      "<|reserved_special_token_13|>": 18,
      "<|reserved_special_token_14|>": 19,
      "<|reserved_special_token_15|>": 20,
      "<|reserved_special_token_16|>": 21,
      "<|reserved_special_token_17|>": 22,
      "<|reserved_special_token_18|>": 23,
      "<|reserved_special_token_19|>": 24,
      "<|reserved_special_token_20|>": 25,
      "<|reserved_special_token_21|>": 26,
      "<|reserved_special_token_22|>": 27,
      "<|reserved_special_token_23|>": 28,
      "<|reserved_special_token_24|>": 29,
      "<|reserved_special_token_25|>": 30,
      "<|reserved_special_token_26|>": 31,
      "<|reserved_special_token_27|>": 32,
      "<|reserved_special_token_28|>": 33,
      "<|reserved_special_token_29|>": 34,
      "<|reserved_special_token_30|>": 35,
      "<|reserved_special_token_31|>": 36,
      "<|reserved_special_token_32|>": 37,
      "<|reserved_special_token_33|>": 38,
      "<|reserved_special_token_34|>": 39,
      "<|reserved_special_token_35|>": 40,
      "<|reserved_special_token_36|>": 41,
      "<|reserved_special_token_37|>": 42,
      "<|reserved_special_token_38|>": 43,
      "<|reserved_special_token_39|>": 44,
      "<|reserved_special_token_40|>": 45,
      "<|reserved_special_token_41|>": 46,
      "<|reserved_special_token_42|>": 47,
      "<|reserved_special_token_43|>": 48,
      "<|reserved_special_token_44|>": 49,
      "<|reserved_special_token_45|>": 50,
      "<|reserved_special_token_46|>": 51,
      "<|reserved_special_token_47|>": 52,
      "<|reserved_special_token_48|>": 53,
      "<|reserved_special_token_49|>": 54,
      "<|reserved_special_token_50|>": 55,
      "<|reserved_special_token_51|>": 56,
      "<|reserved_special_token_52|>": 57,
      "<|reserved_special_token_53|>": 58,
      "<|reserved_special_token_54|>": 59,
      "<|reserved_special_token_55|>": 60,
      "<|reserved_special_token_56|>": 61,
      "<|reserved_special_token_57|>": 62,
      "<|reserved_special_token_58|>": 63,
      "<|reserved_special_token_59|>": 64,
      "<|reserved_special_token_60|>": 65,
      "<|reserved_special_token_61|>": 66,
      "<|reserved_special_token_62|>": 67,
      "<|reserved_special_token_63|>": 68,
      "<|reserved_special_token_64|>": 69,
      "<|reserved_special_token_65|>": 70,
      "<|reserved_special_token_66|>": 71,
      "<|reserved_special_token_67|>": 72,
      "<|reserved_special_token_68|>": 73,
      "<|reserved_special_token_69|>": 74,
      "<|reserved_special_token_70|>": 75,
      "<|reserved_special_token_71|>": 76,
      "<|reserved_special_token_72|>": 77,
      "<|reserved_special_token_73|>": 78,
      "<|reserved_special_token_74|>": 79,
      "<|reserved_special_token_75|>": 80,
      "<|reserved_special_token_76|>": 81,
      "<|reserved_special_token_77|>": 82,
      "<|reserved_special_token_78|>": 83,
      "<|reserved_special_token_79|>": 84,
      "<|reserved_special_token_80|>": 85,
      "<|reserved_special_token_81|>": 86,
      "<|reserved_special_token_82|>": 87,
      "<|reserved_special_token_83|>": 88,
      "<|reserved_special_token_84|>": 89,
      "<|reserved_special_token_85|>": 90,
      "<|reserved_special_token_86|>": 91,
      "<|reserved_special_token_87|>": 92,
      "<|reserved_special_token_88|>": 93,
      "<|reserved_special_token_89|>": 94,
      "<|reserved_special_token_90|>": 95,
      "<|reserved_special_token_91|>": 96,
      "<|reserved_special_token_92|>": 97,
      "<|reserved_special_token_93|>": 98,
      "<|reserved_special_token_94|>": 99,
      "<|reserved_special_token_95|>": 100,
      "<|reserved_special_token_96|>": 101,
      "<|reserved_special_token_97|>": 102,
      "<|reserved_special_token_98|>": 103,
      "<|reserved_special_token_99|>": 104,
      "<|reserved_special_token_100|>": 105,
      "<|reserved_special_token_101|>": 106,
      "<|reserved_special_token_102|>": 107,
      "<|reserved_special_token_103|>": 108,
      "<|reserved_special_token_104|>": 109,
      "<|reserved_special_token_105|>": 110,
      "<|reserved_special_token_106|>": 111,
      "<|reserved_special_token_107|>": 112,
      "<|reserved_special_token_108|>": 113,
      "<|reserved_special_token_109|>": 114,
      "<|reserved_special_token_110|>": 115,
      "<|reserved_special_token_111|>": 116,
      "<|reserved_special_token_112|>": 117,
      "<|reserved_special_token_113|>": 118,
      "<|reserved_special_token_114|>": 119,
      "<|reserved_special_token_115|>": 120,
      "<|reserved_special_token_116|>": 121,
      "<|reserved_special_token_117|>": 122,
      "<|reserved_special_token_118|>": 123,
      "<|reserved_special_token_119|>": 124,
      "<|reserved_special_token_120|>": 125,
      "<|reserved_special_token_121|>": 126,
      "<|reserved_special_token_122|>": 127,
      "<|reserved_special_token_123|>": 128,
      "<|reserved_special_token_124|>": 129,
      "<|reserved_special_token_125|>": 130,
      "<|reserved_special_token_126|>": 131,
      "<|reserved_special_token_127|>": 132,
      "<|reserved_special_token_128|>": 133,
      "<|reserved_special_token_129|>": 134,
      "<|reserved_special_token_130|>": 135,
      "<|reserved_special_token_131|>": 136,
      "<|reserved_special_token_132|>": 137,
      "<|reserved_special_token_133|>": 138,
      "<|reserved_special_token_134|>": 139,
      "<|reserved_special_token_135|>": 140,
      "<|reserved_special_token_136|>": 141,
      "<|reserved_special_token_137|>": 142,
      "<|reserved_special_token_138|>": 143,
      "<|reserved_special_token_139|>": 144,
      "<|reserved_special_token_140|>": 145,
      "<|reserved_special_token_141|>": 146,
      "<|reserved_special_token_142|>": 147,
      "<|reserved_special_token_143|>": 148,
      "<|reserved_special_token_144|>": 149,
      "<|reserved_special_token_145|>": 150,
      "<|reserved_special_token_146|>": 151,
      "<|reserved_special_token_147|>": 152,
      "<|reserved_special_token_148|>": 153,
      "<|reserved_special_token_149|>": 154,
      "<|reserved_special_token_150|>": 155,
      "<|reserved_special_token_151|>": 156,
      "<|reserved_special_token_152|>": 157,
      "<|reserved_special_token_153|>": 158,
      "<|reserved_special_token_154|>": 159,
      "<|reserved_special_token_155|>": 160,
      "<|reserved_special_token_156|>": 161,
      "<|reserved_special_token_157|>": 162,
      "<|reserved_special_token_158|>": 163,
      "<|reserved_special_token_159|>": 164,
      "<|reserved_special_token_160|>": 165,
      "<|reserved_special_token_161|>": 166,
      "<|reserved_special_token_162|>": 167,
      "<|reserved_special_token_163|>": 168,
      "<|reserved_special_token_164|>": 169,
      "<|reserved_special_token_165|>": 170,
      "<|reserved_special_token_166|>": 171,
      "<|reserved_special_token_167|>": 172,
      "<|reserved_special_token_168|>": 173,
      "<|reserved_special_token_169|>": 174,
      "<|reserved_special_token_170|>": 175,
      "<|reserved_special_token_171|>": 176,
      "<|reserved_special_token_172|>": 177,
      "<|reserved_special_token_173|>": 178,
      "<|reserved_special_token_174|>": 179,
      "<|reserved_special_token_175|>": 180,
      "<|reserved_special_token_176|>": 181,
      "<|reserved_special_token_177|>": 182,
      "<|reserved_special_token_178|>": 183,
      "<|reserved_special_token_179|>": 184,
      "<|reserved_special_token_180|>": 185,
      "<|reserved_special_token_181|>": 186,
      "<|reserved_special_token_182|>": 187,
      "<|reserved_special_token_183|>": 188,
      "<|reserved_special_token_184|>": 189,
      "<|reserved_special_token_185|>": 190,
      "<|reserved_special_token_186|>": 191,
      "<|reserved_special_token_187|>": 192,
      "<|reserved_special_token_188|>": 193,
      "<|reserved_special_token_189|>": 194,
      "<|reserved_special_token_190|>": 195,
      "<|reserved_special_token_191|>": 196,
      "<|reserved_special_token_192|>": 197,
      "<|reserved_special_token_193|>": 198,
      "<|reserved_special_token_194|>": 199,
      "<|reserved_special_token_195|>": 200,
      "<|reserved_special_token_196|>": 201,
      "<|reserved_special_token_197|>": 202,
      "<|reserved_special_token_198|>": 203,
      "<|reserved_special_token_199|>": 204,
      "<|reserved_special_token_200|>": 205,
      "<|reserved_special_token_201|>": 206,
      "<|reserved_special_token_202|>": 207,
      "<|reserved_special_token_203|>": 208,
      "<|reserved_special_token_204|>": 209,
      "<|reserved_special_token_205|>": 210,
      "<|reserved_special_token_206|>": 211,
      "<|reserved_special_token_207|>": 212,
      "<|reserved_special_token_208|>": 213,
      "<|reserved_special_token_209|>": 214,
      "<|reserved_special_token_210|>": 215,
      "<|reserved_special_token_211|>": 216,
      "<|reserved_special_token_212|>": 217,
      "<|reserved_special_token_213|>": 218,
      "<|reserved_special_token_214|>": 219,
      "<|reserved_special_token_215|>": 220,
      "<|reserved_special_token_216|>": 221,
      "<|reserved_special_token_217|>": 222,
      "<|reserved_special_token_218|>": 223,
      "<|reserved_special_token_219|>": 224,
      "<|reserved_special_token_220|>": 225,
      "<|reserved_special_token_221|>": 226,
      "<|reserved_special_token_222|>": 227,
      "<|reserved_special_token_223|>": 228,
      "<|reserved_special_token_224|>": 229,
      "<|reserved_special_token_225|>": 230,
      "<|reserved_special_token_226|>": 231,
      "<|reserved_special_token_227|>": 232,
      "<|reserved_special_token_228|>": 233,
      "<|reserved_special_token_229|>": 234,
      "<|reserved_special_token_230|>": 235,
      "<|reserved_special_token_231|>": 236,
      "<|reserved_special_token_232|>": 237,
      "<|reserved_special_token_233|>": 238,
      "<|reserved_special_token_234|>": 239,
      "<|reserved_special_token_235|>": 240,
      "<|reserved_special_token_236|>": 241,
      "<|reserved_special_token_237|>": 242,
      "<|reserved_special_token_238|>": 243,
      "<|reserved_special_token_239|>": 244,
      "<|reserved_special_token_240|>": 245,
      "<|reserved_special_token_241|>": 246,
      "<|reserved_special_token_242|>": 247,
      "<|reserved_special_token_243|>": 248,
      "<|reserved_special_token_244|>": 249,
      "<|reserved_special_token_245|>": 250,
      "<|reserved_special_token_246|>": 251,
      "<|reserved_special_token_247|>": 252,
      "<|reserved_special_token_248|>": 253,
      "<|reserved_special_token_249|>": 254,
      "<|reserved_special_token_250|>": 255,
      "!": 256,
      "\"": 257,
      "#": 258,
      "$": 259,
      "%": 260,
      "&": 261,
      "'": 262,
      "(": 263,
      ")": 264,
      "*": 265,
      "+": 266,
      ",": 267,
      "-": 268,
      ".": 269,
      "/": 270,
      "0": 271,
      "1": 272,
      "2": 273,
      "3": 274,
      "4": 275,
      "5": 276,
      "6": 277,
      "7": 278,
      "8": 279,
      "9": 280,
      ":": 281,
      ";": 282,
      "=": 283,
      "?": 284,
      "@": 285,
      "A": 286,
      "B": 287,
      "C": 288,
      "D": 289,
      "E": 290,
      "F": 291,
      "G": 292,
      "H": 293,
      "I": 294,
      "J": 295,
      "K": 296,
      "L": 297,
      "M": 298,
      "N": 299,
      "O": 300,
      "P": 301,
      "Q": 302,
      "R": 303,
      "S": 304,
      "T": 305,
      "U": 306,
      "V": 307,
      "W": 308,
      "X": 309,
      "Y": 310,
      "Z": 311,
      "[": 312,
      "\\": 313,
      "]": 314,
      "^": 315,
      "_": 316,
      "`": 317,
      "a": 318,
      "b": 319,
      "c": 320,
      "d": 321,
      "e": 322,
      "f": 323,
      "g": 324,
      "h": 325,
      "i": 326,
      "j": 327,
      "k": 328,
      "l": 329,
      "m": 330,
      "n": 331,
      "o": 332,
      "p": 333,
      "q": 334,
      "r": 335,
      "s": 336,
      "t": 337,
      "u": 338,
      "v": 339,
      "w": 340,
      "x": 341,
      "y": 342,
      "z": 343,
      "{": 344,
      "|": 345,
      "}": 346,
      "~": 347,
      "¡": 348,
      "¢": 349,
      "£": 350,
      "¤": 351,
      "¥": 352,
      "¦": 353,
      "§": 354,
      "¨": 355,
      "©": 356,
      "ª": 357,
      "«": 358,
      "¬": 359,
      "®": 360,
      "¯": 361,
      "°": 362,
      "±": 363,
      "²": 364,
      "³": 365,
      "´": 366,
      "µ": 367,
      "¶": 368,
      "·": 369,
      "¸": 370,
      "¹": 371,
      "º": 372,
      "»": 373,
      "¼": 374,
      "½": 375,
      "¾": 376,
      "¿": 377,
      "Â": 378,
      "Ã": 379,
      "Ä": 380,
      "Å": 381,
      "Æ": 382,
      "Ç": 383,
      "È": 384,
      "É": 385,
      "Ê": 386,
      "Ë": 387,
      "Ì": 388,
      "Í": 389,
      "Î": 390,
      "Ï": 391,
      "Ð": 392,
      "Ñ": 393,
      "Ò": 394,
      "Ó": 395,
      "Ô": 396,
      "Õ": 397,
      "Ö": 398,
      "×": 399,
      "Ø": 400,
      "Ù": 401,
      "Ú": 402,
      "Û": 403,
      "Ü": 404,
      "Ý": 405,
      "Þ": 406,
      "ß": 407,
      "à": 408,
      "á": 409,
      "â": 410,
      "ã": 411,
      "ä": 412,
      "å": 413,
      "æ": 414,
      "ç": 415,
      "è": 416,
      "é": 417,
      "ê": 418,
      "ë": 419,
      "ì": 420,
      "í": 421,
      "î": 422,
      "ï": 423,
      "ð": 424,
      "ñ": 425,
      "ò": 426,
      "ó": 427,
      "ô": 428,
      "Ċ": 429,
      "č": 430,
      "Ġ": 431,
      "Ģ": 432,
      "ģ": 433,
      "Ĥ": 434,
      "ĥ": 435,
      "Ħ": 436,
      "ħ": 437,
      "Ĩ": 438,
      "ĩ": 439,
      "Ī": 440,
      "ī": 441,
      "Ĭ": 442,
      "ĭ": 443,
      "Į": 444,
      "į": 445,
      "İ": 446,
      "ı": 447,
      "Ĳ": 448,
      "ĳ": 449,
      "Ĵ": 450,
      "ĵ": 451,
      "Ķ": 452,
      "ķ": 453,
      "ĸ": 454,
      "Ĺ": 455,
      "ĺ": 456,
      "Ļ": 457,
      "ļ": 458,
      "Ľ": 459,
      "ľ": 460,
      "Ŀ": 461,
      "ŀ": 462,
      "Ł": 463,
      "ł": 464,
      "Ń": 465,
      "à¸": 466,
      "ãģ": 467,
      "ãĤ": 468,
      "ãĥ": 469,
      "à¹": 470,
      "à¤": 471,
      "Ġ@": 472,
      "ðŁ": 473,
      "RT": 474,
      "co": 475,
      "Ġh": 476,
      "in": 477,
      "an": 478,
      "tt": 479,
      "âĢ": 480,
      "ps": 481,
      "ttps": 482,
      "//": 483,
      "://": 484,
      ".co": 485,
      "Ġt": 486,
      "er": 487,
      "en": 488,
      "Ġhttps": 489,
      "ãĢ": 490,
      "ar": 491,
      "âĢ¦": 492,
      "à¸Ļ": 493,
      "Ġà¤": 494,
      "ĊĊ": 495,
      "on": 496,
      "à¥": 497,
      "or": 498,
      "st": 499,
      "à¸²": 500,
      "Ø§": 501,
      "Ġ#": 502,
      "à¸Ń": 503,
      "ï¼": 504,
      "ãģĦ": 505,
      "al": 506,
      "à¹Ī": 507,
      "ãģ®": 508,
      "Ġd": 509,
      "at": 510,
      "Ġs": 511,
      "à¸ģ": 512,
      "à¹Ģ": 513,
      "es": 514,
      "Ġm": 515,
      "à¹ī": 516,
      "ou": 517,
      "à¸¡": 518,
      "is": 519,
      "ãģĹ": 520,
      "am": 521,
      "il": 522,
      "it": 523,
      "ay": 524,
      "he": 525,
      "à¸£": 526,
      "ãĥ¼": 527,
      "as": 528,
      "Ġp": 529,
      "ic": 530,
      "ãģ¦": 531,
      "ãģŁ": 532,
      "ÙĦ": 533,
      "ãģ§": 534,
      "Ġì": 535,
      "Ġb": 536,
      "à¸ĩ": 537,
      "re": 538,
      "ãģª": 539,
      "Ġa": 540,
      "à¹Ģà¸": 541,
      "Ġw": 542,
      "ĠðŁ": 543,
      "à¸¢": 544,
      "à¸±": 545,
      "ĠĠ": 546,
      "ing": 547,
      "à¸§": 548,
      "ãģ«": 549,
      "Ġf": 550,
      "à¸µ": 551,
      "el": 552,
      "Ġl": 553,
      "ï¼ģ": 554,
      "ĠØ": 555,
      "ãĥ³": 556,
      "ãģĻ": 557,
      "ãģ¾": 558,
      "ãģ£": 559,
      "Ġn": 560,
      "ãģ¨": 561,
      "ãģĭ": 562,
      "ÙĬ": 563,
      "ent": 564,
      "ãĤĭ": 565,
      "ãĤĵ": 566,
      "et": 567,
      "ed": 568,
      "un": 569,
      "à¸Ħ": 570,
      "Ùħ": 571,
      "ãģĮ": 572,
      "à¤¾": 573,
      "Ġë": 574,
      "à¸¥": 575,
      "à¸Ķ": 576,
      "..": 577,
      "ÙĪ": 578,
      "Ġy": 579,
      "Ġthe": 580,
      "ÙĨ": 581,
      "Ġg": 582,
      "ðŁĺ": 583,
      "ãĢģ": 584,
      "ro": 585,
      "ad": 586,
      "Ġc": 587,
      "ãģ¯": 588,
      "à¸´": 589,
      "and": 590,
      "ol": 591,
      "à¸ļ": 592,
      "ãĤī": 593,
      "à¸°": 594,
      "à¹Ħ": 595,
      "ot": 596,
      "à¹ģ": 597,
      "ãĤĴ": 598,
      "ï¸": 599,
      "ìĿ": 600,
      "ak": 601,
      "em": 602,
      "Ġto": 603,
      "ĠĊ": 604,
      "Ø±": 605,
      "im": 606,
      "Ġo": 607,
      "ãĤĬ": 608,
      "ir": 609,
      "à®": 610,
      "ĠT": 611,
      "ch": 612,
      "ãģĨ": 613,
      "à¸«": 614,
      "Ùĩ": 615,
      "à¸Ĺ": 616,
      "ĠI": 617,
      "ãĤĤ": 618,
      "00": 619,
      "à¸ķ": 620,
      "ï¸ı": 621,
      "à¥ĩ": 622,
      "ä¸": 623,
      "ud": 624,
      "Ø§ÙĦ": 625,
      "ĠS": 626,
      "à¤°": 627,
      "os": 628,
      "ra": 629,
      "le": 630,
      "ãĥĪ": 631,
      "ve": 632,
      "æľ": 633,
      "ãģı": 634,
      "ow": 635,
      "ĠA": 636,
      "ãĢĤ": 637,
      "ust": 638,
      "Ġth": 639,
      "id": 640,
      "Ra": 641,
      "way": 642,
      "ãĤ¹": 643,
      "Ø§Ø": 644,
      "à¸ª": 645,
      "Ġin": 646,
      "Ġe": 647,
      "ãĤĮ": 648,
      "ãĤ¤": 649,
      "ãģķ": 650,
      "ãģĬ": 651,
      "Ġk": 652,
      "ĠM": 653,
      "ãģł": 654,
      "à¸Ī": 655,
      "55": 656,
      "äº": 657,
      "ice": 658,
      "Ġco": 659,
      "20": 660,
      "ãģĵ": 661,
      "om": 662,
      "us": 663,
      "ĠD": 664,
      "ilway": 665,
      "ur": 666,
      "Ġv": 667,
      "æĹ": 668,
      "ðŁĴ": 669,
      "ig": 670,
      "Ġde": 671,
      "ãģĤ": 672,
      "St": 673,
      "à¥Ģ": 674,
      "ut": 675,
      "ik": 676,
      "íķ": 677,
      "ĠC": 678,
      "ĠB": 679,
      "ĠĠĠĠ": 680,
      "ul": 681,
      "Ġof": 682,
      "ãģ£ãģ¦": 683,
      "oo": 684,
      "qu": 685,
      "udent": 686,
      "Ä±": 687,
      "ac": 688,
      "Ġyou": 689,
      "Øª": 690,
      "For": 691,
      "Railway": 692,
      "à¸¹": 693,
      "Ġà¤ķ": 694,
      "ãĤĪ": 695,
      "à¤¾à¤": 696,
      "Just": 697,
      "à¸Ľ": 698,
      "ion": 699,
      "ia": 700,
      "å¤": 701,
      "ãģį": 702,
      "æĹ¥": 703,
      "à¥į": 704,
      "çĶ": 705,
      "um": 706,
      "Ġand": 707,
      "12": 708,
      "udents": 709,
      "ä»": 710,
      "ĠP": 711,
      "ap": 712,
      "ãģ¡": 713,
      "ag": 714,
      "ëĭ": 715,
      "ab": 716,
      "Justice": 717,
      "à¹Īà¸²": 718,
      "ãģ¾ãģĻ": 719,
      "ĠØ§ÙĦ": 720,
      "ãħ": 721,
      "åħ": 722,
      "JusticeFor": 723,
      "à¸·": 724,
      "à¹ĥ": 725,
      "Ġis": 726,
      "Ġê": 727,
      "JusticeForRailway": 728,
      "ãĥª": 729,
      "åĪ": 730,
      "âľ": 731,
      "à¸¸": 732,
      "ec": 733,
      "!!": 734,
      "ah": 735,
      "à¸Ńà¸ĩ": 736,
      "ãģĳ": 737,
      "ðĿ": 738,
      "Ġfor": 739,
      "ãĥ©": 740,
      "âĢĻ": 741,
      "Ø¯": 742,
      "Ġre": 743,
      "à¹ĩ": 744,
      "ãĥĥ": 745,
      "ãĤ¯": 746,
      "JusticeForRailwaySt": 747,
      "https": 748,
      "ãĥ«": 749,
      "ĠÐ": 750,
      "Ġj": 751,
      "åı": 752,
      "ee": 753,
      "à¸ŀ": 754,
      "ï¼ģï¼ģ": 755,
      "ĠW": 756,
      "ver": 757,
      "ĠG": 758,
      "Ġon": 759,
      "æĸ": 760,
      "ĠN": 761,
      "ìĿ´": 762,
      "ĠH": 763,
      "à¥ĭ": 764,
      "Ùĥ": 765,
      "ãĥķ": 766,
      "ãģĹãģ¦": 767,
      "å®": 768,
      "ri": 769,
      "ly": 770,
      "Ø¨": 771,
      "à¸µà¹Ī": 772,
      "åĲ": 773,
      "à¥įà¤": 774,
      "Ġbe": 775,
      "end": 776,
      "ðŁİ": 777,
      "ill": 778,
      "ĠL": 779,
      "ãģĹãģŁ": 780,
      "à¤Ĥ": 781,
      "ang": 782,
      "ï½": 783,
      "JusticeForRailwayStudents": 784,
      "op": 785,
      "à¤¿": 786,
      "Ùģ": 787,
      "ãģ§ãģĻ": 788,
      "à¸±à¸Ļ": 789,
      "ãĥŃ": 790,
      "ÛĮ": 791,
      "nd": 792,
      "ie": 793,
      "ãģ£ãģŁ": 794,
      "ĠĊĊ": 795,
      "ĠðŁĺ": 796,
      "à¸¡à¸²": 797,
      "ãĥ¬": 798,
      "ant": 799,
      "ãĤ¢": 800,
      "à¹īà¸²": 801,
      "à¯": 802,
      "th": 803,
      "up": 804,
      "ĠF": 805,
      "à¸Ĭ": 806,
      "ìĹ": 807,
      "Ġqu": 808,
      "ãģĭãĤī": 809,
      "ff": 810,
      "Ġr": 811,
      "ĠE": 812,
      "âĿ": 813,
      "202": 814,
      "ãģªãģĦ": 815,
      "ðŁĺŃ": 816,
      "éģ": 817,
      "à¸Ĥ": 818,
      "ãĥĹ": 819,
      "ĠR": 820,
      "Ø¹": 821,
      "ãĤĦ": 822,
      "ĠÙħ": 823,
      "__": 824,
      "Ġst": 825,
      "IN": 826,
      "Ø³": 827,
      "ï¼Ł": 828,
      "ãģĪ": 829,
      "ðŁ¤": 830,
      "ä½": 831,
      "art": 832,
      "ãĢĮ": 833,
      "à¤¿à¤": 834,
      "amp": 835,
      "ãĥ¼ãĥ": 836,
      "ÙĤ": 837,
      "éĸ": 838,
      "10": 839,
      "ãĤģ": 840,
      "ãĤĥ": 841,
      "ãģŃ": 842,
      "ãĢį": 843,
      "åĭ": 844,
      "ãģ©": 845,
      "ok": 846,
      "are": 847,
      "ãģĿ": 848,
      "Ġal": 849,
      "our": 850,
      "we": 851,
      "ãģ¿": 852,
      "ess": 853,
      "à¹Į": 854,
      "ìķ": 855,
      "ce": 856,
      "å¹": 857,
      "if": 858,
      "âľ¨": 859,
      "Ð¾": 860,
      "äºº": 861,
      "sh": 862,
      "ãĤı": 863,
      "Ġme": 864,
      "ãĥ³ãĥ": 865,
      "ith": 866,
      "ãĢĢ": 867,
      "555": 868,
      "å¿": 869,
      "à°": 870,
      "ãģĶ": 871,
      "ãĥķãĤ": 872,
      "Ã©": 873,
      "à¹Ħà¸¡": 874,
      "Ġà¤¹": 875,
      "ãĤ³": 876,
      "ry": 877,
      "è¦": 878,
      "à¹Ĥ": 879,
      "ãĤ«": 880,
      "ê³": 881,
      "ðŁĳ": 882,
      "ers": 883,
      "ĠÙĪ": 884,
      "Ġwh": 885,
      "ãĥ£": 886,
      "ĠO": 887,
      "od": 888,
      "ê°": 889,
      "ist": 890,
      "Ġit": 891,
      "EN": 892,
      "à¤ķ": 893,
      "ew": 894,
      "ai": 895,
      "Ð°": 896,
      "ãĤŃ": 897,
      "Ġí": 898,
      "éĢ": 899,
      "ãĤ¿": 900,
      "...": 901,
      "MA": 902,
      "ì§": 903,
      "ĠK": 904,
      "âĻ": 905,
      "ht": 906,
      "ãģķãĤĵ": 907,
      "ãĥŀ": 908,
      "à¸Ńà¸Ļ": 909,
      "à¸Ńà¸¢": 910,
      "TS": 911,
      "ãħĭ": 912,
      "à¤¨": 913,
      "ìĦ": 914,
      "ëĬ": 915,
      "ðŁ¥": 916,
      "è¨": 917,
      "lo": 918,
      "ya": 919,
      "Ġ(": 920,
      "se": 921,
      "ate": 922,
      "ìļ": 923,
      "ðŁĶ": 924,
      "ial": 925,
      "Ġun": 926,
      "Ġà¤¸": 927,
      "ub": 928,
      "ëĭ¤": 929,
      "iz": 930,
      "11": 931,
      "est": 932,
      "aw": 933,
      "ĠØ¨": 934,
      "ãĤ¸": 935,
      "ive": 936,
      "ĠJ": 937,
      "Ã¼": 938,
      "av": 939,
      "à¹Ģà¸¥": 940,
      "ãģĽ": 941,
      "Ġthis": 942,
      "ck": 943,
      "çµ": 944,
      "ãģ¤": 945,
      "Ðµ": 946,
      "ãĤ·": 947,
      "æĬ": 948,
      "Ġ&": 949,
      "_t": 950,
      "ong": 951,
      "Ø©": 952,
      "one": 953,
      "à¹īà¸§": 954,
      "ðŁı": 955,
      "æ°": 956,
      "uk": 957,
      "oll": 958,
      "ãģ®å": 959,
      "å¹´": 960,
      "à¸±à¸ļ": 961,
      "az": 962,
      "ëĬĶ": 963,
      "ere": 964,
      "à¸³": 965,
      "æĦ": 966,
      "Ġla": 967,
      "æĿ": 968,
      "ìŀ": 969,
      "ä»Ĭ": 970,
      "ip": 971,
      "ãĥ»": 972,
      "å½": 973,
      "ØŃ": 974,
      "VE": 975,
      "weet": 976,
      "ãħĭãħĭ": 977,
      "íķĺ": 978,
      "ĠâĢ": 979,
      "æŃ": 980,
      "å¤§": 981,
      "ä¼": 982,
      "Ġque": 983,
      "æľĪ": 984,
      "à¹Ĩ": 985,
      "åĽ": 986,
      "Ġse": 987,
      "iv": 988,
      "ê³ł": 989,
      "ï¼ģĊ": 990,
      "ãĥģ": 991,
      "æĻ": 992,
      "ìĭ": 993,
      "Ġan": 994,
      "æĢ": 995,
      "ĠY": 996,
      "ãģ¾ãģĹãģŁ": 997,
      "Ġex": 998,
      "ear": 999,
      "åĨ": 1000,
      "_:": 1001,
      "ct": 1002,
      "ãģ¡ãĤĥ": 1003,
      "è¡": 1004,
      "ãĥ³ãĥĪ": 1005,
      "à¹ģà¸¥": 1006,
      "ÙĩÙĩ": 1007,
      "å¥": 1008,
      "out": 1009,
      "ber": 1010,
      "Ġen": 1011,
      "AN": 1012,
      "å¼": 1013,
      "TE": 1014,
      "'s": 1015,
      "Ġi": 1016,
      "à¸µà¹ī": 1017,
      "æľ¬": 1018,
      "Ġcom": 1019,
      "Ġwith": 1020,
      "Ġ:": 1021,
      "ĠĠĠĠĠĠĠĠ": 1022,
      "¬ë": 1023,
      "ãĢĲ": 1024,
      "ON": 1025,
      "à¸Ħà¸Ļ": 1026,
      "ard": 1027,
      "ãĢĳ": 1028,
      "à¸±à¸ĩ": 1029,
      "ha": 1030,
      "âĿ¤": 1031,
      "ãĤį": 1032,
      "à¤¤": 1033,
      "æĸ¹": 1034,
      "rom": 1035,
      "ÑĤ": 1036,
      "å¾": 1037,
      "çĽ": 1038,
      "´ë": 1039,
      "Ġà¹Ģà¸": 1040,
      "à¤¹": 1041,
      "ðŁĺŃðŁĺŃ": 1042,
      "èª": 1043,
      "åĬ": 1044,
      "han": 1045,
      "Ø§ÙĨ": 1046,
      "à¯į": 1047,
      "BTS": 1048,
      "wt": 1049,
      "ìĹĲ": 1050,
      "ĠV": 1051,
      "ue": 1052,
      "à¹Ģà¸£": 1053,
      "Ġcon": 1054,
      "ore": 1055,
      "Ġìķ": 1056,
      "ib": 1057,
      "ãĥķãĤ©": 1058,
      "og": 1059,
      "ld": 1060,
      "åŃ": 1061,
      "åĩ": 1062,
      "Ð¸": 1063,
      "æĺ": 1064,
      "æ§": 1065,
      "Ġ-": 1066,
      "Ġ$": 1067,
      "ation": 1068,
      "à¸´à¸Ļ": 1069,
      "Ġà¤®": 1070,
      "ight": 1071,
      "all": 1072,
      "to": 1073,
      "Ġare": 1074,
      "aa": 1075,
      "ost": 1076,
      "ind": 1077,
      "ÅŁ": 1078,
      "Ġthat": 1079,
      ".Ċ": 1080,
      "à¥Ī": 1081,
      "à¥ģ": 1082,
      "Ġ|": 1083,
      "çĻ": 1084,
      "à¹ĩà¸Ļ": 1085,
      "ell": 1086,
      "ãĤ¤ãĥ": 1087,
      "100": 1088,
      "io": 1089,
      "à¸ĸ": 1090,
      "Ø´": 1091,
      "ãģĺ": 1092,
      "Ġno": 1093,
      "19": 1094,
      "ç¥": 1095,
      "Ġso": 1096,
      "âĺ": 1097,
      "ave": 1098,
      "30": 1099,
      "Ġmy": 1100,
      "ìł": 1101,
      "Ú©": 1102,
      "icial": 1103,
      "Ġas": 1104,
      "ollow": 1105,
      "à¹Ħà¸Ķ": 1106,
      "ek": 1107,
      "50": 1108,
      "ãĤª": 1109,
      "Ã§": 1110,
      "ike": 1111,
      "ðŁĺĤ": 1112,
      "æ§ĺ": 1113,
      "ä¸Ģ": 1114,
      "à¤²": 1115,
      "ast": 1116,
      "ìķĦ": 1117,
      "à¤Ĺ": 1118,
      "ï¾": 1119,
      "à¹īà¸Ńà¸ĩ": 1120,
      "ain": 1121,
      "ts": 1122,
      "à¸«à¸Ļ": 1123,
      "_twt": 1124,
      "ey": 1125,
      "ë¦": 1126,
      "ep": 1127,
      "ish": 1128,
      "ãĥŃãĥ¼": 1129,
      "oy": 1130,
      "ãģĤãĤĬ": 1131,
      "ter": 1132,
      "à¸·à¹Ī": 1133,
      "ãĢĤĊ": 1134,
      "Ġdo": 1135,
      "ãĤ°": 1136,
      "ä¸Ń": 1137,
      "ç´": 1138,
      "ê°Ģ": 1139,
      "ðŁĮ": 1140,
      "ëı": 1141,
      "ĠðŁĴ": 1142,
      "ãĥ¼ãĥĪ": 1143,
      "æĻĤ": 1144,
      "ìĬ": 1145,
      "ãĤ¦": 1146,
      "ãĥ¡": 1147,
      "Ġ\"": 1148,
      "ðŁĻ": 1149,
      "Ġnot": 1150,
      "RE": 1151,
      "Ġsh": 1152,
      "eg": 1153,
      "æī": 1154,
      "??": 1155,
      "è¦ĭ": 1156,
      "fficial": 1157,
      "ĠÙĦ": 1158,
      "à¹ĥà¸«": 1159,
      "ov": 1160,
      "éĩ": 1161,
      "å½ĵ": 1162,
      "na": 1163,
      "ine": 1164,
      "ll": 1165,
      "åĲį": 1166,
      "ëĤ": 1167,
      "Ġà®": 1168,
      "#JusticeForRailwayStudents": 1169,
      "Ġà¤ª": 1170,
      "Ġat": 1171,
      "Ġpro": 1172,
      "åĩº": 1173,
      "à¸¶": 1174,
      "ĠìĿ": 1175,
      "ìļĶ": 1176,
      "éĽ": 1177,
      "¸°": 1178,
      "ans": 1179,
      "æ³": 1180,
      "à¹Ģà¸Ľ": 1181,
      "ĠU": 1182,
      "Sh": 1183,
      "Ñģ": 1184,
      "ob": 1185,
      "è©": 1186,
      "Ð½": 1187,
      "à¸Ńà¸ģ": 1188,
      "Ġà¹ģ": 1189,
      "Ùİ": 1190,
      "æĪ": 1191,
      "au": 1192,
      "çĶŁ": 1193,
      "ãģĦãģŁ": 1194,
      "AL": 1195,
      "ĠØª": 1196,
      "ë§": 1197,
      "à¸±à¹ī": 1198,
      "ood": 1199,
      "à¹Ħà¸Ľ": 1200,
      "à¸²à¸ģ": 1201,
      "hi": 1202,
      "ãģĹãģĦ": 1203,
      "pp": 1204,
      "ãĥķãĤ©ãĥŃãĥ¼": 1205,
      "ST": 1206,
      "ì§Ģ": 1207,
      "ãĥĭ": 1208,
      "âĿ¤ï¸ı": 1209,
      "ëĭĪ": 1210,
      "ÑĢ": 1211,
      "ãĥĦ": 1212,
      "çĶ»": 1213,
      "éģ¸": 1214,
      "ãģĻãĤĭ": 1215,
      "ê²": 1216,
      "à¸²à¸¡": 1217,
      "åĪĨ": 1218,
      "me": 1219,
      "ãĢľ": 1220,
      "ìĸ": 1221,
      "ãĥĲ": 1222,
      "à¸µà¸¢": 1223,
      "24": 1224,
      "Ø¬": 1225,
      "à¤¾à¤°": 1226,
      "Ġâ": 1227,
      "à¸Ħà¸£": 1228,
      "à¸²à¸£": 1229,
      "ort": 1230,
      "aj": 1231,
      "ook": 1232,
      "à¸Īà¸°": 1233,
      "ðŁĶ¥": 1234,
      "ãģĦãģ¾ãģĻ": 1235,
      "ìĦľ": 1236,
      "ä¿": 1237,
      "é¡": 1238,
      "æ¥": 1239,
      "à¸²à¸¢": 1240,
      "âĢĻs": 1241,
      "æķ": 1242,
      "Ġel": 1243,
      "Ã¡": 1244,
      "ãģ«ãģª": 1245,
      "à¤¸": 1246,
      "ĠØ¹": 1247,
      "Ġyour": 1248,
      "eb": 1249,
      "rou": 1250,
      "iy": 1251,
      "TV": 1252,
      "åº": 1253,
      "ara": 1254,
      "ãģ¨ãģĨ": 1255,
      "à¸±à¸ģ": 1256,
      "æ°Ĺ": 1257,
      "ung": 1258,
      "à¹Ģà¸¥à¸¢": 1259,
      "ç¬": 1260,
      "ÃŃ": 1261,
      "ãģĦãģĦ": 1262,
      "Ġà¤¬": 1263,
      "å±": 1264,
      "ack": 1265,
      "åĳ": 1266,
      "à¹Ģà¸Ķ": 1267,
      "å¿ľ": 1268,
      "ãĥĹãĥ¬": 1269,
      "ãĤµ": 1270,
      "à¸¹à¸ģ": 1271,
      "à¤®": 1272,
      "åĭŁ": 1273,
      "å°": 1274,
      "ide": 1275,
      "à¸·à¸Ń": 1276,
      "HA": 1277,
      "ug": 1278,
      "è²": 1279,
      "à¦": 1280,
      "à¸Ł": 1281,
      "itt": 1282,
      "çļ": 1283,
      "Ġê°": 1284,
      "ãģĳãģ©": 1285,
      "hy": 1286,
      "çī": 1287,
      "IVE": 1288,
      "à¸¡à¸²à¸ģ": 1289,
      "ãģĹãģ¾ãģĻ": 1290,
      "ass": 1291,
      "éĸĵ": 1292,
      "ww": 1293,
      "oc": 1294,
      "åł": 1295,
      "Ã³": 1296,
      "è¿": 1297,
      "Ĥ¬": 1298,
      "Ġìŀ": 1299,
      "å¯": 1300,
      "pl": 1301,
      "ĠðŁ¤": 1302,
      "èĢ": 1303,
      "åī": 1304,
      "Ġwe": 1305,
      "ëĵ": 1306,
      "The": 1307,
      "AY": 1308,
      "ake": 1309,
      "ĠThe": 1310,
      "Ð¾Ð": 1311,
      "ë¡": 1312,
      "à¯įà®": 1313,
      "Ġhave": 1314,
      "èĩ": 1315,
      "ex": 1316,
      "ĠÙĬ": 1317,
      "âĢĿ": 1318,
      "ame": 1319,
      "000": 1320,
      "ãģ°": 1321,
      "Ġch": 1322,
      "ÙĢ": 1323,
      "ãĥĨ": 1324,
      "ðĿĲ": 1325,
      "éĸĭ": 1326,
      "Ġhe": 1327,
      "ect": 1328,
      "à¸ĭ": 1329,
      "ma": 1330,
      "ãģĸ": 1331,
      ".ĊĊ": 1332,
      "âĶ": 1333,
      "ìĺ": 1334,
      "ãĤ¼": 1335,
      "ðŁį": 1336,
      "åį": 1337,
      "14": 1338,
      "ç·": 1339,
      "ãħł": 1340,
      "Ġà¤ľ": 1341,
      "ãģĵãģ®": 1342,
      "ãģ®ãģ§": 1343,
      "ii": 1344,
      "å®ļ": 1345,
      "ĠÙģ": 1346,
      "ER": 1347,
      "ime": 1348,
      "Âł": 1349,
      "ity": 1350,
      "å£": 1351,
      "ãĥ¥": 1352,
      "âĳ": 1353,
      "UN": 1354,
      "à¸Ńà¸°": 1355,
      "ĠÃ": 1356,
      "ach": 1357,
      "ãĤº": 1358,
      "é£": 1359,
      "pr": 1360,
      "ink": 1361,
      "ment": 1362,
      "Ġwill": 1363,
      "Ġab": 1364,
      "ç§": 1365,
      "æĢĿ": 1366,
      "à¸£à¸°": 1367,
      "ãĤŃãĥ£": 1368,
      "Øµ": 1369,
      "ðŁİģ": 1370,
      "ãģĤãĤĬãģĮ": 1371,
      "ies": 1372,
      "ure": 1373,
      "ng": 1374,
      "IT": 1375,
      "æĸ°": 1376,
      "ìĽ": 1377,
      "uy": 1378,
      "Ø§Ø±": 1379,
      "à¤µ": 1380,
      "çĦ": 1381,
      "ath": 1382,
      "ase": 1383,
      "Ġà¤°": 1384,
      "Ġgo": 1385,
      "ìľ": 1386,
      "Ġë§": 1387,
      "ëıĦ": 1388,
      "ãģŁãģĦ": 1389,
      "ãĥŁ": 1390,
      "ari": 1391,
      "ĠëĤ": 1392,
      "Ġpl": 1393,
      "@m": 1394,
      "Ġà¤¨": 1395,
      "MM": 1396,
      "ãģĵãģ¨": 1397,
      "15": 1398,
      "Ġle": 1399,
      "Ø®": 1400,
      "ç¨": 1401,
      "à¥ĩà¤Ĥ": 1402,
      "ãĥī": 1403,
      "à¸´à¸Ķ": 1404,
      "_m": 1405,
      "à¸Ļà¸°": 1406,
      "day": 1407,
      "íķ´": 1408,
      "èī": 1409,
      "app": 1410,
      "Ġra": 1411,
      "ë¡ľ": 1412,
      "OR": 1413,
      "Ġlike": 1414,
      "Ġall": 1415,
      "âĢį": 1416,
      "¸ë": 1417,
      "ome": 1418,
      "äºĭ": 1419,
      "éł": 1420,
      "ìĬ¤": 1421,
      "å¸": 1422,
      "è¡Į": 1423,
      "à¤ľ": 1424,
      "ick": 1425,
      "æľĢ": 1426,
      "ï¼Ī": 1427,
      "à¹Ģà¸«": 1428,
      "ÄŁ": 1429,
      "ðŁĵ": 1430,
      "ðŁĲ": 1431,
      "ãĤĵãģł": 1432,
      "ark": 1433,
      "ãĥĸ": 1434,
      "Ġexam": 1435,
      "æĦŁ": 1436,
      "ðŁı»": 1437,
      "ðŁ¤£": 1438,
      "à¹Īà¸°": 1439,
      "Ġà¸£": 1440,
      "åŃĲ": 1441,
      "ãĥĹãĥ¬ãĤ¼": 1442,
      "Ġlo": 1443,
      "à¥įà¤°": 1444,
      "Ø§Øª": 1445,
      "ãģĶãģĸ": 1446,
      "ĠØ§": 1447,
      "AR": 1448,
      "ĠðŁĳ": 1449,
      "ss": 1450,
      "of": 1451,
      "à¤ª": 1452,
      "ember": 1453,
      "Ġup": 1454,
      "/L": 1455,
      "ãĥĹãĥ¬ãĤ¼ãĥ³ãĥĪ": 1456,
      "à¸«à¸¥": 1457,
      "li": 1458,
      "ndia": 1459,
      "ãģķãģĦ": 1460,
      "OO": 1461,
      "'t": 1462,
      "à¸ľ": 1463,
      "ana": 1464,
      "ë°": 1465,
      "ne": 1466,
      "ï¼ī": 1467,
      "åľ": 1468,
      "ny": 1469,
      "iss": 1470,
      "ãģĤãĤĬãģĮãģ¨ãģĨ": 1471,
      "ãĥĬ": 1472,
      "ãĥĩ": 1473,
      "Ġam": 1474,
      "OU": 1475,
      "oin": 1476,
      "íķľ": 1477,
      "eng": 1478,
      "åħ¥": 1479,
      "æı": 1480,
      "21": 1481,
      "à¸§à¸¢": 1482,
      "ĠÚ©": 1483,
      "LE": 1484,
      "Ġcan": 1485,
      "ä¸Ĭ": 1486,
      "ous": 1487,
      "à¸²à¸Ļ": 1488,
      "ash": 1489,
      "éĻ": 1490,
      "ãĥĳ": 1491,
      "ãĤĵãģª": 1492,
      "ãĥ¼ãĥ³": 1493,
      "Ġes": 1494,
      "Ġà¸ģ": 1495,
      "åĵ": 1496,
      "è¨Ģ": 1497,
      "æĽ": 1498,
      "ja": 1499,
      "....": 1500,
      "âĸ": 1501,
      "ĠðŁĶ": 1502,
      "Ġ[": 1503,
      "la": 1504,
      "18": 1505,
      "ãĤ»": 1506,
      "ãģ¾ãģ§": 1507,
      "à¸Ńà¸ļ": 1508,
      "ĠâĢľ": 1509,
      "Ġby": 1510,
      "ryp": 1511,
      "da": 1512,
      "13": 1513,
      "ìĿĢ": 1514,
      "ï¼ģĊĊ": 1515,
      "âĢ¦âĢ¦": 1516,
      "à¸¹à¹Ī": 1517,
      "Ġfrom": 1518,
      "ãĥĥãĥĪ": 1519,
      "my": 1520,
      "17": 1521,
      "ĠðŁ¥": 1522,
      "å¿ľåĭŁ": 1523,
      "ho": 1524,
      "Ġor": 1525,
      "ê¸°": 1526,
      "ï¸İ": 1527,
      "AS": 1528,
      "àª": 1529,
      "âĹ": 1530,
      "ä¹": 1531,
      "@s": 1532,
      "ID": 1533,
      "à¤¦": 1534,
      "çŁ": 1535,
      "ĠTh": 1536,
      "à¸Ĥà¸Ńà¸ĩ": 1537,
      "de": 1538,
      "à¹Ģà¸ģ": 1539,
      "Ġdi": 1540,
      "ãģĭãģ£ãģŁ": 1541,
      "à¹ĥà¸Ļ": 1542,
      "éĥ": 1543,
      "ĠðŁİ": 1544,
      "æĿ¥": 1545,
      "23": 1546,
      "ë¦¬": 1547,
      "ÙĩÙĩÙĩÙĩ": 1548,
      "25": 1549,
      "AM": 1550,
      "uc": 1551,
      "åĬł": 1552,
      "ta": 1553,
      "now": 1554,
      "ãģİ": 1555,
      "ëį": 1556,
      "è¬": 1557,
      "Ð°Ð": 1558,
      "Ġwor": 1559,
      "ðŁ¥º": 1560,
      "ãĤ¨": 1561,
      "ãģĦãģ¦": 1562,
      "Ġest": 1563,
      "Ø²": 1564,
      "Ġyear": 1565,
      "çĽ®": 1566,
      "Ġìł": 1567,
      "åıĤ": 1568,
      "à¸Ĺà¸³": 1569,
      "Ġne": 1570,
      "çľ": 1571,
      "ank": 1572,
      "Ġà¤¦": 1573,
      "æĶ": 1574,
      "åĲĪ": 1575,
      "ãĤĪãģĨ": 1576,
      "ãĤ£": 1577,
      "Ġwas": 1578,
      "åĲįæ§ĺ": 1579,
      "201": 1580,
      "ãĢİ": 1581,
      "ãĤĩ": 1582,
      "Ġà¤ķà¤°": 1583,
      "æĮ": 1584,
      "ãĥľ": 1585,
      "æŀ": 1586,
      "KK": 1587,
      "ally": 1588,
      "Ġà¸ª": 1589,
      "ãĥĥãĤ¯": 1590,
      "Ġà¤²": 1591,
      "åħ¨": 1592,
      "ĠãĢĲ": 1593,
      "à¸ģà¸ģ": 1594,
      "ãĤ±": 1595,
      "ãģ¡ãĤĥãĤĵ": 1596,
      "éħ": 1597,
      "ãĤĮãĤĭ": 1598,
      "her": 1599,
      "ini": 1600,
      "ãĢı": 1601,
      "Al": 1602,
      "Ġtr": 1603,
      "à¹ģà¸ļ": 1604,
      "Ûģ": 1605,
      "ìĿĦ": 1606,
      "æ¥½": 1607,
      "Ñĥ": 1608,
      "kk": 1609,
      "ĠØ§Ø": 1610,
      "èĩª": 1611,
      "ãĤĮãģ¦": 1612,
      "ãĥĦãĤ¤": 1613,
      "ãģļ": 1614,
      "çķ": 1615,
      "ãĤ¹ãĥĪ": 1616,
      "Ġà¤Ĩ": 1617,
      "Ġ+": 1618,
      "oh": 1619,
      "à±": 1620,
      "åĭķ": 1621,
      "Ġper": 1622,
      "ìĸ´": 1623,
      "ï½ŀ": 1624,
      "å¥½": 1625,
      "ian": 1626,
      "FT": 1627,
      "Ø·": 1628,
      "ãĥ§": 1629,
      "ĠÙĨ": 1630,
      "à¹Ģà¸ŀ": 1631,
      "à¤¼": 1632,
      "roup": 1633,
      "ĠØ£": 1634,
      "åĽŀ": 1635,
      "æ³ķ": 1636,
      "à¸´à¹Ī": 1637,
      "af": 1638,
      "à¹Ģà¸Ń": 1639,
      "ãĥı": 1640,
      "ier": 1641,
      "³´": 1642,
      "ĠØ³": 1643,
      "Ŀ¼": 1644,
      "à¸±à¸§": 1645,
      "æŃĮ": 1646,
      "âĢ¼": 1647,
      "ï¼ı": 1648,
      "ih": 1649,
      "IC": 1650,
      "AA": 1651,
      "ãģıãģł": 1652,
      "çĻº": 1653,
      "HE": 1654,
      "ãģĿãģĨ": 1655,
      "æ±": 1656,
      "ãģĤãĤĭ": 1657,
      "ìĿ´ë": 1658,
      "Ġjust": 1659,
      "Ch": 1660,
      "à¤¬": 1661,
      "nt": 1662,
      "Ġà¸Ļ": 1663,
      "_s": 1664,
      "ê±": 1665,
      "@M": 1666,
      "ite": 1667,
      "/w": 1668,
      "æīĭ": 1669,
      "ram": 1670,
      "ï¼ģï¼ģï¼ģï¼ģ": 1671,
      "ĠìĹ": 1672,
      "æİ": 1673,
      "official": 1674,
      "gt": 1675,
      "ÙĪÙĨ": 1676,
      "ãģ§ãĤĤ": 1677,
      ")Ċ": 1678,
      "ĠÎ": 1679,
      "Ġus": 1680,
      "ãĥĵ": 1681,
      "ãħłãħł": 1682,
      "ï¸ıĊ": 1683,
      "Ġhas": 1684,
      "ci": 1685,
      "der": 1686,
      "Ġpr": 1687,
      "ĠSt": 1688,
      "ä¼ļ": 1689,
      "IS": 1690,
      "Ø±ÙĬ": 1691,
      "India": 1692,
      "ãĥł": 1693,
      "à¸ĺ": 1694,
      "éĿ": 1695,
      "æ¯": 1696,
      "Ä±n": 1697,
      "ìĭľ": 1698,
      "à¥įà¤¯": 1699,
      "Ġà¤ħ": 1700,
      "Ġtweet": 1701,
      "ãĤĮãģŁ": 1702,
      "íĥ": 1703,
      "ET": 1704,
      "ãħĭãħĭãħĭãħĭ": 1705,
      "åĪĿ": 1706,
      "MMTV": 1707,
      "é«": 1708,
      "ING": 1709,
      "èĢħ": 1710,
      "è³": 1711,
      "ĠRT": 1712,
      "22": 1713,
      "çļĦ": 1714,
      "ãĢĤĊĊ": 1715,
      "_b": 1716,
      "@A": 1717,
      "Ġfollow": 1718,
      "xx": 1719,
      "Th": 1720,
      "ens": 1721,
      "åĥ": 1722,
      "ðŁĩ": 1723,
      "_k": 1724,
      "åīį": 1725,
      "uch": 1726,
      "rat": 1727,
      "CT": 1728,
      "ÛĴ": 1729,
      "ä½ľ": 1730,
      "rd": 1731,
      "OTE": 1732,
      "ãģĦãĤĭ": 1733,
      "ìĿĺ": 1734,
      "£¼": 1735,
      "ãģ¹": 1736,
      "ev": 1737,
      "Ġà¤¤": 1738,
      "ãĥ¯": 1739,
      "æĥ": 1740,
      "ãģ»": 1741,
      "Ġá": 1742,
      "Ø£": 1743,
      "lu": 1744,
      "à¯ģ": 1745,
      "êµ": 1746,
      "à¸¸à¸ģ": 1747,
      "Ø§Ùħ": 1748,
      "Ùī": 1749,
      "ï¼¼": 1750,
      "Ġbut": 1751,
      "ãĤŃãĥ£ãĥ³ãĥ": 1752,
      "very": 1753,
      "à¤¯": 1754,
      "à¸Ħà¸§": 1755,
      "ich": 1756,
      "Ġpe": 1757,
      "ÙĦÙĩ": 1758,
      "íĬ": 1759,
      "emb": 1760,
      "ãģĵãĤĮ": 1761,
      "ãģĹãģı": 1762,
      "ãĥĿ": 1763,
      "ÙĦÙĬ": 1764,
      "GMMTV": 1765,
      "Ġìĺ": 1766,
      "NS": 1767,
      "ç¥Ń": 1768,
      "ĠðŁĺŃ": 1769,
      "à¸¹à¹ī": 1770,
      "çĦ¡": 1771,
      "man": 1772,
      "ãĥ¢": 1773,
      "ĠÙħÙĨ": 1774,
      "æĬķ": 1775,
      "ãĤ¬": 1776,
      "ãĤŃãĥ£ãĥ³ãĥļ": 1777,
      "à¤¾à¤¨": 1778,
      "ðŁĺĤðŁĺĤ": 1779,
      "pe": 1780,
      "MO": 1781,
      "Ġnow": 1782,
      "ãģĤãĤĬãģĮãģ¨ãģĨãģĶãģĸ": 1783,
      "ãģģ": 1784,
      "te": 1785,
      "à¹Īà¸Ń": 1786,
      "Ġ@_": 1787,
      "ãĤŃãĥ£ãĥ³ãĥļãĥ¼ãĥ³": 1788,
      "@k": 1789,
      "âĢ¢": 1790,
      "ĠØ¯": 1791,
      "ada": 1792,
      "ĠìķĦ": 1793,
      "åħ¬": 1794,
      "ãģıãģłãģķãģĦ": 1795,
      "ÙĲ": 1796,
      "ama": 1797,
      "inn": 1798,
      "åĲįæ§ĺãģ«": 1799,
      "lar": 1800,
      "ìĿ¼": 1801,
      "ìĥ": 1802,
      "Ġour": 1803,
      "AT": 1804,
      "è¶": 1805,
      "ãģªãĤĵ": 1806,
      "lt": 1807,
      "ote": 1808,
      "99": 1809,
      "ðŁļ": 1810,
      "Ġout": 1811,
      "port": 1812,
      "rypto": 1813,
      "uck": 1814,
      "Ġday": 1815,
      "ni": 1816,
      "ks": 1817,
      "no": 1818,
      "ÙĬÙĨ": 1819,
      "åĨĨ": 1820,
      "å·": 1821,
      "Ġà¸¡": 1822,
      "@S": 1823,
      "eep": 1824,
      "Ø§Ø¨": 1825,
      "ge": 1826,
      "ãĥĦãĤ¤ãĥ¼ãĥĪ": 1827,
      "Īë": 1828,
      "ES": 1829,
      "Ġte": 1830,
      "Ġê·": 1831,
      "ns": 1832,
      "ait": 1833,
      "ç¾": 1834,
      "uz": 1835,
      "à¥ĭà¤Ĥ": 1836,
      "Ġë°": 1837,
      "æµ": 1838,
      "çŁ¥": 1839,
      "Ġver": 1840,
      "Ã¶": 1841,
      "ãĥ¼ãĥ¼": 1842,
      "æĸ¹æ³ķ": 1843,
      "å¥³": 1844,
      "Ġthey": 1845,
      "ðŁĻı": 1846,
      "Ar": 1847,
      "âĥ": 1848,
      "16": 1849,
      "ê²Į": 1850,
      "for": 1851,
      "ëĤĺ": 1852,
      "Ð»": 1853,
      "ĠØ±": 1854,
      "!!!": 1855,
      "Ġone": 1856,
      "ĠÙĥ": 1857,
      "à¹ĥà¸Ī": 1858,
      "ãģĭãģª": 1859,
      "ëĭĪëĭ¤": 1860,
      "Ġì§": 1861,
      "ç¬ĳ": 1862,
      "ould": 1863,
      "à®¿": 1864,
      "MAMA": 1865,
      "ç§ģ": 1866,
      "à¸Ľà¸£à¸°": 1867,
      "Ġag": 1868,
      "ãĤĪãĤĬ": 1869,
      "âĢĻt": 1870,
      "ile": 1871,
      "à¸ģà¸²à¸£": 1872,
      "Ġz": 1873,
      "âľ¨Ċ": 1874,
      "HY": 1875,
      "å§": 1876,
      "åĢ": 1877,
      "ĠðŁĵ": 1878,
      "ãĥĢ": 1879,
      "ì¹": 1880,
      "Ġna": 1881,
      "ä¸ĭ": 1882,
      "--": 1883,
      "æĬ½": 1884,
      "Ġ/": 1885,
      "per": 1886,
      "åı¯": 1887,
      "åıĤåĬł": 1888,
      "à¤¡": 1889,
      "à¸·à¸Ńà¸Ļ": 1890,
      "ews": 1891,
      "ien": 1892,
      "Ġ×": 1893,
      "à¸¶à¸ĩ": 1894,
      "ãĤ¹ãĤ¿": 1895,
      "ont": 1896,
      "Ġim": 1897,
      "Ġdes": 1898,
      "âĻ¡": 1899,
      "è©±": 1900,
      "à¸²à¸ĩ": 1901,
      "æ¬": 1902,
      "ream": 1903,
      "01": 1904,
      "ĮĢ": 1905,
      "åĽ½": 1906,
      "ix": 1907,
      "à¸«à¸£": 1908,
      "à¹Ģà¸Ĺ": 1909,
      "é«ĺ": 1910,
      "à¸Ļà¸Ļ": 1911,
      "à¹Ģà¸Ĥ": 1912,
      "AK": 1913,
      "ï¸ıĊĊ": 1914,
      "ena": 1915,
      "âĢįâĻ": 1916,
      "Ġabout": 1917,
      "å¥½ãģį": 1918,
      "à¹Īà¸ĩ": 1919,
      "âĥ£": 1920,
      "æĬ½éģ¸": 1921,
      "ãĤ®": 1922,
      "do": 1923,
      "åł´": 1924,
      "ãĤ¯ãĥª": 1925,
      "77": 1926,
      "oon": 1927,
      "Ġpre": 1928,
      "Ġà¸Ħ": 1929,
      "ä»ĬæĹ¥": 1930,
      "ãĤĴãĥķãĤ©ãĥŃãĥ¼": 1931,
      "ãģ£ãģ¨": 1932,
      "OT": 1933,
      "Ġëĭ": 1934,
      "DR": 1935,
      "bl": 1936,
      "200": 1937,
      "éĩĳ": 1938,
      "Ġsa": 1939,
      "ä¿¡": 1940,
      "Ġwant": 1941,
      "à¸Ńà¸¡": 1942,
      "Ġmin": 1943,
      "be": 1944,
      "Ġà¤Ń": 1945,
      "Ùı": 1946,
      "arg": 1947,
      "ìĨ": 1948,
      "ady": 1949,
      "min": 1950,
      "à¸´à¸ĩ": 1951,
      "à¸¸à¸Ķ": 1952,
      "ãģĦãģĨ": 1953,
      "ãģĻãģİ": 1954,
      "ire": 1955,
      "Ġìĭ": 1956,
      "à¸¨": 1957,
      "orn": 1958,
      "ose": 1959,
      "å¾Į": 1960,
      "ðĿĹ": 1961,
      "ä½ķ": 1962,
      "ãģłãģĳ": 1963,
      "old": 1964,
      "AW": 1965,
      "_j": 1966,
      "age": 1967,
      "OW": 1968,
      "Ġíķĺ": 1969,
      "à¥Ĥ": 1970,
      "ez": 1971,
      "æ¸": 1972,
      "å£²": 1973,
      "©´": 1974,
      "ãģ¨æĢĿ": 1975,
      "à¤Ł": 1976,
      "gh": 1977,
      "/X": 1978,
      "èģ": 1979,
      "Ã£": 1980,
      "æĦĽ": 1981,
      "áĢ": 1982,
      "ĠØŃ": 1983,
      "éĢģ": 1984,
      "ĠWe": 1985,
      "éħį": 1986,
      "Î±": 1987,
      "ãĢĳĊ": 1988,
      "à¸´à¹ī": 1989,
      "íĺ": 1990,
      "åĪĩ": 1991,
      "40": 1992,
      "ëĵ¤": 1993,
      "che": 1994,
      "è¨ĺ": 1995,
      "èī¯": 1996,
      "uu": 1997,
      "ãĥ¼ãĥī": 1998,
      "Įë": 1999,
      "Ġget": 2000,
      "è£": 2001,
      "Īĺ": 2002,
      "Ġà¸ŀ": 2003,
      "æł": 2004,
      "ãģ§ãģį": 2005,
      "Ġmore": 2006,
      "å½ĵãģŁ": 2007,
      "åĮ": 2008,
      "Ġman": 2009,
      "ade": 2010,
      "Ġ.": 2011,
      "ï¼Łï¼Ł": 2012,
      "à²": 2013,
      "Ġê°Ģ": 2014,
      "Ġwho": 2015,
      "İæĹ¥": 2016,
      "pa": 2017,
      "IL": 2018,
      "ðŁİī": 2019,
      "esh": 2020,
      "ij": 2021,
      "à¹Īà¸²à¸ĩ": 2022,
      "ï¼ļ": 2023,
      "à¸Ħà¸§à¸²à¸¡": 2024,
      "ĠCh": 2025,
      "/x": 2026,
      "à¹ģà¸ķ": 2027,
      "Ø¶": 2028,
      "80": 2029,
      "à¹Ģà¸¡": 2030,
      "é£Ł": 2031,
      "ãĥģãĥ£": 2032,
      "ÙĢÙĢ": 2033,
      "Ġres": 2034,
      "ãĤĬãģ¾ãģĻ": 2035,
      "ae": 2036,
      "ãģ£ãģ¦ãĤĭ": 2037,
      "/B": 2038,
      "à¹Ģà¸Ī": 2039,
      "!ĊĊ": 2040,
      "ĠØ´": 2041,
      "ãĤ¤ãĥ³": 2042,
      "ĠðŁĺĤ": 2043,
      "Ġdon": 2044,
      "ph": 2045,
      "Ġdel": 2046,
      "/C": 2047,
      "Official": 2048,
      "ĠÙĩ": 2049,
      "çĶ¨": 2050,
      "Ġrt": 2051,
      "âĨ": 2052,
      "ãģĺãĤĥ": 2053,
      "rist": 2054,
      "ru": 2055,
      "âĶģ": 2056,
      "Ġac": 2057,
      "/P": 2058,
      "/W": 2059,
      "à¹Ģà¸Ħ": 2060,
      "/j": 2061,
      "witt": 2062,
      "à¸ĵ": 2063,
      "à¥¤": 2064,
      "ë¥": 2065,
      "Ø§Ø³": 2066,
      "çµĲ": 2067,
      "ina": 2068,
      "ãĥ¼ãĥ«": 2069,
      "ãģ²": 2070,
      "ĠìĿ´": 2071,
      "à¹Ģà¸£à¸²": 2072,
      "Ġser": 2073,
      "ĠðŁĻ": 2074,
      "ãģĴ": 2075,
      "ì£¼": 2076,
      "/z": 2077,
      "Ġà¤µ": 2078,
      "Ñı": 2079,
      "Ġà¸Ń": 2080,
      "é¡ĺ": 2081,
      "Ġsp": 2082,
      "/b": 2083,
      "An": 2084,
      "ÙĪØ±": 2085,
      "à¸µà¸ģ": 2086,
      "ople": 2087,
      "ìĿ¸": 2088,
      "å®Ł": 2089,
      "à®¿à®": 2090,
      "ace": 2091,
      "ando": 2092,
      "ull": 2093,
      "86": 2094,
      "âľ¨ĊĊ": 2095,
      "ran": 2096,
      "/M": 2097,
      "ãĥªãĥ¼": 2098,
      "Ġ'": 2099,
      "/V": 2100,
      "ëį°": 2101,
      "Ġ,": 2102,
      "/y": 2103,
      "VOTE": 2104,
      "ê·": 2105,
      "Ġpor": 2106,
      "/l": 2107,
      "ult": 2108,
      "åİ": 2109,
      "33": 2110,
      "/Y": 2111,
      "!Ċ": 2112,
      "ft": 2113,
      "/D": 2114,
      "hat": 2115,
      "éĽĨ": 2116,
      "uj": 2117,
      "ĠðŁĶ¥": 2118,
      "à¤¶": 2119,
      "Ġtime": 2120,
      "ãĥ¼ãĥł": 2121,
      "Ðº": 2122,
      "ado": 2123,
      "com": 2124,
      "ĠãģĬ": 2125,
      "ì²": 2126,
      "ven": 2127,
      "ours": 2128,
      "/K": 2129,
      "cl": 2130,
      "è¾": 2131,
      "SS": 2132,
      "Ġà¸ķ": 2133,
      "Ã£o": 2134,
      "Ġif": 2135,
      "lease": 2136,
      "ĠDec": 2137,
      "59": 2138,
      "ðŁĳĩ": 2139,
      "/Q": 2140,
      "à¸Ńà¸£": 2141,
      "/J": 2142,
      "yy": 2143,
      "ãģªãģı": 2144,
      ")ĊĊ": 2145,
      "ala": 2146,
      "Ġak": 2147,
      "ail": 2148,
      "ãĤĵãģ§": 2149,
      "own": 2150,
      "witter": 2151,
      "à¹Ħà¸£": 2152,
      "unt": 2153,
      "AC": 2154,
      "ann": 2155,
      "ĠFollow": 2156,
      "ç¶": 2157,
      "/d": 2158,
      "ary": 2159,
      "à¸į": 2160,
      "the": 2161,
      "ĻĢ": 2162,
      "/F": 2163,
      "âľħ": 2164,
      "/q": 2165,
      "ãģ¶": 2166,
      "/O": 2167,
      "/m": 2168,
      "EL": 2169,
      "emp": 2170,
      "so": 2171,
      "/f": 2172,
      "ãĥĽ": 2173,
      "/G": 2174,
      "ç¬¬": 2175,
      "/U": 2176,
      "ðŁĴľ": 2177,
      "ĠØ¬": 2178,
      "/T": 2179,
      "à¸«à¸§": 2180,
      "mas": 2181,
      "/k": 2182,
      "/H": 2183,
      "ãĤģãģ¦": 2184,
      "ðŁ¥°": 2185,
      "ãģ¨ãģĭ": 2186,
      "ita": 2187,
      "isa": 2188,
      "åĵģ": 2189,
      "/N": 2190,
      "à¸´à¸ķ": 2191,
      "/R": 2192,
      "Ġrailway": 2193,
      "/v": 2194,
      "/h": 2195,
      "rav": 2196,
      "27": 2197,
      "å¿ľåĭŁæĸ¹æ³ķ": 2198,
      "Am": 2199,
      "èµ": 2200,
      "ãĥ³ãĤ°": 2201,
      "ðŁĺį": 2202,
      "à¸Ńà¸Ń": 2203,
      "ìŀĲ": 2204,
      "åħĪ": 2205,
      "ï¼Į": 2206,
      "ï¼ıĊ": 2207,
      "NFT": 2208,
      "é¡ĺãģĦ": 2209,
      "Ùĳ": 2210,
      "500": 2211,
      "ãĤ¹ãĥŀ": 2212,
      "!!!!": 2213,
      "íĶ": 2214,
      "æ®": 2215,
      "/g": 2216,
      "/S": 2217,
      "/t": 2218,
      "æ¼": 2219,
      "OL": 2220,
      "ê¹": 2221,
      "eh": 2222,
      "26": 2223,
      "ÙĨØ§": 2224,
      "ä¼ģ": 2225,
      "In": 2226,
      "íĬ¸": 2227,
      "/E": 2228,
      "ðŁİĦ": 2229,
      "Ġbeen": 2230,
      "ç¨¿": 2231,
      "ky": 2232,
      "æĪ¦": 2233,
      "à¹īà¸§à¸¢": 2234,
      "br": 2235,
      "ç«": 2236,
      "ãĥİ": 2237,
      "èŃ": 2238,
      "à®¾": 2239,
      "çĤ": 2240,
      "/s": 2241,
      "à¸¸à¹Ī": 2242,
      "à¸Ħà¸°": 2243,
      "Ġwhen": 2244,
      "Ġad": 2245,
      "ĠIn": 2246,
      "ãĤ§": 2247,
      "ely": 2248,
      "à¸Ńà¸Ķ": 2249,
      "Ġar": 2250,
      "Ħ¤": 2251,
      "AP": 2252,
      "88": 2253,
      "Ġà¤Ĺ": 2254,
      "áĪ": 2255,
      "ãģĤãĤĬãģĮãģ¨ãģĨãģĶãģĸãģĦãģ¾ãģĻ": 2256,
      "ente": 2257,
      "ãĤ²": 2258,
      "äºĪ": 2259,
      "ĠYou": 2260,
      "MAMAVOTE": 2261,
      "ĠĠĠĠĠĠĠĠĠĠĠĠĠĠĠĠ": 2262,
      "ĠÙģÙĬ": 2263,
      "ale": 2264,
      "Ġya": 2265,
      "Ġknow": 2266,
      "/r": 2267,
      "çĲ": 2268,
      "ending": 2269,
      "Min": 2270,
      "æĬķç¨¿": 2271,
      "Ġà°": 2272,
      "_n": 2273,
      "EX": 2274,
      "ê±°": 2275,
      "ðŁĴķ": 2276,
      "IR": 2277,
      "29": 2278,
      "Ġu": 2279,
      "æĭ": 2280,
      "Ġwhat": 2281,
      "/Z": 2282,
      "ðĿĳ": 2283,
      "ìľ¼": 2284,
      "Ġpeople": 2285,
      "Ġevery": 2286,
      "@P": 2287,
      "ĠIt": 2288,
      "ãĥį": 2289,
      "Re": 2290,
      "ãģĬé¡ĺãģĦ": 2291,
      "FNS": 2292,
      "act": 2293,
      "Ø§Ø¯": 2294,
      "Ġtheir": 2295,
      "æ¥½ãģĹ": 2296,
      "à¸®": 2297,
      "/c": 2298,
      "ðŁ¤£ðŁ¤£": 2299,
      "ä¾": 2300,
      "âĳł": 2301,
      "Ġcont": 2302,
      "à¤¿à¤¯": 2303,
      "ĠÙĤ": 2304,
      "/p": 2305,
      "éĥ¨": 2306,
      "Ġsi": 2307,
      "att": 2308,
      "_g": 2309,
      "ÑĮ": 2310,
      "its": 2311,
      "Me": 2312,
      "Ġlove": 2313,
      "US": 2314,
      "48": 2315,
      "Ġê³": 2316,
      "ë¶": 2317,
      "Ø°": 2318,
      "rop": 2319,
      "que": 2320,
      "ree": 2321,
      "ê¸": 2322,
      "con": 2323,
      "anc": 2324,
      "irl": 2325,
      "bo": 2326,
      "60": 2327,
      "à¸±à¹Ī": 2328,
      "à¸¥à¸ĩ": 2329,
      "RS": 2330,
      "Ù¾": 2331,
      "Ġhis": 2332,
      "@B": 2333,
      "Ġyears": 2334,
      "/n": 2335,
      "æ´": 2336,
      "ĠØ®": 2337,
      "Ġher": 2338,
      "å¾ħ": 2339,
      "OP": 2340,
      "à¸²à¸§": 2341,
      "Ġlos": 2342,
      "/I": 2343,
      "à¹Ĭ": 2344,
      "à¹ĥà¸Ħà¸£": 2345,
      "æľŁ": 2346,
      "Ð´": 2347,
      "oj": 2348,
      "ðŁĺŃðŁĺŃðŁĺŃðŁĺŃ": 2349,
      "ÙĬØ±": 2350,
      "à¸¢à¸¢": 2351,
      "We": 2352,
      "28": 2353,
      "uh": 2354,
      "ãģ³": 2355,
      "ãģ¸": 2356,
      "èĥ": 2357,
      "Ú¯": 2358,
      "@n": 2359,
      "Ġà¤¯": 2360,
      "çİ": 2361,
      "ãĤ·ãĥ§": 2362,
      "à¸«à¸¡": 2363,
      "90": 2364,
      "ĠQ": 2365,
      "ĠØ§ÙĦÙħ": 2366,
      "Ġìĸ": 2367,
      "ese": 2368,
      "ĠAl": 2369,
      "à¯ģà®": 2370,
      "fter": 2371,
      "æ²": 2372,
      "à¸ģà¸¥": 2373,
      "appy": 2374,
      "à¹Ģà¸ª": 2375,
      "ãģĤãģĤ": 2376,
      "You": 2377,
      "Ø§ØŃ": 2378,
      "çľŁ": 2379,
      "éĢļ": 2380,
      "ì§Ħ": 2381,
      "@t": 2382,
      "å¯¾": 2383,
      "è»": 2384,
      "ica": 2385,
      "âĶģâĶģ": 2386,
      "use": 2387,
      "à¹Ģà¸ķ": 2388,
      "Ġstudents": 2389,
      "ï¸İï¸İ": 2390,
      "JP": 2391,
      "Ã³n": 2392,
      "ãĤĢ": 2393,
      "è¬¡": 2394,
      "pt": 2395,
      "ise": 2396,
      "ĠÐ¿": 2397,
      "OM": 2398,
      "ife": 2399,
      "Ġà¹Ĥ": 2400,
      "æŃĮè¬¡": 2401,
      "è§": 2402,
      "reat": 2403,
      "à¹Ģà¸ĩ": 2404,
      "@b": 2405,
      "AD": 2406,
      "Ġë³´": 2407,
      "ç¾İ": 2408,
      "à¹Īà¸§": 2409,
      "di": 2410,
      "ĠðŁĮ": 2411,
      "æŃĮè¬¡ç¥Ń": 2412,
      "çĶ°": 2413,
      "ãĥ¼ãĤ¹": 2414,
      "èı": 2415,
      "Ġpara": 2416,
      "_p": 2417,
      "ãģĹãģ¾ãģĹãģŁ": 2418,
      "ØĮ": 2419,
      "Ġà¹Ħà¸¡": 2420,
      "Î¿": 2421,
      "ler": 2422,
      "Ġà¤ªà¤°": 2423,
      "à¸Ķà¸Ķ": 2424,
      "à¸£à¸²": 2425,
      "row": 2426,
      "ign": 2427,
      "ka": 2428,
      "66": 2429,
      "ë¯": 2430,
      "ŃĲ": 2431,
      "res": 2432,
      "ãĤ¸ãĥ£": 2433,
      "ãĥĶ": 2434,
      "ë©´": 2435,
      "Øº": 2436,
      "ä¸į": 2437,
      "à¹Ĩà¹Ĩ": 2438,
      "Ġà¸Ĺ": 2439,
      "ãģĲ": 2440,
      "ãģĹãģ¾": 2441,
      "æŀľ": 2442,
      "ãĤĤãģĨ": 2443,
      "Ġret": 2444,
      "æĢ§": 2445,
      "ãģ®ãģĬ": 2446,
      "Ġsu": 2447,
      "mm": 2448,
      "ðŁ§": 2449,
      "ë²": 2450,
      "Ġgood": 2451,
      "HAHA": 2452,
      "å½ĵãģŁãĤĭ": 2453,
      "ãģıãĤĵ": 2454,
      "å¿µ": 2455,
      "åĲĮ": 2456,
      "ëĿ¼": 2457,
      "Ġve": 2458,
      "Ġsay": 2459,
      "wh": 2460,
      "PC": 2461,
      "Î¹": 2462,
      "æĤ": 2463,
      "ura": 2464,
      "éĻĲ": 2465,
      "OS": 2466,
      "ï¼Ĩ": 2467,
      "ìķ¼": 2468,
      "Ã±": 2469,
      "irst": 2470,
      "âĢĭ": 2471,
      "ual": 2472,
      "æĬ½éģ¸ãģ§": 2473,
      "ãĤ½": 2474,
      "46": 2475,
      "à¸Īà¸ģ": 2476,
      "ĠÃ©": 2477,
      "åł±": 2478,
      "à¹Īà¸Ńà¸¢": 2479,
      "AI": 2480,
      "ç¤": 2481,
      "ãģĪãģ¦": 2482,
      "go": 2483,
      "70": 2484,
      "éļ": 2485,
      "ì¤": 2486,
      "ä¼ģçĶ»": 2487,
      "sm": 2488,
      "ÙĬØ©": 2489,
      "Ġê²": 2490,
      "ìĤ¬": 2491,
      "Ġsome": 2492,
      "atch": 2493,
      "ãģĹãĤĩ": 2494,
      "ãģĪãĤĭ": 2495,
      "kan": 2496,
      "ĠIDR": 2497,
      "Ġgroup": 2498,
      "æľ¬æĹ¥": 2499,
      "ãģ«ãģ¯": 2500,
      "Ä°": 2501,
      "Ġëª": 2502,
      "Ñĭ": 2503,
      "ÙĩØ§": 2504,
      "ìĺ¤": 2505,
      "ä»ĺ": 2506,
      "ãģĿãĤĮ": 2507,
      "ef": 2508,
      "45": 2509,
      "Ġà¹ģà¸ķ": 2510,
      "Ä±m": 2511,
      "@C": 2512,
      "à¸±à¸Ķ": 2513,
      "åĳ³": 2514,
      "FNSæŃĮè¬¡ç¥Ń": 2515,
      "ëł": 2516,
      "Ġà¸Ĥ": 2517,
      "ings": 2518,
      "ga": 2519,
      "ends": 2520,
      "ĠìĦ": 2521,
      "ä½¿": 2522,
      "ins": 2523,
      "ito": 2524,
      "ero": 2525,
      "ais": 2526,
      "ance": 2527,
      "æĴ": 2528,
      "ates": 2529,
      "à®¾à®": 2530,
      "ãĤĪãģŃ": 2531,
      "ãĥĥãĥĹ": 2532,
      "ĠÐ½": 2533,
      "à¸Īà¸£": 2534,
      "und": 2535,
      "Ġany": 2536,
      "mo": 2537,
      "èĤ": 2538,
      "Ø«": 2539,
      "mi": 2540,
      "ë§Į": 2541,
      "ions": 2542,
      "ÏĦ": 2543,
      "rt": 2544,
      "ĠÂ": 2545,
      "ãģµ": 2546,
      "Ġpart": 2547,
      "æĶ¾": 2548,
      "ãģłãģ£ãģŁ": 2549,
      "å§ĭ": 2550,
      "Ñĩ": 2551,
      "ãģľ": 2552,
      "ãģ¾ãģŁ": 2553,
      "rs": 2554,
      "ÙĪÙĦ": 2555,
      "Ġhow": 2556,
      "Ĥ¬ë": 2557,
      "à¸Īà¸²à¸ģ": 2558,
      "EE": 2559,
      "à¸ªà¸Ļ": 2560,
      "èĪ": 2561,
      "UT": 2562,
      "à¹ĥà¸Ĭ": 2563,
      "Ġol": 2564,
      "ìłķ": 2565,
      "orld": 2566,
      "ani": 2567,
      "Ġ!": 2568,
      "Ġbir": 2569,
      "Ġda": 2570,
      "03": 2571,
      "è²·": 2572,
      "ush": 2573,
      "à´": 2574,
      "ðŁĺĬ": 2575,
      "à¥įà¤µ": 2576,
      "æ±º": 2577,
      "Ġnew": 2578,
      "ons": 2579,
      "@j": 2580,
      "ãĥĻ": 2581,
      "away": 2582,
      "à¸Ļà¸¥": 2583,
      "Ïī": 2584,
      "Va": 2585,
      "Ġìļ": 2586,
      "æĮģ": 2587,
      "igh": 2588,
      "by": 2589,
      "FF": 2590,
      "mar": 2591,
      "ãģ£ãģ": 2592,
      "UR": 2593,
      "nn": 2594,
      "ä½ĵ": 2595,
      "å¤ī": 2596,
      "ìĹĲìĦľ": 2597,
      "oss": 2598,
      "ence": 2599,
      "ĠThis": 2600,
      "çī©": 2601,
      "åĥķ": 2602,
      "/A": 2603,
      "ba": 2604,
      "other": 2605,
      "ãĢĢãĢĢ": 2606,
      "à¸ł": 2607,
      "å®¶": 2608,
      "int": 2609,
      "ej": 2610,
      "IM": 2611,
      "¬´": 2612,
      "à¹Īà¸Ļ": 2613,
      "åĬĽ": 2614,
      "ç¥ŀ": 2615,
      "à¸ŀà¸£": 2616,
      "rr": 2617,
      "âĢ¼ï¸ı": 2618,
      "Ùĭ": 2619,
      "alk": 2620,
      "Ġì°": 2621,
      "à¸·à¹ī": 2622,
      "âĺº": 2623,
      "@D": 2624,
      "Ġà¸Ĭ": 2625,
      "ðŁı¼": 2626,
      "å¿ĥ": 2627,
      "/u": 2628,
      "ãģ¾ãģĽ": 2629,
      "Ġsup": 2630,
      "Ġdem": 2631,
      "Ġsee": 2632,
      "Ġdate": 2633,
      "Ġà¹ģà¸¥": 2634,
      "à¹Īà¸²à¸¢": 2635,
      "ãĤĪãĤį": 2636,
      "Ġbu": 2637,
      "ĠNo": 2638,
      "ĠDecember": 2639,
      "ä¸ĸ": 2640,
      "´Ī": 2641,
      "åĦ": 2642,
      "ĠâĿ¤ï¸ı": 2643,
      "à¸Ńà¸°à¹Ħà¸£": 2644,
      "âĢĶ": 2645,
      "No": 2646,
      "iveaway": 2647,
      "çĲĨ": 2648,
      "aya": 2649,
      "Ð¼": 2650,
      "ÙĩÙĩÙĩÙĩÙĩÙĩÙĩÙĩ": 2651,
      "éħįä¿¡": 2652,
      "âĻª": 2653,
      "ãĢģãĢģ": 2654,
      "åº¦": 2655,
      "ì°": 2656,
      "íĮ": 2657,
      "opee": 2658,
      "ata": 2659,
      "ãĥ³ãĤ¹": 2660,
      "å¼ķ": 2661,
      "Rail": 2662,
      "æĿ±": 2663,
      "ëħ": 2664,
      "ĠØ§ÙĨ": 2665,
      "ï½Ĺ": 2666,
      "Ð²": 2667,
      "ðŁĴ¦": 2668,
      "ãģ¡ãĤī": 2669,
      "@d": 2670,
      "vern": 2671,
      "35": 2672,
      "à¹īà¸Ļ": 2673,
      "ìĦ¸": 2674,
      "âĳ¡": 2675,
      "&amp": 2676,
      "ca": 2677,
      "à¤¾à¤²": 2678,
      "_S": 2679,
      "ãĤ¹ãĥŀãĤ¹": 2680,
      "ats": 2681,
      "?Ċ": 2682,
      "211": 2683,
      "Ġdis": 2684,
      "ĠÐ²": 2685,
      "DM": 2686,
      "ĠðŁ¥º": 2687,
      "zz": 2688,
      "#S": 2689,
      "åĨħ": 2690,
      "ĠÑģ": 2691,
      "ĠØµ": 2692,
      "oto": 2693,
      "able": 2694,
      "@p": 2695,
      "ï½¥": 2696,
      "ãĤ¯ãĥªãĤ¹ãĥŀãĤ¹": 2697,
      "PEN": 2698,
      "åķ": 2699,
      "ãĥļ": 2700,
      "éķ": 2701,
      "AWAY": 2702,
      "als": 2703,
      "ãģĽãģ¦": 2704,
      "ãģ¨ãģĦãģĨ": 2705,
      "å¤ĸ": 2706,
      "ãĢħ": 2707,
      "IVEAWAY": 2708,
      "@y": 2709,
      "JO": 2710,
      "ë§Ī": 2711,
      "ĠÙĪØ§ÙĦ": 2712,
      "à¸©": 2713,
      "Ġmon": 2714,
      "FC": 2715,
      "ãģĳãģ¦": 2716,
      "à¹Īà¸²à¸Ļ": 2717,
      "Ġfe": 2718,
      "åŃ¦": 2719,
      "Ġche": 2720,
      "07": 2721,
      "les": 2722,
      "Ø³Øª": 2723,
      "Ġapp": 2724,
      "Îµ": 2725,
      "à¸²à¸Ķ": 2726,
      "ox": 2727,
      "ward": 2728,
      "ound": 2729,
      "ãĤĭãģ®": 2730,
      "usic": 2731,
      "Ġìĥ": 2732,
      "çī¹": 2733,
      "sp": 2734,
      "âĢįâĻĢ": 2735,
      "ove": 2736,
      "ory": 2737,
      "IG": 2738,
      "è±": 2739,
      "ãģ©ãģĨ": 2740,
      "ron": 2741,
      "ĠEx": 2742,
      "Ġë¶": 2743,
      "âģ": 2744,
      "ĠëĤĺ": 2745,
      "ŀĺ": 2746,
      "ãģªãĤī": 2747,
      "Ġà¤°à¤¹": 2748,
      "à¹ģà¸ļà¸ļ": 2749,
      "¦¬": 2750,
      "za": 2751,
      "à¸±à¸Ļà¸Ļ": 2752,
      "ki": 2753,
      "_M": 2754,
      "har": 2755,
      "Ġ||": 2756,
      "ĠÃ§": 2757,
      "Ġcl": 2758,
      "ãģ§ãģ¯": 2759,
      "inc": 2760,
      ".âĢ¦": 2761,
      "ãĤ³ãĥ©": 2762,
      "ĠĠĠ": 2763,
      "ua": 2764,
      "çŃ": 2765,
      "ets": 2766,
      "era": 2767,
      "à¤¾à¤¤": 2768,
      "è¡¨": 2769,
      "ç¢": 2770,
      "Ġng": 2771,
      "ube": 2772,
      "ren": 2773,
      "à¹Īà¸¡": 2774,
      "çĶ·": 2775,
      "Ġonly": 2776,
      "ä¸ĩ": 2777,
      "à¸´à¸§": 2778,
      "ict": 2779,
      "ìļ°": 2780,
      "Ġlook": 2781,
      "Ġneed": 2782,
      "Ġhours": 2783,
      "ert": 2784,
      "âļ": 2785,
      "ond": 2786,
      "erson": 2787,
      "åĤ¬": 2788,
      "ico": 2789,
      "ìŀ¥": 2790,
      "à¸Ńà¸¢à¸²à¸ģ": 2791,
      "éķ·": 2792,
      "ë¹": 2793,
      "à¤Ń": 2794,
      "ird": 2795,
      "Ġet": 2796,
      "Ġem": 2797,
      "ĠëĤ´": 2798,
      "edia": 2799,
      "å¤ļ": 2800,
      "ÙĬØª": 2801,
      "Úº": 2802,
      "ãĤĴRT": 2803,
      "yj": 2804,
      "ãĥ¼ãĤ¸": 2805,
      "æĦı": 2806,
      "@K": 2807,
      "ĠìķĪ": 2808,
      "ãģĦãģ¾ãģĹãģŁ": 2809,
      "lor": 2810,
      "nc": 2811,
      "06": 2812,
      "Ġà¸§": 2813,
      "oot": 2814,
      "_P": 2815,
      "hh": 2816,
      "95": 2817,
      "à¥įà¤¤": 2818,
      "Ġthink": 2819,
      "ations": 2820,
      "âĢľ": 2821,
      "Ġthan": 2822,
      "ĠðŁį": 2823,
      "Ġent": 2824,
      "ros": 2825,
      "à¸¹à¸ģà¸«à¸Ļ": 2826,
      "ÙĪÙħ": 2827,
      "wa": 2828,
      "ðŁĳį": 2829,
      "à¸ļà¸ļ": 2830,
      "ild": 2831,
      "/i": 2832,
      "íĭ": 2833,
      "ily": 2834,
      "oi": 2835,
      "TH": 2836,
      "ĠGIVEAWAY": 2837,
      "Tr": 2838,
      "çĿ": 2839,
      "@g": 2840,
      "Ġpas": 2841,
      "ÙĦØ§": 2842,
      "à¹Īà¸²à¸£": 2843,
      "èī²": 2844,
      "Shopee": 2845,
      "ince": 2846,
      "ç¢º": 2847,
      "æĹ¥æľ¬": 2848,
      "éĩİ": 2849,
      "Ġtra": 2850,
      "Ġtoday": 2851,
      "shw": 2852,
      "Ä«": 2853,
      "Ġà¤¨à¤¹": 2854,
      "ìĭ¶": 2855,
      "âĻ¥": 2856,
      "/e": 2857,
      "Pr": 2858,
      "åıĸ": 2859,
      "ìĥģ": 2860,
      "ãģªãģ®": 2861,
      "ðŁ¤į": 2862,
      "ðŁĳı": 2863,
      "æķ°": 2864,
      "ãģĹãģĭ": 2865,
      "à¹Ģà¸Ļ": 2866,
      "EM": 2867,
      "ãĤĪãĤįãģĹãģı": 2868,
      "à¸ļà¸Ńà¸ģ": 2869,
      "ãģ§ãģĻãģŃ": 2870,
      "zy": 2871,
      "ãĥ»ãĥ»": 2872,
      "ãĤ«ãĤ¦": 2873,
      "oS": 2874,
      "à¹īà¸Ńà¸¡": 2875,
      "ject": 2876,
      "à¸¥à¸°": 2877,
      "ðĿĻ": 2878,
      "Ġplay": 2879,
      "Ġíķ": 2880,
      "ä»¥": 2881,
      "Ġum": 2882,
      "Ġmi": 2883,
      "ici": 2884,
      "à¹īà¸²à¸Ļ": 2885,
      "AB": 2886,
      "/a": 2887,
      "ui": 2888,
      "å¤©": 2889,
      "çı": 2890,
      "ëª": 2891,
      "ami": 2892,
      "ê³łìĭ¶": 2893,
      "ãĤ¤ãĥĪ": 2894,
      "ãģįãģŁ": 2895,
      "36": 2896,
      "à¹Īà¸Ńà¸Ļ": 2897,
      "Ä±k": 2898,
      "verse": 2899,
      "ãĤĨ": 2900,
      "ĠìŀĪ": 2901,
      "âĢĻm": 2902,
      "æŁ": 2903,
      "Ø§Ø¡": 2904,
      "Ġëĺ": 2905,
      "æ°´": 2906,
      "pen": 2907,
      "Crypto": 2908,
      "á´": 2909,
      "Ġê±": 2910,
      "åĭķçĶ»": 2911,
      "CH": 2912,
      "éĸĭåĤ¬": 2913,
      "Ġà¤ĩ": 2914,
      "éŁ": 2915,
      "Ã¼n": 2916,
      "ids": 2917,
      "æ©": 2918,
      "å¼µ": 2919,
      "ãģĵãģ¡ãĤī": 2920,
      "75": 2921,
      "UM": 2922,
      "éĢ£": 2923,
      "On": 2924,
      "Ġter": 2925,
      "EW": 2926,
      "ora": 2927,
      "ĠØ¥": 2928,
      "HYPEN": 2929,
      "@R": 2930,
      "ret": 2931,
      "ms": 2932,
      "44": 2933,
      "mer": 2934,
      "ìĽĲ": 2935,
      "à¹ĭ": 2936,
      "çļĨ": 2937,
      "æĥħ": 2938,
      "åģ": 2939,
      "ĠZ": 2940,
      "ãĥķãĤ¡": 2941,
      "Ġafter": 2942,
      "ÃŃa": 2943,
      "à¸ĩà¸²à¸Ļ": 2944,
      "fr": 2945,
      "å±±": 2946,
      "_Ø§ÙĦ": 2947,
      "cho": 2948,
      "Ġretweet": 2949,
      "å¤ľ": 2950,
      "Jc": 2951,
      "å°ı": 2952,
      "æ¼Ķ": 2953,
      "ðĿĺ": 2954,
      "æľī": 2955,
      "çµĲæŀľ": 2956,
      "tter": 2957,
      "'m": 2958,
      "31": 2959,
      "bal": 2960,
      "ðŁ¦": 2961,
      "åħ¬éĸĭ": 2962,
      "ishn": 2963,
      "ŀĳ": 2964,
      "ìĺģ": 2965,
      "etweet": 2966,
      "Ġmuch": 2967,
      "æ¯İæĹ¥": 2968,
      "@L": 2969,
      "Ġvot": 2970,
      "ãĢįĊ": 2971,
      "UNG": 2972,
      "air": 2973,
      "Â´": 2974,
      "à¹Ģà¸Ńà¸²": 2975,
      "vernment": 2976,
      "RailMin": 2977,
      "odi": 2978,
      "à¸²à¸²": 2979,
      "Ġ..": 2980,
      "VEN": 2981,
      "_d": 2982,
      "Ġà¤ļ": 2983,
      "elf": 2984,
      "Ġoff": 2985,
      "æĪĲ": 2986,
      "ĠðŁļ": 2987,
      "ĠRailway": 2988,
      "par": 2989,
      "ãĥ³ãĥī": 2990,
      "yo": 2991,
      "Ġback": 2992,
      "ãĥ¼ãĤº": 2993,
      "æĻĤéĸĵ": 2994,
      "__:": 2995,
      "sa": 2996,
      "Ġï¼ıĊ": 2997,
      "áī": 2998,
      "ãĤĮãģ°": 2999,
      "ðŁĶ¥ðŁĶ¥": 3000,
      "èĬ": 3001,
      "ãģĦãģ¤": 3002,
      "íĸ": 3003,
      "ï¼¼ĊĊ": 3004,
      "çµĤ": 3005,
      "ç¯": 3006,
      "RB": 3007,
      "Ãª": 3008,
      "Ġà¸Ħà¸Ļ": 3009,
      "ika": 3010,
      "@T": 3011,
      "shwini": 3012,
      "çĤ¹": 3013,
      "éľ": 3014,
      "Ġbel": 3015,
      "Ġà¸ĸ": 3016,
      "bts": 3017,
      "Ġvote": 3018,
      "vi": 3019,
      "Î½": 3020,
      "ax": 3021,
      "åı¯æĦĽ": 3022,
      "à¤¿à¤ı": 3023,
      "à¹ģà¸¡": 3024,
      "@J": 3025,
      "ĠØ§ÙĦÙĦÙĩ": 3026,
      "å¼·": 3027,
      "ãĥķãĥĪ": 3028,
      "aut": 3029,
      "bs": 3030,
      "ì¦": 3031,
      "/o": 3032,
      "à¸§à¸§": 3033,
      "ãĤĬãģ¾ãģĹãģŁ": 3034,
      "çķª": 3035,
      "gu": 3036,
      "Ġà¸£à¸§à¸¢": 3037,
      "mp": 3038,
      "à¥ģà¤": 3039,
      "cr": 3040,
      "à¹Ģà¸¢": 3041,
      "ause": 3042,
      "é£Łãģ¹": 3043,
      "My": 3044,
      "Ø§ÙĬ": 3045,
      "win": 3046,
      "ated": 3047,
      "RailMinIndia": 3048,
      "è¨ĺå¿µ": 3049,
      "ics": 3050,
      "@N": 3051,
      "łĢ": 3052,
      "Ġ?": 3053,
      "Ġdec": 3054,
      "ÙĦÙħ": 3055,
      "à¸´à¸ģ": 3056,
      "04": 3057,
      "Cl": 3058,
      "¬¼": 3059,
      "Ġro": 3060,
      "Ġwait": 3061,
      "ĠëĺĲ": 3062,
      "âĿĹ": 3063,
      "ì¶": 3064,
      "bh": 3065,
      "uf": 3066,
      "âĹĭ": 3067,
      "Students": 3068,
      "96": 3069,
      "ï¸ıâĥ£": 3070,
      "ĠðŁĲ": 3071,
      "ĠëĦ": 3072,
      "ç¹": 3073,
      "ãĤ³ãĥ©ãĥľ": 3074,
      "ãģ¾ãģĽãĤĵ": 3075,
      "SH": 3076,
      "ê¹Į": 3077,
      "éĿ¢": 3078,
      "shwiniVa": 3079,
      "98": 3080,
      "åĸ": 3081,
      "AG": 3082,
      "ays": 3083,
      "çĽ¸": 3084,
      "ÙĦÙī": 3085,
      "Se": 3086,
      "ï¼ĳ": 3087,
      "ðŁİģĊĊ": 3088,
      "cy": 3089,
      "_B": 3090,
      "ìłľ": 3091,
      "èĩªåĪĨ": 3092,
      "ãģŀ": 3093,
      "æ¨": 3094,
      "Ġà¤ı": 3095,
      "Ġni": 3096,
      "à¸Ĺà¸§": 3097,
      "ãĤ¢ãĥ«": 3098,
      "à¹ģà¸ļà¸Ļà¸¥": 3099,
      "any": 3100,
      "ìĿĮ": 3101,
      "ëĵľ": 3102,
      "à¹Īà¹Ħà¸Ķ": 3103,
      "Ġbl": 3104,
      "gg": 3105,
      "ãģĿãģ®": 3106,
      "æ¥Ń": 3107,
      "ĠTHE": 3108,
      "ishnaw": 3109,
      "Ġshould": 3110,
      "ç©": 3111,
      "ower": 3112,
      "æĺ¯": 3113,
      "æıı": 3114,
      "LH": 3115,
      "Ġpar": 3116,
      "osh": 3117,
      "ãĥ¤": 3118,
      "Ġmas": 3119,
      "ÙĴ": 3120,
      "ë³": 3121,
      "shwiniVaishnaw": 3122,
      "ì´Ī": 3123,
      "ãĤ´": 3124,
      "ãĤ¶": 3125,
      "ors": 3126,
      "à¥įà¤·": 3127,
      "Ġtak": 3128,
      "ãģŁãĤī": 3129,
      "¢ĭ": 3130,
      "ãģ¿ãģŁãģĦ": 3131,
      "vers": 3132,
      "è¬Ŀ": 3133,
      "Ġact": 3134,
      "ement": 3135,
      "Ġstill": 3136,
      "UE": 3137,
      "è¼": 3138,
      "upp": 3139,
      "Ġà¸ļ": 3140,
      "XT": 3141,
      "çĻ»": 3142,
      "Ġthem": 3143,
      "çĸ": 3144,
      "áĬ": 3145,
      "ali": 3146,
      "ãģ£ãģ¡ãĤĥ": 3147,
      "ðŁĴĻ": 3148,
      "è¿ĳ": 3149,
      "ä»ķ": 3150,
      "åľ°": 3151,
      "Ġà¤¶": 3152,
      "ĠTr": 3153,
      "itch": 3154,
      "ĠìĿ´ë": 3155,
      "æģ": 3156,
      "à¯įà®ķ": 3157,
      "à¸£à¸ĩ": 3158,
      "çµµ": 3159,
      "red": 3160,
      "MOIndia": 3161,
      "æĸĻ": 3162,
      "íĻ": 3163,
      "05": 3164,
      "AE": 3165,
      "ett": 3166,
      "èĥ½": 3167,
      "à¸ľà¸¡": 3168,
      "Ġëĭ¤": 3169,
      "Ġdid": 3170,
      "Ġhere": 3171,
      "ALA": 3172,
      "ëĤ¨": 3173,
      "äºĨ": 3174,
      "ano": 3175,
      "×Ļ": 3176,
      "bb": 3177,
      "à¥Īà¤Ĥ": 3178,
      "ENHYPEN": 3179,
      "Mar": 3180,
      "Ġthere": 3181,
      "ìĪĺ": 3182,
      "à±į": 3183,
      "gG": 3184,
      "ĸ¤": 3185,
      "ord": 3186,
      "ç´Ħ": 3187,
      "ĠâĢĺ": 3188,
      "wo": 3189,
      "ê³łìĭ¶ëĭ¤": 3190,
      "ĠSh": 3191,
      "Ġover": 3192,
      "ida": 3193,
      "amb": 3194,
      "ä»Ĭå¹´": 3195,
      "ãģķãĤĵãģ®": 3196,
      "IP": 3197,
      "Ġbec": 3198,
      "ways": 3199,
      "ĠÃł": 3200,
      "@_": 3201,
      "åħĥ": 3202,
      "Ġuna": 3203,
      "éĸ¢": 3204,
      "@H": 3205,
      "ris": 3206,
      "fl": 3207,
      "ĠðŁĻı": 3208,
      "ern": 3209,
      "IK": 3210,
      "ä»£": 3211,
      "äº¬": 3212,
      "é¢": 3213,
      "TR": 3214,
      "Ķà¤°": 3215,
      "à¸¸à¸ĵ": 3216,
      "Ġà¤ī": 3217,
      "è¦ĭãģ¦": 3218,
      "aby": 3219,
      "Ø¯ÙĬ": 3220,
      "date": 3221,
      "à¹Ģà¸§": 3222,
      "Ġmake": 3223,
      "ãĤĤãģ®": 3224,
      "æĥ³": 3225,
      "Ġhad": 3226,
      "èº": 3227,
      "enn": 3228,
      "çĻºå£²": 3229,
      "ED": 3230,
      "ãģĬé¡ĺãģĦãģĹãģ¾ãģĻ": 3231,
      "ãģ¡ãĤĩ": 3232,
      "ext": 3233,
      "Ø¸": 3234,
      "Ġpost": 3235,
      "ãĥ©ãĤ¤ãĥ": 3236,
      "08": 3237,
      "ãģĩ": 3238,
      "____": 3239,
      "150": 3240,
      ":Ċ": 3241,
      "à¸ĩà¸ĩ": 3242,
      "Ġëı": 3243,
      "è¾¼": 3244,
      "AH": 3245,
      "#B": 3246,
      "Ġfirst": 3247,
      "¸Į": 3248,
      "à¸µà¸¢à¸§": 3249,
      "çı¾": 3250,
      "åıĹ": 3251,
      "ko": 3252,
      "Ġperson": 3253,
      "97": 3254,
      "umar": 3255,
      "Ġagain": 3256,
      "ãģ«ãģªãĤĭ": 3257,
      "you": 3258,
      "çķĮ": 3259,
      "è³ŀ": 3260,
      "çĻ½": 3261,
      "It": 3262,
      "yn": 3263,
      "Aj": 3264,
      "Ã¤": 3265,
      "£¨": 3266,
      "áĭ": 3267,
      "Ġhel": 3268,
      "_c": 3269,
      "@h": 3270,
      "ĠÛģ": 3271,
      "IB": 3272,
      "UL": 3273,
      "æ¥½ãģĹãģ¿": 3274,
      "à¹ĩà¸ģ": 3275,
      "/âĢ¦": 3276,
      "Ġjoin": 3277,
      "34": 3278,
      "eta": 3279,
      "ãģĪãģĪ": 3280,
      "çŁ¥ãĤī": 3281,
      "Ġles": 3282,
      "ete": 3283,
      "ough": 3284,
      "à¨": 3285,
      "æĦŁè¬Ŀ": 3286,
      "æĶ¾éĢģ": 3287,
      "å°ĳ": 3288,
      "56": 3289,
      "Sp": 3290,
      "ful": 3291,
      "à¸¸à¸Ļ": 3292,
      "ãģıãģª": 3293,
      "åŀ": 3294,
      "åºĹ": 3295,
      "ãģ¿ãĤĵãģª": 3296,
      "à¤¿à¤ķ": 3297,
      "ãĤįãģĨ": 3298,
      "ands": 3299,
      "è«": 3300,
      "yu": 3301,
      "à¸¡à¸²à¸£": 3302,
      "uct": 3303,
      "à¸ļà¸£": 3304,
      "Ä±z": 3305,
      "à¸²à¸Ĺ": 3306,
      "ãģĦãģŁãģł": 3307,
      "RY": 3308,
      "Ġdone": 3309,
      "æĺł": 3310,
      "íģ": 3311,
      "ke": 3312,
      "ye": 3313,
      "à¹īà¸²à¸ĩ": 3314,
      "...Ċ": 3315,
      "Ġ)": 3316,
      "ãģĹãģ¦ãĤĭ": 3317,
      "jp": 3318,
      "ÂłÂł": 3319,
      "ï¼ģï¼ģï¼ģ": 3320,
      "Ġà¸Ľ": 3321,
      "çĿĢ": 3322,
      "ute": 3323,
      "Val": 3324,
      "å¬": 3325,
      "ray": 3326,
      "ìĬµ": 3327,
      "ĠÙ¾": 3328,
      "_f": 3329,
      "ym": 3330,
      "hing": 3331,
      "ç¶ļ": 3332,
      "aka": 3333,
      "Ad": 3334,
      "76": 3335,
      "à¤ļ": 3336,
      "@G": 3337,
      "ĠOn": 3338,
      "adi": 3339,
      "ãĤ®ãĥķãĥĪ": 3340,
      "ï¼ŁĊ": 3341,
      "ë°©": 3342,
      "Ġshe": 3343,
      "/wK": 3344,
      "II": 3345,
      "ino": 3346,
      "ëĮĢ": 3347,
      "ãĤīãģĦ": 3348,
      "à¤¾à¤¦": 3349,
      "çĹ": 3350,
      "NCT": 3351,
      "ATE": 3352,
      "ope": 3353,
      "#GMMTV": 3354,
      "åĭŁéĽĨ": 3355,
      "El": 3356,
      "OK": 3357,
      "æº": 3358,
      "Dr": 3359,
      "à¸¹à¸Ķ": 3360,
      ",,": 3361,
      "Ú¾": 3362,
      "ideo": 3363,
      "ãģĹãĤĩãģĨ": 3364,
      "ãģĭãĤı": 3365,
      "riv": 3366,
      "ĠThan": 3367,
      "Of": 3368,
      "ðŁĴĸ": 3369,
      "ty": 3370,
      "ÙģÙĬ": 3371,
      "âĸ¼": 3372,
      "âĨĴ": 3373,
      "Ġë³": 3374,
      "ãģ¾ãģł": 3375,
      "æīĢ": 3376,
      "Ñħ": 3377,
      "Ä±r": 3378,
      "ÙĩÙħ": 3379,
      "ux": 3380,
      "nya": 3381,
      "ubl": 3382,
      "ship": 3383,
      "æĪĳ": 3384,
      "ane": 3385,
      "à¤¿à¤²": 3386,
      "Ġvac": 3387,
      "éĻĲå®ļ": 3388,
      "âĢįâĻĢï¸ı": 3389,
      "ristmas": 3390,
      "è§£": 3391,
      "Ġhim": 3392,
      "Ġmak": 3393,
      "Ø§Ø¦": 3394,
      "93": 3395,
      "sl": 3396,
      "Ġìľ": 3397,
      "ãĤ·ãĥ£": 3398,
      "ìľ¼ë¡ľ": 3399,
      "Ġright": 3400,
      "OG": 3401,
      "Ġâľ¨": 3402,
      "Ġje": 3403,
      "Ã¡s": 3404,
      "Ġà¸¥": 3405,
      "Ġê°Ģê³łìĭ¶ëĭ¤": 3406,
      "_T": 3407,
      "@c": 3408,
      "ãĤ·ãĥ§ãĥ³": 3409,
      "ĠDE": 3410,
      "è¦ģ": 3411,
      "åĪ¸": 3412,
      "UP": 3413,
      "Pro": 3414,
      "åĦª": 3415,
      "star": 3416,
      "ĽĦ": 3417,
      "ï¼ĥ": 3418,
      "JcKK": 3419,
      "Ġq": 3420,
      "ãĢģĊ": 3421,
      "Ġgot": 3422,
      "Ġmost": 3423,
      "à¥ĭà¤Ĺ": 3424,
      "ìĹ¬": 3425,
      "imin": 3426,
      "ìķĦìļĶ": 3427,
      "Wh": 3428,
      "Ġgovernment": 3429,
      "je": 3430,
      "Ġìĺ¤": 3431,
      "Ø§Ø¹": 3432,
      "Ġstart": 3433,
      "Ġeu": 3434,
      "rit": 3435,
      "åľ¨": 3436,
      "à¸ķà¸Ńà¸Ļ": 3437,
      "Ġà¤Ķà¤°": 3438,
      "ç¯Ģ": 3439,
      "à¹Ģà¸«à¸¡": 3440,
      "éģĶ": 3441,
      "à¸Ŀ": 3442,
      "ulf": 3443,
      "wn": 3444,
      "TPC": 3445,
      "@l": 3446,
      "ìĭł": 3447,
      "Ġ*": 3448,
      "ëĬĶëį°": 3449,
      "78": 3450,
      "????": 3451,
      "Ġwork": 3452,
      "Ġëĵ": 3453,
      "æĽ¸": 3454,
      "æľ¨": 3455,
      "iam": 3456,
      "à¸´à¸¡": 3457,
      "va": 3458,
      "ãĤĬãģŁãģĦ": 3459,
      "dy": 3460,
      "BS": 3461,
      "Ġx": 3462,
      "ÃĹ": 3463,
      "ðŁĺĨ": 3464,
      "å¬ī": 3465,
      "ãģ£ãģ±": 3466,
      "ëıĻ": 3467,
      "oz": 3468,
      "cord": 3469,
      "à¸£à¸²à¸°": 3470,
      "illion": 3471,
      "ï¼Ĵ": 3472,
      "à¤ĸ": 3473,
      "Ex": 3474,
      "Bl": 3475,
      "Ġson": 3476,
      "èĭ": 3477,
      "agi": 3478,
      "äº¤": 3479,
      "Ġil": 3480,
      "_G": 3481,
      "Ġbest": 3482,
      "ĶĶ": 3483,
      "å®Į": 3484,
      "EZ": 3485,
      "Ġlas": 3486,
      "Ġwould": 3487,
      "æ´»": 3488,
      "ÙĪØ¯": 3489,
      "ëŁ": 3490,
      "ãģĭãģĹ": 3491,
      "ND": 3492,
      "Ġph": 3493,
      "ĠWh": 3494,
      "åĭĿ": 3495,
      "ĠØ¨Ø§ÙĦ": 3496,
      "ĠðŁ¤£": 3497,
      "ðĿĴ": 3498,
      "aha": 3499,
      "Ġmen": 3500,
      "En": 3501,
      "à¸Ńà¸Ńà¸ģ": 3502,
      "ãģ£ãģŁãĤī": 3503,
      "ãĤ¤ãĥĻ": 3504,
      "à®°": 3505,
      "ori": 3506,
      "éģķ": 3507,
      "ç´ł": 3508,
      "èģŀ": 3509,
      "MY": 3510,
      "bum": 3511,
      "300": 3512,
      "Ġworld": 3513,
      "ç·Ĵ": 3514,
      "ress": 3515,
      "Ïģ": 3516,
      "à¥ĩà¤¶": 3517,
      "hm": 3518,
      "ock": 3519,
      "åİŁ": 3520,
      "ĠìĤ¬ë": 3521,
      "02": 3522,
      "94": 3523,
      "Ø¨ÙĬ": 3524,
      "ç¦": 3525,
      "igg": 3526,
      "vo": 3527,
      "Ġreally": 3528,
      "Tube": 3529,
      "ĠÙħÛĮ": 3530,
      "ãģ§ãģĹãģŁ": 3531,
      "eri": 3532,
      "à¸Ńà¸¥": 3533,
      "ku": 3534,
      "à°¿": 3535,
      "Ġê¸°": 3536,
      "@f": 3537,
      "ido": 3538,
      "Ġtu": 3539,
      "ãĤ¿ãĥ¼": 3540,
      "ãģĵãģ®æĬķç¨¿": 3541,
      "iew": 3542,
      "çĬ": 3543,
      "OD": 3544,
      "×ķ": 3545,
      "æĺİ": 3546,
      "à¸Ļà¸°à¸Ħà¸°": 3547,
      "æ¬²": 3548,
      "Te": 3549,
      "Ġfin": 3550,
      "ãģ®ãģ¯": 3551,
      "Ġì¶": 3552,
      "ãĥĴ": 3553,
      "sc": 3554,
      "æ¬¡": 3555,
      "ë¥¼": 3556,
      "ãģ«ãĤĤ": 3557,
      "UC": 3558,
      "à¥Ģà¤Ĥ": 3559,
      "ira": 3560,
      "Ġsur": 3561,
      "åĴ": 3562,
      "Ġãģ®": 3563,
      "à¤¾à¤Ĥ": 3564,
      "ãħĭãħĭãħĭãħĭãħĭãħĭãħĭãħĭ": 3565,
      "à¥ĩà¤²": 3566,
      "Ġrec": 3567,
      "à¸ķà¸¥": 3568,
      "à¹īà¸²à¸¢": 3569,
      "Ġinter": 3570,
      "ðŁĴĹ": 3571,
      "ï½Ĺï½Ĺ": 3572,
      "ãħłãħłãħłãħł": 3573,
      "ãĥķãĤ§": 3574,
      "é¡Ķ": 3575,
      "math": 3576,
      "è©³": 3577,
      "êµ¬": 3578,
      "ê°Ħ": 3579,
      "ãĤģãģ§": 3580,
      "ãĥĨãĤ£": 3581,
      "ç·ł": 3582,
      "IV": 3583,
      "ðŁĮŁ": 3584,
      "endo": 3585,
      "Ġà¤Ł": 3586,
      "aurav": 3587,
      "æļ": 3588,
      "eek": 3589,
      "à«": 3590,
      "è¶Ĭ": 3591,
      "à¸Ĺà¸¢": 3592,
      "Ġmonth": 3593,
      "ãģįãģ¾ãģĻ": 3594,
      "38": 3595,
      "ç«ĭ": 3596,
      "ł´": 3597,
      "UK": 3598,
      "ä¸»": 3599,
      "à¹Ģà¸Ńà¸ĩ": 3600,
      "Ïĥ": 3601,
      "fN": 3602,
      "ĠRe": 3603,
      "urn": 3604,
      "ãģ§ãģĻãģĮ": 3605,
      "å¼ı": 3606,
      "íĭ°": 3607,
      "ãģ®åŃ": 3608,
      "ITALA": 3609,
      "å±Ĭ": 3610,
      "âłĢ": 3611,
      "ãĥ¦": 3612,
      "vent": 3613,
      "à¥įà¤®": 3614,
      "à¸µà¸Ļ": 3615,
      "Ġtoo": 3616,
      "iw": 3617,
      "éłĳ": 3618,
      "Ġshow": 3619,
      "olo": 3620,
      "à±įà°": 3621,
      "ION": 3622,
      "ze": 3623,
      "å®ī": 3624,
      "åĥı": 3625,
      "ĠFor": 3626,
      "ÑĤÐ¾": 3627,
      "èĳ": 3628,
      "çĪ": 3629,
      "aru": 3630,
      "asa": 3631,
      "ism": 3632,
      "âĿ£": 3633,
      "orning": 3634,
      "à¤§": 3635,
      "ĠON": 3636,
      "Le": 3637,
      "Ġíķľ": 3638,
      "âĺºï¸ı": 3639,
      "Ġeven": 3640,
      "Ġlast": 3641,
      "WW": 3642,
      "BE": 3643,
      "ÙĦÙĪ": 3644,
      "éłĳå¼µ": 3645,
      "arm": 3646,
      "_h": 3647,
      "ĠHe": 3648,
      "ima": 3649,
      "Ġko": 3650,
      "å¼¾": 3651,
      "ãģłãģĭãĤī": 3652,
      "à¹Ģà¸ļ": 3653,
      "raj": 3654,
      "37": 3655,
      "rn": 3656,
      "ato": 3657,
      "à¹ģà¸Ħ": 3658,
      "LO": 3659,
      "kook": 3660,
      "Ġfeel": 3661,
      "ÙĨÙĬ": 3662,
      "ãģĤãģ¨": 3663,
      "ds": 3664,
      "à¬": 3665,
      "ìĦ¸ìļĶ": 3666,
      "iÃ³n": 3667,
      "624": 3668,
      "Ab": 3669,
      "èº«": 3670,
      "JusticeForRailwayStudent": 3671,
      "ãĤĭãģ¨": 3672,
      "BB": 3673,
      "à¸ģà¸§": 3674,
      "ĠìĤ¬": 3675,
      "arn": 3676,
      "ÛĮÙĨ": 3677,
      "sk": 3678,
      "Ø±Ø§": 3679,
      "elle": 3680,
      "Ø¦": 3681,
      "à¤¾à¤®": 3682,
      "âĢįâĻĤ": 3683,
      "uld": 3684,
      "ãģªãģĭãģ£ãģŁ": 3685,
      "ele": 3686,
      "09": 3687,
      "ants": 3688,
      "ãĥ©ãĤ¤": 3689,
      "_K": 3690,
      "ĠIN": 3691,
      "ãĤ³ãĥ³": 3692,
      "uss": 3693,
      "ÐµÐ½": 3694,
      "çĭ": 3695,
      "tr": 3696,
      "æĹ©": 3697,
      "ðŁĴļ": 3698,
      "Ġguy": 3699,
      "ÚĨ": 3700,
      "ï¾Ł": 3701,
      "Ã¼r": 3702,
      "Ġê·¸ë": 3703,
      "åĵ¡": 3704,
      "La": 3705,
      "éģİ": 3706,
      "embers": 3707,
      "Ġà¹Ģà¸ŀ": 3708,
      "éŃ": 3709,
      "ãĤ«ãĤ¦ãĥ³ãĥĪ": 3710,
      "Pl": 3711,
      "éĿŀ": 3712,
      "£ç¯Ģ": 3713,
      "Ġpo": 3714,
      "æŃ»": 3715,
      "à¹Ħà¸«à¸Ļ": 3716,
      "à¸ªà¸¥": 3717,
      "ä¸Ģç·Ĵ": 3718,
      "PM": 3719,
      "à¤¾à¤ľ": 3720,
      "ĠNTPC": 3721,
      "çĽ´": 3722,
      "ght": 3723,
      "sw": 3724,
      "hin": 3725,
      "ener": 3726,
      "AJ": 3727,
      "Ġvo": 3728,
      "ãĤĮãģªãģĦ": 3729,
      "åĮĸ": 3730,
      "AMA": 3731,
      "âĿĦ": 3732,
      "à¹īà¸¡": 3733,
      "ìĻĢ": 3734,
      "à¹ģà¸Ĺ": 3735,
      "'re": 3736,
      "Ġyang": 3737,
      "Ø±ÙĪ": 3738,
      "ìŀĦ": 3739,
      "à¸ī": 3740,
      "HO": 3741,
      "ĠðŁĺ¶": 3742,
      "ãĥĹãĥŃ": 3743,
      "58": 3744,
      "ãĢĳĊĊ": 3745,
      "é¢¨": 3746,
      "æ©Ł": 3747,
      "ðŁ¥ºðŁ¥º": 3748,
      "rand": 3749,
      "Ì²": 3750,
      "Ã¨": 3751,
      "ãģįãģ¾ãģĹãģŁ": 3752,
      "æĽ²": 3753,
      "ĠØ§ÙĦØ¹": 3754,
      "Ġfri": 3755,
      "Be": 3756,
      "47": 3757,
      "ĠðŁĺį": 3758,
      "íĥĢ": 3759,
      "aki": 3760,
      "èªŃ": 3761,
      "EP": 3762,
      "Ġbeing": 3763,
      "wwww": 3764,
      "æµģ": 3765,
      "ĠíĮ": 3766,
      "ãĥ³ãĥĢ": 3767,
      "à¤ķà¤°": 3768,
      "wide": 3769,
      "ole": 3770,
      "¡°": 3771,
      "met": 3772,
      "Ġà¤ıà¤ķ": 3773,
      "BT": 3774,
      "æĺİæĹ¥": 3775,
      "Ġà¸Ķ": 3776,
      "ìħ": 3777,
      "imai": 3778,
      "ela": 3779,
      "ç¤¾": 3780,
      "Ħ°": 3781,
      "æĸĩ": 3782,
      "po": 3783,
      "à¸¹à¸Ľ": 3784,
      "fo": 3785,
      "æľ¬å½ĵ": 3786,
      "Ġà¸Ī": 3787,
      "39": 3788,
      "à¸¶à¹ī": 3789,
      "Ġed": 3790,
      "Ġreal": 3791,
      "æķĻ": 3792,
      "ĠãĢĮ": 3793,
      "åĨĨåĪĨ": 3794,
      "Ġtake": 3795,
      "éŁ³": 3796,
      "Ġì§Ģ": 3797,
      "Ġbecause": 3798,
      "Ä±l": 3799,
      "äºĮ": 3800,
      "ĠĠĊ": 3801,
      "ANG": 3802,
      "asit": 3803,
      "ðŁĴª": 3804,
      "à¹Īà¸²à¸§": 3805,
      "lect": 3806,
      "à¸²à¸Ħ": 3807,
      "alo": 3808,
      "ï¼ģï¼ģĊ": 3809,
      "ØªÙĪ": 3810,
      "ì¦Ī": 3811,
      "à°¾": 3812,
      "ãģĹãģ¦ãģı": 3813,
      "apan": 3814,
      "ëĭ¨": 3815,
      "ãģªãģ®ãģ§": 3816,
      "De": 3817,
      "Prat": 3818,
      "Ġì§Ħ": 3819,
      "âĢ¦Ċ": 3820,
      "ï¼ģï¼Ł": 3821,
      "Ġê·¸": 3822,
      "ÑĪ": 3823,
      "ìĨĮ": 3824,
      "à¹Ģà¸ģà¸²": 3825,
      "ãģ§ãģĻãģĭ": 3826,
      "ÐµÐ": 3827,
      "Ġvery": 3828,
      "ĠPro": 3829,
      "uro": 3830,
      "æ¤": 3831,
      "Ġsc": 3832,
      "_l": 3833,
      "ìĽĶ": 3834,
      "âŀ": 3835,
      "den": 3836,
      "vel": 3837,
      "çµĦ": 3838,
      "LHgG": 3839,
      "ĠCom": 3840,
      "à¸Ĭà¸Ńà¸ļ": 3841,
      "èªį": 3842,
      "à¹Ģà¸Ĭ": 3843,
      "ante": 3844,
      "mr": 3845,
      "à¹Ĥà¸Ķ": 3846,
      "kw": 3847,
      "enc": 3848,
      "ë³´": 3849,
      "ìĦ±": 3850,
      "æŃ£": 3851,
      "@F": 3852,
      "Ġcome": 3853,
      "JusticeForRailways": 3854,
      "ãĥĹãĥª": 3855,
      "ãģªãģ©": 3856,
      "åŁ": 3857,
      "à¸Ľà¸¥": 3858,
      "ific": 3859,
      "Ġtweets": 3860,
      "ðŁĳī": 3861,
      "new": 3862,
      "ç®": 3863,
      "kh": 3864,
      "á»": 3865,
      "ãģ®æĸ¹": 3866,
      "à¹ģà¸¥à¸°": 3867,
      "ars": 3868,
      "GO": 3869,
      "æ¶": 3870,
      "å½ĵéģ¸": 3871,
      "ji": 3872,
      "âĪ": 3873,
      "ible": 3874,
      "Ġà¸¢": 3875,
      "å¦": 3876,
      "Ġdoes": 3877,
      "News": 3878,
      "127": 3879,
      "Ġalways": 3880,
      "ìłĦ": 3881,
      "chan": 3882,
      "Ġìĭľ": 3883,
      "ØªØ±": 3884,
      "æħ": 3885,
      "ĠðŁĵĮ": 3886,
      "ition": 3887,
      "Ġà¹Ģà¸Ľ": 3888,
      "anda": 3889,
      "#FNSæŃĮè¬¡ç¥Ń": 3890,
      "uan": 3891,
      "Is": 3892,
      "íķĺëĬĶ": 3893,
      "Ġà¤Ĩà¤ª": 3894,
      "ç´°": 3895,
      "KS": 3896,
      "ç¨®": 3897,
      "ðŁĴ°": 3898,
      "otes": 3899,
      "à¸ģà¸£": 3900,
      "à¸¸à¸ģà¸Ħà¸Ļ": 3901,
      "çĸ²": 3902,
      "ĠìĪĺ": 3903,
      "ĠIf": 3904,
      "åĳ¨": 3905,
      "Ġsom": 3906,
      "Ĳĺ": 3907,
      "ë£¨": 3908,
      "Ġsong": 3909,
      "eni": 3910,
      "ä½į": 3911,
      "#M": 3912,
      "å£°": 3913,
      "ãģĭãĤĤ": 3914,
      "ender": 3915,
      "èµ·": 3916,
      "ãģ®åŃ£ç¯Ģ": 3917,
      "jo": 3918,
      "ä¿º": 3919,
      "agan": 3920,
      "Ġpol": 3921,
      "éģĵ": 3922,
      "ì§ľ": 3923,
      "lobal": 3924,
      "à¹Īà¸ķ": 3925,
      "çīĪ": 3926,
      "æĽ´": 3927,
      "CI": 3928,
      "Ġba": 3929,
      "Ġplease": 3930,
      "à¥Ģà¤Ł": 3931,
      "uppasit": 3932,
      "ãĥ¼ãĤ¯": 3933,
      "gy": 3934,
      "ðĿļ": 3935,
      "Ġgoing": 3936,
      "bi": 3937,
      "BL": 3938,
      "ĠìĨ": 3939,
      "Ġsm": 3940,
      "ĠØ¢": 3941,
      "una": 3942,
      "ange": 3943,
      "Valimai": 3944,
      "à¸µà¸£": 3945,
      "69": 3946,
      "Ġëį": 3947,
      "ãĤģãģ§ãģ¨ãģĨ": 3948,
      "ĠÐº": 3949,
      "&gt": 3950,
      "SE": 3951,
      "Or": 3952,
      "oth": 3953,
      "ı¬": 3954,
      "æĦŁãģĺ": 3955,
      "Ġdays": 3956,
      "Ġcr": 3957,
      "ãģľãģ²": 3958,
      "form": 3959,
      "ĠRetweet": 3960,
      "ĠØ¹ÙĦÙī": 3961,
      "ë¯¸": 3962,
      "ãĤ¤ãĥĻãĥ³ãĥĪ": 3963,
      "èª°": 3964,
      "ãģķãĤĮãģŁ": 3965,
      "é»": 3966,
      "åı¯æĦĽãģĦ": 3967,
      "Ġann": 3968,
      "à¸łà¸²": 3969,
      "ĠðŁĩ": 3970,
      "ãģĳãĤĭ": 3971,
      "ï¿": 3972,
      "ãģĻãģİãģ¦": 3973,
      "ðŁ¥²": 3974,
      "ÙħØ§": 3975,
      "åĨĻ": 3976,
      "32": 3977,
      "ãģ¬": 3978,
      "à¤¾à¤¯": 3979,
      "à¯Ī": 3980,
      "èĲ": 3981,
      "à¸´à¸Ľ": 3982,
      "ives": 3983,
      "æ°ĳ": 3984,
      "Ġart": 3985,
      "line": 3986,
      "æĮģãģ¡": 3987,
      "ever": 3988,
      "ãģ£ãģ¦ãģŁ": 3989,
      "ĠìĬ": 3990,
      "uki": 3991,
      "JusticeForRailwaysStudents": 3992,
      "#T": 3993,
      "à¦¾": 3994,
      "ĠãĤĴãĥķãĤ©ãĥŃãĥ¼": 3995,
      "ãĥ¥ãĥ¼": 3996,
      "ï¾ŀ": 3997,
      "INI": 3998,
      "æ±ºå®ļ": 3999
    },
    "merges": [
      "à ¸",
      "ã ģ",
      "ã Ĥ",
      "ã ĥ",
      "à ¹",
      "à ¤",
      "Ġ @",
      "ð Ł",
      "R T",
      "c o",
      "Ġ h",
      "i n",
      "a n",
      "t t",
      "â Ģ",
      "p s",
      "tt ps",
      "/ /",
      ": //",
      ". co",
      "Ġ t",
      "e r",
      "e n",
      "Ġh ttps",
      "ã Ģ",
      "a r",
      "âĢ ¦",
      "à¸ Ļ",
      "Ġ à¤",
      "Ċ Ċ",
      "o n",
      "à ¥",
      "o r",
      "s t",
      "à¸ ²",
      "Ø §",
      "Ġ #",
      "à¸ Ń",
      "ï ¼",
      "ãģ Ħ",
      "a l",
      "à¹ Ī",
      "ãģ ®",
      "Ġ d",
      "a t",
      "Ġ s",
      "à¸ ģ",
      "à¹ Ģ",
      "e s",
      "Ġ m",
      "à¹ ī",
      "o u",
      "à¸ ¡",
      "i s",
      "ãģ Ĺ",
      "a m",
      "i l",
      "i t",
      "a y",
      "h e",
      "à¸ £",
      "ãĥ ¼",
      "a s",
      "Ġ p",
      "i c",
      "ãģ ¦",
      "ãģ Ł",
      "Ù Ħ",
      "ãģ §",
      "Ġ ì",
      "Ġ b",
      "à¸ ĩ",
      "r e",
      "ãģ ª",
      "Ġ a",
      "à¹Ģ à¸",
      "Ġ w",
      "Ġ ðŁ",
      "à¸ ¢",
      "à¸ ±",
      "Ġ Ġ",
      "in g",
      "à¸ §",
      "ãģ «",
      "Ġ f",
      "à¸ µ",
      "e l",
      "Ġ l",
      "ï¼ ģ",
      "Ġ Ø",
      "ãĥ ³",
      "ãģ Ļ",
      "ãģ ¾",
      "ãģ £",
      "Ġ n",
      "ãģ ¨",
      "ãģ ĭ",
      "Ù Ĭ",
      "en t",
      "ãĤ ĭ",
      "ãĤ ĵ",
      "e t",
      "e d",
      "u n",
      "à¸ Ħ",
      "Ù ħ",
      "ãģ Į",
      "à¤ ¾",
      "Ġ ë",
      "à¸ ¥",
      "à¸ Ķ",
      ". .",
      "Ù Ī",
      "Ġ y",
      "Ġt he",
      "Ù Ĩ",
      "Ġ g",
      "ðŁ ĺ",
      "ãĢ ģ",
      "r o",
      "a d",
      "Ġ c",
      "ãģ ¯",
      "à¸ ´",
      "an d",
      "o l",
      "à¸ ļ",
      "ãĤ ī",
      "à¸ °",
      "à¹ Ħ",
      "o t",
      "à¹ ģ",
      "ãĤ Ĵ",
      "ï ¸",
      "ì Ŀ",
      "a k",
      "e m",
      "Ġt o",
      "Ġ Ċ",
      "Ø ±",
      "i m",
      "Ġ o",
      "ãĤ Ĭ",
      "i r",
      "à ®",
      "Ġ T",
      "c h",
      "ãģ Ĩ",
      "à¸ «",
      "Ù ĩ",
      "à¸ Ĺ",
      "Ġ I",
      "ãĤ Ĥ",
      "0 0",
      "à¸ ķ",
      "ï¸ ı",
      "à¥ ĩ",
      "ä ¸",
      "u d",
      "Ø§ ÙĦ",
      "Ġ S",
      "à¤ °",
      "o s",
      "r a",
      "l e",
      "ãĥ Ī",
      "v e",
      "æ ľ",
      "ãģ ı",
      "o w",
      "Ġ A",
      "ãĢ Ĥ",
      "u st",
      "Ġt h",
      "i d",
      "R a",
      "w ay",
      "ãĤ ¹",
      "Ø§ Ø",
      "à¸ ª",
      "Ġ in",
      "Ġ e",
      "ãĤ Į",
      "ãĤ ¤",
      "ãģ ķ",
      "ãģ Ĭ",
      "Ġ k",
      "Ġ M",
      "ãģ ł",
      "à¸ Ī",
      "5 5",
      "ä º",
      "ic e",
      "Ġ co",
      "2 0",
      "ãģ ĵ",
      "o m",
      "u s",
      "Ġ D",
      "il way",
      "u r",
      "Ġ v",
      "æ Ĺ",
      "ðŁ Ĵ",
      "i g",
      "Ġd e",
      "ãģ Ĥ",
      "S t",
      "à¥ Ģ",
      "u t",
      "i k",
      "í ķ",
      "Ġ C",
      "Ġ B",
      "ĠĠ ĠĠ",
      "u l",
      "Ġo f",
      "ãģ£ ãģ¦",
      "o o",
      "q u",
      "ud ent",
      "Ä ±",
      "a c",
      "Ġy ou",
      "Ø ª",
      "F or",
      "Ra ilway",
      "à¸ ¹",
      "Ġà¤ ķ",
      "ãĤ Ī",
      "à¤¾ à¤",
      "J ust",
      "à¸ Ľ",
      "i on",
      "i a",
      "å ¤",
      "ãģ į",
      "æĹ ¥",
      "à¥ į",
      "ç Ķ",
      "u m",
      "Ġ and",
      "1 2",
      "udent s",
      "ä »",
      "Ġ P",
      "a p",
      "ãģ ¡",
      "a g",
      "ë ĭ",
      "a b",
      "Just ice",
      "à¹Ī à¸²",
      "ãģ¾ ãģĻ",
      "Ġ Ø§ÙĦ",
      "ã ħ",
      "å ħ",
      "Justice For",
      "à¸ ·",
      "à¹ ĥ",
      "Ġ is",
      "Ġ ê",
      "JusticeFor Railway",
      "ãĥ ª",
      "å Ī",
      "â ľ",
      "à¸ ¸",
      "e c",
      "! !",
      "a h",
      "à¸Ń à¸ĩ",
      "ãģ ĳ",
      "ð Ŀ",
      "Ġf or",
      "ãĥ ©",
      "âĢ Ļ",
      "Ø ¯",
      "Ġ re",
      "à¹ ĩ",
      "ãĥ ĥ",
      "ãĤ ¯",
      "JusticeForRailway St",
      "h ttps",
      "ãĥ «",
      "Ġ Ð",
      "Ġ j",
      "å ı",
      "e e",
      "à¸ ŀ",
      "ï¼ģ ï¼ģ",
      "Ġ W",
      "v er",
      "Ġ G",
      "Ġ on",
      "æ ĸ",
      "Ġ N",
      "ìĿ ´",
      "Ġ H",
      "à¥ ĭ",
      "Ù ĥ",
      "ãĥ ķ",
      "ãģĹ ãģ¦",
      "å ®",
      "r i",
      "l y",
      "Ø ¨",
      "à¸µ à¹Ī",
      "å Ĳ",
      "à¥į à¤",
      "Ġb e",
      "en d",
      "ðŁ İ",
      "il l",
      "Ġ L",
      "ãģĹ ãģŁ",
      "à¤ Ĥ",
      "an g",
      "ï ½",
      "JusticeForRailwaySt udents",
      "o p",
      "à¤ ¿",
      "Ù ģ",
      "ãģ§ ãģĻ",
      "à¸± à¸Ļ",
      "ãĥ Ń",
      "Û Į",
      "n d",
      "i e",
      "ãģ£ ãģŁ",
      "Ġ ĊĊ",
      "ĠðŁ ĺ",
      "à¸¡ à¸²",
      "ãĥ ¬",
      "an t",
      "ãĤ ¢",
      "à¹ī à¸²",
      "à ¯",
      "t h",
      "u p",
      "Ġ F",
      "à¸ Ĭ",
      "ì Ĺ",
      "Ġ qu",
      "ãģĭ ãĤī",
      "f f",
      "Ġ r",
      "Ġ E",
      "â Ŀ",
      "20 2",
      "ãģª ãģĦ",
      "ðŁĺ Ń",
      "é ģ",
      "à¸ Ĥ",
      "ãĥ Ĺ",
      "Ġ R",
      "Ø ¹",
      "ãĤ Ħ",
      "Ġ Ùħ",
      "_ _",
      "Ġ st",
      "I N",
      "Ø ³",
      "ï¼ Ł",
      "ãģ Ī",
      "ðŁ ¤",
      "ä ½",
      "ar t",
      "ãĢ Į",
      "à¤¿ à¤",
      "am p",
      "ãĥ¼ ãĥ",
      "Ù Ĥ",
      "é ĸ",
      "1 0",
      "ãĤ ģ",
      "ãĤ ĥ",
      "ãģ Ń",
      "ãĢ į",
      "å ĭ",
      "ãģ ©",
      "o k",
      "ar e",
      "ãģ Ŀ",
      "Ġ al",
      "ou r",
      "w e",
      "ãģ ¿",
      "es s",
      "à¹ Į",
      "ì ķ",
      "c e",
      "å ¹",
      "i f",
      "âľ ¨",
      "Ð ¾",
      "äº º",
      "s h",
      "ãĤ ı",
      "Ġm e",
      "ãĥ³ ãĥ",
      "it h",
      "ãĢ Ģ",
      "55 5",
      "å ¿",
      "à °",
      "ãģ Ķ",
      "ãĥķ ãĤ",
      "Ã ©",
      "à¹Ħ à¸¡",
      "Ġà¤ ¹",
      "ãĤ ³",
      "r y",
      "è ¦",
      "à¹ Ĥ",
      "ãĤ «",
      "ê ³",
      "ðŁ ĳ",
      "er s",
      "Ġ ÙĪ",
      "Ġw h",
      "ãĥ £",
      "Ġ O",
      "o d",
      "ê °",
      "i st",
      "Ġ it",
      "E N",
      "à¤ ķ",
      "e w",
      "a i",
      "Ð °",
      "ãĤ Ń",
      "Ġ í",
      "é Ģ",
      "ãĤ ¿",
      ".. .",
      "M A",
      "ì §",
      "Ġ K",
      "â Ļ",
      "h t",
      "ãģķ ãĤĵ",
      "ãĥ ŀ",
      "à¸Ń à¸Ļ",
      "à¸Ń à¸¢",
      "T S",
      "ãħ ĭ",
      "à¤ ¨",
      "ì Ħ",
      "ë Ĭ",
      "ðŁ ¥",
      "è ¨",
      "l o",
      "y a",
      "Ġ (",
      "s e",
      "at e",
      "ì ļ",
      "ðŁ Ķ",
      "i al",
      "Ġ un",
      "Ġà¤ ¸",
      "u b",
      "ëĭ ¤",
      "i z",
      "1 1",
      "e st",
      "a w",
      "ĠØ ¨",
      "ãĤ ¸",
      "i ve",
      "Ġ J",
      "Ã ¼",
      "a v",
      "à¹Ģà¸ ¥",
      "ãģ Ľ",
      "Ġth is",
      "c k",
      "ç µ",
      "ãģ ¤",
      "Ð µ",
      "ãĤ ·",
      "æ Ĭ",
      "Ġ &",
      "_ t",
      "on g",
      "Ø ©",
      "on e",
      "à¹ī à¸§",
      "ðŁ ı",
      "æ °",
      "u k",
      "ol l",
      "ãģ® å",
      "å¹ ´",
      "à¸± à¸ļ",
      "a z",
      "ëĬ Ķ",
      "er e",
      "à¸ ³",
      "æ Ħ",
      "Ġl a",
      "æ Ŀ",
      "ì ŀ",
      "ä» Ĭ",
      "i p",
      "ãĥ »",
      "å ½",
      "Ø Ń",
      "V E",
      "we et",
      "ãħĭ ãħĭ",
      "íķ ĺ",
      "Ġ âĢ",
      "æ Ń",
      "å¤ §",
      "ä ¼",
      "Ġqu e",
      "æľ Ī",
      "à¹ Ĩ",
      "å Ľ",
      "Ġs e",
      "i v",
      "ê³ ł",
      "ï¼ģ Ċ",
      "ãĥ ģ",
      "æ Ļ",
      "ì ĭ",
      "Ġ an",
      "æ Ģ",
      "Ġ Y",
      "ãģ¾ ãģĹãģŁ",
      "Ġe x",
      "e ar",
      "å Ĩ",
      "_ :",
      "c t",
      "ãģ¡ ãĤĥ",
      "è ¡",
      "ãĥ³ ãĥĪ",
      "à¹ģ à¸¥",
      "Ùĩ Ùĩ",
      "å ¥",
      "ou t",
      "b er",
      "Ġ en",
      "A N",
      "å ¼",
      "T E",
      "' s",
      "Ġ i",
      "à¸µ à¹ī",
      "æľ ¬",
      "Ġco m",
      "Ġw ith",
      "Ġ :",
      "ĠĠĠĠ ĠĠĠĠ",
      "¬ ë",
      "ãĢ Ĳ",
      "O N",
      "à¸Ħ à¸Ļ",
      "ar d",
      "ãĢ ĳ",
      "à¸± à¸ĩ",
      "h a",
      "âĿ ¤",
      "ãĤ į",
      "à¤ ¤",
      "æĸ ¹",
      "ro m",
      "Ñ Ĥ",
      "å ¾",
      "ç Ľ",
      "´ ë",
      "Ġ à¹Ģà¸",
      "à¤ ¹",
      "ðŁĺŃ ðŁĺŃ",
      "è ª",
      "å Ĭ",
      "h an",
      "Ø§ ÙĨ",
      "à¯ į",
      "B TS",
      "w t",
      "ìĹ Ĳ",
      "Ġ V",
      "u e",
      "à¹Ģ à¸£",
      "Ġco n",
      "or e",
      "Ġì ķ",
      "i b",
      "ãĥķãĤ ©",
      "o g",
      "l d",
      "å Ń",
      "å ĩ",
      "Ð ¸",
      "æ ĺ",
      "æ §",
      "Ġ -",
      "Ġ $",
      "at ion",
      "à¸´ à¸Ļ",
      "Ġà¤ ®",
      "ig ht",
      "al l",
      "t o",
      "Ġ are",
      "a a",
      "o st",
      "in d",
      "Å Ł",
      "Ġth at",
      ". Ċ",
      "à¥ Ī",
      "à¥ ģ",
      "Ġ |",
      "ç Ļ",
      "à¹ĩ à¸Ļ",
      "el l",
      "ãĤ¤ ãĥ",
      "1 00",
      "i o",
      "à¸ ĸ",
      "Ø ´",
      "ãģ ĺ",
      "Ġn o",
      "1 9",
      "ç ¥",
      "Ġs o",
      "â ĺ",
      "a ve",
      "3 0",
      "Ġm y",
      "ì ł",
      "Ú ©",
      "ic ial",
      "Ġ as",
      "oll ow",
      "à¹Ħ à¸Ķ",
      "e k",
      "5 0",
      "ãĤ ª",
      "Ã §",
      "ik e",
      "ðŁĺ Ĥ",
      "æ§ ĺ",
      "ä¸ Ģ",
      "à¤ ²",
      "a st",
      "ìķ Ħ",
      "à¤ Ĺ",
      "ï ¾",
      "à¹ī à¸Ńà¸ĩ",
      "a in",
      "t s",
      "à¸« à¸Ļ",
      "_t wt",
      "e y",
      "ë ¦",
      "e p",
      "is h",
      "ãĥŃ ãĥ¼",
      "o y",
      "ãģĤ ãĤĬ",
      "t er",
      "à¸· à¹Ī",
      "ãĢĤ Ċ",
      "Ġd o",
      "ãĤ °",
      "ä¸ Ń",
      "ç ´",
      "ê° Ģ",
      "ðŁ Į",
      "ë ı",
      "ĠðŁ Ĵ",
      "ãĥ¼ ãĥĪ",
      "æĻ Ĥ",
      "ì Ĭ",
      "ãĤ ¦",
      "ãĥ ¡",
      "Ġ \"",
      "ðŁ Ļ",
      "Ġn ot",
      "R E",
      "Ġs h",
      "e g",
      "æ ī",
      "? ?",
      "è¦ ĭ",
      "ff icial",
      "Ġ ÙĦ",
      "à¹ĥ à¸«",
      "o v",
      "é ĩ",
      "å½ ĵ",
      "n a",
      "in e",
      "l l",
      "åĲ į",
      "ë Ĥ",
      "Ġ à®",
      "# JusticeForRailwayStudents",
      "Ġà¤ ª",
      "Ġ at",
      "Ġp ro",
      "åĩ º",
      "à¸ ¶",
      "Ġì Ŀ",
      "ìļ Ķ",
      "é Ľ",
      "¸ °",
      "an s",
      "æ ³",
      "à¹Ģà¸ Ľ",
      "Ġ U",
      "S h",
      "Ñ ģ",
      "o b",
      "è ©",
      "Ð ½",
      "à¸Ń à¸ģ",
      "Ġ à¹ģ",
      "Ù İ",
      "æ Ī",
      "a u",
      "çĶ Ł",
      "ãģĦ ãģŁ",
      "A L",
      "ĠØ ª",
      "ë §",
      "à¸± à¹ī",
      "oo d",
      "à¹Ħ à¸Ľ",
      "à¸² à¸ģ",
      "h i",
      "ãģĹ ãģĦ",
      "p p",
      "ãĥķãĤ© ãĥŃãĥ¼",
      "S T",
      "ì§ Ģ",
      "ãĥ ĭ",
      "âĿ¤ ï¸ı",
      "ëĭ Ī",
      "Ñ Ģ",
      "ãĥ Ħ",
      "çĶ »",
      "éģ ¸",
      "ãģĻ ãĤĭ",
      "ê ²",
      "à¸² à¸¡",
      "åĪ Ĩ",
      "m e",
      "ãĢ ľ",
      "ì ĸ",
      "ãĥ Ĳ",
      "à¸µ à¸¢",
      "2 4",
      "Ø ¬",
      "à¤¾ à¤°",
      "Ġ â",
      "à¸Ħ à¸£",
      "à¸² à¸£",
      "or t",
      "a j",
      "oo k",
      "à¸Ī à¸°",
      "ðŁĶ ¥",
      "ãģĦ ãģ¾ãģĻ",
      "ìĦ ľ",
      "ä ¿",
      "é ¡",
      "æ ¥",
      "à¸² à¸¢",
      "âĢĻ s",
      "æ ķ",
      "Ġ el",
      "Ã ¡",
      "ãģ« ãģª",
      "à¤ ¸",
      "ĠØ ¹",
      "Ġyou r",
      "e b",
      "r ou",
      "i y",
      "T V",
      "å º",
      "ar a",
      "ãģ¨ ãģĨ",
      "à¸± à¸ģ",
      "æ° Ĺ",
      "un g",
      "à¹Ģà¸¥ à¸¢",
      "ç ¬",
      "Ã Ń",
      "ãģĦ ãģĦ",
      "Ġà¤ ¬",
      "å ±",
      "ac k",
      "å ĳ",
      "à¹Ģà¸ Ķ",
      "å¿ ľ",
      "ãĥĹ ãĥ¬",
      "ãĤ µ",
      "à¸¹ à¸ģ",
      "à¤ ®",
      "åĭ Ł",
      "å °",
      "id e",
      "à¸· à¸Ń",
      "H A",
      "u g",
      "è ²",
      "à ¦",
      "à¸ Ł",
      "i tt",
      "ç ļ",
      "Ġê °",
      "ãģĳ ãģ©",
      "h y",
      "ç ī",
      "I VE",
      "à¸¡à¸² à¸ģ",
      "ãģĹ ãģ¾ãģĻ",
      "as s",
      "éĸ ĵ",
      "w w",
      "o c",
      "å ł",
      "Ã ³",
      "è ¿",
      "Ĥ ¬",
      "Ġì ŀ",
      "å ¯",
      "p l",
      "ĠðŁ ¤",
      "è Ģ",
      "å ī",
      "Ġw e",
      "ë ĵ",
      "T he",
      "A Y",
      "ak e",
      "ĠT he",
      "Ð¾ Ð",
      "ë ¡",
      "à¯į à®",
      "Ġh ave",
      "è ĩ",
      "e x",
      "Ġ ÙĬ",
      "âĢ Ŀ",
      "am e",
      "00 0",
      "ãģ °",
      "Ġc h",
      "Ù Ģ",
      "ãĥ Ĩ",
      "ðĿ Ĳ",
      "éĸ ĭ",
      "Ġh e",
      "ec t",
      "à¸ ĭ",
      "m a",
      "ãģ ĸ",
      ". ĊĊ",
      "â Ķ",
      "ì ĺ",
      "ãĤ ¼",
      "ðŁ į",
      "å į",
      "1 4",
      "ç ·",
      "ãħ ł",
      "Ġà¤ ľ",
      "ãģĵ ãģ®",
      "ãģ® ãģ§",
      "i i",
      "å® ļ",
      "Ġ Ùģ",
      "E R",
      "im e",
      "Â ł",
      "it y",
      "å £",
      "ãĥ ¥",
      "â ĳ",
      "U N",
      "à¸Ń à¸°",
      "Ġ Ã",
      "a ch",
      "ãĤ º",
      "é £",
      "p r",
      "in k",
      "m ent",
      "Ġw ill",
      "Ġa b",
      "ç §",
      "æĢ Ŀ",
      "à¸£ à¸°",
      "ãĤŃ ãĥ£",
      "Ø µ",
      "ðŁİ ģ",
      "ãģĤãĤĬ ãģĮ",
      "i es",
      "u re",
      "n g",
      "I T",
      "æĸ °",
      "ì Ľ",
      "u y",
      "Ø§ Ø±",
      "à¤ µ",
      "ç Ħ",
      "at h",
      "as e",
      "Ġà¤ °",
      "Ġg o",
      "ì ľ",
      "Ġë §",
      "ëı Ħ",
      "ãģŁ ãģĦ",
      "ãĥ Ł",
      "ar i",
      "Ġë Ĥ",
      "Ġp l",
      "@ m",
      "Ġà¤ ¨",
      "M M",
      "ãģĵ ãģ¨",
      "1 5",
      "Ġl e",
      "Ø ®",
      "ç ¨",
      "à¥ĩ à¤Ĥ",
      "ãĥ ī",
      "à¸´ à¸Ķ",
      "_ m",
      "à¸Ļ à¸°",
      "d ay",
      "íķ ´",
      "è ī",
      "ap p",
      "Ġ ra",
      "ë¡ ľ",
      "O R",
      "Ġl ike",
      "Ġal l",
      "âĢ į",
      "¸ ë",
      "om e",
      "äº ĭ",
      "é ł",
      "ìĬ ¤",
      "å ¸",
      "è¡ Į",
      "à¤ ľ",
      "ic k",
      "æľ Ģ",
      "ï¼ Ī",
      "à¹Ģà¸ «",
      "Ä Ł",
      "ðŁ ĵ",
      "ðŁ Ĳ",
      "ãĤĵ ãģł",
      "ar k",
      "ãĥ ĸ",
      "Ġex am",
      "æĦ Ł",
      "ðŁı »",
      "ðŁ¤ £",
      "à¹Ī à¸°",
      "Ġ à¸£",
      "åŃ Ĳ",
      "ãĥĹãĥ¬ ãĤ¼",
      "Ġl o",
      "à¥į à¤°",
      "Ø§Ø ª",
      "ãģĶ ãģĸ",
      "Ġ Ø§",
      "A R",
      "ĠðŁ ĳ",
      "s s",
      "o f",
      "à¤ ª",
      "em ber",
      "Ġ up",
      "/ L",
      "ãĥĹãĥ¬ãĤ¼ ãĥ³ãĥĪ",
      "à¸« à¸¥",
      "l i",
      "nd ia",
      "ãģķ ãģĦ",
      "O O",
      "' t",
      "à¸ ľ",
      "an a",
      "ë °",
      "n e",
      "ï¼ ī",
      "å ľ",
      "n y",
      "is s",
      "ãģĤãĤĬãģĮ ãģ¨ãģĨ",
      "ãĥ Ĭ",
      "ãĥ ĩ",
      "Ġ am",
      "O U",
      "o in",
      "íķ ľ",
      "en g",
      "åħ ¥",
      "æ ı",
      "2 1",
      "à¸§ à¸¢",
      "Ġ Ú©",
      "L E",
      "Ġc an",
      "ä¸ Ĭ",
      "ou s",
      "à¸² à¸Ļ",
      "as h",
      "é Ļ",
      "ãĥ ĳ",
      "ãĤĵ ãģª",
      "ãĥ¼ ãĥ³",
      "Ġ es",
      "Ġ à¸ģ",
      "å ĵ",
      "è¨ Ģ",
      "æ Ľ",
      "j a",
      ".. ..",
      "â ĸ",
      "ĠðŁ Ķ",
      "Ġ [",
      "l a",
      "1 8",
      "ãĤ »",
      "ãģ¾ ãģ§",
      "à¸Ń à¸ļ",
      "ĠâĢ ľ",
      "Ġb y",
      "ry p",
      "d a",
      "1 3",
      "ìĿ Ģ",
      "ï¼ģ ĊĊ",
      "âĢ¦ âĢ¦",
      "à¸¹ à¹Ī",
      "Ġf rom",
      "ãĥĥ ãĥĪ",
      "m y",
      "1 7",
      "ĠðŁ ¥",
      "å¿ľ åĭŁ",
      "h o",
      "Ġ or",
      "ê ¸°",
      "ï¸ İ",
      "A S",
      "à ª",
      "â Ĺ",
      "ä ¹",
      "@ s",
      "I D",
      "à¤ ¦",
      "ç Ł",
      "ĠT h",
      "à¸Ĥ à¸Ńà¸ĩ",
      "d e",
      "à¹Ģ à¸ģ",
      "Ġd i",
      "ãģĭ ãģ£ãģŁ",
      "à¹ĥ à¸Ļ",
      "é ĥ",
      "ĠðŁ İ",
      "æĿ ¥",
      "2 3",
      "ë¦ ¬",
      "ÙĩÙĩ ÙĩÙĩ",
      "2 5",
      "A M",
      "u c",
      "åĬ ł",
      "t a",
      "n ow",
      "ãģ İ",
      "ë į",
      "è ¬",
      "Ð° Ð",
      "Ġw or",
      "ðŁ¥ º",
      "ãĤ ¨",
      "ãģĦ ãģ¦",
      "Ġe st",
      "Ø ²",
      "Ġy ear",
      "çĽ ®",
      "Ġì ł",
      "åı Ĥ",
      "à¸Ĺ à¸³",
      "Ġn e",
      "ç ľ",
      "an k",
      "Ġà¤ ¦",
      "æ Ķ",
      "åĲ Ī",
      "ãĤĪ ãģĨ",
      "ãĤ £",
      "Ġw as",
      "åĲį æ§ĺ",
      "20 1",
      "ãĢ İ",
      "ãĤ ĩ",
      "Ġà¤ķ à¤°",
      "æ Į",
      "ãĥ ľ",
      "æ ŀ",
      "K K",
      "al ly",
      "Ġ à¸ª",
      "ãĥĥ ãĤ¯",
      "Ġà¤ ²",
      "åħ ¨",
      "Ġ ãĢĲ",
      "à¸ģ à¸ģ",
      "ãĤ ±",
      "ãģ¡ãĤĥ ãĤĵ",
      "é ħ",
      "ãĤĮ ãĤĭ",
      "h er",
      "in i",
      "ãĢ ı",
      "A l",
      "Ġt r",
      "à¹ģ à¸ļ",
      "Û ģ",
      "ìĿ Ħ",
      "æ¥ ½",
      "Ñ ĥ",
      "k k",
      "Ġ Ø§Ø",
      "èĩ ª",
      "ãĤĮ ãģ¦",
      "ãĥĦ ãĤ¤",
      "ãģ ļ",
      "ç ķ",
      "ãĤ¹ ãĥĪ",
      "Ġà¤ Ĩ",
      "Ġ +",
      "o h",
      "à ±",
      "åĭ ķ",
      "Ġp er",
      "ìĸ ´",
      "ï½ ŀ",
      "å¥ ½",
      "i an",
      "F T",
      "Ø ·",
      "ãĥ §",
      "Ġ ÙĨ",
      "à¹Ģà¸ ŀ",
      "à¤ ¼",
      "rou p",
      "ĠØ £",
      "åĽ ŀ",
      "æ³ ķ",
      "à¸´ à¹Ī",
      "a f",
      "à¹Ģ à¸Ń",
      "ãĥ ı",
      "i er",
      "³ ´",
      "ĠØ ³",
      "Ŀ ¼",
      "à¸± à¸§",
      "æŃ Į",
      "âĢ ¼",
      "ï¼ ı",
      "i h",
      "I C",
      "A A",
      "ãģı ãģł",
      "çĻ º",
      "H E",
      "ãģĿ ãģĨ",
      "æ ±",
      "ãģĤ ãĤĭ",
      "ìĿ´ ë",
      "Ġj ust",
      "C h",
      "à¤ ¬",
      "n t",
      "Ġ à¸Ļ",
      "_ s",
      "ê ±",
      "@ M",
      "it e",
      "/ w",
      "æī ĭ",
      "r am",
      "ï¼ģï¼ģ ï¼ģï¼ģ",
      "Ġì Ĺ",
      "æ İ",
      "o fficial",
      "g t",
      "ÙĪ ÙĨ",
      "ãģ§ ãĤĤ",
      ") Ċ",
      "Ġ Î",
      "Ġ us",
      "ãĥ ĵ",
      "ãħł ãħł",
      "ï¸ı Ċ",
      "Ġh as",
      "c i",
      "d er",
      "Ġp r",
      "ĠS t",
      "ä¼ ļ",
      "I S",
      "Ø± ÙĬ",
      "I ndia",
      "ãĥ ł",
      "à¸ ĺ",
      "é Ŀ",
      "æ ¯",
      "Ä± n",
      "ìĭ ľ",
      "à¥įà¤ ¯",
      "Ġà¤ ħ",
      "Ġt weet",
      "ãĤĮ ãģŁ",
      "í ĥ",
      "E T",
      "ãħĭãħĭ ãħĭãħĭ",
      "åĪ Ŀ",
      "MM TV",
      "é «",
      "IN G",
      "èĢ ħ",
      "è ³",
      "Ġ RT",
      "2 2",
      "çļ Ħ",
      "ãĢĤ ĊĊ",
      "_ b",
      "@ A",
      "Ġf ollow",
      "x x",
      "T h",
      "en s",
      "å ĥ",
      "ðŁ ĩ",
      "_ k",
      "åī į",
      "u ch",
      "r at",
      "C T",
      "Û Ĵ",
      "ä½ ľ",
      "r d",
      "O TE",
      "ãģĦ ãĤĭ",
      "ìĿ ĺ",
      "£ ¼",
      "ãģ ¹",
      "e v",
      "Ġà¤ ¤",
      "ãĥ ¯",
      "æ ĥ",
      "ãģ »",
      "Ġ á",
      "Ø £",
      "l u",
      "à¯ ģ",
      "ê µ",
      "à¸¸ à¸ģ",
      "Ø§ Ùħ",
      "Ù ī",
      "ï¼ ¼",
      "Ġb ut",
      "ãĤŃãĥ£ ãĥ³ãĥ",
      "ver y",
      "à¤ ¯",
      "à¸Ħ à¸§",
      "ic h",
      "Ġp e",
      "ÙĦ Ùĩ",
      "í Ĭ",
      "em b",
      "ãģĵ ãĤĮ",
      "ãģĹ ãģı",
      "ãĥ Ŀ",
      "ÙĦ ÙĬ",
      "G MMTV",
      "Ġì ĺ",
      "N S",
      "ç¥ Ń",
      "ĠðŁĺ Ń",
      "à¸¹ à¹ī",
      "çĦ ¡",
      "m an",
      "ãĥ ¢",
      "ĠÙħ ÙĨ",
      "æĬ ķ",
      "ãĤ ¬",
      "ãĤŃãĥ£ãĥ³ãĥ ļ",
      "à¤¾à¤ ¨",
      "ðŁĺĤ ðŁĺĤ",
      "p e",
      "M O",
      "Ġn ow",
      "ãģĤãĤĬãģĮãģ¨ãģĨ ãģĶãģĸ",
      "ãģ ģ",
      "t e",
      "à¹Ī à¸Ń",
      "Ġ@ _",
      "ãĤŃãĥ£ãĥ³ãĥļ ãĥ¼ãĥ³",
      "@ k",
      "âĢ ¢",
      "ĠØ ¯",
      "ad a",
      "Ġìķ Ħ",
      "åħ ¬",
      "ãģıãģł ãģķãģĦ",
      "Ù Ĳ",
      "am a",
      "in n",
      "åĲįæ§ĺ ãģ«",
      "l ar",
      "ìĿ ¼",
      "ì ĥ",
      "Ġ our",
      "A T",
      "è ¶",
      "ãģª ãĤĵ",
      "l t",
      "ot e",
      "9 9",
      "ðŁ ļ",
      "Ġ out",
      "p ort",
      "ryp to",
      "u ck",
      "Ġd ay",
      "n i",
      "k s",
      "n o",
      "ÙĬ ÙĨ",
      "åĨ Ĩ",
      "å ·",
      "Ġ à¸¡",
      "@ S",
      "ee p",
      "Ø§Ø ¨",
      "g e",
      "ãĥĦãĤ¤ ãĥ¼ãĥĪ",
      "Ī ë",
      "E S",
      "Ġt e",
      "Ġê ·",
      "n s",
      "a it",
      "ç ¾",
      "u z",
      "à¥ĭ à¤Ĥ",
      "Ġë °",
      "æ µ",
      "çŁ ¥",
      "Ġv er",
      "Ã ¶",
      "ãĥ¼ ãĥ¼",
      "æĸ¹ æ³ķ",
      "å¥ ³",
      "Ġthe y",
      "ðŁĻ ı",
      "A r",
      "â ĥ",
      "1 6",
      "ê² Į",
      "f or",
      "ëĤ ĺ",
      "Ð »",
      "ĠØ ±",
      "!! !",
      "Ġon e",
      "Ġ Ùĥ",
      "à¹ĥ à¸Ī",
      "ãģĭ ãģª",
      "ëĭĪ ëĭ¤",
      "Ġì §",
      "ç¬ ĳ",
      "ou ld",
      "à® ¿",
      "MA MA",
      "ç§ ģ",
      "à¸Ľ à¸£à¸°",
      "Ġa g",
      "ãĤĪ ãĤĬ",
      "âĢĻ t",
      "il e",
      "à¸ģ à¸²à¸£",
      "Ġ z",
      "âľ¨ Ċ",
      "H Y",
      "å §",
      "å Ģ",
      "ĠðŁ ĵ",
      "ãĥ Ģ",
      "ì ¹",
      "Ġn a",
      "ä¸ ĭ",
      "- -",
      "æĬ ½",
      "Ġ /",
      "p er",
      "åı ¯",
      "åıĤ åĬł",
      "à¤ ¡",
      "à¸· à¸Ńà¸Ļ",
      "ew s",
      "i en",
      "Ġ ×",
      "à¸¶ à¸ĩ",
      "ãĤ¹ ãĤ¿",
      "on t",
      "Ġ im",
      "Ġd es",
      "âĻ ¡",
      "è© ±",
      "à¸² à¸ĩ",
      "æ ¬",
      "re am",
      "0 1",
      "Į Ģ",
      "åĽ ½",
      "i x",
      "à¸« à¸£",
      "à¹Ģà¸ Ĺ",
      "é« ĺ",
      "à¸Ļ à¸Ļ",
      "à¹Ģà¸ Ĥ",
      "A K",
      "ï¸ı ĊĊ",
      "en a",
      "âĢį âĻ",
      "Ġab out",
      "å¥½ ãģį",
      "à¹Ī à¸ĩ",
      "âĥ £",
      "æĬ½ éģ¸",
      "ãĤ ®",
      "d o",
      "åł ´",
      "ãĤ¯ ãĥª",
      "7 7",
      "o on",
      "Ġp re",
      "Ġ à¸Ħ",
      "ä»Ĭ æĹ¥",
      "ãĤĴ ãĥķãĤ©ãĥŃãĥ¼",
      "ãģ£ ãģ¨",
      "O T",
      "Ġë ĭ",
      "D R",
      "b l",
      "2 00",
      "éĩ ĳ",
      "Ġs a",
      "ä¿ ¡",
      "Ġw ant",
      "à¸Ń à¸¡",
      "Ġm in",
      "b e",
      "Ġà¤ Ń",
      "Ù ı",
      "ar g",
      "ì Ĩ",
      "ad y",
      "m in",
      "à¸´ à¸ĩ",
      "à¸¸ à¸Ķ",
      "ãģĦ ãģĨ",
      "ãģĻ ãģİ",
      "i re",
      "Ġì ĭ",
      "à¸ ¨",
      "or n",
      "os e",
      "å¾ Į",
      "ðĿ Ĺ",
      "ä½ ķ",
      "ãģł ãģĳ",
      "ol d",
      "A W",
      "_ j",
      "ag e",
      "O W",
      "Ġ íķĺ",
      "à¥ Ĥ",
      "e z",
      "æ ¸",
      "å£ ²",
      "© ´",
      "ãģ¨ æĢĿ",
      "à¤ Ł",
      "g h",
      "/ X",
      "è ģ",
      "Ã £",
      "æĦ Ľ",
      "á Ģ",
      "ĠØ Ń",
      "éĢ ģ",
      "ĠW e",
      "éħ į",
      "Î ±",
      "ãĢĳ Ċ",
      "à¸´ à¹ī",
      "í ĺ",
      "åĪ ĩ",
      "4 0",
      "ëĵ ¤",
      "c he",
      "è¨ ĺ",
      "èī ¯",
      "u u",
      "ãĥ¼ãĥ ī",
      "Į ë",
      "Ġg et",
      "è £",
      "Ī ĺ",
      "Ġ à¸ŀ",
      "æ ł",
      "ãģ§ ãģį",
      "Ġm ore",
      "å½ĵ ãģŁ",
      "å Į",
      "Ġm an",
      "ad e",
      "Ġ .",
      "ï¼Ł ï¼Ł",
      "à ²",
      "Ġê° Ģ",
      "Ġwh o",
      "İ æĹ¥",
      "p a",
      "I L",
      "ðŁİ ī",
      "es h",
      "i j",
      "à¹Īà¸² à¸ĩ",
      "ï¼ ļ",
      "à¸Ħà¸§ à¸²à¸¡",
      "ĠC h",
      "/ x",
      "à¹ģ à¸ķ",
      "Ø ¶",
      "8 0",
      "à¹Ģ à¸¡",
      "é£ Ł",
      "ãĥģ ãĥ£",
      "ÙĢ ÙĢ",
      "Ġr es",
      "ãĤĬ ãģ¾ãģĻ",
      "a e",
      "ãģ£ãģ¦ ãĤĭ",
      "/ B",
      "à¹Ģà¸ Ī",
      "! ĊĊ",
      "ĠØ ´",
      "ãĤ¤ ãĥ³",
      "ĠðŁĺ Ĥ",
      "Ġd on",
      "p h",
      "Ġd el",
      "/ C",
      "O fficial",
      "Ġ Ùĩ",
      "çĶ ¨",
      "Ġr t",
      "â Ĩ",
      "ãģĺ ãĤĥ",
      "ri st",
      "r u",
      "âĶ ģ",
      "Ġa c",
      "/ P",
      "/ W",
      "à¹Ģà¸ Ħ",
      "/ j",
      "w itt",
      "à¸ ĵ",
      "à¥ ¤",
      "ë ¥",
      "Ø§Ø ³",
      "çµ Ĳ",
      "in a",
      "ãĥ¼ ãĥ«",
      "ãģ ²",
      "ĠìĿ ´",
      "à¹Ģà¸£ à¸²",
      "Ġs er",
      "ĠðŁ Ļ",
      "ãģ Ĵ",
      "ì £¼",
      "/ z",
      "Ġà¤ µ",
      "Ñ ı",
      "Ġ à¸Ń",
      "é¡ ĺ",
      "Ġs p",
      "/ b",
      "A n",
      "ÙĪ Ø±",
      "à¸µ à¸ģ",
      "op le",
      "ìĿ ¸",
      "å® Ł",
      "à®¿ à®",
      "ac e",
      "and o",
      "ul l",
      "8 6",
      "âľ¨ ĊĊ",
      "r an",
      "/ M",
      "ãĥª ãĥ¼",
      "Ġ '",
      "/ V",
      "ëį °",
      "Ġ ,",
      "/ y",
      "V OTE",
      "ê ·",
      "Ġp or",
      "/ l",
      "ul t",
      "å İ",
      "3 3",
      "/ Y",
      "! Ċ",
      "f t",
      "/ D",
      "h at",
      "éĽ Ĩ",
      "u j",
      "ĠðŁĶ ¥",
      "à¤ ¶",
      "Ġt ime",
      "ãĥ¼ãĥ ł",
      "Ð º",
      "ad o",
      "co m",
      "Ġ ãģĬ",
      "ì ²",
      "v en",
      "our s",
      "/ K",
      "c l",
      "è ¾",
      "S S",
      "Ġ à¸ķ",
      "Ã£ o",
      "Ġ if",
      "le ase",
      "ĠD ec",
      "5 9",
      "ðŁĳ ĩ",
      "/ Q",
      "à¸Ń à¸£",
      "/ J",
      "y y",
      "ãģª ãģı",
      ") ĊĊ",
      "al a",
      "Ġa k",
      "a il",
      "ãĤĵ ãģ§",
      "ow n",
      "witt er",
      "à¹Ħ à¸£",
      "un t",
      "A C",
      "an n",
      "ĠF ollow",
      "ç ¶",
      "/ d",
      "ar y",
      "à¸ į",
      "t he",
      "Ļ Ģ",
      "/ F",
      "âľ ħ",
      "/ q",
      "ãģ ¶",
      "/ O",
      "/ m",
      "E L",
      "em p",
      "s o",
      "/ f",
      "ãĥ Ľ",
      "/ G",
      "ç¬ ¬",
      "/ U",
      "ðŁĴ ľ",
      "ĠØ ¬",
      "/ T",
      "à¸« à¸§",
      "m as",
      "/ k",
      "/ H",
      "ãĤģ ãģ¦",
      "ðŁ¥ °",
      "ãģ¨ ãģĭ",
      "it a",
      "is a",
      "åĵ ģ",
      "/ N",
      "à¸´ à¸ķ",
      "/ R",
      "Ġra ilway",
      "/ v",
      "/ h",
      "ra v",
      "2 7",
      "å¿ľåĭŁ æĸ¹æ³ķ",
      "A m",
      "è µ",
      "ãĥ³ ãĤ°",
      "ðŁĺ į",
      "à¸Ń à¸Ń",
      "ìŀ Ĳ",
      "åħ Ī",
      "ï¼ Į",
      "ï¼ı Ċ",
      "N FT",
      "é¡ĺ ãģĦ",
      "Ù ĳ",
      "5 00",
      "ãĤ¹ ãĥŀ",
      "!! !!",
      "í Ķ",
      "æ ®",
      "/ g",
      "/ S",
      "/ t",
      "æ ¼",
      "O L",
      "ê ¹",
      "e h",
      "2 6",
      "ÙĨ Ø§",
      "ä¼ ģ",
      "I n",
      "íĬ ¸",
      "/ E",
      "ðŁİ Ħ",
      "Ġbe en",
      "ç¨ ¿",
      "k y",
      "æĪ ¦",
      "à¹īà¸§ à¸¢",
      "b r",
      "ç «",
      "ãĥ İ",
      "è Ń",
      "à® ¾",
      "ç Ĥ",
      "/ s",
      "à¸¸ à¹Ī",
      "à¸Ħ à¸°",
      "Ġwh en",
      "Ġa d",
      "ĠI n",
      "ãĤ §",
      "el y",
      "à¸Ń à¸Ķ",
      "Ġ ar",
      "Ħ ¤",
      "A P",
      "8 8",
      "Ġà¤ Ĺ",
      "á Ī",
      "ãģĤãĤĬãģĮãģ¨ãģĨãģĶãģĸ ãģĦãģ¾ãģĻ",
      "ent e",
      "ãĤ ²",
      "äº Ī",
      "ĠY ou",
      "MAMA VOTE",
      "ĠĠĠĠĠĠĠĠ ĠĠĠĠĠĠĠĠ",
      "ĠÙģ ÙĬ",
      "al e",
      "Ġy a",
      "Ġk now",
      "/ r",
      "ç Ĳ",
      "end ing",
      "M in",
      "æĬķ ç¨¿",
      "Ġ à°",
      "_ n",
      "E X",
      "ê± °",
      "ðŁĴ ķ",
      "I R",
      "2 9",
      "Ġ u",
      "æ ĭ",
      "Ġwh at",
      "/ Z",
      "ðĿ ĳ",
      "ìľ ¼",
      "Ġpe ople",
      "Ġe very",
      "@ P",
      "ĠI t",
      "ãĥ į",
      "R e",
      "ãģĬ é¡ĺãģĦ",
      "F NS",
      "ac t",
      "Ø§Ø ¯",
      "Ġthe ir",
      "æ¥½ ãģĹ",
      "à¸ ®",
      "/ c",
      "ðŁ¤£ ðŁ¤£",
      "ä ¾",
      "âĳ ł",
      "Ġcon t",
      "à¤¿à¤ ¯",
      "Ġ ÙĤ",
      "/ p",
      "éĥ ¨",
      "Ġs i",
      "a tt",
      "_ g",
      "Ñ Į",
      "it s",
      "M e",
      "Ġlo ve",
      "U S",
      "4 8",
      "Ġê ³",
      "ë ¶",
      "Ø °",
      "ro p",
      "qu e",
      "re e",
      "ê ¸",
      "co n",
      "an c",
      "ir l",
      "b o",
      "6 0",
      "à¸± à¹Ī",
      "à¸¥ à¸ĩ",
      "R S",
      "Ù ¾",
      "Ġh is",
      "@ B",
      "Ġyear s",
      "/ n",
      "æ ´",
      "ĠØ ®",
      "Ġh er",
      "å¾ ħ",
      "O P",
      "à¸² à¸§",
      "Ġl os",
      "/ I",
      "à¹ Ĭ",
      "à¹ĥ à¸Ħà¸£",
      "æľ Ł",
      "Ð ´",
      "o j",
      "ðŁĺŃðŁĺŃ ðŁĺŃðŁĺŃ",
      "ÙĬ Ø±",
      "à¸¢ à¸¢",
      "W e",
      "2 8",
      "u h",
      "ãģ ³",
      "ãģ ¸",
      "è ĥ",
      "Ú ¯",
      "@ n",
      "Ġà¤ ¯",
      "ç İ",
      "ãĤ· ãĥ§",
      "à¸« à¸¡",
      "9 0",
      "Ġ Q",
      "ĠØ§ÙĦ Ùħ",
      "Ġì ĸ",
      "es e",
      "ĠA l",
      "à¯ģ à®",
      "f ter",
      "æ ²",
      "à¸ģ à¸¥",
      "app y",
      "à¹Ģà¸ ª",
      "ãģĤ ãģĤ",
      "Y ou",
      "Ø§Ø Ń",
      "çľ Ł",
      "éĢ ļ",
      "ì§ Ħ",
      "@ t",
      "å¯ ¾",
      "è »",
      "ic a",
      "âĶģ âĶģ",
      "us e",
      "à¹Ģà¸ ķ",
      "Ġst udents",
      "ï¸İ ï¸İ",
      "J P",
      "Ã³ n",
      "ãĤ Ģ",
      "è¬ ¡",
      "p t",
      "is e",
      "ĠÐ ¿",
      "O M",
      "if e",
      "Ġ à¹Ĥ",
      "æŃĮ è¬¡",
      "è §",
      "re at",
      "à¹Ģ à¸ĩ",
      "@ b",
      "A D",
      "Ġë ³´",
      "ç¾ İ",
      "à¹Ī à¸§",
      "d i",
      "ĠðŁ Į",
      "æŃĮè¬¡ ç¥Ń",
      "çĶ °",
      "ãĥ¼ ãĤ¹",
      "è ı",
      "Ġp ara",
      "_ p",
      "ãģĹ ãģ¾ãģĹãģŁ",
      "Ø Į",
      "Ġ à¹Ħà¸¡",
      "Î ¿",
      "l er",
      "Ġà¤ª à¤°",
      "à¸Ķ à¸Ķ",
      "à¸£ à¸²",
      "ro w",
      "ig n",
      "k a",
      "6 6",
      "ë ¯",
      "Ń Ĳ",
      "r es",
      "ãĤ¸ ãĥ£",
      "ãĥ Ķ",
      "ë ©´",
      "Ø º",
      "ä¸ į",
      "à¹Ĩ à¹Ĩ",
      "Ġ à¸Ĺ",
      "ãģ Ĳ",
      "ãģĹ ãģ¾",
      "æŀ ľ",
      "ãĤĤ ãģĨ",
      "Ġre t",
      "æĢ §",
      "ãģ® ãģĬ",
      "Ġs u",
      "m m",
      "ðŁ §",
      "ë ²",
      "Ġg ood",
      "HA HA",
      "å½ĵãģŁ ãĤĭ",
      "ãģı ãĤĵ",
      "å¿ µ",
      "åĲ Į",
      "ë Ŀ¼",
      "Ġ ve",
      "Ġs ay",
      "w h",
      "P C",
      "Î ¹",
      "æ Ĥ",
      "u ra",
      "éĻ Ĳ",
      "O S",
      "ï¼ Ĩ",
      "ìķ ¼",
      "Ã ±",
      "ir st",
      "âĢ ĭ",
      "u al",
      "æĬ½éģ¸ ãģ§",
      "ãĤ ½",
      "4 6",
      "à¸Ī à¸ģ",
      "Ġ Ã©",
      "åł ±",
      "à¹Ī à¸Ńà¸¢",
      "A I",
      "ç ¤",
      "ãģĪ ãģ¦",
      "g o",
      "7 0",
      "é ļ",
      "ì ¤",
      "ä¼ģ çĶ»",
      "s m",
      "ÙĬ Ø©",
      "Ġê ²",
      "ì Ĥ¬",
      "Ġs ome",
      "at ch",
      "ãģĹ ãĤĩ",
      "ãģĪ ãĤĭ",
      "k an",
      "ĠI DR",
      "Ġg roup",
      "æľ¬ æĹ¥",
      "ãģ« ãģ¯",
      "Ä °",
      "Ġë ª",
      "Ñ ĭ",
      "Ùĩ Ø§",
      "ìĺ ¤",
      "ä» ĺ",
      "ãģĿ ãĤĮ",
      "e f",
      "4 5",
      "Ġà¹ģ à¸ķ",
      "Ä± m",
      "@ C",
      "à¸± à¸Ķ",
      "åĳ ³",
      "FNS æŃĮè¬¡ç¥Ń",
      "ë ł",
      "Ġ à¸Ĥ",
      "ing s",
      "g a",
      "end s",
      "Ġì Ħ",
      "ä½ ¿",
      "in s",
      "it o",
      "er o",
      "a is",
      "an ce",
      "æ Ĵ",
      "at es",
      "à®¾ à®",
      "ãĤĪ ãģŃ",
      "ãĥĥ ãĥĹ",
      "ĠÐ ½",
      "à¸Ī à¸£",
      "un d",
      "Ġan y",
      "m o",
      "è Ĥ",
      "Ø «",
      "m i",
      "ë§ Į",
      "ion s",
      "Ï Ħ",
      "r t",
      "Ġ Â",
      "ãģ µ",
      "Ġp art",
      "æĶ ¾",
      "ãģł ãģ£ãģŁ",
      "å§ ĭ",
      "Ñ ĩ",
      "ãģ ľ",
      "ãģ¾ ãģŁ",
      "r s",
      "ÙĪ ÙĦ",
      "Ġh ow",
      "Ĥ ¬ë",
      "à¸Ī à¸²à¸ģ",
      "E E",
      "à¸ª à¸Ļ",
      "è Ī",
      "U T",
      "à¹ĥ à¸Ĭ",
      "Ġ ol",
      "ìł ķ",
      "or ld",
      "an i",
      "Ġ !",
      "Ġb ir",
      "Ġd a",
      "0 3",
      "è² ·",
      "us h",
      "à ´",
      "ðŁĺ Ĭ",
      "à¥įà¤ µ",
      "æ± º",
      "Ġn ew",
      "on s",
      "@ j",
      "ãĥ Ļ",
      "a way",
      "à¸Ļ à¸¥",
      "Ï ī",
      "V a",
      "Ġì ļ",
      "æĮ ģ",
      "ig h",
      "b y",
      "F F",
      "m ar",
      "ãģ£ ãģ",
      "U R",
      "n n",
      "ä½ ĵ",
      "å¤ ī",
      "ìĹĲ ìĦľ",
      "os s",
      "en ce",
      "ĠTh is",
      "çī ©",
      "åĥ ķ",
      "/ A",
      "b a",
      "ot her",
      "ãĢĢ ãĢĢ",
      "à¸ ł",
      "å® ¶",
      "in t",
      "e j",
      "I M",
      "¬ ´",
      "à¹Ī à¸Ļ",
      "åĬ Ľ",
      "ç¥ ŀ",
      "à¸ŀ à¸£",
      "r r",
      "âĢ¼ ï¸ı",
      "Ù ĭ",
      "al k",
      "Ġì °",
      "à¸· à¹ī",
      "âĺ º",
      "@ D",
      "Ġ à¸Ĭ",
      "ðŁı ¼",
      "å¿ ĥ",
      "/ u",
      "ãģ¾ ãģĽ",
      "Ġs up",
      "Ġd em",
      "Ġs ee",
      "Ġd ate",
      "Ġ à¹ģà¸¥",
      "à¹Īà¸² à¸¢",
      "ãĤĪ ãĤį",
      "Ġb u",
      "ĠN o",
      "ĠDec ember",
      "ä¸ ĸ",
      "´ Ī",
      "å Ħ",
      "Ġ âĿ¤ï¸ı",
      "à¸Ńà¸° à¹Ħà¸£",
      "âĢ Ķ",
      "N o",
      "ive away",
      "çĲ Ĩ",
      "ay a",
      "Ð ¼",
      "ÙĩÙĩÙĩÙĩ ÙĩÙĩÙĩÙĩ",
      "éħį ä¿¡",
      "âĻ ª",
      "ãĢģ ãĢģ",
      "åº ¦",
      "ì °",
      "í Į",
      "op ee",
      "at a",
      "ãĥ³ ãĤ¹",
      "å¼ ķ",
      "Ra il",
      "æĿ ±",
      "ë ħ",
      "Ġ Ø§ÙĨ",
      "ï½ Ĺ",
      "Ð ²",
      "ðŁĴ ¦",
      "ãģ¡ ãĤī",
      "@ d",
      "ver n",
      "3 5",
      "à¹ī à¸Ļ",
      "ìĦ ¸",
      "âĳ ¡",
      "& amp",
      "c a",
      "à¤¾à¤ ²",
      "_ S",
      "ãĤ¹ãĥŀ ãĤ¹",
      "at s",
      "? Ċ",
      "2 11",
      "Ġd is",
      "ĠÐ ²",
      "D M",
      "ĠðŁ¥ º",
      "z z",
      "# S",
      "åĨ ħ",
      "Ġ Ñģ",
      "ĠØ µ",
      "ot o",
      "ab le",
      "@ p",
      "ï½ ¥",
      "ãĤ¯ãĥª ãĤ¹ãĥŀãĤ¹",
      "P EN",
      "å ķ",
      "ãĥ ļ",
      "é ķ",
      "AW AY",
      "al s",
      "ãģĽ ãģ¦",
      "ãģ¨ ãģĦãģĨ",
      "å¤ ĸ",
      "ãĢ ħ",
      "IVE AWAY",
      "@ y",
      "J O",
      "ë§ Ī",
      "ĠÙĪ Ø§ÙĦ",
      "à¸ ©",
      "Ġm on",
      "F C",
      "ãģĳ ãģ¦",
      "à¹Īà¸² à¸Ļ",
      "Ġf e",
      "åŃ ¦",
      "Ġc he",
      "0 7",
      "l es",
      "Ø³ Øª",
      "Ġa pp",
      "Î µ",
      "à¸² à¸Ķ",
      "o x",
      "w ard",
      "ou nd",
      "ãĤĭ ãģ®",
      "us ic",
      "Ġì ĥ",
      "çī ¹",
      "s p",
      "âĢįâĻ Ģ",
      "o ve",
      "or y",
      "I G",
      "è ±",
      "ãģ© ãģĨ",
      "r on",
      "ĠE x",
      "Ġë ¶",
      "â ģ",
      "ĠëĤ ĺ",
      "ŀ ĺ",
      "ãģª ãĤī",
      "Ġà¤° à¤¹",
      "à¹ģà¸ļ à¸ļ",
      "¦ ¬",
      "z a",
      "à¸±à¸Ļ à¸Ļ",
      "k i",
      "_ M",
      "h ar",
      "Ġ| |",
      "Ġ Ã§",
      "Ġc l",
      "ãģ§ ãģ¯",
      "in c",
      ". âĢ¦",
      "ãĤ³ ãĥ©",
      "ĠĠ Ġ",
      "u a",
      "ç Ń",
      "et s",
      "er a",
      "à¤¾à¤ ¤",
      "è¡ ¨",
      "ç ¢",
      "Ġn g",
      "ub e",
      "r en",
      "à¹Ī à¸¡",
      "çĶ ·",
      "Ġon ly",
      "ä¸ ĩ",
      "à¸´ à¸§",
      "ic t",
      "ìļ °",
      "Ġl ook",
      "Ġne ed",
      "Ġh ours",
      "er t",
      "â ļ",
      "on d",
      "ers on",
      "å Ĥ¬",
      "i co",
      "ìŀ ¥",
      "à¸Ńà¸¢ à¸²à¸ģ",
      "éķ ·",
      "ë ¹",
      "à¤ Ń",
      "ir d",
      "Ġ et",
      "Ġ em",
      "ĠëĤ ´",
      "ed ia",
      "å¤ ļ",
      "ÙĬ Øª",
      "Ú º",
      "ãĤĴ RT",
      "y j",
      "ãĥ¼ ãĤ¸",
      "æĦ ı",
      "@ K",
      "Ġìķ Ī",
      "ãģĦ ãģ¾ãģĹãģŁ",
      "l or",
      "n c",
      "0 6",
      "Ġ à¸§",
      "o ot",
      "_ P",
      "h h",
      "9 5",
      "à¥įà¤ ¤",
      "Ġth ink",
      "ation s",
      "âĢ ľ",
      "Ġth an",
      "ĠðŁ į",
      "Ġ ent",
      "ro s",
      "à¸¹à¸ģ à¸«à¸Ļ",
      "ÙĪ Ùħ",
      "w a",
      "ðŁĳ į",
      "à¸ļ à¸ļ",
      "il d",
      "/ i",
      "í ĭ",
      "il y",
      "o i",
      "T H",
      "ĠG IVEAWAY",
      "T r",
      "ç Ŀ",
      "@ g",
      "Ġp as",
      "ÙĦ Ø§",
      "à¹Īà¸² à¸£",
      "èī ²",
      "Sh opee",
      "in ce",
      "ç¢ º",
      "æĹ¥ æľ¬",
      "éĩ İ",
      "Ġt ra",
      "Ġto day",
      "sh w",
      "Ä «",
      "Ġà¤¨ à¤¹",
      "ìĭ ¶",
      "âĻ ¥",
      "/ e",
      "P r",
      "åı ĸ",
      "ìĥ ģ",
      "ãģª ãģ®",
      "ðŁ¤ į",
      "ðŁĳ ı",
      "æķ °",
      "ãģĹ ãģĭ",
      "à¹Ģ à¸Ļ",
      "E M",
      "ãĤĪãĤį ãģĹãģı",
      "à¸ļ à¸Ńà¸ģ",
      "ãģ§ãģĻ ãģŃ",
      "z y",
      "ãĥ» ãĥ»",
      "ãĤ« ãĤ¦",
      "o S",
      "à¹ī à¸Ńà¸¡",
      "j ect",
      "à¸¥ à¸°",
      "ðĿ Ļ",
      "Ġpl ay",
      "Ġ íķ",
      "ä» ¥",
      "Ġ um",
      "Ġm i",
      "ic i",
      "à¹īà¸² à¸Ļ",
      "A B",
      "/ a",
      "u i",
      "å¤ ©",
      "ç ı",
      "ë ª",
      "am i",
      "ê³ł ìĭ¶",
      "ãĤ¤ ãĥĪ",
      "ãģį ãģŁ",
      "3 6",
      "à¹Ī à¸Ńà¸Ļ",
      "Ä± k",
      "ver se",
      "ãĤ Ĩ",
      "Ġìŀ Ī",
      "âĢĻ m",
      "æ Ł",
      "Ø§Ø ¡",
      "Ġë ĺ",
      "æ° ´",
      "p en",
      "C rypto",
      "á ´",
      "Ġê ±",
      "åĭķ çĶ»",
      "C H",
      "éĸĭ åĤ¬",
      "Ġà¤ ĩ",
      "é Ł",
      "Ã¼ n",
      "id s",
      "æ ©",
      "å¼ µ",
      "ãģĵ ãģ¡ãĤī",
      "7 5",
      "U M",
      "éĢ £",
      "O n",
      "Ġt er",
      "E W",
      "or a",
      "ĠØ ¥",
      "HY PEN",
      "@ R",
      "re t",
      "m s",
      "4 4",
      "m er",
      "ìĽ Ĳ",
      "à¹ ĭ",
      "çļ Ĩ",
      "æĥ ħ",
      "å ģ",
      "Ġ Z",
      "ãĥķãĤ ¡",
      "Ġa fter",
      "ÃŃ a",
      "à¸ĩ à¸²à¸Ļ",
      "f r",
      "å± ±",
      "_ Ø§ÙĦ",
      "ch o",
      "Ġret weet",
      "å¤ ľ",
      "J c",
      "å° ı",
      "æ¼ Ķ",
      "ðĿ ĺ",
      "æľ ī",
      "çµĲ æŀľ",
      "tt er",
      "' m",
      "3 1",
      "b al",
      "ðŁ ¦",
      "åħ¬ éĸĭ",
      "ish n",
      "ŀ ĳ",
      "ìĺ ģ",
      "et weet",
      "Ġm uch",
      "æ¯ İæĹ¥",
      "@ L",
      "Ġv ot",
      "ãĢį Ċ",
      "UN G",
      "a ir",
      "Â ´",
      "à¹Ģà¸Ń à¸²",
      "vern ment",
      "Rail Min",
      "od i",
      "à¸² à¸²",
      "Ġ ..",
      "V EN",
      "_ d",
      "Ġà¤ ļ",
      "el f",
      "Ġof f",
      "æĪ Ĳ",
      "ĠðŁ ļ",
      "Ġ Railway",
      "p ar",
      "ãĥ³ãĥ ī",
      "y o",
      "Ġb ack",
      "ãĥ¼ ãĤº",
      "æĻĤ éĸĵ",
      "__ :",
      "s a",
      "Ġ ï¼ıĊ",
      "á ī",
      "ãĤĮ ãģ°",
      "ðŁĶ¥ ðŁĶ¥",
      "è Ĭ",
      "ãģĦ ãģ¤",
      "í ĸ",
      "ï¼¼ ĊĊ",
      "çµ Ĥ",
      "ç ¯",
      "R B",
      "Ã ª",
      "Ġ à¸Ħà¸Ļ",
      "ik a",
      "@ T",
      "shw ini",
      "çĤ ¹",
      "é ľ",
      "Ġb el",
      "Ġ à¸ĸ",
      "b ts",
      "Ġv ote",
      "v i",
      "Î ½",
      "a x",
      "åı¯ æĦĽ",
      "à¤¿à¤ ı",
      "à¹ģ à¸¡",
      "@ J",
      "ĠØ§ÙĦ ÙĦÙĩ",
      "å¼ ·",
      "ãĥķ ãĥĪ",
      "a ut",
      "b s",
      "ì ¦",
      "/ o",
      "à¸§ à¸§",
      "ãĤĬ ãģ¾ãģĹãģŁ",
      "çķ ª",
      "g u",
      "Ġà¸£ à¸§à¸¢",
      "m p",
      "à¥ģ à¤",
      "c r",
      "à¹Ģà¸ ¢",
      "a use",
      "é£Ł ãģ¹",
      "M y",
      "Ø§ ÙĬ",
      "w in",
      "at ed",
      "RailMin India",
      "è¨ĺ å¿µ",
      "ic s",
      "@ N",
      "ł Ģ",
      "Ġ ?",
      "Ġde c",
      "ÙĦ Ùħ",
      "à¸´ à¸ģ",
      "0 4",
      "C l",
      "¬ ¼",
      "Ġ ro",
      "Ġw ait",
      "Ġëĺ Ĳ",
      "âĿ Ĺ",
      "ì ¶",
      "b h",
      "u f",
      "âĹ ĭ",
      "St udents",
      "9 6",
      "ï¸ı âĥ£",
      "ĠðŁ Ĳ",
      "Ġë Ħ",
      "ç ¹",
      "ãĤ³ãĥ© ãĥľ",
      "ãģ¾ãģĽ ãĤĵ",
      "S H",
      "ê¹ Į",
      "éĿ ¢",
      "shwini Va",
      "9 8",
      "å ĸ",
      "A G",
      "ay s",
      "çĽ ¸",
      "ÙĦ Ùī",
      "S e",
      "ï¼ ĳ",
      "ðŁİģ ĊĊ",
      "c y",
      "_ B",
      "ìł ľ",
      "èĩª åĪĨ",
      "ãģ ŀ",
      "æ ¨",
      "Ġà¤ ı",
      "Ġn i",
      "à¸Ĺ à¸§",
      "ãĤ¢ ãĥ«",
      "à¹ģà¸ļ à¸Ļà¸¥",
      "an y",
      "ìĿ Į",
      "ëĵ ľ",
      "à¹Ī à¹Ħà¸Ķ",
      "Ġb l",
      "g g",
      "ãģĿ ãģ®",
      "æ¥ Ń",
      "ĠT HE",
      "ishn aw",
      "Ġsh ould",
      "ç ©",
      "ow er",
      "æĺ ¯",
      "æı ı",
      "L H",
      "Ġp ar",
      "os h",
      "ãĥ ¤",
      "Ġm as",
      "Ù Ĵ",
      "ë ³",
      "shwiniVa ishnaw",
      "ì ´Ī",
      "ãĤ ´",
      "ãĤ ¶",
      "or s",
      "à¥įà¤ ·",
      "Ġt ak",
      "ãģŁ ãĤī",
      "¢ ĭ",
      "ãģ¿ ãģŁãģĦ",
      "ver s",
      "è¬ Ŀ",
      "Ġa ct",
      "em ent",
      "Ġst ill",
      "U E",
      "è ¼",
      "up p",
      "Ġ à¸ļ",
      "X T",
      "çĻ »",
      "Ġthe m",
      "ç ĸ",
      "á Ĭ",
      "al i",
      "ãģ£ ãģ¡ãĤĥ",
      "ðŁĴ Ļ",
      "è¿ ĳ",
      "ä» ķ",
      "åľ °",
      "Ġà¤ ¶",
      "ĠT r",
      "it ch",
      "ĠìĿ ´ë",
      "æ ģ",
      "à¯įà® ķ",
      "à¸£ à¸ĩ",
      "çµ µ",
      "re d",
      "MO India",
      "æĸ Ļ",
      "í Ļ",
      "0 5",
      "A E",
      "e tt",
      "èĥ ½",
      "à¸ľ à¸¡",
      "Ġëĭ ¤",
      "Ġd id",
      "Ġh ere",
      "AL A",
      "ëĤ ¨",
      "äº Ĩ",
      "an o",
      "× Ļ",
      "b b",
      "à¥Ī à¤Ĥ",
      "EN HYPEN",
      "M ar",
      "Ġth ere",
      "ì Īĺ",
      "à± į",
      "g G",
      "ĸ ¤",
      "or d",
      "ç´ Ħ",
      "ĠâĢ ĺ",
      "w o",
      "ê³łìĭ¶ ëĭ¤",
      "ĠS h",
      "Ġo ver",
      "id a",
      "am b",
      "ä»Ĭ å¹´",
      "ãģķãĤĵ ãģ®",
      "I P",
      "Ġb ec",
      "way s",
      "ĠÃ ł",
      "@ _",
      "åħ ĥ",
      "Ġun a",
      "éĸ ¢",
      "@ H",
      "r is",
      "f l",
      "ĠðŁĻ ı",
      "er n",
      "I K",
      "ä» £",
      "äº ¬",
      "é ¢",
      "T R",
      "Ķ à¤°",
      "à¸¸ à¸ĵ",
      "Ġà¤ ī",
      "è¦ĭ ãģ¦",
      "ab y",
      "Ø¯ ÙĬ",
      "d ate",
      "à¹Ģà¸ §",
      "Ġm ake",
      "ãĤĤ ãģ®",
      "æĥ ³",
      "Ġh ad",
      "è º",
      "en n",
      "çĻº å£²",
      "E D",
      "ãģĬé¡ĺãģĦ ãģĹãģ¾ãģĻ",
      "ãģ¡ ãĤĩ",
      "ex t",
      "Ø ¸",
      "Ġp ost",
      "ãĥ© ãĤ¤ãĥ",
      "0 8",
      "ãģ ĩ",
      "__ __",
      "1 50",
      ": Ċ",
      "à¸ĩ à¸ĩ",
      "Ġë ı",
      "è¾ ¼",
      "A H",
      "# B",
      "Ġf irst",
      "¸ Į",
      "à¸µà¸¢ à¸§",
      "çı ¾",
      "åı Ĺ",
      "k o",
      "Ġp erson",
      "9 7",
      "um ar",
      "Ġag ain",
      "ãģ«ãģª ãĤĭ",
      "y ou",
      "çķ Į",
      "è³ ŀ",
      "çĻ ½",
      "I t",
      "y n",
      "A j",
      "Ã ¤",
      "£ ¨",
      "á ĭ",
      "Ġh el",
      "_ c",
      "@ h",
      "Ġ Ûģ",
      "I B",
      "U L",
      "æ¥½ãģĹ ãģ¿",
      "à¹ĩ à¸ģ",
      "/ âĢ¦",
      "Ġj oin",
      "3 4",
      "et a",
      "ãģĪ ãģĪ",
      "çŁ¥ ãĤī",
      "Ġl es",
      "et e",
      "ou gh",
      "à ¨",
      "æĦŁ è¬Ŀ",
      "æĶ¾ éĢģ",
      "å° ĳ",
      "5 6",
      "S p",
      "f ul",
      "à¸¸ à¸Ļ",
      "ãģı ãģª",
      "å ŀ",
      "åº Ĺ",
      "ãģ¿ ãĤĵãģª",
      "à¤¿à¤ ķ",
      "ãĤį ãģĨ",
      "and s",
      "è «",
      "y u",
      "à¸¡à¸² à¸£",
      "u ct",
      "à¸ļ à¸£",
      "Ä± z",
      "à¸² à¸Ĺ",
      "ãģĦãģŁ ãģł",
      "R Y",
      "Ġd one",
      "æĺ ł",
      "í ģ",
      "k e",
      "y e",
      "à¹īà¸² à¸ĩ",
      "... Ċ",
      "Ġ )",
      "ãģĹãģ¦ ãĤĭ",
      "j p",
      "Âł Âł",
      "ï¼ģï¼ģ ï¼ģ",
      "Ġ à¸Ľ",
      "çĿ Ģ",
      "ut e",
      "V al",
      "å ¬",
      "r ay",
      "ìĬ µ",
      "Ġ Ù¾",
      "_ f",
      "y m",
      "h ing",
      "ç¶ ļ",
      "ak a",
      "A d",
      "7 6",
      "à¤ ļ",
      "@ G",
      "ĠO n",
      "ad i",
      "ãĤ® ãĥķãĥĪ",
      "ï¼Ł Ċ",
      "ë° ©",
      "Ġs he",
      "/w K",
      "I I",
      "in o",
      "ë ĮĢ",
      "ãĤī ãģĦ",
      "à¤¾à¤ ¦",
      "ç Ĺ",
      "N CT",
      "A TE",
      "op e",
      "# GMMTV",
      "åĭŁ éĽĨ",
      "E l",
      "O K",
      "æ º",
      "D r",
      "à¸¹ à¸Ķ",
      ", ,",
      "Ú ¾",
      "ide o",
      "ãģĹãĤĩ ãģĨ",
      "ãģĭ ãĤı",
      "ri v",
      "ĠT han",
      "O f",
      "ðŁĴ ĸ",
      "t y",
      "Ùģ ÙĬ",
      "âĸ ¼",
      "âĨ Ĵ",
      "Ġë ³",
      "ãģ¾ ãģł",
      "æī Ģ",
      "Ñ ħ",
      "Ä± r",
      "Ùĩ Ùħ",
      "u x",
      "n ya",
      "ub l",
      "sh ip",
      "æĪ ĳ",
      "an e",
      "à¤¿à¤ ²",
      "Ġv ac",
      "éĻĲ å®ļ",
      "âĢįâĻĢ ï¸ı",
      "rist mas",
      "è§ £",
      "Ġh im",
      "Ġm ak",
      "Ø§Ø ¦",
      "9 3",
      "s l",
      "Ġì ľ",
      "ãĤ· ãĥ£",
      "ìľ¼ ë¡ľ",
      "Ġr ight",
      "O G",
      "Ġ âľ¨",
      "Ġj e",
      "Ã¡ s",
      "Ġ à¸¥",
      "Ġê°Ģ ê³łìĭ¶ëĭ¤",
      "_ T",
      "@ c",
      "ãĤ·ãĥ§ ãĥ³",
      "ĠD E",
      "è¦ ģ",
      "åĪ ¸",
      "U P",
      "P ro",
      "åĦ ª",
      "st ar",
      "Ľ Ħ",
      "ï¼ ĥ",
      "Jc KK",
      "Ġ q",
      "ãĢģ Ċ",
      "Ġg ot",
      "Ġm ost",
      "à¥ĭ à¤Ĺ",
      "ìĹ ¬",
      "im in",
      "ìķĦ ìļĶ",
      "W h",
      "Ġgo vernment",
      "j e",
      "Ġìĺ ¤",
      "Ø§Ø ¹",
      "Ġst art",
      "Ġe u",
      "r it",
      "åľ ¨",
      "à¸ķ à¸Ńà¸Ļ",
      "Ġà¤ Ķà¤°",
      "ç¯ Ģ",
      "à¹Ģà¸« à¸¡",
      "éģ Ķ",
      "à¸ Ŀ",
      "ul f",
      "w n",
      "T PC",
      "@ l",
      "ìĭ ł",
      "Ġ *",
      "ëĬĶ ëį°",
      "7 8",
      "?? ??",
      "Ġwor k",
      "Ġë ĵ",
      "æĽ ¸",
      "æľ ¨",
      "i am",
      "à¸´ à¸¡",
      "v a",
      "ãĤĬ ãģŁãģĦ",
      "d y",
      "B S",
      "Ġ x",
      "Ã Ĺ",
      "ðŁĺ Ĩ",
      "å¬ ī",
      "ãģ£ãģ ±",
      "ëı Ļ",
      "o z",
      "co rd",
      "à¸£à¸² à¸°",
      "ill ion",
      "ï¼ Ĵ",
      "à¤ ĸ",
      "E x",
      "B l",
      "Ġs on",
      "è ĭ",
      "ag i",
      "äº ¤",
      "Ġ il",
      "_ G",
      "Ġbe st",
      "Ķ Ķ",
      "å® Į",
      "E Z",
      "Ġl as",
      "Ġw ould",
      "æ´ »",
      "ÙĪ Ø¯",
      "ë Ł",
      "ãģĭ ãģĹ",
      "N D",
      "Ġp h",
      "ĠW h",
      "åĭ Ŀ",
      "ĠØ¨ Ø§ÙĦ",
      "ĠðŁ¤ £",
      "ðĿ Ĵ",
      "ah a",
      "Ġm en",
      "E n",
      "à¸Ń à¸Ńà¸ģ",
      "ãģ£ãģŁ ãĤī",
      "ãĤ¤ãĥ Ļ",
      "à® °",
      "or i",
      "éģ ķ",
      "ç´ ł",
      "èģ ŀ",
      "M Y",
      "b um",
      "3 00",
      "Ġwor ld",
      "ç· Ĵ",
      "r ess",
      "Ï ģ",
      "à¥ĩ à¤¶",
      "h m",
      "o ck",
      "åİ Ł",
      "Ġì Ĥ¬ë",
      "0 2",
      "9 4",
      "Ø¨ ÙĬ",
      "ç ¦",
      "ig g",
      "v o",
      "Ġre ally",
      "T ube",
      "ĠÙħ ÛĮ",
      "ãģ§ ãģĹãģŁ",
      "er i",
      "à¸Ń à¸¥",
      "k u",
      "à° ¿",
      "Ġê ¸°",
      "@ f",
      "id o",
      "Ġt u",
      "ãĤ¿ ãĥ¼",
      "ãģĵãģ® æĬķç¨¿",
      "ie w",
      "ç Ĭ",
      "O D",
      "× ķ",
      "æĺ İ",
      "à¸Ļà¸° à¸Ħà¸°",
      "æ¬ ²",
      "T e",
      "Ġf in",
      "ãģ® ãģ¯",
      "Ġì ¶",
      "ãĥ Ĵ",
      "s c",
      "æ¬ ¡",
      "ë¥ ¼",
      "ãģ« ãĤĤ",
      "U C",
      "à¥Ģ à¤Ĥ",
      "ir a",
      "Ġs ur",
      "å Ĵ",
      "Ġ ãģ®",
      "à¤¾à¤ Ĥ",
      "ãħĭãħĭãħĭãħĭ ãħĭãħĭãħĭãħĭ",
      "à¥ĩ à¤²",
      "Ġre c",
      "à¸ķ à¸¥",
      "à¹īà¸² à¸¢",
      "Ġin ter",
      "ðŁĴ Ĺ",
      "ï½Ĺ ï½Ĺ",
      "ãħłãħł ãħłãħł",
      "ãĥķãĤ §",
      "é¡ Ķ",
      "m ath",
      "è© ³",
      "êµ ¬",
      "ê° Ħ",
      "ãĤģ ãģ§",
      "ãĥĨ ãĤ£",
      "ç· ł",
      "I V",
      "ðŁĮ Ł",
      "end o",
      "Ġà¤ Ł",
      "au rav",
      "æ ļ",
      "ee k",
      "à «",
      "è¶ Ĭ",
      "à¸Ĺ à¸¢",
      "Ġmon th",
      "ãģį ãģ¾ãģĻ",
      "3 8",
      "ç« ĭ",
      "ł ´",
      "U K",
      "ä¸ »",
      "à¹Ģ à¸Ńà¸ĩ",
      "Ï ĥ",
      "f N",
      "ĠR e",
      "ur n",
      "ãģ§ãģĻ ãģĮ",
      "å¼ ı",
      "íĭ °",
      "ãģ®å Ń",
      "IT ALA",
      "å± Ĭ",
      "â łĢ",
      "ãĥ ¦",
      "v ent",
      "à¥įà¤ ®",
      "à¸µ à¸Ļ",
      "Ġto o",
      "i w",
      "éł ĳ",
      "Ġsh ow",
      "ol o",
      "à±į à°",
      "I ON",
      "z e",
      "å® ī",
      "åĥ ı",
      "Ġ For",
      "ÑĤ Ð¾",
      "è ĳ",
      "ç Ī",
      "ar u",
      "as a",
      "is m",
      "âĿ £",
      "orn ing",
      "à¤ §",
      "ĠO N",
      "L e",
      "Ġ íķľ",
      "âĺº ï¸ı",
      "Ġe ven",
      "Ġla st",
      "W W",
      "B E",
      "ÙĦ ÙĪ",
      "éłĳ å¼µ",
      "ar m",
      "_ h",
      "ĠH e",
      "im a",
      "Ġk o",
      "å¼ ¾",
      "ãģł ãģĭãĤī",
      "à¹Ģà¸ ļ",
      "ra j",
      "3 7",
      "r n",
      "at o",
      "à¹ģ à¸Ħ",
      "L O",
      "k ook",
      "Ġfe el",
      "ÙĨ ÙĬ",
      "ãģĤ ãģ¨",
      "d s",
      "à ¬",
      "ìĦ¸ ìļĶ",
      "i Ã³n",
      "6 24",
      "A b",
      "èº «",
      "JusticeForRailwaySt udent",
      "ãĤĭ ãģ¨",
      "B B",
      "à¸ģ à¸§",
      "Ġì Ĥ¬",
      "ar n",
      "ÛĮ ÙĨ",
      "s k",
      "Ø± Ø§",
      "el le",
      "Ø ¦",
      "à¤¾à¤ ®",
      "âĢįâĻ Ĥ",
      "ul d",
      "ãģª ãģĭãģ£ãģŁ",
      "el e",
      "0 9",
      "ant s",
      "ãĥ© ãĤ¤",
      "_ K",
      "ĠI N",
      "ãĤ³ ãĥ³",
      "us s",
      "Ðµ Ð½",
      "ç ĭ",
      "t r",
      "æĹ ©",
      "ðŁĴ ļ",
      "Ġg uy",
      "Ú Ĩ",
      "ï¾ Ł",
      "Ã¼ r",
      "Ġê· ¸ë",
      "åĵ ¡",
      "L a",
      "éģ İ",
      "emb ers",
      "Ġà¹Ģà¸ ŀ",
      "é Ń",
      "ãĤ«ãĤ¦ ãĥ³ãĥĪ",
      "P l",
      "éĿ ŀ",
      "£ ç¯Ģ",
      "Ġp o",
      "æŃ »",
      "à¹Ħ à¸«à¸Ļ",
      "à¸ª à¸¥",
      "ä¸Ģ ç·Ĵ",
      "P M",
      "à¤¾à¤ ľ",
      "ĠN TPC",
      "çĽ ´",
      "g ht",
      "s w",
      "h in",
      "en er",
      "A J",
      "Ġv o",
      "ãĤĮ ãģªãģĦ",
      "åĮ ĸ",
      "A MA",
      "âĿ Ħ",
      "à¹ī à¸¡",
      "ì ĻĢ",
      "à¹ģ à¸Ĺ",
      "' re",
      "Ġy ang",
      "Ø± ÙĪ",
      "ìŀ Ħ",
      "à¸ ī",
      "H O",
      "ĠðŁĺ ¶",
      "ãĥĹ ãĥŃ",
      "5 8",
      "ãĢĳ ĊĊ",
      "é¢ ¨",
      "æ© Ł",
      "ðŁ¥º ðŁ¥º",
      "r and",
      "Ì ²",
      "Ã ¨",
      "ãģį ãģ¾ãģĹãģŁ",
      "æĽ ²",
      "ĠØ§ÙĦ Ø¹",
      "Ġf ri",
      "B e",
      "4 7",
      "ĠðŁĺ į",
      "íĥ Ģ",
      "ak i",
      "èª Ń",
      "E P",
      "Ġbe ing",
      "ww ww",
      "æµ ģ",
      "Ġí Į",
      "ãĥ³ãĥ Ģ",
      "à¤ķ à¤°",
      "w ide",
      "ol e",
      "¡ °",
      "m et",
      "Ġà¤ı à¤ķ",
      "B T",
      "æĺ İæĹ¥",
      "Ġ à¸Ķ",
      "ì ħ",
      "im ai",
      "el a",
      "ç¤ ¾",
      "Ħ °",
      "æĸ ĩ",
      "p o",
      "à¸¹ à¸Ľ",
      "f o",
      "æľ¬ å½ĵ",
      "Ġ à¸Ī",
      "3 9",
      "à¸¶ à¹ī",
      "Ġ ed",
      "Ġre al",
      "æķ Ļ",
      "Ġ ãĢĮ",
      "åĨĨ åĪĨ",
      "Ġt ake",
      "éŁ ³",
      "Ġì§ Ģ",
      "Ġbec ause",
      "Ä± l",
      "äº Į",
      "ĠĠ Ċ",
      "AN G",
      "as it",
      "ðŁĴ ª",
      "à¹Īà¸² à¸§",
      "le ct",
      "à¸² à¸Ħ",
      "al o",
      "ï¼ģï¼ģ Ċ",
      "Øª ÙĪ",
      "ì¦ Ī",
      "à° ¾",
      "ãģĹãģ¦ ãģı",
      "ap an",
      "ëĭ ¨",
      "ãģª ãģ®ãģ§",
      "D e",
      "P rat",
      "Ġì§ Ħ",
      "âĢ¦ Ċ",
      "ï¼ģ ï¼Ł",
      "Ġê· ¸",
      "Ñ Ī",
      "ìĨ Į",
      "à¹Ģà¸ģ à¸²",
      "ãģ§ãģĻ ãģĭ",
      "Ðµ Ð",
      "Ġver y",
      "ĠP ro",
      "u ro",
      "æ ¤",
      "Ġs c",
      "_ l",
      "ìĽ Ķ",
      "â ŀ",
      "d en",
      "v el",
      "çµ Ħ",
      "LH gG",
      "ĠC om",
      "à¸Ĭ à¸Ńà¸ļ",
      "èª į",
      "à¹Ģà¸ Ĭ",
      "ant e",
      "m r",
      "à¹Ĥ à¸Ķ",
      "k w",
      "en c",
      "ë ³´",
      "ìĦ ±",
      "æŃ £",
      "@ F",
      "Ġcom e",
      "JusticeForRailway s",
      "ãĥĹ ãĥª",
      "ãģª ãģ©",
      "å Ł",
      "à¸Ľ à¸¥",
      "if ic",
      "Ġtweet s",
      "ðŁĳ ī",
      "n ew",
      "ç ®",
      "k h",
      "á »",
      "ãģ® æĸ¹",
      "à¹ģà¸¥ à¸°",
      "ar s",
      "G O",
      "æ ¶",
      "å½ĵ éģ¸",
      "j i",
      "â Ī",
      "ib le",
      "Ġ à¸¢",
      "å ¦",
      "Ġdo es",
      "N ews",
      "12 7",
      "Ġal ways",
      "ìł Ħ",
      "ch an",
      "Ġìĭ ľ",
      "Øª Ø±",
      "æ ħ",
      "ĠðŁĵ Į",
      "it ion",
      "Ġà¹Ģà¸ Ľ",
      "and a",
      "# FNSæŃĮè¬¡ç¥Ń",
      "u an",
      "I s",
      "íķĺ ëĬĶ",
      "Ġà¤Ĩ à¤ª",
      "ç´ °",
      "K S",
      "ç¨ ®",
      "ðŁĴ °",
      "ot es",
      "à¸ģ à¸£",
      "à¸¸à¸ģ à¸Ħà¸Ļ",
      "çĸ ²",
      "Ġì Īĺ",
      "ĠI f",
      "åĳ ¨",
      "Ġs om",
      "Ĳ ĺ",
      "ë £¨",
      "Ġs ong",
      "en i",
      "ä½ į",
      "# M",
      "å£ °",
      "ãģĭ ãĤĤ",
      "end er",
      "èµ ·",
      "ãģ®åŃ £ç¯Ģ",
      "j o",
      "ä¿ º",
      "ag an",
      "Ġp ol",
      "éģ ĵ",
      "ì§ ľ",
      "lo bal",
      "à¹Ī à¸ķ",
      "çī Ī",
      "æĽ ´",
      "C I",
      "Ġb a",
      "Ġp lease",
      "à¥Ģ à¤Ł",
      "upp asit",
      "ãĥ¼ ãĤ¯",
      "g y",
      "ðĿ ļ",
      "Ġgo ing",
      "b i",
      "B L",
      "Ġì Ĩ",
      "Ġs m",
      "ĠØ ¢",
      "un a",
      "ang e",
      "Val imai",
      "à¸µ à¸£",
      "6 9",
      "Ġë į",
      "ãĤģãģ§ ãģ¨ãģĨ",
      "ĠÐ º",
      "& gt",
      "S E",
      "O r",
      "ot h",
      "ı ¬",
      "æĦŁ ãģĺ",
      "Ġday s",
      "Ġc r",
      "ãģľ ãģ²",
      "for m",
      "ĠR etweet",
      "ĠØ¹ ÙĦÙī",
      "ë¯ ¸",
      "ãĤ¤ãĥĻ ãĥ³ãĥĪ",
      "èª °",
      "ãģķ ãĤĮãģŁ",
      "é »",
      "åı¯æĦĽ ãģĦ",
      "Ġan n",
      "à¸ł à¸²",
      "ĠðŁ ĩ",
      "ãģĳ ãĤĭ",
      "ï ¿",
      "ãģĻãģİ ãģ¦",
      "ðŁ¥ ²",
      "Ùħ Ø§",
      "åĨ Ļ",
      "3 2",
      "ãģ ¬",
      "à¤¾à¤ ¯",
      "à¯ Ī",
      "è Ĳ",
      "à¸´ à¸Ľ",
      "iv es",
      "æ° ĳ",
      "Ġ art",
      "l ine",
      "æĮģ ãģ¡",
      "e ver",
      "ãģ£ãģ¦ ãģŁ",
      "Ġì Ĭ",
      "uk i",
      "JusticeForRailways Students",
      "# T",
      "à¦ ¾",
      "Ġ ãĤĴãĥķãĤ©ãĥŃãĥ¼",
      "ãĥ¥ ãĥ¼",
      "ï¾ ŀ",
      "IN I",
      "æ±º å®ļ"
    ]
  }
}