{
  "version": "1.0",
  "truncation": null,
  "padding": null,
  "added_tokens": [
    {
      "id": 0,
      "content": "<|begin_of_text|>",
      "single_word": false,
      "lstrip": false,
      "rstrip": false,
      "normalized": false,
      "special": true
    },
    {
      "id": 1,
      "content": "<|end_of_text|>",
      "single_word": false,
      "lstrip": false,
      "rstrip": false,
      "normalized": false,
      "special": true
    },
    {
      "id": 2,
      "content": "<|reserved_special_token_0|>",
      "single_word": false,
      "lstrip": false,
      "rstrip": false,
      "normalized": false,
      "special": true
    },
    {
      "id": 3,
      "content": "<|reserved_special_token_1|>",
      "single_word": false,
      "lstrip": false,
      "rstrip": false,
      "normalized": false,
      "special": true
    },
    {
      "id": 4,
      "content": "<|reserved_special_token_2|>",
      "single_word": false,
      "lstrip": false,
      "rstrip": false,
      "normalized": false,
      "special": true
    },
    {
      "id": 5,
      "content": "<|reserved_special_token_3|>",
      "single_word": false,
      "lstrip": false,
      "rstrip": false,
      "normalized": false,
      "special": true
    },
    {
      "id": 6,
      "content": "<|start_header_id|>",
      "single_word": false,
      "lstrip": false,
      "rstrip": false,
      "normalized": false,
      "special": true
    },
    {
      "id": 7,
      "content": "<|end_header_id|>",
      "single_word": false,
      "lstrip": false,
      "rstrip": false,
      "normalized": false,
      "special": true
    },
    {
      "id": 8,
      "content": "<|reserved_special_token_4|>",
      "single_word": false,
      "lstrip": false,
      "rstrip": false,
      "normalized": false,
      "special": true
    },
    {
      "id": 9,
      "content": "<|eot_id|>",
      "single_word": false,
      "lstrip": false,
      "rstrip": false,
      "normalized": false,
      "special": true
    },
    {
      "id": 10,
      "content": "<|reserved_special_token_5|>",
      "single_word": false,
      "lstrip": false,
      "rstrip": false,
      "normalized": false,
      "special": true
    },
    {
      "id": 11,
      "content": "<|reserved_special_token_6|>",
      "single_word": false,
      "lstrip": false,
      "rstrip": false,
      "normalized": false,
      "special": true
    },
    {
      "id": 12,
      "content": "<|reserved_special_token_7|>",
      "single_word": false,
      "lstrip": false,
      "rstrip": false,
      "normalized": false,
      "special": true
    },
    {
      "id": 13,
      "content": "<|reserved_special_token_8|>",
      "single_word": false,
      "lstrip": false,
      "rstrip": false,
      "normalized": false,
      "special": true
    },
    {
      "id": 14,
      "content": "<|reserved_special_token_9|>",
      "single_word": false,
      "lstrip": false,
      "rstrip": false,
      "normalized": false,
      "special": true
    },
    {
      "id": 15,
      "content": "<|reserved_special_token_10|>",
      "single_word": false,
      "lstrip": false,
      "rstrip": false,
      "normalized": false,
      "special": true
    },
    {
      "id": 16,
      "content": "<|reserved_special_token_11|>",
      "single_word": false,
      "lstrip": false,
      "rstrip": false,
      "normalized": false,
      "special": true
    },
    {
      "id": 17,
      "content": "<|reserved_special_token_12|>",
      "single_word": false,
      "lstrip": false,
      "rstrip": false,
      "normalized": false,
      "special": true
    },
    {
      "id": 18,
      "content": "<|reserved_special_token_13|>",
      "single_word": false,
      "lstrip": false,
      "rstrip": false,
      "normalized": false,
      "special": true
    },
    {
      "id": 19,
      "content": "<|reserved_special_token_14|>",
      "single_word": false,
      "lstrip": false,
      "rstrip": false,
      "normalized": false,
      "special": true
    },
    {
      "id": 20,
      "content": "<|reserved_special_token_15|>",
      "single_word": false,
      "lstrip": false,
      "rstrip": false,
      "normalized": false,
      "special": true
    },
    {
      "id": 21,
      "content": "<|reserved_special_token_16|>",
      "single_word": false,
      "lstrip": false,
      "rstrip": false,
      "normalized": false,
      "special": true
    },
    {
      "id": 22,
      "content": "<|reserved_special_token_17|>",
      "single_word": false,
      "lstrip": false,
      "rstrip": false,
      "normalized": false,
      "special": true
    },
    {
      "id": 23,
      "content": "<|reserved_special_token_18|>",
      "single_word": false,
      "lstrip": false,
      "rstrip": false,
      "normalized": false,
      "special": true
    },
    {
      "id": 24,
      "content": "<|reserved_special_token_19|>",
      "single_word": false,
      "lstrip": false,
      "rstrip": false,
      "normalized": false,
      "special": true
    },
    {
      "id": 25,
      "content": "<|reserved_special_token_20|>",
      "single_word": false,
      "lstrip": false,
      "rstrip": false,
      "normalized": false,
      "special": true
    },
    {
      "id": 26,
      "content": "<|reserved_special_token_21|>",
      "single_word": false,
      "lstrip": false,
      "rstrip": false,
      "normalized": false,
      "special": true
    },
    {
      "id": 27,
      "content": "<|reserved_special_token_22|>",
      "single_word": false,
      "lstrip": false,
      "rstrip": false,
      "normalized": false,
      "special": true
    },
    {
      "id": 28,
      "content": "<|reserved_special_token_23|>",
      "single_word": false,
      "lstrip": false,
      "rstrip": false,
      "normalized": false,
      "special": true
    },
    {
      "id": 29,
      "content": "<|reserved_special_token_24|>",
      "single_word": false,
      "lstrip": false,
      "rstrip": false,
      "normalized": false,
      "special": true
    },
    {
      "id": 30,
      "content": "<|reserved_special_token_25|>",
      "single_word": false,
      "lstrip": false,
      "rstrip": false,
      "normalized": false,
      "special": true
    },
    {
      "id": 31,
      "content": "<|reserved_special_token_26|>",
      "single_word": false,
      "lstrip": false,
      "rstrip": false,
      "normalized": false,
      "special": true
    },
    {
      "id": 32,
      "content": "<|reserved_special_token_27|>",
      "single_word": false,
      "lstrip": false,
      "rstrip": false,
      "normalized": false,
      "special": true
    },
    {
      "id": 33,
      "content": "<|reserved_special_token_28|>",
      "single_word": false,
      "lstrip": false,
      "rstrip": false,
      "normalized": false,
      "special": true
    },
    {
      "id": 34,
      "content": "<|reserved_special_token_29|>",
      "single_word": false,
      "lstrip": false,
      "rstrip": false,
      "normalized": false,
      "special": true
    },
    {
      "id": 35,
      "content": "<|reserved_special_token_30|>",
      "single_word": false,
      "lstrip": false,
      "rstrip": false,
      "normalized": false,
      "special": true
    },
    {
      "id": 36,
      "content": "<|reserved_special_token_31|>",
      "single_word": false,
      "lstrip": false,
      "rstrip": false,
      "normalized": false,
      "special": true
    },
    {
      "id": 37,
      "content": "<|reserved_special_token_32|>",
      "single_word": false,
      "lstrip": false,
      "rstrip": false,
      "normalized": false,
      "special": true
    },
    {
      "id": 38,
      "content": "<|reserved_special_token_33|>",
      "single_word": false,
      "lstrip": false,
      "rstrip": false,
      "normalized": false,
      "special": true
    },
    {
      "id": 39,
      "content": "<|reserved_special_token_34|>",
      "single_word": false,
      "lstrip": false,
      "rstrip": false,
      "normalized": false,
      "special": true
    },
    {
      "id": 40,
      "content": "<|reserved_special_token_35|>",
      "single_word": false,
      "lstrip": false,
      "rstrip": false,
      "normalized": false,
      "special": true
    },
    {
      "id": 41,
      "content": "<|reserved_special_token_36|>",
      "single_word": false,
      "lstrip": false,
      "rstrip": false,
      "normalized": false,
      "special": true
    },
    {
      "id": 42,
      "content": "<|reserved_special_token_37|>",
      "single_word": false,
      "lstrip": false,
      "rstrip": false,
      "normalized": false,
      "special": true
    },
    {
      "id": 43,
      "content": "<|reserved_special_token_38|>",
      "single_word": false,
      "lstrip": false,
      "rstrip": false,
      "normalized": false,
      "special": true
    },
    {
      "id": 44,
      "content": "<|reserved_special_token_39|>",
      "single_word": false,
      "lstrip": false,
      "rstrip": false,
      "normalized": false,
      "special": true
    },
    {
      "id": 45,
      "content": "<|reserved_special_token_40|>",
      "single_word": false,
      "lstrip": false,
      "rstrip": false,
      "normalized": false,
      "special": true
    },
    {
      "id": 46,
      "content": "<|reserved_special_token_41|>",
      "single_word": false,
      "lstrip": false,
      "rstrip": false,
      "normalized": false,
      "special": true
    },
    {
      "id": 47,
      "content": "<|reserved_special_token_42|>",
      "single_word": false,
      "lstrip": false,
      "rstrip": false,
      "normalized": false,
      "special": true
    },
    {
      "id": 48,
      "content": "<|reserved_special_token_43|>",
      "single_word": false,
      "lstrip": false,
      "rstrip": false,
      "normalized": false,
      "special": true
    },
    {
      "id": 49,
      "content": "<|reserved_special_token_44|>",
      "single_word": false,
      "lstrip": false,
      "rstrip": false,
      "normalized": false,
      "special": true
    },
    {
      "id": 50,
      "content": "<|reserved_special_token_45|>",
      "single_word": false,
      "lstrip": false,
      "rstrip": false,
      "normalized": false,
      "special": true
    },
    {
      "id": 51,
      "content": "<|reserved_special_token_46|>",
      "single_word": false,
      "lstrip": false,
      "rstrip": false,
      "normalized": false,
      "special": true
    },
    {
      "id": 52,
      "content": "<|reserved_special_token_47|>",
      "single_word": false,
      "lstrip": false,
      "rstrip": false,
      "normalized": false,
      "special": true
    },
    {
      "id": 53,
      "content": "<|reserved_special_token_48|>",
      "single_word": false,
      "lstrip": false,
      "rstrip": false,
      "normalized": false,
      "special": true
    },
    {
      "id": 54,
      "content": "<|reserved_special_token_49|>",
      "single_word": false,
      "lstrip": false,
      "rstrip": false,
      "normalized": false,
      "special": true
    },
    {
      "id": 55,
      "content": "<|reserved_special_token_50|>",
      "single_word": false,
      "lstrip": false,
      "rstrip": false,
      "normalized": false,
      "special": true
    },
    {
      "id": 56,
      "content": "<|reserved_special_token_51|>",
      "single_word": false,
      "lstrip": false,
      "rstrip": false,
      "normalized": false,
      "special": true
    },
    {
      "id": 57,
      "content": "<|reserved_special_token_52|>",
      "single_word": false,
      "lstrip": false,
      "rstrip": false,
      "normalized": false,
      "special": true
    },
    {
      "id": 58,
      "content": "<|reserved_special_token_53|>",
      "single_word": false,
      "lstrip": false,
      "rstrip": false,
      "normalized": false,
      "special": true
    },
    {
      "id": 59,
      "content": "<|reserved_special_token_54|>",
      "single_word": false,
      "lstrip": false,
      "rstrip": false,
      "normalized": false,
      "special": true
    },
    {
      "id": 60,
      "content": "<|reserved_special_token_55|>",
      "single_word": false,
      "lstrip": false,
      "rstrip": false,
      "normalized": false,
      "special": true
    },
    {
      "id": 61,
      "content": "<|reserved_special_token_56|>",
      "single_word": false,
      "lstrip": false,
      "rstrip": false,
      "normalized": false,
      "special": true
    },
    {
      "id": 62,
      "content": "<|reserved_special_token_57|>",
      "single_word": false,
      "lstrip": false,
      "rstrip": false,
      "normalized": false,
      "special": true
    },
    {
      "id": 63,
      "content": "<|reserved_special_token_58|>",
      "single_word": false,
      "lstrip": false,
      "rstrip": false,
      "normalized": false,
      "special": true
    },
    {
      "id": 64,
      "content": "<|reserved_special_token_59|>",
      "single_word": false,
      "lstrip": false,
      "rstrip": false,
      "normalized": false,
      "special": true
    },
    {
      "id": 65,
      "content": "<|reserved_special_token_60|>",
      "single_word": false,
      "lstrip": false,
      "rstrip": false,
      "normalized": false,
      "special": true
    },
    {
      "id": 66,
      "content": "<|reserved_special_token_61|>",
      "single_word": false,
      "lstrip": false,
      "rstrip": false,
      "normalized": false,
      "special": true
    },
    {
      "id": 67,
      "content": "<|reserved_special_token_62|>",
      "single_word": false,
      "lstrip": false,
      "rstrip": false,
      "normalized": false,
      "special": true
    },
    {
      "id": 68,
      "content": "<|reserved_special_token_63|>",
      "single_word": false,
      "lstrip": false,
      "rstrip": false,
      "normalized": false,
      "special": true
    },
    {
      "id": 69,
      "content": "<|reserved_special_token_64|>",
      "single_word": false,
      "lstrip": false,
      "rstrip": false,
      "normalized": false,
      "special": true
    },
    {
      "id": 70,
      "content": "<|reserved_special_token_65|>",
      "single_word": false,
      "lstrip": false,
      "rstrip": false,
      "normalized": false,
      "special": true
    },
    {
      "id": 71,
      "content": "<|reserved_special_token_66|>",
      "single_word": false,
      "lstrip": false,
      "rstrip": false,
      "normalized": false,
      "special": true
    },
    {
      "id": 72,
      "content": "<|reserved_special_token_67|>",
      "single_word": false,
      "lstrip": false,
      "rstrip": false,
      "normalized": false,
      "special": true
    },
    {
      "id": 73,
      "content": "<|reserved_special_token_68|>",
      "single_word": false,
      "lstrip": false,
      "rstrip": false,
      "normalized": false,
      "special": true
    },
    {
      "id": 74,
      "content": "<|reserved_special_token_69|>",
      "single_word": false,
      "lstrip": false,
      "rstrip": false,
      "normalized": false,
      "special": true
    },
    {
      "id": 75,
      "content": "<|reserved_special_token_70|>",
      "single_word": false,
      "lstrip": false,
      "rstrip": false,
      "normalized": false,
      "special": true
    },
    {
      "id": 76,
      "content": "<|reserved_special_token_71|>",
      "single_word": false,
      "lstrip": false,
      "rstrip": false,
      "normalized": false,
      "special": true
    },
    {
      "id": 77,
      "content": "<|reserved_special_token_72|>",
      "single_word": false,
      "lstrip": false,
      "rstrip": false,
      "normalized": false,
      "special": true
    },
    {
      "id": 78,
      "content": "<|reserved_special_token_73|>",
      "single_word": false,
      "lstrip": false,
      "rstrip": false,
      "normalized": false,
      "special": true
    },
    {
      "id": 79,
      "content": "<|reserved_special_token_74|>",
      "single_word": false,
      "lstrip": false,
      "rstrip": false,
      "normalized": false,
      "special": true
    },
    {
      "id": 80,
      "content": "<|reserved_special_token_75|>",
      "single_word": false,
      "lstrip": false,
      "rstrip": false,
      "normalized": false,
      "special": true
    },
    {
      "id": 81,
      "content": "<|reserved_special_token_76|>",
      "single_word": false,
      "lstrip": false,
      "rstrip": false,
      "normalized": false,
      "special": true
    },
    {
      "id": 82,
      "content": "<|reserved_special_token_77|>",
      "single_word": false,
      "lstrip": false,
      "rstrip": false,
      "normalized": false,
      "special": true
    },
    {
      "id": 83,
      "content": "<|reserved_special_token_78|>",
      "single_word": false,
      "lstrip": false,
      "rstrip": false,
      "normalized": false,
      "special": true
    },
    {
      "id": 84,
      "content": "<|reserved_special_token_79|>",
      "single_word": false,
      "lstrip": false,
      "rstrip": false,
      "normalized": false,
      "special": true
    },
    {
      "id": 85,
      "content": "<|reserved_special_token_80|>",
      "single_word": false,
      "lstrip": false,
      "rstrip": false,
      "normalized": false,
      "special": true
    },
    {
      "id": 86,
      "content": "<|reserved_special_token_81|>",
      "single_word": false,
      "lstrip": false,
      "rstrip": false,
      "normalized": false,
      "special": true
    },
    {
      "id": 87,
      "content": "<|reserved_special_token_82|>",
      "single_word": false,
      "lstrip": false,
      "rstrip": false,
      "normalized": false,
      "special": true
    },
    {
      "id": 88,
      "content": "<|reserved_special_token_83|>",
      "single_word": false,
      "lstrip": false,
      "rstrip": false,
      "normalized": false,
      "special": true
    },
    {
      "id": 89,
      "content": "<|reserved_special_token_84|>",
      "single_word": false,
      "lstrip": false,
      "rstrip": false,
      "normalized": false,
      "special": true
    },
    {
      "id": 90,
      "content": "<|reserved_special_token_85|>",
      "single_word": false,
      "lstrip": false,
      "rstrip": false,
      "normalized": false,
      "special": true
    },
    {
      "id": 91,
      "content": "<|reserved_special_token_86|>",
      "single_word": false,
      "lstrip": false,
      "rstrip": false,
      "normalized": false,
      "special": true
    },
    {
      "id": 92,
      "content": "<|reserved_special_token_87|>",
      "single_word": false,
      "lstrip": false,
      "rstrip": false,
      "normalized": false,
      "special": true
    },
    {
      "id": 93,
      "content": "<|reserved_special_token_88|>",
      "single_word": false,
      "lstrip": false,
      "rstrip": false,
      "normalized": false,
      "special": true
    },
    {
      "id": 94,
      "content": "<|reserved_special_token_89|>",
      "single_word": false,
      "lstrip": false,
      "rstrip": false,
      "normalized": false,
      "special": true
    },
    {
      "id": 95,
      "content": "<|reserved_special_token_90|>",
      "single_word": false,
      "lstrip": false,
      "rstrip": false,
      "normalized": false,
      "special": true
    },
    {
      "id": 96,
      "content": "<|reserved_special_token_91|>",
      "single_word": false,
      "lstrip": false,
      "rstrip": false,
      "normalized": false,
      "special": true
    },
    {
      "id": 97,
      "content": "<|reserved_special_token_92|>",
      "single_word": false,
      "lstrip": false,
      "rstrip": false,
      "normalized": false,
      "special": true
    },
    {
      "id": 98,
      "content": "<|reserved_special_token_93|>",
      "single_word": false,
      "lstrip": false,
      "rstrip": false,
      "normalized": false,
      "special": true
    },
    {
      "id": 99,
      "content": "<|reserved_special_token_94|>",
      "single_word": false,
      "lstrip": false,
      "rstrip": false,
      "normalized": false,
      "special": true
    },
    {
      "id": 100,
      "content": "<|reserved_special_token_95|>",
      "single_word": false,
      "lstrip": false,
      "rstrip": false,
      "normalized": false,
      "special": true
    },
    {
      "id": 101,
      "content": "<|reserved_special_token_96|>",
      "single_word": false,
      "lstrip": false,
      "rstrip": false,
      "normalized": false,
      "special": true
    },
    {
      "id": 102,
      "content": "<|reserved_special_token_97|>",
      "single_word": false,
      "lstrip": false,
      "rstrip": false,
      "normalized": false,
      "special": true
    },
    {
      "id": 103,
      "content": "<|reserved_special_token_98|>",
      "single_word": false,
      "lstrip": false,
      "rstrip": false,
      "normalized": false,
      "special": true
    },
    {
      "id": 104,
      "content": "<|reserved_special_token_99|>",
      "single_word": false,
      "lstrip": false,
      "rstrip": false,
      "normalized": false,
      "special": true
    },
    {
      "id": 105,
      "content": "<|reserved_special_token_100|>",
      "single_word": false,
      "lstrip": false,
      "rstrip": false,
      "normalized": false,
      "special": true
    },
    {
      "id": 106,
      "content": "<|reserved_special_token_101|>",
      "single_word": false,
      "lstrip": false,
      "rstrip": false,
      "normalized": false,
      "special": true
    },
    {
      "id": 107,
      "content": "<|reserved_special_token_102|>",
      "single_word": false,
      "lstrip": false,
      "rstrip": false,
      "normalized": false,
      "special": true
    },
    {
      "id": 108,
      "content": "<|reserved_special_token_103|>",
      "single_word": false,
      "lstrip": false,
      "rstrip": false,
      "normalized": false,
      "special": true
    },
    {
      "id": 109,
      "content": "<|reserved_special_token_104|>",
      "single_word": false,
      "lstrip": false,
      "rstrip": false,
      "normalized": false,
      "special": true
    },
    {
      "id": 110,
      "content": "<|reserved_special_token_105|>",
      "single_word": false,
      "lstrip": false,
      "rstrip": false,
      "normalized": false,
      "special": true
    },
    {
      "id": 111,
      "content": "<|reserved_special_token_106|>",
      "single_word": false,
      "lstrip": false,
      "rstrip": false,
      "normalized": false,
      "special": true
    },
    {
      "id": 112,
      "content": "<|reserved_special_token_107|>",
      "single_word": false,
      "lstrip": false,
      "rstrip": false,
      "normalized": false,
      "special": true
    },
    {
      "id": 113,
      "content": "<|reserved_special_token_108|>",
      "single_word": false,
      "lstrip": false,
      "rstrip": false,
      "normalized": false,
      "special": true
    },
    {
      "id": 114,
      "content": "<|reserved_special_token_109|>",
      "single_word": false,
      "lstrip": false,
      "rstrip": false,
      "normalized": false,
      "special": true
    },
    {
      "id": 115,
      "content": "<|reserved_special_token_110|>",
      "single_word": false,
      "lstrip": false,
      "rstrip": false,
      "normalized": false,
      "special": true
    },
    {
      "id": 116,
      "content": "<|reserved_special_token_111|>",
      "single_word": false,
      "lstrip": false,
      "rstrip": false,
      "normalized": false,
      "special": true
    },
    {
      "id": 117,
      "content": "<|reserved_special_token_112|>",
      "single_word": false,
      "lstrip": false,
      "rstrip": false,
      "normalized": false,
      "special": true
    },
    {
      "id": 118,
      "content": "<|reserved_special_token_113|>",
      "single_word": false,
      "lstrip": false,
      "rstrip": false,
      "normalized": false,
      "special": true
    },
    {
      "id": 119,
      "content": "<|reserved_special_token_114|>",
      "single_word": false,
      "lstrip": false,
      "rstrip": false,
      "normalized": false,
      "special": true
    },
    {
      "id": 120,
      "content": "<|reserved_special_token_115|>",
      "single_word": false,
      "lstrip": false,
      "rstrip": false,
      "normalized": false,
      "special": true
    },
    {
      "id": 121,
      "content": "<|reserved_special_token_116|>",
      "single_word": false,
      "lstrip": false,
      "rstrip": false,
      "normalized": false,
      "special": true
    },
    {
      "id": 122,
      "content": "<|reserved_special_token_117|>",
      "single_word": false,
      "lstrip": false,
      "rstrip": false,
      "normalized": false,
      "special": true
    },
    {
      "id": 123,
      "content": "<|reserved_special_token_118|>",
      "single_word": false,
      "lstrip": false,
      "rstrip": false,
      "normalized": false,
      "special": true
    },
    {
      "id": 124,
      "content": "<|reserved_special_token_119|>",
      "single_word": false,
      "lstrip": false,
      "rstrip": false,
      "normalized": false,
      "special": true
    },
    {
      "id": 125,
      "content": "<|reserved_special_token_120|>",
      "single_word": false,
      "lstrip": false,
      "rstrip": false,
      "normalized": false,
      "special": true
    },
    {
      "id": 126,
      "content": "<|reserved_special_token_121|>",
      "single_word": false,
      "lstrip": false,
      "rstrip": false,
      "normalized": false,
      "special": true
    },
    {
      "id": 127,
      "content": "<|reserved_special_token_122|>",
      "single_word": false,
      "lstrip": false,
      "rstrip": false,
      "normalized": false,
      "special": true
    },
    {
      "id": 128,
      "content": "<|reserved_special_token_123|>",
      "single_word": false,
      "lstrip": false,
      "rstrip": false,
      "normalized": false,
      "special": true
    },
    {
      "id": 129,
      "content": "<|reserved_special_token_124|>",
      "single_word": false,
      "lstrip": false,
      "rstrip": false,
      "normalized": false,
      "special": true
    },
    {
      "id": 130,
      "content": "<|reserved_special_token_125|>",
      "single_word": false,
      "lstrip": false,
      "rstrip": false,
      "normalized": false,
      "special": true
    },
    {
      "id": 131,
      "content": "<|reserved_special_token_126|>",
      "single_word": false,
      "lstrip": false,
      "rstrip": false,
      "normalized": false,
      "special": true
    },
    {
      "id": 132,
      "content": "<|reserved_special_token_127|>",
      "single_word": false,
      "lstrip": false,
      "rstrip": false,
      "normalized": false,
      "special": true
    },
    {
      "id": 133,
      "content": "<|reserved_special_token_128|>",
      "single_word": false,
      "lstrip": false,
      "rstrip": false,
      "normalized": false,
      "special": true
    },
    {
      "id": 134,
      "content": "<|reserved_special_token_129|>",
      "single_word": false,
      "lstrip": false,
      "rstrip": false,
      "normalized": false,
      "special": true
    },
    {
      "id": 135,
      "content": "<|reserved_special_token_130|>",
      "single_word": false,
      "lstrip": false,
      "rstrip": false,
      "normalized": false,
      "special": true
    },
    {
      "id": 136,
      "content": "<|reserved_special_token_131|>",
      "single_word": false,
      "lstrip": false,
      "rstrip": false,
      "normalized": false,
      "special": true
    },
    {
      "id": 137,
      "content": "<|reserved_special_token_132|>",
      "single_word": false,
      "lstrip": false,
      "rstrip": false,
      "normalized": false,
      "special": true
    },
    {
      "id": 138,
      "content": "<|reserved_special_token_133|>",
      "single_word": false,
      "lstrip": false,
      "rstrip": false,
      "normalized": false,
      "special": true
    },
    {
      "id": 139,
      "content": "<|reserved_special_token_134|>",
      "single_word": false,
      "lstrip": false,
      "rstrip": false,
      "normalized": false,
      "special": true
    },
    {
      "id": 140,
      "content": "<|reserved_special_token_135|>",
      "single_word": false,
      "lstrip": false,
      "rstrip": false,
      "normalized": false,
      "special": true
    },
    {
      "id": 141,
      "content": "<|reserved_special_token_136|>",
      "single_word": false,
      "lstrip": false,
      "rstrip": false,
      "normalized": false,
      "special": true
    },
    {
      "id": 142,
      "content": "<|reserved_special_token_137|>",
      "single_word": false,
      "lstrip": false,
      "rstrip": false,
      "normalized": false,
      "special": true
    },
    {
      "id": 143,
      "content": "<|reserved_special_token_138|>",
      "single_word": false,
      "lstrip": false,
      "rstrip": false,
      "normalized": false,
      "special": true
    },
    {
      "id": 144,
      "content": "<|reserved_special_token_139|>",
      "single_word": false,
      "lstrip": false,
      "rstrip": false,
      "normalized": false,
      "special": true
    },
    {
      "id": 145,
      "content": "<|reserved_special_token_140|>",
      "single_word": false,
      "lstrip": false,
      "rstrip": false,
      "normalized": false,
      "special": true
    },
    {
      "id": 146,
      "content": "<|reserved_special_token_141|>",
      "single_word": false,
      "lstrip": false,
      "rstrip": false,
      "normalized": false,
      "special": true
    },
    {
      "id": 147,
      "content": "<|reserved_special_token_142|>",
      "single_word": false,
      "lstrip": false,
      "rstrip": false,
      "normalized": false,
      "special": true
    },
    {
      "id": 148,
      "content": "<|reserved_special_token_143|>",
      "single_word": false,
      "lstrip": false,
      "rstrip": false,
      "normalized": false,
      "special": true
    },
    {
      "id": 149,
      "content": "<|reserved_special_token_144|>",
      "single_word": false,
      "lstrip": false,
      "rstrip": false,
      "normalized": false,
      "special": true
    },
    {
      "id": 150,
      "content": "<|reserved_special_token_145|>",
      "single_word": false,
      "lstrip": false,
      "rstrip": false,
      "normalized": false,
      "special": true
    },
    {
      "id": 151,
      "content": "<|reserved_special_token_146|>",
      "single_word": false,
      "lstrip": false,
      "rstrip": false,
      "normalized": false,
      "special": true
    },
    {
      "id": 152,
      "content": "<|reserved_special_token_147|>",
      "single_word": false,
      "lstrip": false,
      "rstrip": false,
      "normalized": false,
      "special": true
    },
    {
      "id": 153,
      "content": "<|reserved_special_token_148|>",
      "single_word": false,
      "lstrip": false,
      "rstrip": false,
      "normalized": false,
      "special": true
    },
    {
      "id": 154,
      "content": "<|reserved_special_token_149|>",
      "single_word": false,
      "lstrip": false,
      "rstrip": false,
      "normalized": false,
      "special": true
    },
    {
      "id": 155,
      "content": "<|reserved_special_token_150|>",
      "single_word": false,
      "lstrip": false,
      "rstrip": false,
      "normalized": false,
      "special": true
    },
    {
      "id": 156,
      "content": "<|reserved_special_token_151|>",
      "single_word": false,
      "lstrip": false,
      "rstrip": false,
      "normalized": false,
      "special": true
    },
    {
      "id": 157,
      "content": "<|reserved_special_token_152|>",
      "single_word": false,
      "lstrip": false,
      "rstrip": false,
      "normalized": false,
      "special": true
    },
    {
      "id": 158,
      "content": "<|reserved_special_token_153|>",
      "single_word": false,
      "lstrip": false,
      "rstrip": false,
      "normalized": false,
      "special": true
    },
    {
      "id": 159,
      "content": "<|reserved_special_token_154|>",
      "single_word": false,
      "lstrip": false,
      "rstrip": false,
      "normalized": false,
      "special": true
    },
    {
      "id": 160,
      "content": "<|reserved_special_token_155|>",
      "single_word": false,
      "lstrip": false,
      "rstrip": false,
      "normalized": false,
      "special": true
    },
    {
      "id": 161,
      "content": "<|reserved_special_token_156|>",
      "single_word": false,
      "lstrip": false,
      "rstrip": false,
      "normalized": false,
      "special": true
    },
    {
      "id": 162,
      "content": "<|reserved_special_token_157|>",
      "single_word": false,
      "lstrip": false,
      "rstrip": false,
      "normalized": false,
      "special": true
    },
    {
      "id": 163,
      "content": "<|reserved_special_token_158|>",
      "single_word": false,
      "lstrip": false,
      "rstrip": false,
      "normalized": false,
      "special": true
    },
    {
      "id": 164,
      "content": "<|reserved_special_token_159|>",
      "single_word": false,
      "lstrip": false,
      "rstrip": false,
      "normalized": false,
      "special": true
    },
    {
      "id": 165,
      "content": "<|reserved_special_token_160|>",
      "single_word": false,
      "lstrip": false,
      "rstrip": false,
      "normalized": false,
      "special": true
    },
    {
      "id": 166,
      "content": "<|reserved_special_token_161|>",
      "single_word": false,
      "lstrip": false,
      "rstrip": false,
      "normalized": false,
      "special": true
    },
    {
      "id": 167,
      "content": "<|reserved_special_token_162|>",
      "single_word": false,
      "lstrip": false,
      "rstrip": false,
      "normalized": false,
      "special": true
    },
    {
      "id": 168,
      "content": "<|reserved_special_token_163|>",
      "single_word": false,
      "lstrip": false,
      "rstrip": false,
      "normalized": false,
      "special": true
    },
    {
      "id": 169,
      "content": "<|reserved_special_token_164|>",
      "single_word": false,
      "lstrip": false,
      "rstrip": false,
      "normalized": false,
      "special": true
    },
    {
      "id": 170,
      "content": "<|reserved_special_token_165|>",
      "single_word": false,
      "lstrip": false,
      "rstrip": false,
      "normalized": false,
      "special": true
    },
    {
      "id": 171,
      "content": "<|reserved_special_token_166|>",
      "single_word": false,
      "lstrip": false,
      "rstrip": false,
      "normalized": false,
      "special": true
    },
    {
      "id": 172,
      "content": "<|reserved_special_token_167|>",
      "single_word": false,
      "lstrip": false,
      "rstrip": false,
      "normalized": false,
      "special": true
    },
    {
      "id": 173,
      "content": "<|reserved_special_token_168|>",
      "single_word": false,
      "lstrip": false,
      "rstrip": false,
      "normalized": false,
      "special": true
    },
    {
      "id": 174,
      "content": "<|reserved_special_token_169|>",
      "single_word": false,
      "lstrip": false,
      "rstrip": false,
      "normalized": false,
      "special": true
    },
    {
      "id": 175,
      "content": "<|reserved_special_token_170|>",
      "single_word": false,
      "lstrip": false,
      "rstrip": false,
      "normalized": false,
      "special": true
    },
    {
      "id": 176,
      "content": "<|reserved_special_token_171|>",
      "single_word": false,
      "lstrip": false,
      "rstrip": false,
      "normalized": false,
      "special": true
    },
    {
      "id": 177,
      "content": "<|reserved_special_token_172|>",
      "single_word": false,
      "lstrip": false,
      "rstrip": false,
      "normalized": false,
      "special": true
    },
    {
      "id": 178,
      "content": "<|reserved_special_token_173|>",
      "single_word": false,
      "lstrip": false,
      "rstrip": false,
      "normalized": false,
      "special": true
    },
    {
      "id": 179,
      "content": "<|reserved_special_token_174|>",
      "single_word": false,
      "lstrip": false,
      "rstrip": false,
      "normalized": false,
      "special": true
    },
    {
      "id": 180,
      "content": "<|reserved_special_token_175|>",
      "single_word": false,
      "lstrip": false,
      "rstrip": false,
      "normalized": false,
      "special": true
    },
    {
      "id": 181,
      "content": "<|reserved_special_token_176|>",
      "single_word": false,
      "lstrip": false,
      "rstrip": false,
      "normalized": false,
      "special": true
    },
    {
      "id": 182,
      "content": "<|reserved_special_token_177|>",
      "single_word": false,
      "lstrip": false,
      "rstrip": false,
      "normalized": false,
      "special": true
    },
    {
      "id": 183,
      "content": "<|reserved_special_token_178|>",
      "single_word": false,
      "lstrip": false,
      "rstrip": false,
      "normalized": false,
      "special": true
    },
    {
      "id": 184,
      "content": "<|reserved_special_token_179|>",
      "single_word": false,
      "lstrip": false,
      "rstrip": false,
      "normalized": false,
      "special": true
    },
    {
      "id": 185,
      "content": "<|reserved_special_token_180|>",
      "single_word": false,
      "lstrip": false,
      "rstrip": false,
      "normalized": false,
      "special": true
    },
    {
      "id": 186,
      "content": "<|reserved_special_token_181|>",
      "single_word": false,
      "lstrip": false,
      "rstrip": false,
      "normalized": false,
      "special": true
    },
    {
      "id": 187,
      "content": "<|reserved_special_token_182|>",
      "single_word": false,
      "lstrip": false,
      "rstrip": false,
      "normalized": false,
      "special": true
    },
    {
      "id": 188,
      "content": "<|reserved_special_token_183|>",
      "single_word": false,
      "lstrip": false,
      "rstrip": false,
      "normalized": false,
      "special": true
    },
    {
      "id": 189,
      "content": "<|reserved_special_token_184|>",
      "single_word": false,
      "lstrip": false,
      "rstrip": false,
      "normalized": false,
      "special": true
    },
    {
      "id": 190,
      "content": "<|reserved_special_token_185|>",
      "single_word": false,
      "lstrip": false,
      "rstrip": false,
      "normalized": false,
      "special": true
    },
    {
      "id": 191,
      "content": "<|reserved_special_token_186|>",
      "single_word": false,
      "lstrip": false,
      "rstrip": false,
      "normalized": false,
      "special": true
    },
    {
      "id": 192,
      "content": "<|reserved_special_token_187|>",
      "single_word": false,
      "lstrip": false,
      "rstrip": false,
      "normalized": false,
      "special": true
    },
    {
      "id": 193,
      "content": "<|reserved_special_token_188|>",
      "single_word": false,
      "lstrip": false,
      "rstrip": false,
      "normalized": false,
      "special": true
    },
    {
      "id": 194,
      "content": "<|reserved_special_token_189|>",
      "single_word": false,
      "lstrip": false,
      "rstrip": false,
      "normalized": false,
      "special": true
    },
    {
      "id": 195,
      "content": "<|reserved_special_token_190|>",
      "single_word": false,
      "lstrip": false,
      "rstrip": false,
      "normalized": false,
      "special": true
    },
    {
      "id": 196,
      "content": "<|reserved_special_token_191|>",
      "single_word": false,
      "lstrip": false,
      "rstrip": false,
      "normalized": false,
      "special": true
    },
    {
      "id": 197,
      "content": "<|reserved_special_token_192|>",
      "single_word": false,
      "lstrip": false,
      "rstrip": false,
      "normalized": false,
      "special": true
    },
    {
      "id": 198,
      "content": "<|reserved_special_token_193|>",
      "single_word": false,
      "lstrip": false,
      "rstrip": false,
      "normalized": false,
      "special": true
    },
    {
      "id": 199,
      "content": "<|reserved_special_token_194|>",
      "single_word": false,
      "lstrip": false,
      "rstrip": false,
      "normalized": false,
      "special": true
    },
    {
      "id": 200,
      "content": "<|reserved_special_token_195|>",
      "single_word": false,
      "lstrip": false,
      "rstrip": false,
      "normalized": false,
      "special": true
    },
    {
      "id": 201,
      "content": "<|reserved_special_token_196|>",
      "single_word": false,
      "lstrip": false,
      "rstrip": false,
      "normalized": false,
      "special": true
    },
    {
      "id": 202,
      "content": "<|reserved_special_token_197|>",
      "single_word": false,
      "lstrip": false,
      "rstrip": false,
      "normalized": false,
      "special": true
    },
    {
      "id": 203,
      "content": "<|reserved_special_token_198|>",
      "single_word": false,
      "lstrip": false,
      "rstrip": false,
      "normalized": false,
      "special": true
    },
    {
      "id": 204,
      "content": "<|reserved_special_token_199|>",
      "single_word": false,
      "lstrip": false,
      "rstrip": false,
      "normalized": false,
      "special": true
    },
    {
      "id": 205,
      "content": "<|reserved_special_token_200|>",
      "single_word": false,
      "lstrip": false,
      "rstrip": false,
      "normalized": false,
      "special": true
    },
    {
      "id": 206,
      "content": "<|reserved_special_token_201|>",
      "single_word": false,
      "lstrip": false,
      "rstrip": false,
      "normalized": false,
      "special": true
    },
    {
      "id": 207,
      "content": "<|reserved_special_token_202|>",
      "single_word": false,
      "lstrip": false,
      "rstrip": false,
      "normalized": false,
      "special": true
    },
    {
      "id": 208,
      "content": "<|reserved_special_token_203|>",
      "single_word": false,
      "lstrip": false,
      "rstrip": false,
      "normalized": false,
      "special": true
    },
    {
      "id": 209,
      "content": "<|reserved_special_token_204|>",
      "single_word": false,
      "lstrip": false,
      "rstrip": false,
      "normalized": false,
      "special": true
    },
    {
      "id": 210,
      "content": "<|reserved_special_token_205|>",
      "single_word": false,
      "lstrip": false,
      "rstrip": false,
      "normalized": false,
      "special": true
    },
    {
      "id": 211,
      "content": "<|reserved_special_token_206|>",
      "single_word": false,
      "lstrip": false,
      "rstrip": false,
      "normalized": false,
      "special": true
    },
    {
      "id": 212,
      "content": "<|reserved_special_token_207|>",
      "single_word": false,
      "lstrip": false,
      "rstrip": false,
      "normalized": false,
      "special": true
    },
    {
      "id": 213,
      "content": "<|reserved_special_token_208|>",
      "single_word": false,
      "lstrip": false,
      "rstrip": false,
      "normalized": false,
      "special": true
    },
    {
      "id": 214,
      "content": "<|reserved_special_token_209|>",
      "single_word": false,
      "lstrip": false,
      "rstrip": false,
      "normalized": false,
      "special": true
    },
    {
      "id": 215,
      "content": "<|reserved_special_token_210|>",
      "single_word": false,
      "lstrip": false,
      "rstrip": false,
      "normalized": false,
      "special": true
    },
    {
      "id": 216,
      "content": "<|reserved_special_token_211|>",
      "single_word": false,
      "lstrip": false,
      "rstrip": false,
      "normalized": false,
      "special": true
    },
    {
      "id": 217,
      "content": "<|reserved_special_token_212|>",
      "single_word": false,
      "lstrip": false,
      "rstrip": false,
      "normalized": false,
      "special": true
    },
    {
      "id": 218,
      "content": "<|reserved_special_token_213|>",
      "single_word": false,
      "lstrip": false,
      "rstrip": false,
      "normalized": false,
      "special": true
    },
    {
      "id": 219,
      "content": "<|reserved_special_token_214|>",
      "single_word": false,
      "lstrip": false,
      "rstrip": false,
      "normalized": false,
      "special": true
    },
    {
      "id": 220,
      "content": "<|reserved_special_token_215|>",
      "single_word": false,
      "lstrip": false,
      "rstrip": false,
      "normalized": false,
      "special": true
    },
    {
      "id": 221,
      "content": "<|reserved_special_token_216|>",
      "single_word": false,
      "lstrip": false,
      "rstrip": false,
      "normalized": false,
      "special": true
    },
    {
      "id": 222,
      "content": "<|reserved_special_token_217|>",
      "single_word": false,
      "lstrip": false,
      "rstrip": false,
      "normalized": false,
      "special": true
    },
    {
      "id": 223,
      "content": "<|reserved_special_token_218|>",
      "single_word": false,
      "lstrip": false,
      "rstrip": false,
      "normalized": false,
      "special": true
    },
    {
      "id": 224,
      "content": "<|reserved_special_token_219|>",
      "single_word": false,
      "lstrip": false,
      "rstrip": false,
      "normalized": false,
      "special": true
    },
    {
      "id": 225,
      "content": "<|reserved_special_token_220|>",
      "single_word": false,
      "lstrip": false,
      "rstrip": false,
      "normalized": false,
      "special": true
    },
    {
      "id": 226,
      "content": "<|reserved_special_token_221|>",
      "single_word": false,
      "lstrip": false,
      "rstrip": false,
      "normalized": false,
      "special": true
    },
    {
      "id": 227,
      "content": "<|reserved_special_token_222|>",
      "single_word": false,
      "lstrip": false,
      "rstrip": false,
      "normalized": false,
      "special": true
    },
    {
      "id": 228,
      "content": "<|reserved_special_token_223|>",
      "single_word": false,
      "lstrip": false,
      "rstrip": false,
      "normalized": false,
      "special": true
    },
    {
      "id": 229,
      "content": "<|reserved_special_token_224|>",
      "single_word": false,
      "lstrip": false,
      "rstrip": false,
      "normalized": false,
      "special": true
    },
    {
      "id": 230,
      "content": "<|reserved_special_token_225|>",
      "single_word": false,
      "lstrip": false,
      "rstrip": false,
      "normalized": false,
      "special": true
    },
    {
      "id": 231,
      "content": "<|reserved_special_token_226|>",
      "single_word": false,
      "lstrip": false,
      "rstrip": false,
      "normalized": false,
      "special": true
    },
    {
      "id": 232,
      "content": "<|reserved_special_token_227|>",
      "single_word": false,
      "lstrip": false,
      "rstrip": false,
      "normalized": false,
      "special": true
    },
    {
      "id": 233,
      "content": "<|reserved_special_token_228|>",
      "single_word": false,
      "lstrip": false,
      "rstrip": false,
      "normalized": false,
      "special": true
    },
    {
      "id": 234,
      "content": "<|reserved_special_token_229|>",
      "single_word": false,
      "lstrip": false,
      "rstrip": false,
      "normalized": false,
      "special": true
    },
    {
      "id": 235,
      "content": "<|reserved_special_token_230|>",
      "single_word": false,
      "lstrip": false,
      "rstrip": false,
      "normalized": false,
      "special": true
    },
    {
      "id": 236,
      "content": "<|reserved_special_token_231|>",
      "single_word": false,
      "lstrip": false,
      "rstrip": false,
      "normalized": false,
      "special": true
    },
    {
      "id": 237,
      "content": "<|reserved_special_token_232|>",
      "single_word": false,
      "lstrip": false,
      "rstrip": false,
      "normalized": false,
      "special": true
    },
    {
      "id": 238,
      "content": "<|reserved_special_token_233|>",
      "single_word": false,
      "lstrip": false,
      "rstrip": false,
      "normalized": false,
      "special": true
    },
    {
      "id": 239,
      "content": "<|reserved_special_token_234|>",
      "single_word": false,
      "lstrip": false,
      "rstrip": false,
      "normalized": false,
      "special": true
    },
    {
      "id": 240,
      "content": "<|reserved_special_token_235|>",
      "single_word": false,
      "lstrip": false,
      "rstrip": false,
      "normalized": false,
      "special": true
    },
    {
      "id": 241,
      "content": "<|reserved_special_token_236|>",
      "single_word": false,
      "lstrip": false,
      "rstrip": false,
      "normalized": false,
      "special": true
    },
    {
      "id": 242,
      "content": "<|reserved_special_token_237|>",
      "single_word": false,
      "lstrip": false,
      "rstrip": false,
      "normalized": false,
      "special": true
    },
    {
      "id": 243,
      "content": "<|reserved_special_token_238|>",
      "single_word": false,
      "lstrip": false,
      "rstrip": false,
      "normalized": false,
      "special": true
    },
    {
      "id": 244,
      "content": "<|reserved_special_token_239|>",
      "single_word": false,
      "lstrip": false,
      "rstrip": false,
      "normalized": false,
      "special": true
    },
    {
      "id": 245,
      "content": "<|reserved_special_token_240|>",
      "single_word": false,
      "lstrip": false,
      "rstrip": false,
      "normalized": false,
      "special": true
    },
    {
      "id": 246,
      "content": "<|reserved_special_token_241|>",
      "single_word": false,
      "lstrip": false,
      "rstrip": false,
      "normalized": false,
      "special": true
    },
    {
      "id": 247,
      "content": "<|reserved_special_token_242|>",
      "single_word": false,
      "lstrip": false,
      "rstrip": false,
      "normalized": false,
      "special": true
    },
    {
      "id": 248,
      "content": "<|reserved_special_token_243|>",
      "single_word": false,
      "lstrip": false,
      "rstrip": false,
      "normalized": false,
      "special": true
    },
    {
      "id": 249,
      "content": "<|reserved_special_token_244|>",
      "single_word": false,
      "lstrip": false,
      "rstrip": false,
      "normalized": false,
      "special": true
    },
    {
      "id": 250,
      "content": "<|reserved_special_token_245|>",
      "single_word": false,
      "lstrip": false,
      "rstrip": false,
      "normalized": false,
      "special": true
    },
    {
      "id": 251,
      "content": "<|reserved_special_token_246|>",
      "single_word": false,
      "lstrip": false,
      "rstrip": false,
      "normalized": false,
      "special": true
    },
    {
      "id": 252,
      "content": "<|reserved_special_token_247|>",
      "single_word": false,
      "lstrip": false,
      "rstrip": false,
      "normalized": false,
      "special": true
    },
    {
      "id": 253,
      "content": "<|reserved_special_token_248|>",
      "single_word": false,
      "lstrip": false,
      "rstrip": false,
      "normalized": false,
      "special": true
    },
    {
      "id": 254,
      "content": "<|reserved_special_token_249|>",
      "single_word": false,
      "lstrip": false,
      "rstrip": false,
      "normalized": false,
      "special": true
    },
    {
      "id": 255,
      "content": "<|reserved_special_token_250|>",
      "single_word": false,
      "lstrip": false,
      "rstrip": false,
      "normalized": false,
      "special": true
    }
  ],
  "normalizer": null,
  "pre_tokenizer": {
    "type": "Sequence",
    "pretokenizers": [
      {
        "type": "Split",
        "pattern": {
          "Regex": "(?i:'s|'t|'re|'ve|'m|'ll|'d)|[^\\r\\n\\p{L}\\p{N}]?\\p{L}+|\\p{N}{1,3}| ?[^\\s\\p{L}\\p{N}]+[\\r\\n]*|\\s*[\\r\\n]+|\\s+(?!\\S)|\\s+"
        },
        "behavior": "Isolated",
        "invert": false
      },
      {
        "type": "ByteLevel",
        "add_prefix_space": false,
        "trim_offsets": true,
        "use_regex": false
      }
    ]
  },
  "post_processor": {
    "type": "Sequence",
    "processors": [
      {
        "type": "ByteLevel",
        "add_prefix_space": true,
        "trim_offsets": false,
        "use_regex": true
      },
      {
        "type": "TemplateProcessing",
        "single": [
          {
            "SpecialToken": {
              "id": "<|begin_of_text|>",
              "type_id": 0
            }
          },
          {
            "Sequence": {
              "id": "A",
              "type_id": 0
            }
          }
        ],
        "pair": [
          {
            "SpecialToken": {
              "id": "<|begin_of_text|>",
              "type_id": 0
            }
          },
          {
            "Sequence": {
              "id": "A",
              "type_id": 0
            }
          },
          {
            "SpecialToken": {
              "id": "<|begin_of_text|>",
              "type_id": 1
            }
          },
          {
            "Sequence": {
              "id": "B",
              "type_id": 1
            }
          }
        ],
        "special_tokens": {
          "<|begin_of_text|>": {
            "id": "<|begin_of_text|>",
            "ids": [
              128000
            ],
            "tokens": [
              "<|begin_of_text|>"
            ]
          }
        }
      }
    ]
  },
  "decoder": {
    "type": "ByteLevel",
    "add_prefix_space": true,
    "trim_offsets": true,
    "use_regex": true
  },
  "model": {
    "type": "BPE",
    "dropout": null,
    "unk_token": null,
    "continuing_subword_prefix": null,
    "end_of_word_suffix": null,
    "fuse_unk": false,
    "byte_fallback": false,
    "ignore_merges": true,
    "vocab": {
      "<|begin_of_text|>": 0,
      "<|end_of_text|>": 1,
      "<|reserved_special_token_0|>": 2,
      "<|reserved_special_token_1|>": 3,
      "<|reserved_special_token_2|>": 4,
      "<|reserved_special_token_3|>": 5,
      "<|start_header_id|>": 6,
      "<|end_header_id|>": 7,
      "<|reserved_special_token_4|>": 8,
      "<|eot_id|>": 9,
      "<|reserved_special_token_5|>": 10,
      "<|reserved_special_token_6|>": 11,
      "<|reserved_special_token_7|>": 12,
      "<|reserved_special_token_8|>": 13,
      "<|reserved_special_token_9|>": 14,
      "<|reserved_special_token_10|>": 15,
      "<|reserved_special_token_11|>": 16,
      "<|reserved_special_token_12|>": 17,
      "<|reserved_special_token_13|>": 18,
      "<|reserved_special_token_14|>": 19,
      "<|reserved_special_token_15|>": 20,
      "<|reserved_special_token_16|>": 21,
      "<|reserved_special_token_17|>": 22,
      "<|reserved_special_token_18|>": 23,
      "<|reserved_special_token_19|>": 24,
      "<|reserved_special_token_20|>": 25,
      "<|reserved_special_token_21|>": 26,
      "<|reserved_special_token_22|>": 27,
      "<|reserved_special_token_23|>": 28,
      "<|reserved_special_token_24|>": 29,
      "<|reserved_special_token_25|>": 30,
      "<|reserved_special_token_26|>": 31,
      "<|reserved_special_token_27|>": 32,
      "<|reserved_special_token_28|>": 33,
      "<|reserved_special_token_29|>": 34,
      "<|reserved_special_token_30|>": 35,
      "<|reserved_special_token_31|>": 36,
      "<|reserved_special_token_32|>": 37,
      "<|reserved_special_token_33|>": 38,
      "<|reserved_special_token_34|>": 39,
      "<|reserved_special_token_35|>": 40,
      "<|reserved_special_token_36|>": 41,
      "<|reserved_special_token_37|>": 42,
      "<|reserved_special_token_38|>": 43,
      "<|reserved_special_token_39|>": 44,
      "<|reserved_special_token_40|>": 45,
      "<|reserved_special_token_41|>": 46,
      "<|reserved_special_token_42|>": 47,
      "<|reserved_special_token_43|>": 48,
      "<|reserved_special_token_44|>": 49,
      "<|reserved_special_token_45|>": 50,
      "<|reserved_special_token_46|>": 51,
      "<|reserved_special_token_47|>": 52,
      "<|reserved_special_token_48|>": 53,
      "<|reserved_special_token_49|>": 54,
      "<|reserved_special_token_50|>": 55,
      "<|reserved_special_token_51|>": 56,
      "<|reserved_special_token_52|>": 57,
      "<|reserved_special_token_53|>": 58,
      "<|reserved_special_token_54|>": 59,
      "<|reserved_special_token_55|>": 60,
      "<|reserved_special_token_56|>": 61,
      "<|reserved_special_token_57|>": 62,
      "<|reserved_special_token_58|>": 63,
      "<|reserved_special_token_59|>": 64,
      "<|reserved_special_token_60|>": 65,
      "<|reserved_special_token_61|>": 66,
      "<|reserved_special_token_62|>": 67,
      "<|reserved_special_token_63|>": 68,
      "<|reserved_special_token_64|>": 69,
      "<|reserved_special_token_65|>": 70,
      "<|reserved_special_token_66|>": 71,
      "<|reserved_special_token_67|>": 72,
      "<|reserved_special_token_68|>": 73,
      "<|reserved_special_token_69|>": 74,
      "<|reserved_special_token_70|>": 75,
      "<|reserved_special_token_71|>": 76,
      "<|reserved_special_token_72|>": 77,
      "<|reserved_special_token_73|>": 78,
      "<|reserved_special_token_74|>": 79,
      "<|reserved_special_token_75|>": 80,
      "<|reserved_special_token_76|>": 81,
      "<|reserved_special_token_77|>": 82,
      "<|reserved_special_token_78|>": 83,
      "<|reserved_special_token_79|>": 84,
      "<|reserved_special_token_80|>": 85,
      "<|reserved_special_token_81|>": 86,
      "<|reserved_special_token_82|>": 87,
      "<|reserved_special_token_83|>": 88,
      "<|reserved_special_token_84|>": 89,
      "<|reserved_special_token_85|>": 90,
      "<|reserved_special_token_86|>": 91,
      "<|reserved_special_token_87|>": 92,
      "<|reserved_special_token_88|>": 93,
      "<|reserved_special_token_89|>": 94,
      "<|reserved_special_token_90|>": 95,
      "<|reserved_special_token_91|>": 96,
      "<|reserved_special_token_92|>": 97,
      "<|reserved_special_token_93|>": 98,
      "<|reserved_special_token_94|>": 99,
      "<|reserved_special_token_95|>": 100,
      "<|reserved_special_token_96|>": 101,
      "<|reserved_special_token_97|>": 102,
      "<|reserved_special_token_98|>": 103,
      "<|reserved_special_token_99|>": 104,
      "<|reserved_special_token_100|>": 105,
      "<|reserved_special_token_101|>": 106,
      "<|reserved_special_token_102|>": 107,
      "<|reserved_special_token_103|>": 108,
      "<|reserved_special_token_104|>": 109,
      "<|reserved_special_token_105|>": 110,
      "<|reserved_special_token_106|>": 111,
      "<|reserved_special_token_107|>": 112,
      "<|reserved_special_token_108|>": 113,
      "<|reserved_special_token_109|>": 114,
      "<|reserved_special_token_110|>": 115,
      "<|reserved_special_token_111|>": 116,
      "<|reserved_special_token_112|>": 117,
      "<|reserved_special_token_113|>": 118,
      "<|reserved_special_token_114|>": 119,
      "<|reserved_special_token_115|>": 120,
      "<|reserved_special_token_116|>": 121,
      "<|reserved_special_token_117|>": 122,
      "<|reserved_special_token_118|>": 123,
      "<|reserved_special_token_119|>": 124,
      "<|reserved_special_token_120|>": 125,
      "<|reserved_special_token_121|>": 126,
      "<|reserved_special_token_122|>": 127,
      "<|reserved_special_token_123|>": 128,
      "<|reserved_special_token_124|>": 129,
      "<|reserved_special_token_125|>": 130,
      "<|reserved_special_token_126|>": 131,
      "<|reserved_special_token_127|>": 132,
      "<|reserved_special_token_128|>": 133,
      "<|reserved_special_token_129|>": 134,
      "<|reserved_special_token_130|>": 135,
      "<|reserved_special_token_131|>": 136,
      "<|reserved_special_token_132|>": 137,
      "<|reserved_special_token_133|>": 138,
      "<|reserved_special_token_134|>": 139,
      "<|reserved_special_token_135|>": 140,
      "<|reserved_special_token_136|>": 141,
      "<|reserved_special_token_137|>": 142,
      "<|reserved_special_token_138|>": 143,
      "<|reserved_special_token_139|>": 144,
      "<|reserved_special_token_140|>": 145,
      "<|reserved_special_token_141|>": 146,
      "<|reserved_special_token_142|>": 147,
      "<|reserved_special_token_143|>": 148,
      "<|reserved_special_token_144|>": 149,
      "<|reserved_special_token_145|>": 150,
      "<|reserved_special_token_146|>": 151,
      "<|reserved_special_token_147|>": 152,
      "<|reserved_special_token_148|>": 153,
      "<|reserved_special_token_149|>": 154,
      "<|reserved_special_token_150|>": 155,
      "<|reserved_special_token_151|>": 156,
      "<|reserved_special_token_152|>": 157,
      "<|reserved_special_token_153|>": 158,
      "<|reserved_special_token_154|>": 159,
      "<|reserved_special_token_155|>": 160,
      "<|reserved_special_token_156|>": 161,
      "<|reserved_special_token_157|>": 162,
      "<|reserved_special_token_158|>": 163,
      "<|reserved_special_token_159|>": 164,
      "<|reserved_special_token_160|>": 165,
      "<|reserved_special_token_161|>": 166,
      "<|reserved_special_token_162|>": 167,
      "<|reserved_special_token_163|>": 168,
      "<|reserved_special_token_164|>": 169,
      "<|reserved_special_token_165|>": 170,
      "<|reserved_special_token_166|>": 171,
      "<|reserved_special_token_167|>": 172,
      "<|reserved_special_token_168|>": 173,
      "<|reserved_special_token_169|>": 174,
      "<|reserved_special_token_170|>": 175,
      "<|reserved_special_token_171|>": 176,
      "<|reserved_special_token_172|>": 177,
      "<|reserved_special_token_173|>": 178,
      "<|reserved_special_token_174|>": 179,
      "<|reserved_special_token_175|>": 180,
      "<|reserved_special_token_176|>": 181,
      "<|reserved_special_token_177|>": 182,
      "<|reserved_special_token_178|>": 183,
      "<|reserved_special_token_179|>": 184,
      "<|reserved_special_token_180|>": 185,
      "<|reserved_special_token_181|>": 186,
      "<|reserved_special_token_182|>": 187,
      "<|reserved_special_token_183|>": 188,
      "<|reserved_special_token_184|>": 189,
      "<|reserved_special_token_185|>": 190,
      "<|reserved_special_token_186|>": 191,
      "<|reserved_special_token_187|>": 192,
      "<|reserved_special_token_188|>": 193,
      "<|reserved_special_token_189|>": 194,
      "<|reserved_special_token_190|>": 195,
      "<|reserved_special_token_191|>": 196,
      "<|reserved_special_token_192|>": 197,
      "<|reserved_special_token_193|>": 198,
      "<|reserved_special_token_194|>": 199,
      "<|reserved_special_token_195|>": 200,
      "<|reserved_special_token_196|>": 201,
      "<|reserved_special_token_197|>": 202,
      "<|reserved_special_token_198|>": 203,
      "<|reserved_special_token_199|>": 204,
      "<|reserved_special_token_200|>": 205,
      "<|reserved_special_token_201|>": 206,
      "<|reserved_special_token_202|>": 207,
      "<|reserved_special_token_203|>": 208,
      "<|reserved_special_token_204|>": 209,
      "<|reserved_special_token_205|>": 210,
      "<|reserved_special_token_206|>": 211,
      "<|reserved_special_token_207|>": 212,
      "<|reserved_special_token_208|>": 213,
      "<|reserved_special_token_209|>": 214,
      "<|reserved_special_token_210|>": 215,
      "<|reserved_special_token_211|>": 216,
      "<|reserved_special_token_212|>": 217,
      "<|reserved_special_token_213|>": 218,
      "<|reserved_special_token_214|>": 219,
      "<|reserved_special_token_215|>": 220,
      "<|reserved_special_token_216|>": 221,
      "<|reserved_special_token_217|>": 222,
      "<|reserved_special_token_218|>": 223,
      "<|reserved_special_token_219|>": 224,
      "<|reserved_special_token_220|>": 225,
      "<|reserved_special_token_221|>": 226,
      "<|reserved_special_token_222|>": 227,
      "<|reserved_special_token_223|>": 228,
      "<|reserved_special_token_224|>": 229,
      "<|reserved_special_token_225|>": 230,
      "<|reserved_special_token_226|>": 231,
      "<|reserved_special_token_227|>": 232,
      "<|reserved_special_token_228|>": 233,
      "<|reserved_special_token_229|>": 234,
      "<|reserved_special_token_230|>": 235,
      "<|reserved_special_token_231|>": 236,
      "<|reserved_special_token_232|>": 237,
      "<|reserved_special_token_233|>": 238,
      "<|reserved_special_token_234|>": 239,
      "<|reserved_special_token_235|>": 240,
      "<|reserved_special_token_236|>": 241,
      "<|reserved_special_token_237|>": 242,
      "<|reserved_special_token_238|>": 243,
      "<|reserved_special_token_239|>": 244,
      "<|reserved_special_token_240|>": 245,
      "<|reserved_special_token_241|>": 246,
      "<|reserved_special_token_242|>": 247,
      "<|reserved_special_token_243|>": 248,
      "<|reserved_special_token_244|>": 249,
      "<|reserved_special_token_245|>": 250,
      "<|reserved_special_token_246|>": 251,
      "<|reserved_special_token_247|>": 252,
      "<|reserved_special_token_248|>": 253,
      "<|reserved_special_token_249|>": 254,
      "<|reserved_special_token_250|>": 255,
      "!": 256,
      "\"": 257,
      "#": 258,
      "$": 259,
      "%": 260,
      "&": 261,
      "'": 262,
      "(": 263,
      ")": 264,
      "*": 265,
      "+": 266,
      ",": 267,
      "-": 268,
      ".": 269,
      "/": 270,
      "0": 271,
      "1": 272,
      "2": 273,
      "3": 274,
      "4": 275,
      "5": 276,
      "6": 277,
      "7": 278,
      "8": 279,
      "9": 280,
      ":": 281,
      ";": 282,
      "<": 283,
      "=": 284,
      ">": 285,
      "?": 286,
      "@": 287,
      "A": 288,
      "B": 289,
      "C": 290,
      "D": 291,
      "E": 292,
      "F": 293,
      "G": 294,
      "H": 295,
      "I": 296,
      "J": 297,
      "K": 298,
      "L": 299,
      "M": 300,
      "N": 301,
      "O": 302,
      "P": 303,
      "Q": 304,
      "R": 305,
      "S": 306,
      "T": 307,
      "U": 308,
      "V": 309,
      "W": 310,
      "X": 311,
      "Y": 312,
      "Z": 313,
      "[": 314,
      "\\": 315,
      "]": 316,
      "^": 317,
      "_": 318,
      "`": 319,
      "a": 320,
      "b": 321,
      "c": 322,
      "d": 323,
      "e": 324,
      "f": 325,
      "g": 326,
      "h": 327,
      "i": 328,
      "j": 329,
      "k": 330,
      "l": 331,
      "m": 332,
      "n": 333,
      "o": 334,
      "p": 335,
      "q": 336,
      "r": 337,
      "s": 338,
      "t": 339,
      "u": 340,
      "v": 341,
      "w": 342,
      "x": 343,
      "y": 344,
      "z": 345,
      "{": 346,
      "|": 347,
      "}": 348,
      "~": 349,
      "¡": 350,
      "¢": 351,
      "£": 352,
      "¤": 353,
      "¥": 354,
      "¦": 355,
      "§": 356,
      "¨": 357,
      "©": 358,
      "ª": 359,
      "«": 360,
      "¬": 361,
      "®": 362,
      "¯": 363,
      "°": 364,
      "±": 365,
      "²": 366,
      "³": 367,
      "´": 368,
      "µ": 369,
      "¶": 370,
      "·": 371,
      "¸": 372,
      "¹": 373,
      "º": 374,
      "»": 375,
      "¼": 376,
      "½": 377,
      "¾": 378,
      "¿": 379,
      "Â": 380,
      "Ã": 381,
      "Ä": 382,
      "Å": 383,
      "Æ": 384,
      "Ç": 385,
      "È": 386,
      "É": 387,
      "Ê": 388,
      "Ë": 389,
      "Ì": 390,
      "Í": 391,
      "Î": 392,
      "Ï": 393,
      "Ð": 394,
      "Ñ": 395,
      "Ò": 396,
      "Ó": 397,
      "Ô": 398,
      "Õ": 399,
      "Ö": 400,
      "×": 401,
      "Ø": 402,
      "Ù": 403,
      "Ú": 404,
      "Û": 405,
      "Ü": 406,
      "Ý": 407,
      "Þ": 408,
      "ß": 409,
      "à": 410,
      "á": 411,
      "â": 412,
      "ã": 413,
      "ä": 414,
      "å": 415,
      "æ": 416,
      "ç": 417,
      "è": 418,
      "é": 419,
      "ê": 420,
      "ë": 421,
      "ì": 422,
      "í": 423,
      "î": 424,
      "ï": 425,
      "ð": 426,
      "ó": 427,
      "ô": 428,
      "ĉ": 429,
      "Ċ": 430,
      "Ġ": 431,
      "Ģ": 432,
      "ģ": 433,
      "Ĥ": 434,
      "ĥ": 435,
      "Ħ": 436,
      "ħ": 437,
      "Ĩ": 438,
      "ĩ": 439,
      "Ī": 440,
      "ī": 441,
      "Ĭ": 442,
      "ĭ": 443,
      "Į": 444,
      "į": 445,
      "İ": 446,
      "ı": 447,
      "Ĳ": 448,
      "ĳ": 449,
      "Ĵ": 450,
      "ĵ": 451,
      "Ķ": 452,
      "ķ": 453,
      "ĸ": 454,
      "Ĺ": 455,
      "ĺ": 456,
      "Ļ": 457,
      "ļ": 458,
      "Ľ": 459,
      "ľ": 460,
      "Ŀ": 461,
      "ŀ": 462,
      "Ł": 463,
      "ł": 464,
      "Ń": 465,
      "Ġt": 466,
      "he": 467,
      "in": 468,
      "Ġa": 469,
      "er": 470,
      "on": 471,
      "Ġthe": 472,
      "re": 473,
      "an": 474,
      "or": 475,
      "en": 476,
      "at": 477,
      "ed": 478,
      "Ġo": 479,
      "st": 480,
      "al": 481,
      "Ġw": 482,
      "ar": 483,
      "it": 484,
      "Ġof": 485,
      "nd": 486,
      "Ġin": 487,
      "Ġs": 488,
      "es": 489,
      "Ġf": 490,
      "is": 491,
      "Ġc": 492,
      "Ġb": 493,
      "ic": 494,
      "Ġp": 495,
      "ing": 496,
      "Ġand": 497,
      "as": 498,
      "ion": 499,
      "ro": 500,
      "le": 501,
      "ĠS": 502,
      "ĊĊ": 503,
      "Ġto": 504,
      "Ġm": 505,
      "Ġd": 506,
      "ĠC": 507,
      "ou": 508,
      "ĠA": 509,
      "il": 510,
      "ent": 511,
      "Ġh": 512,
      "ĠT": 513,
      "am": 514,
      "ĠM": 515,
      "om": 516,
      "el": 517,
      "ol": 518,
      "Ġre": 519,
      "Ġ(": 520,
      "ct": 521,
      "ĠB": 522,
      "Ġl": 523,
      "19": 524,
      "ad": 525,
      "ĠP": 526,
      "ur": 527,
      ".ĊĊ": 528,
      "et": 529,
      "ch": 530,
      "iv": 531,
      "ers": 532,
      "ĠH": 533,
      "ation": 534,
      "Ġwas": 535,
      "Ġn": 536,
      "Ġe": 537,
      "ig": 538,
      "ĠI": 539,
      "20": 540,
      "ir": 541,
      "id": 542,
      "ot": 543,
      "Ġth": 544,
      "ĠR": 545,
      "us": 546,
      "ce": 547,
      "Ġfor": 548,
      "Ġon": 549,
      "ay": 550,
      "ĠD": 551,
      "ly": 552,
      "im": 553,
      "ĠL": 554,
      "ist": 555,
      "ut": 556,
      "ĠF": 557,
      "Ġis": 558,
      "ra": 559,
      "Ġg": 560,
      "ĠG": 561,
      "Ġas": 562,
      "ow": 563,
      "em": 564,
      "ĠN": 565,
      "un": 566,
      "ĠThe": 567,
      "th": 568,
      "ĠW": 569,
      "ith": 570,
      "Ġbe": 571,
      "and": 572,
      "Ġst": 573,
      "her": 574,
      "ter": 575,
      "ul": 576,
      "âĢ": 577,
      "ĠJ": 578,
      "Ġwith": 579,
      "ĠE": 580,
      "Ġby": 581,
      "Ġal": 582,
      "ag": 583,
      "um": 584,
      "os": 585,
      "rom": 586,
      "op": 587,
      "ac": 588,
      "ver": 589,
      "'s": 590,
      "Ġat": 591,
      "ri": 592,
      "Ġwh": 593,
      "ĠO": 594,
      "Ġan": 595,
      "oc": 596,
      "Ġde": 597,
      "Ġcon": 598,
      "ian": 599,
      "Ġfrom": 600,
      "Ġhe": 601,
      "âĢĵ": 602,
      "ĠK": 603,
      "ia": 604,
      "Ġv": 605,
      "ain": 606,
      "ber": 607,
      "Ġthat": 608,
      "all": 609,
      "ity": 610,
      "od": 611,
      "res": 612,
      "ies": 613,
      "est": 614,
      "Ġ\"": 615,
      "ĠU": 616,
      "av": 617,
      "art": 618,
      "Ġcom": 619,
      "ab": 620,
      "if": 621,
      "ate": 622,
      "Ġpro": 623,
      "ill": 624,
      "201": 625,
      "up": 626,
      "ew": 627,
      "ort": 628,
      "Ġse": 629,
      "ard": 630,
      "ud": 631,
      "pe": 632,
      "ces": 633,
      "ĠSt": 634,
      "Ġpl": 635,
      "200": 636,
      "Ġit": 637,
      "ak": 638,
      "ub": 639,
      "igh": 640,
      "ip": 641,
      "Ġhis": 642,
      "se": 643,
      "ore": 644,
      "ich": 645,
      "ov": 646,
      "ast": 647,
      "nt": 648,
      "Ġor": 649,
      "ld": 650,
      "ap": 651,
      "qu": 652,
      "ated": 653,
      "ant": 654,
      "ary": 655,
      "ment": 656,
      "ish": 657,
      "ĠCh": 658,
      "ĠIn": 659,
      "The": 660,
      "ge": 661,
      "fer": 662,
      "mer": 663,
      "ive": 664,
      "Ġr": 665,
      "ĠV": 666,
      "og": 667,
      "our": 668,
      "ong": 669,
      "ial": 670,
      "ug": 671,
      "18": 672,
      "Ġ|": 673,
      "Ġch": 674,
      "Ġare": 675,
      "end": 676,
      "ine": 677,
      "ĠĊ": 678,
      "und": 679,
      "Ġex": 680,
      "ks": 681,
      "ere": 682,
      "ell": 683,
      ")Ċ": 684,
      "ust": 685,
      "ear": 686,
      "ep": 687,
      "ction": 688,
      "ame": 689,
      "ord": 690,
      "so": 691,
      "ire": 692,
      "Ġ||": 693,
      "Ġwere": 694,
      "uc": 695,
      "ure": 696,
      "ran": 697,
      "ight": 698,
      "ical": 699,
      "Ġle": 700,
      "ost": 701,
      "ie": 702,
      "ue": 703,
      "),": 704,
      "ign": 705,
      "ĠHe": 706,
      "Ġwhich": 707,
      "Ġalso": 708,
      "ĠUn": 709,
      "are": 710,
      "ess": 711,
      "ric": 712,
      "Ġcomp": 713,
      "cl": 714,
      "Ġsh": 715,
      "ther": 716,
      "rit": 717,
      "199": 718,
      "Ġplay": 719,
      "Ġy": 720,
      "Ġk": 721,
      "ff": 722,
      "ry": 723,
      "ass": 724,
      "age": 725,
      "irst": 726,
      "man": 727,
      "port": 728,
      "feren": 729,
      "ĠâĢĵ": 730,
      "ount": 731,
      "ition": 732,
      "ous": 733,
      "Re": 734,
      "Ġun": 735,
      ".Ċ": 736,
      "ork": 737,
      "te": 738,
      "iz": 739,
      "ack": 740,
      "ts": 741,
      "Ġar": 742,
      "erv": 743,
      "ond": 744,
      "ational": 745,
      "Ġcl": 746,
      "Ġhad": 747,
      "ide": 748,
      "hed": 749,
      "Ġte": 750,
      "ĠY": 751,
      "per": 752,
      "tern": 753,
      "ok": 754,
      "land": 755,
      "ang": 756,
      "ory": 757,
      "ations": 758,
      "ican": 759,
      "ice": 760,
      "Ġnot": 761,
      "Ġhas": 762,
      "ne": 763,
      "pl": 764,
      "Ġfirst": 765,
      "ng": 766,
      "ave": 767,
      "00": 768,
      "own": 769,
      "ferences": 770,
      "ome": 771,
      "fter": 772,
      "ĠIt": 773,
      "Ġwhe": 774,
      "Ġro": 775,
      "ib": 776,
      "ater": 777,
      "orn": 778,
      "amp": 779,
      "Ġcont": 780,
      "References": 781,
      "198": 782,
      "Ġus": 783,
      "ens": 784,
      "wo": 785,
      "ach": 786,
      "ĠAl": 787,
      "ph": 788,
      "ite": 789,
      "In": 790,
      "ĠTh": 791,
      "Ġad": 792,
      "ree": 793,
      "ates": 794,
      "ions": 795,
      "ult": 796,
      "ilm": 797,
      "Ġpart": 798,
      "ople": 799,
      "ited": 800,
      "ime": 801,
      "Ġwho": 802,
      "Ġtheir": 803,
      "ru": 804,
      "Ġint": 805,
      "Ġap": 806,
      "ĠAr": 807,
      "Ġres": 808,
      "Ġj": 809,
      "aw": 810,
      "Ġits": 811,
      "ound": 812,
      "Ġher": 813,
      "ember": 814,
      "ath": 815,
      "ool": 816,
      "ubl": 817,
      "ke": 818,
      "ĠRe": 819,
      "merican": 820,
      "ĠMar": 821,
      "ivers": 822,
      "out": 823,
      "pt": 824,
      "over": 825,
      "ace": 826,
      "ild": 827,
      "Ġab": 828,
      "ors": 829,
      "iss": 830,
      "Ġbut": 831,
      "eople": 832,
      "clud": 833,
      "oll": 834,
      "Ġac": 835,
      "197": 836,
      "Ġyear": 837,
      "Ġone": 838,
      "inal": 839,
      "ĠLe": 840,
      "ile": 841,
      "ball": 842,
      "ugh": 843,
      "old": 844,
      "Ġ-": 845,
      "ade": 846,
      "ould": 847,
      "Ġper": 848,
      "Ġrec": 849,
      "ual": 850,
      "ĠNew": 851,
      "ress": 852,
      "Ġag": 853,
      "for": 854,
      "oot": 855,
      "ents": 856,
      "ence": 857,
      "Ġman": 858,
      "hip": 859,
      "wn": 860,
      "uring": 861,
      "Ġsc": 862,
      "les": 863,
      "act": 864,
      "ward": 865,
      "oy": 866,
      "Ġtwo": 867,
      "Ġhave": 868,
      "Ġinclud": 869,
      "oin": 870,
      "Ġbec": 871,
      "ons": 872,
      "chool": 873,
      "ss": 874,
      "ased": 875,
      "ect": 876,
      "Ġdes": 877,
      "io": 878,
      "Ġthis": 879,
      "Ġen": 880,
      "Ġall": 881,
      "vel": 882,
      "ĠDe": 883,
      "ob": 884,
      "we": 885,
      "one": 886,
      "ied": 887,
      "ern": 888,
      "196": 889,
      "ings": 890,
      "ail": 891,
      "ark": 892,
      "ĠCom": 893,
      "ase": 894,
      "Ġfilm": 895,
      "Ġcomm": 896,
      "Ġbeen": 897,
      "ind": 898,
      "ĠĊĊ": 899,
      "gh": 900,
      "Ġother": 901,
      "urn": 902,
      "ics": 903,
      "ee": 904,
      "ted": 905,
      "outh": 906,
      "ĠĠ": 907,
      "Ġdis": 908,
      "Ġafter": 909,
      "uch": 910,
      "Ġim": 911,
      "ely": 912,
      "ft": 913,
      "ral": 914,
      "gan": 915,
      "able": 916,
      "17": 917,
      "ished": 918,
      "red": 919,
      "oh": 920,
      "Ġoff": 921,
      "ah": 922,
      "ton": 923,
      "ec": 924,
      "Ġsp": 925,
      "ury": 926,
      "ren": 927,
      "cted": 928,
      "iversity": 929,
      "ance": 930,
      "Ġlin": 931,
      "Ġup": 932,
      "Ġout": 933,
      "orld": 934,
      "ood": 935,
      "ĠAmerican": 936,
      "ision": 937,
      "Ġover": 938,
      "Ġserv": 939,
      "Ġra": 940,
      "pec": 941,
      "Ġpeople": 942,
      "ont": 943,
      "Ġshe": 944,
      "eb": 945,
      "194": 946,
      "olog": 947,
      "rib": 948,
      "ram": 949,
      "way": 950,
      "Ġev": 951,
      "Ġnew": 952,
      "Ġund": 953,
      "du": 954,
      "Ġloc": 955,
      "Ġthey": 956,
      "ans": 957,
      "Ex": 958,
      "195": 959,
      "ale": 960,
      "Ġne": 961,
      "olle": 962,
      "cess": 963,
      "cent": 964,
      "Ġinto": 965,
      "Ġwork": 966,
      "10": 967,
      "ames": 968,
      "Ġele": 969,
      "ough": 970,
      "ason": 971,
      "Âł": 972,
      "Ġtra": 973,
      "ists": 974,
      "Ġgro": 975,
      "eral": 976,
      "orth": 977,
      "ĠSh": 978,
      "Ġpre": 979,
      "Ġact": 980,
      "che": 981,
      "ose": 982,
      "ternal": 983,
      "Ġatt": 984,
      "ootball": 985,
      ").": 986,
      "ĠUnited": 987,
      "Ġcan": 988,
      "Ã©": 989,
      "ake": 990,
      "ict": 991,
      "Ġtime": 992,
      "rans": 993,
      "az": 994,
      "Ġsec": 995,
      "Ġbu": 996,
      "rough": 997,
      "ily": 998,
      "iel": 999,
      "Ġunder": 1000,
      "ick": 1001,
      "vi": 1002,
      "duc": 1003,
      "16": 1004,
      "ix": 1005,
      "ĠZ": 1006,
      "ve": 1007,
      "ĠInd": 1008,
      "ĠUniversity": 1009,
      "ll": 1010,
      "ik": 1011,
      "Ġpol": 1012,
      "ince": 1013,
      "Ġlinks": 1014,
      "als": 1015,
      "rad": 1016,
      "oci": 1017,
      "oth": 1018,
      "Ġkn": 1019,
      "ife": 1020,
      "pr": 1021,
      "15": 1022,
      "form": 1023,
      "Ġpubl": 1024,
      "Ġreg": 1025,
      "External": 1026,
      "ident": 1027,
      "oun": 1028,
      "ĠPro": 1029,
      "Ġhim": 1030,
      "eat": 1031,
      "Ġbet": 1032,
      "Ġteam": 1033,
      "ins": 1034,
      "reat": 1035,
      "aj": 1036,
      "ities": 1037,
      "use": 1038,
      "ier": 1039,
      "inn": 1040,
      "Ġpr": 1041,
      "Ġplayers": 1042,
      "ouse": 1043,
      "ck": 1044,
      "emb": 1045,
      "193": 1046,
      "ina": 1047,
      "Ġwhen": 1048,
      "ann": 1049,
      "Ġwould": 1050,
      "ars": 1051,
      "ollow": 1052,
      "Ġmore": 1053,
      "att": 1054,
      "usic": 1055,
      "Ġcent": 1056,
      "Ġyears": 1057,
      "Ġest": 1058,
      "ober": 1059,
      "ative": 1060,
      "Ġcons": 1061,
      "ween": 1062,
      "ĠâĢ": 1063,
      "Ġop": 1064,
      "Ġco": 1065,
      "Ġind": 1066,
      "overn": 1067,
      "eries": 1068,
      "Ġagain": 1069,
      "iving": 1070,
      "ular": 1071,
      "resent": 1072,
      "raph": 1073,
      "Ġduring": 1074,
      "ced": 1075,
      "Ġbo": 1076,
      "Ġret": 1077,
      "Ġform": 1078,
      "Ġstud": 1079,
      "Ġwhere": 1080,
      "Ġsub": 1081,
      "der": 1082,
      "bum": 1083,
      "round": 1084,
      "abl": 1085,
      "air": 1086,
      "Ġass": 1087,
      "12": 1088,
      "ĠSc": 1089,
      "ĠCl": 1090,
      "any": 1091,
      "Ġsup": 1092,
      "Ġqu": 1093,
      "ĠStates": 1094,
      "Ġgen": 1095,
      "ĠEng": 1096,
      "ĠAn": 1097,
      "ock": 1098,
      "Ġme": 1099,
      "ohn": 1100,
      "Ġonly": 1101,
      "enn": 1102,
      "Ġfound": 1103,
      "arl": 1104,
      "Ġfl": 1105,
      "ional": 1106,
      "Ġsy": 1107,
      "ash": 1108,
      "Ġrel": 1109,
      "Ġrele": 1110,
      "Ġbetween": 1111,
      "Ġfam": 1112,
      "iam": 1113,
      "pro": 1114,
      "Ġbir": 1115,
      "Ġspec": 1116,
      "ĠShe": 1117,
      "ounty": 1118,
      "Ġfootball": 1119,
      "192": 1120,
      "Ġmost": 1121,
      "erman": 1122,
      "ific": 1123,
      "istory": 1124,
      "cc": 1125,
      "Ġinter": 1126,
      "Ġed": 1127,
      "Ġabout": 1128,
      "ague": 1129,
      "istric": 1130,
      "Ġart": 1131,
      "Ġthree": 1132,
      "fore": 1133,
      "ley": 1134,
      "ex": 1135,
      "ths": 1136,
      "Ġseason": 1137,
      "ctor": 1138,
      "Ġthrough": 1139,
      "Ġrem": 1140,
      "ield": 1141,
      "ating": 1142,
      "202": 1143,
      "Ġmade": 1144,
      "Ġalbum": 1145,
      "iver": 1146,
      "191": 1147,
      "ron": 1148,
      "ĠAs": 1149,
      "Ġnum": 1150,
      "Ġlater": 1151,
      "Ġused": 1152,
      "Ġend": 1153,
      "Ġfollow": 1154,
      "Ġthem": 1155,
      "Ġsing": 1156,
      "inist": 1157,
      "Ġthere": 1158,
      "ever": 1159,
      "Ġwrit": 1160,
      "erson": 1161,
      "Ġmov": 1162,
      "mp": 1163,
      "ograph": 1164,
      "ĠIs": 1165,
      "une": 1166,
      "ank": 1167,
      "ower": 1168,
      "Ġthen": 1169,
      "erm": 1170,
      "ept": 1171,
      "velop": 1172,
      "Ġsecond": 1173,
      ".\"": 1174,
      "ten": 1175,
      "14": 1176,
      "son": 1177,
      "ived": 1178,
      "arg": 1179,
      "Ġso": 1180,
      "13": 1181,
      "hen": 1182,
      "ĠFran": 1183,
      "Ġdef": 1184,
      "Ġpop": 1185,
      "ures": 1186,
      "ĠQ": 1187,
      "uss": 1188,
      "ĠThis": 1189,
      "ines": 1190,
      "arly": 1191,
      "ject": 1192,
      "ĠSp": 1193,
      "Ġdire": 1194,
      "oss": 1195,
      "omen": 1196,
      "Ġtrans": 1197,
      "Ġschool": 1198,
      "ement": 1199,
      "ari": 1200,
      "ert": 1201,
      "Ġrecord": 1202,
      "Ġinv": 1203,
      "ĠWar": 1204,
      "Ġsuch": 1205,
      "ĠWorld": 1206,
      "ĠComm": 1207,
      "Ġknown": 1208,
      "ĠJohn": 1209,
      "ism": 1210,
      "Ġmed": 1211,
      "ĠAust": 1212,
      "istrict": 1213,
      "ys": 1214,
      "ĠNational": 1215,
      "Ġset": 1216,
      "Ġent": 1217,
      "Ġthan": 1218,
      "Ġbecame": 1219,
      "\",": 1220,
      "stit": 1221,
      "uro": 1222,
      "ĠJan": 1223,
      "ĠMay": 1224,
      "Ġph": 1225,
      "Ġprov": 1226,
      "ai": 1227,
      "its": 1228,
      "cy": 1229,
      "ural": 1230,
      "Ġinc": 1231,
      "Ġam": 1232,
      "ĠCon": 1233,
      "ĠCounty": 1234,
      "Ġestabl": 1235,
      "ĠPh": 1236,
      "ĠFor": 1237,
      "ĠBl": 1238,
      "Ġsome": 1239,
      "ments": 1240,
      "ternational": 1241,
      "|-": 1242,
      "Ġ&": 1243,
      "ax": 1244,
      "Ġbl": 1245,
      "pos": 1246,
      "ĠBrit": 1247,
      "urch": 1248,
      "ise": 1249,
      "Ġfour": 1250,
      "els": 1251,
      "Ġbeing": 1252,
      "Ġseries": 1253,
      "Ġlead": 1254,
      "Ġcall": 1255,
      "ĠSchool": 1256,
      "ute": 1257,
      "ays": 1258,
      "eth": 1259,
      "Ġdo": 1260,
      "Ġwell": 1261,
      "other": 1262,
      "Ġgroup": 1263,
      "ĠCan": 1264,
      "ĠOn": 1265,
      "ĠAt": 1266,
      "ey": 1267,
      "ty": 1268,
      "Ġincluding": 1269,
      "ike": 1270,
      "let": 1271,
      "ĠPl": 1272,
      "stem": 1273,
      "Ġsong": 1274,
      "Ġappe": 1275,
      "arri": 1276,
      "com": 1277,
      "very": 1278,
      "Ġagainst": 1279,
      "ĠSouth": 1280,
      ")ĊĊ": 1281,
      "ctions": 1282,
      "ampions": 1283,
      "Ġdeath": 1284,
      "ĠJu": 1285,
      "ĠYork": 1286,
      "uary": 1287,
      "ather": 1288,
      "ĠGerman": 1289,
      "ven": 1290,
      "ians": 1291,
      "ĠNov": 1292,
      "rist": 1293,
      "rid": 1294,
      "ull": 1295,
      "arn": 1296,
      "ĠAd": 1297,
      "ugust": 1298,
      "ae": 1299,
      "ution": 1300,
      "areer": 1301,
      "my": 1302,
      "ĠWest": 1303,
      "ered": 1304,
      "til": 1305,
      "ired": 1306,
      "amed": 1307,
      "eptember": 1308,
      "Ġadd": 1309,
      "ives": 1310,
      "Ġsur": 1311,
      "Ġbefore": 1312,
      "by": 1313,
      "Ġrece": 1314,
      "11": 1315,
      "Ġwhile": 1316,
      "190": 1317,
      "Ġdevelop": 1318,
      "ology": 1319,
      "Ġshow": 1320,
      "born": 1321,
      "Ġbro": 1322,
      "overnment": 1323,
      "ĠOr": 1324,
      "ctober": 1325,
      "Ġoper": 1326,
      "Ġsign": 1327,
      "elf": 1328,
      "=\"": 1329,
      "Ġmay": 1330,
      "Ġmod": 1331,
      "Ġpolit": 1332,
      "Ġmany": 1333,
      "owever": 1334,
      "Ġoffic": 1335,
      "aid": 1336,
      "Ġno": 1337,
      "Ġown": 1338,
      "Ġbuild": 1339,
      "Ġcap": 1340,
      "-s": 1341,
      "Ġmusic": 1342,
      "ized": 1343,
      "Ġgo": 1344,
      "Ġhigh": 1345,
      "ĠAugust": 1346,
      "Ġfamily": 1347,
      "Ġdec": 1348,
      "ues": 1349,
      "Ġmain": 1350,
      "ica": 1351,
      "Ġuntil": 1352,
      "lev": 1353,
      "ĠSeptember": 1354,
      "Ġorig": 1355,
      "au": 1356,
      "Ġnumber": 1357,
      "ĠCent": 1358,
      "rand": 1359,
      "Ġchar": 1360,
      "ets": 1361,
      "Ġbirths": 1362,
      "Ġboth": 1363,
      "ĠMarch": 1364,
      "ery": 1365,
      "Ġrep": 1366,
      "lish": 1367,
      "ollege": 1368,
      "fess": 1369,
      "embers": 1370,
      "eng": 1371,
      "istor": 1372,
      "Ġcre": 1373,
      "mber": 1374,
      "ient": 1375,
      "uth": 1376,
      "pril": 1377,
      "ott": 1378,
      "ef": 1379,
      "Ġname": 1380,
      "oman": 1381,
      "ĠOctober": 1382,
      "ris": 1383,
      "Ġmon": 1384,
      "ĠGe": 1385,
      "ved": 1386,
      "gram": 1387,
      "itt": 1388,
      "Ġback": 1389,
      "Ġplayed": 1390,
      "ĠAustral": 1391,
      "ĠJanuary": 1392,
      "xt": 1393,
      "ants": 1394,
      "Ġem": 1395,
      "wards": 1396,
      "ple": 1397,
      "ĠâĢĶ": 1398,
      "stru": 1399,
      "Ġexp": 1400,
      "ĠJune": 1401,
      "arm": 1402,
      "cember": 1403,
      "ital": 1404,
      "ained": 1405,
      "ĠWh": 1406,
      "Ġreleased": 1407,
      "ulation": 1408,
      "Ġsever": 1409,
      "ĠMan": 1410,
      "ĠTe": 1411,
      "Ġgu": 1412,
      "Ch": 1413,
      "ission": 1414,
      "ajor": 1415,
      "21": 1416,
      "Ġdesign": 1417,
      "ĠJuly": 1418,
      "000": 1419,
      "ium": 1420,
      "ior": 1421,
      "25": 1422,
      "30": 1423,
      "isc": 1424,
      "Ġcount": 1425,
      "yl": 1426,
      "imes": 1427,
      "ampionship": 1428,
      "ross": 1429,
      "Ġarea": 1430,
      "ĠApril": 1431,
      "ages": 1432,
      "Ġdif": 1433,
      "por": 1434,
      "ĠNorth": 1435,
      "ract": 1436,
      "Ġformer": 1437,
      "ĠPr": 1438,
      "ĠAss": 1439,
      "ĠBritish": 1440,
      "eg": 1441,
      "ĠLeague": 1442,
      "Ġfeat": 1443,
      "duced": 1444,
      "Ġmat": 1445,
      "ĠEuro": 1446,
      "Ġdesc": 1447,
      "ared": 1448,
      "ret": 1449,
      "Ġwon": 1450,
      "Ġstart": 1451,
      "ĠNovember": 1452,
      "Ġorgan": 1453,
      "vent": 1454,
      "Ġprodu": 1455,
      "Ġann": 1456,
      "ird": 1457,
      "See": 1458,
      "icip": 1459,
      "-cent": 1460,
      "olor": 1461,
      "fl": 1462,
      "ĠCity": 1463,
      "Ġsystem": 1464,
      "Ġopen": 1465,
      "ĠGu": 1466,
      "led": 1467,
      "Ġlife": 1468,
      "resident": 1469,
      "ĠCo": 1470,
      "Ġrun": 1471,
      "rop": 1472,
      "Ġclass": 1473,
      "St": 1474,
      "ually": 1475,
      "ĠPol": 1476,
      "ety": 1477,
      "ĠDecember": 1478,
      "Ġsm": 1479,
      "American": 1480,
      "ket": 1481,
      "Ġext": 1482,
      "Ġacc": 1483,
      "hes": 1484,
      "cept": 1485,
      "ports": 1486,
      "Ġfilms": 1487,
      "Ġob": 1488,
      "\".": 1489,
      "Ġstate": 1490,
      "ography": 1491,
      "ause": 1492,
      "arch": 1493,
      "Ġwill": 1494,
      "ĠEd": 1495,
      "Ġgame": 1496,
      "Ġpublic": 1497,
      "Ġlong": 1498,
      "..": 1499,
      "ĠState": 1500,
      "apan": 1501,
      "ĠRep": 1502,
      "On": 1503,
      "ĠCal": 1504,
      "Ġcalled": 1505,
      "levision": 1506,
      "ilt": 1507,
      "ebru": 1508,
      "ebruary": 1509,
      "ung": 1510,
      "-century": 1511,
      "ĠII": 1512,
      "anc": 1513,
      "ales": 1514,
      "ĠBo": 1515,
      "rent": 1516,
      "ove": 1517,
      "Ġdr": 1518,
      "Ġsame": 1519,
      "ĠAll": 1520,
      "inc": 1521,
      "con": 1522,
      "ĠCar": 1523,
      "ĠKing": 1524,
      "yle": 1525,
      "ner": 1526,
      "ĠReg": 1527,
      "amb": 1528,
      "ility": 1529,
      "Ġcommun": 1530,
      "Ġdep": 1531,
      "ilit": 1532,
      "ĠBro": 1533,
      "189": 1534,
      "aking": 1535,
      "ĠCanad": 1536,
      "Ġseveral": 1537,
      "view": 1538,
      "ĠWill": 1539,
      "ĠAf": 1540,
      "Ġcity": 1541,
      "Ġchild": 1542,
      "af": 1543,
      "rat": 1544,
      "Ġreturn": 1545,
      "Ġfinal": 1546,
      "Ġfin": 1547,
      "ĠSe": 1548,
      "yn": 1549,
      "oint": 1550,
      "ony": 1551,
      "Ġair": 1552,
      "ange": 1553,
      "chn": 1554,
      "Ġsuc": 1555,
      "Ġcareer": 1556,
      "ible": 1557,
      "rench": 1558,
      "right": 1559,
      "Ġfollowing": 1560,
      "ially": 1561,
      "orks": 1562,
      "Ġearly": 1563,
      "ured": 1564,
      "ped": 1565,
      "Ġcontin": 1566,
      "Ġtown": 1567,
      ").ĊĊ": 1568,
      "the": 1569,
      "ful": 1570,
      "sh": 1571,
      "ĠBe": 1572,
      "Ġ'": 1573,
      "Ġlist": 1574,
      "ĠFebruary": 1575,
      "ices": 1576,
      "ains": 1577,
      "ally": 1578,
      "Ã¡": 1579,
      "Ġmin": 1580,
      "Ġcur": 1581,
      "ster": 1582,
      "reen": 1583,
      "ĠEurope": 1584,
      "ĠAm": 1585,
      "ring": 1586,
      "Ġbel": 1587,
      "Ġsince": 1588,
      "bo": 1589,
      "ience": 1590,
      "ata": 1591,
      "Ġoriginal": 1592,
      "Ġprogram": 1593,
      "Ġnear": 1594,
      "ised": 1595,
      "Ġcompet": 1596,
      "24": 1597,
      "ham": 1598,
      "Ġdisc": 1599,
      "Ġany": 1600,
      "âĢĻ": 1601,
      "angu": 1602,
      "ĠĠĠĠ": 1603,
      "ese": 1604,
      "ble": 1605,
      "ĠFl": 1606,
      "ided": 1607,
      "ued": 1608,
      "Ġthese": 1609,
      "orm": 1610,
      "ival": 1611,
      "ended": 1612,
      "Ġhead": 1613,
      "ille": 1614,
      "sp": 1615,
      "Ġplace": 1616,
      "ze": 1617,
      "ane": 1618,
      "Ġwomen": 1619,
      "Ġnamed": 1620,
      "Ġbased": 1621,
      "Ġclub": 1622,
      "Ġbegan": 1623,
      "Ġwe": 1624,
      "ĠPar": 1625,
      "ĠThey": 1626,
      "Ġvill": 1627,
      "Ġcomple": 1628,
      "Ġuse": 1629,
      "Ġtit": 1630,
      "Ġland": 1631,
      "Ġeff": 1632,
      "ious": 1633,
      "Ġprom": 1634,
      "Ġsupport": 1635,
      "aint": 1636,
      "Ġmet": 1637,
      "Ġmembers": 1638,
      ".S": 1639,
      "ĠUS": 1640,
      "ĠBar": 1641,
      "iness": 1642,
      "Ġapp": 1643,
      "ality": 1644,
      "Ġmember": 1645,
      "-l": 1646,
      "Ġeng": 1647,
      "Ġgovernment": 1648,
      "Ġdist": 1649,
      "Ġheld": 1650,
      "Ġestablished": 1651,
      "augh": 1652,
      "ically": 1653,
      "ĠGeor": 1654,
      "Ġpass": 1655,
      "ivision": 1656,
      "pect": 1657,
      "Ġalong": 1658,
      "ĠHis": 1659,
      "ĠJapan": 1660,
      "itions": 1661,
      "ounc": 1662,
      "ĠChrist": 1663,
      "Ġdescrib": 1664,
      "ĠAfter": 1665,
      "188": 1666,
      "Ġlocated": 1667,
      "tt": 1668,
      "-d": 1669,
      "me": 1670,
      "urg": 1671,
      "Ġcharact": 1672,
      "ien": 1673,
      "ĠAnd": 1674,
      "ĠHar": 1675,
      "ana": 1676,
      "Ġdid": 1677,
      "Ġocc": 1678,
      ":ĊĊ": 1679,
      "ode": 1680,
      "Ġeach": 1681,
      "ĠSw": 1682,
      "alth": 1683,
      "Ġlaw": 1684,
      "ford": 1685,
      "Ġsim": 1686,
      "ondon": 1687,
      "ino": 1688,
      "Ġyou": 1689,
      "ky": 1690,
      "ĠCol": 1691,
      "row": 1692,
      "ĠEnglish": 1693,
      "ĠEl": 1694,
      "aced": 1695,
      "ator": 1696,
      "ĠMc": 1697,
      "ĠGen": 1698,
      "Ġband": 1699,
      "ney": 1700,
      "ĠPart": 1701,
      "ublic": 1702,
      "ĠEx": 1703,
      "lymp": 1704,
      "ington": 1705,
      "Ġpos": 1706,
      "He": 1707,
      "ociation": 1708,
      "ĠCollege": 1709,
      "Ġtr": 1710,
      "ĠAir": 1711,
      "que": 1712,
      "uk": 1713,
      "ches": 1714,
      "ĠEast": 1715,
      "23": 1716,
      "ats": 1717,
      "Ġinst": 1718,
      "ored": 1719,
      "erg": 1720,
      "ourn": 1721,
      "Ġbus": 1722,
      "ined": 1723,
      "ĠAfric": 1724,
      "aving": 1725,
      "Ġstation": 1726,
      "Ġmajor": 1727,
      "Ġtook": 1728,
      "ett": 1729,
      "Ġsmall": 1730,
      "rew": 1731,
      "ĠChampionship": 1732,
      "Ġline": 1733,
      "Ġhouse": 1734,
      "eter": 1735,
      "med": 1736,
      "Ġhome": 1737,
      "ourt": 1738,
      "ards": 1739,
      "ights": 1740,
      "ĠAb": 1741,
      "illion": 1742,
      "Ġnational": 1743,
      "ĠRo": 1744,
      "ps": 1745,
      "aces": 1746,
      "Ġcompany": 1747,
      "adem": 1748,
      "Ġsl": 1749,
      "Ġpopulation": 1750,
      "Ġworld": 1751,
      "Ġperson": 1752,
      "Ġvari": 1753,
      "int": 1754,
      "aul": 1755,
      "Ġserved": 1756,
      "22": 1757,
      "Th": 1758,
      "ĠLondon": 1759,
      "Ġbas": 1760,
      "Ġlocal": 1761,
      "Ġgeneral": 1762,
      "Ġgames": 1763,
      "-b": 1764,
      "Ġalign": 1765,
      "Ġvers": 1766,
      "-t": 1767,
      "ĠFrench": 1768,
      "Ġborn": 1769,
      "Ġleg": 1770,
      "ature": 1771,
      "Ġcentury": 1772,
      "arge": 1773,
      "ĠDistrict": 1774,
      "ĠX": 1775,
      "ĠMed": 1776,
      "Ġvi": 1777,
      "Ġpublished": 1778,
      "ĠWilliam": 1779,
      "Ġtelevision": 1780,
      "Ġcould": 1781,
      "Ġappro": 1782,
      "Ġevent": 1783,
      "iet": 1784,
      "Ġbuilt": 1785,
      "Ġsuccess": 1786,
      "Ġprofess": 1787,
      "Ġ$": 1788,
      "Ġreceived": 1789,
      "ĠRuss": 1790,
      "ffic": 1791,
      "Ġmanag": 1792,
      "ĠHigh": 1793,
      "Ġjoin": 1794,
      "ilitary": 1795,
      "Ġdeb": 1796,
      "186": 1797,
      "Ġpo": 1798,
      "Ġsingle": 1799,
      "Ġstr": 1800,
      "vers": 1801,
      "50": 1802,
      "ara": 1803,
      "Ġterm": 1804,
      "ief": 1805,
      "ides": 1806,
      "ĠSy": 1807,
      "Ġaround": 1808,
      "Ġcolle": 1809,
      "rol": 1810,
      "ĠHer": 1811,
      "Al": 1812,
      "ately": 1813,
      "26": 1814,
      "ows": 1815,
      "ummer": 1816,
      "-f": 1817,
      "ified": 1818,
      "ords": 1819,
      "Ġold": 1820,
      "Living": 1821,
      "ording": 1822,
      "Ġdue": 1823,
      "uthor": 1824,
      "187": 1825,
      "omin": 1826,
      "Ġnow": 1827,
      "Ġhel": 1828,
      "27": 1829,
      "ouncil": 1830,
      "ĠCup": 1831,
      "arried": 1832,
      "ĠComp": 1833,
      "28": 1834,
      "Ġeduc": 1835,
      "Ġspecies": 1836,
      "ev": 1837,
      "side": 1838,
      "Ġlast": 1839,
      "aus": 1840,
      "ocial": 1841,
      "Ġty": 1842,
      "ration": 1843,
      "umn": 1844,
      "Ġage": 1845,
      "ĠSec": 1846,
      "ĠItal": 1847,
      "Ġpresent": 1848,
      "ling": 1849,
      "Ġep": 1850,
      "iod": 1851,
      "Ġleft": 1852,
      "Ã³": 1853,
      "idd": 1854,
      "raft": 1855,
      "Ġhistory": 1856,
      "aim": 1857,
      "oph": 1858,
      "reet": 1859,
      "ĠHowever": 1860,
      "\"Ċ": 1861,
      "Ġcar": 1862,
      "ization": 1863,
      "ĠHouse": 1864,
      "ĠDav": 1865,
      "Ġsix": 1866,
      "Ġcamp": 1867,
      "co": 1868,
      "artment": 1869,
      "Ġla": 1870,
      "ĠArt": 1871,
      "ĠPark": 1872,
      "Ġrest": 1873,
      "ĠAng": 1874,
      "ĠCor": 1875,
      "color": 1876,
      "Ġplayer": 1877,
      "Ġorder": 1878,
      "Ġdet": 1879,
      ":Ċ": 1880,
      "tal": 1881,
      "umb": 1882,
      "van": 1883,
      "ink": 1884,
      "Ġpar": 1885,
      "Ġtop": 1886,
      "ele": 1887,
      "ĠSup": 1888,
      "uf": 1889,
      "iven": 1890,
      "akes": 1891,
      "Ġnorth": 1892,
      "Ġwithin": 1893,
      "Ġsaid": 1894,
      "Ġrepresent": 1895,
      "People": 1896,
      "Ġshort": 1897,
      "ones": 1898,
      "Ġ.": 1899,
      "Ġtri": 1900,
      "Ġinclude": 1901,
      "ĠRes": 1902,
      "ideo": 1903,
      "Ġdied": 1904,
      "ĠLa": 1905,
      "ether": 1906,
      "anguage": 1907,
      "ĠPhil": 1908,
      "Ġvillage": 1909,
      "Ġfive": 1910,
      "Ġday": 1911,
      "oks": 1912,
      "100": 1913,
      "Ġdiffer": 1914,
      "hem": 1915,
      "ently": 1916,
      "Ġ,": 1917,
      "ison": 1918,
      "Ġstyle": 1919,
      "Un": 1920,
      "Ġcol": 1921,
      "urther": 1922,
      "Ġbecause": 1923,
      "ĠMe": 1924,
      "Ġrequ": 1925,
      "though": 1926,
      "ĠInternational": 1927,
      "ĠNo": 1928,
      "alk": 1929,
      "ĠRiver": 1930,
      "iforn": 1931,
      "aster": 1932,
      "Ġdescribed": 1933,
      "urs": 1934,
      "ument": 1935,
      "Ġdown": 1936,
      "ler": 1937,
      "na": 1938,
      "ĠGl": 1939,
      "oyal": 1940,
      "ene": 1941,
      "Ġref": 1942,
      "ĠIndian": 1943,
      "Ġbuilding": 1944,
      "Ġlarge": 1945,
      "Ġmen": 1946,
      "Ġthird": 1947,
      "Ġpost": 1948,
      "Ġincluded": 1949,
      "Ġconsid": 1950,
      "29": 1951,
      "ĠTr": 1952,
      "sc": 1953,
      "ote": 1954,
      "Ġchildren": 1955,
      "reg": 1956,
      "ifornia": 1957,
      ".,": 1958,
      "Ġpower": 1959,
      "ively": 1960,
      "ference": 1961,
      "Ġstand": 1962,
      "rest": 1963,
      "ridge": 1964,
      "ĠOlymp": 1965,
      "ÃŃ": 1966,
      "Ã¼": 1967,
      "Ġresult": 1968,
      "tain": 1969,
      "Ġmark": 1970,
      "ald": 1971,
      "Ġadm": 1972,
      "Ġdem": 1973,
      "Ġreport": 1974,
      "ĠAc": 1975,
      "ĠEngland": 1976,
      "Ġsouth": 1977,
      "vious": 1978,
      "riend": 1979,
      "ĠEn": 1980,
      "conom": 1981,
      "osp": 1982,
      "Ġson": 1983,
      "ĠSan": 1984,
      "ĠRec": 1985,
      "ody": 1986,
      "adio": 1987,
      "key": 1988,
      "Ġlo": 1989,
      "ico": 1990,
      "era": 1991,
      "uman": 1992,
      "cture": 1993,
      "Ġbook": 1994,
      "useum": 1995,
      "Ġcor": 1996,
      "uck": 1997,
      "Ġlarg": 1998,
      "rag": 1999,
      "ĠDep": 2000,
      "inning": 2001,
      "iter": 2002,
      "lands": 2003,
      "ining": 2004,
      "History": 2005,
      "ency": 2006,
      "ox": 2007,
      "Ġcurrent": 2008,
      "Ġstat": 2009,
      "ka": 2010,
      "Ġarch": 2011,
      "ĠMich": 2012,
      "ĠThere": 2013,
      "ister": 2014,
      "ĠCalifornia": 2015,
      "Ġdistrict": 2016,
      "ĠBr": 2017,
      "Ġappear": 2018,
      "Ġfac": 2019,
      "Ġdeaths": 2020,
      "ched": 2021,
      "Ġwater": 2022,
      "gcolor": 2023,
      "Ġnon": 2024,
      "Ġiss": 2025,
      "Ġdifferent": 2026,
      "ĠAustralia": 2027,
      "ness": 2028,
      "Ġperiod": 2029,
      "Ġcrit": 2030,
      "alf": 2031,
      "Ġjust": 2032,
      "Ġservice": 2033,
      "ĠSch": 2034,
      "Ġrepl": 2035,
      "Ġvis": 2036,
      "hel": 2037,
      "Ġperform": 2038,
      "ociety": 2039,
      "eek": 2040,
      "ki": 2041,
      "ground": 2042,
      "Ġrefer": 2043,
      "Ġincre": 2044,
      "Ġaddition": 2045,
      "otes": 2046,
      "Ar": 2047,
      "Ġresp": 2048,
      "Ġannoun": 2049,
      "Ġwar": 2050,
      "ize": 2051,
      "Ġlike": 2052,
      "ĠAg": 2053,
      "ering": 2054,
      "omb": 2055,
      "Ġkill": 2056,
      "Ġequ": 2057,
      "Ġtrad": 2058,
      "Ġmale": 2059,
      "Ġif": 2060,
      "cer": 2061,
      "ours": 2062,
      "of": 2063,
      "ĠYou": 2064,
      "ense": 2065,
      "avy": 2066,
      "bert": 2067,
      "Ġthose": 2068,
      "Ġstill": 2069,
      "ribut": 2070,
      "oon": 2071,
      "Ġship": 2072,
      "Ġbgcolor": 2073,
      "Ġfield": 2074,
      "Ġanother": 2075,
      "Ġbusiness": 2076,
      "Ġmoved": 2077,
      "ves": 2078,
      "alt": 2079,
      "Ġcr": 2080,
      "185": 2081,
      "ĠAward": 2082,
      "par": 2083,
      "ama": 2084,
      "ĠParty": 2085,
      "Ġexper": 2086,
      "Ġhand": 2087,
      "ament": 2088,
      "ases": 2089,
      "ander": 2090,
      "hern": 2091,
      "Ġwest": 2092,
      "Ġled": 2093,
      "ĠArmy": 2094,
      "epend": 2095,
      "ops": 2096,
      "Ġhistor": 2097,
      "Ġbest": 2098,
      "40": 2099,
      "Ġav": 2100,
      "Ġcompos": 2101,
      "ivil": 2102,
      "ĠGro": 2103,
      "Ġvery": 2104,
      "Ġfather": 2105,
      "ĠPer": 2106,
      "Ġauthor": 2107,
      "Ġport": 2108,
      "Ġcharacter": 2109,
      "Ġproject": 2110,
      "Ġcountry": 2111,
      "ugg": 2112,
      "Ġactiv": 2113,
      "Ġel": 2114,
      "Ġdel": 2115,
      ".\"ĊĊ": 2116,
      "dom": 2117,
      "Ġsold": 2118,
      "struction": 2119,
      "Ġinternational": 2120,
      "uel": 2121,
      "Ġpat": 2122,
      "-w": 2123,
      "ĠAmer": 2124,
      "Ġeast": 2125,
      "ĠIndia": 2126,
      "ĠPort": 2127,
      "attle": 2128,
      "Ġnov": 2129,
      "ush": 2130,
      "Ġfem": 2131,
      "line": 2132,
      "ĠChurch": 2133,
      "read": 2134,
      "ole": 2135,
      "lin": 2136,
      "ries": 2137,
      "ĠMon": 2138,
      "Ġoften": 2139,
      "Ġmake": 2140,
      "Ġcult": 2141,
      "ms": 2142,
      "Ġtitle": 2143,
      "ript": 2144,
      "cast": 2145,
      "Ġside": 2146,
      "ĠFrance": 2147,
      "Ġround": 2148,
      "ĠMinist": 2149,
      "ael": 2150,
      "Ġlevel": 2151,
      "field": 2152,
      "Ġweb": 2153,
      "Ġestablish": 2154,
      "ĠRoman": 2155,
      "ius": 2156,
      "app": 2157,
      "Ġwin": 2158,
      "ournal": 2159,
      "ĠChar": 2160,
      "gin": 2161,
      "aff": 2162,
      "lex": 2163,
      "Ġdebut": 2164,
      "olution": 2165,
      "ĠSm": 2166,
      "Ġamong": 2167,
      "anish": 2168,
      "Ġmag": 2169,
      "orthern": 2170,
      "-y": 2171,
      "Ġspe": 2172,
      "Ġthough": 2173,
      "-c": 2174,
      "bor": 2175,
      "Ġread": 2176,
      "Ġaward": 2177,
      "Ġproduced": 2178,
      "âĢĶ": 2179,
      "Ġfe": 2180,
      "Ġprevious": 2181,
      "Ġsett": 2182,
      "Ġtechn": 2183,
      "Ġworks": 2184,
      "abor": 2185,
      "atch": 2186,
      "raw": 2187,
      "Com": 2188,
      "unicip": 2189,
      "Ġexpl": 2190,
      "itar": 2191,
      "Ġlate": 2192,
      "ories": 2193,
      "rem": 2194,
      "Ġeven": 2195,
      "Ġrole": 2196,
      "Ġaff": 2197,
      "ploy": 2198,
      "forman": 2199,
      "align": 2200,
      "ape": 2201,
      "-p": 2202,
      "ĠEm": 2203,
      "work": 2204,
      "Ġpolitic": 2205,
      "Ġannounced": 2206,
      "off": 2207,
      "Ġinvol": 2208,
      "rote": 2209,
      "-m": 2210,
      "Ġwritten": 2211,
      "irc": 2212,
      "Ġposs": 2213,
      "ĠQu": 2214,
      "ĠAnt": 2215,
      "ront": 2216,
      "Ġrese": 2217,
      "ĠBel": 2218,
      "Ġfore": 2219,
      "ĠĊĠĊ": 2220,
      "ĠAct": 2221,
      "ville": 2222,
      "Ġengine": 2223,
      "iber": 2224,
      "formation": 2225,
      "ĠCanada": 2226,
      "Ġepis": 2227,
      "Ġimport": 2228,
      "ĠNor": 2229,
      "|-Ċ": 2230,
      "stitute": 2231,
      "Ġes": 2232,
      "ĠDivision": 2233,
      "As": 2234,
      "iment": 2235,
      "rap": 2236,
      "ĠQue": 2237,
      "acks": 2238,
      "Ġallow": 2239,
      "ipp": 2240,
      "ĠCouncil": 2241,
      "Ġadv": 2242,
      "Ã¶": 2243,
      "Ġevery": 2244,
      "olic": 2245,
      "ĠRober": 2246,
      "rack": 2247,
      "Ġcame": 2248,
      "Ġmillion": 2249,
      "Ġyoung": 2250,
      "lect": 2251,
      "ges": 2252,
      "Ġeffect": 2253,
      "Ġgrad": 2254,
      "Ġelection": 2255,
      "ĠJames": 2256,
      "Ġstarted": 2257,
      "Ġval": 2258,
      "omet": 2259,
      "ivid": 2260,
      "Ġcreated": 2261,
      "ĠAmerica": 2262,
      "ĠAp": 2263,
      "Ġsite": 2264,
      "ĠGeneral": 2265,
      "day": 2266,
      "Ġofficial": 2267,
      "ray": 2268,
      "ĠRoyal": 2269,
      "ha": 2270,
      "Ġcover": 2271,
      "itor": 2272,
      "Ġclos": 2273,
      "Ġturn": 2274,
      "ean": 2275,
      "val": 2276,
      "ĠThom": 2277,
      "ĠPresident": 2278,
      "ban": 2279,
      "eal": 2280,
      "outher": 2281,
      "Ġstru": 2282,
      "Ġwhat": 2283,
      "âĢĻs": 2284,
      "ĠPal": 2285,
      "ĠOne": 2286,
      "ĠMor": 2287,
      "Ġtotal": 2288,
      "Ġgiven": 2289,
      "Ġcommunity": 2290,
      "Ġwent": 2291,
      "ĠBy": 2292,
      "Ġinit": 2293,
      "ĠVal": 2294,
      "gy": 2295,
      "eration": 2296,
      "ĠGeorge": 2297,
      "Ġmarried": 2298,
      "ults": 2299,
      "ĠBra": 2300,
      "outhern": 2301,
      "reek": 2302,
      "irl": 2303,
      "Ġchang": 2304,
      "An": 2305,
      "Ġmuch": 2306,
      "site": 2307,
      "\".ĊĊ": 2308,
      "Ġfre": 2309,
      "Ġdevelopment": 2310,
      "Ġprocess": 2311,
      "ĠMount": 2312,
      "ĠEuropean": 2313,
      "Ġelect": 2314,
      "ots": 2315,
      "ged": 2316,
      "ĠStreet": 2317,
      "Ġcommon": 2318,
      "iron": 2319,
      "Ġfact": 2320,
      "Ġconc": 2321,
      "Ġrail": 2322,
      "Ġpolitical": 2323,
      "Ġpe": 2324,
      "ago": 2325,
      "ya": 2326,
      "Ġsw": 2327,
      "atic": 2328,
      "184": 2329,
      "Ġversion": 2330,
      "Ġvarious": 2331,
      "ĠHol": 2332,
      "Ġconf": 2333,
      "-S": 2334,
      "umni": 2335,
      "posed": 2336,
      "erb": 2337,
      "Ġpres": 2338,
      "ij": 2339,
      "Ġbecome": 2340,
      "Ġspecial": 2341,
      "ston": 2342,
      "ĠLou": 2343,
      "ĠAssociation": 2344,
      "ological": 2345,
      "hers": 2346,
      "ĠMal": 2347,
      "oe": 2348,
      "ma": 2349,
      "ĠPaul": 2350,
      "Ġtw": 2351,
      "ĠRich": 2352,
      "ĠSen": 2353,
      "ointed": 2354,
      "Ġvideo": 2355,
      "Pl": 2356,
      "Ġusing": 2357,
      "self": 2358,
      "Ġprote": 2359,
      "BC": 2360,
      "itte": 2361,
      "Ġmilitary": 2362,
      "Ġbre": 2363,
      "ead": 2364,
      "Ġworked": 2365,
      ".C": 2366,
      "ream": 2367,
      "Ġjoined": 2368,
      "Ġproduction": 2369,
      "Ġhaving": 2370,
      "ĠGermany": 2371,
      "31": 2372,
      "Ġnext": 2373,
      "ached": 2374,
      "Ġclaim": 2375,
      "Ġintro": 2376,
      "ĠRed": 2377,
      "ĠDem": 2378,
      "Ġtem": 2379,
      "ogn": 2380,
      "Ġmiss": 2381,
      "ĠAustralian": 2382,
      "eh": 2383,
      "oor": 2384,
      "Ġdirect": 2385,
      "'t": 2386,
      "Ġsit": 2387,
      "Ġhost": 2388,
      "hib": 2389,
      "iction": 2390,
      "Ġpri": 2391,
      "=#": 2392,
      "Ġgl": 2393,
      "ests": 2394,
      "ĠUnion": 2395,
      "ination": 2396,
      "Ġprofessional": 2397,
      "Ġfun": 2398,
      "Ġfew": 2399,
      "Ġtake": 2400,
      "Ġsent": 2401,
      "flu": 2402,
      "ĠDes": 2403,
      "-M": 2404,
      "Ġprim": 2405,
      "ĠDavid": 2406,
      "ilar": 2407,
      "rain": 2408,
      "ĠDr": 2409,
      "ope": 2410,
      "Ġant": 2411,
      "Ġposition": 2412,
      "Ġpopular": 2413,
      "lo": 2414,
      "Ġreturned": 2415,
      "ittle": 2416,
      "ĠPe": 2417,
      "Ġvol": 2418,
      "Ġgr": 2419,
      "Ġbeh": 2420,
      "iography": 2421,
      "ming": 2422,
      "aken": 2423,
      "Ġmult": 2424,
      "Ġ[": 2425,
      "ividual": 2426,
      "=right": 2427,
      "ĠÃ": 2428,
      "Ġperforman": 2429,
      "Ġchurch": 2430,
      "Ġway": 2431,
      "arian": 2432,
      "Ġsongs": 2433,
      "ule": 2434,
      "ibr": 2435,
      "oints": 2436,
      "ĠStud": 2437,
      "Ġwrote": 2438,
      "Ġsol": 2439,
      "Ġstudents": 2440,
      "hold": 2441,
      "sequ": 2442,
      "ĠHall": 2443,
      "Ġevents": 2444,
      "ĠBer": 2445,
      "ashington": 2446,
      "Ġtimes": 2447,
      "Ġbeg": 2448,
      "han": 2449,
      "Ġhig": 2450,
      "to": 2451,
      "ida": 2452,
      "berg": 2453,
      "Ġmatch": 2454,
      "Ġopened": 2455,
      "ention": 2456,
      "âĢĿ": 2457,
      "Ġstory": 2458,
      "rian": 2459,
      "Ġneed": 2460,
      "ĠVir": 2461,
      "Ġsk": 2462,
      "Ġsqu": 2463,
      "CA": 2464,
      "After": 2465,
      "Ġimp": 2466,
      "icle": 2467,
      "iles": 2468,
      "stitut": 2469,
      "Ġpresident": 2470,
      "ning": 2471,
      "ĠAcadem": 2472,
      "ocrat": 2473,
      "Ġteams": 2474,
      "arliam": 2475,
      "Ġgreat": 2476,
      "ĠDuring": 2477,
      "Ġfriend": 2478,
      "unt": 2479,
      "ym": 2480,
      "ĠMart": 2481,
      "Ġalbums": 2482,
      "60": 2483,
      "itz": 2484,
      "ying": 2485,
      "Ġservices": 2486,
      "ccording": 2487,
      "Ġdirector": 2488,
      "ĠMary": 2489,
      "ested": 2490,
      "anies": 2491,
      "ĠChina": 2492,
      "ources": 2493,
      "ĠRoad": 2494,
      "atri": 2495,
      "rab": 2496,
      "cts": 2497,
      "Ġroad": 2498,
      "ecut": 2499,
      "Ġpract": 2500,
      "Ġparticip": 2501,
      "Ġwithout": 2502,
      "Ġhowever": 2503,
      "arliament": 2504,
      "wood": 2505,
      "aughter": 2506,
      "iddle": 2507,
      "ĠMusic": 2508,
      "ĠClub": 2509,
      "ĠHen": 2510,
      "aur": 2511,
      "Ġfull": 2512,
      "ances": 2513,
      "odes": 2514,
      "ĠMex": 2515,
      "ample": 2516,
      "ĠJos": 2517,
      "Ġattack": 2518,
      "183": 2519,
      "Ġadminist": 2520,
      "Ġsocial": 2521,
      "rated": 2522,
      "Ġsee": 2523,
      "Ġvoc": 2524,
      "ĠMag": 2525,
      "Ġbrother": 2526,
      "atter": 2527,
      "yd": 2528,
      "Ġter": 2529,
      "Ġbroad": 2530,
      "Ġregion": 2531,
      "ending": 2532,
      "ĠCompany": 2533,
      "aining": 2534,
      "Pro": 2535,
      "ship": 2536,
      "arent": 2537,
      "ators": 2538,
      "Ġhalf": 2539,
      "icular": 2540,
      "ĠTown": 2541,
      "Ġfootballers": 2542,
      "Ġattem": 2543,
      "acy": 2544,
      "aign": 2545,
      "Ġindust": 2546,
      "Ġcontrol": 2547,
      "ĠTex": 2548,
      "Ġcontinued": 2549,
      "ĠProv": 2550,
      "Ġcomb": 2551,
      "ills": 2552,
      "back": 2553,
      "Ġmid": 2554,
      "ketball": 2555,
      "ership": 2556,
      "Ġresearch": 2557,
      "ĠKingdom": 2558,
      "Ġinf": 2559,
      "ising": 2560,
      "ĠSociety": 2561,
      "ittee": 2562,
      "ani": 2563,
      "ĠHistor": 2564,
      "isl": 2565,
      "ĠLaw": 2566,
      "used": 2567,
      "burg": 2568,
      "ĠWhen": 2569,
      "Ġlost": 2570,
      "ĠThese": 2571,
      "craft": 2572,
      "Ġident": 2573,
      "Ġeconom": 2574,
      "ĠCourt": 2575,
      "Ġeducation": 2576,
      "ĠList": 2577,
      "ĠFirst": 2578,
      "Ġlim": 2579,
      "Ġdays": 2580,
      "uit": 2581,
      "ĠMy": 2582,
      "ĠIsland": 2583,
      "less": 2584,
      "ĠTur": 2585,
      "Ġright": 2586,
      "Ġproper": 2587,
      "ĠBlack": 2588,
      "Ġproduc": 2589,
      "Ġfounded": 2590,
      "estival": 2591,
      "ĠCenter": 2592,
      "ĠGames": 2593,
      "ification": 2594,
      "ĠWashington": 2595,
      "ĠPri": 2596,
      "apt": 2597,
      "ĠCanadian": 2598,
      "ĠNe": 2599,
      "Ġcompleted": 2600,
      "Ġrecorded": 2601,
      "Ġgroups": 2602,
      "mon": 2603,
      "ĠCath": 2604,
      "now": 2605,
      "Ġaver": 2606,
      "Ġpoint": 2607,
      "ini": 2608,
      "inese": 2609,
      "ĠSl": 2610,
      "Ġareas": 2611,
      "Ġparty": 2612,
      "west": 2613,
      "Ġinvest": 2614,
      "uff": 2615,
      "It": 2616,
      "men": 2617,
      "ĠOlympics": 2618,
      "ĠSummer": 2619,
      "Ġconsidered": 2620,
      "atural": 2621,
      "ĠRecords": 2622,
      "Ġkm": 2623,
      "Film": 2624,
      "Cl": 2625,
      "Ġreal": 2626,
      "Ġfind": 2627,
      "ways": 2628,
      "ĠGroup": 2629,
      "Ġwebsite": 2630,
      "Ġdirected": 2631,
      "ĠMad": 2632,
      "Ġconne": 2633,
      "Ġelected": 2634,
      "aper": 2635,
      "ishing": 2636,
      "ĠAfrican": 2637,
      "ĠâĢľ": 2638,
      "arth": 2639,
      "Ġwife": 2640,
      "ona": 2641,
      "ĠServ": 2642,
      "olit": 2643,
      "ĠSam": 2644,
      "Ġcoach": 2645,
      "Ġsimilar": 2646,
      "Ġappointed": 2647,
      "Ġbase": 2648,
      "Ġview": 2649,
      "icles": 2650,
      "Ġcaus": 2651,
      "aries": 2652,
      "ĠMiss": 2653,
      "oted": 2654,
      "Ġalumni": 2655,
      "rd": 2656,
      "ĠRobert": 2657,
      "ells": 2658,
      "center": 2659,
      "-year": 2660,
      "-h": 2661,
      "ĠRail": 2662,
      "asons": 2663,
      "ili": 2664,
      "Ġrelations": 2665,
      "etwork": 2666,
      "Ġpoints": 2667,
      "ĠDepartment": 2668,
      "ĠTra": 2669,
      "Ġfurther": 2670,
      "ensus": 2671,
      "ĠArch": 2672,
      "ĠPress": 2673,
      "Ġhold": 2674,
      "Ġindividual": 2675,
      "Ġtog": 2676,
      "-g": 2677,
      "Ġhon": 2678,
      "ĠWe": 2679,
      "ĠSte": 2680,
      "ĠInstitute": 2681,
      "Ġdeg": 2682,
      "ictor": 2683,
      "ĠGr": 2684,
      "Ġpriv": 2685,
      "idence": 2686,
      "Ġinflu": 2687,
      "Ġleague": 2688,
      "Ġrace": 2689,
      "Ġsigned": 2690,
      "Ġtogether": 2691,
      "ĠJapanese": 2692,
      "ĠAngel": 2693,
      "Ġren": 2694,
      "Ġreview": 2695,
      "ĠMuseum": 2696,
      "ellow": 2697,
      "Ġappeared": 2698,
      "ger": 2699,
      "Ġcoll": 2700,
      "ĠMont": 2701,
      "rick": 2702,
      "ump": 2703,
      "Ġcase": 2704,
      "ĠSal": 2705,
      "ĠAcademy": 2706,
      "ĠCentral": 2707,
      "Ġdeveloped": 2708,
      "nel": 2709,
      "uation": 2710,
      "ĠBest": 2711,
      "arter": 2712,
      "Ġimportant": 2713,
      "Ġmy": 2714,
      "thlet": 2715,
      "Ġten": 2716,
      "ĠSing": 2717,
      "ĠGrand": 2718,
      "Ġrelease": 2719,
      "ique": 2720,
      "ĠTV": 2721,
      "ĠFootball": 2722,
      "ederal": 2723,
      "ĠThomas": 2724,
      "rish": 2725,
      "Ġnovel": 2726,
      "Ġappl": 2727,
      "Ġins": 2728,
      "Ġaut": 2729,
      "de": 2730,
      "itive": 2731,
      "oul": 2732,
      "Ġcond": 2733,
      "Ġ/": 2734,
      "ota": 2735,
      "Ġhelp": 2736,
      "Ġformed": 2737,
      "ĠWith": 2738,
      "enc": 2739,
      "Ġtrack": 2740,
      "35": 2741,
      "Ġmeet": 2742,
      "ula": 2743,
      "-B": 2744,
      "Ġweek": 2745,
      "Ġz": 2746,
      "Ġoffice": 2747,
      "Ġdata": 2748,
      "Ġless": 2749,
      "Ġmother": 2750,
      "ĠFranc": 2751,
      "ĠGreat": 2752,
      "Ġguitar": 2753,
      "ĠBay": 2754,
      "ĠOp": 2755,
      "ĠAlex": 2756,
      "Ġdiv": 2757,
      "mar": 2758,
      "Ġbirth": 2759,
      "Ġtradition": 2760,
      "Ġgood": 2761,
      "Ġparticular": 2762,
      "ĠZeal": 2763,
      "ĠItalian": 2764,
      "ĠChe": 2765,
      "aker": 2766,
      "Ġreported": 2767,
      "Ġlaun": 2768,
      "ĠDon": 2769,
      "Ġworking": 2770,
      "Ġhous": 2771,
      "ĠAfrica": 2772,
      "iting": 2773,
      "ither": 2774,
      "ĠWestern": 2775,
      "duction": 2776,
      "ĠFilm": 2777,
      "Ġgrow": 2778,
      "Ġavail": 2779,
      "Ġmaking": 2780,
      "ĠCong": 2781,
      "Ġphot": 2782,
      "||": 2783,
      "edy": 2784,
      "hi": 2785,
      "Ġoffer": 2786,
      "ĠRepublic": 2787,
      "ĠGreen": 2788,
      "ĠZealand": 2789,
      "Ġtyp": 2790,
      "rig": 2791,
      "rey": 2792,
      "iers": 2793,
      "Ġschools": 2794,
      "Ġfund": 2795,
      "Ġ=": 2796,
      "roll": 2797,
      "Ġarr": 2798,
      "ĠMet": 2799,
      "Ġfail": 2800,
      "cks": 2801,
      "Eng": 2802,
      "Ġphys": 2803,
      "ĠCharles": 2804,
      "ĠScott": 2805,
      "Ġhuman": 2806,
      "cial": 2807,
      "ably": 2808,
      "Ġshould": 2809,
      "ertain": 2810,
      "itted": 2811,
      "ĠVirgin": 2812,
      "ĠLouis": 2813,
      "Ġlive": 2814,
      "imately": 2815,
      "isted": 2816,
      "ola": 2817,
      "ades": 2818,
      "Ġdoc": 2819,
      "ala": 2820,
      "iding": 2821,
      "wh": 2822,
      "Ġvict": 2823,
      "ĠCap": 2824,
      "Ġothers": 2825,
      "Ġlanguage": 2826,
      "idae": 2827,
      "Ġarchite": 2828,
      "Ġrul": 2829,
      "cle": 2830,
      "Ġdoes": 2831,
      "Ġcast": 2832,
      "ication": 2833,
      "ras": 2834,
      "Ġmar": 2835,
      "80": 2836,
      "ĠCommun": 2837,
      "oney": 2838,
      "ĠGold": 2839,
      "aut": 2840,
      "reland": 2841,
      "Ġrock": 2842,
      "Ġmater": 2843,
      "Ġartist": 2844,
      "Ġrev": 2845,
      "Ġemploy": 2846,
      "Ġindepend": 2847,
      "ensive": 2848,
      "Ġhimself": 2849,
      "azine": 2850,
      "...": 2851,
      "Ġexample": 2852,
      "stro": 2853,
      "Ã¤": 2854,
      "Ġground": 2855,
      "viron": 2856,
      "ĠRussian": 2857,
      "Ġ()": 2858,
      "alls": 2859,
      "Ġmedal": 2860,
      "here": 2861,
      "Ġstar": 2862,
      "lor": 2863,
      "ĠJew": 2864,
      "atives": 2865,
      "anding": 2866,
      "Ġdecl": 2867,
      "ena": 2868,
      "eph": 2869,
      "ĠVol": 2870,
      "ospital": 2871,
      "Ġrecogn": 2872,
      "Ġbody": 2873,
      "Ġdi": 2874,
      "ude": 2875,
      "ume": 2876,
      "ĠMac": 2877,
      "olf": 2878,
      "usical": 2879,
      "Ġmodern": 2880,
      "ened": 2881,
      "ĠCarol": 2882,
      "sy": 2883,
      "Ġcompanies": 2884,
      "Ġanim": 2885,
      "ĠSim": 2886,
      "ĠYear": 2887,
      "ada": 2888,
      "Ġdaughter": 2889,
      "aly": 2890,
      "ateg": 2891,
      "ĠMinister": 2892,
      "ĠKore": 2893,
      "45": 2894,
      "ulated": 2895,
      "Ġlow": 2896,
      "Ġfire": 2897,
      "ware": 2898,
      "most": 2899,
      "Ġacross": 2900,
      "leg": 2901,
      "ĠTexas": 2902,
      "ĠMer": 2903,
      "ĠChristian": 2904,
      "Ġmunicip": 2905,
      "Ġmot": 2906,
      "Ġbecom": 2907,
      "ĠUK": 2908,
      "ricket": 2909,
      "Ġblack": 2910,
      "anted": 2911,
      "Ġbuildings": 2912,
      "Ġstations": 2913,
      "be": 2914,
      "ĠLeg": 2915,
      "ceed": 2916,
      "ĠCont": 2917,
      "ethod": 2918,
      "heast": 2919,
      "Ġaverage": 2920,
      "uz": 2921,
      "aying": 2922,
      "overnor": 2923,
      "ria": 2924,
      "Ġnever": 2925,
      "oice": 2926,
      "atre": 2927,
      "ĠMichael": 2928,
      "New": 2929,
      "Ġsports": 2930,
      "elt": 2931,
      "pite": 2932,
      "-A": 2933,
      "gress": 2934,
      "Ġet": 2935,
      "Ġhow": 2936,
      "Ġcampaign": 2937,
      "Ġtro": 2938,
      "Ġplaying": 2939,
      "ĠIm": 2940,
      "Ġeight": 2941,
      "Ġcle": 2942,
      "ĠTrans": 2943,
      "Ġder": 2944,
      "chie": 2945,
      "emor": 2946,
      "band": 2947,
      "rael": 2948,
      "ĠPat": 2949,
      "This": 2950,
      "ĠWil": 2951,
      "Ġradio": 2952,
      "ux": 2953,
      "Ġavailable": 2954,
      "ĠCatholic": 2955,
      "Ġbelie": 2956,
      "Ġcross": 2957,
      "Ġepisode": 2958,
      "ĠWhite": 2959,
      "180": 2960,
      "utes": 2961,
      "udd": 2962,
      "Ġlight": 2963,
      "ducation": 2964,
      "Ġfree": 2965,
      "II": 2966,
      "oo": 2967,
      "182": 2968,
      "uild": 2969,
      "Ġpaint": 2970,
      "ĠTom": 2971,
      "Ġliving": 2972,
      "Ġsepar": 2973,
      "-st": 2974,
      "ential": 2975,
      "ĠTer": 2976,
      "ĠPet": 2977,
      "Ġstrong": 2978,
      "ements": 2979,
      "ĠChinese": 2980,
      "ĠFrom": 2981,
      "De": 2982,
      "rel": 2983,
      "Ġgradu": 2984,
      "Ġsuccessful": 2985,
      "ibrary": 2986,
      "Ġinformation": 2987,
      "Ġalthough": 2988,
      "oviet": 2989,
      "ĠTor": 2990,
      "Ġfoc": 2991,
      "-C": 2992,
      "Ġqual": 2993,
      "ĠParis": 2994,
      "bour": 2995,
      "Ġperformed": 2996,
      "Ġstage": 2997,
      "airs": 2998,
      "iqu": 2999,
      "Ġfight": 3000,
      "ĠCro": 3001,
      "Ġide": 3002,
      "atory": 3003,
      "ĠPenn": 3004,
      "70": 3005,
      "Ġfemale": 3006,
      ",\"": 3007,
      "181": 3008,
      "Ġred": 3009,
      "ĠDemocrat": 3010,
      "ought": 3011,
      "Ġwinn": 3012,
      "go": 3013,
      "iff": 3014,
      "Ġcost": 3015,
      "Ġassoci": 3016,
      "ĠDan": 3017,
      "ores": 3018,
      "aval": 3019,
      "ked": 3020,
      "ishop": 3021,
      "Ġaway": 3022,
      "km": 3023,
      "aves": 3024,
      "ids": 3025,
      "Ġkilled": 3026,
      "Ġdram": 3027,
      "ilities": 3028,
      "ockey": 3029,
      "elling": 3030,
      "Ġmonths": 3031,
      "ĠFrank": 3032,
      "Ind": 3033,
      "Ġacqu": 3034,
      "ĠDire": 3035,
      "Ġcondu": 3036,
      "head": 3037,
      "ĠSur": 3038,
      "vironment": 3039,
      "zil": 3040,
      "Ġperformance": 3041,
      "imate": 3042,
      "Ġgave": 3043,
      "Ġprot": 3044,
      "ĠLat": 3045,
      "icated": 3046,
      "ranch": 3047,
      "Ġtaken": 3048,
      "Ġconstruction": 3049,
      "ĠBill": 3050,
      "Ġplaces": 3051,
      "igned": 3052,
      "oz": 3053,
      "):": 3054,
      "hood": 3055,
      "ura": 3056,
      "ĠVictor": 3057,
      "ĠInter": 3058,
      "idents": 3059,
      "ĠRev": 3060,
      "Ġfinished": 3061,
      "aria": 3062,
      "itch": 3063,
      "ĠPeter": 3064,
      "Ġcirc": 3065,
      "andid": 3066,
      "Ġcour": 3067,
      "Ġfollowed": 3068,
      "Ġshows": 3069,
      "Sh": 3070,
      "Ġincludes": 3071,
      "embly": 3072,
      "Ġpolitician": 3073,
      "Ġcontract": 3074,
      "Ge": 3075,
      "Ġartists": 3076,
      "Ġestablishments": 3077,
      "Ġfeatures": 3078,
      "asc": 3079,
      "Ġbooks": 3080,
      "Ġtour": 3081,
      "utch": 3082,
      "Ġcapt": 3083,
      "ĠRichard": 3084,
      "lement": 3085,
      "ĠIreland": 3086,
      "ĠSpanish": 3087,
      "Ġinj": 3088,
      "vey": 3089,
      "ĠLake": 3090,
      "AR": 3091,
      "33": 3092,
      "ĠFlor": 3093,
      "Ġmaterial": 3094,
      "Ġdev": 3095,
      "ificant": 3096,
      "ella": 3097,
      "Ġrelig": 3098,
      "icago": 3099,
      "ĠSmith": 3100,
      "Ġagre": 3101,
      "Ġfront": 3102,
      "Ġdesigned": 3103,
      "ĠBas": 3104,
      "Ġattempt": 3105,
      "ano": 3106,
      "ita": 3107,
      "ĠHenry": 3108,
      "ams": 3109,
      "ĠDay": 3110,
      "Ġgoal": 3111,
      "Ġ#": 3112,
      "Ġjournal": 3113,
      "Ġmust": 3114,
      "Ġimpro": 3115,
      ").Ċ": 3116,
      "Ġrank": 3117,
      "Ġaccess": 3118,
      "ĠCons": 3119,
      "Ġlab": 3120,
      "oms": 3121,
      "ĠKh": 3122,
      "Ġsele": 3123,
      "Ġput": 3124,
      "Ġmarket": 3125,
      "fficial": 3126,
      "ĠFore": 3127,
      "Âłm": 3128,
      "Ġoriginally": 3129,
      "ications": 3130,
      "Ġplan": 3131,
      "Ġonce": 3132,
      "90": 3133,
      "Ġassist": 3134,
      "oma": 3135,
      "gian": 3136,
      "och": 3137,
      "Ġhealth": 3138,
      "incip": 3139,
      "ĠLos": 3140,
      "Ġtourn": 3141,
      "ĠSant": 3142,
      "ny": 3143,
      "Ġstudy": 3144,
      "Ġpress": 3145,
      "-in": 3146,
      "hest": 3147,
      "Ġawarded": 3148,
      "erous": 3149,
      ".com": 3150,
      "nder": 3151,
      "Ġsound": 3152,
      "ado": 3153,
      "Ġtest": 3154,
      "ĠMel": 3155,
      "Ġregular": 3156,
      "istan": 3157,
      "aps": 3158,
      "ilies": 3159,
      "Early": 3160,
      "ror": 3161,
      "vert": 3162,
      "aged": 3163,
      "Ġfeatured": 3164,
      "Ġviol": 3165,
      "urity": 3166,
      "ĠHam": 3167,
      "ĠMass": 3168,
      "English": 3169,
      "mb": 3170,
      "Ġremained": 3171,
      "Ġmix": 3172,
      "Ġcivil": 3173,
      "65": 3174,
      "Ġforces": 3175,
      "Ġsil": 3176,
      "Ġmodel": 3177,
      "ource": 3178,
      "Ġlargest": 3179,
      "Ġcy": 3180,
      "ĠHistory": 3181,
      "ĠForce": 3182,
      "ems": 3183,
      "Ġseven": 3184,
      "people": 3185,
      "eep": 3186,
      "ĠChampionships": 3187,
      "rip": 3188,
      "sec": 3189,
      "ĠBur": 3190,
      "olk": 3191,
      "uter": 3192,
      "icy": 3193,
      "ĠWomen": 3194,
      "ĠBen": 3195,
      "Ġill": 3196,
      "road": 3197,
      "ĠSuper": 3198,
      "inals": 3199,
      "Ġbar": 3200,
      "ĠVirginia": 3201,
      "aching": 3202,
      "rim": 3203,
      "Ġjud": 3204,
      "earch": 3205,
      "Ġaircraft": 3206,
      "ĠTo": 3207,
      "Ġtraining": 3208,
      "Ġmount": 3209,
      "igan": 3210,
      "ios": 3211,
      "Ã¨": 3212,
      "kn": 3213,
      "ĠHill": 3214,
      "ites": 3215,
      "Äģ": 3216,
      "Ġenc": 3217,
      "ĠCamp": 3218,
      "ĠSwed": 3219,
      "ĠWin": 3220,
      "Ġsignificant": 3221,
      "aches": 3222,
      "ĠBut": 3223,
      "Ġleading": 3224,
      "Sc": 3225,
      "Ġseen": 3226,
      "ugby": 3227,
      "For": 3228,
      "Ġproble": 3229,
      "Ġcourt": 3230,
      "Ġthroughout": 3231,
      "Notes": 3232,
      "yp": 3233,
      "serv": 3234,
      "At": 3235,
      "Ġdou": 3236,
      "Ġdam": 3237,
      "Ġsen": 3238,
      "ĠEmp": 3239,
      "hire": 3240,
      "ylvan": 3241,
      "Ġrights": 3242,
      "Ġliter": 3243,
      "ĠUp": 3244,
      "Ġsinger": 3245,
      "annel": 3246,
      "left": 3247,
      "Ġwid": 3248,
      "Ġearl": 3249,
      "play": 3250,
      "aught": 3251,
      "-P": 3252,
      "ender": 3253,
      "Ġreb": 3254,
      "ĠOb": 3255,
      "ĠMa": 3256,
      "gen": 3257,
      "istics": 3258,
      "unk": 3259,
      "Ġearn": 3260,
      "Ġmedia": 3261,
      "Ġtransl": 3262,
      "AS": 3263,
      "writ": 3264,
      "Ġpolice": 3265,
      "Ġintroduced": 3266,
      "ĠDel": 3267,
      "ĠĠĠĠĠĠĠĠ": 3268,
      "Ġexist": 3269,
      "Wh": 3270,
      "arts": 3271,
      "\"|": 3272,
      "Ġsugg": 3273,
      "ĠCommission": 3274,
      "Ġinvolved": 3275,
      "order": 3276,
      "ĠNavy": 3277,
      "Te": 3278,
      "Ġcountries": 3279,
      "Ġwhite": 3280,
      "Ġcou": 3281,
      "ving": 3282,
      "ĠRob": 3283,
      "Ġscored": 3284,
      "uture": 3285,
      "TV": 3286,
      "Ġentire": 3287,
      "ulty": 3288,
      "uns": 3289,
      "Ġexecut": 3290,
      "ĠOrder": 3291,
      "ift": 3292,
      "Ġtre": 3293,
      "Ġeventually": 3294,
      "Ġtreat": 3295,
      "iences": 3296,
      "Ġgold": 3297,
      "Ġrespons": 3298,
      "Ġable": 3299,
      "atal": 3300,
      "ufact": 3301,
      "Ġsem": 3302,
      "Ġreplaced": 3303,
      "Ġsubsequ": 3304,
      "Ġspace": 3305,
      "cher": 3306,
      "ĠSaint": 3307,
      "ĠPlay": 3308,
      "ĠArts": 3309,
      "Ġlisted": 3310,
      "Ġpast": 3311,
      "Ġprivate": 3312,
      "ĠOl": 3313,
      "ĠMexico": 3314,
      "ylvania": 3315,
      "ĠCast": 3316,
      "Ġbi": 3317,
      "Ġcurrently": 3318,
      "ĠItaly": 3319,
      "Ġhousehold": 3320,
      "Ġtransfer": 3321,
      "500": 3322,
      "ĠSecond": 3323,
      "-L": 3324,
      "ĠRock": 3325,
      "lant": 3326,
      "ĠScot": 3327,
      "ĠIsrael": 3328,
      "Ã³n": 3329,
      "Ġadded": 3330,
      "Ġcollege": 3331,
      "ĠChicago": 3332,
      "36": 3333,
      "Ġvia": 3334,
      "ĠJust": 3335,
      "Ġwriter": 3336,
      "orpor": 3337,
      "text": 3338,
      "Ġstates": 3339,
      "asing": 3340,
      "Ġcompetition": 3341,
      "ĠGo": 3342,
      "Ġcentral": 3343,
      "ribution": 3344,
      "Äĩ": 3345,
      "List": 3346,
      "retary": 3347,
      "34": 3348,
      "Ġstated": 3349,
      "za": 3350,
      "ĠKn": 3351,
      "Ġaud": 3352,
      "Ġsurv": 3353,
      "ability": 3354,
      "iro": 3355,
      "umm": 3356,
      "Ġwind": 3357,
      "Ġleast": 3358,
      "ĠPan": 3359,
      "ĠÐ": 3360,
      "Ġran": 3361,
      "mercial": 3362,
      "Ġboard": 3363,
      "ĠSqu": 3364,
      "Ġbasketball": 3365,
      "Ġcommand": 3366,
      "Ġser": 3367,
      "38": 3368,
      "Ġcandid": 3369,
      "FC": 3370,
      "Ġabove": 3371,
      "Ġrange": 3372,
      "ĠAngeles": 3373,
      "Ġwriters": 3374,
      "ĠFestival": 3375,
      "37": 3376,
      "Åį": 3377,
      "ĠGra": 3378,
      "ĠGod": 3379,
      "Ġresults": 3380,
      "ĠParliament": 3381,
      "ĠIll": 3382,
      "Ġactress": 3383,
      "ĠMus": 3384,
      "Ġdiscover": 3385,
      "ĠHistoric": 3386,
      "Ġrespect": 3387,
      "rup": 3388,
      "ĠProvince": 3389,
      "ĠMin": 3390,
      "Ġcritic": 3391,
      "Ġeither": 3392,
      "sych": 3393,
      "rial": 3394,
      "iano": 3395,
      "Ġfourth": 3396,
      "porary": 3397,
      "Ġunits": 3398,
      "Ġ(\"": 3399,
      "Ġclose": 3400,
      "ples": 3401,
      "Ġsch": 3402,
      "stant": 3403,
      "yr": 3404,
      "ĠCarl": 3405,
      "Ġget": 3406,
      "ĠDu": 3407,
      "Ġvocals": 3408,
      "eated": 3409,
      ");": 3410,
      "-G": 3411,
      "Ġfig": 3412,
      "Ġloss": 3413,
      "Ġprovided": 3414,
      "Career": 3415,
      "medi": 3416,
      "ĠCommittee": 3417,
      "oke": 3418,
      "Con": 3419,
      "Ġbroadcast": 3420,
      "oys": 3421,
      "Ġ:": 3422,
      "Ġdegree": 3423,
      "ĠMr": 3424,
      "ription": 3425,
      "ĠMil": 3426,
      "Ġpur": 3427,
      "Ġchange": 3428,
      "Ġupon": 3429,
      "Ġcop": 3430,
      "bb": 3431,
      "Ġsubject": 3432,
      "ask": 3433,
      "sylvania": 3434,
      "iana": 3435,
      "FA": 3436,
      "ĠWales": 3437,
      "Ġtravel": 3438,
      "ĠOff": 3439,
      "istic": 3440,
      "rought": 3441,
      "ibl": 3442,
      "face": 3443,
      "uty": 3444,
      "ĠFlorida": 3445,
      "Ġhom": 3446,
      "Ġusually": 3447,
      "ĠGeorg": 3448,
      "ply": 3449,
      "Ġinterest": 3450,
      "ĠWhile": 3451,
      "Ġexpress": 3452,
      "ĠSoviet": 3453,
      "sel": 3454,
      "ĠDo": 3455,
      "ĠPre": 3456,
      "Ġfav": 3457,
      "erve": 3458,
      "ua": 3459,
      "Ġachie": 3460,
      "ients": 3461,
      "Ġkey": 3462,
      "44": 3463,
      "Ġplant": 3464,
      "Ġdocument": 3465,
      "ĠCarolina": 3466,
      "known": 3467,
      "Ġtype": 3468,
      "ĠCongress": 3469,
      "Ġsaw": 3470,
      "-D": 3471,
      "Ġreached": 3472,
      "ĠPublic": 3473,
      "board": 3474,
      "ste": 3475,
      "Ġstruct": 3476,
      "Ġlearn": 3477,
      "bur": 3478,
      "Ġcenter": 3479,
      "Ġaccom": 3480,
      "Ġoccur": 3481,
      "Ġcontribut": 3482,
      "ises": 3483,
      "ires": 3484,
      "va": 3485,
      "well": 3486,
      "Ġnomin": 3487,
      "Ġmultip": 3488,
      "Ġmissing": 3489,
      "eds": 3490,
      "Ġmeas": 3491,
      "Ġrailway": 3492,
      "ĠGovernment": 3493,
      "rative": 3494,
      "Ġprem": 3495,
      "Ġaction": 3496,
      "179": 3497,
      "ĠAnn": 3498,
      "32": 3499,
      "adium": 3500,
      "ĠLand": 3501,
      "stitution": 3502,
      "ĠScience": 3503,
      "ption": 3504,
      "Ġplaced": 3505,
      "There": 3506,
      "Ġexhib": 3507,
      "Ġpot": 3508,
      "Ġmean": 3509,
      "ĠTechn": 3510,
      "eleb": 3511,
      "ĠSome": 3512,
      "lam": 3513,
      "Ġnight": 3514,
      "Ġseasons": 3515,
      "Ġcharacters": 3516,
      "ĠAccording": 3517,
      "ĠIts": 3518,
      "ero": 3519,
      "ĠBrown": 3520,
      "uan": 3521,
      "ength": 3522,
      "Ġarg": 3523,
      "Ġcapital": 3524,
      "azz": 3525,
      "sk": 3526,
      "Ġminist": 3527,
      "Ġknow": 3528,
      "arily": 3529,
      "ĠAwards": 3530,
      "ping": 3531,
      "ĠMark": 3532,
      "Ph": 3533,
      "ĠClass": 3534,
      "Ġmethod": 3535,
      "Ġapprox": 3536,
      "mun": 3537,
      "Ġdu": 3538,
      "inent": 3539,
      "Ġche": 3540,
      "ĠMur": 3541,
      "ca": 3542,
      "ĠCount": 3543,
      "Ġdestro": 3544,
      "Ġtournament": 3545,
      "ĠRussia": 3546,
      "Ġsex": 3547,
      "ception": 3548,
      "atriate": 3549,
      "ww": 3550,
      "Ġstre": 3551,
      "ĠService": 3552,
      "ĠStar": 3553,
      "ta": 3554,
      "Ġdecided": 3555,
      "Ġnatural": 3556,
      "ĠBrazil": 3557,
      "Ġchampionship": 3558,
      "Films": 3559,
      "Ġmass": 3560,
      "ĠOh": 3561,
      "ĠPennsylvania": 3562,
      "chan": 3563,
      "amily": 3564,
      "ette": 3565,
      "fic": 3566,
      "abit": 3567,
      "ultural": 3568,
      "ulture": 3569,
      "eck": 3570,
      "ection": 3571,
      "ĠDen": 3572,
      "ĠEr": 3573,
      "Ġpain": 3574,
      "den": 3575,
      "aled": 3576,
      "FL": 3577,
      "Ġpoet": 3578,
      "ĠSir": 3579,
      "Ġmur": 3580,
      "ublican": 3581,
      "owers": 3582,
      "Ġaccept": 3583,
      "lim": 3584,
      "ario": 3585,
      "Ġleader": 3586,
      "-up": 3587,
      "Ġattended": 3588,
      "stra": 3589,
      "Ġfif": 3590,
      "Ġcreat": 3591,
      "Ġactor": 3592,
      "Ġaccount": 3593,
      "Ġsection": 3594,
      "ĠIrish": 3595,
      "ometimes": 3596,
      "Ġriver": 3597,
      "Ġprovide": 3598,
      "ĠTour": 3599,
      "Ġdivision": 3600,
      "ĠFound": 3601,
      "see": 3602,
      "Ġreve": 3603,
      "Ġeffort": 3604,
      "Ġwhose": 3605,
      "Ġparts": 3606,
      "ĠPac": 3607,
      "ato": 3608,
      "uments": 3609,
      "Ġdraw": 3610,
      "Ġinstead": 3611,
      "Ġfamilies": 3612,
      "Ġplays": 3613,
      "Ġoccup": 3614,
      "39": 3615,
      "Ġtax": 3616,
      "anda": 3617,
      "Ġparent": 3618,
      "Ġedition": 3619,
      "Ġfar": 3620,
      "BA": 3621,
      "reme": 3622,
      "ĠMod": 3623,
      "Ġpreviously": 3624,
      "ĠEmpire": 3625,
      "ansas": 3626,
      "ĠRh": 3627,
      "illa": 3628,
      "Ġactive": 3629,
      "Ġscient": 3630,
      "ĠRos": 3631,
      "Ġmovement": 3632,
      "Âłkm": 3633,
      "Sp": 3634,
      "ĠOld": 3635,
      "ĠNorthern": 3636,
      "Ġcensus": 3637,
      "Ġculture": 3638,
      "ĠArab": 3639,
      "Ġdefeated": 3640,
      "Ġfarm": 3641,
      "aud": 3642,
      "Ġstudio": 3643,
      "Ġrelationship": 3644,
      "Ġsystems": 3645,
      "Ġgrand": 3646,
      "str": 3647,
      "elled": 3648,
      "Ġpred": 3649,
      "Ġneigh": 3650,
      "Ġbur": 3651,
      "ĠSil": 3652,
      "Ġrather": 3653,
      "Ġplann": 3654,
      "gent": 3655,
      "iy": 3656,
      "ĠFin": 3657,
      "Ġsize": 3658,
      "ingu": 3659,
      "Ġste": 3660,
      "ĠMos": 3661,
      "gl": 3662,
      "oring": 3663,
      "ension": 3664,
      "igital": 3665,
      "-H": 3666,
      "Ġnorthern": 3667,
      "Ġnetwork": 3668,
      "urt": 3669,
      "cel": 3670,
      "ollowing": 3671,
      "Ġpark": 3672,
      "clus": 3673,
      "ongs": 3674,
      "Ġdeal": 3675,
      "Ġlower": 3676,
      "Ġsouthern": 3677,
      "Ġreading": 3678,
      "Ġorganiz": 3679,
      "Ġobject": 3680,
      "ĠColumb": 3681,
      "ampion": 3682,
      "ĠOther": 3683,
      "ora": 3684,
      "icro": 3685,
      "Ġwinning": 3686,
      "Ġcricket": 3687,
      "ergy": 3688,
      "ends": 3689,
      "Ġbehind": 3690,
      "wan": 3691,
      "Ġproducer": 3692,
      "Ġmanufact": 3693,
      "Ġsingles": 3694,
      "ĠTro": 3695,
      "-F": 3696,
      "|Ċ": 3697,
      "Ġmusical": 3698,
      "Ġpurch": 3699,
      "ĠJun": 3700,
      "Ġbrought": 3701,
      "ĠRegister": 3702,
      "pan": 3703,
      "ĠÂ": 3704,
      "pecially": 3705,
      "Ġcoast": 3706,
      "position": 3707,
      "iger": 3708,
      "Ġforce": 3709,
      "Ġpers": 3710,
      "ĠTwo": 3711,
      "ĠGall": 3712,
      "Ġoutside": 3713,
      "ils": 3714,
      "Ġcut": 3715,
      "imb": 3716,
      "ĠMill": 3717,
      "Ġindustry": 3718,
      "ĠBoard": 3719,
      "urb": 3720,
      "ĠAssembly": 3721,
      "Ġpossible": 3722,
      "Ġprimary": 3723,
      "Ġinvestig": 3724,
      "shire": 3725,
      "ady": 3726,
      "Ġge": 3727,
      "ĠJoseph": 3728,
      "Person": 3729,
      "inated": 3730,
      "Ġlik": 3731,
      "ĠLove": 3732,
      "ĠProfess": 3733,
      "NE": 3734,
      "Ġcollection": 3735,
      "Ġbank": 3736,
      "Ġfall": 3737,
      "ĠFort": 3738,
      "Ġrepresented": 3739,
      "ĠSpace": 3740,
      "aring": 3741,
      "ĠSeries": 3742,
      "Ad": 3743,
      "ersey": 3744,
      "orse": 3745,
      "ati": 3746,
      "75": 3747,
      "Ġorganization": 3748,
      "During": 3749,
      "ĠWood": 3750,
      "iga": 3751,
      "Ġcare": 3752,
      "ĠOper": 3753,
      "Ġfrequ": 3754,
      "Ġprison": 3755,
      "alled": 3756,
      "Ġruns": 3757,
      "-American": 3758,
      "ĠBattle": 3759,
      "irm": 3760,
      "ĠSpain": 3761,
      "Ġnewsp": 3762,
      "Ġalmost": 3763,
      "ĠLu": 3764,
      "ounter": 3765,
      "Ġconv": 3766,
      "Ġi": 3767,
      "Ġhard": 3768,
      "NA": 3769,
      "Ġhit": 3770,
      "ĠGreek": 3771,
      "Ġregard": 3772,
      "isco": 3773,
      "48": 3774,
      "Ġgirl": 3775,
      "ancial": 3776,
      "ĠSk": 3777,
      "Ġsus": 3778,
      "Ġesc": 3779,
      "ĠMartin": 3780,
      "aine": 3781,
      "Ġacadem": 3782,
      "Ġdefeat": 3783,
      "ĠSun": 3784,
      "Ġisland": 3785,
      "John": 3786,
      "Ġwriting": 3787,
      "Ġcases": 3788,
      "49": 3789,
      "Ġstructure": 3790,
      "Ġking": 3791,
      "awa": 3792,
      "Ġclosed": 3793,
      "-based": 3794,
      "ider": 3795,
      "Ġchanged": 3796,
      "ali": 3797,
      "Ġallowed": 3798,
      "Ġgoals": 3799,
      "Ġended": 3800,
      "Ġfunction": 3801,
      "Ġneg": 3802,
      "inary": 3803,
      "Ġwood": 3804,
      "Ġscience": 3805,
      "Ġmagazine": 3806,
      "ĠChief": 3807,
      "ĠSer": 3808,
      "wer": 3809,
      "itors": 3810,
      "ao": 3811,
      "cient": 3812,
      "Ass": 3813,
      "etts": 3814,
      "Ġphil": 3815,
      "Ġstop": 3816,
      "venue": 3817,
      "Ġstudies": 3818,
      "mond": 3819,
      "Ġben": 3820,
      "ĠĠĊ": 3821,
      "ye": 3822,
      "Ġden": 3823,
      "Ġdeterm": 3824,
      "Ġfood": 3825,
      "Ġball": 3826,
      "esc": 3827,
      "Ġfootballer": 3828,
      "overs": 3829,
      "ĠEducation": 3830,
      "Ġshot": 3831,
      "ĠBus": 3832,
      "lying": 3833,
      "Ġpersonal": 3834,
      "oir": 3835,
      "Ġbeginning": 3836,
      "Ġtext": 3837,
      "ĠGar": 3838,
      "Ġschol": 3839,
      "isions": 3840,
      "ipl": 3841,
      "ĠResearch": 3842,
      "ĠHaw": 3843,
      "itiz": 3844,
      "Ġprincip": 3845,
      "ĠFred": 3846,
      "airman": 3847,
      "ĠValley": 3848,
      "Ġoperations": 3849,
      "ĠAtlant": 3850,
      "ĠTimes": 3851,
      "Ġcred": 3852,
      "-e": 3853,
      "velopment": 3854,
      "Ġtransport": 3855,
      "ĠSpec": 3856,
      "ĠDou": 3857,
      "Ġindependent": 3858,
      "ĠFre": 3859,
      "Ġlaunched": 3860,
      "Ġbelow": 3861,
      "ĠSub": 3862,
      "fect": 3863,
      "enth": 3864,
      "cing": 3865,
      "Ġmer": 3866,
      "ih": 3867,
      "Ġobserv": 3868,
      "Ġconstru": 3869,
      "Ġterrit": 3870,
      "Ġtaking": 3871,
      "Ġapproximately": 3872,
      "Ġtowards": 3873,
      "ennis": 3874,
      "Ġdestroy": 3875,
      "Le": 3876,
      "ĠCD": 3877,
      "Ġever": 3878,
      "ĠInt": 3879,
      "Ġaccording": 3880,
      "Ġowned": 3881,
      "ĠOut": 3882,
      "oid": 3883,
      "ibility": 3884,
      "Ġmatches": 3885,
      "rich": 3886,
      "Ġpay": 3887,
      "ĠDef": 3888,
      "het": 3889,
      "ĊĠĊĊ": 3890,
      "ĠCross": 3891,
      "Ġplat": 3892,
      "All": 3893,
      "ook": 3894,
      "ĠYoung": 3895,
      "ĠEngine": 3896,
      "Ġitself": 3897,
      "Ġveh": 3898,
      "ĠHot": 3899,
      "Ġwhom": 3900,
      "Ġbreak": 3901,
      "Ġself": 3902,
      "ĠJim": 3903,
      "Ġwoman": 3904,
      "ĠHow": 3905,
      "-language": 3906,
      "Ġcomplet": 3907,
      "ros": 3908,
      "ĠOx": 3909,
      "ĠHa": 3910,
      "inois": 3911,
      "bon": 3912,
      "Ġremov": 3913,
      "Ġcomplex": 3914,
      "Ã§": 3915,
      "Ġminor": 3916,
      "Ġconcern": 3917,
      "ĠHon": 3918,
      "Ġstaff": 3919,
      "Ġcal": 3920,
      "ko": 3921,
      "la": 3922,
      "Ġcommission": 3923,
      "action": 3924,
      "ID": 3925,
      "igg": 3926,
      "ĠTeam": 3927,
      "ĠCam": 3928,
      "Ġcommercial": 3929,
      "ĠFC": 3930,
      "achus": 3931,
      "Ġdrama": 3932,
      "Ġsat": 3933,
      "Ġbattle": 3934,
      "mark": 3935,
      "Ġdate": 3936,
      "ĠLee": 3937,
      "uffer": 3938,
      "47": 3939,
      "ols": 3940,
      "Ġarmy": 3941,
      "Ġnar": 3942,
      "Ġceleb": 3943,
      "bury": 3944,
      "Ġsoon": 3945,
      "Ġhigher": 3946,
      "ĠEv": 3947,
      "|align": 3948,
      "Ġtraditional": 3949,
      "Ġlittle": 3950,
      "Ġespecially": 3951,
      "ĠCivil": 3952,
      "Ġscreen": 3953,
      "ĠLife": 3954,
      "Ġtoo": 3955,
      "Ġbox": 3956,
      "Ġrequired": 3957,
      "SA": 3958,
      "ĠCamb": 3959,
      "ĠMo": 3960,
      "ĠLiber": 3961,
      "Ġnames": 3962,
      "ences": 3963,
      "ĠBank": 3964,
      "Ġissues": 3965,
      "inet": 3966,
      "ĠSpr": 3967,
      "Ġmanager": 3968,
      "usband": 3969,
      "Ġlook": 3970,
      "Ġadditional": 3971,
      "ĠIran": 3972,
      "Ġspent": 3973,
      "Ġhighest": 3974,
      "ĠBritain": 3975,
      "erry": 3976,
      "Ġfuture": 3977,
      "Ġrelated": 3978,
      "pected": 3979,
      "Ġsummer": 3980,
      "oston": 3981,
      "Ġquest": 3982,
      "ify": 3983,
      "-time": 3984,
      "ands": 3985,
      "king": 3986,
      "ĠVi": 3987,
      "win": 3988,
      "ĠPak": 3989,
      "pon": 3990,
      "Ġscore": 3991,
      "Ġlet": 3992,
      "55": 3993,
      "ĠSocial": 3994,
      "ĠBor": 3995,
      "acing": 3996,
      "ready": 3997,
      "Ġstandard": 3998,
      "with": 3999,
      "ĠOhio": 4000,
      "Ġofficer": 4001,
      "ĠIII": 4002,
      "Ġmeans": 4003,
      "press": 4004,
      "Ġfocus": 4005,
      "Aust": 4006,
      "-R": 4007,
      "Ġroute": 4008,
      "ĠSar": 4009,
      "Ġmoney": 4010,
      "ĠSouthern": 4011,
      "ĠDemocratic": 4012,
      "Ġstri": 4013,
      "enced": 4014,
      "ĠDirector": 4015,
      "esh": 4016,
      "ĠMichigan": 4017,
      "ĠBul": 4018,
      "alle": 4019,
      "Ġrad": 4020,
      "ĠInc": 4021,
      "achusetts": 4022,
      "64": 4023,
      "acher": 4024,
      "Ġprof": 4025,
      "Ġlived": 4026,
      "Ġnoted": 4027,
      "Ġdon": 4028,
      "Ġproperty": 4029,
      "Ġcounty": 4030,
      "ĠPoland": 4031,
      "Ġcontains": 4032,
      "ĠLuc": 4033,
      "ctive": 4034,
      "ĠJe": 4035,
      "arriage": 4036,
      "ĠSol": 4037,
      "She": 4038,
      "ums": 4039,
      "arden": 4040,
      "ĠJud": 4041,
      "ĠBre": 4042,
      "ĠMen": 4043,
      "Ġgenus": 4044,
      "obal": 4045,
      "Ġenvironment": 4046,
      "Ġmonth": 4047,
      "aka": 4048,
      "ĠJack": 4049,
      "National": 4050,
      "ĠEdward": 4051,
      "Ġstudent": 4052,
      "Ġsoft": 4053,
      "Ġappearance": 4054,
      "Ġsquad": 4055,
      "kins": 4056,
      "vention": 4057,
      "iled": 4058,
      "rie": 4059,
      "aya": 4060,
      "change": 4061,
      "ias": 4062,
      "Ġinterview": 4063,
      "emporary": 4064,
      "Ġpromot": 4065,
      "ĠMost": 4066,
      "ĠJersey": 4067,
      "ĠHel": 4068,
      "burgh": 4069,
      "ĠRepublican": 4070,
      "ĠAre": 4071,
      "Ġchief": 4072,
      "Ġmission": 4073,
      "Ġships": 4074,
      "Ġpractice": 4075,
      "Ġopening": 4076,
      "Ġmultiple": 4077,
      "Ġadop": 4078,
      "Ġunit": 4079,
      "Ġimm": 4080,
      "ĠMah": 4081,
      "ĠRailway": 4082,
      "ĠAsian": 4083,
      "Ð°": 4084,
      "ĠAlthough": 4085,
      "Ġsometimes": 4086,
      "ĠRadio": 4087,
      "Ġsenior": 4088,
      "Ġcertain": 4089,
      "ĠStep": 4090,
      "ees": 4091,
      "Ġcome": 4092,
      "ĠMat": 4093,
      "Ġprior": 4094,
      "ĠQueen": 4095,
      "yan": 4096,
      "ĠLine": 4097,
      "Ġassociated": 4098,
      "Ġlocation": 4099,
      "Ġearlier": 4100,
      "ĠScotland": 4101,
      "Ġkeep": 4102,
      "Ġelections": 4103,
      "Ġrunning": 4104,
      "Ġgenerally": 4105,
      "ĠDutch": 4106,
      "Ġanal": 4107,
      "ĠNot": 4108,
      "emorial": 4109,
      "Ġsurround": 4110,
      "oper": 4111,
      "ĠPacific": 4112,
      "Members": 4113,
      "emic": 4114,
      "Ġcentre": 4115,
      "ĠPrem": 4116,
      "Ġstructures": 4117,
      "anks": 4118,
      "ĠKent": 4119,
      "etic": 4120,
      "uten": 4121,
      "Ġtrade": 4122,
      "ĠJul": 4123,
      "irt": 4124,
      "Year": 4125,
      "ĠNews": 4126,
      "ĠLong": 4127,
      "Ġsuper": 4128,
      "Ġdom": 4129,
      "rown": 4130,
      "ĠIllinois": 4131,
      "Ġsuffer": 4132,
      "ĠJo": 4133,
      "ĠLord": 4134,
      "Can": 4135,
      "Other": 4136,
      "Ġthus": 4137,
      "ima": 4138,
      "Ġactivities": 4139,
      "Ġemer": 4140,
      "ador": 4141,
      "Ġmanagement": 4142,
      "178": 4143,
      "Ġstudied": 4144,
      "ĠPlaces": 4145,
      "Ġbass": 4146,
      "ds": 4147,
      "ĠAsia": 4148,
      "ira": 4149,
      "ĠRepresent": 4150,
      "rying": 4151,
      "Ġuses": 4152,
      "Pop": 4153,
      "Ġentered": 4154,
      "anded": 4155,
      "ja": 4156,
      "Brit": 4157,
      "Ġlength": 4158,
      "ĠAlbert": 4159,
      "Ġer": 4160,
      "Ġeditor": 4161,
      "ĠPhilipp": 4162,
      "Ġpie": 4163,
      "ĠGovernor": 4164,
      "Bl": 4165,
      "Ġselected": 4166,
      "Ġdecision": 4167,
      "ĠAdm": 4168,
      "tained": 4169,
      "background": 4170,
      "Ġvictory": 4171,
      "Ġhusband": 4172,
      "not": 4173,
      "Ġequip": 4174,
      "ĠBig": 4175,
      "Ġcourse": 4176,
      "ĠLibrary": 4177,
      "ctic": 4178,
      "Res": 4179,
      "Ġtrib": 4180,
      "Ġarran": 4181,
      "Ġens": 4182,
      "ĠMassachusetts": 4183,
      "Sports": 4184,
      "Ġretired": 4185,
      "teg": 4186,
      "ĠBase": 4187,
      "Ġemb": 4188,
      "wa": 4189,
      "Ġfeature": 4190,
      "ĠSoc": 4191,
      "Ġincreased": 4192,
      "Ġmove": 4193,
      "amm": 4194,
      "Ġcaused": 4195,
      "Ġlegal": 4196,
      "Ġexam": 4197,
      "ĠBob": 4198,
      "ĠConference": 4199,
      "ĠVer": 4200,
      "Ġbecoming": 4201,
      "Ġtrain": 4202,
      "Ġalready": 4203,
      "ĠPortug": 4204,
      "Ġterms": 4205,
      "ĠOtt": 4206,
      "Ġlove": 4207,
      "iÄĩ": 4208,
      "Ġdiffic": 4209,
      "Ġseat": 4210,
      "ĠHealth": 4211,
      "Ġpoliticians": 4212,
      "ila": 4213,
      "igr": 4214,
      "Ġmedical": 4215,
      "Ġunion": 4216,
      "gypt": 4217,
      "Ġdepartment": 4218,
      "Ġactors": 4219,
      "Ġgra": 4220,
      "ĠPeople": 4221,
      "adel": 4222,
      "ares": 4223,
      "Ġchanges": 4224,
      "Ġwestern": 4225,
      "Ġnumerous": 4226,
      "ĠOpen": 4227,
      "isation": 4228,
      "inem": 4229,
      "-T": 4230,
      "Ġpen": 4231,
      "Ġwide": 4232,
      "Ġolder": 4233,
      "standing": 4234,
      "Ġnews": 4235,
      "Ġsu": 4236,
      "ĠGal": 4237,
      "Ġannual": 4238,
      "plement": 4239,
      "Ð¾": 4240,
      "ken": 4241,
      "Med": 4242,
      "add": 4243,
      "Å¡": 4244,
      "Ġmurder": 4245,
      "46": 4246,
      "antry": 4247,
      "ela": 4248,
      "erem": 4249,
      "\")": 4250,
      "-pro": 4251,
      "Ġcust": 4252,
      "Ġbetter": 4253,
      "Ġissue": 4254,
      "ĠGeorgia": 4255,
      "Ġsaf": 4256,
      "Ġprograms": 4257,
      "ĠSystem": 4258,
      "Ġprob": 4259,
      "ĠRou": 4260,
      "rief": 4261,
      "ĠInf": 4262,
      "Ġoperated": 4263,
      "-align": 4264,
      "-se": 4265,
      "Ġabs": 4266,
      "ulf": 4267,
      "Ġclubs": 4268,
      "Ġord": 4269,
      "Ġrap": 4270,
      "United": 4271,
      "Ġcollabor": 4272,
      "Ġquarter": 4273,
      "orporated": 4274,
      "asy": 4275,
      "Ġmajority": 4276,
      "ĠUk": 4277,
      "Ġfederal": 4278,
      "AC": 4279,
      "ĠOver": 4280,
      "arters": 4281,
      "AT": 4282,
      "ĠHung": 4283,
      "Ġlines": 4284,
      "ĠJewish": 4285,
      "=center": 4286,
      "Ġlegisl": 4287,
      "Ġinitially": 4288,
      "ysis": 4289,
      "house": 4290,
      "mission": 4291,
      "onia": 4292,
      "ĠBook": 4293,
      "ĠKong": 4294,
      "Ġthought": 4295,
      "eeks": 4296,
      "ĠJones": 4297,
      "ĠThat": 4298,
      "ĠDi": 4299,
      "Ġreligious": 4300,
      "cting": 4301,
      "omy": 4302,
      "Ġsea": 4303,
      "iance": 4304,
      "Ã±": 4305,
      "itation": 4306,
      "ograp": 4307,
      "ĠCoast": 4308,
      "177": 4309,
      "Ġinstr": 4310,
      "irit": 4311,
      "Ġcompeted": 4312,
      "ĠFrancisco": 4313,
      "pts": 4314,
      "ucle": 4315,
      "ĠCle": 4316,
      "rison": 4317,
      "ĠPrince": 4318,
      "ĠBh": 4319,
      "Ġdrop": 4320,
      "ĠWeb": 4321,
      "inger": 4322,
      "Ġforest": 4323,
      "British": 4324,
      "//": 4325,
      "Ġgener": 4326,
      "Ġinstitut": 4327,
      "ĠCentre": 4328,
      "Ġanti": 4329,
      "ĠTw": 4330,
      "ĠMP": 4331,
      "Ġeconomic": 4332,
      "ĠLab": 4333,
      "ĠWal": 4334,
      "Ġcolon": 4335,
      "ĠUr": 4336,
      "Ġmunicipality": 4337,
      "Ġcomedy": 4338,
      "Ġindic": 4339,
      "Ġhum": 4340,
      "ĠSince": 4341,
      "Ġthreat": 4342,
      "org": 4343,
      "ĠJournal": 4344,
      "isher": 4345,
      "Ġcomplete": 4346,
      "ĠWilliams": 4347,
      "no": 4348,
      "ĠÅ": 4349,
      "ĠScottish": 4350,
      "ĠMatt": 4351,
      "ĠOs": 4352,
      "ĠOk": 4353,
      "ĠTheatre": 4354,
      ":#": 4355,
      "abeth": 4356,
      "Ġarrest": 4357,
      "Ġlimited": 4358,
      "ĠKe": 4359,
      "ulpt": 4360,
      "mann": 4361,
      "Ġconsist": 4362,
      "Ġdra": 4363,
      "Ġhot": 4364,
      "Ġsister": 4365,
      "unn": 4366,
      "ĠBow": 4367,
      "Ġforced": 4368,
      "ĠBoston": 4369,
      "ĠMot": 4370,
      "Ġuniversity": 4371,
      "ĠOxford": 4372,
      "Ġ.ĊĊ": 4373,
      "chen": 4374,
      "Ġdiscuss": 4375,
      "cean": 4376,
      "ÅĤ": 4377,
      "stitu": 4378,
      "state": 4379,
      "Ġcreate": 4380,
      "put": 4381,
      "ĠUnder": 4382,
      "Ġded": 4383,
      "Ġtheory": 4384,
      "Ġhockey": 4385,
      "Ġserving": 4386,
      "ervation": 4387,
      "ĠSo": 4388,
      "ĠEastern": 4389,
      "ĠRam": 4390,
      "Ġimmedi": 4391,
      "Ġpassed": 4392,
      "ieuten": 4393,
      "Ġpil": 4394,
      "ĠGh": 4395,
      "onse": 4396,
      "Ġlack": 4397,
      "ault": 4398,
      "ĠTim": 4399,
      "attal": 4400,
      "Ġstatus": 4401,
      "isk": 4402,
      "ube": 4403,
      "urban": 4404,
      "Ġsom": 4405,
      "Or": 4406,
      "IS": 4407,
      "Ġrecording": 4408,
      "ĠMiddle": 4409,
      "Ġfamous": 4410,
      "Ġcommunities": 4411,
      "Ġremains": 4412,
      "ackson": 4413,
      "Ġaltern": 4414,
      "itage": 4415,
      "Ġpercent": 4416,
      "riz": 4417,
      "ĠCorps": 4418,
      "ĠField": 4419,
      "aters": 4420,
      "ĠOffice": 4421,
      "ĠCreek": 4422,
      "Ġoccas": 4423,
      "Ġjob": 4424,
      "://": 4425,
      "osoph": 4426,
      "min": 4427,
      "BS": 4428,
      "ĠFoundation": 4429,
      "ĠBC": 4430,
      "Ġdetail": 4431,
      "Ġgive": 4432,
      "Ġsupported": 4433,
      "ctors": 4434,
      "ĠColumbia": 4435,
      "Ġsequ": 4436,
      "Ġevidence": 4437,
      "Ġofficers": 4438,
      "ĠAz": 4439,
      "nam": 4440,
      "ĠBet": 4441,
      "usc": 4442,
      "down": 4443,
      "Ġclaimed": 4444,
      "ĠColle": 4445,
      "uge": 4446,
      "agn": 4447,
      "Ġshown": 4448,
      "reater": 4449,
      "Ġmuseum": 4450,
      "Ġexc": 4451,
      "Ġmostly": 4452,
      "Ġnine": 4453,
      "ĠJac": 4454,
      "Ġarm": 4455,
      "span": 4456,
      "Ġgoing": 4457,
      "Ġhours": 4458,
      "Ġcouncil": 4459,
      "ĠJohnson": 4460,
      "University": 4461,
      "Ġincome": 4462,
      "ĠTime": 4463,
      "ci": 4464,
      "Ġfle": 4465,
      "aily": 4466,
      "Ġminutes": 4467,
      "Ġpresented": 4468,
      "Ġshoot": 4469,
      "ĠPost": 4470,
      "outheast": 4471,
      "Ġword": 4472,
      "Ġpolicy": 4473,
      "Ġtakes": 4474,
      "Ġbound": 4475,
      "Ġbomb": 4476,
      "Ġmeeting": 4477,
      "Ġopt": 4478,
      "ĠFed": 4479,
      "pose": 4480,
      "ĠTre": 4481,
      "Ġtechnology": 4482,
      "Ġmach": 4483,
      "ĠCr": 4484,
      "Ġparticularly": 4485,
      "bec": 4486,
      "stein": 4487,
      "izing": 4488,
      "Ġenergy": 4489,
      "Ġsubsequently": 4490,
      "akh": 4491,
      "imum": 4492,
      "ii": 4493,
      "phy": 4494,
      "Ġraised": 4495,
      "Ġcell": 4496,
      "Ġprofessor": 4497,
      "ĠDie": 4498,
      "ĠBang": 4499,
      "Ġforeign": 4500,
      "Ġlic": 4501,
      "ĠJr": 4502,
      "bers": 4503,
      "ĠVan": 4504,
      "Ġice": 4505,
      "ĠSecretary": 4506,
      "ledge": 4507,
      "ĠSat": 4508,
      "omer": 4509,
      "Ġhistorical": 4510,
      "Ġappears": 4511,
      "Ġchall": 4512,
      "apers": 4513,
      "Ġdise": 4514,
      "Ġoverall": 4515,
      "ĠJean": 4516,
      "ĠSand": 4517,
      "Ġlonger": 4518,
      "ĠStan": 4519,
      "ĠBlue": 4520,
      "yer": 4521,
      "ĠMore": 4522,
      "Is": 4523,
      "Ġweeks": 4524,
      "Further": 4525,
      "ĠTem": 4526,
      "Ġplatform": 4527,
      "ips": 4528,
      "umber": 4529,
      "onic": 4530,
      "ĠDis": 4531,
      "ties": 4532,
      "una": 4533,
      "ĠSea": 4534,
      "AF": 4535,
      "ĠEll": 4536,
      "ĠMajor": 4537,
      "ĠLatin": 4538,
      "Ġrate": 4539,
      "iring": 4540,
      "ieutenant": 4541,
      "vis": 4542,
      "Ġmiddle": 4543,
      "Ġdescent": 4544,
      "encies": 4545,
      "ĠGood": 4546,
      "ĠPolish": 4547,
      "Ġpsych": 4548,
      "Ġgovern": 4549,
      "ĠCO": 4550,
      "ĠMcC": 4551,
      "Ġpersonnel": 4552,
      "ayer": 4553,
      "Ã¡n": 4554,
      "ĠManag": 4555,
      "Ġnorm": 4556,
      "Ġmem": 4557,
      "pre": 4558,
      "Ġreferred": 4559,
      "enty": 4560,
      "Ġstep": 4561,
      "ĠLi": 4562,
      "ĠMu": 4563,
      "ried": 4564,
      "ĠBerlin": 4565,
      "Ġver": 4566,
      "class": 4567,
      "Ġincrease": 4568,
      "poration": 4569,
      "Ġearned": 4570,
      "Ġresponse": 4571,
      "zech": 4572,
      "Ġquick": 4573,
      "Ġgot": 4574,
      "rance": 4575,
      "ĠPo": 4576,
      "Ġrecords": 4577,
      "Ġappearances": 4578,
      "Ġamount": 4579,
      "Ġblock": 4580,
      "ĠEgypt": 4581,
      "Ġremain": 4582,
      "Ġregional": 4583,
      "Ġlarger": 4584,
      "Ġinsp": 4585,
      "vement": 4586,
      "anguages": 4587,
      "Ġhapp": 4588,
      "-W": 4589,
      "ĠStation": 4590,
      "chester": 4591,
      "Ġparents": 4592,
      "ĠWild": 4593,
      "Ġspecific": 4594,
      "Ġinn": 4595,
      "Ġmention": 4596,
      "onto": 4597,
      "ĠSenate": 4598,
      "akers": 4599,
      "ĠCur": 4600,
      "Ġroom": 4601,
      "ental": 4602,
      "Se": 4603,
      "Ġchart": 4604,
      "stone": 4605,
      "rice": 4606,
      "illy": 4607,
      "da": 4608,
      "Ġfailed": 4609,
      "300": 4610,
      "ĠUnivers": 4611,
      "Ġfinancial": 4612,
      "ĠMid": 4613,
      "Ġhelped": 4614,
      "ĠHong": 4615,
      ".A": 4616,
      "Ġleaving": 4617,
      "sen": 4618,
      "nes": 4619,
      "Ġorganizations": 4620,
      "Ġvon": 4621,
      "ĠIslam": 4622,
      "Ġcomposed": 4623,
      "Ġbelieved": 4624,
      "Ġawards": 4625,
      "lav": 4626,
      "99": 4627,
      "Ġcateg": 4628,
      "Be": 4629,
      "ĠVictoria": 4630,
      "à¤": 4631,
      "Ġforms": 4632,
      "ĠWind": 4633,
      "Ġlog": 4634,
      "ĠDev": 4635,
      "Ġcrew": 4636,
      "ĠĊĠĊĊ": 4637,
      "Ġacquired": 4638,
      "ĠBal": 4639,
      "Ġeastern": 4640,
      "ĠLater": 4641,
      "selves": 4642,
      "thur": 4643,
      "Ġthemselves": 4644,
      "teen": 4645,
      "ouri": 4646,
      "42": 4647,
      "istricts": 4648,
      "Ġtracks": 4649,
      "Ġcitiz": 4650,
      "Ġeth": 4651,
      "ĠKar": 4652,
      "ĠBroad": 4653,
      "ĠAlexander": 4654,
      "ĠOfficial": 4655,
      "ĠBern": 4656,
      "ova": 4657,
      "Ġlos": 4658,
      "Ġâ": 4659,
      "Ġcities": 4660,
      "ĠShow": 4661,
      "ĠArgent": 4662,
      "ĠSyd": 4663,
      "Ġtoday": 4664,
      "Ġhouses": 4665,
      "Ġremaining": 4666,
      "Ġtarg": 4667,
      "ĠSa": 4668,
      "Ġfaculty": 4669,
      "utt": 4670,
      "ĠOlympic": 4671,
      "ĠIf": 4672,
      "vest": 4673,
      "ologist": 4674,
      "ĠNight": 4675,
      "Ġtroops": 4676,
      "ulations": 4677,
      "Ġcarried": 4678,
      "Ġchem": 4679,
      "ĠEle": 4680,
      "Ġbring": 4681,
      "Ġsurface": 4682,
      "ĠCard": 4683,
      "ĠTop": 4684,
      "Ġvote": 4685,
      "ĠSund": 4686,
      "Ð¸": 4687,
      "Rec": 4688,
      "Ġbrand": 4689,
      "Ġyouth": 4690,
      "track": 4691,
      "ĠMax": 4692,
      "Ġmovie": 4693,
      "Ġoffered": 4694,
      "een": 4695,
      "ĠKorea": 4696,
      "Ġhospital": 4697,
      "ĠLittle": 4698,
      "zy": 4699,
      "ĠEarth": 4700,
      "ĠRegiment": 4701,
      "ĠHead": 4702,
      "Ġsched": 4703,
      "ntario": 4704,
      "Am": 4705,
      "ogue": 4706,
      "peror": 4707,
      ".)": 4708,
      "Ġepisodes": 4709,
      "CC": 4710,
      "Ġmeaning": 4711,
      "150": 4712,
      "ĠEnter": 4713,
      "ĠEp": 4714,
      "Ġsociety": 4715,
      "ifying": 4716,
      "Ġheavy": 4717,
      "ĠPop": 4718,
      "ĠIslands": 4719,
      "Music": 4720,
      "ĠWater": 4721,
      "Ġdiss": 4722,
      "ĠHospital": 4723,
      "Ġbaseball": 4724,
      "Ġfort": 4725,
      "rupt": 4726,
      "ĠDet": 4727,
      "uts": 4728,
      "itting": 4729,
      "ennes": 4730,
      "hew": 4731,
      "uries": 4732,
      "ĠFar": 4733,
      "German": 4734,
      "Ġsource": 4735,
      "Ġstarting": 4736,
      "ellig": 4737,
      "yo": 4738,
      "Ġalways": 4739,
      "bre": 4740,
      "Ġlatter": 4741,
      "ĠChild": 4742,
      "emet": 4743,
      "Ġproposed": 4744,
      "Ġinteg": 4745,
      "Ġpromoted": 4746,
      "Ġrequire": 4747,
      "58": 4748,
      "Ġarchitect": 4749,
      "tra": 4750,
      "Ġvariety": 4751,
      "Ġestim": 4752,
      "ĠTheir": 4753,
      "Ġess": 4754,
      "Ġnative": 4755,
      "Ġonline": 4756,
      "Ġseparate": 4757,
      "ĠAk": 4758,
      "ronze": 4759,
      "wide": 4760,
      "more": 4761,
      "ĠJackson": 4762,
      "From": 4763,
      "ously": 4764,
      "Ġven": 4765,
      "ĠDevelopment": 4766,
      "ronic": 4767,
      "ĠTam": 4768,
      "ĠFinal": 4769,
      "ĠSpecial": 4770,
      "ĠJes": 4771,
      "ĠRay": 4772,
      "Association": 4773,
      "ĠGirl": 4774,
      "57": 4775,
      "Ġcat": 4776,
      "Ġadj": 4777,
      "ĠKen": 4778,
      "Ġwinner": 4779,
      "Ġprevent": 4780,
      "Ġcultural": 4781,
      "adian": 4782,
      "ione": 4783,
      "ĠLem": 4784,
      "According": 4785,
      "rif": 4786,
      "rin": 4787,
      "Ġdeliver": 4788,
      "Ġprovides": 4789,
      "Ġconsists": 4790,
      "ĠCat": 4791,
      "itude": 4792,
      "Ġpasseng": 4793,
      "Austral": 4794,
      "Ġunivers": 4795,
      "ĠUl": 4796,
      "Ġspl": 4797,
      "Ġmarriage": 4798,
      "ĠWall": 4799,
      "Ġlabel": 4800,
      "SS": 4801,
      "Ġindividuals": 4802,
      "izabeth": 4803,
      "ĠSpe": 4804,
      "Ġcharg": 4805,
      "ĠPolice": 4806,
      "Ġarticle": 4807,
      "ĠSydney": 4808,
      "phia": 4809,
      "Ġtemper": 4810,
      "ĠOf": 4811,
      "Ġmerg": 4812,
      "Ġexperience": 4813,
      "ais": 4814,
      "ĠBBC": 4815,
      "ocal": 4816,
      "ĠMov": 4817,
      "56": 4818,
      "ĠWay": 4819,
      "innes": 4820,
      "mas": 4821,
      "Ġmechan": 4822,
      "Ġconditions": 4823,
      "rovers": 4824,
      "Ġbrief": 4825,
      "icks": 4826,
      "With": 4827,
      "ĠFer": 4828,
      "Ġmakes": 4829,
      "ĠVill": 4830,
      "Ġcomment": 4831,
      "ĠAndrew": 4832,
      "ker": 4833,
      "uated": 4834,
      "Ġprovince": 4835,
      "Ġmainly": 4836,
      "Ġpeak": 4837,
      "ĠLy": 4838,
      "eld": 4839,
      "resp": 4840,
      "Ġnewspaper": 4841,
      "Ġgraduated": 4842,
      "Ġbridge": 4843,
      "Ġdemon": 4844,
      "Ġfoot": 4845,
      "ĠRel": 4846,
      "Ġdistin": 4847,
      "rate": 4848,
      "ims": 4849,
      "Ġtable": 4850,
      "ounds": 4851,
      "edd": 4852,
      "ĠPrize": 4853,
      "obile": 4854,
      "Ã¸": 4855,
      "Olymp": 4856,
      "ĠFour": 4857,
      "41": 4858,
      "Ġdone": 4859,
      "gu": 4860,
      "Ġdeep": 4861,
      "Ġsucceed": 4862,
      "Ġinfluence": 4863,
      "Ġoperation": 4864,
      "Polit": 4865,
      "ĠTri": 4866,
      "onsin": 4867,
      "Ġparties": 4868,
      "anth": 4869,
      "icine": 4870,
      "Ġprop": 4871,
      "ĠOntario": 4872,
      "Ġexcept": 4873,
      "innesota": 4874,
      "Ġserve": 4875,
      "adelphia": 4876,
      "ĠCorn": 4877,
      "ji": 4878,
      "Ġborder": 4879,
      "isconsin": 4880,
      "ĠAirport": 4881,
      "ĠBoy": 4882,
      "aven": 4883,
      "pet": 4884,
      "ĠRaj": 4885,
      "Ġcompl": 4886,
      "Personal": 4887,
      "ĠKorean": 4888,
      "illed": 4889,
      "Ġspeed": 4890,
      "icted": 4891,
      "Ġturned": 4892,
      "etherlands": 4893,
      "ĠCy": 4894,
      "Ġpoor": 4895,
      "Ġpartn": 4896,
      "Ġsn": 4897,
      "Ġdifficult": 4898,
      "Ġdepart": 4899,
      "Ġaffect": 4900,
      "Ġdouble": 4901,
      "ĠPeak": 4902,
      "istance": 4903,
      "atively": 4904,
      "ĠQueens": 4905,
      "Ġproblems": 4906,
      "uilding": 4907,
      "Ġresponsible": 4908,
      "RA": 4909,
      "ĠJustice": 4910,
      "Ġmight": 4911,
      "Ġoil": 4912,
      "uing": 4913,
      "Ðµ": 4914,
      "Ġface": 4915,
      "Ġfeaturing": 4916,
      "ĠViet": 4917,
      "ĠBir": 4918,
      "chestra": 4919,
      "ocks": 4920,
      "Ġstories": 4921,
      "Ġfifth": 4922,
      "Ġissued": 4923,
      "omm": 4924,
      "Ġdyn": 4925,
      "Ġextended": 4926,
      "ĠPen": 4927,
      "ez": 4928,
      "verse": 4929,
      "Ġplans": 4930,
      "Ġcapac": 4931,
      "Ġpra": 4932,
      "Ġdespite": 4933,
      "Ġrecent": 4934,
      "59": 4935,
      "ĠAsh": 4936,
      "ession": 4937,
      "lers": 4938,
      "ĠMany": 4939,
      "ĠHome": 4940,
      "Ġsculpt": 4941,
      "Äį": 4942,
      "agon": 4943,
      "-n": 4944,
      "Ġproducts": 4945,
      "ĠRod": 4946,
      "ĠKenn": 4947,
      "ortheast": 4948,
      "ĠÂ£": 4949,
      "eneral": 4950,
      "Ġcandidate": 4951,
      "Mar": 4952,
      "ĠSerb": 4953,
      "Ġelements": 4954,
      "omot": 4955,
      "Ġassistant": 4956,
      "ĠGame": 4957,
      "ibliography": 4958,
      "ĠSports": 4959,
      "ĠArm": 4960,
      "Ġour": 4961,
      "osa": 4962,
      "undred": 4963,
      "Ġfa": 4964,
      "erland": 4965,
      "Ġmusicians": 4966,
      "Ġdiscovered": 4967,
      "Ġexpatriate": 4968,
      "ĠVen": 4969,
      "ĠTy": 4970,
      "Ġathlet": 4971,
      "Ġtransferred": 4972,
      "Ġcontra": 4973,
      "88": 4974,
      "Ġbr": 4975,
      "ĠBab": 4976,
      "Art": 4977,
      "Ġpage": 4978,
      "Ġfinally": 4979,
      "Ġnature": 4980,
      "osh": 4981,
      "Ġrow": 4982,
      "Ġexecutive": 4983,
      "arp": 4984,
      "range": 4985,
      "ĠBand": 4986,
      "Ġelectric": 4987,
      "-N": 4988,
      "Ġsail": 4989,
      "Ġarrived": 4990,
      "worth": 4991,
      "Ġnearby": 4992,
      "Ġjun": 4993,
      "ĠBell": 4994,
      "Ġsoldiers": 4995,
      "aylor": 4996,
      "Ġstay": 4997,
      "Ġbenef": 4998,
      "Ġnearly": 4999,
      "hens": 5000,
      "ĠDaniel": 5001,
      "ighter": 5002,
      "Ġcause": 5003,
      "Ġadministrative": 5004,
      "Ġhonor": 5005,
      "ĠMedal": 5006,
      "Trans": 5007,
      "66": 5008,
      "bourne": 5009,
      "-J": 5010,
      "When": 5011,
      "Ġenough": 5012,
      "ropical": 5013,
      "ĠMinistry": 5014,
      "Ġsilver": 5015,
      "ĠRome": 5016,
      "Biography": 5017,
      "Ġmanaged": 5018,
      "Ġhere": 5019,
      "attalion": 5020,
      "Ġnecess": 5021,
      "light": 5022,
      "rics": 5023,
      "ek": 5024,
      "Ġcovered": 5025,
      "ĠProfessor": 5026,
      "ava": 5027,
      "ully": 5028,
      "weight": 5029,
      "ancy": 5030,
      "ĠLim": 5031,
      "ĠEs": 5032,
      "oto": 5033,
      "ĠPres": 5034,
      "Ġmaster": 5035,
      "Ġsaying": 5036,
      "Ġrugby": 5037,
      "can": 5038,
      "ening": 5039,
      "ĠAthlet": 5040,
      "Ġconstructed": 5041,
      "ĠElect": 5042,
      "secut": 5043,
      "Ġresidents": 5044,
      "175": 5045,
      "Ġasked": 5046,
      "ĠPrime": 5047,
      "Ġgun": 5048,
      "Ġnumbers": 5049,
      "umed": 5050,
      "Ġamb": 5051,
      "rict": 5052,
      "Ã£": 5053,
      "Ġprogress": 5054,
      "Ġvan": 5055,
      "Ġtold": 5056,
      "quarters": 5057,
      "ĠCop": 5058,
      "ba": 5059,
      "Ġleave": 5060,
      "ging": 5061,
      "Ġlikely": 5062,
      "Ġbackground": 5063,
      "ĠAvenue": 5064,
      "Ġvalue": 5065,
      "ĠColl": 5066,
      "Ġdirectly": 5067,
      "ĠEconom": 5068,
      "get": 5069,
      "EC": 5070,
      "Ġancient": 5071,
      "ĠJoe": 5072,
      "ĠRevolution": 5073,
      "owa": 5074,
      "Ġincreasing": 5075,
      "ĠSupreme": 5076,
      "Ġwinners": 5077,
      "ĠCharl": 5078,
      "Ġ+": 5079,
      "Olympic": 5080,
      "Ġcorn": 5081,
      "Ġlives": 5082,
      "Ġaddress": 5083,
      "Ġconfl": 5084,
      "Ġvoice": 5085,
      "olitan": 5086,
      "OS": 5087,
      "Ġrenamed": 5088,
      "Ġpath": 5089,
      ".D": 5090,
      "Ġcolor": 5091,
      "ĠCambridge": 5092,
      "perial": 5093,
      "ĠBelg": 5094,
      "Ġorigin": 5095,
      "achel": 5096,
      "vanced": 5097,
      "ydro": 5098,
      "ĠTownship": 5099,
      "Ġdead": 5100,
      "ĠFederal": 5101,
      "Ġlevels": 5102,
      "amber": 5103,
      "wegian": 5104,
      "Don": 5105,
      "book": 5106,
      "writer": 5107,
      "ĠGuard": 5108,
      "Ġdrug": 5109,
      "Ġsecurity": 5110,
      "ĠNations": 5111,
      "43": 5112,
      "Ġult": 5113,
      "400": 5114,
      "Ġsquare": 5115,
      "ĠToronto": 5116,
      "ĠRog": 5117,
      "Ġprojects": 5118,
      "Ġcomputer": 5119,
      "ĠJeff": 5120,
      "ensity": 5121,
      "Ġpick": 5122,
      "ĠAff": 5123,
      "ĠEnd": 5124,
      "bl": 5125,
      "Ġcard": 5126,
      "Ġwords": 5127,
      "Ġthr": 5128,
      "ĠLew": 5129,
      "Not": 5130,
      "Ġconstitu": 5131,
      "Ġfriends": 5132,
      "Ġwhole": 5133,
      "ĠMuslim": 5134,
      "Ġsubs": 5135,
      "ĠSong": 5136,
      "ĠCE": 5137,
      "Ġwanted": 5138,
      "Ġrural": 5139,
      "Ã©e": 5140,
      "78": 5141,
      "Ġconsider": 5142,
      "Ġlanguages": 5143,
      "irmed": 5144,
      "Ġparticipated": 5145,
      "Ġneighbor": 5146,
      "Ġalongside": 5147,
      "erc": 5148,
      "nic": 5149,
      "ĠCorporation": 5150,
      "rolled": 5151,
      "Ġsolo": 5152,
      "Ġchannel": 5153,
      "Ġpp": 5154,
      "Ġmunicipal": 5155,
      "ĠPakistan": 5156,
      "ĠElizabeth": 5157,
      "ternet": 5158,
      "IA": 5159,
      "orning": 5160,
      "inson": 5161,
      "Ġleaders": 5162,
      "Ġconcept": 5163,
      "ĠNetherlands": 5164,
      "Ġinh": 5165,
      "Ġacademic": 5166,
      "Ġcycl": 5167,
      "Ġarchitecture": 5168,
      "iginal": 5169,
      "Ġang": 5170,
      "Ġrevealed": 5171,
      "Ġraces": 5172,
      "orship": 5173,
      "vin": 5174,
      "ois": 5175,
      "ĠMir": 5176,
      "ĠAnton": 5177,
      "ĠRegion": 5178,
      "ading": 5179,
      "ĠProgram": 5180,
      "yth": 5181,
      "ĠCommon": 5182,
      "Ġprimarily": 5183,
      "igen": 5184,
      "ĠWisconsin": 5185,
      "hemat": 5186,
      "ĠTechnology": 5187,
      "Ġwhether": 5188,
      "Ġsport": 5189,
      "Ġpan": 5190,
      "aped": 5191,
      "Ġkind": 5192,
      "ĠColor": 5193,
      "ucky": 5194,
      "ĠBrig": 5195,
      "ĠDuke": 5196,
      "Ġsurn": 5197,
      "Ġpositive": 5198,
      "ĠLight": 5199,
      "wick": 5200,
      "emetery": 5201,
      "ĠStadium": 5202,
      "Ġparish": 5203,
      "Ġiniti": 5204,
      "iat": 5205,
      "ĠPremier": 5206,
      "Ġimpact": 5207,
      "Ġlisting": 5208,
      "ĠTok": 5209,
      "ĠSab": 5210,
      "enge": 5211,
      "Ġfirm": 5212,
      "ĠWork": 5213,
      "Ġinitial": 5214,
      "Ġdomin": 5215,
      "ĠBa": 5216,
      "oud": 5217,
      "Ġmedalists": 5218,
      "Ġeffects": 5219,
      "ilton": 5220,
      "Ġsources": 5221,
      "ĠBon": 5222,
      "Ġofficially": 5223,
      "Ġweap": 5224,
      "establ": 5225,
      "Ġletter": 5226,
      "ĠChap": 5227,
      "iral": 5228,
      "urches": 5229,
      "ĠUSA": 5230,
      "176": 5231,
      "ĠSom": 5232,
      "International": 5233,
      "ĠSwedish": 5234,
      "iest": 5235,
      "ĠJon": 5236,
      "Ġpit": 5237,
      "Ġrule": 5238,
      "-E": 5239,
      "=left": 5240,
      "ĠPubl": 5241,
      "Ġadministration": 5242,
      "Ġsal": 5243,
      "ishes": 5244,
      "US": 5245,
      "ĠBol": 5246,
      "Ġsusp": 5247,
      "Ġconducted": 5248,
      "Ġreplace": 5249,
      "ributed": 5250,
      "edom": 5251,
      "portun": 5252,
      "ĠSquad": 5253,
      "dis": 5254,
      "Ġdisp": 5255,
      "ech": 5256,
      "52": 5257,
      "-day": 5258,
      "ĠBishop": 5259,
      "ĠMinnesota": 5260,
      "Ġlaws": 5261,
      "Ġheart": 5262,
      "ĠDun": 5263,
      "ĠTurk": 5264,
      "51": 5265,
      "itter": 5266,
      "ĠIndepend": 5267,
      "Ġrules": 5268,
      "Ġchampion": 5269,
      "South": 5270,
      "Sw": 5271,
      "ables": 5272,
      "erto": 5273,
      "Ġfell": 5274,
      "ĠThree": 5275,
      "Ġchap": 5276,
      "Ġliterature": 5277,
      "ĠAtt": 5278,
      "Awards": 5279,
      "oration": 5280,
      "rical": 5281,
      "respond": 5282,
      "Ġshare": 5283,
      "French": 5284,
      "Ġreason": 5285,
      "regon": 5286,
      "Ġdark": 5287,
      "Women": 5288,
      "Ġworkers": 5289,
      "Ġstars": 5290,
      "ĠRoute": 5291,
      "eller": 5292,
      "Ġgas": 5293,
      "heim": 5294,
      "ĠHind": 5295,
      "Ġremoved": 5296,
      "-re": 5297,
      "ears": 5298,
      "ĠSanta": 5299,
      "MA": 5300,
      "Back": 5301,
      "ĠBoth": 5302,
      "Ġspread": 5303,
      "living": 5304,
      "Ġnotable": 5305,
      "Ġnation": 5306,
      "war": 5307,
      "ĠBad": 5308,
      "ctoral": 5309,
      "ĠBrad": 5310,
      "ĠHuman": 5311,
      "By": 5312,
      "ocated": 5313,
      "athan": 5314,
      "ĠPhiladelphia": 5315,
      "ĠLes": 5316,
      "Ġimplement": 5317,
      "ĠBu": 5318,
      "-to": 5319,
      "Ġextra": 5320,
      "Ġly": 5321,
      "enes": 5322,
      "Ġidea": 5323,
      "aging": 5324,
      "Ġcontinue": 5325,
      "iced": 5326,
      "ĠCub": 5327,
      "Ġdedicated": 5328,
      "ĠLt": 5329,
      "His": 5330,
      "ĠProject": 5331,
      "Ġbecomes": 5332,
      "Ġgrew": 5333,
      "World": 5334,
      "Cast": 5335,
      "inity": 5336,
      "ĠSher": 5337,
      ";Ċ": 5338,
      "77": 5339,
      "olis": 5340,
      "Ġprominent": 5341,
      "Ġdigital": 5342,
      "ounded": 5343,
      "Track": 5344,
      "Ġpiano": 5345,
      "Ġscene": 5346,
      "ĠMike": 5347,
      "Ġrecover": 5348,
      "ĠWilson": 5349,
      "ĠSciences": 5350,
      "orter": 5351,
      "je": 5352,
      "MS": 5353,
      "ĠTod": 5354,
      "ĠCa": 5355,
      "Ġdirection": 5356,
      "ĠAut": 5357,
      "itled": 5358,
      "Ġsyn": 5359,
      "Ġpaper": 5360,
      "efef": 5361,
      "ori": 5362,
      "ĠEst": 5363,
      "ĠAv": 5364,
      "raq": 5365,
      "enna": 5366,
      "Ġsoftware": 5367,
      "Ġmetal": 5368,
      "Ġbasis": 5369,
      "watch": 5370,
      "Ġminister": 5371,
      "anga": 5372,
      "force": 5373,
      "ĠWinter": 5374,
      "ĠLady": 5375,
      "Ġdisplay": 5376,
      "Ġregist": 5377,
      "Ġplanned": 5378,
      "ĠOrgan": 5379,
      "Ġproduct": 5380,
      "Ġuns": 5381,
      "Ġordered": 5382,
      "Ġera": 5383,
      "ĠTai": 5384,
      "Ġarticles": 5385,
      "Ġwithd": 5386,
      "Ġfollows": 5387,
      "ĠSweden": 5388,
      "Ġintended": 5389,
      "Ġproduce": 5390,
      "ĠForest": 5391,
      "Ġtowns": 5392,
      "ĠMic": 5393,
      "Ġut": 5394,
      "ensis": 5395,
      "ographic": 5396,
      "Ä±": 5397,
      "-K": 5398,
      "FF": 5399,
      "Ġhouseholds": 5400,
      "ĠAh": 5401,
      "Ġcapacity": 5402,
      "Ġpotential": 5403,
      "resh": 5404,
      "Ġdivided": 5405,
      "onym": 5406,
      "roup": 5407,
      "Ġsettlement": 5408,
      "Ġmountain": 5409,
      "-ele": 5410,
      "ĠPers": 5411,
      "Ġgrowth": 5412,
      "Ed": 5413,
      "Ġtypes": 5414,
      "Ġtal": 5415,
      "ga": 5416,
      "Ġbranch": 5417,
      "Ġtreatment": 5418,
      "ivity": 5419,
      "formed": 5420,
      "Ġbehav": 5421,
      "yal": 5422,
      "Ġgreen": 5423,
      "ĠCzech": 5424,
      "oral": 5425,
      "ĠCommunity": 5426,
      "Ġnovels": 5427,
      "Will": 5428,
      "Ġpurs": 5429,
      "Ġvac": 5430,
      "Ġrat": 5431,
      "ĠBridge": 5432,
      "ixed": 5433,
      "Ġbelong": 5434,
      "Ġhighly": 5435,
      "thing": 5436,
      "ĠBi": 5437,
      "Ġinside": 5438,
      "ĠBaron": 5439,
      "Ġactivity": 5440,
      "ĠSus": 5441,
      "Ġhistoric": 5442,
      "ĠPu": 5443,
      "ĠFair": 5444,
      "Ġassociation": 5445,
      "ads": 5446,
      "Ġcomposer": 5447,
      "ns": 5448,
      "68": 5449,
      "aki": 5450,
      "mod": 5451,
      "izes": 5452,
      "ĠAnth": 5453,
      "Ġscholars": 5454,
      "Ġtouch": 5455,
      "Ġmixed": 5456,
      "Ġillust": 5457,
      "Ġdestroyed": 5458,
      "ĠHay": 5459,
      "Ġsmaller": 5460,
      "Ġforward": 5461,
      "Ġclear": 5462,
      "Ġcounter": 5463,
      "Ð½": 5464,
      "ĠRepresentatives": 5465,
      "Ġequipment": 5466,
      "-old": 5467,
      "Ġdance": 5468,
      "Ġsites": 5469,
      "ĠIndiana": 5470,
      "rade": 5471,
      "Ãº": 5472,
      "Ġyet": 5473,
      "nce": 5474,
      "ervative": 5475,
      "ennessee": 5476,
      "Ġplants": 5477,
      "fefef": 5478,
      "fefefe": 5479,
      "hu": 5480,
      "Ġfacilities": 5481,
      "Ġquickly": 5482,
      "iant": 5483,
      "Ġunknown": 5484,
      "asty": 5485,
      "ĠMain": 5486,
      ".g": 5487,
      "Ġtitles": 5488,
      "imal": 5489,
      "Ġstreet": 5490,
      "Ġhosted": 5491,
      "ĠPower": 5492,
      "Ġautom": 5493,
      "ĠStudies": 5494,
      "Ġagric": 5495,
      "Ã£o": 5496,
      "kin": 5497,
      "lyn": 5498,
      "ĠIndust": 5499,
      "Ġphysical": 5500,
      "ropolitan": 5501,
      "ĠMissouri": 5502,
      "ĠBudd": 5503,
      "Populated": 5504,
      "urd": 5505,
      "illery": 5506,
      "ĠKir": 5507,
      "restling": 5508,
      "Ġcontact": 5509,
      "Ġcontrovers": 5510,
      "ĠLegisl": 5511,
      "aded": 5512,
      "greg": 5513,
      "astic": 5514,
      "Ġvotes": 5515,
      "-class": 5516,
      "Ġinstitutions": 5517,
      "Ġrespectively": 5518,
      "ĠFire": 5519,
      "bles": 5520,
      "Ġnucle": 5521,
      "Ġquestion": 5522,
      "Ne": 5523,
      "ĠMaster": 5524,
      "Ġsymb": 5525,
      "Ġfemales": 5526,
      "ami": 5527,
      "One": 5528,
      "Ġlies": 5529,
      "arry": 5530,
      "Ġcampus": 5531,
      "ĠBusiness": 5532,
      "col": 5533,
      "Ġrepe": 5534,
      "El": 5535,
      "rence": 5536,
      "iform": 5537,
      "ĠWars": 5538,
      "Ġfeel": 5539,
      "Ġfloor": 5540,
      "ression": 5541,
      "ĠFollowing": 5542,
      "like": 5543,
      "Ġformat": 5544,
      "Ġmoving": 5545,
      "Bibliography": 5546,
      "cow": 5547,
      "Ġassigned": 5548,
      "Ġattend": 5549,
      "fort": 5550,
      "ĠFI": 5551,
      "ĠMun": 5552,
      "Ġupper": 5553,
      "Ġability": 5554,
      "eman": 5555,
      "Ġcommonly": 5556,
      "Ġefforts": 5557,
      "Ġopportun": 5558,
      "real": 5559,
      "ĠMilitary": 5560,
      "Ġimmediately": 5561,
      "Ġconver": 5562,
      "Ġoperating": 5563,
      "ĠColon": 5564,
      "eather": 5565,
      "ĠId": 5566,
      "Ġpurchased": 5567,
      "Ġcomes": 5568,
      "Ġcaptured": 5569,
      "andon": 5570,
      "Ġcitizens": 5571,
      "ĠJoh": 5572,
      "Dem": 5573,
      "sey": 5574,
      "Ital": 5575,
      "Ġmax": 5576,
      "69": 5577,
      "Ġmodels": 5578,
      "Ġdistricts": 5579,
      "ĠFle": 5580,
      "Ġtrial": 5581,
      "rizona": 5582,
      "ĠIndones": 5583,
      "Ġflight": 5584,
      "ibb": 5585,
      "gar": 5586,
      "aph": 5587,
      "estic": 5588,
      "Ġstore": 5589,
      "ĠChris": 5590,
      "ĠCastle": 5591,
      "ĠAdd": 5592,
      "Ġtitled": 5593,
      "ĠMedia": 5594,
      "Ġaccepted": 5595,
      "Ġfellow": 5596,
      "ĠWalk": 5597,
      "ĠGolden": 5598,
      "ĠTaylor": 5599,
      "ĠBarb": 5600,
      "CO": 5601,
      "iang": 5602,
      "Ġpal": 5603,
      "ĠSu": 5604,
      "ĠOregon": 5605,
      "unct": 5606,
      "Ġstreng": 5607,
      "Ġpet": 5608,
      "amin": 5609,
      "cul": 5610,
      "ÑĢ": 5611,
      "Ġgiving": 5612,
      "ĠEP": 5613,
      "Ġproblem": 5614,
      "Ġthink": 5615,
      "Ġleaves": 5616,
      "ĠGree": 5617,
      "arc": 5618,
      "Ġstra": 5619,
      "Ġmotor": 5620,
      "-le": 5621,
      "Ġcerem": 5622,
      "urer": 5623,
      "ĠCaptain": 5624,
      "ĠDiv": 5625,
      "Ġengineer": 5626,
      "edia": 5627,
      "kh": 5628,
      "apore": 5629,
      "Ġfavor": 5630,
      "Ġcontest": 5631,
      "elligence": 5632,
      "ĠRom": 5633,
      "aug": 5634,
      "Ġestate": 5635,
      "Ġprogramming": 5636,
      "Ġtarget": 5637,
      "ĠCirc": 5638,
      "ĠMaria": 5639,
      "ĠDam": 5640,
      "ĠMunicip": 5641,
      "opher": 5642,
      "Ã¼r": 5643,
      "Ġblood": 5644,
      "ĠNaz": 5645,
      "Ġreach": 5646,
      "Ġorganized": 5647,
      "Ġreviews": 5648,
      "ĠHu": 5649,
      "Ġcharge": 5650,
      "Ġroles": 5651,
      "Ġsemi": 5652,
      "abb": 5653,
      "ĠConne": 5654,
      "ĠArthur": 5655,
      "Ġaffili": 5656,
      "Ġowner": 5657,
      "Ġhop": 5658,
      "iplom": 5659,
      "Ġdeclared": 5660,
      "Ġlif": 5661,
      "ĠMedical": 5662,
      "anna": 5663,
      "Ġcars": 5664,
      "sky": 5665,
      "67": 5666,
      "ĠMexican": 5667,
      "Geography": 5668,
      "alo": 5669,
      "Ġapproach": 5670,
      "cest": 5671,
      "oli": 5672,
      "ĠBeach": 5673,
      "Ġparliament": 5674,
      "Ġsoc": 5675,
      "Ġattra": 5676,
      "orph": 5677,
      "raine": 5678,
      "Ġteacher": 5679,
      "duce": 5680,
      "jan": 5681,
      "ader": 5682,
      "ĠUt": 5683,
      "ĠHan": 5684,
      "Ġfounder": 5685,
      "eder": 5686,
      "Ġadopted": 5687,
      "Ġterritory": 5688,
      "ĠNetwork": 5689,
      "olid": 5690,
      "bell": 5691,
      "ĠSon": 5692,
      "ĠLo": 5693,
      "aret": 5694,
      "Ġenem": 5695,
      "ito": 5696,
      "Ġneeded": 5697,
      ",Ċ": 5698,
      "osophy": 5699,
      "Ġbad": 5700,
      "Ġhousing": 5701,
      "ĠEarl": 5702,
      "met": 5703,
      "ĠKansas": 5704,
      "ĠMarsh": 5705,
      "ĠÎ": 5706,
      "Ġsumm": 5707,
      "Ġattention": 5708,
      "Ġquality": 5709,
      "ĠFrancis": 5710,
      "Ġbeat": 5711,
      "Ġsens": 5712,
      "Ġdisease": 5713,
      "ĠKitt": 5714,
      "Ġpeace": 5715,
      "LA": 5716,
      "ika": 5717,
      "ĠOffic": 5718,
      "Ġstone": 5719,
      "Ġconfirmed": 5720,
      "ĠForm": 5721,
      "Ġperman": 5722,
      "',": 5723,
      "ĠKim": 5724,
      "Ġwalk": 5725,
      "gn": 5726,
      "Ġec": 5727,
      "Man": 5728,
      "aga": 5729,
      "Ġfiction": 5730,
      "Ġpositions": 5731,
      "Ġ.Ċ": 5732,
      "odies": 5733,
      "oln": 5734,
      "Ġanalysis": 5735,
      "Ġlay": 5736,
      "98": 5737,
      "uls": 5738,
      "Ġwa": 5739,
      "Ġagreed": 5740,
      "ĠHighway": 5741,
      "Ġwing": 5742,
      "Ġprec": 5743,
      "ĠBaseball": 5744,
      "ĠGallery": 5745,
      "ĠAlf": 5746,
      "erick": 5747,
      "li": 5748,
      "Ġdocumentary": 5749,
      "ĠHamp": 5750,
      "Ġagreement": 5751,
      "Ġcompared": 5752,
      "ething": 5753,
      "oven": 5754,
      "Ġestimated": 5755,
      "Ġfigure": 5756,
      "Ġrecon": 5757,
      "Ġrare": 5758,
      "Ġcorrespond": 5759,
      "Ġmedian": 5760,
      "Ġenter": 5761,
      "Ġcontent": 5762,
      "ĠMarc": 5763,
      "Ã¢": 5764,
      "ibly": 5765,
      "uled": 5766,
      "Ġcombined": 5767,
      "ĠDavis": 5768,
      "yes": 5769,
      "Ġgained": 5770,
      "Ġconference": 5771,
      "Ġbig": 5772,
      "Ġserves": 5773,
      "Ġmiles": 5774,
      "Ġswim": 5775,
      "ĠAtlantic": 5776,
      "unte": 5777,
      "Ġcoin": 5778,
      "ighth": 5779,
      "ĠKel": 5780,
      "Ġelim": 5781,
      "Ġsuffered": 5782,
      "Ġvs": 5783,
      "Ġdistribution": 5784,
      "Ġtypically": 5785,
      "ĠStephen": 5786,
      "ĠDespite": 5787,
      "Ġfr": 5788,
      "Ġindustrial": 5789,
      "Par": 5790,
      "SP": 5791,
      "Ġoccurred": 5792,
      "osen": 5793,
      "Ġelev": 5794,
      "ansion": 5795,
      "ĠBrook": 5796,
      "Ġwidely": 5797,
      "ĠPhilippines": 5798,
      "ĠNorway": 5799,
      "itness": 5800,
      "Ġengineering": 5801,
      "ĠTal": 5802,
      "gers": 5803,
      "ĠMoh": 5804,
      "Ġhundred": 5805,
      "ĠTennessee": 5806,
      "HL": 5807,
      "ÃŃa": 5808,
      "Ġvess": 5809,
      "Ġleadership": 5810,
      "54": 5811,
      "ĠMember": 5812,
      "ĠĠĠ": 5813,
      "ĠLI": 5814,
      "venth": 5815,
      "rog": 5816,
      "ĠConf": 5817,
      "ĠColorado": 5818,
      "Ġconcent": 5819,
      "Ġprobably": 5820,
      "lah": 5821,
      "ĠMountain": 5822,
      "mad": 5823,
      "ancing": 5824,
      "oster": 5825,
      "160": 5826,
      "ĠLind": 5827,
      "Ġbronze": 5828,
      "oles": 5829,
      "ĠRem": 5830,
      "ĠFederation": 5831,
      "Canadian": 5832,
      "kes": 5833,
      "And": 5834,
      "Ġlargely": 5835,
      "ĠRad": 5836,
      "ĠFe": 5837,
      "present": 5838,
      "tle": 5839,
      "Ġseats": 5840,
      "elle": 5841,
      "orge": 5842,
      "olved": 5843,
      "oti": 5844,
      "ĠDar": 5845,
      "acter": 5846,
      "ĠTurkey": 5847,
      "Ġjoint": 5848,
      "Ġflag": 5849,
      "works": 5850,
      "Ġlabor": 5851,
      "ashion": 5852,
      "Ġpolitics": 5853,
      "ĠTest": 5854,
      "ĠFox": 5855,
      "ĠAlso": 5856,
      "TA": 5857,
      "ĠSpacewatch": 5858,
      "ĠBec": 5859,
      "Ġacting": 5860,
      "ĠAdminist": 5861,
      "itional": 5862,
      "ĠKal": 5863,
      "ĠJunior": 5864,
      "CAA": 5865,
      "ĠRet": 5866,
      "ĠHo": 5867,
      "Ġcontemporary": 5868,
      "uese": 5869,
      "ĠBall": 5870,
      "Ġclassical": 5871,
      "ambig": 5872,
      "ĠMemorial": 5873,
      "agh": 5874,
      "ĠMarg": 5875,
      "VD": 5876,
      "ĠIraq": 5877,
      "iques": 5878,
      "Ġresident": 5879,
      "Ġfast": 5880,
      "hedral": 5881,
      "ĠPit": 5882,
      "ĠSteve": 5883,
      "water": 5884,
      "Ġpressure": 5885,
      "Ġarts": 5886,
      "Ġconclud": 5887,
      "Ġdistance": 5888,
      "Nov": 5889,
      "Ġcancer": 5890,
      "vard": 5891,
      "Ġvot": 5892,
      "53": 5893,
      "ĠCountry": 5894,
      "zo": 5895,
      "ĠTa": 5896,
      "Ġunc": 5897,
      "Ġcoming": 5898,
      "former": 5899,
      "Ġmentioned": 5900,
      "Ġoffers": 5901,
      "Sportspeople": 5902,
      "ĠReview": 5903,
      "aro": 5904,
      "ĠWeek": 5905,
      "iti": 5906,
      "Ġvillages": 5907,
      "cles": 5908,
      "Ġprin": 5909,
      "ician": 5910,
      "Ġcode": 5911,
      "Ġpoll": 5912,
      "Ġsearch": 5913,
      "Ġrecently": 5914,
      "ĠRon": 5915,
      "Ġcrime": 5916,
      "rÃ©": 5917,
      "pson": 5918,
      "Ġrecognized": 5919,
      "usion": 5920,
      "Ġtherefore": 5921,
      "iling": 5922,
      "Ġpresence": 5923,
      "Ġx": 5924,
      "Ġjournalist": 5925,
      "Ġhor": 5926,
      "Ġurban": 5927,
      "Ġstream": 5928,
      "ĠPrim": 5929,
      "Ġresulted": 5930,
      "uate": 5931,
      "Ġcolumn": 5932,
      "Ġmess": 5933,
      "Ġboy": 5934,
      "idi": 5935,
      "aks": 5936,
      "incial": 5937,
      "Ġir": 5938,
      "ĠGreg": 5939,
      "Ġeducated": 5940,
      "ingham": 5941,
      "ĠPier": 5942,
      "170": 5943,
      "West": 5944,
      "Ġweight": 5945,
      "iders": 5946,
      "ĠLemmon": 5947,
      "Ġperformances": 5948,
      "-ch": 5949,
      "ĠEngineering": 5950,
      "Ġ(,": 5951,
      "Ġnominated": 5952,
      "ĠRoss": 5953,
      "ĠSav": 5954,
      "Ġdamage": 5955,
      "Ġcam": 5956,
      "ĠMaryland": 5957,
      "mitted": 5958,
      "Ġabandon": 5959,
      "Ġbegins": 5960,
      "We": 5961,
      "Ġcoal": 5962,
      "ussian": 5963,
      "Ġsecondary": 5964,
      "uildings": 5965,
      "inner": 5966,
      "bot": 5967,
      "mes": 5968,
      "iller": 5969,
      "Ġstarring": 5970,
      "ilation": 5971,
      "Ġretire": 5972,
      "Ġsales": 5973,
      "Ġcritical": 5974,
      "Ġversions": 5975,
      "Ġsexual": 5976,
      "ĠMoscow": 5977,
      "Ġexpanded": 5978,
      "-sh": 5979,
      "Gu": 5980,
      "rage": 5981,
      "Ġofficials": 5982,
      "andy": 5983,
      "ĠNic": 5984,
      "ĠBrother": 5985,
      "ĠâĢł": 5986,
      "ĠOcean": 5987,
      "Ġinstrument": 5988,
      "ĠCommand": 5989,
      "mouth": 5990,
      "ĠArea": 5991,
      "ĠSem": 5992,
      "Ġyards": 5993,
      "ĠAlb": 5994,
      "Ġgraph": 5995,
      "Ġhar": 5996,
      "Ġreduced": 5997,
      "Ġbal": 5998,
      "etting": 5999,
      "ĠDisc": 6000,
      "inus": 6001,
      "Ġblue": 6002,
      "Ġidentified": 6003,
      "ĠLive": 6004,
      "ĠHal": 6005,
      "isa": 6006,
      "Ġencou": 6007,
      "asters": 6008,
      "igrants": 6009,
      "ĠâĢĺ": 6010,
      "ogs": 6011,
      "Ġresulting": 6012,
      "ambiguation": 6013,
      "Ġburied": 6014,
      "Ġpainting": 6015,
      "Ġranked": 6016,
      "ĠJews": 6017,
      "Indian": 6018,
      "Ġtim": 6019,
      "ĠBat": 6020,
      "Ġconcert": 6021,
      "Ġreform": 6022,
      "Ġsecret": 6023,
      "Ġcreation": 6024,
      "claim": 6025,
      "Ġmicro": 6026,
      "ĠHy": 6027,
      "Ġhabit": 6028,
      "ĠRen": 6029,
      "ĠSquadron": 6030,
      "ictional": 6031,
      "wealth": 6032,
      "Sources": 6033,
      "which": 6034,
      "viation": 6035,
      "tainment": 6036,
      "ĠLeon": 6037,
      "Death": 6038,
      "atus": 6039,
      "Ġexpected": 6040,
      "ĠQueensland": 6041,
      "ĠLewis": 6042,
      "grad": 6043,
      "Ġdefend": 6044,
      "ĠHor": 6045,
      "bra": 6046,
      "bro": 6047,
      "ttp": 6048,
      "Ġknowledge": 6049,
      "ante": 6050,
      "ymn": 6051,
      "Ġpict": 6052,
      "Ġnewly": 6053,
      "ĠMalays": 6054,
      "Ġgranted": 6055,
      "ĠStr": 6056,
      "Ġcommittee": 6057,
      "ĠCas": 6058,
      "Ġfish": 6059,
      "Ġchairman": 6060,
      "Ġtaught": 6061,
      "ĠBooks": 6062,
      "ĠWat": 6063,
      "Ġtheatre": 6064,
      "Ġspons": 6065,
      "oly": 6066,
      "ĠPolit": 6067,
      "Ġadapt": 6068,
      "08": 6069,
      "ĠĊĠĊĠĊĠĊ": 6070,
      "Ġprep": 6071,
      "TC": 6072,
      "Ġmill": 6073,
      "Ġwild": 6074,
      "ĊĠĊ": 6075,
      "Ġcouple": 6076,
      "ĠBru": 6077,
      "ĠSpring": 6078,
      "Ġscoring": 6079,
      "Ġdrums": 6080,
      "ĠMas": 6081,
      "Char": 6082,
      "Ġcarri": 6083,
      "ĠPass": 6084,
      "ĠMelbourne": 6085,
      "place": 6086,
      "May": 6087,
      "ĠArizona": 6088,
      "ordin": 6089,
      "Ġimage": 6090,
      "ĠFamily": 6091,
      "Ġpattern": 6092,
      "Ġactually": 6093,
      "ĠVo": 6094,
      "Ġtwice": 6095,
      "Ġfelt": 6096,
      "ĠNiger": 6097,
      "Ġpack": 6098,
      "ni": 6099,
      "Ġserious": 6100,
      "ĠDer": 6101,
      "umes": 6102,
      "itzerland": 6103,
      "Ġgovernor": 6104,
      "GB": 6105,
      "Ġthous": 6106,
      "Ġtrue": 6107,
      "Background": 6108,
      "-off": 6109,
      "Ġattacks": 6110,
      "ĠKhan": 6111,
      "ĠAnother": 6112,
      "ĠSri": 6113,
      "ER": 6114,
      "aling": 6115,
      "Å«": 6116,
      "ĠStock": 6117,
      "Ġrecomm": 6118,
      "Ġproviding": 6119,
      "Ġlosing": 6120,
      "Australian": 6121,
      "ager": 6122,
      "79": 6123,
      "ournament": 6124,
      "Ġformation": 6125,
      "osis": 6126,
      "IC": 6127,
      "Ġstrugg": 6128,
      "ello": 6129,
      "Ġetc": 6130,
      "Ġreceive": 6131,
      "rell": 6132,
      "Â°": 6133,
      "Ġyounger": 6134,
      "Pr": 6135,
      "Ñģ": 6136,
      "Ġsurrounding": 6137,
      "Ġrom": 6138,
      "pass": 6139,
      "incoln": 6140,
      "ĠArk": 6141,
      "Ġalle": 6142,
      "ĠJer": 6143,
      "Ġdial": 6144,
      "Ġwall": 6145,
      "Ġbow": 6146,
      "gg": 6147,
      "ocese": 6148,
      "hips": 6149,
      "ivals": 6150,
      "Ġcab": 6151,
      "oths": 6152,
      "Ġexperiment": 6153,
      "lahoma": 6154,
      "Rail": 6155,
      "ipe": 6156,
      "room": 6157,
      "iot": 6158,
      "Ġgives": 6159,
      "urrent": 6160,
      "ĠTrust": 6161,
      "ordon": 6162,
      "miss": 6163,
      "Ġpaid": 6164,
      "Ġnet": 6165,
      "ĠDor": 6166,
      "ĠManagement": 6167,
      "Ġsuppl": 6168,
      "esign": 6169,
      "Disc": 6170,
      "Ġcaptain": 6171,
      "ĠAustria": 6172,
      "ĠHart": 6173,
      "ouses": 6174,
      "Ġcontinues": 6175,
      "''": 6176,
      "Ġlibrary": 6177,
      "Ġspirit": 6178,
      "Ac": 6179,
      "ĠInfantry": 6180,
      "Ġtree": 6181,
      "disambiguation": 6182,
      "Ġregions": 6183,
      "iny": 6184,
      "aints": 6185,
      "ĠDec": 6186,
      "Ġcommander": 6187,
      "ĠPhilip": 6188,
      "anning": 6189,
      "ĠConc": 6190,
      "Ġsays": 6191,
      "Ġclaims": 6192,
      "Ġauthorities": 6193,
      "ĠAffairs": 6194,
      "ĠForeign": 6195,
      "09": 6196,
      "lywood": 6197,
      "Ġcompon": 6198,
      "Television": 6199,
      "bed": 6200,
      "ĠUs": 6201,
      "Ġobtained": 6202,
      "Col": 6203,
      "Ġcells": 6204,
      "Ġgreater": 6205,
      "also": 6206,
      "ĠRang": 6207,
      "Ġracing": 6208,
      "Ġkept": 6209,
      "ographer": 6210,
      "keep": 6211,
      "Ġformerly": 6212,
      "Ġcrim": 6213,
      "Ġlaunch": 6214,
      "Ġfestival": 6215,
      "net": 6216,
      "Ġsplit": 6217,
      "ruit": 6218,
      "ĠTs": 6219,
      "eline": 6220,
      "ĠEmperor": 6221,
      "Ġcoaches": 6222,
      "Ġpremier": 6223,
      "Ġtrains": 6224,
      "No": 6225,
      "ĠKentucky": 6226,
      "Ġspring": 6227,
      "Ġpainter": 6228,
      "Ġinjury": 6229,
      "-val": 6230,
      "ecutive": 6231,
      "Ġbott": 6232,
      "Ġpurpose": 6233,
      "www": 6234,
      "ĠSingapore": 6235,
      "abama": 6236,
      "Ġsuggested": 6237,
      "ĠBalt": 6238,
      "Ġnotes": 6239,
      "Ġvehicles": 6240,
      "76": 6241,
      "vo": 6242,
      "Ġfinish": 6243,
      "uous": 6244,
      "Ġpropos": 6245,
      "Tax": 6246,
      "Ġtwenty": 6247,
      "Ġcannot": 6248,
      "ĠNorwegian": 6249,
      "Ġtraffic": 6250,
      "Ġcritics": 6251,
      "Ġtells": 6252,
      "ĠSurvey": 6253,
      "ĠVietnam": 6254,
      "Ġloan": 6255,
      "Ġfigures": 6256,
      "ĠIowa": 6257,
      "ĠHard": 6258,
      "Ġvocal": 6259,
      "ĠOd": 6260,
      "Ġallows": 6261,
      "Ġdesignated": 6262,
      "Ġarrested": 6263,
      "Ġsupply": 6264,
      "ĠTen": 6265,
      "Ġslight": 6266,
      "orney": 6267,
      "ĠBah": 6268,
      "Ġmarked": 6269,
      "ifications": 6270,
      "pool": 6271,
      "ting": 6272,
      "ĠBos": 6273,
      "ĠFree": 6274,
      "ionally": 6275,
      "Ġshowed": 6276,
      "Ġhy": 6277,
      "ovak": 6278,
      "orro": 6279,
      "ĠGil": 6280,
      "Ġmaterials": 6281,
      "Ġconflict": 6282,
      "Ġshop": 6283,
      "erved": 6284,
      "Ġreports": 6285,
      "Japan": 6286,
      "Ġconnected": 6287,
      "Ġscientific": 6288,
      "organ": 6289,
      "ooth": 6290,
      "ĠDesign": 6291,
      "Ġmeasure": 6292,
      "lan": 6293,
      "ĠHou": 6294,
      "ĠLabor": 6295,
      "Ġrestaur": 6296,
      "ĠAnderson": 6297,
      "Qu": 6298,
      "Ġtheme": 6299,
      "ĠPlan": 6300,
      "PS": 6301,
      "Ġtalk": 6302,
      "Ġcondition": 6303,
      "Ġsurname": 6304,
      "ĠIV": 6305,
      "bs": 6306,
      "stan": 6307,
      "Ġapplied": 6308,
      "Ġdensity": 6309,
      "William": 6310,
      "Ġteaching": 6311,
      "Co": 6312,
      "Ġstatistics": 6313,
      "ĠCape": 6314,
      "IT": 6315,
      "%)": 6316,
      "ques": 6317,
      "Ġmales": 6318,
      "Ġlett": 6319,
      "uties": 6320,
      "ĠEntertainment": 6321,
      "Ġhall": 6322,
      "Ġheadquarters": 6323,
      "ĠShort": 6324,
      "Ġbatt": 6325,
      "Ġtried": 6326,
      ".e": 6327,
      "Ġslow": 6328,
      "pri": 6329,
      "urance": 6330,
      "Ġfacility": 6331,
      "ĠCra": 6332,
      "Ġinspired": 6333,
      "rum": 6334,
      "174": 6335,
      "bit": 6336,
      "Vill": 6337,
      "Ap": 6338,
      "istry": 6339,
      "ĊĊĠĊ": 6340,
      "ĠNap": 6341,
      "roit": 6342,
      "ĠDown": 6343,
      "Ġentry": 6344,
      "120": 6345,
      "ĠWrit": 6346,
      "ateur": 6347,
      "Ġaccident": 6348,
      "Ġpartner": 6349,
      "Ġmap": 6350,
      "ublin": 6351,
      "ĠGreece": 6352,
      "Ġnortheast": 6353,
      "time": 6354,
      "Ġunique": 6355,
      "ĠChristmas": 6356,
      "pa": 6357,
      "Ġfully": 6358,
      "Ġportray": 6359,
      "Ġwins": 6360,
      "rator": 6361,
      "Ġcert": 6362,
      "Ġgrowing": 6363,
      "Ġalone": 6364,
      "Ġsucceeded": 6365,
      "Ġmut": 6366,
      "Ġallowing": 6367,
      "ĠFame": 6368,
      "ĠRoy": 6369,
      "Ġdisestabl": 6370,
      "Ġ...": 6371,
      "Ġchalleng": 6372,
      "agu": 6373,
      "Ġclasses": 6374,
      "bums": 6375,
      "Ġopposition": 6376,
      "Ġexisting": 6377,
      "Ġ(),": 6378,
      "Ġsuit": 6379,
      "cticut": 6380,
      "ĠMiller": 6381,
      "uther": 6382,
      "Ġaim": 6383,
      "cluding": 6384,
      "Ġ)": 6385,
      "Ġeas": 6386,
      "ĠAbb": 6387,
      "Ġoppos": 6388,
      "ĠFa": 6389,
      "Ġfeet": 6390,
      "\"ĊĊ": 6391,
      "ĠHoly": 6392,
      "Ġmom": 6393,
      "Ġthings": 6394,
      "Public": 6395,
      "Ġvisit": 6396,
      "La": 6397,
      "Sing": 6398,
      "enez": 6399,
      "stic": 6400,
      "ordan": 6401,
      "Ġearth": 6402,
      "Ġprint": 6403,
      "Ġaired": 6404,
      "idge": 6405,
      "Ġsituation": 6406,
      "Ġheav": 6407,
      "Ġpublication": 6408,
      "related": 6409,
      "ĠSwitzerland": 6410,
      "ĠGi": 6411,
      "Ġadvanced": 6412,
      "Ġce": 6413,
      "Ġhands": 6414,
      "ikh": 6415,
      "ippi": 6416,
      "Ġfighting": 6417,
      "Äĥ": 6418,
      "Ġ(;": 6419,
      "ugu": 6420,
      "Ġsituated": 6421,
      "ĠCab": 6422,
      "ĠHarry": 6423,
      "ĠRa": 6424,
      "ĠStand": 6425,
      "ĠTokyo": 6426,
      "ureau": 6427,
      "ĠFord": 6428,
      "iser": 6429,
      "ĠDrag": 6430,
      "Ġsixth": 6431,
      "Ġmaintain": 6432,
      "Ġsingers": 6433,
      "ĠBillboard": 6434,
      "glas": 6435,
      "Ġoldest": 6436,
      "Ġgoes": 6437,
      "First": 6438,
      "unch": 6439,
      "eding": 6440,
      "AA": 6441,
      "Notable": 6442,
      "sex": 6443,
      "Ġspot": 6444,
      "Ġwant": 6445,
      "onom": 6446,
      "ologists": 6447,
      "ĠEth": 6448,
      "Ġdefined": 6449,
      "ĠMagazine": 6450,
      "Ġelement": 6451,
      "Hon": 6452,
      "Ġroyal": 6453,
      "ĠNY": 6454,
      "ĠSimon": 6455,
      "antic": 6456,
      "Ġtower": 6457,
      "Ġcart": 6458,
      "po": 6459,
      "ĠStaff": 6460,
      "erald": 6461,
      "achelor": 6462,
      "olas": 6463,
      "wich": 6464,
      "Ġpair": 6465,
      "Results": 6466,
      "ĠPict": 6467,
      "ester": 6468,
      "Ġple": 6469,
      "ĠLtd": 6470,
      "ĠManchester": 6471,
      "ĠTony": 6472,
      "Life": 6473,
      "ĠWalter": 6474,
      "Ġreference": 6475,
      "inguished": 6476,
      "outs": 6477,
      "Ġcustom": 6478,
      "Ġsafety": 6479,
      "Ġhistorian": 6480,
      "cha": 6481,
      "stron": 6482,
      "ĠBeng": 6483,
      "ĠLank": 6484,
      "inth": 6485,
      "ĠBattalion": 6486,
      "-and": 6487,
      "95": 6488,
      "Spec": 6489,
      "Ġsimply": 6490,
      "iÃ³n": 6491,
      "ĠForces": 6492,
      "ĠJane": 6493,
      "ĠChannel": 6494,
      "Ġguest": 6495,
      "62": 6496,
      "ĠIr": 6497,
      "ĠHur": 6498,
      "ski": 6499,
      "ti": 6500,
      "Ġreturning": 6501,
      "joy": 6502,
      "imens": 6503,
      ".org": 6504,
      "allery": 6505,
      "olished": 6506,
      "Ġcompletely": 6507,
      "Ġsons": 6508,
      "Ġmusician": 6509,
      "ĠTelevision": 6510,
      "last": 6511,
      "ĠStat": 6512,
      "asion": 6513,
      "Ġcontain": 6514,
      "zh": 6515,
      "Ġpromotion": 6516,
      "rainian": 6517,
      "Ġanimals": 6518,
      "Ġrapid": 6519,
      "Ġsides": 6520,
      "Ġcompetitions": 6521,
      "uri": 6522,
      "Ġsets": 6523,
      "ĠFront": 6524,
      "Ġdiplom": 6525,
      "ardo": 6526,
      "Ġchosen": 6527,
      "ĠÄ": 6528,
      "Club": 6529,
      "Ġrisk": 6530,
      "Ġtele": 6531,
      "ials": 6532,
      "ÑĤ": 6533,
      "Ġmetres": 6534,
      "pects": 6535,
      "ĠAnne": 6536,
      "Exp": 6537,
      "ĠPoint": 6538,
      "Ġmeant": 6539,
      "VID": 6540,
      "Ġbrothers": 6541,
      "ĠChile": 6542,
      "Ġagent": 6543,
      "Education": 6544,
      "ĠAlabama": 6545,
      "uv": 6546,
      "Ð¾Ð": 6547,
      "Ġbillion": 6548,
      "Ġroll": 6549,
      "Ġlot": 6550,
      "72": 6551,
      "Ġhorse": 6552,
      "Ġachieved": 6553,
      "ĠTransport": 6554,
      "Ġportion": 6555,
      "ĠSound": 6556,
      "ĠTurn": 6557,
      "Ġdefin": 6558,
      "PA": 6559,
      "Ġalt": 6560,
      "ĠLincoln": 6561,
      "Ġtemple": 6562,
      "Ġholds": 6563,
      "ĠIns": 6564,
      "Ġclimate": 6565,
      "everal": 6566,
      "Ġarms": 6567,
      "Ġexchange": 6568,
      "olo": 6569,
      "Ġsuggest": 6570,
      "ania": 6571,
      "lines": 6572,
      "ĠAbd": 6573,
      "Since": 6574,
      "Ġauthority": 6575,
      "Fran": 6576,
      "Ġnorthwest": 6577,
      "Ġlocomot": 6578,
      "Ġmayor": 6579,
      "irus": 6580,
      "anton": 6581,
      "elsh": 6582,
      "Ġmethods": 6583,
      "-value": 6584,
      "Ġsimple": 6585,
      "enny": 6586,
      "Ġyellow": 6587,
      "rait": 6588,
      "igration": 6589,
      "ĠLINE": 6590,
      "ressed": 6591,
      "aste": 6592,
      "ĠSecurity": 6593,
      "Ġmachine": 6594,
      "Best": 6595,
      "Ġglobal": 6596,
      "oes": 6597,
      "Ġnob": 6598,
      "ĠHans": 6599,
      "ĠJacob": 6600,
      "ãĥ": 6601,
      "Ġmanagers": 6602,
      "Ġcharts": 6603,
      "ĠEach": 6604,
      "achers": 6605,
      "adi": 6606,
      "Ġprincipal": 6607,
      "ĠOklahoma": 6608,
      "Ġnarrow": 6609,
      "agan": 6610,
      "inder": 6611,
      "zen": 6612,
      "ĠServices": 6613,
      "Ġnecessary": 6614,
      "Comp": 6615,
      "aming": 6616,
      "Ġprotection": 6617,
      "Ġadvert": 6618,
      "Ġproceed": 6619,
      "issippi": 6620,
      "Ġsym": 6621,
      "Ġfans": 6622,
      "Ġbought": 6623,
      "Christ": 6624,
      "inema": 6625,
      "Ġconsum": 6626,
      "Ġflood": 6627,
      "under": 6628,
      "Ġvehicle": 6629,
      "Ġflow": 6630,
      ";\"|": 6631,
      "Ġlyrics": 6632,
      "ĠLINEAR": 6633,
      "oslav": 6634,
      "Ġbill": 6635,
      "ridges": 6636,
      "elve": 6637,
      "gal": 6638,
      "ĠQuebec": 6639,
      "Ġcontaining": 6640,
      "ĠSocorro": 6641,
      "Ġrefused": 6642,
      "Ġmemory": 6643,
      "Ġresources": 6644,
      "ĠAmericans": 6645,
      "ĠModern": 6646,
      "box": 6647,
      "ĠTemple": 6648,
      "Ġfolk": 6649,
      "ĠMarine": 6650,
      "ĠHamilton": 6651,
      "SR": 6652,
      "ĠConnecticut": 6653,
      "ĠPrix": 6654,
      "leep": 6655,
      "awn": 6656,
      "Ġcreating": 6657,
      "Ġcommissioned": 6658,
      "164": 6659,
      "ĠNev": 6660,
      "ui": 6661,
      "Ġopera": 6662,
      "ĠSenior": 6663,
      "ĠArmen": 6664,
      "Ġinters": 6665,
      "uccess": 6666,
      "hol": 6667,
      "Ġbasic": 6668,
      "gor": 6669,
      "agen": 6670,
      "ifically": 6671,
      "Ġfair": 6672,
      "Born": 6673,
      "ĠNick": 6674,
      "Ġactions": 6675,
      "ĠTurkish": 6676,
      "ĠSix": 6677,
      "Ġproperties": 6678,
      "ĠTournament": 6679,
      "ĠBrigade": 6680,
      "Ġpilot": 6681,
      "ĠBulg": 6682,
      "Ġsoutheast": 6683,
      "ĠHand": 6684,
      "ogy": 6685,
      "ĠOfficer": 6686,
      "Ġjudge": 6687,
[...]
