{
  "version": "1.0",
  "truncation": null,
  "padding": null,
  "added_tokens": [
    {
      "id": 0,
      "content": "[UNK]",
      "single_word": false,
      "lstrip": false,
      "rstrip": false,
      "normalized": false,
      "special": true
    },
    {
      "id": 1,
      "content": "[CLS]",
      "single_word": false,
      "lstrip": false,
      "rstrip": false,
      "normalized": false,
      "special": true
    },
    {
      "id": 2,
      "content": "[SEP]",
      "single_word": false,
      "lstrip": false,
      "rstrip": false,
      "normalized": false,
      "special": true
    },
    {
      "id": 3,
      "content": "[PAD]",
      "single_word": false,
      "lstrip": false,
      "rstrip": false,
      "normalized": false,
      "special": true
    },
    {
      "id": 4,
      "content": "[MASK]",
      "single_word": false,
      "lstrip": false,
      "rstrip": false,
      "normalized": false,
      "special": true
    }
  ],
  "normalizer": null,
  "pre_tokenizer": {
    "type": "Sequence",
    "pretokenizers": [
      {
        "type": "Split",
        "pattern": {
          "Regex": "'s|'t|'re|'ve|'m|'ll|'d| ?\\p{L}+| ?\\p{N}+| ?[^\\s\\p{L}\\p{N}]+|\\s+(?!\\S)|\\s+"
        },
        "behavior": "MergedWithNext",
        "invert": false
      },
      {
        "type": "ByteLevel",
        "add_prefix_space": false,
        "trim_offsets": true,
        "use_regex": false
      }
    ]
  },
  "post_processor": null,
  "decoder": null,
  "model": {
    "type": "BPE",
    "dropout": null,
    "unk_token": "[UNK]",
    "continuing_subword_prefix": null,
    "end_of_word_suffix": null,
    "fuse_unk": false,
    "byte_fallback": false,
    "ignore_merges": false,
    "vocab": {
      "[UNK]": 0,
      "[CLS]": 1,
      "[SEP]": 2,
      "[PAD]": 3,
      "[MASK]": 4,
      "!": 5,
      "\"": 6,
      "#": 7,
      "$": 8,
      "%": 9,
      "&": 10,
      "'": 11,
      "(": 12,
      ")": 13,
      "*": 14,
      "+": 15,
      ",": 16,
      "-": 17,
      ".": 18,
      "/": 19,
      "0": 20,
      "1": 21,
      "2": 22,
      "3": 23,
      "4": 24,
      "5": 25,
      "6": 26,
      "7": 27,
      "8": 28,
      "9": 29,
      ":": 30,
      ";": 31,
      "=": 32,
      "?": 33,
      "@": 34,
      "A": 35,
      "B": 36,
      "C": 37,
      "D": 38,
      "E": 39,
      "F": 40,
      "G": 41,
      "H": 42,
      "I": 43,
      "J": 44,
      "K": 45,
      "L": 46,
      "M": 47,
      "N": 48,
      "O": 49,
      "P": 50,
      "Q": 51,
      "R": 52,
      "S": 53,
      "T": 54,
      "U": 55,
      "V": 56,
      "W": 57,
      "X": 58,
      "Y": 59,
      "Z": 60,
      "[": 61,
      "\\": 62,
      "]": 63,
      "^": 64,
      "_": 65,
      "`": 66,
      "a": 67,
      "b": 68,
      "c": 69,
      "d": 70,
      "e": 71,
      "f": 72,
      "g": 73,
      "h": 74,
      "i": 75,
      "j": 76,
      "k": 77,
      "l": 78,
      "m": 79,
      "n": 80,
      "o": 81,
      "p": 82,
      "q": 83,
      "r": 84,
      "s": 85,
      "t": 86,
      "u": 87,
      "v": 88,
      "w": 89,
      "x": 90,
      "y": 91,
      "z": 92,
      "{": 93,
      "|": 94,
      "}": 95,
      "~": 96,
      "¡": 97,
      "¢": 98,
      "£": 99,
      "¤": 100,
      "¥": 101,
      "¦": 102,
      "§": 103,
      "¨": 104,
      "©": 105,
      "ª": 106,
      "«": 107,
      "¬": 108,
      "®": 109,
      "¯": 110,
      "°": 111,
      "±": 112,
      "²": 113,
      "³": 114,
      "´": 115,
      "µ": 116,
      "¶": 117,
      "·": 118,
      "¸": 119,
      "¹": 120,
      "º": 121,
      "»": 122,
      "¼": 123,
      "½": 124,
      "¾": 125,
      "¿": 126,
      "Â": 127,
      "Ã": 128,
      "Ä": 129,
      "Å": 130,
      "Æ": 131,
      "Ç": 132,
      "È": 133,
      "É": 134,
      "Ê": 135,
      "Ë": 136,
      "Ì": 137,
      "Í": 138,
      "Î": 139,
      "Ï": 140,
      "Ð": 141,
      "Ñ": 142,
      "Ò": 143,
      "Ó": 144,
      "Ô": 145,
      "Õ": 146,
      "Ö": 147,
      "×": 148,
      "Ø": 149,
      "Ù": 150,
      "Ú": 151,
      "Û": 152,
      "Ü": 153,
      "Ý": 154,
      "Þ": 155,
      "ß": 156,
      "à": 157,
      "á": 158,
      "â": 159,
      "ã": 160,
      "ä": 161,
      "å": 162,
      "æ": 163,
      "ç": 164,
      "è": 165,
      "é": 166,
      "ê": 167,
      "ë": 168,
      "ì": 169,
      "í": 170,
      "î": 171,
      "ï": 172,
      "ð": 173,
      "ñ": 174,
      "ò": 175,
      "ó": 176,
      "ô": 177,
      "Ċ": 178,
      "č": 179,
      "Ġ": 180,
      "Ģ": 181,
      "ģ": 182,
      "Ĥ": 183,
      "ĥ": 184,
      "Ħ": 185,
      "ħ": 186,
      "Ĩ": 187,
      "ĩ": 188,
      "Ī": 189,
      "ī": 190,
      "Ĭ": 191,
      "ĭ": 192,
      "Į": 193,
      "į": 194,
      "İ": 195,
      "ı": 196,
      "Ĳ": 197,
      "ĳ": 198,
      "Ĵ": 199,
      "ĵ": 200,
      "Ķ": 201,
      "ķ": 202,
      "ĸ": 203,
      "Ĺ": 204,
      "ĺ": 205,
      "Ļ": 206,
      "ļ": 207,
      "Ľ": 208,
      "ľ": 209,
      "Ŀ": 210,
      "ŀ": 211,
      "Ł": 212,
      "ł": 213,
      "Ń": 214,
      "Ġt": 215,
      "in": 216,
      "Ġa": 217,
      "Ġh": 218,
      "er": 219,
      "Ġth": 220,
      "on": 221,
      "Ġs": 222,
      "co": 223,
      "an": 224,
      "re": 225,
      "tt": 226,
      "ou": 227,
      "Ġw": 228,
      "is": 229,
      "ðŁ": 230,
      "âĢ": 231,
      "Ġm": 232,
      "ps": 233,
      "Ġb": 234,
      "at": 235,
      "//": 236,
      "ing": 237,
      "://": 238,
      "ttps": 239,
      "en": 240,
      "it": 241,
      "Ġhttps": 242,
      "Ġ@": 243,
      "or": 244,
      "es": 245,
      "Ġf": 246,
      "ll": 247,
      "ar": 248,
      "Ġthe": 249,
      "ĠI": 250,
      "Ġd": 251,
      "Ġl": 252,
      "Ġp": 253,
      "Ġto": 254,
      "ed": 255,
      "Ġy": 256,
      "as": 257,
      "Ġc": 258,
      "Ġg": 259,
      "âĢ¦": 260,
      "nd": 261,
      "ay": 262,
      "al": 263,
      "Ġn": 264,
      "Ġo": 265,
      "Ġyou": 266,
      "ic": 267,
      "ot": 268,
      "am": 269,
      "le": 270,
      "ve": 271,
      "st": 272,
      "ow": 273,
      "ĠT": 274,
      "ĠðŁ": 275,
      "et": 276,
      "oo": 277,
      "âĢĻ": 278,
      "Ġin": 279,
      "Ġ#": 280,
      "he": 281,
      "Ġand": 282,
      "om": 283,
      "ad": 284,
      "ĠS": 285,
      "Ġi": 286,
      "ac": 287,
      "Ġis": 288,
      "el": 289,
      "Ġof": 290,
      "..": 291,
      "ke": 292,
      "Ġbe": 293,
      "id": 294,
      "Ġon": 295,
      "ut": 296,
      "ĠA": 297,
      "Ġu": 298,
      "ig": 299,
      "Ġfor": 300,
      "Ġit": 301,
      "ch": 302,
      "Ġe": 303,
      "ver": 304,
      "Ġwh": 305,
      "im": 306,
      "Ġre": 307,
      "ir": 308,
      "ĠM": 309,
      "un": 310,
      "op": 311,
      "all": 312,
      "ĠW": 313,
      "ion": 314,
      "ĠB": 315,
      "ly": 316,
      "ĠC": 317,
      "ee": 318,
      "ðŁĺ": 319,
      "ĠH": 320,
      "ld": 321,
      "Ġme": 322,
      "Ġmy": 323,
      "th": 324,
      "Ġst": 325,
      "us": 326,
      "Ġthat": 327,
      "ent": 328,
      "ro": 329,
      "ill": 330,
      "Ġco": 331,
      "Ġli": 332,
      "ĠD": 333,
      "Ġha": 334,
      "Ġthis": 335,
      "ur": 336,
      "ust": 337,
      "ht": 338,
      "!!": 339,
      "ith": 340,
      "Ġj": 341,
      "pp": 342,
      "ĠL": 343,
      "est": 344,
      "Ġso": 345,
      "out": 346,
      "os": 347,
      "ĠðŁĺ": 348,
      "ĠP": 349,
      "ck": 350,
      "il": 351,
      "ol": 352,
      "ct": 353,
      "ra": 354,
      "ri": 355,
      "ĠG": 356,
      "ere": 357,
      "ers": 358,
      "Ġk": 359,
      "ĠF": 360,
      "ĠY": 361,
      "ĠN": 362,
      "ie": 363,
      "one": 364,
      "and": 365,
      "'s": 366,
      "Ġan": 367,
      "ry": 368,
      "ight": 369,
      "um": 370,
      "ag": 371,
      "Ġsh": 372,
      "Ġne": 373,
      "ak": 374,
      "Ġhe": 375,
      "Ġwith": 376,
      "ĠO": 377,
      "ce": 378,
      "ab": 379,
      "ant": 380,
      "Ġdo": 381,
      "Ġr": 382,
      "Ġare": 383,
      "ĠĠ": 384,
      "em": 385,
      "ood": 386,
      "ul": 387,
      "Ġv": 388,
      "ist": 389,
      "ĠR": 390,
      "Ġnot": 391,
      "ack": 392,
      "IN": 393,
      "Ġwas": 394,
      "Ġhave": 395,
      "ess": 396,
      "Ġwe": 397,
      "art": 398,
      "ally": 399,
      "ore": 400,
      "Ġlike": 401,
      "Ġas": 402,
      "se": 403,
      "Ġyour": 404,
      "ff": 405,
      "od": 406,
      "ĠTh": 407,
      "Ġbut": 408,
      "end": 409,
      "Ġ1": 410,
      "ï¸": 411,
      "ah": 412,
      "ate": 413,
      "ï¸ı": 414,
      "ove": 415,
      "Ġjust": 416,
      "Ġcan": 417,
      "ome": 418,
      "Ġat": 419,
      "ong": 420,
      "ank": 421,
      "'t": 422,
      "Ġ2": 423,
      "Ġgo": 424,
      "ain": 425,
      "ast": 426,
      "ia": 427,
      "ard": 428,
      "ðŁĴ": 429,
      "ink": 430,
      "ĠE": 431,
      "ake": 432,
      "rom": 433,
      "Ġab": 434,
      "Ġal": 435,
      "Ġall": 436,
      "ell": 437,
      "00": 438,
      "very": 439,
      "ĠJ": 440,
      "...": 441,
      "if": 442,
      "ep": 443,
      "The": 444,
      "our": 445,
      "ind": 446,
      "ook": 447,
      "ation": 448,
      "sh": 449,
      "uck": 450,
      "ould": 451,
      "ame": 452,
      "ap": 453,
      "ear": 454,
      "??": 455,
      "ðĿ": 456,
      "ang": 457,
      "Ġch": 458,
      "OO": 459,
      "RE": 460,
      "ure": 461,
      "Ġup": 462,
      "are": 463,
      "Ġdon": 464,
      "now": 465,
      "ive": 466,
      "Ġthey": 467,
      "ter": 468,
      "Ġcom": 469,
      "ðŁĺŃ": 470,
      "Ġout": 471,
      "ost": 472,
      "Ġpl": 473,
      "ect": 474,
      "ine": 475,
      "qu": 476,
      "ime": 477,
      "av": 478,
      "ub": 479,
      "HE": 480,
      "ort": 481,
      "Ġwor": 482,
      "na": 483,
      "ick": 484,
      "Ġget": 485,
      "ss": 486,
      "ud": 487,
      "Ġwhat": 488,
      "ice": 489,
      "we": 490,
      "ON": 491,
      "ĠThe": 492,
      "ðŁ¤": 493,
      "Th": 494,
      "AN": 495,
      "EN": 496,
      "ays": 497,
      "Ġone": 498,
      "Ġwill": 499,
      "ob": 500,
      "ish": 501,
      "ĠU": 502,
      "Ġfrom": 503,
      "ĠK": 504,
      "oy": 505,
      "up": 506,
      "Sh": 507,
      "ew": 508,
      "Ġknow": 509,
      "Ġlove": 510,
      "TS": 511,
      "aw": 512,
      "tter": 513,
      "amp": 514,
      "day": 515,
      "ity": 516,
      "ma": 517,
      "iv": 518,
      "Ġabout": 519,
      "ER": 520,
      "her": 521,
      "Ġor": 522,
      "Ġby": 523,
      "Ġex": 524,
      "Ġ&": 525,
      "Ġpro": 526,
      "ec": 527,
      "ies": 528,
      "oug": 529,
      "ug": 530,
      "Ġcon": 531,
      "Ġif": 532,
      "Ġgood": 533,
      "ĠĊ": 534,
      "ts": 535,
      "Ġpe": 536,
      "to": 537,
      "Ġ(": 538,
      "Ġ-": 539,
      "âĿ": 540,
      "OU": 541,
      "ue": 542,
      "ial": 543,
      "ov": 544,
      "ase": 545,
      "ople": 546,
      "Ġsome": 547,
      "oll": 548,
      "ip": 549,
      "og": 550,
      "ide": 551,
      "AT": 552,
      "Ġwho": 553,
      "Ġwant": 554,
      "ans": 555,
      "iss": 556,
      "nt": 557,
      "Ġno": 558,
      "Ġnow": 559,
      "ðŁĺĤ": 560,
      "ĠYou": 561,
      "'m": 562,
      "ib": 563,
      "uch": 564,
      "ST": 565,
      "02": 566,
      "ĠWh": 567,
      "St": 568,
      "Ġag": 569,
      "Ġwhen": 570,
      "Ġneed": 571,
      "Ġle": 572,
      "Ġsee": 573,
      "iz": 574,
      "ok": 575,
      "ik": 576,
      "ven": 577,
      "Ġde": 578,
      "Ġsp": 579,
      "Ġthink": 580,
      "ðŁı": 581,
      "ning": 582,
      "ĠðŁ¤": 583,
      "Wh": 584,
      "ha": 585,
      "âĿ¤": 586,
      "Ġpeople": 587,
      "ING": 588,
      "LL": 589,
      "ne": 590,
      "uy": 591,
      "ĠâĢ": 592,
      "Ġdid": 593,
      "Ġany": 594,
      "Ġtr": 595,
      "ĠĠĠĠ": 596,
      "ite": 597,
      "use": 598,
      "own": 599,
      "pl": 600,
      "Ġim": 601,
      "Ġtime": 602,
      "https": 603,
      "ous": 604,
      "ny": 605,
      "Ġus": 606,
      "ass": 607,
      "reat": 608,
      "AR": 609,
      "Ġevery": 610,
      "atch": 611,
      "EE": 612,
      "ber": 613,
      "Ġhas": 614,
      "Ġhow": 615,
      "Ġman": 616,
      "Ġ:": 617,
      "Ġmore": 618,
      "ex": 619,
      "ire": 620,
      "act": 621,
      "ark": 622,
      "my": 623,
      "ace": 624,
      "Ġtoo": 625,
      "ound": 626,
      "ĠðŁĺŃ": 627,
      "ĠV": 628,
      "ĠIt": 629,
      "ðŁ¥": 630,
      "me": 631,
      "Ġam": 632,
      "Ġwould": 633,
      "ĠðŁĴ": 634,
      "so": 635,
      "ppy": 636,
      "Ġback": 637,
      "aa": 638,
      "Ġlook": 639,
      "CK": 640,
      "Ġfe": 641,
      "ash": 642,
      "OR": 643,
      "Ġthem": 644,
      "ĠðŁ¥": 645,
      "ause": 646,
      "sp": 647,
      "Ġhis": 648,
      "weet": 649,
      "ach": 650,
      "tw": 651,
      "Ġpr": 652,
      "Ġher": 653,
      "oc": 654,
      "ose": 655,
      "Ġcl": 656,
      "IS": 657,
      "ream": 658,
      "Ġar": 659,
      "Ġday": 660,
      "Ġreally": 661,
      "the": 662,
      "Ġ3": 663,
      "ðŁĺŃðŁĺŃ": 664,
      "ge": 665,
      "Ġbl": 666,
      "ian": 667,
      "Ġgot": 668,
      "fe": 669,
      "ES": 670,
      "AS": 671,
      "ĠSt": 672,
      "IT": 673,
      "âĿ¤ï¸ı": 674,
      "Ġbeen": 675,
      "Ġpre": 676,
      "ond": 677,
      "19": 678,
      "be": 679,
      "Ġ\"": 680,
      "AY": 681,
      "lease": 682,
      "Ch": 683,
      "ull": 684,
      "ary": 685,
      "ollow": 686,
      "AM": 687,
      "age": 688,
      "__": 689,
      "Ġhim": 690,
      "ment": 691,
      "Ġthere": 692,
      "hing": 693,
      "Ġsay": 694,
      "Ġmuch": 695,
      "ely": 696,
      "ope": 697,
      "Ġshe": 698,
      "alk": 699,
      "OT": 700,
      "ĠTHE": 701,
      "ree": 702,
      "oin": 703,
      "Ġâ": 704,
      "ile": 705,
      "Ġsa": 706,
      "io": 707,
      "wh": 708,
      "IC": 709,
      "ote": 710,
      "Ġplay": 711,
      "ough": 712,
      "ng": 713,
      "BTS": 714,
      "Ġfuck": 715,
      "à¸": 716,
      "VE": 717,
      "ðŁĳ": 718,
      "pt": 719,
      "Ġonly": 720,
      "Ġfeel": 721,
      "ade": 722,
      "ock": 723,
      "ĠTH": 724,
      "!!!": 725,
      "Ġnew": 726,
      "ĠðŁĺĤ": 727,
      "My": 728,
      "âĢĿ": 729,
      "Ġhere": 730,
      "li": 731,
      "ese": 732,
      "Ġun": 733,
      "oh": 734,
      "unt": 735,
      "Ġen": 736,
      "ĠThank": 737,
      "elf": 738,
      "man": 739,
      "ID": 740,
      "Ġoff": 741,
      "....": 742,
      "az": 743,
      "ats": 744,
      "ĠHe": 745,
      "ave": 746,
      "Ġyear": 747,
      "ings": 748,
      "ft": 749,
      "ady": 750,
      "ai": 751,
      "ways": 752,
      "Ġmake": 753,
      "irl": 754,
      "Ġbest": 755,
      "Ġhad": 756,
      "Ġwork": 757,
      "In": 758,
      "ffic": 759,
      "Ġagain": 760,
      "Ġse": 761,
      "irst": 762,
      "Ġright": 763,
      "riend": 764,
      "Ġtheir": 765,
      "Ġeven": 766,
      "12": 767,
      "de": 768,
      "Ġthank": 769,
      "oon": 770,
      "021": 771,
      "Ġstill": 772,
      "ath": 773,
      "You": 774,
      "Re": 775,
      "Ġsu": 776,
      "Ġact": 777,
      "ich": 778,
      "yy": 779,
      "AA": 780,
      "ĠYOU": 781,
      "Ġshould": 782,
      "Ġover": 783,
      "lt": 784,
      "tting": 785,
      "ET": 786,
      "ance": 787,
      "ii": 788,
      "hh": 789,
      "Ġac": 790,
      "OM": 791,
      "10": 792,
      "Ġad": 793,
      "orning": 794,
      "OW": 795,
      "Ġwhy": 796,
      "ait": 797,
      "AL": 798,
      "ĠâĢľ": 799,
      "Ġgoing": 800,
      "ung": 801,
      "Ķ¥": 802,
      "Ġqu": 803,
      "ðŁ¤£": 804,
      "Ġour": 805,
      "Ġbr": 806,
      "Ġbec": 807,
      "Ġte": 808,
      "ph": 809,
      "ject": 810,
      "opee": 811,
      "ĠWe": 812,
      "Âł": 813,
      "He": 814,
      "Ġnever": 815,
      "bl": 816,
      "row": 817,
      "'re": 818,
      "mer": 819,
      "Ġ4": 820,
      "fter": 821,
      "able": 822,
      "Ġdoes": 823,
      "Ġ5": 824,
      "omet": 825,
      "ĠCh": 826,
      "âĻ": 827,
      "Ġway": 828,
      "att": 829,
      "11": 830,
      "Ġshit": 831,
      "ix": 832,
      "Ġwatch": 833,
      "ðŁĻ": 834,
      "ence": 835,
      "for": 836,
      "fficial": 837,
      "ae": 838,
      "UT": 839,
      "twt": 840,
      "oot": 841,
      "Ġtw": 842,
      "Ġbecause": 843,
      "UN": 844,
      "Ġ$": 845,
      "Ġsc": 846,
      "ict": 847,
      "ated": 848,
      "LA": 849,
      "ress": 850,
      "Ġsm": 851,
      "ðŁĺĤðŁĺĤ": 852,
      "OP": 853,
      "itch": 854,
      "ther": 855,
      "ris": 856,
      "ens": 857,
      "ru": 858,
      "cl": 859,
      "aking": 860,
      "Ġthen": 861,
      "igh": 862,
      "ions": 863,
      "Shopee": 864,
      "ious": 865,
      "other": 866,
      "âĢį": 867,
      "heck": 868,
      "ĠðŁĳ": 869,
      "mem": 870,
      "thing": 871,
      "nder": 872,
      "mm": 873,
      "Ġhel": 874,
      "eg": 875,
      "ail": 876,
      "Ġ.": 877,
      "ED": 878,
      "ĠIn": 879,
      "YP": 880,
      "ox": 881,
      "ĠThis": 882,
      "gt": 883,
      "eek": 884,
      "Ġfollow": 885,
      "its": 886,
      "old": 887,
      "Ġthan": 888,
      "ĠðŁĻ": 889,
      "Ġalways": 890,
      "tty": 891,
      "uld": 892,
      "It": 893,
      "CT": 894,
      "Ġbeing": 895,
      "ought": 896,
      "ins": 897,
      "pe": 898,
      "ms": 899,
      "self": 900,
      "ward": 901,
      "Ġke": 902,
      "ild": 903,
      "mar": 904,
      "Ġvery": 905,
      "erson": 906,
      "Ġtoday": 907,
      "uk": 908,
      "onna": 909,
      "aj": 910,
      "per": 911,
      "Ġph": 912,
      "Ġcould": 913,
      "Ġfirst": 914,
      "ax": 915,
      "ĠThat": 916,
      "uc": 917,
      "This": 918,
      "Ġfriend": 919,
      "We": 920,
      "ory": 921,
      "Ġwere": 922,
      "Ġdis": 923,
      "Ġtry": 924,
      "ute": 925,
      "ful": 926,
      "ann": 927,
      "US": 928,
      "br": 929,
      "Ġstart": 930,
      "Ġtake": 931,
      "âľ": 932,
      "ool": 933,
      "Ar": 934,
      "LE": 935,
      "ason": 936,
      "Ġreal": 937,
      "by": 938,
      "An": 939,
      "Bl": 940,
      "igg": 941,
      "Ġlol": 942,
      "20": 943,
      "les": 944,
      "Ġvote": 945,
      "à¤": 946,
      "ont": 947,
      "bs": 948,
      "Ġafter": 949,
      "ble": 950,
      "Ġgr": 951,
      "ĠSh": 952,
      "Ġguy": 953,
      "eah": 954,
      "13": 955,
      "AP": 956,
      "Ġgreat": 957,
      "Ġlet": 958,
      "ord": 959,
      "xt": 960,
      "Ġsaid": 961,
      "Ġcall": 962,
      "app": 963,
      "ike": 964,
      "oss": 965,
      "Ġass": 966,
      "Ġsomet": 967,
      "Ġlife": 968,
      "ND": 969,
      "Ġapp": 970,
      "aby": 971,
      "ĠSO": 972,
      "itter": 973,
      "usic": 974,
      "ale": 975,
      "ign": 976,
      "Ġmiss": 977,
      "irth": 978,
      "oth": 979,
      "Ġpost": 980,
      "of": 981,
      "ðĿĲ": 982,
      "anna": 983,
      "Ġmorning": 984,
      "aut": 985,
      "IG": 986,
      "Ġbetter": 987,
      "CH": 988,
      "AD": 989,
      "ody": 990,
      "Ġaw": 991,
      "Ġproject": 992,
      "Ġcont": 993,
      "IM": 994,
      "Ġpart": 995,
      "Ġdr": 996,
      "Ġtalk": 997,
      "ĠWhat": 998,
      "Al": 999,
      "Ġhelp": 1000,
      "Ġhope": 1001,
      "Ġshow": 1002,
      "TV": 1003,
      "lo": 1004,
      "ĠAnd": 1005,
      "pport": 1006,
      "Ġgonna": 1007,
      "Ġfun": 1008,
      "ðŁĶ¥": 1009,
      "!!!!": 1010,
      "get": 1011,
      "Sp": 1012,
      "appy": 1013,
      "Ġdown": 1014,
      "Ġhapp": 1015,
      "ys": 1016,
      "ryp": 1017,
      "Ġbad": 1018,
      "Ġthese": 1019,
      "ya": 1020,
      "akes": 1021,
      "Ġtweet": 1022,
      "ually": 1023,
      "leep": 1024,
      "Ġwell": 1025,
      "imes": 1026,
      "99": 1027,
      "urn": 1028,
      "ult": 1029,
      "zy": 1030,
      "Ġplease": 1031,
      "wn": 1032,
      "Ġsame": 1033,
      "ush": 1034,
      "als": 1035,
      "ĠðŁ¥º": 1036,
      "Ġdi": 1037,
      "ky": 1038,
      "SS": 1039,
      "rypto": 1040,
      "ĠGood": 1041,
      "33": 1042,
      "FT": 1043,
      "17": 1044,
      "Ġ,": 1045,
      "ors": 1046,
      "rd": 1047,
      "ĠIS": 1048,
      "Ġother": 1049,
      "bers": 1050,
      "irthday": 1051,
      "iter": 1052,
      "oe": 1053,
      "vers": 1054,
      "Ġdone": 1055,
      "ev": 1056,
      "fore": 1057,
      "ump": 1058,
      "Ġper": 1059,
      "ĠMy": 1060,
      "Ġperson": 1061,
      "Ġinto": 1062,
      "la": 1063,
      "ks": 1064,
      "AH": 1065,
      "te": 1066,
      "Ġalso": 1067,
      "ird": 1068,
      "gg": 1069,
      "ving": 1070,
      "Ġunder": 1071,
      "Ġro": 1072,
      "Ġ2021": 1073,
      "anc": 1074,
      "ideo": 1075,
      "ðŁ¥º": 1076,
      "âĢįâĻ": 1077,
      "Ġthing": 1078,
      "Ġits": 1079,
      "Ġever": 1080,
      "TH": 1081,
      "Ġinter": 1082,
      "red": 1083,
      "Ġhappy": 1084,
      "Ġwait": 1085,
      "ics": 1086,
      "ĠTO": 1087,
      "Be": 1088,
      "Ġcomp": 1089,
      "Ġwr": 1090,
      "EL": 1091,
      "Ġbel": 1092,
      "ating": 1093,
      "ni": 1094,
      "Ġnight": 1095,
      "ise": 1096,
      "uu": 1097,
      "Just": 1098,
      "ily": 1099,
      "ram": 1100,
      "und": 1101,
      "Ġdidn": 1102,
      "ons": 1103,
      "IR": 1104,
      "ert": 1105,
      "ews": 1106,
      "OL": 1107,
      "15": 1108,
      "Ġcome": 1109,
      "Ġbro": 1110,
      "Ġge": 1111,
      "ĠNo": 1112,
      "hy": 1113,
      "Ġok": 1114,
      "INK": 1115,
      "Ġsomeone": 1116,
      "Ġgive": 1117,
      "Ġfin": 1118,
      "ĠThey": 1119,
      "Ġweek": 1120,
      "oney": 1121,
      "ttle": 1122,
      "ĠĠĠĠĠĠĠĠ": 1123,
      "Ġtell": 1124,
      "Ġdes": 1125,
      "On": 1126,
      "Ġur": 1127,
      "lay": 1128,
      "ening": 1129,
      "'ll": 1130,
      "Ġlast": 1131,
      "dy": 1132,
      "ater": 1133,
      "pr": 1134,
      "@_": 1135,
      "ince": 1136,
      "ren": 1137,
      "orry": 1138,
      "fl": 1139,
      "Ġgame": 1140,
      "ye": 1141,
      "Ġser": 1142,
      "Ġ!": 1143,
      "ðŁİ": 1144,
      "Ġ6": 1145,
      "ana": 1146,
      "MA": 1147,
      "Tr": 1148,
      "Ġsomething": 1149,
      "Ġmade": 1150,
      "ðŁı»": 1151,
      "Ġgirl": 1152,
      "ĠON": 1153,
      "rat": 1154,
      "14": 1155,
      "uh": 1156,
      "18": 1157,
      "Ġlist": 1158,
      "ina": 1159,
      "Ġwanna": 1160,
      "vel": 1161,
      "ations": 1162,
      "air": 1163,
      "Ġwhere": 1164,
      "oup": 1165,
      "'ve": 1166,
      "ICE": 1167,
      "hi": 1168,
      "ames": 1169,
      "Ġcr": 1170,
      "HH": 1171,
      "ual": 1172,
      "Ġwin": 1173,
      "Ġra": 1174,
      "Ġmost": 1175,
      "And": 1176,
      "ĠSo": 1177,
      "KE": 1178,
      "Ġmany": 1179,
      "If": 1180,
      "int": 1181,
      "Ġstop": 1182,
      "ars": 1183,
      "uff": 1184,
      "Ġlong": 1185,
      "mi": 1186,
      "ets": 1187,
      "fin": 1188,
      "ĠST": 1189,
      "SE": 1190,
      "Ġmay": 1191,
      "Ġdoing": 1192,
      "Ġend": 1193,
      "ci": 1194,
      "Ġ10": 1195,
      "Ġthought": 1196,
      "sm": 1197,
      "Ġsure": 1198,
      "af": 1199,
      "ower": 1200,
      "Ġbefore": 1201,
      "oint": 1202,
      "???": 1203,
      "you": 1204,
      "Ġsong": 1205,
      "Ġgetting": 1206,
      "ĠIf": 1207,
      "Ġlot": 1208,
      "Ġmean": 1209,
      "Ġsleep": 1210,
      "mg": 1211,
      "Ġfl": 1212,
      "ari": 1213,
      "ðŁĮ": 1214,
      "yn": 1215,
      "Ġ0": 1216,
      "Is": 1217,
      "ðŁĺį": 1218,
      "Ġem": 1219,
      "bo": 1220,
      "Ġ|": 1221,
      "Ġcare": 1222,
      "88": 1223,
      "amn": 1224,
      "16": 1225,
      "30": 1226,
      "zz": 1227,
      "50": 1228,
      "Ġ7": 1229,
      "22": 1230,
      "ane": 1231,
      "ange": 1232,
      "Ġhard": 1233,
      "oooo": 1234,
      "ical": 1235,
      "Ġkeep": 1236,
      "ĠIT": 1237,
      "Me": 1238,
      "ĠWH": 1239,
      "cess": 1240,
      "De": 1241,
      "com": 1242,
      "Ġmon": 1243,
      "maz": 1244,
      "iterally": 1245,
      "oom": 1246,
      "wor": 1247,
      "son": 1248,
      "ðŁ¤£ðŁ¤£": 1249,
      "sc": 1250,
      "ĠâĿ¤ï¸ı": 1251,
      "wards": 1252,
      "han": 1253,
      "oud": 1254,
      "HYP": 1255,
      "ĠTr": 1256,
      "Ġhate": 1257,
      "ĠBe": 1258,
      "ready": 1259,
      "ĠME": 1260,
      "ents": 1261,
      "rr": 1262,
      "Ġfucking": 1263,
      "Ġ?": 1264,
      "ffer": 1265,
      "ĠBE": 1266,
      "Ġyears": 1267,
      "uper": 1268,
      "HYPEN": 1269,
      "ife": 1270,
      "Ġhand": 1271,
      "Br": 1272,
      "uv": 1273,
      "xx": 1274,
      "Ġeveryone": 1275,
      "oke": 1276,
      "ðŁĩ": 1277,
      "autif": 1278,
      "Ġworld": 1279,
      "ude": 1280,
      "Ġthose": 1281,
      "inn": 1282,
      "ðŁĻı": 1283,
      "ty": 1284,
      "77": 1285,
      "Ġkind": 1286,
      "ves": 1287,
      "aug": 1288,
      "ĠðŁ¤£": 1289,
      "ĠIN": 1290,
      "ĠBut": 1291,
      "not": 1292,
      "sw": 1293,
      "port": 1294,
      "come": 1295,
      "ids": 1296,
      "Ġid": 1297,
      "ates": 1298,
      "orn": 1299,
      "Ġactually": 1300,
      "SH": 1301,
      "ki": 1302,
      "ðĿĹ": 1303,
      "RA": 1304,
      "ĠMY": 1305,
      "Ġask": 1306,
      "24": 1307,
      "ndia": 1308,
      "łĢ": 1309,
      "pen": 1310,
      "Ġread": 1311,
      "reak": 1312,
      "Ġwish": 1313,
      "autiful": 1314,
      "ĠDone": 1315,
      "ĠAl": 1316,
      "OD": 1317,
      "ðŁĴľ": 1318,
      "Te": 1319,
      "000": 1320,
      "Ġlive": 1321,
      "Ġatt": 1322,
      "Ġnext": 1323,
      "ieve": 1324,
      "no": 1325,
      "Ġteam": 1326,
      "eep": 1327,
      "Ġbirthday": 1328,
      "ja": 1329,
      "ube": 1330,
      "Ġthings": 1331,
      "ĠLO": 1332,
      "cy": 1333,
      "ray": 1334,
      "arm": 1335,
      "Ġboy": 1336,
      "Ġmin": 1337,
      "ENHYPEN": 1338,
      "LY": 1339,
      "ani": 1340,
      "ery": 1341,
      "Ad": 1342,
      "ric": 1343,
      "ouse": 1344,
      "OOOO": 1345,
      "Ġfind": 1346,
      "Ġgu": 1347,
      "members": 1348,
      "ĠRe": 1349,
      "25": 1350,
      "SB": 1351,
      "ather": 1352,
      "HT": 1353,
      ".âĢ¦": 1354,
      "less": 1355,
      "Ġalready": 1356,
      "witter": 1357,
      "Ġmom": 1358,
      "gy": 1359,
      "Ġfr": 1360,
      "Ġvia": 1361,
      "Ġfav": 1362,
      "Official": 1363,
      "sid": 1364,
      "Ġmov": 1365,
      "Ġold": 1366,
      "23": 1367,
      "ern": 1368,
      "ION": 1369,
      "No": 1370,
      "Ġsl": 1371,
      "Ġ20": 1372,
      "ĠRE": 1373,
      "MY": 1374,
      "tr": 1375,
      "any": 1376,
      "ĠFOR": 1377,
      "mor": 1378,
      "err": 1379,
      "ĠIs": 1380,
      "ĠNot": 1381,
      "ohn": 1382,
      "WICE": 1383,
      "official": 1384,
      "Ġuse": 1385,
      "arl": 1386,
      "ĠTHIS": 1387,
      "Ġown": 1388,
      "21": 1389,
      "ited": 1390,
      "Ġthr": 1391,
      "Ġ8": 1392,
      "Ġcheck": 1393,
      "BB": 1394,
      "Pr": 1395,
      "iew": 1396,
      "ĠHow": 1397,
      "CE": 1398,
      "Ġsec": 1399,
      "Ġdoesn": 1400,
      "Ġdays": 1401,
      "du": 1402,
      "rain": 1403,
      "uss": 1404,
      "Ġliterally": 1405,
      "rist": 1406,
      "ĠAND": 1407,
      "LACK": 1408,
      "kk": 1409,
      "nn": 1410,
      "Ġsupport": 1411,
      "Ġwon": 1412,
      "min": 1413,
      "oto": 1414,
      "ier": 1415,
      "Ġyes": 1416,
      "IE": 1417,
      "acc": 1418,
      "tta": 1419,
      "Le": 1420,
      "go": 1421,
      "Ġbig": 1422,
      "der": 1423,
      "ðŁļ": 1424,
      "So": 1425,
      "UR": 1426,
      "Ġ9": 1427,
      "ALL": 1428,
      "iam": 1429,
      "let": 1430,
      "AB": 1431,
      "27": 1432,
      "bab": 1433,
      "âĢľ": 1434,
      "YY": 1435,
      "Ġacco": 1436,
      "Ġstr": 1437,
      "Ġlittle": 1438,
      "VER": 1439,
      "ism": 1440,
      "Ġguys": 1441,
      "Ġnice": 1442,
      "osh": 1443,
      "Ģï¸ı": 1444,
      "Don": 1445,
      "Cl": 1446,
      "ĠSH": 1447,
      "unch": 1448,
      "UCK": 1449,
      "ĠHE": 1450,
      "ĠOF": 1451,
      "Ġhead": 1452,
      "Ġput": 1453,
      "Ġcute": 1454,
      "Ġ/": 1455,
      "ds": 1456,
      "Of": 1457,
      "Ġcry": 1458,
      "gn": 1459,
      "ition": 1460,
      "Ġear": 1461,
      "ship": 1462,
      "Now": 1463,
      "As": 1464,
      "PINK": 1465,
      "med": 1466,
      "Ġpretty": 1467,
      "ey": 1468,
      "69": 1469,
      "uz": 1470,
      "Ġsorry": 1471,
      "Ġtwo": 1472,
      "read": 1473,
      "What": 1474,
      "LD": 1475,
      "gr": 1476,
      "ists": 1477,
      ";&": 1478,
      "ever": 1479,
      "Ġ'": 1480,
      "MTV": 1481,
      "ara": 1482,
      "Ġwhile": 1483,
      "Ġfam": 1484,
      "lect": 1485,
      "Ġhome": 1486,
      "Ġgl": 1487,
      "That": 1488,
      "ĠThanks": 1489,
      "night": 1490,
      "ible": 1491,
      "Good": 1492,
      "Ġart": 1493,
      "do": 1494,
      "2021": 1495,
      "ĠYes": 1496,
      "Ġadd": 1497,
      "Ġtrue": 1498,
      "UM": 1499,
      "ĠJust": 1500,
      "Ġfriends": 1501,
      "ìĿ": 1502,
      "Se": 1503,
      "mao": 1504,
      "reen": 1505,
      "ww": 1506,
      "Ġel": 1507,
      "Ġsch": 1508,
      "Im": 1509,
      "Ġvideo": 1510,
      "LACKPINK": 1511,
      "mon": 1512,
      "Ġsince": 1513,
      "onder": 1514,
      "dd": 1515,
      "EX": 1516,
      "ĠLI": 1517,
      "44": 1518,
      "Ġwom": 1519,
      "âľ¨": 1520,
      "Ġhell": 1521,
      "Ġbaby": 1522,
      "bh": 1523,
      "Ġ*": 1524,
      "ĠShe": 1525,
      "KK": 1526,
      "Ġsw": 1527,
      "ĠOn": 1528,
      "Ġluck": 1529,
      "ired": 1530,
      "ĠOh": 1531,
      "eth": 1532,
      "Ġexp": 1533,
      "????": 1534,
      "ama": 1535,
      "line": 1536,
      "65": 1537,
      "mazing": 1538,
      "this": 1539,
      "How": 1540,
      "Ġrem": 1541,
      "ley": 1542,
      "Ġâľ": 1543,
      "rew": 1544,
      "ĠQ": 1545,
      "Ġbelieve": 1546,
      "Ġhappen": 1547,
      "rop": 1548,
      "ness": 1549,
      "Ġhour": 1550,
      "ĠHappy": 1551,
      "Ġthrough": 1552,
      "iness": 1553,
      "Ġheart": 1554,
      "Ġagainst": 1555,
      "ĠDon": 1556,
      "arry": 1557,
      "Ġaround": 1558,
      "gl": 1559,
      "Ġmoney": 1560,
      "Ġanything": 1561,
      "âĢįâĻĢï¸ı": 1562,
      "Ġdont": 1563,
      "Ġlooks": 1564,
      "way": 1565,
      "ense": 1566,
      "ji": 1567,
      "Ġmonth": 1568,
      "II": 1569,
      "joy": 1570,
      "THE": 1571,
      "ully": 1572,
      "lor": 1573,
      "Ġbu": 1574,
      "ĠDo": 1575,
      "GG": 1576,
      "stand": 1577,
      "Ġcount": 1578,
      "umb": 1579,
      "ĠCan": 1580,
      "anmar": 1581,
      "Ġeverything": 1582,
      "alth": 1583,
      "yl": 1584,
      "ilit": 1585,
      "imp": 1586,
      "vent": 1587,
      "ron": 1588,
      "urt": 1589,
      "UE": 1590,
      "reas": 1591,
      "66": 1592,
      "raw": 1593,
      "Mar": 1594,
      "âĺ": 1595,
      "ner": 1596,
      "rid": 1597,
      "IL": 1598,
      "ĠLOVE": 1599,
      "Ġ+": 1600,
      "?!": 1601,
      "ãĥ": 1602,
      "con": 1603,
      "Ġdiffer": 1604,
      "ĠAll": 1605,
      "For": 1606,
      "Ġname": 1607,
      "ðŁ¥°": 1608,
      "ðŁį": 1609,
      "Ġmyself": 1610,
      "Ġgiv": 1611,
      "ĠBl": 1612,
      "ðŁı½": 1613,
      "ĠðŁĻı": 1614,
      "lic": 1615,
      "RO": 1616,
      "Ġmakes": 1617,
      "Ġwhich": 1618,
      "28": 1619,
      "ried": 1620,
      "ĠGod": 1621,
      "Do": 1622,
      "ĠðŁĺį": 1623,
      "Ġhigh": 1624,
      "FC": 1625,
      "Ġtrying": 1626,
      "ied": 1627,
      "boy": 1628,
      "yp": 1629,
      "Ġdec": 1630,
      "Ġanother": 1631,
      "Am": 1632,
      "ĠFor": 1633,
      "ically": 1634,
      "orld": 1635,
      "tf": 1636,
      "ize": 1637,
      "bb": 1638,
      "Ġbeautiful": 1639,
      "Ġrel": 1640,
      "AK": 1641,
      "uth": 1642,
      "Ġpo": 1643,
      "55": 1644,
      "Ġrun": 1645,
      "OY": 1646,
      "Ġbuy": 1647,
      "Ġ!!": 1648,
      "AG": 1649,
      "Ġsoon": 1650,
      "Crypto": 1651,
      "Ph": 1652,
      "BLACKPINK": 1653,
      "Ġgen": 1654,
      "Ġmind": 1655,
      "ift": 1656,
      "RI": 1657,
      "member": 1658,
      "bum": 1659,
      "Ġresp": 1660,
      "âłĢ": 1661,
      "News": 1662,
      "ðŁı¾": 1663,
      "ret": 1664,
      "onight": 1665,
      "Ġboth": 1666,
      "Ġfree": 1667,
      "ĠDe": 1668,
      "Not": 1669,
      "ĠðŁĺŃðŁĺŃðŁĺŃ": 1670,
      "ðĿĺ": 1671,
      "rs": 1672,
      "Ġpoint": 1673,
      "eng": 1674,
      "Go": 1675,
      "PP": 1676,
      "Ġlooking": 1677,
      "ka": 1678,
      "NT": 1679,
      "ĠIM": 1680,
      "Best": 1681,
      "RY": 1682,
      "Ġfight": 1683,
      "Ġwrong": 1684,
      "Ġwhole": 1685,
      "Ġchar": 1686,
      "fs": 1687,
      "Ġprot": 1688,
      "urp": 1689,
      "aring": 1690,
      "ney": 1691,
      "olut": 1692,
      "45": 1693,
      "riv": 1694,
      "Ġreco": 1695,
      "Ġkill": 1696,
      "Tube": 1697,
      "Ġgod": 1698,
      "els": 1699,
      "Ġins": 1700,
      "Ġent": 1701,
      "OV": 1702,
      "Ġaway": 1703,
      "ĠMe": 1704,
      "TT": 1705,
      "NFT": 1706,
      "esting": 1707,
      "FF": 1708,
      "cept": 1709,
      "NB": 1710,
      "Ġsuch": 1711,
      "Ġsaying": 1712,
      "ONE": 1713,
      "Ġhaving": 1714,
      "esp": 1715,
      "just": 1716,
      "Ġpol": 1717,
      "land": 1718,
      "ih": 1719,
      "mark": 1720,
      "Ġyeah": 1721,
      "Dr": 1722,
      "Ġplaying": 1723,
      "07": 1724,
      "Ġnothing": 1725,
      "AC": 1726,
      "une": 1727,
      "WE": 1728,
      "Un": 1729,
      "Ġinv": 1730,
      "26": 1731,
      "Ġinst": 1732,
      "All": 1733,
      "oul": 1734,
      "au": 1735,
      "unk": 1736,
      "Ġtho": 1737,
      "Ġokay": 1738,
      "Ġlik": 1739,
      "mp": 1740,
      "Ġremember": 1741,
      "ator": 1742,
      "ĠWhy": 1743,
      "Sw": 1744,
      "Ġ100": 1745,
      "29": 1746,
      "ots": 1747,
      "Ġlov": 1748,
      "Ġstay": 1749,
      "Ġrn": 1750,
      "NN": 1751,
      "esh": 1752,
      "Ġmaking": 1753,
      "aster": 1754,
      "Ġcra": 1755,
      "Ġbc": 1756,
      "Ġstream": 1757,
      "Ġbitch": 1758,
      "OS": 1759,
      "Ġcool": 1760,
      "03": 1761,
      "Ġanyone": 1762,
      "fect": 1763,
      "ij": 1764,
      ",,": 1765,
      "Ġthanks": 1766,
      "arch": 1767,
      "coin": 1768,
      "Ġunderstand": 1769,
      "ode": 1770,
      "ball": 1771,
      "Ġseen": 1772,
      "Happy": 1773,
      "Gr": 1774,
      "IGHT": 1775,
      "Ġsad": 1776,
      "yes": 1777,
      "cc": 1778,
      "opp": 1779,
      "ene": 1780,
      "Ex": 1781,
      "eee": 1782,
      "Ġ:)": 1783,
      "Heart": 1784,
      "Ġche": 1785,
      "Ġreason": 1786,
      "Ġcle": 1787,
      "ĠSp": 1788,
      "To": 1789,
      "Ġmight": 1790,
      "98": 1791,
      "Ġisn": 1792,
      "ĠEx": 1793,
      "Ġaccount": 1794,
      "Man": 1795,
      "ony": 1796,
      "ĠLove": 1797,
      "01": 1798,
      "SC": 1799,
      "je": 1800,
      "AE": 1801,
      "Ġbet": 1802,
      "India": 1803,
      "Ġhot": 1804,
      "ues": 1805,
      "enn": 1806,
      "Ġreg": 1807,
      "MG": 1808,
      "ask": 1809,
      "Ġ...": 1810,
      "Ġwithout": 1811,
      "ared": 1812,
      "Ġsex": 1813,
      "97": 1814,
      "ze": 1815,
      "res": 1816,
      "ĠWE": 1817,
      "adio": 1818,
      "Ġdream": 1819,
      "Ġsing": 1820,
      "Ġamazing": 1821,
      "Ġenough": 1822,
      "unity": 1823,
      "Ġpay": 1824,
      "ilitary": 1825,
      "form": 1826,
      "iy": 1827,
      "NY": 1828,
      "Ġcur": 1829,
      "ìĿ´": 1830,
      "Awards": 1831,
      "finit": 1832,
      "Ġmust": 1833,
      "Ġsk": 1834,
      "BE": 1835,
      "oice": 1836,
      "AW": 1837,
      "ĠðŁĶ¥": 1838,
      "bably": 1839,
      "ĠðŁİ": 1840,
      "ole": 1841,
      "ILL": 1842,
      "cr": 1843,
      "Myanmar": 1844,
      "UL": 1845,
      "olog": 1846,
      "ĠYour": 1847,
      "ns": 1848,
      "Ġtalking": 1849,
      "ext": 1850,
      "PH": 1851,
      "Ġtonight": 1852,
      "ðĿĻ": 1853,
      "08": 1854,
      "ces": 1855,
      "Ġwatching": 1856,
      "Ġcause": 1857,
      "Ġret": 1858,
      "ENT": 1859,
      "orm": 1860,
      "reasure": 1861,
      "NG": 1862,
      "She": 1863,
      "Ġsend": 1864,
      "Ġmed": 1865,
      "Real": 1866,
      "Ġyet": 1867,
      "Ġschool": 1868,
      "sk": 1869,
      "za": 1870,
      "Ġcoming": 1871,
      "lex": 1872,
      "Ġthough": 1873,
      "ĠUS": 1874,
      "Ġused": 1875,
      "Ġunt": 1876,
      "real": 1877,
      "meric": 1878,
      "ONG": 1879,
      "Ġrep": 1880,
      "idd": 1881,
      "ĠID": 1882,
      "Cr": 1883,
      "Ġcomm": 1884,
      "ba": 1885,
      "Ġleft": 1886,
      "ĠCong": 1887,
      "ĠGo": 1888,
      "PY": 1889,
      "ved": 1890,
      "Ġjoin": 1891,
      "but": 1892,
      "ĠMay": 1893,
      "Ġface": 1894,
      "finitely": 1895,
      "onest": 1896,
      "ĠTo": 1897,
      "new": 1898,
      "04": 1899,
      "Ġwonder": 1900,
      "rt": 1901,
      "fa": 1902,
      "Ġpls": 1903,
      "Ġjob": 1904,
      "05": 1905,
      "Ġâĺ": 1906,
      "aid": 1907,
      "uman": 1908,
      "Sm": 1909,
      "Ġrest": 1910,
      "orite": 1911,
      "Ġtra": 1912,
      "attle": 1913,
      "ĠYeah": 1914,
      "Ġmusic": 1915,
      "ĠZ": 1916,
      "95": 1917,
      "DD": 1918,
      "ĠFUCK": 1919,
      "arr": 1920,
      "vl": 1921,
      "Ġed": 1922,
      "MP": 1923,
      "ðŁı¼": 1924,
      "LO": 1925,
      "imin": 1926,
      "ĠðŁ¥°": 1927,
      "AAAA": 1928,
      "ald": 1929,
      "Ġsound": 1930,
      "ross": 1931,
      "Ġfunny": 1932,
      "ased": 1933,
      "'d": 1934,
      "ico": 1935,
      "34": 1936,
      "ĠNOT": 1937,
      "Thank": 1938,
      "eed": 1939,
      "Ġleg": 1940,
      "ital": 1941,
      "Ġres": 1942,
      "gh": 1943,
      "Ġbus": 1944,
      "Ġimp": 1945,
      "ott": 1946,
      "ublic": 1947,
      "bt": 1948,
      "ĠPlease": 1949,
      "fer": 1950,
      "Ĥï¸ı": 1951,
      "LS": 1952,
      "fr": 1953,
      "Oh": 1954,
      "UU": 1955,
      "EW": 1956,
      "ĠAn": 1957,
      "itt": 1958,
      "Ġomg": 1959,
      "iel": 1960,
      "ðŁĶ¥ðŁĶ¥": 1961,
      "rats": 1962,
      "Ġoh": 1963,
      "ken": 1964,
      "Ġdifferent": 1965,
      "ĠBr": 1966,
      "Ġain": 1967,
      "Ġvacc": 1968,
      "Ġma": 1969,
      "à¹": 1970,
      "XT": 1971,
      "acy": 1972,
      "CA": 1973,
      "ister": 1974,
      "hel": 1975,
      "Ġide": 1976,
      "Pl": 1977,
      "Ġfew": 1978,
      "NCT": 1979,
      "AND": 1980,
      "Ġtop": 1981,
      "ines": 1982,
      "UG": 1983,
      "Ġcoll": 1984,
      "outh": 1985,
      "aily": 1986,
      "Ġhear": 1987,
      "key": 1988,
      "âĢįâĻĤï¸ı": 1989,
      "Mr": 1990,
      "Ġtomor": 1991,
      "ral": 1992,
      "orts": 1993,
      "Fl": 1994,
      "Ġdeser": 1995,
      "een": 1996,
      "Love": 1997,
      "ĠTwitter": 1998,
      "ooo": 1999,
      "Ġdem": 2000,
      "UST": 2001,
      "Ġlmao": 2002,
      "ĠðŁĮ": 2003,
      "Ġtomorrow": 2004,
      "NA": 2005,
      "ANT": 2006,
      "Ġ:(": 2007,
      "Why": 2008,
      "WH": 2009,
      "Ġsub": 2010,
      "ANK": 2011,
      "Ġsaw": 2012,
      "ĠDO": 2013,
      "Su": 2014,
      "Play": 2015,
      "Ġuntil": 2016,
      "Ġtimes": 2017,
      "uture": 2018,
      "IF": 2019,
      "most": 2020,
      "DAY": 2021,
      "asy": 2022,
      "Ġturn": 2023,
      "wa": 2024,
      "Ġquest": 2025,
      "iHeart": 2026,
      "uring": 2027,
      "Pe": 2028,
      "irt": 2029,
      "MO": 2030,
      "78": 2031,
      "íķ": 2032,
      "35": 2033,
      "Ġbook": 2034,
      "vern": 2035,
      "ðŁĴķ": 2036,
      "Ġchild": 2037,
      "May": 2038,
      "06": 2039,
      "Ġwent": 2040,
      "Ġopen": 2041,
      "body": 2042,
      "Ġpass": 2043,
      "Ġfamily": 2044,
      "duct": 2045,
      "PS": 2046,
      "ying": 2047,
      "94": 2048,
      "rent": 2049,
      "Ġment": 2050,
      "Ġdamn": 2051,
      "Ġfound": 2052,
      "ym": 2053,
      "ta": 2054,
      "Ġelse": 2055,
      "illion": 2056,
      "New": 2057,
      "Mc": 2058,
      "Ġexc": 2059,
      "Music": 2060,
      "ho": 2061,
      "Coup": 2062,
      "Tw": 2063,
      "ello": 2064,
      "Can": 2065,
      "ature": 2066,
      "work": 2067,
      "RR": 2068,
      "ĠPr": 2069,
      "ĠLe": 2070,
      "ount": 2071,
      "AV": 2072,
      "Ġcar": 2073,
      "Ġx": 2074,
      "aul": 2075,
      "ĠX": 2076,
      "REAM": 2077,
      "ĠWHAT": 2078,
      "ton": 2079,
      "cial": 2080,
      "ĠðŁĺŃðŁĺŃ": 2081,
      "Ġfull": 2082,
      "ata": 2083,
      "ĠPro": 2084,
      "Com": 2085,
      "ĠThere": 2086,
      "Ġint": 2087,
      "sl": 2088,
      "more": 2089,
      "ĠLet": 2090,
      "fess": 2091,
      "ĠNew": 2092,
      "YouTube": 2093,
      "Pro": 2094,
      "Ab": 2095,
      "Gl": 2096,
      "ational": 2097,
      "OOD": 2098,
      "Ġready": 2099,
      "URE": 2100,
      "verse": 2101,
      "iden": 2102,
      "ĠTHAT": 2103,
      "ĠðŁĺĤðŁĺĤðŁĺĤ": 2104,
      "Ġhair": 2105,
      "Ġproble": 2106,
      "Ġvot": 2107,
      "Ġyourself": 2108,
      "iHeartAwards": 2109,
      "Ġ12": 2110,
      "Ġya": 2111,
      "Qu": 2112,
      "Happ": 2113,
      "Ġposted": 2114,
      "rend": 2115,
      "ĠðŁĺ©": 2116,
      "75": 2117,
      "ones": 2118,
      "MF": 2119,
      "Ġprom": 2120,
      "ips": 2121,
      "Ġbreak": 2122,
      "back": 2123,
      "Ġlear": 2124,
      "Bu": 2125,
      "64": 2126,
      "Ġhold": 2127,
      "ĠUn": 2128,
      "error": 2129,
      "Ġmaybe": 2130,
      "rip": 2131,
      "actly": 2132,
      "yd": 2133,
      "IB": 2134,
      "Ġmess": 2135,
      "Ġz": 2136,
      "ratul": 2137,
      "09": 2138,
      "ately": 2139,
      "ience": 2140,
      "isa": 2141,
      "Rep": 2142,
      "vid": 2143,
      "Ġhours": 2144,
      "Ġacc": 2145,
      "Ġphoto": 2146,
      "ians": 2147,
      "Ġfan": 2148,
      "Ġcut": 2149,
      "time": 2150,
      "Ġep": 2151,
      "ams": 2152,
      "oun": 2153,
      "Ġleast": 2154,
      "When": 2155,
      "Ġprobably": 2156,
      "Ġsecond": 2157,
      "ĠAs": 2158,
      "elcome": 2159,
      "icture": 2160,
      "alf": 2161,
      "Ġ..": 2162,
      "jo": 2163,
      "ives": 2164,
      "Ġseason": 2165,
      "Ġbit": 2166,
      "Ġguess": 2167,
      "Day": 2168,
      "LI": 2169,
      "led": 2170,
      "har": 2171,
      "MI": 2172,
      "ugg": 2173,
      "fan": 2174,
      "âĿ¤ï¸ıâĿ¤ï¸ı": 2175,
      "ux": 2176,
      "ero": 2177,
      "ðŁĵ": 2178,
      "Ġalbum": 2179,
      "KS": 2180,
      "Ġplace": 2181,
      "Ġthinking": 2182,
      "yo": 2183,
      "Ġblack": 2184,
      "Ġstud": 2185,
      "Ġgotta": 2186,
      "Ġonce": 2187,
      "Whats": 2188,
      "38": 2189,
      "At": 2190,
      "Ġbed": 2191,
      "100": 2192,
      "ITH": 2193,
      "Check": 2194,
      "Ġchange": 2195,
      "inc": 2196,
      "ĠCom": 2197,
      "Ġlead": 2198,
      "ify": 2199,
      "away": 2200,
      "Ġago": 2201,
      "aha": 2202,
      "osed": 2203,
      "Ġenjoy": 2204,
      "umber": 2205,
      "esome": 2206,
      "gether": 2207,
      "Or": 2208,
      "ither": 2209,
      "Ġhit": 2210,
      "gu": 2211,
      "ala": 2212,
      "eb": 2213,
      "ler": 2214,
      "oday": 2215,
      "PR": 2216,
      "mo": 2217,
      "Ġmovie": 2218,
      "iK": 2219,
      "reed": 2220,
      "Ġnigg": 2221,
      "Ġfar": 2222,
      "68": 2223,
      "Ġfavorite": 2224,
      "off": 2225,
      "ĠCl": 2226,
      "With": 2227,
      "Ġlisten": 2228,
      "fully": 2229,
      "ĠWell": 2230,
      "ork": 2231,
      "Ġclass": 2232,
      "yr": 2233,
      "Up": 2234,
      "orge": 2235,
      "RT": 2236,
      "Ġlost": 2237,
      "ummer": 2238,
      "Ġfact": 2239,
      "Ġmen": 2240,
      "Ġpower": 2241,
      "ðŁĺ©": 2242,
      "48": 2243,
      "ants": 2244,
      "TER": 2245,
      "Ġconf": 2246,
      "ĠGO": 2247,
      "apt": 2248,
      "ratulations": 2249,
      "arket": 2250,
      "Ġcalled": 2251,
      "avid": 2252,
      "37": 2253,
      "Ġneeds": 2254,
      "upid": 2255,
      "Ġexper": 2256,
      "Ġap": 2257,
      "eeee": 2258,
      "World": 2259,
      "MC": 2260,
      "UNG": 2261,
      "ea": 2262,
      "ðŁĴĸ": 2263,
      "gan": 2264,
      "cor": 2265,
      "unny": 2266,
      "di": 2267,
      "head": 2268,
      "plain": 2269,
      "GE": 2270,
      "kay": 2271,
      "Ġdel": 2272,
      "che": 2273,
      "ments": 2274,
      "ele": 2275,
      "miss": 2276,
      "Ġdefinitely": 2277,
      "ger": 2278,
      "ðŁĲ": 2279,
      "Ġsuper": 2280,
      "ca": 2281,
      "ðŁ§": 2282,
      "Ġsays": 2283,
      "girl": 2284,
      "Ġtrans": 2285,
      "ga": 2286,
      "yst": 2287,
      "Ġlink": 2288,
      "Ġtogether": 2289,
      "Happening": 2290,
      "El": 2291,
      "jj": 2292,
      "riday": 2293,
      "ĠPre": 2294,
      "urse": 2295,
      "UP": 2296,
      "ĠNO": 2297,
      "ðĿĴ": 2298,
      "Ġabs": 2299,
      "Ġstand": 2300,
      "ìĹ": 2301,
      "One": 2302,
      "à¥": 2303,
      "ĠHi": 2304,
      "da": 2305,
      "yle": 2306,
      "aught": 2307,
      "Ġiss": 2308,
      "Ġind": 2309,
      "what": 2310,
      "ester": 2311,
      "net": 2312,
      "iously": 2313,
      "ShopeeID": 2314,
      "love": 2315,
      "era": 2316,
      "ears": 2317,
      "adi": 2318,
      "ĠARE": 2319,
      "odi": 2320,
      "Ġdef": 2321,
      "BT": 2322,
      "Ġann": 2323,
      "Ġweird": 2324,
      "Ġeat": 2325,
      "ially": 2326,
      "olutely": 2327,
      "OME": 2328,
      "elt": 2329,
      "Ġpain": 2330,
      "67": 2331,
      "InMyanmar": 2332,
      "dr": 2333,
      "vo": 2334,
      "King": 2335,
      "ative": 2336,
      "Ġfore": 2337,
      "ĠNow": 2338,
      "fort": 2339,
      "ACK": 2340,
      "iting": 2341,
      "ries": 2342,
      "DS": 2343,
      "âĢĶ": 2344,
      "ĠAmeric": 2345,
      "**": 2346,
      "ipp": 2347,
      "Ġcame": 2348,
      "Ġtold": 2349,
      "ĠâĢĺ": 2350,
      "Ġtook": 2351,
      "bu": 2352,
      "WhatsHappening": 2353,
      "PL": 2354,
      "Ġpicture": 2355,
      "CC": 2356,
      "Fr": 2357,
      "Ġinc": 2358,
      "Pre": 2359,
      "aaaa": 2360,
      "ling": 2361,
      "good": 2362,
      "bi": 2363,
      "rag": 2364,
      "Ġhouse": 2365,
      "Ġmem": 2366,
      "ized": 2367,
      "ĠCH": 2368,
      "Ġmad": 2369,
      "BL": 2370,
      "¼ï¸ı": 2371,
      "bin": 2372,
      "Ġ@_": 2373,
      "wr": 2374,
      "ÂłÂł": 2375,
      "uly": 2376,
      "IA": 2377,
      "Ġfall": 2378,
      "treasure": 2379,
      "Ġsupp": 2380,
      "bv": 2381,
      "Ġstarted": 2382,
      "ðŁĺŃðŁĺŃðŁĺŃðŁĺŃ": 2383,
      "BS": 2384,
      "Ġset": 2385,
      "¥ï¸ı": 2386,
      "andom": 2387,
      "Ġfine": 2388,
      "Ġstory": 2389,
      "rike": 2390,
      "Ġcrazy": 2391,
      "elon": 2392,
      "Ġcant": 2393,
      "kh": 2394,
      "Ġblock": 2395,
      "ĠWITH": 2396,
      "Ġspec": 2397,
      "ðŁ¥ºðŁ¥º": 2398,
      "ional": 2399,
      "85": 2400,
      "ðŁĴĹ": 2401,
      "uns": 2402,
      "que": 2403,
      "view": 2404,
      "Ġstuff": 2405,
      "Ġhaven": 2406,
      "Ġwomen": 2407,
      "cle": 2408,
      "JP": 2409,
      "agine": 2410,
      "YE": 2411,
      "WhatsHappeningInMyanmar": 2412,
      "La": 2413,
      "ster": 2414,
      "vice": 2415,
      "ĠLol": 2416,
      "ards": 2417,
      "ðŁĴĢ": 2418,
      "ement": 2419,
      "Ġwhite": 2420,
      "Ġhappened": 2421,
      "ights": 2422,
      "arn": 2423,
      "Ġdead": 2424,
      "Ġfeeling": 2425,
      "got": 2426,
      "usk": 2427,
      "Ġsweet": 2428,
      "ular": 2429,
      "ali": 2430,
      "Ġsir": 2431,
      "47": 2432,
      "play": 2433,
      "ena": 2434,
      "Ġmove": 2435,
      "udd": 2436,
      "Ġhor": 2437,
      "ME": 2438,
      "93": 2439,
      "Ġwanted": 2440,
      "Ġdep": 2441,
      "96": 2442,
      "ĠWhen": 2443,
      "Ġtwitter": 2444,
      "roll": 2445,
      "ested": 2446,
      "jp": 2447,
      "win": 2448,
      "Ġgets": 2449,
      "020": 2450,
      "ouch": 2451,
      "Like": 2452,
      "ype": 2453,
      "iet": 2454,
      "ific": 2455,
      "Ġcor": 2456,
      "But": 2457,
      "Ġshare": 2458,
      "They": 2459,
      "ti": 2460,
      "Ġter": 2461,
      "aren": 2462,
      "ls": 2463,
      "ĠAm": 2464,
      "Ġeach": 2465,
      "urs": 2466,
      "ween": 2467,
      "Ġleave": 2468,
      "John": 2469,
      "load": 2470,
      "Ġagree": 2471,
      "OK": 2472,
      "Ġ//": 2473,
      "Ġhi": 2474,
      "ita": 2475,
      "WW": 2476,
      "90": 2477,
      "ham": 2478,
      "Ġwasn": 2479,
      "Ġsuck": 2480,
      "Ġfuture": 2481,
      "Ġstrong": 2482,
      "ino": 2483,
      "Ġrec": 2484,
      "Fan": 2485,
      "Ġext": 2486,
      "where": 2487,
      "date": 2488,
      "Ge": 2489,
      "ðŁĶ": 2490,
      "Ġkids": 2491,
      "AVE": 2492,
      "JYP": 2493,
      "Ġcountry": 2494,
      "ðŁĺįðŁĺį": 2495,
      "ĠMan": 2496,
      "ĠDay": 2497,
      "Ġdad": 2498,
      "Ġdri": 2499,
      "Co": 2500,
      "Ġpick": 2501,
      "mas": 2502,
      "Art": 2503,
      "anda": 2504,
      "FL": 2505,
      "Ġmine": 2506,
      "uj": 2507,
      "arri": 2508,
      "Ed": 2509,
      "UK": 2510,
      "ĠðŁĺĬ": 2511,
      "cott": 2512,
      "ĠLike": 2513,
      "Ġsign": 2514,
      "rem": 2515,
      "Ġhealth": 2516,
      "eral": 2517,
      "ĠAre": 2518,
      "gs": 2519,
      "cast": 2520,
      "En": 2521,
      "MM": 2522,
      "ðĿĳ": 2523,
      "ada": 2524,
      "ĠâĻ": 2525,
      "ko": 2526,
      "Ġ[": 2527,
      "Ġop": 2528,
      ".\"": 2529,
      "ored": 2530,
      "ãĤ": 2531,
      "can": 2532,
      "pm": 2533,
      "ĠIm": 2534,
      "how": 2535,
      "ision": 2536,
      "ĠWho": 2537,
      "arb": 2538,
      "uf": 2539,
      "ðŁĳį": 2540,
      "ini": 2541,
      "irect": 2542,
      "Ġpast": 2543,
      "vi": 2544,
      "MS": 2545,
      "Ġhonest": 2546,
      "Ġperfect": 2547,
      "TF": 2548,
      "36": 2549,
      ".....": 2550,
      "Ġspe": 2551,
      "Ġlaug": 2552,
      "ced": 2553,
      "ðŁĴĻ": 2554,
      "Ġidea": 2555,
      "ðĿļ": 2556,
      "ĠTHANK": 2557,
      "ASE": 2558,
      "col": 2559,
      "Ġworking": 2560,
      "ðŁĳı": 2561,
      "Ġself": 2562,
      "oof": 2563,
      "Let": 2564,
      "used": 2565,
      "Ġless": 2566,
      "DE": 2567,
      "Ġbeh": 2568,
      "Ġ11": 2569,
      "ati": 2570,
      "91": 2571,
      "dk": 2572,
      "DY": 2573,
      "ead": 2574,
      "treasuremembers": 2575,
      "oop": 2576,
      "alt": 2577,
      "Ke": 2578,
      "GA": 2579,
      "Ġeyes": 2580,
      "ETWICE": 2581,
      "JYPETWICE": 2582,
      "APPY": 2583,
      "OC": 2584,
      "Ġusing": 2585,
      "ĠWith": 2586,
      "why": 2587,
      "Ġppl": 2588,
      "SP": 2589,
      "Ġbless": 2590,
      "Ġnews": 2591,
      "ĠOr": 2592,
      "mc": 2593,
      "ĠðŁĴľ": 2594,
      "Ġproblem": 2595,
      "IP": 2596,
      "add": 2597,
      "Ġref": 2598,
      "Ġproud": 2599,
      "Ġ15": 2600,
      "gen": 2601,
      "OH": 2602,
      "Ne": 2603,
      "Ġstupid": 2604,
      "40": 2605,
      "Ġalmost": 2606,
      "ished": 2607,
      "Ġplan": 2608,
      "EEEE": 2609,
      ",âĢ¦": 2610,
      "Ġ30": 2611,
      "ZY": 2612,
      "atur": 2613,
      "ĠTrump": 2614,
      "Ġidk": 2615,
      "OOK": 2616,
      "friend": 2617,
      "Battle": 2618,
      "Fe": 2619,
      "ĠNOW": 2620,
      "Ġsit": 2621,
      "Ġyo": 2622,
      "Ġbestie": 2623,
      "ðŁĴľðŁĴľ": 2624,
      "icha": 2625,
      "ALLY": 2626,
      "ðŁĺĺ": 2627,
      "XX": 2628,
      "mr": 2629,
      "Ġforget": 2630,
      "ua": 2631,
      "oly": 2632,
      "Ġlate": 2633,
      "ĠOf": 2634,
      "ĠðŁĺĤðŁĺĤ": 2635,
      "76": 2636,
      "va": 2637,
      "Ġwants": 2638,
      "DC": 2639,
      "ĠInd": 2640,
      "Ġrequ": 2641,
      "she": 2642,
      "Ġquestion": 2643,
      "aken": 2644,
      "ows": 2645,
      "Ġphone": 2646,
      "Em": 2647,
      "Ġheard": 2648,
      "Ġlearn": 2649,
      "Ġill": 2650,
      "ices": 2651,
      "Ġtaking": 2652,
      "bts": 2653,
      "yan": 2654,
      "God": 2655,
      "reci": 2656,
      "tte": 2657,
      "Ġword": 2658,
      "Je": 2659,
      "vernment": 2660,
      "Ġlo": 2661,
      "ĠPe": 2662,
      "IV": 2663,
      "TE": 2664,
      "Con": 2665,
      "Ġkinda": 2666,
      "Ġhug": 2667,
      "Ġwalk": 2668,
      "Ġbackup": 2669,
      "ccess": 2670,
      "ESS": 2671,
      "ĠOMG": 2672,
      "Ġmilitary": 2673,
      "raph": 2674,
      "OB": 2675,
      "erry": 2676,
      "Ġna": 2677,
      "Ġbring": 2678,
      "ims": 2679,
      "Ġwaiting": 2680,
      "Ġgone": 2681,
      "Ġsocial": 2682,
      "ĠOne": 2683,
      "jay": 2684,
      "Ġâľ¨": 2685,
      "OON": 2686,
      "Da": 2687,
      "Ġfans": 2688,
      "js": 2689,
      "31": 2690,
      "wt": 2691,
      "ĠUP": 2692,
      "Ġbo": 2693,
      "ĠðŁĳĢ": 2694,
      "LB": 2695,
      "ran": 2696,
      "FE": 2697,
      "ĠâĢĶ": 2698,
      "Ġgames": 2699,
      "ORE": 2700,
      "rey": 2701,
      "REAS": 2702,
      "Ġexpect": 2703,
      "ãĢ": 2704,
      "ĠðŁ§": 2705,
      "nivers": 2706,
      "Ġbody": 2707,
      "DJ": 2708,
      "Please": 2709,
      "ami": 2710,
      "ðŁļĢ": 2711,
      "eph": 2712,
      "ĠHave": 2713,
      "ĠAM": 2714,
      "xy": 2715,
      "obody": 2716,
      "--": 2717,
      "ĠALL": 2718,
      "don": 2719,
      "Video": 2720,
      "eter": 2721,
      "Twitter": 2722,
      "ART": 2723,
      "Ġclose": 2724,
      "ARMY": 2725,
      "RS": 2726,
      "cs": 2727,
      "Ġgrow": 2728,
      "Ġsafe": 2729,
      "NC": 2730,
      "Ġhands": 2731,
      "with": 2732,
      "oose": 2733,
      "84": 2734,
      "REASURE": 2735,
      "OG": 2736,
      "Ġdm": 2737,
      "87": 2738,
      "olf": 2739,
      "Ġtired": 2740,
      "ages": 2741,
      "ĠMorning": 2742,
      "âłĢâłĢ": 2743,
      "Ġanymore": 2744,
      "Sc": 2745,
      "AHAH": 2746,
      "pop": 2747,
      "lete": 2748,
      "Ġsingle": 2749,
      "ATE": 2750,
      "Ġfinally": 2751,
      "Ġduring": 2752,
      "Its": 2753,
      "MB": 2754,
      "iny": 2755,
      "acts": 2756,
      "ðŁ¥³": 2757,
      "Ġmonths": 2758,
      "80": 2759,
      "ility": 2760,
      "ĠLook": 2761,
      "Ġcontin": 2762,
      "Jack": 2763,
      "kook": 2764,
      "Black": 2765,
      "Ag": 2766,
      "ume": 2767,
      "iw": 2768,
      "Ġable": 2769,
      "Ġwords": 2770,
      "Ġgiving": 2771,
      "ĠWAS": 2772,
      "Sl": 2773,
      "Ġseeing": 2774,
      "follow": 2775,
      "TWICE": 2776,
      "Ġcrying": 2777,
      "rest": 2778,
      "KC": 2779,
      "Ġside": 2780,
      "Ġconc": 2781,
      "ĠAr": 2782,
      "Mon": 2783,
      "reet": 2784,
      "32": 2785,
      "HY": 2786,
      "alent": 2787,
      "ĠĠĠ": 2788,
      "IZ": 2789,
      "ĠSE": 2790,
      "ending": 2791,
      "ĠDM": 2792,
      "Ġansw": 2793,
      "Ġsur": 2794,
      "Ġfire": 2795,
      "Ġdumb": 2796,
      "sident": 2797,
      "ior": 2798,
      "ities": 2799,
      "ĠGreat": 2800,
      "39": 2801,
      "ðŁİī": 2802,
      "Lvl": 2803,
      "lee": 2804,
      "UY": 2805,
      "fo": 2806,
      "NE": 2807,
      "ands": 2808,
      "ĠEvery": 2809,
      "ĠLIKE": 2810,
      "sy": 2811,
      "ĠBTS": 2812,
      "eal": 2813,
      "Ġfood": 2814,
      "gin": 2815,
      "ĠðŁį": 2816,
      "ĠIndia": 2817,
      "Ġyoung": 2818,
      "Ġsell": 2819,
      "like": 2820,
      "Ġaut": 2821,
      "aaa": 2822,
      "star": 2823,
      "Ġmeans": 2824,
      "OTE": 2825,
      "Every": 2826,
      "Ġmoment": 2827,
      "Ġchang": 2828,
      "side": 2829,
      "Ġmeet": 2830,
      "UB": 2831,
      "utes": 2832,
      "omin": 2833,
      "oge": 2834,
      "INE": 2835,
      "ĠGOOD": 2836,
      "ĠðŁĴĢ": 2837,
      "Ġred": 2838,
      "Red": 2839,
      "Ġprotest": 2840,
      "Ġaf": 2841,
      "Ġ200": 2842,
      "ĠLE": 2843,
      "Ġepis": 2844,
      "Rob": 2845,
      "ering": 2846,
      "Jo": 2847,
      "ĠJUST": 2848,
      "NS": 2849,
      "PC": 2850,
      "Ġglad": 2851,
      "ĠâĢĵ": 2852,
      "rol": 2853,
      "Ġfil": 2854,
      "Ġev": 2855,
      "vt": 2856,
      "Ġmain": 2857,
      "ape": 2858,
      "down": 2859,
      "Ġbusiness": 2860,
      "jin": 2861,
      "aming": 2862,
      "hs": 2863,
      "that": 2864,
      "Ġgoes": 2865,
      "Ġorder": 2866,
      "Ġmatter": 2867,
      "lin": 2868,
      "ison": 2869,
      "ðŁĴĶ": 2870,
      "Ġremind": 2871,
      "92": 2872,
      "ĠĠĠĠĠĠĠĠĠĠĠĠĠĠĠĠ": 2873,
      "ilk": 2874,
      "60": 2875,
      "vs": 2876,
      "Ġpos": 2877,
      "fg": 2878,
      "ju": 2879,
      "Ġcreat": 2880,
      "Ġeither": 2881,
      "pa": 2882,
      "Ġposs": 2883,
      "ract": 2884,
      "vail": 2885,
      "Ġknew": 2886,
      "ered": 2887,
      "Ġbetween": 2888,
      "ection": 2889,
      "Ġclear": 2890,
      "There": 2891,
      "Ġdrink": 2892,
      "Ġwoman": 2893,
      "ĠChrist": 2894,
      "MT": 2895,
      "ĠMar": 2896,
      "Ġshot": 2897,
      "jun": 2898,
      "ros": 2899,
      "SK": 2900,
      "ently": 2901,
      "YT": 2902,
      "Tom": 2903,
      "Ġcomes": 2904,
      "ĠNice": 2905,
      "Ġhurt": 2906,
      "ĠFollow": 2907,
      "ĠGet": 2908,
      "bit": 2909,
      "Ġwater": 2910,
      "Ġhuman": 2911,
      "Ġworth": 2912,
      "Ġdude": 2913,
      "book": 2914,
      "AJ": 2915,
      "Ġtrust": 2916,
      "Ġla": 2917,
      "70": 2918,
      "ury": 2919,
      "Ġalone": 2920,
      "ĠDON": 2921,
      "Ġsn": 2922,
      "oph": 2923,
      "ĠYE": 2924,
      "ĠGr": 2925,
      "rect": 2926,
      "oz": 2927,
      "ĠPl": 2928,
      "Army": 2929,
      "ĠCheck": 2930,
      "Ġwtf": 2931,
      "OVID": 2932,
      "Ġsimp": 2933,
      "Ġnumber": 2934,
      "jk": 2935,
      "illy": 2936,
      "ðŁĴ¯": 2937,
      "Ġbab": 2938,
      "PT": 2939,
      "jm": 2940,
      "Ġdie": 2941,
      "74": 2942,
      "ĠSame": 2943,
      "ï¼": 2944,
      "aving": 2945,
      "urpris": 2946,
      "Ġrt": 2947,
      "Ġeff": 2948,
      "ĠPh": 2949,
      "Radio": 2950,
      "ĠðŁĳį": 2951,
      "aylor": 2952,
      "AI": 2953,
      "ichael": 2954,
      "ERS": 2955,
      "Ġtweets": 2956,
      "lix": 2957,
      "ystem": 2958,
      "NOW": 2959,
      "hhh": 2960,
      "Fin": 2961,
      "ality": 2962,
      "Ġdou": 2963,
      "ĠPlay": 2964,
      "bot": 2965,
      "pro": 2966,
      "Who": 2967,
      "Ġlight": 2968,
      "erv": 2969,
      "sel": 2970,
      "ĊĊ": 2971,
      "ading": 2972,
      "aM": 2973,
      "Ġsick": 2974,
      "Ġcoup": 2975,
      "ĠBUT": 2976,
      "ecause": 2977,
      "Your": 2978,
      "By": 2979,
      "Ġball": 2980,
      "chan": 2981,
      "âĢ¢": 2982,
      "86": 2983,
      "ĠðŁĻĦ": 2984,
      "Ġcourse": 2985,
      "ĠðŁĺĶ": 2986,
      "ĸ¤": 2987,
      "nb": 2988,
      "App": 2989,
      "ĠRep": 2990,
      "alm": 2991,
      "ica": 2992,
      "ĠAt": 2993,
      "vy": 2994,
      "ĠYES": 2995,
      "town": 2996,
      "Ġcong": 2997,
      "Ġones": 2998,
      "EXO": 2999,
      "ield": 3000,
      "Ġsuccess": 3001,
      "py": 3002,
      "Ġdeath": 3003,
      "agram": 3004,
      "rib": 3005,
      "GH": 3006,
      "Ġgroup": 3007,
      "thers": 3008,
      "89": 3009,
      "AKE": 3010,
      "aur": 3011,
      "oes": 3012,
      "right": 3013,
      "elle": 3014,
      "ICK": 3015,
      "ales": 3016,
      "fi": 3017,
      "Ġvib": 3018,
      "íķĺ": 3019,
      "Ġang": 3020,
      "kr": 3021,
      "reg": 3022,
      "acter": 3023,
      "boo": 3024,
      "Ġhalf": 3025,
      "Ah": 3026,
      "¸ë": 3027,
      "Ġbeat": 3028,
      "Ġdeserve": 3029,
      "aper": 3030,
      "may": 3031,
      "127": 3032,
      "oots": 3033,
      "acked": 3034,
      "ĠOUT": 3035,
      "âĢ¼ï¸ı": 3036,
      "ien": 3037,
      "ĠDid": 3038,
      "Ġchance": 3039,
      "Ġsmall": 3040,
      "hell": 3041,
      "KP": 3042,
      "Ġreport": 3043,
      "AZ": 3044,
      "ĠTe": 3045,
      "Big": 3046,
      "Ġappreci": 3047,
      "aff": 3048,
      "ills": 3049,
      "fu": 3050,
      "Ġline": 3051,
      "Show": 3052,
      "___": 3053,
      "list": 3054,
      "Ġsense": 3055,
      "over": 3056,
      "Ġfast": 3057,
      "ĠðŁļ": 3058,
      "omb": 3059,
      "ml": 3060,
      "iver": 3061,
      "GO": 3062,
      "Ġelect": 3063,
      "tten": 3064,
      "Team": 3065,
      "obal": 3066,
      "crypto": 3067,
      "Ġlevel": 3068,
      "Ġlater": 3069,
      "anger": 3070,
      "ertain": 3071,
      "ender": 3072,
      "ĠBEST": 3073,
      "ĠPR": 3074,
      "BC": 3075,
      "Ġgirls": 3076,
      "Gu": 3077,
      "200": 3078,
      "Kh": 3079,
      "vr": 3080,
      "Ġmedia": 3081,
      "Ġwouldn": 3082,
      "Ġsent": 3083,
      "54": 3084,
      "ĠBirthday": 3085,
      "Ġ24": 3086,
      "mb": 3087,
      "cha": 3088,
      "Ġprop": 3089,
      "ãħ": 3090,
      "amer": 3091,
      "Ġexcited": 3092,
      "Ġbecome": 3093,
      "Ġsol": 3094,
      "ĠEX": 3095,
      "king": 3096,
      "atever": 3097,
      "Ġimport": 3098,
      "Ġdrop": 3099,
      "ATION": 3100,
      "FB": 3101,
      "uin": 3102,
      "Ġshort": 3103,
      "AST": 3104,
      "dream": 3105,
      "ANG": 3106,
      "zi": 3107,
      "ºï¸ı": 3108,
      "Ġdraw": 3109,
      "ĠWill": 3110,
      "ĠHope": 3111,
      "OX": 3112,
      "RP": 3113,
      "aker": 3114,
      "sn": 3115,
      "ovid": 3116,
      "ĠðŁĲ": 3117,
      "irdrop": 3118,
      "Tok": 3119,
      "Ok": 3120,
      "musk": 3121,
      "Ġaren": 3122,
      "Ġcat": 3123,
      "Sk": 3124,
      "Ġpolit": 3125,
      "su": 3126,
      "Give": 3127,
      "56": 3128,
      "emp": 3129,
      "Ġlow": 3130,
      "Ġpriv": 3131,
      "vin": 3132,
      "Ġ(@": 3133,
      "Ġbigg": 3134,
      "ĠMon": 3135,
      "Ġclos": 3136,
      "Ġpop": 3137,
      "Ac": 3138,
      "Ġlaw": 3139,
      "rypt": 3140,
      "Ġparty": 3141,
      "Ġroom": 3142,
      "fc": 3143,
      "Hi": 3144,
      "Ġrac": 3145,
      "SJ": 3146,
      "Ġgave": 3147,
      "Ma": 3148,
      "ika": 3149,
      "cord": 3150,
      "Ġminutes": 3151,
      "Ġearly": 3152,
      "Ġkiss": 3153,
      "Mo": 3154,
      "ĠHey": 3155,
      "Ġ50": 3156,
      "Ġfollowed": 3157,
      "ĠAT": 3158,
      "IH": 3159,
      "elebr": 3160,
      "Ġexactly": 3161,
      "Ġ=": 3162,
      "fit": 3163,
      "elonmusk": 3164,
      "ðŁ¤į": 3165,
      "Ġkid": 3166,
      "ules": 3167,
      "46": 3168,
      "Ġmar": 3169,
      ".âĢĿ": 3170,
      "Ġinstead": 3171,
      "ĠDID": 3172,
      "Fi": 3173,
      "aven": 3174,
      "57": 3175,
      "ule": 3176,
      "ĠSe": 3177,
      "istory": 3178,
      "oog": 3179,
      "cell": 3180,
      "ðŁĺĬ": 3181,
      "Some": 3182,
      "Joe": 3183,
      "IK": 3184,
      "iol": 3185,
      "Ġval": 3186,
      "ĠCon": 3187,
      "box": 3188,
      "Gh": 3189,
      "Ġdet": 3190,
      "AF": 3191,
      "they": 3192,
      "AO": 3193,
      "42": 3194,
      "ergy": 3195,
      "Af": 3196,
      "iece": 3197,
      "BR": 3198,
      "ila": 3199,
      "raight": 3200,
      "sa": 3201,
      "ĠðŁĺĮ": 3202,
      "edia": 3203,
      "ðŁĴļ": 3204,
      "Stan": 3205,
      "MusicVideo": 3206,
      "roy": 3207,
      "Ġnigga": 3208,
      "uw": 3209,
      "Ġpull": 3210,
      "Ġwatched": 3211,
      "Ġvoice": 3212,
      "awn": 3213,
      "Ġterror": 3214,
      "Ġothers": 3215,
      "amm": 3216,
      "ĠDAY": 3217,
      "Ġmet": 3218,
      "kn": 3219,
      "IVE": 3220,
      "Ġhom": 3221,
      "Ġtot": 3222,
      "âľħ": 3223,
      "ĠDE": 3224,
      "Ġfa": 3225,
      "Get": 3226,
      "ĠðŁĺħ": 3227,
      "Hey": 3228,
      "oi": 3229,
      "PM": 3230,
      "TW": 3231,
      "UH": 3232,
      "Ġbas": 3233,
      "ĠVery": 3234,
      "FN": 3235,
      "Ang": 3236,
      "ĠAd": 3237,
      "Ġvis": 3238,
      "Ġwar": 3239,
      "Ġdist": 3240,
      "âĢ¦.": 3241,
      "Ġbrain": 3242,
      "Ap": 3243,
      "Ġstate": 3244,
      "lly": 3245,
      "Ġcurrent": 3246,
      "BD": 3247,
      "Ak": 3248,
      "ails": 3249,
      "Ja": 3250,
      "itive": 3251,
      "Ġ!!!": 3252,
      "AME": 3253,
      "Ġpeace": 3254,
      "otes": 3255,
      "light": 3256,
      "ĠHello": 3257,
      "Sa": 3258,
      "TC": 3259,
      "vis": 3260,
      "igin": 3261,
      "ISS": 3262,
      "yyy": 3263,
      "Ġbrother": 3264,
      "cur": 3265,
      "ief": 3266,
      "ĠApp": 3267,
      "Ġrespect": 3268,
      "LEASE": 3269,
      "ĠðŁĺģ": 3270,
      "ĠâĿ¤": 3271,
      "Trump": 3272,
      "str": 3273,
      "elp": 3274,
      "andy": 3275,
      "MD": 3276,
      "49": 3277,
      "arty": 3278,
      "Ol": 3279,
      "Ġcap": 3280,
      "Ġcons": 3281,
      "SW": 3282,
      "Ġcase": 3283,
      "ðŁ¦": 3284,
      "TXT": 3285,
      "ĠAL": 3286,
      "ague": 3287,
      "Ġabsolutely": 3288,
      "Ġknows": 3289,
      "luv": 3290,
      "Sol": 3291,
      "ìĿ´í": 3292,
      "43": 3293,
      "esterday": 3294,
      "Ġoffic": 3295,
      "Ġsurpris": 3296,
      "Ġtried": 3297,
      "hr": 3298,
      "REE": 3299,
      "Ste": 3300,
      "ĠBest": 3301,
      "Jay": 3302,
      "omen": 3303,
      "Ġboo": 3304,
      "Ġpu": 3305,
      "Ġlos": 3306,
      "omat": 3307,
      "Ġgovernment": 3308,
      "Ġcharacter": 3309,
      "CR": 3310,
      "fw": 3311,
      "79": 3312,
      "Ħì": 3313,
      "Ġpray": 3314,
      "JK": 3315,
      "Per": 3316,
      "Ġvers": 3317,
      "QUE": 3318,
      "jd": 3319,
      "Playing": 3320,
      "Ġincl": 3321,
      "Ġdog": 3322,
      "Ġview": 3323,
      "UD": 3324,
      "jh": 3325,
      "Sam": 3326,
      "IND": 3327,
      "Ken": 3328,
      "wo": 3329,
      "Matt": 3330,
      "ĠSm": 3331,
      "velop": 3332,
      "Ġentire": 3333,
      "58": 3334,
      "po": 3335,
      "akers": 3336,
      "Li": 3337,
      "ĠEn": 3338,
      "ĠITS": 3339,
      "Ġplayed": 3340,
      "gi": 3341,
      "ocal": 3342,
      "aste": 3343,
      "Ġseems": 3344,
      "Ġsun": 3345,
      "íĬ": 3346,
      "reaking": 3347,
      "ention": 3348,
      "YG": 3349,
      "smtown": 3350,
      "ĠHere": 3351,
      "Ġawesome": 3352,
      "hor": 3353,
      "ider": 3354,
      "olly": 3355,
      "Ġphot": 3356,
      "73": 3357,
      "aim": 3358,
      "Ġgay": 3359,
      "PE": 3360,
      "Ġvs": 3361,
      "âĻ¥ï¸ı": 3362,
      "aces": 3363,
      "ĠAg": 3364,
      "Jr": 3365,
      "ĠSome": 3366,
      "TR": 3367,
      "ology": 3368,
      "Ġjoke": 3369,
      "ĠðŁ¥²": 3370,
      "icks": 3371,
      "arent": 3372,
      "Ġwall": 3373,
      "ĠðŁ¤Ķ": 3374,
      "vailable": 3375,
      "ems": 3376,
      "ember": 3377,
      "oni": 3378,
      "Ġallow": 3379,
      "Ġreply": 3380,
      "eless": 3381,
      "fn": 3382,
      "weets": 3383,
      "zo": 3384,
      "Ġfeels": 3385,
      "ĠðĿĲ": 3386,
      "Pol": 3387,
      "Ind": 3388,
      "yt": 3389,
      "fuck": 3390,
      "ĠCAN": 3391,
      "ouis": 3392,
      "ĠðŁ¤£ðŁ¤£ðŁ¤£": 3393,
      "Ġrece": 3394,
      "cat": 3395,
      "NO": 3396,
      "ĠPRE": 3397,
      "ano": 3398,
      "UC": 3399,
      "Wr": 3400,
      "Ġbuild": 3401,
      "esus": 3402,
      "Us": 3403,
      "ety": 3404,
      "Ġcover": 3405,
      "ĠONE": 3406,
      "news": 3407,
      "Liv": 3408,
      "Ġlose": 3409,
      "Ġreach": 3410,
      "HER": 3411,
      "Ġnear": 3412,
      "ĠInst": 3413,
      "Ms": 3414,
      "aga": 3415,
      "ted": 3416,
      "Ġtf": 3417,
      "Ġworst": 3418,
      "Id": 3419,
      "Sen": 3420,
      "kl": 3421,
      "world": 3422,
      "istan": 3423,
      "ìĬ": 3424,
      "Ġdeal": 3425,
      "mfa": 3426,
      "Ġeasy": 3427,
      "ends": 3428,
      "wood": 3429,
      "DR": 3430,
      "Ġlikes": 3431,
      "59": 3432,
      "Ġthats": 3433,
      "Ġforever": 3434,
      "Ġsounds": 3435,
      "Ġcannot": 3436,
      "Ġtest": 3437,
      "ĠAS": 3438,
      "ĠMore": 3439,
      "tern": 3440,
      "car": 3441,
      "ĠYOUR": 3442,
      "Ġuni": 3443,
      "ites": 3444,
      "83": 3445,
      "bert": 3446,
      "Ġepisode": 3447,
      "Ġimportant": 3448,
      "63": 3449,
      "ðŁ¤©": 3450,
      "Ġonline": 3451,
      "ku": 3452,
      "mt": 3453,
      "ora": 3454,
      "Ġmissed": 3455,
      "Ġpic": 3456,
      "ĠHAVE": 3457,
      "Ġthree": 3458,
      "isten": 3459,
      "âĶ": 3460,
      "JE": 3461,
      "BestMusicVideo": 3462,
      "Top": 3463,
      "pre": 3464,
      "jn": 3465,
      "Ġ18": 3466,
      "ades": 3467,
      "ĠAny": 3468,
      "Friday": 3469,
      "iii": 3470,
      "ecially": 3471,
      "ĠWow": 3472,
      "won": 3473,
      "ĠBlack": 3474,
      "Sn": 3475,
      "Ġbull": 3476,
      "Ġfb": 3477,
      "rap": 3478,
      "iles": 3479,
      "Ġmod": 3480,
      "ĠCongratulations": 3481,
      "zn": 3482,
      "ste": 3483,
      "osp": 3484,
      "Ġasked": 3485,
      "ction": 3486,
      "Boss": 3487,
      "yb": 3488,
      "Ġcouldn": 3489,
      "Ġthread": 3490,
      "ident": 3491,
      "Ġtag": 3492,
      "SR": 3493,
      "illa": 3494,
      "ormal": 3495,
      "72": 3496,
      "Ġlie": 3497,
      "IX": 3498,
      "SA": 3499,
      "Di": 3500,
      "Butter": 3501,
      "ases": 3502,
      "vm": 3503,
      "Bh": 3504,
      "well": 3505,
      "ising": 3506,
      "Today": 3507,
      "Ġcuz": 3508,
      "ĠGET": 3509,
      "rl": 3510,
      "NH": 3511,
      "ĠBiden": 3512,
      "zh": 3513,
      "yg": 3514,
      "Ġ14": 3515,
      "Ġwelcome": 3516,
      "Ġyall": 3517,
      "SM": 3518,
      "Ġcontent": 3519,
      "Ġenergy": 3520,
      "otify": 3521,
      "ĠHAPPY": 3522,
      "there": 3523,
      "resh": 3524,
      "oring": 3525,
      "Ġthrow": 3526,
      "xn": 3527,
      "orth": 3528,
      "eta": 3529,
      "Na": 3530,
      "Ġforgot": 3531,
      "rible": 3532,
      "TO": 3533,
      "BI": 3534,
      "ĠGOD": 3535,
      "alo": 3536,
      "oting": 3537,
      "Ġtype": 3538,
      "ashion": 3539,
      "ĠðŁĴķ": 3540,
      "Ġmatch": 3541,
      "ĠFl": 3542,
      "Ġsometimes": 3543,
      "Ġspeak": 3544,
      "aged": 3545,
      "82": 3546,
      "Ġmoon": 3547,
      "ona": 3548,
      "Ġcre": 3549,
      "sun": 3550,
      "Â°": 3551,
      "TY": 3552,
      "ĠðŁĺ³": 3553,
      "ĠUp": 3554,
      "arents": 3555,
      "ĠGl": 3556,
      "ĠðŁĴ¯": 3557,
      "cer": 3558,
      "ader": 3559,
      "Ġvoting": 3560,
      "Ġloved": 3561,
      "ĠEVER": 3562,
      "ictator": 3563,
      "yu": 3564,
      "hhhh": 3565,
      "jw": 3566,
      "flix": 3567,
      "AX": 3568,
      "Ġhonestly": 3569,
      "ĠWhere": 3570,
      "Ġtreat": 3571,
      "Ġbehind": 3572,
      "ðŁĺģ": 3573,
      "ĠðŁĩ": 3574,
      "MV": 3575,
      "band": 3576,
      "53": 3577,
      "Ġtbh": 3578,
      "52": 3579,
      "CL": 3580,
      "Gen": 3581,
      "Ġliving": 3582,
      "Ġquick": 3583,
      "pink": 3584,
      "Ġfake": 3585,
      "dom": 3586,
      "emoc": 3587,
      "Ġanswer": 3588,
      "Ġsongs": 3589,
      "DO": 3590,
      "DH": 3591,
      "FW": 3592,
      "ao": 3593,
      "oved": 3594,
      "Ro": 3595,
      "NL": 3596,
      "Our": 3597,
      "ocial": 3598,
      "mn": 3599,
      "chn": 3600,
      "aya": 3601,
      "niversary": 3602,
      "ef": 3603,
      "ĠMaybe": 3604,
      "ueen": 3605,
      "Ġopport": 3606,
      "rab": 3607,
      "ories": 3608,
      "Ġair": 3609,
      "ili": 3610,
      "Ġfail": 3611,
      "Ġfollowers": 3612,
      "ura": 3613,
      "rave": 3614,
      "NowPlaying": 3615,
      "HHHH": 3616,
      "ocked": 3617,
      "Ġ13": 3618,
      "Ġve": 3619,
      "Ġkn": 3620,
      "raft": 3621,
      "arth": 3622,
      "Ġreading": 3623,
      "Ġsmile": 3624,
      "Ġspecial": 3625,
      "Ġmillion": 3626,
      "imate": 3627,
      "ised": 3628,
      "Ġri": 3629,
      "Ġaff": 3630,
      "Ġevent": 3631,
      "Any": 3632,
      "Ġca": 3633,
      "ĠPeople": 3634,
      "Aw": 3635,
      "Ġwow": 3636,
      "astic": 3637,
      "lish": 3638,
      "ootball": 3639,
      "uts": 3640,
      "FR": 3641,
      "vv": 3642,
      "aka": 3643,
      "unn": 3644,
      "Ġboys": 3645,
      "Ġpres": 3646,
      "ussy": 3647,
      "inger": 3648,
      "81": 3649,
      "ĠOnly": 3650,
      "ctor": 3651,
      "ilar": 3652,
      "Ġpublic": 3653,
      "Watch": 3654,
      "ured": 3655,
      "Ġexist": 3656,
      "ĠCOM": 3657,
      "Ġhum": 3658,
      "OPEE": 3659,
      "Ġvaccine": 3660,
      "71": 3661,
      "Ġign": 3662,
      "bel": 3663,
      "ðŁļ©": 3664,
      "Ġweekend": 3665,
      "baby": 3666,
      "gf": 3667,
      "Ġfollowing": 3668,
      "Ġtrack": 3669,
      "DT": 3670,
      "Ġdirect": 3671,
      "ito": 3672,
      "Miss": 3673,
      "Ġstraight": 3674,
      "uke": 3675,
      "ðŁĻĦ": 3676,
      "Are": 3677,
      "Ġson": 3678,
      "ided": 3679,
      "org": 3680,
      "UV": 3681,
      "ðĿķ": 3682,
      "Ġlaugh": 3683,
      "DM": 3684,
      "Ġchecked": 3685,
      "JH": 3686,
      "UCH": 3687,
      "ĠDis": 3688,
      "rian": 3689,
      "ĠCUT": 3690,
      "ĠTE": 3691,
      "Free": 3692,
      "rah": 3693,
      "Ġmarket": 3694,
      "MTVLA": 3695,
      "Lun": 3696,
      "dh": 3697,
      "ideos": 3698,
      "Ġdick": 3699,
      "ws": 3700,
      "Ġcomment": 3701,
      "ĠHEL": 3702,
      "ðŁĳĢ": 3703,
      "ĠBACK": 3704,
      "Ġexplain": 3705,
      "unday": 3706,
      "ĠðŁ¤·": 3707,
      "Ġrepl": 3708,
      "IME": 3709,
      "Ġneeded": 3710,
      "sex": 3711,
      "mail": 3712,
      "Ġtelling": 3713,
      "gers": 3714,
      "TREASURE": 3715,
      "rick": 3716,
      "AIT": 3717,
      "Ġpar": 3718,
      "amb": 3719,
      "QUEST": 3720,
      "IO": 3721,
      "jr": 3722,
      "xr": 3723,
      "kt": 3724,
      "ĠTR": 3725,
      "Ġrecord": 3726,
      "!!!!!": 3727,
      "ela": 3728,
      "Ġdate": 3729,
      "Ġ;": 3730,
      "Ġlistening": 3731,
      "OOO": 3732,
      "spir": 3733,
      "EEZ": 3734,
      "ori": 3735,
      "Ġdue": 3736,
      "icle": 3737,
      "Ġsexy": 3738,
      "ains": 3739,
      "KY": 3740,
      "Ġlay": 3741,
      "62": 3742,
      "Star": 3743,
      "ged": 3744,
      "ĠTHEY": 3745,
      "hu": 3746,
      "Min": 3747,
      "chi": 3748,
      "Ġconsid": 3749,
      "ðŁĺĤðŁĺĤðŁĺĤðŁĺĤ": 3750,
      "Ġyesterday": 3751,
      "DF": 3752,
      "core": 3753,
      "Col": 3754,
      "âĸ": 3755,
      "Ġsoul": 3756,
      "ĠLMA": 3757,
      "Ġcomplet": 3758,
      "ĠFUCKING": 3759,
      "estream": 3760,
      "ĠEng": 3761,
      "Ġcelebr": 3762,
      "arts": 3763,
      "ato": 3764,
      "vn": 3765,
      "atest": 3766,
      "Will": 3767,
      "QU": 3768,
      "Ġsave": 3769,
      "woo": 3770,
      "cu": 3771,
      "Here": 3772,
      "Az": 3773,
      "RV": 3774,
      "aint": 3775,
      "Ġtruth": 3776,
      "Only": 3777,
      "Yo": 3778,
      "Ġasking": 3779,
      "ĠFuck": 3780,
      "SL": 3781,
      "itty": 3782,
      "men": 3783,
      "ĠWOR": 3784,
      "itz": 3785,
      "51": 3786,
      "TB": 3787,
      "ðŁĳĩ": 3788,
      "Ġweeks": 3789,
      "Ġmis": 3790,
      "emic": 3791,
      "Ġfelt": 3792,
      "Ġstat": 3793,
      "41": 3794,
      "cel": 3795,
      "oil": 3796,
      "Dan": 3797,
      "Ġavailable": 3798,
      "bd": 3799,
      "Ġprice": 3800,
      "Dis": 3801,
      "Ax": 3802,
      "FG": 3803,
      "Ġstrike": 3804,
      "ended": 3805,
      "Girl": 3806,
      "Ġtill": 3807,
      "Ġ19": 3808,
      "ðŁķ": 3809,
      "Ben": 3810,
      "eez": 3811,
      "Ġ??": 3812,
      "when": 3813,
      "urch": 3814,
      "moon": 3815,
      "Ġmf": 3816,
      "Īì": 3817,
      "Ġlil": 3818,
      "Ġdest": 3819,
      "ĠðŁĺĺ": 3820,
      "iger": 3821,
      "ĠðŁ¤¦": 3822,
      "RC": 3823,
      "ified": 3824,
      "BOY": 3825,
      "bc": 3826,
      "âļ": 3827,
      "ðŁĻıðŁĻı": 3828,
      "Ġopt": 3829,
      "aran": 3830,
      "NZ": 3831,
      "ustom": 3832,
      "Ġlog": 3833,
      "leg": 3834,
      "ĠPL": 3835,
      "ĠBIR": 3836,
      "ugs": 3837,
      "Ev": 3838,
      "Ġhey": 3839,
      "tv": 3840,
      "ides": 3841,
      "fy": 3842,
      "Ġannoy": 3843,
      "Ġsystem": 3844,
      "JJ": 3845,
      "Ġtouch": 3846,
      "ynam": 3847,
      "Ġseries": 3848,
      "xo": 3849,
      "IST": 3850,
      "ãģ": 3851,
      "Ġshoot": 3852,
      "Hy": 3853,
      "Ġhop": 3854,
      "Ġcommunity": 3855,
      "ads": 3856,
      "edd": 3857,
      "Ay": 3858,
      "GB": 3859,
      "Ġmag": 3860,
      "unter": 3861,
      "Live": 3862,
      "Mag": 3863,
      "Ġinteresting": 3864,
      "ĠðŁ¥³": 3865,
      "etwork": 3866,
      "íĽ": 3867,
      "Ġnon": 3868,
      "ìĬ¤": 3869,
      "ucks": 3870,
      "James": 3871,
      "Ġunfollow": 3872,
      "Ġcrypto": 3873,
      "WR": 3874,
      "Kids": 3875,
      "ivil": 3876,
      "mal": 3877,
      "tok": 3878,
      "fp": 3879,
      "ingh": 3880,
      "Ġinvest": 3881,
      "Bar": 3882,
      "kw": 3883,
      "atri": 3884,
      "Ġopp": 3885,
      "Ash": 3886,
      "Ġvaccin": 3887,
      "Ġwhatever": 3888,
      "Ġrock": 3889,
      "ept": 3890,
      "THDAY": 3891,
      "ĠAlso": 3892,
      "ias": 3893,
      "umm": 3894,
      "Follow": 3895,
      "Well": 3896,
      "dm": 3897,
      "Ġshut": 3898,
      "Ġdeep": 3899,
      "Ġfig": 3900,
      "PN": 3901,
      "Ġfix": 3902,
      "Ġforward": 3903,
      "ressed": 3904,
      "Ġupdate": 3905,
      "andal": 3906,
      "Ġ)": 3907,
      "ZZ": 3908,
      "ARK": 3909,
      "Ġcook": 3910,
      "addy": 3911,
      "Ġver": 3912,
      "ez": 3913,
      "Ġvill": 3914,
      "Ġworks": 3915,
      "Coin": 3916,
      "ĠCOVID": 3917,
      "sss": 3918,
      "Ġproduct": 3919,
      "61": 3920,
      "Rem": 3921,
      "ustral": 3922,
      "auty": 3923,
      "Ky": 3924,
      "Ur": 3925,
      "Ġbought": 3926,
      "Ut": 3927,
      "BO": 3928,
      "ìĦ": 3929,
      "ðŁĺħ": 3930,
      "Ġexperience": 3931,
      "icy": 3932,
      "ether": 3933,
      "Lo": 3934,
      "Ġmass": 3935,
      "ðŁĴĽ": 3936,
      "oves": 3937,
      "ounds": 3938,
      "Po": 3939,
      "Ġcouple": 3940,
      "Pa": 3941,
      "Boy": 3942,
      "ĠBecause": 3943,
      "OUT": 3944,
      "only": 3945,
      "ĠðŁ¥´": 3946,
      "Ġily": 3947,
      "ĠQu": 3948,
      "Ġissue": 3949,
      "ĠIts": 3950,
      "unts": 3951,
      "kd": 3952,
      "ĠWorld": 3953,
      "ðĿĵ": 3954,
      "iot": 3955,
      "Ġrele": 3956,
      "Ġviol": 3957,
      "pet": 3958,
      "Fa": 3959,
      "ĠSer": 3960,
      "GY": 3961,
      "ror": 3962,
      "Ġcalling": 3963,
      "who": 3964,
      "nam": 3965,
      "ĠPer": 3966,
      "Ġnobody": 3967,
      "hey": 3968,
      "fb": 3969,
      "pped": 3970,
      "TA": 3971,
      "izz": 3972,
      "EED": 3973,
      "Ġcard": 3974,
      "Mark": 3975,
      "Guy": 3976,
      "ĠðŁ¤©": 3977,
      "ĠCongrats": 3978,
      "Ġspace": 3979,
      "post": 3980,
      "anj": 3981,
      "Har": 3982,
      "iddle": 3983,
      "xM": 3984,
      "mber": 3985,
      "HQ": 3986,
      "ures": 3987,
      "met": 3988,
      "ĠSuper": 3989,
      "god": 3990,
      "Ġpartic": 3991,
      "ðŁĺŃðŁĺŃðŁĺŃ": 3992,
      "mu": 3993,
      "big": 3994,
      "Ġautomat": 3995,
      "........": 3996,
      "JD": 3997,
      "elly": 3998,
      "Ġdear": 3999,
      "ðĿĸ": 4000,
      "ten": 4001,
      "Ġtext": 4002,
      "Car": 4003,
      "mission": 4004,
      "ajor": 4005,
      "GR": 4006,
      "edis": 4007,
      "Ġabt": 4008,
      "ellow": 4009,
      "itcoin": 4010,
      "john": 4011,
      "hl": 4012,
      "Game": 4013,
      "ðŁ¥°ðŁ¥°": 4014,
      "Ġdark": 4015,
      "acher": 4016,
      "ĠSee": 4017,
      "Ġesp": 4018,
      "ped": 4019,
      "TX": 4020,
      "Er": 4021,
      "Ġchildren": 4022,
      "ima": 4023,
      "wi": 4024,
      "ĠFr": 4025,
      "Life": 4026,
      "ARD": 4027,
      "CO": 4028,
      "ira": 4029,
      "tae": 4030,
      "CP": 4031,
      "ðŁļ©ðŁļ©": 4032,
      "nf": 4033,
      "Ġste": 4034,
      "earch": 4035,
      "ĠWHE": 4036,
      "uation": 4037,
      "ected": 4038,
      "Mike": 4039,
      "NCTsmtown": 4040,
      "opping": 4041,
      "ðŁĺ³": 4042,
      "ĠEd": 4043,
      "Alex": 4044,
      "ĠNFT": 4045,
      "ðŁĻĮ": 4046,
      "Ġfair": 4047,
      "LV": 4048,
      "ĠCovid": 4049,
      "Ġsupposed": 4050,
      "arah": 4051,
      "NI": 4052,
      "usp": 4053,
      "Ġaccept": 4054,
      "Ġmention": 4055,
      "Ġdesign": 4056,
      "Sal": 4057,
      "Look": 4058,
      "Ġroll": 4059,
      "Ġshows": 4060,
      "apan": 4061,
      "annel": 4062,
      "Ġscared": 4063,
      "selves": 4064,
      "ĠPLEASE": 4065,
      "bar": 4066,
      "avy": 4067,
      "Ġtakes": 4068,
      "asc": 4069,
      "ASH": 4070,
      "ĠRight": 4071,
      "board": 4072,
      "ĠBro": 4073,
      "Ġanti": 4074,
      "Ġworry": 4075,
      "ĠOH": 4076,
      "ĠðŁĺİ": 4077,
      "mk": 4078,
      "itting": 4079,
      "Ġpin": 4080,
      "VP": 4081,
      "ACT": 4082,
      "ðŁĺĶ": 4083,
      "Ġwake": 4084,
      "icket": 4085,
      "LP": 4086,
      "kin": 4087,
      "FM": 4088,
      "Super": 4089,
      "oos": 4090,
      "Av": 4091,
      "Stray": 4092,
      "ðŁĴŀ": 4093,
      "ging": 4094,
      "fx": 4095,
      "formation": 4096,
      "exico": 4097,
      "ĠMin": 4098,
      "ijay": 4099,
      "SG": 4100,
      "ential": 4101,
      "ĠFR": 4102,
      "Ġimagine": 4103,
      "aniel": 4104,
      "ĠðŁĳı": 4105,
      "Ju": 4106,
      "ĠSir": 4107,
      "md": 4108,
      "Ka": 4109,
      "Ġ25": 4110,
      "Ġversion": 4111,
      "shin": 4112,
      "Chris": 4113,
      "ben": 4114,
      "Bel": 4115,
      "qt": 4116,
      "uel": 4117,
      "Ġage": 4118,
      "ometimes": 4119,
      "Ġ2020": 4120,
      "vant": 4121,
      "ager": 4122,
      "ĠKNOW": 4123,
      "Ġinterested": 4124,
      "guy": 4125,
      "Ġattack": 4126,
      "live": 4127,
      "bur": 4128,
      "Ġsqu": 4129,
      "CY": 4130,
      "ĠHis": 4131,
      "ek": 4132,
      "Ġopin": 4133,
      "hw": 4134,
      "ictatorship": 4135,
      "Ġprog": 4136,
      "Ant": 4137,
      "END": 4138,
      "Ġstarting": 4139,
      "coming": 4140,
      "etic": 4141,
      "Ġinteract": 4142,
      "your": 4143,
      "Cong": 4144,
      "Ġappreciate": 4145,
      "Ġ^": 4146,
      "ðŁ¤Ĺ": 4147,
      "Kr": 4148,
      "VT": 4149,
      "Ġbur": 4150,
      "Ġhappening": 4151,
      "ĠBIRTHDAY": 4152,
      "Sports": 4153,
      "bell": 4154,
      "Ġoutside": 4155,
      "Ġcatch": 4156,
      "pper": 4157,
      "StanWorld": 4158,
      "ĠTOO": 4159,
      "Dev": 4160,
      "ahah": 4161,
      "KI": 4162,
      "FX": 4163,
      "NW": 4164,
      "Call": 4165,
      "Livestream": 4166,
      "NJ": 4167,
      "ĠâĢ¦": 4168,
      "Ġwrite": 4169,
      "CI": 4170,
      "Ġservice": 4171,
      "ĠSorry": 4172,
      "Bay": 4173,
      "ĠAR": 4174,
      "Ġblood": 4175,
      "Ġblue": 4176,
      "xs": 4177,
      "Ġmoots": 4178,
      "angel": 4179,
      "cut": 4180,
      "Ġparents": 4181,
      "Ġobs": 4182,
      "etflix": 4183,
      "BH": 4184,
      "RL": 4185,
      "shit": 4186,
      "ì§": 4187,
      "EM": 4188,
      "Ġpot": 4189,
      "Ġautomatically": 4190,
      "Ġdevelop": 4191,
      "ĠĠĊ": 4192,
      "ĠWait": 4193,
      "ĠSP": 4194,
      "cm": 4195,
      "Ġtrend": 4196,
      "UZ": 4197,
      "ograph": 4198,
      "Bo": 4199,
      "Ġrunning": 4200,
      "Ġwit": 4201,
      "allen": 4202,
      "Ġsim": 4203,
      "kim": 4204,
      "oman": 4205,
      "ĠTime": 4206,
      "Ġcol": 4207,
      "Ġpossible": 4208,
      "____": 4209,
      "ming": 4210,
      "FridayLivestream": 4211,
      "YOU": 4212,
      "Op": 4213,
      "ĠWHY": 4214,
      "iq": 4215,
      "Ġopportunity": 4216,
      "Ġworse": 4217,
      "oogle": 4218,
      "ius": 4219,
      "una": 4220,
      "ĠHELP": 4221,
      "Ġadded": 4222,
      "Ġstar": 4223,
      "OLL": 4224,
      "Ġconst": 4225,
      "unta": 4226,
      "isha": 4227,
      "xl": 4228,
      "Ra": 4229,
      "Ġhappens": 4230,
      "Ġ16": 4231,
      "Ġwear": 4232,
      "entral": 4233,
      "Ġclean": 4234,
      "NP": 4235,
      "uru": 4236,
      "BestFan": 4237,
      "weare": 4238,
      "bz": 4239,
      "ĠDr": 4240,
      "allow": 4241,
      "Ġtri": 4242,
      "022": 4243,
      "opped": 4244,
      "SO": 4245,
      "Ġmother": 4246,
      "Ġrandom": 4247,
      "bro": 4248,
      "Ġstre": 4249,
      "IMIN": 4250,
      "eon": 4251,
      "Ġking": 4252,
      "uto": 4253,
      "cd": 4254,
      "BestFanArmy": 4255,
      "cz": 4256,
      "Great": 4257,
      "iginal": 4258,
      "yyyy": 4259,
      "NF": 4260,
      "ARE": 4261,
      "oshmark": 4262,
      "inking": 4263,
      "spect": 4264,
      "life": 4265,
      "Ġfinish": 4266,
      "Ġemot": 4267,
      "Ġlives": 4268,
      "atic": 4269,
      "Ug": 4270,
      "Iy": 4271,
      "Yes": 4272,
      "ëħ": 4273,
      "Ġmeant": 4274,
      "ago": 4275,
      "illed": 4276,
      "ĠGe": 4277,
      "Ġcold": 4278,
      "arter": 4279,
      "ocus": 4280,
      "Ġloves": 4281,
      "DB": 4282,
      "amed": 4283,
      "ysm": 4284,
      "Ġbout": 4285,
      "CB": 4286,
      "RB": 4287,
      "Ġrelation": 4288,
      "inks": 4289,
      "RM": 4290,
      "inter": 4291,
      "Ġhuh": 4292,
      "ðŁı»âĢįâĻĢï¸ı": 4293,
      "Ze": 4294,
      "Ġtl": 4295,
      "iH": 4296,
      "qr": 4297,
      "Ġrid": 4298,
      "xp": 4299,
      "Ġhur": 4300,
      "scri": 4301,
      "Ġslow": 4302,
      "Ġwife": 4303,
      "cho": 4304,
      "ĠJohn": 4305,
      "Il": 4306,
      "den": 4307,
      "hm": 4308,
      "wl": 4309,
      "Mor": 4310,
      "wy": 4311,
      "EO": 4312,
      "ITY": 4313,
      "dog": 4314,
      "Ġhistory": 4315,
      "ĠRem": 4316,
      "ĠTW": 4317,
      "will": 4318,
      "ander": 4319,
      "Ġeas": 4320,
      "Ġbag": 4321,
      "ĠðŁı": 4322,
      "SF": 4323,
      "Kn": 4324,
      "inson": 4325,
      "Mal": 4326,
      "People": 4327,
      "ancy": 4328,
      "Ġtrain": 4329,
      "jack": 4330,
      "ðŁĸ¤": 4331,
      "Ġhello": 4332,
      "iest": 4333,
      "ĠBig": 4334,
      "SZ": 4335,
      "Ġvideos": 4336,
      "Ġmessage": 4337,
      "Ġform": 4338,
      "ðŁ¤Ķ": 4339,
      "Ġtruly": 4340,
      "Bro": 4341,
      "Ġfront": 4342,
      "xd": 4343,
      "cb": 4344,
      "onic": 4345,
      "Ġkilled": 4346,
      "Ġbroke": 4347,
      "ATEEZ": 4348,
      "pledis": 4349,
      "ilt": 4350,
      "olution": 4351,
      "Ġdisapp": 4352,
      "LikeThat": 4353,
      "ĠðŁĶ": 4354,
      "DK": 4355,
      "fk": 4356,
      "anks": 4357,
      "ATS": 4358,
      "inner": 4359,
      "Ġlang": 4360,
      "Ġmer": 4361,
      "Ġswear": 4362,
      "Baby": 4363,
      "Sy": 4364,
      "azz": 4365,
      "DON": 4366,
      "nal": 4367,
      "ĠMUCH": 4368,
      "hol": 4369,
      "sam": 4370,
      "Ron": 4371,
      "Ġmark": 4372,
      "Fuck": 4373,
      "ĠDamn": 4374,
      "igital": 4375,
      "iving": 4376,
      "ayl": 4377,
      "ived": 4378,
      "every": 4379,
      "Ġanim": 4380,
      "Ġpress": 4381,
      "mad": 4382,
      "ĠThen": 4383,
      "¹ï¸ı": 4384,
      "Vote": 4385,
      "íĬ¸ë": 4386,
      "Ġdisco": 4387,
      "David": 4388,
      "joon": 4389,
      "Ġwonderful": 4390,
      "black": 4391,
      "Paul": 4392,
      "Ġyours": 4393,
      "RD": 4394,
      "MZ": 4395,
      "Ġhuge": 4396,
      "mazon": 4397,
      "Ġattention": 4398,
      "Ġplayer": 4399,
      "happy": 4400,
      "Kev": 4401,
      "ĠðŁĴĻ": 4402,
      "ida": 4403,
      "Ġbreat": 4404,
      "Od": 4405,
      "Ġrequest": 4406,
      "ĠWish": 4407,
      "Ġplat": 4408,
      "ola": 4409,
      "HowYou": 4410,
      "ĠSw": 4411,
      "Ġserious": 4412,
      "Ġpoor": 4413,
      "arma": 4414,
      "Ny": 4415,
      "ĊĠ": 4416,
      "âĹ": 4417,
      "jt": 4418,
      "Ġsold": 4419,
      "HowYouLikeThat": 4420,
      "ucky": 4421,
      "Ġscreen": 4422,
      "Ir": 4423,
      "pi": 4424,
      "YC": 4425,
      "Es": 4426,
      "medi": 4427,
      "iced": 4428,
      "Ġnormal": 4429,
      "hew": 4430,
      "Kl": 4431,
      "¦Ī": 4432,
      "Ġple": 4433,
      "bn": 4434,
      "ege": 4435,
      "Ha": 4436,
      "Ġobv": 4437,
      "123": 4438,
      "à¤¾": 4439,
      "cum": 4440,
      "Ġwild": 4441,
      "Sch": 4442,
      "empt": 4443,
      "Ġug": 4444,
      "ĠðŁĵ": 4445,
      "ĠNever": 4446,
      "Ġmot": 4447,
      "bf": 4448,
      "qq": 4449,
      "iant": 4450,
      "ĠState": 4451,
      "ĠOk": 4452,
      "exas": 4453,
      "ðŁ¤¦": 4454,
      "Del": 4455,
      "Ġcity": 4456,
      "oj": 4457,
      "GL": 4458,
      "âģ": 4459,
      "Ġcompany": 4460,
      "Rock": 4461,
      "JW": 4462,
      "some": 4463,
      "OULD": 4464,
      "ĠâĿ": 4465,
      "UX": 4466,
      "emin": 4467,
      "rif": 4468,
      "Ġteach": 4469,
      "Ġperfor": 4470,
      "Ġmid": 4471,
      "Ġdisc": 4472,
      "ĠSTOP": 4473,
      "ado": 4474,
      "host": 4475,
      "mir": 4476,
      "GF": 4477,
      "kat": 4478,
      "ĠFirst": 4479,
      "ille": 4480,
      "ĠNews": 4481,
      "ĠGu": 4482,
      "Ġissues": 4483,
      "Cat": 4484,
      "BUT": 4485,
      "ring": 4486,
      "esc": 4487,
      "ĠOur": 4488,
      "CS": 4489,
      "Cy": 4490,
      "BY": 4491,
      "Ġrather": 4492,
      "EP": 4493,
      "orgeous": 4494,
      "ðŁ¥²": 4495,
      "Ġinside": 4496,
      "Ġpolice": 4497,
      "Come": 4498,
      "Ġgener": 4499,
      "oyal": 4500,
      "weareone": 4501,
      "ĠMC": 4502,
      "ðŁĴª": 4503,
      "âĿ¤âĿ¤": 4504,
      "uma": 4505,
      "oints": 4506,
      "((": 4507,
      "Ġmarch": 4508,
      "weareoneEXO": 4509,
      "Ġ21": 4510,
      "Ġfucked": 4511,
      "Ġet": 4512,
      "arian": 4513,
      "Ġpack": 4514,
      "jg": 4515,
      "ipe": 4516,
      "anth": 4517,
      "Ġbox": 4518,
      "Ġhang": 4519,
      "aki": 4520,
      "sr": 4521,
      "ĠðŁ¤į": 4522,
      "Ly": 4523,
      "Ġlooked": 4524,
      "inned": 4525,
      "obi": 4526,
      "ella": 4527,
      "Ġtaken": 4528,
      "aly": 4529,
      "QQ": 4530,
      "mit": 4531,
      "Ġbiggest": 4532,
      "Om": 4533,
      "GM": 4534,
      "ungkook": 4535,
      "anned": 4536,
      "Ġcertain": 4537,
      "ĠOK": 4538,
      "Ġther": 4539,
      "fm": 4540,
      "Ba": 4541,
      "JM": 4542,
      "Ġhaha": 4543,
      "rica": 4544,
      "ðŁĴ¥": 4545,
      "ĠAb": 4546,
      "OF": 4547,
      "Ġemb": 4548,
      "Ġbud": 4549,
      "Ġbar": 4550,
      "heart": 4551,
      "upt": 4552,
      "reedom": 4553,
      "ĠAmerica": 4554,
      "Prom": 4555,
      "HD": 4556,
      "ths": 4557,
      "ĠðŁĴĶ": 4558,
      "Ġcorrect": 4559,
      "JR": 4560,
      "Ġ....": 4561,
      "Whos": 4562,
      "Ġbased": 4563,
      "watch": 4564,
      "yi": 4565,
      "udes": 4566,
      "ĠOmg": 4567,
      "Ġrecomm": 4568,
      "à¸²": 4569,
      "Ġeye": 4570,
      "urder": 4571,
      "Ell": 4572,
      "eh": 4573,
      "VV": 4574,
      "Tim": 4575,
      "razy": 4576,
      "BA": 4577,
      "Ġmouth": 4578,
      "Ul": 4579,
      "ĠMc": 4580,
      "iKON": 4581,
      "!!!!!!!!": 4582,
      "iller": 4583,
      "ãħ¤": 4584,
      "Ġda": 4585,
      "OOOOOOOO": 4586,
      "Ġsister": 4587,
      "ective": 4588,
      "Ser": 4589,
      "hyun": 4590,
      "Ġstan": 4591,
      "Back": 4592,
      "Ko": 4593,
      "Thanks": 4594,
      "bon": 4595,
      "Ep": 4596,
      "Her": 4597,
      "ares": 4598,
      "Ġrain": 4599,
      "ĠFin": 4600,
      "Lunar": 4601,
      "isk": 4602,
      "Ġquite": 4603,
      "vc": 4604,
      "SD": 4605,
      "ĠCON": 4606,
      "2020": 4607,
      "ĠLMF": 4608,
      "dj": 4609,
      "Ġsil": 4610,
      "ĠInstagram": 4611,
      "obby": 4612,
      "lol": 4613,
      "Sec": 4614,
      "Ġpiece": 4615,
      "ĠNEW": 4616,
      "ĠGen": 4617,
      "hn": 4618,
      "Ġthoughts": 4619,
      "aves": 4620,
      "racy": 4621,
      "Ġpage": 4622,
      "Ġmist": 4623,
      "give": 4624,
      "ĠKeep": 4625,
      "lu": 4626,
      "ĠBL": 4627,
      "Ġcost": 4628,
      "enter": 4629,
      "ĠPM": 4630,
      "ĠNE": 4631,
      "JB": 4632,
      "Ġfinished": 4633,
      "ynamite": 4634,
      "bk": 4635,
      "Ġgiven": 4636,
      "Ġcovid": 4637,
      "Ġexpl": 4638,
      "Ġtim": 4639,
      "ìļ": 4640,
      "urity": 4641,
      "arend": 4642,
      "Mel": 4643,
      "Ġwind": 4644,
      "NK": 4645,
      "Ġpics": 4646,
      "ISH": 4647,
      "Ġkick": 4648,
      "Ġeating": 4649,
      "abe": 4650,
      "lil": 4651,
      "Ġpaid": 4652,
      "ula": 4653,
      "Ġdaily": 4654,
      "Ġmult": 4655,
      "Ġâĺºï¸ı": 4656,
      "ĠCome": 4657,
      "Ġlovely": 4658,
      "Ġcontinue": 4659,
      "JV": 4660,
      "JC": 4661,
      "aked": 4662,
      "iD": 4663,
      "Res": 4664,
      "city": 4665,
      "essed": 4666,
      "à¸Ļ": 4667,
      "udi": 4668,
      "Ġplayers": 4669,
      "Support": 4670,
      "Have": 4671,
      "Stop": 4672,
      "ĠSC": 4673,
      "nie": 4674,
      "IY": 4675,
      "Ġgrand": 4676,
      "lh": 4677,
      "xz": 4678,
      "Ġprof": 4679,
      "Fox": 4680,
      "Ġchoose": 4681,
      "Ġmo": 4682,
      "ðŁĺİ": 4683,
      "ĠWILL": 4684,
      "asha": 4685,
      "NV": 4686,
      "ĠEven": 4687,
      "Ġlucky": 4688,
      "OTUS": 4689,
      "Ho": 4690,
      "jy": 4691,
      "First": 4692,
      "vp": 4693,
      "Ġalong": 4694,
      "Ta": 4695,
      "ĠTake": 4696,
      "Out": 4697,
      "andemic": 4698,
      "Artist": 4699,
      "iu": 4700,
      "ordan": 4701,
      "Ġpri": 4702,
      "Ġreturn": 4703,
      "EY": 4704,
      "sell": 4705,
      "Cor": 4706,
      "ĠCRY": 4707,
      "kar": 4708,
      "ĠLOL": 4709,
      "Ġseem": 4710,
      "Donald": 4711,
      "Ġmask": 4712,
      "Social": 4713,
      "Ġpurp": 4714,
      "Hello": 4715,
      "Time": 4716,
      "ashing": 4717,
      "Ġgives": 4718,
      "irus": 4719,
      "MR": 4720,
      "Ġ17": 4721,
      "Che": 4722,
      "ĠChristmas": 4723,
      "Ġcontrol": 4724,
      "Jh": 4725,
      "HO": 4726,
      "Ġland": 4727,
      "Ġeveryday": 4728,
      "Ġlock": 4729,
      "action": 4730,
      "ĠGOT": 4731,
      "irty": 4732,
      "sha": 4733,
      "ĠðŁĺī": 4734,
      "SY": 4735,
      "Ġrules": 4736,
      "Ġinn": 4737,
      "Ġba": 4738,
      "Ġgoodnight": 4739,
      "KR": 4740,
      "Ġcamp": 4741,
      "AU": 4742,
      "ression": 4743,
      "ĠRT": 4744,
      "Ġappro": 4745,
      "ivity": 4746,
      "ML": 4747,
      "Ġdrunk": 4748,
      "Giveaway": 4749,
      "tu": 4750,
      "pse": 4751,
      "Ġbegin": 4752,
      "DP": 4753,
      "Ġlim": 4754,
      "Ġcult": 4755,
      "berry": 4756,
      "ient": 4757,
      "ragon": 4758,
      "Ġespecially": 4759,
      "ouble": 4760,
      "Ġsummer": 4761,
      "Os": 4762,
      "Ġrealize": 4763,
      "emon": 4764,
      "BP": 4765,
      "ĠðŁİī": 4766,
      "van": 4767,
      "Ġannoun": 4768,
      "Ġtax": 4769,
      "xh": 4770,
      "dn": 4771,
      "ĠAct": 4772,
      "JF": 4773,
      "IW": 4774,
      "Ty": 4775,
      "Ġfighting": 4776,
      "Ġjour": 4777,
      "ops": 4778,
      "Ġspread": 4779,
      "ĠCUTE": 4780,
      "ĠOut": 4781,
      "Daily": 4782,
      "MH": 4783,
      "uri": 4784,
      "nes": 4785,
      "ĠðŁĴĸ": 4786,
      "xc": 4787,
      "Whosfan": 4788,
      "WAY": 4789,
      "Ġcomfort": 4790,
      "Aj": 4791,
      "ĠBeautiful": 4792,
      ").": 4793,
      "xm": 4794,
      "incess": 4795,
      "Khan": 4796,
      "Ġlonger": 4797,
      "ĠFrom": 4798,
      "Ġfear": 4799,
      "Ġskin": 4800,
      "zen": 4801,
      "Leg": 4802,
      "Scott": 4803,
      "âĢįðŁĴ": 4804,
      "ĠMusic": 4805,
      "amily": 4806,
      "Ġgift": 4807,
      "íĬ¸ëł": 4808,
      "Ġstep": 4809,
      "ĠHer": 4810,
      "Ġmembers": 4811,
      "avi": 4812,
      "ults": 4813,
      "lam": 4814,
      "Ġ~": 4815,
      "lier": 4816,
      "Ġahead": 4817,
      "ruz": 4818,
      "Dh": 4819,
      "yles": 4820,
      "km": 4821,
      "Ġmood": 4822,
      "Ie": 4823,
      "Ġfund": 4824,
      "Cha": 4825,
      "arrass": 4826,
      "mmm": 4827,
      "ĠReg": 4828,
      "ĠTrue": 4829,
      "ighit": 4830,
      "bp": 4831,
      "alex": 4832,
      "ston": 4833,
      "reaming": 4834,
      "ĠHELL": 4835,
      "ĠFe": 4836,
      "arc": 4837,
      "dates": 4838,
      "Ġdidnt": 4839,
      "bw": 4840,
      "nft": 4841,
      "asty": 4842,
      "xX": 4843,
      "ober": 4844,
      "Mah": 4845,
      "ëħĦ": 4846,
      "itiz": 4847,
      "SV": 4848,
      "Ġcompletely": 4849,
      "Moon": 4850,
      "hood": 4851,
      "Ġterrorists": 4852,
      "aro": 4853,
      "asa": 4854,
      "nap": 4855,
      "ĠðŁĴĹ": 4856,
      "ìĹĶ": 4857,
      "Ġdance": 4858,
      "under": 4859,
      "aron": 4860,
      "Ġlatest": 4861,
      "room": 4862,
      "Ġniggas": 4863,
      "Ġsoft": 4864,
      "ĠWas": 4865,
      "YYYY": 4866,
      "Mad": 4867,
      "Ġroad": 4868,
      "LLE": 4869,
      "ĠMAN": 4870,
      "Ng": 4871,
      "uals": 4872,
      "dis": 4873,
      "ĠEVERY": 4874,
      "ĠðŁĻĮ": 4875,
      "Ga": 4876,
      "Ġmor": 4877,
      "ĠHIM": 4878,
      "DW": 4879,
      "Ġwearing": 4880,
      "KW": 4881,
      "Christ": 4882,
      "ĠFriday": 4883,
      "âķ": 4884,
      "vd": 4885,
      "enny": 4886,
      "cp": 4887,
      "ìł": 4888,
      "ugar": 4889,
      "rea": 4890,
      "âĻ¡": 4891,
      "imash": 4892,
      "crypt": 4893,
      "Iz": 4894,
      "Ġclaim": 4895,
      "Biden": 4896,
      "Ġimmedi": 4897,
      "Va": 4898,
      "Ġclub": 4899,
      "ISA": 4900,
      "OWN": 4901,
      "inda": 4902,
      "yun": 4903,
      "BSC": 4904,
      "Ġ40": 4905,
      "uo": 4906,
      "Ġdied": 4907,
      "Pat": 4908,
      "ĠAf": 4909,
      ":âĢ¦": 4910,
      "Ġlaunch": 4911,
      "Ps": 4912,
      "qn": 4913,
      "OUR": 4914,
      "des": 4915,
      "Ni": 4916,
      "cn": 4917,
      "ĠNCT": 4918,
      "ffee": 4919,
      "kg": 4920,
      "ðŁĺĮ": 4921,
      "Ġeng": 4922,
      "From": 4923,
      "vir": 4924,
      "irit": 4925,
      "war": 4926,
      "ruh": 4927,
      "ucation": 4928,
      "Ġmissing": 4929,
      "ĠðŁĻĤ": 4930,
      "ëĭ": 4931,
      "LC": 4932,
      "ĠAmerican": 4933,
      "NX": 4934,
      "Ġconn": 4935,
      "Kim": 4936,
      "Ġannoying": 4937,
      "ĠHOW": 4938,
      "ĠCont": 4939,
      "Ġcond": 4940,
      "Md": 4941,
      "ĠThese": 4942,
      "DA": 4943,
      "VR": 4944,
      "Ġequ": 4945,
      "Ġcolor": 4946,
      "val": 4947,
      "ĠDONT": 4948,
      "jl": 4949,
      "Ġsmart": 4950,
      "arget": 4951,
      "iti": 4952,
      "Ġseriously": 4953,
      "ĠðĿĹ": 4954,
      "anu": 4955,
      "Ġnah": 4956,
      "HW": 4957,
      "Ġcivil": 4958,
      "aughter": 4959,
      "GT": 4960,
      "Did": 4961,
      "ĠSu": 4962,
      "Blue": 4963,
      "ĠUs": 4964,
      "jam": 4965,
      "mom": 4966,
      "Oz": 4967,
      "Ow": 4968,
      "Ġate": 4969,
      "bsite": 4970,
      "ĠðŁ¤Ĺ": 4971,
      "Par": 4972,
      "hot": 4973,
      "psy": 4974,
      "UW": 4975,
      "ete": 4976,
      "anta": 4977,
      "uuu": 4978,
      "know": 4979,
      "ensive": 4980,
      "EET": 4981,
      "Ġjud": 4982,
      "dan": 4983,
      "ĠExactly": 4984,
      "ban": 4985,
      "ðŁ§¡": 4986,
      "UJ": 4987,
      "Ry": 4988,
      "Ġsal": 4989,
      "porn": 4990,
      "ĠWIN": 4991,
      "ĠUR": 4992,
      "Ml": 4993,
      "FI": 4994,
      "hal": 4995,
      "ummy": 4996,
      "rated": 4997,
      "Ġhimself": 4998,
      "ĠAw": 4999,
      "Tra": 5000,
      "lim": 5001,
      "ooooo": 5002,
      "ðŁĳĮ": 5003,
      "ĠOkay": 5004,
      "hoon": 5005,
      "HS": 5006,
      "Ġjok": 5007,
      "Rub": 5008,
      "Ġdreams": 5009,
      "Ġpictures": 5010,
      "aine": 5011,
      "aman": 5012,
      "DX": 5013,
      "mw": 5014,
      "Ġpiss": 5015,
      "kz": 5016,
      "Ġaction": 5017,
      "ĠNEED": 5018,
      "Bad": 5019,
      "umar": 5020,
      "ĠLIVE": 5021,
      "rock": 5022,
      "obile": 5023,
      "hd": 5024,
      "MK": 5025,
      "owers": 5026,
      "ASS": 5027,
      "AGE": 5028,
      "bor": 5029,
      "rel": 5030,
      "Ġchanged": 5031,
      "Ll": 5032,
      "ðŁįĢ": 5033,
      "Ġstick": 5034,
      "ĠBB": 5035,
      "here": 5036,
      "ĠSHE": 5037,
      "Ġups": 5038,
      "ford": 5039,
      "qw": 5040,
      "Ġloss": 5041,
      "ĠAB": 5042,
      "Ġmajor": 5043,
      "íķ´": 5044,
      "gw": 5045,
      "Eng": 5046,
      "iktok": 5047,
      "ĠStill": 5048,
      "Ġpinned": 5049,
      "EV": 5050,
      "actor": 5051,
      "ĠPLS": 5052,
      "ĠWHO": 5053,
      "olid": 5054,
      "Ġstreaming": 5055,
      "Ġgold": 5056,
      "Nd": 5057,
      "Ġfat": 5058,
      "à®": 5059,
      "Ġchoice": 5060,
      "hip": 5061,
      "ĠBy": 5062,
      "Sky": 5063,
      "Ġprofess": 5064,
      "iff": 5065,
      "ĠStop": 5066,
      "jb": 5067,
      "Ġlets": 5068,
      "Ġmut": 5069,
      "GW": 5070,
      "ploy": 5071,
      "Ġfur": 5072,
      "qz": 5073,
      "rn": 5074,
      "Ġtotally": 5075,
      "mel": 5076,
      "gust": 5077,
      "Ġgun": 5078,
      "Ġbutt": 5079,
      "ĠGirl": 5080,
      "aturday": 5081,
      "Ġstudents": 5082,
      "ui": 5083,
      "lyn": 5084,
      "pping": 5085,
      "istic": 5086,
      "Ġliked": 5087,
      "odcast": 5088,
      "Ġconcern": 5089,
      "ĠChina": 5090,
      "DI": 5091,
      "Way": 5092,
      "olden": 5093,
      "atio": 5094,
      "FY": 5095,
      "vg": 5096,
      "Cap": 5097,
      "JY": 5098,
      "KZ": 5099,
      "Ġfac": 5100,
      "music": 5101,
      "DV": 5102,
      "bighit": 5103,
      "par": 5104,
      "DZ": 5105,
      "antly": 5106,
      "Ġrelease": 5107,
      "matt": 5108,
      "KT": 5109,
      "965": 5110,
      "Ġdrive": 5111,
      "Ġsucks": 5112,
      "udio": 5113,
      "HR": 5114,
      "Ġopinion": 5115,
      "QX": 5116,
      "Jon": 5117,
      "immy": 5118,
      "ĶĪ": 5119,
      "KCAM": 5120,
      "ĠKing": 5121,
      "ðŁĳī": 5122,
      "Ġdictatorship": 5123,
      "ĠMost": 5124,
      "Ġig": 5125,
      "Ġextra": 5126,
      "Ġexcept": 5127,
      "ĠLa": 5128,
      "ql": 5129,
      "bed": 5130,
      "ĠCr": 5131,
      "ĠAfter": 5132,
      "young": 5133,
      "KCAMexico": 5134,
      "ĠCo": 5135,
      "ĠPol": 5136,
      "Ġactual": 5137,
      "Ã©": 5138,
      "JX": 5139,
      "Ġtaste": 5140,
      "Ġcred": 5141,
      "bear": 5142,
      "rog": 5143,
      "td": 5144,
      "rie": 5145,
      "Ġfit": 5146,
      "pu": 5147,
      "iction": 5148,
      "ðŁĹ": 5149,
      "narend": 5150,
      "tan": 5151,
      "GOT": 5152,
      "Ġcomplain": 5153,
      "ĠDel": 5154,
      "MIN": 5155,
      "Ġdev": 5156,
      "Ġho": 5157,
      "iL": 5158,
      "ĠSunday": 5159,
      "Ġhah": 5160,
      "íķĺìĿ´í": 5161,
      "eline": 5162,
      "INKS": 5163,
      "icken": 5164,
      "íķĺìĿ´íĶĪ": 5165,
      "qs": 5166,
      "Ġmiddle": 5167,
      "qX": 5168,
      "ìĹĶíķĺìĿ´íĶĪ": 5169,
      "rying": 5170,
      "Ġpersonal": 5171,
      "MW": 5172,
      "ramodi": 5173,
      "iod": 5174,
      "Ġshouldn": 5175,
      "fd": 5176,
      "Ġcustom": 5177,
      "Ġamount": 5178,
      "FU": 5179,
      "ĠSA": 5180,
      "QZ": 5181,
      "bie": 5182,
      "izing": 5183,
      "KV": 5184,
      "ðŁĴ¦": 5185,
      "JT": 5186,
      "narendramodi": 5187,
      "ºðŁĩ": 5188,
      "Ġwoke": 5189,
      "Cont": 5190,
      "ĠTom": 5191,
      "ĠLOOK": 5192,
      "Ġchat": 5193,
      "Ya": 5194,
      "BW": 5195,
      "),": 5196,
      "prom": 5197,
      "ĠCONG": 5198,
      "pn": 5199,
      "tn": 5200,
      "xw": 5201,
      "bad": 5202,
      "FP": 5203,
      "Ġpussy": 5204,
      "Ġround": 5205,
      "Ġugly": 5206,
      "ĠHigh": 5207,
      "endo": 5208,
      "cg": 5209,
      "Ġscene": 5210,
      "MX": 5211,
      "ĠWAIT": 5212,
      "Premi": 5213,
      "ðŁĴĵ": 5214,
      "ĠMr": 5215,
      "ĠðŁĺĨ": 5216,
      "ooth": 5217,
      "Ġcontact": 5218,
      "Ġbts": 5219,
      "cw": 5220,
      "ðŁļĢðŁļĢ": 5221,
      "Sr": 5222,
      "ĠBAB": 5223,
      "JZ": 5224,
      "DL": 5225,
      "aks": 5226,
      "david": 5227,
      "Rich": 5228,
      "vest": 5229,
      "Ġkey": 5230,
      "ĠEl": 5231,
      "ĠðŁ¤£ðŁ¤£": 5232,
      "KH": 5233,
      "ĠâĻ¥ï¸ı": 5234,
      "allenge": 5235,
      "aser": 5236,
      "QV": 5237,
      "Ġsituation": 5238,
      "xg": 5239,
      "sos": 5240,
      "Ġmovies": 5241,
      "Ġprotect": 5242,
      "ags": 5243,
      "Ġtown": 5244,
      "ìķ": 5245,
      "?\"": 5246,
      "Ġembarrass": 5247,
      "Also": 5248,
      "Ġtalent": 5249,
      "Ġretweet": 5250,
      "sey": 5251,
      "ĠWANT": 5252,
      "Ġrich": 5253,
      "ĠDm": 5254,
      "Ġfol": 5255,
      "Ram": 5256,
      "Ġearn": 5257,
      "Ġcross": 5258,
      "CW": 5259,
      "ibly": 5260,
      "ĠStay": 5261,
      "ĠLive": 5262,
      "EEP": 5263,
      "Lu": 5264,
      "xb": 5265,
      "pd": 5266,
      "Last": 5267,
      "ĠFree": 5268,
      "Ari": 5269,
      "Ġsum": 5270,
      "Michael": 5271,
      "Ġdoll": 5272,
      "NR": 5273,
      "Uh": 5274,
      "Queen": 5275,
      "andalay": 5276,
      "Ġcam": 5277,
      "ĠTV": 5278,
      "Jl": 5279,
      "áµ": 5280,
      "ovie": 5281,
      "Dream": 5282,
      "athy": 5283,
      "JS": 5284,
      "ĠNah": 5285,
      "JG": 5286,
      "fans": 5287,
      "Nl": 5288,
      "Raj": 5289,
      "ĠWatch": 5290,
      "oken": 5291,
      "look": 5292,
      "kv": 5293,
      "Ġchill": 5294,
      "xic": 5295,
      "ĠGive": 5296,
      "Ġartist": 5297,
      "Uw": 5298,
      "Ġinclud": 5299,
      "Ġgreen": 5300,
      "usband": 5301,
      "jz": 5302,
      "Vh": 5303,
      "aze": 5304,
      "?!?!": 5305,
      "bsolutely": 5306,
      "ĠAN": 5307,
      "ĠMISS": 5308,
      "abs": 5309,
      "ORD": 5310,
      "usiness": 5311,
      "Ġfool": 5312,
      "qZ": 5313,
      "ration": 5314,
      "ðŁĴĢðŁĴĢ": 5315,
      "ĠYouTube": 5316,
      "arge": 5317,
      "alls": 5318,
      "ĠRIGHT": 5319,
      "fil": 5320,
      "inance": 5321,
      "Summer": 5322,
      "fh": 5323,
      "ĠSc": 5324,
      "iiii": 5325,
      "Ye": 5326,
      "olo": 5327,
      "Ġturned": 5328,
      "vert": 5329,
      "Ġspoil": 5330,
      "Ġcode": 5331,
      "ĠRed": 5332,
      "Ġcir": 5333,
      "ĠBR": 5334,
      "Ġvibes": 5335,
      "Gov": 5336,
      "VENT": 5337,
      "ë°": 5338,
      "oshi": 5339,
      "Ġarg": 5340,
      "aved": 5341,
      "ĠDoes": 5342,
      "Ġracist": 5343,
      "Rose": 5344,
      "Uz": 5345,
      "¡ï¸ı": 5346,
      "Ġnomin": 5347,
      "Ġperforman": 5348,
      "Ġflo": 5349,
      "ssss": 5350,
      "ires": 5351,
      "Ġtryna": 5352,
      "Ġfour": 5353,
      "Ġpa": 5354,
      "Ġvict": 5355,
      "xi": 5356,
      "QW": 5357,
      "Ġbang": 5358,
      "ikes": 5359,
      "DG": 5360,
      "wal": 5361,
      "POTUS": 5362,
      "Sun": 5363,
      "Ġtysm": 5364,
      "ĠCANT": 5365,
      "gay": 5366,
      "Ġsmh": 5367,
      "ðŁĺĤðŁĺĤðŁĺĤ": 5368,
      "Ġfly": 5369,
      "ĠSch": 5370,
      "Ġanime": 5371,
      "Kw": 5372,
      "à¤°": 5373,
      "Ġhappiness": 5374,
      "Ġ22": 5375,
      "Ġloving": 5376,
      "NEW": 5377,
      "Ts": 5378,
      "asit": 5379,
      "sof": 5380,
      "mfao": 5381,
      "Ġtyp": 5382,
      "cont": 5383,
      "sec": 5384,
      "qY": 5385,
      "Ġparticip": 5386,
      "Ø§": 5387,
      "cious": 5388,
      "ðŁĮ¹": 5389,
      "More": 5390,
      "emper": 5391,
      "BZ": 5392,
      "Ġcurrently": 5393,
      "Dynamite": 5394,
      "Ġdoubt": 5395,
      "vz": 5396,
      "duc": 5397,
      "tg": 5398,
      "Vl": 5399,
      "anch": 5400,
      "iM": 5401,
      "ĠTop": 5402,
      "ĠWTF": 5403,
      "Bot": 5404,
      "ARS": 5405,
      "ances": 5406,
      "Ġye": 5407,
      "vh": 5408,
      "asm": 5409,
      "OUS": 5410,
      "TN": 5411,
      "put": 5412,
      "Ġcomments": 5413,
      "ĠTIME": 5414,
      "JO": 5415,
      "Ġboss": 5416,
      "alif": 5417,
      "ĠLA": 5418,
      "PG": 5419,
      "Lil": 5420,
      "jX": 5421,
      "ĠNight": 5422,
      "Ġoften": 5423,
      "sd": 5424,
      "bg": 5425,
      "Master": 5426,
      "inge": 5427,
      "jc": 5428,
      "ĠSouth": 5429,
      "......": 5430,
      "Ġsharing": 5431,
      "ges": 5432,
      "à¸£": 5433,
      "eps": 5434,
      "Ca": 5435,
      "Kat": 5436,
      "áĢ": 5437,
      "IQ": 5438,
      "FS": 5439,
      "ours": 5440,
      "ource": 5441,
      "ðŁĺĪ": 5442,
      "ĠLIT": 5443,
      "tom": 5444,
      "ulous": 5445,
      "ution": 5446,
      "DREAM": 5447,
      "itor": 5448,
      "Join": 5449,
      "ĠSEE": 5450,
      "Ġou": 5451,
      "ĠWest": 5452,
      "Ġcongrats": 5453,
      "qW": 5454,
      "wu": 5455,
      "Ġrelationship": 5456,
      "Ġprocess": 5457,
      "tz": 5458,
      "conom": 5459,
      "Never": 5460,
      "UQ": 5461,
      "acebook": 5462,
      "cing": 5463,
      "jf": 5464,
      "ĠLMAO": 5465,
      "Ġputting": 5466,
      "edy": 5467,
      "Ġinformation": 5468,
      "vk": 5469,
      "ĠRes": 5470,
      "iley": 5471,
      "Ġbtw": 5472,
      "ĠYear": 5473,
      "cos": 5474,
      "ZE": 5475,
      "yond": 5476,
      "Ġheld": 5477,
      "Ġloud": 5478,
      "ĠSec": 5479,
      "iba": 5480,
      "qd": 5481,
      "Um": 5482,
      "lov": 5483,
      "UF": 5484,
      "nz": 5485,
      "Ġsat": 5486,
      "Ġminute": 5487,
      "Ġthemselves": 5488,
      "fair": 5489,
      "best": 5490,
      "ĠðŁļĢ": 5491,
      "rising": 5492,
      "TL": 5493,
      "Rh": 5494,
      "Prat": 5495,
      "qV": 5496,
      "ETH": 5497,
      "urning": 5498,
      "ASAP": 5499,
      "TDY": 5500,
      "Ġinternet": 5501,
      "JL": 5502,
      "Ġtit": 5503,
      "Nick": 5504,
      "Ġach": 5505,
      "flu": 5506,
      "RH": 5507,
      "Ġhurts": 5508,
      "xe": 5509,
      "Ġbitches": 5510,
      "ĠAustral": 5511,
      "arently": 5512,
      "pol": 5513,
      "qQ": 5514,
      "ĠðŁĺı": 5515,
      "ðŁ¤ŀ": 5516,
      "irm": 5517,
      "Ġwriting": 5518,
      "Ġstore": 5519,
      "MAs": 5520,
      "pg": 5521,
      "Ġfinal": 5522,
      "Americ": 5523,
      "TG": 5524,
      "Doge": 5525,
      "Ġfocus": 5526,
      "Ġmental": 5527,
      "house": 5528,
      "law": 5529,
      "Ġbored": 5530,
      "KX": 5531,
      "See": 5532,
      "oops": 5533,
      "aling": 5534,
      "Des": 5535,
      "rive": 5536,
      "iana": 5537,
      "))": 5538,
      "ðŁĺ©ðŁĺ©": 5539,
      "acters": 5540,
      "Ġwinning": 5541,
      "jZ": 5542,
      "Ob": 5543,
      "Pay": 5544,
      "xZ": 5545,
      "adow": 5546,
      "count": 5547,
      "ĠONLY": 5548,
      "ospital": 5549,
      "hee": 5550,
      "mitt": 5551,
      "IES": 5552,
      "KPOP": 5553,
      "amil": 5554,
      "Ġarmy": 5555,
      "cellent": 5556,
      "Damn": 5557,
      "rict": 5558,
      "onestly": 5559,
      "icious": 5560,
      "KD": 5561,
      "Ġblocked": 5562,
      "vijay": 5563,
      "acks": 5564,
      "eren": 5565,
      "AQ": 5566,
      "ownload": 5567,
      "Ġka": 5568,
      "ðŁ¥µ": 5569,
      "Act": 5570,
      "xW": 5571,
      "Ġpract": 5572,
      "Jn": 5573,
      "ì§Ģ": 5574,
      "omas": 5575,
      "Ġfant": 5576,
      "ðŁĴķðŁĴķ": 5577,
      "Bam": 5578,
      "xG": 5579,
      "ðŁĴĸðŁĴĸ": 5580,
      "Ġlying": 5581,
      "Py": 5582,
      "viv": 5583,
      "OZ": 5584,
      "£ï¸ı": 5585,
      "Bang": 5586,
      "kc": 5587,
      "Ġanyway": 5588,
      "Ġbusy": 5589,
      "PW": 5590,
      "Ig": 5591,
      "ĠSHIT": 5592,
      "ĠPresident": 5593,
      "ĪìłĢ": 5594,
      "Cur": 5595,
      "IGH": 5596,
      "íĬ¸ëłĪìłĢ": 5597,
      "Ġspend": 5598,
      "Ġfeelings": 5599,
      "idity": 5600,
      "xv": 5601,
      "ðŁ¥´": 5602,
      "THIS": 5603,
      "ðŁ¤£ðŁ¤£ðŁ¤£ðŁ¤£": 5604,
      "ðŁ¤¤": 5605,
      "Mz": 5606,
      "Ġhar": 5607,
      "JQ": 5608,
      "ðŁı¿": 5609,
      "KL": 5610,
      "dc": 5611,
      "ugh": 5612,
      "OST": 5613,
      "mz": 5614,
      "qh": 5615,
      "ĠðŁĺŃðŁĺŃðŁĺŃðŁĺŃ": 5616,
      "ils": 5617,
      "Ġhat": 5618,
      "Ġdifference": 5619,
      "sta": 5620,
      "order": 5621,
      "elo": 5622,
      "ĠStrike": 5623,
      "mh": 5624,
      "ĠAmen": 5625,
      "pw": 5626,
      "EEN": 5627,
      "Ġdecided": 5628,
      "Ġpositive": 5629,
      "jv": 5630,
      "Ġbra": 5631,
      "amam": 5632,
      "Ġinsane": 5633,
      "curren": 5634,
      "ĠWould": 5635,
      "ĠInter": 5636,
      "mf": 5637,
      "inder": 5638,
      "Ġfeed": 5639,
      "Ġattract": 5640,
      "Hot": 5641,
      "ĠCor": 5642,
      "REQUEST": 5643,
      "BV": 5644,
      "ĠðŁ¦": 5645,
      "Ik": 5646,
      "mag": 5647,
      "Ġrecommend": 5648,
      "Ġtowards": 5649,
      "Ġlady": 5650,
      "Ġimm": 5651,
      "ĠReally": 5652,
      "akistan": 5653,
      "ruct": 5654,
      "Ali": 5655,
      "Ġtrip": 5656,
      "Ġburn": 5657,
      "ĠOUR": 5658,
      "ITE": 5659,
      "qc": 5660,
      "Hw": 5661,
      "Anniversary": 5662,
      "Ġapolog": 5663,
      "udden": 5664,
      "dw": 5665,
      "jen": 5666,
      "ACE": 5667,
      "ĠHERE": 5668,
      "ĠMiss": 5669,
      "Ġlosing": 5670,
      "Nz": 5671,
      "Mu": 5672,
      "Where": 5673,
      "ĠAlways": 5674,
      "athan": 5675,
      "Ġthinks": 5676,
      "YL": 5677,
      "hypen": 5678,
      "KKKK": 5679,
      "Ġweak": 5680,
      "Ġpandemic": 5681,
      "xV": 5682,
      "Ġprivate": 5683,
      "rael": 5684,
      "Ot": 5685,
      "mil": 5686,
      "sch": 5687,
      "BOYZ": 5688,
      "Jz": 5689,
      "Ġphotos": 5690,
      "qb": 5691,
      "gar": 5692,
      "These": 5693,
      "from": 5694,
      "ŃĲ": 5695,
      "okay": 5696,
      "NBC": 5697,
      "ĠWelcome": 5698,
      "iment": 5699,
      "iT": 5700,
      "MAN": 5701,
      "Ġincred": 5702,
      "iding": 5703,
      "ĠâĻ¡": 5704,
      "ppasit": 5705,
      "RW": 5706,
      "ĠMORE": 5707,
      "Ġfather": 5708,
      "ADY": 5709,
      "SSSS": 5710,
      "GX": 5711,
      "BX": 5712,
      "qy": 5713,
      "Jy": 5714,
      "ĠðŁĺĴ": 5715,
      "Ġgoal": 5716,
      "rison": 5717,
      "lady": 5718,
      "MAM": 5719,
      "jV": 5720,
      "ĠMake": 5721,
      "Ġlma": 5722,
      "ache": 5723,
      "jQ": 5724,
      "ĠJoe": 5725,
      "Ġspot": 5726,
      "ustin": 5727,
      "upers": 5728,
      "Dl": 5729,
      "FZ": 5730,
      "Ġshowing": 5731,
      "Ġ90": 5732,
      "ĠAss": 5733,
      "NQ": 5734,
      "ĠArt": 5735,
      "MIAW": 5736,
      "Squ": 5737,
      "AIR": 5738,
      "ĨĮ": 5739,
      "Iv": 5740,
      "NING": 5741,
      "Son": 5742,
      "eech": 5743,
      "iety": 5744,
      "ðŁı½âĢįâĻĢï¸ı": 5745,
      "ĠShopee": 5746,
      "erman": 5747,
      "omg": 5748,
      "Ġbruh": 5749,
      "ĠðŁĺĪ": 5750,
      "PV": 5751,
      "FV": 5752,
      "ĠWind": 5753,
      "rik": 5754,
      "Ġfem": 5755,
      "ĠBack": 5756,
      "łï¸ı": 5757,
      "ĠJesus": 5758,
      "Ġrespond": 5759,
      "Ġacross": 5760,
      "Ġvisit": 5761,
      "ocks": 5762,
      "jW": 5763,
      "ĠWar": 5764,
      "Jul": 5765,
      "chris": 5766,
      "Ġasleep": 5767,
      "xQ": 5768,
      "MTVMIAW": 5769,
      "Ġalive": 5770,
      "ises": 5771,
      "ĠRepublic": 5772,
      "GV": 5773,
      "ðŁĺĨ": 5774,
      "ĠðĿĺ": 5775,
      "dl": 5776,
      "REAT": 5777,
      "Ġimmediately": 5778,
      "iB": 5779,
      "ium": 5780,
      "Max": 5781,
      "xk": 5782,
      "War": 5783,
      "Got": 5784,
      "Ġdoor": 5785,
      "Ġhes": 5786,
      "Ġlegit": 5787,
      "Say": 5788,
      "Ġah": 5789,
      "Off": 5790,
      "iee": 5791,
      "Ġpoints": 5792,
      "ĠðŁĴª": 5793,
      "jae": 5794,
      "Ġfuckin": 5795,
      "LW": 5796,
      "Ġholding": 5797,
      "Ku": 5798,
      "ãĢĢ": 5799,
      "ĠðŁķ": 5800,
      "BTSARMY": 5801,
      "ĠLmao": 5802,
      "zu": 5803,
      "ï¸ıâ": 5804,
      "ography": 5805,
      "Ġyea": 5806,
      "SX": 5807,
      "Ġcomplete": 5808,
      "ĠDemoc": 5809,
      "xC": 5810,
      "Ġsurprised": 5811,
      "Lee": 5812,
      "ĠHER": 5813,
      "Eric": 5814,
      "Ġallowed": 5815,
      "Ġcharacters": 5816,
      "ĠTHEM": 5817,
      "sb": 5818,
      "Ġsugg": 5819,
      "Ġsleeping": 5820,
      "pril": 5821,
      "Ġabduct": 5822,
      "AAAAAAAA": 5823,
      "uthor": 5824,
      "ĠLife": 5825,
      "ãĥ³": 5826,
      "clus": 5827,
      "Ġden": 5828,
      "Ġdaddy": 5829,
      "Fn": 5830,
      "Pop": 5831,
      "Being": 5832,
      "Dt": 5833,
      "ference": 5834,
      "Ġruin": 5835,
      "rich": 5836,
      "Ġsimple": 5837,
      "resent": 5838,
      "Bigg": 5839,
      "ĠSte": 5840,
      "pad": 5841,
      "Gn": 5842,
      "Sil": 5843,
      "abor": 5844,
      "pc": 5845,
      "Ġ???": 5846,
      "Ġdra": 5847,
      "Ġchannel": 5848,
      "OLD": 5849,
      "Nt": 5850,
      "Bitcoin": 5851,
      "ĠGot": 5852,
      "fly": 5853,
      "jon": 5854,
      "sg": 5855,
      "Talk": 5856,
      "Ġstyle": 5857,
      "WHAT": 5858,
      "ì¶": 5859,
      "enty": 5860,
      "GC": 5861,
      "@__": 5862,
      "Ġpath": 5863,
      "onse": 5864,
      "elling": 5865,
      "EC": 5866,
      "GZ": 5867,
      "Ġtrade": 5868,
      "san": 5869,
      "asing": 5870,
      "Yeah": 5871,
      "Mom": 5872,
      "qg": 5873,
      "lear": 5874,
      "ìŀ": 5875,
      "Ġofficial": 5876,
      "Ġconfused": 5877,
      "wait": 5878,
      "Ġwa": 5879,
      "fortun": 5880,
      "ĠTown": 5881,
      "Global": 5882,
      "using": 5883,
      "por": 5884,
      "ences": 5885,
      "Ġcapt": 5886,
      "Ġposting": 5887,
      "Ġcrack": 5888,
      "Ġarrest": 5889,
      "hem": 5890,
      "FH": 5891,
      "Mac": 5892,
      "Ġknowing": 5893,
      "Ġsomebody": 5894,
      "Ġjoined": 5895,
      "ĠTWICE": 5896,
      "Post": 5897,
      "Trend": 5898,
      "Ki": 5899,
      "Mw": 5900,
      "ĠGON": 5901,
      "Ġknown": 5902,
      "Ġmix": 5903,
      "Ġcreate": 5904,
      "Ġcho": 5905,
      "jY": 5906,
      "thank": 5907,
      "NBA": 5908,
      "Meg": 5909,
      "ackity": 5910,
      "ĠÂ": 5911,
      "ĠBu": 5912,
      "Ġrespons": 5913,
      "ÙĪ": 5914,
      "qv": 5915,
      "XV": 5916,
      "yk": 5917,
      "After": 5918,
      "Og": 5919,
      "iro": 5920,
      "Pu": 5921,
      "Ud": 5922,
      "Ġqueen": 5923,
      "ĠCity": 5924,
      "Ġbuying": 5925,
      "xY": 5926,
      "à¸Ń": 5927,
      "Ġsusp": 5928,
      "Gi": 5929,
      "ande": 5930,
      "Ru": 5931,
      "Ġpc": 5932,
      "Ġgain": 5933,
      "PA": 5934,
      "ĠIF": 5935,
      "ĠToday": 5936,
      "ĠJack": 5937,
      "Ġ23": 5938,
      "PK": 5939,
      "Ġtravel": 5940,
      "fV": 5941,
      "Ġstarts": 5942,
      "Gw": 5943,
      "ĠJoin": 5944,
      "base": 5945,
      "iling": 5946,
      "hyung": 5947,
      "andon": 5948,
      "ķíķĺ": 5949,
      "unning": 5950,
      "Jw": 5951,
      "ĠAc": 5952,
      "GOP": 5953,
      "blue": 5954,
      "Ġtrash": 5955,
      "Ġconvers": 5956,
      "undred": 5957,
      "berg": 5958,
      "Mb": 5959,
      "iki": 5960,
      "qp": 5961,
      "thi": 5962,
      "uki": 5963,
      "rench": 5964,
      "Ġpan": 5965,
      "wan": 5966,
      "Ġ127": 5967,
      "Dm": 5968,
      "zl": 5969,
      "BTC": 5970,
      "umbers": 5971,
      "à¸ģ": 5972,
      "qk": 5973,
      "Nk": 5974,
      "soft": 5975,
      "Ġpush": 5976,
      "ðŁĴĭ": 5977,
      "Ùħ": 5978,
      "Ġactive": 5979,
      "ayn": 5980,
      "INT": 5981,
      "Josh": 5982,
      "Ġpen": 5983,
      "Pratik": 5984,
      "iple": 5985,
      "reme": 5986,
      "IDE": 5987,
      "Ġsecret": 5988,
      "qH": 5989,
      "Ġjump": 5990,
      "Ġgorgeous": 5991,
      "Ġthreat": 5992,
      "search": 5993,
      "OPE": 5994,
      "Ġbelow": 5995,
      "Spe": 5996,
      "Ġvaccinated": 5997,
      "si": 5998,
      "damn": 5999,
      "asket": 6000,
      "xH": 6001,
      "Uk": 6002,
      "ubb": 6003,
      "Ġemail": 6004,
      "cal": 6005,
      "cent": 6006,
      "Lou": 6007,
      "Take": 6008,
      "Nw": 6009,
      "ĠVideo": 6010,
      "ORT": 6011,
      "ĠSure": 6012,
      "Ret": 6013,
      "BBMAs": 6014,
      "Gy": 6015,
      "Ġgas": 6016,
      "âŀ": 6017,
      "Jen": 6018,
      "Ġblessed": 6019,
      "Sale": 6020,
      "ĠWhite": 6021,
      "Ġfavour": 6022,
      "Ġpaper": 6023,
      "Sim": 6024,
      "Ġworked": 6025,
      "ĠRob": 6026,
      "jaem": 6027,
      "change": 6028,
      "Ġoffice": 6029,
      "vw": 6030,
      "ancing": 6031,
      "Ġborn": 6032,
      "ĠCol": 6033,
      "Ġboyfriend": 6034,
      "Ġmoving": 6035,
      "edic": 6036,
      "chain": 6037,
      "Nr": 6038,
      "Ġways": 6039,
      "CV": 6040,
      "?????": 6041,
      "Ġusually": 6042,
      "igray": 6043,
      "ledge": 6044,
      "Ġhandle": 6045,
      "Ġconv": 6046,
      "ðŁĺĭ": 6047,
      "ĠIndian": 6048,
      "raid": 6049,
      "ĠGame": 6050,
      "ued": 6051,
      "ĠTw": 6052,
      "Ġpresent": 6053,
      "orable": 6054,
      "rees": 6055,
      "pk": 6056,
      "EEE": 6057,
      "OE": 6058,
      "GQ": 6059,
      "iance": 6060,
      "Iw": 6061,
      "Ġhopefully": 6062,
      "ĠLord": 6063,
      "Ġice": 6064,
      "Ġarticle": 6065,
      "anga": 6066,
      "field": 6067,
      "USA": 6068,
      "Ġaccounts": 6069,
      "Ġearlier": 6070,
      "arg": 6071,
      "DQ": 6072,
      "dimash": 6073,
      "ĠWAY": 6074,
      "!âĢ¦": 6075,
      "Mi": 6076,
      "fZ": 6077,
      "Ġloc": 6078,
      "OMG": 6079,
      "ashi": 6080,
      "Ġcommun": 6081,
      "Ġbabe": 6082,
      "Ġleader": 6083,
      "Ġfell": 6084,
      "Ġdetails": 6085,
      "FQ": 6086,
      "Another": 6087,
      "ressive": 6088,
      "Ft": 6089,
      "Js": 6090,
      "HAPPY": 6091,
      "ðŁ¥³ðŁ¥³": 6092,
      "ï½": 6093,
      "Ġfilm": 6094,
      "ĠâłĢ": 6095,
      "ĠAnt": 6096,
      "bow": 6097,
      "Ġevil": 6098,
      "CHAN": 6099,
      "Ġorgan": 6100,
      "Ġcases": 6101,
      "ĠNe": 6102,
      "XY": 6103,
      "Ġbott": 6104,
      "Ġsuffer": 6105,
      "ĠNeed": 6106,
      "Jk": 6107,
      "ATCH": 6108,
      "Ġcoffee": 6109,
      "ĠFROM": 6110,
      "Du": 6111,
      "Coll": 6112,
      "Tu": 6113,
      "ĠShow": 6114,
      "Ġtour": 6115,
      "vZ": 6116,
      "ROW": 6117,
      "ĠFREE": 6118,
      "mic": 6119,
      "Rah": 6120,
      "Ġdisappoint": 6121,
      "pat": 6122,
      "zs": 6123,
      "ðŁ¤¡": 6124,
      "azy": 6125,
      "Ġmember": 6126,
      "Ġfoot": 6127,
      "Ġfacts": 6128,
      "APP": 6129,
      "ĠRadio": 6130,
      "Premios": 6131,
      "Ġfigure": 6132,
      "Ġdiv": 6133,
      "ĠPlaying": 6134,
      "Ġwithin": 6135,
      "ĠðŁĻĥ": 6136,
      "ecial": 6137,
      "Ġdropped": 6138,
      "Fc": 6139,
      "KQ": 6140,
      "oki": 6141,
      "Ġhon": 6142,
      "Jp": 6143,
      "alax": 6144,
      "shot": 6145,
      "San": 6146,
      "bm": 6147,
      "Cu": 6148,
      "ķíķĺíķ´": 6149,
      "NM": 6150,
      "noon": 6151,
      "Ġdownload": 6152,
      "Dog": 6153,
      "ĠANY": 6154,
      "Hu": 6155,
      "Ġstopped": 6156,
      "Ġmurder": 6157,
      "ĠðŁĶ¥ðŁĶ¥ðŁĶ¥": 6158,
      "Uy": 6159,
      "atural": 6160,
      "qe": 6161,
      "Iam": 6162,
      "xxx": 6163,
      "ĠMag": 6164,
      "Ġtwice": 6165,
      "Ġapart": 6166,
      "Ġhealthy": 6167,
      "Ve": 6168,
      "Ġeverybody": 6169,
      "ĠðŁĳĮ": 6170,
      "Luc": 6171,
      "Nn": 6172,
      "RED": 6173,
      "Select": 6174,
      "Ġcollege": 6175,
      "xf": 6176,
      "EZ": 6177,
      "Ġearth": 6178,
      "GP": 6179,
      "CNN": 6180,
      "ĠLeg": 6181,
      "ĠðŁ¥ºðŁ¥º": 6182,
      "sol": 6183,
      "Ġacting": 6184,
      "Ġlaughing": 6185,
      "PremiosMTVMIAW": 6186,
      "ĠSAY": 6187,
      "ĠOR": 6188,
      "Ġbelie": 6189,
      "Ġcha": 6190,
      "Ġdress": 6191,
      "ĠSTREAM": 6192,
      "Ġdiscuss": 6193,
      "arant": 6194,
      "Rl": 6195,
      "ĠACT": 6196,
      "vX": 6197,
      "Ġdeserves": 6198,
      "ongi": 6199,
      "ðŁļ¨": 6200,
      "ºðŁĩ¸": 6201,
      "shine": 6202,
      "ryan": 6203,
      "Ns": 6204,
      "Ġquestions": 6205,
      "333": 6206,
      "Wa": 6207,
      "iec": 6208,
      "tm": 6209,
      "RX": 6210,
      "others": 6211,
      "ĠMilitary": 6212,
      "TTY": 6213,
      "Adam": 6214,
      "MOIndia": 6215,
      "Ġidiot": 6216,
      "Wow": 6217,
      "Ds": 6218,
      "Ġwebsite": 6219,
      "awg": 6220,
      "xL": 6221,
      "Ġbi": 6222,
      "Ġsearch": 6223,
      "Ġblame": 6224,
      "Ġoriginal": 6225,
      "Ġphys": 6226,
      "bee": 6227,
      "Ġpromise": 6228,
      "Ġabove": 6229,
      "Ġcoach": 6230,
      "vet": 6231,
      "Ġperformance": 6232,
      "Ann": 6233,
      "ðŁĴĶðŁĴĶ": 6234,
      "ema": 6235,
      "Report": 6236,
      "jan": 6237,
      "agement": 6238,
      "ĠFEE": 6239,
      "gm": 6240,
      "Ġfeature": 6241,
      "Bill": 6242,
      "420": 6243,
      "Ġcock": 6244,
      "Sir": 6245,
      "Ġrealized": 6246,
      "Ġfeet": 6247,
      "qm": 6248,
      "Always": 6249,
      "Dw": 6250,
      "bZ": 6251,
      "Poshmark": 6252,
      "Ġasf": 6253,
      "Jd": 6254,
      "Ġprep": 6255,
      "Ġmas": 6256,
      "ĠListen": 6257,
      "Char": 6258,
      "aded": 6259,
      "ĠEN": 6260,
      "ITZY": 6261,
      "stream": 6262,
      "obe": 6263,
      "bye": 6264,
      "Ġhung": 6265,
      "Kay": 6266,
      "ession": 6267,
      "HA": 6268,
      "Ġreve": 6269,
      "ĠCar": 6270,
      "ictor": 6271,
      "Si": 6272,
      "Ġ150": 6273,
      "OUD": 6274,
      "Ġhoping": 6275,
      "Ġ2022": 6276,
      "ota": 6277,
      "Ġdata": 6278,
      "Ġplatform": 6279,
      "fX": 6280,
      "Ġdemoc": 6281,
      "ĠCOMING": 6282,
      "CM": 6283,
      "xP": 6284,
      "ĠEV": 6285,
      "peach": 6286,
      "tra": 6287,
      "aign": 6288,
      "Ġâľħ": 6289,
      "hai": 6290,
      "Ih": 6291,
      "urb": 6292,
      "ĠHar": 6293,
      "ĠCount": 6294,
      "ĠFIN": 6295,
      "fast": 6296,
      "zr": 6297,
      "Io": 6298,
      "ĠSHOPEE": 6299,
      "HL": 6300,
      "ĠColl": 6301,
      "ĠðŁĴļ": 6302,
      "CZ": 6303,
      "chit": 6304,
      "Wish": 6305,
      "BELLE": 6306,
      "ruit": 6307,
      "artin": 6308,
      "ĠBoy": 6309,
      "Ġcalls": 6310,
      "emperature": 6311,
      "lement": 6312,
      "uuuu": 6313,
      "olute": 6314,
      "Ġkilling": 6315,
      "izza": 6316,
      "Ġquality": 6317,
      "coll": 6318,
      "Nu": 6319,
      "CX": 6320,
      "rops": 6321,
      "Ġdouble": 6322,
      "TZ": 6323,
      "Fil": 6324,
      "Ġinterview": 6325,
      "ker": 6326,
      "vV": 6327,
      "Ġunfollowed": 6328,
      "Fw": 6329,
      "Wait": 6330,
      "Morning": 6331,
      "ĠBOY": 6332,
      "Need": 6333,
      "Justin": 6334,
      "Bi": 6335,
      "ĠRet": 6336,
      "qL": 6337,
      "nl": 6338,
      "ners": 6339,
      "Ġic": 6340,
      "Pos": 6341,
      "Ġran": 6342,
      "Jg": 6343,
      "qi": 6344,
      "Ġkeeps": 6345,
      "india": 6346,
      "WX": 6347,
      "BK": 6348,
      "Ġterrible": 6349,
      "ì¶ķíķĺíķ´": 6350,
      "WY": 6351,
      "ument": 6352,
      "Ġcrush": 6353,
      "Dj": 6354,
      "avin": 6355,
      "Ġ60": 6356,
      "Ġoffer": 6357,
      "Ass": 6358,
      "!?": 6359,
      "ANS": 6360,
      "ĠJune": 6361,
      "opt": 6362,
      "etch": 6363,
      "101": 6364,
      "Ġera": 6365,
      "íĮ": 6366,
      "HP": 6367,
      "Ġgiveaway": 6368,
      "zZ": 6369,
      "ample": 6370,
      "Ġlangu": 6371,
      "ĠGONNA": 6372,
      "VENTEEN": 6373,
      "upersam": 6374,
      "ttt": 6375,
      "Jt": 6376,
      "Ġsimply": 6377,
      "nk": 6378,
      "qa": 6379,
      "sosupersam": 6380,
      "ë¦": 6381,
      "Ġvillage": 6382,
      "Ġdelete": 6383,
      "Ġsever": 6384,
      "alloween": 6385,
      "Fire": 6386,
      "Ġclick": 6387,
      "Voot": 6388,
      "Nh": 6389,
      "Ġdemon": 6390,
      "oses": 6391,
      "âĢ¦âĢ¦": 6392,
      "ulf": 6393,
      "FK": 6394,
      "anto": 6395,
      "ization": 6396,
      "Book": 6397,
      "Okay": 6398,
      "GET": 6399,
      "Ġbunch": 6400,
      "vQ": 6401,
      "Ji": 6402,
      "bX": 6403,
      "itical": 6404,
      "Ġedit": 6405,
      "rad": 6406,
      "arden": 6407,
      "ulation": 6408,
      "Ġant": 6409,
      "ĠOct": 6410,
      "Mic": 6411,
      "Ġcash": 6412,
      "Ġsending": 6413,
      "Ġhyp": 6414,
      "chat": 6415,
      "Ġleaders": 6416,
      "omething": 6417,
      "Ġbasically": 6418,
      "omf": 6419,
      "Airdrop": 6420,
      "WS": 6421,
      "Ġproblems": 6422,
      "Ġbooks": 6423,
      "emy": 6424,
      "max": 6425,
      "Ġadv": 6426,
      "Ġmemor": 6427,
      "007": 6428,
      "gc": 6429,
      "rove": 6430,
      "ESER": 6431,
      "eric": 6432,
      "ĠOFF": 6433,
      "Esp": 6434,
      "eling": 6435,
      "fQ": 6436,
      "ĠCap": 6437,
      "zw": 6438,
      "Dy": 6439,
      "Ce": 6440,
      "Ġbare": 6441,
      "âľĮ": 6442,
      "Nice": 6443,
      "hill": 6444,
      "has": 6445,
      "Ri": 6446,
      "ï¸İ": 6447,
      "Ġcloset": 6448,
      "OQ": 6449,
      "Ġban": 6450,
      "idge": 6451,
      "Ġq": 6452,
      "ols": 6453,
      "PX": 6454,
      "Ġgon": 6455,
      "Ġreview": 6456,
      "Harry": 6457,
      "Ip": 6458,
      "call": 6459,
      "ĠJuly": 6460,
      "ĠðŁĺĲ": 6461,
      "Still": 6462,
      "ĠAh": 6463,
      "Ġdisgust": 6464,
      "Ġbank": 6465,
      "ĠComp": 6466,
      "bang": 6467,
      "Ġneg": 6468,
      "orrow": 6469,
      "inese": 6470,
      "ðŁĺı": 6471,
      "Win": 6472,
      "cher": 6473,
      "Ġcaught": 6474,
      ",,,": 6475,
      "Hope": 6476,
      "Ġswitch": 6477,
      "Ġsoci": 6478,
      "Ic": 6479,
      "Ġ!!!!": 6480,
      "ĠSL": 6481,
      "Ġprov": 6482,
      "à¸¡": 6483,
      "Ġended": 6484,
      "Ġsco": 6485,
      "GU": 6486,
      "ðŁı¾âĢįâĻĤï¸ı": 6487,
      "Ġclearly": 6488,
      "armers": 6489,
      "db": 6490,
      "ĠSM": 6491,
      "BQ": 6492,
      "aba": 6493,
      "âĺºï¸ı": 6494,
      "ĠAbsolutely": 6495,
      "Ġarea": 6496,
      "ðŁİĤ": 6497,
      "ZA": 6498,
      "ript": 6499,
      "odes": 6500,
      "verage": 6501,
      "ahaha": 6502,
      "eds": 6503,
      "VootSelect": 6504,
      "Pal": 6505,
      "MQ": 6506,
      "shi": 6507,
      "ĠðŁĸ¤": 6508,
      "osa": 6509,
      "Ġpark": 6510,
      "log": 6511,
      "xT": 6512,
      "Ġhai": 6513,
      "Gs": 6514,
      "ottest": 6515,
      "Ġive": 6516,
      "ðŁĺ¡": 6517,
      "Ġdesp": 6518,
      "ĠðŁĺ¢": 6519,
      "shop": 6520,
      "Val": 6521,
      "Ġbill": 6522,
      "Rt": 6523,
      "Ġtechn": 6524,
      "Ib": 6525,
      "SQ": 6526,
      "Ġpresident": 6527,
      "Hl": 6528,
      "Ġlocal": 6529,
      "xa": 6530,
      "Ġsitting": 6531,
      "please": 6532,
      "Jess": 6533,
      "ĠHAHAH": 6534,
      "Men": 6535,
      "Andrew": 6536,
      "zt": 6537,
      "Fy": 6538,
      "ĠðŁĺĭ": 6539,
      "Ġhorny": 6540,
      "à¸´": 6541,
      "achine": 6542,
      "Ġess": 6543,
      "ĠðŁĺĢ": 6544,
      "comm": 6545,
      "Mer": 6546,
      "risingRadio": 6547,
      "OUND": 6548,
      "CHE": 6549,
      "Ġ80": 6550,
      "?âĢĿ": 6551,
      "care": 6552,
      "adu": 6553,
      "ë²": 6554,
      "LX": 6555,
      "BER": 6556,
      "Ġstage": 6557,
      "ĠWhich": 6558,
      "SU": 6559,
      "doge": 6560,
      "HX": 6561,
      "aging": 6562,
      "Ġspent": 6563,
      "\".": 6564,
      "ĠTra": 6565,
      "USE": 6566,
      "urd": 6567,
      "Ġrepe": 6568,
      "íĥ": 6569,
      "rk": 6570,
      "iva": 6571,
      "WT": 6572,
      "Ġbroken": 6573,
      "LZ": 6574,
      "Ġbutter": 6575,
      "ðŁ¤·": 6576,
      "ìĻ": 6577,
      "Ġending": 6578,
      "Ġhits": 6579,
      "omi": 6580,
      "RZ": 6581,
      "ĠStar": 6582,
      "andhi": 6583,
      "ĠWHEN": 6584,
      "ĠAng": 6585,
      "Ġdesc": 6586,
      "BUTTER": 6587,
      "obs": 6588,
      "uty": 6589,
      "Fh": 6590,
      "Ġplz": 6591,
      "Bw": 6592,
      "ĠMyanmar": 6593,
      "Ġbene": 6594,
      "Ġmaster": 6595,
      "Ġstress": 6596,
      "Ġanx": 6597,
      "Air": 6598,
      "arlie": 6599,
      "fY": 6600,
      "ector": 6601,
      "PZ": 6602,
      "Jm": 6603,
      "Dn": 6604,
      "ubs": 6605,
      "vY": 6606,
      "Ġhehe": 6607,
      "green": 6608,
      "Ġpolitical": 6609,
      "dess": 6610,
      "fficult": 6611,
      "Ġty": 6612,
      "Ġpleas": 6613,
      "500": 6614,
      "icky": 6615,
      "Ġstuck": 6616,
      "ĠâĢ¼ï¸ı": 6617,
      "Ġbrand": 6618,
      "ĠðŁ¥ºðŁ¥ºðŁ¥º": 6619,
      "Mp": 6620,
      "www": 6621,
      "Ġhost": 6622,
      "Ġtears": 6623,
      "Ġlies": 6624,
      "Ġwarm": 6625,
      "LT": 6626,
      "ĠðŁĳĩ": 6627,
      "Ġcent": 6628,
      "vW": 6629,
      "Ġweather": 6630,
      "yer": 6631,
      "Ġfully": 6632,
      "Ġpet": 6633,
      "wise": 6634,
      "Ġsched": 6635,
      "OLLOW": 6636,
      "apa": 6637,
      "Jim": 6638,
      "Ġreality": 6639,
      "ĠĠĠĠĠ": 6640,
      "Sand": 6641,
      "rak": 6642,
      "Help": 6643,
      "Ġtarget": 6644,
      "ugust": 6645,
      "Fu": 6646,
      "Ġlots": 6647,
      "fz": 6648,
      "Ġdemand": 6649,
      "ateful": 6650,
      "MTVLAKPOP": 6651,
      "erd": 6652,
      "Oo": 6653,
      "Mn": 6654,
      "Ġreleased": 6655,
      "RK": 6656,
      "GAIN": 6657,
      "Ġbye": 6658,
      "erty": 6659,
      "nik": 6660,
      "Ġresponse": 6661,
      "otion": 6662,
      "Ġpret": 6663,
      "Suppasit": 6664,
      "ĠCall": 6665,
      "MU": 6666,
      "olved": 6667,
      "Ġspeed": 6668,
      "Np": 6669,
      "à¤ķ": 6670,
      "Dz": 6671,
      "Jc": 6672,
      "Ġdaughter": 6673,
      "uses": 6674,
      "ðŁĺĺðŁĺĺ": 6675,
      "Most": 6676,
      "Ġbrought": 6677,
      "lan": 6678,
      "Share": 6679,
      "Fo": 6680,
      "gd": 6681,
      "uno": 6682,
      "Str": 6683,
      "łģ": 6684,
      "ators": 6685,
      "ĠðŁĳī": 6686,
      "Mt": 6687,
      "GS": 6688,
      "Ġest": 6689,
      "ółģ": 6690,
      "Ġdam": 6691,
      "Ġaccess": 6692,
      "Bs": 6693,
      "epend": 6694,
      "low": 6695,
      "Ġsale": 6696,
      "Ġkept": 6697,
      "Ġhy": 6698,
      "ĠFIGHT": 6699,
      "Tweet": 6700,
      "craft": 6701,
      "errorists": 6702,
      "Ġsudden": 6703,
      "omo": 6704,
      "Oy": 6705,
      "cock": 6706,
      "ðŁ¤§": 6707,
      "Fz": 6708,
      "CON": 6709,
      "Ġselling": 6710,
      "Ġmilk": 6711,
      "Ġsteal": 6712,
      "ĠMonday": 6713,
      "Ġfolks": 6714,
      "IRST": 6715,
      "inds": 6716,
      "ÙĬ": 6717,
      "Ġproper": 6718,
      "ĠOver": 6719,
      "rose": 6720,
      "ðŁĺ¢": 6721,
      "eno": 6722,
      "HV": 6723,
      "ĠUK": 6724,
      "CQ": 6725,
      "Ġconsider": 6726,
      "Nc": 6727,
      "abi": 6728,
      "HZ": 6729,
      "Fs": 6730,
      "ĠðĿĻ": 6731,
      "Ġdying": 6732,
      "agi": 6733,
      "Ġji": 6734,
      "Ġfault": 6735,
      "ability": 6736,
      "Crush": 6737,
      "Ġrate": 6738,
      "actorvijay": 6739,
      "ĠToo": 6740,
      "ĠTREASURE": 6741,
      "ðŁĻıðŁı»": 6742,
      "ĠHIS": 6743,
      "Ġchamp": 6744,
      "ðŁĴĹðŁĴĹ": 6745,
      "fW": 6746,
      "aylors": 6747,
      "Ġocc": 6748,
      "bQ": 6749,
      "umi": 6750,
      "still": 6751,
      "lymp": 6752,
      "EU": 6753,
      "ĠChe": 6754,
      "awa": 6755,
      "City": 6756,
      "Ġdestroy": 6757,
      "Ġvol": 6758,
      "kp": 6759,
      "ĠNothing": 6760,
      "EB": 6761,
      "ðŁĻĤ": 6762,
      "USIC": 6763,
      "thern": 6764,
      "Ġ120": 6765,
      "ĠRo": 6766,
      "IRL": 6767,
      "Ġprofile": 6768,
      "angon": 6769,
      "ðŁĳıðŁĳı": 6770,
      "Cs": 6771,
      "ĠHell": 6772,
      "ðŁİ¶": 6773,
      "ĠLooks": 6774,
      "qo": 6775,
      "igo": 6776,
      "fv": 6777,
      "xB": 6778,
      "HB": 6779,
      "ĠðŁ¤§": 6780,
      "Ġpremi": 6781,
      "his": 6782,
      "imal": 6783,
      "ĠCR": 6784,
      "ĠABOUT": 6785,
      "kid": 6786,
      "oor": 6787,
      "Ġcompet": 6788,
      "uesday": 6789,
      "Ls": 6790,
      "Ġetc": 6791,
      "game": 6792,
      "hand": 6793,
      "amin": 6794,
      "Ġju": 6795,
      "ofthe": 6796,
      "Ġshop": 6797,
      "Ġlearned": 6798,
      "Fm": 6799,
      "SHOPEE": 6800,
      "âĢĺ": 6801,
      "ĠNEVER": 6802,
      "fire": 6803,
      "Ġpred": 6804,
      "aled": 6805,
      "jim": 6806,
      "Fd": 6807,
      "Ġnominate": 6808,
      "Ġ:/": 6809,
      "Ġshirt": 6810,
      "ĠJapan": 6811,
      "ATEEZofficial": 6812,
      "uS": 6813,
      "Mh": 6814,
      "Congratulations": 6815,
      "Ġalright": 6816,
      "Ġelection": 6817,
      "Ġhusband": 6818,
      "bV": 6819,
      "Kg": 6820,
      "ITCH": 6821,
      "rin": 6822,
      "ĠðŁĺŀ": 6823,
      "Ġ^^": 6824,
      "Ġhasn": 6825,
      "Rw": 6826,
      "ephen": 6827,
      "Ġsmell": 6828,
      "Comm": 6829,
      "0000": 6830,
      "card": 6831,
      "igher": 6832,
      "June": 6833,
      "Ġbright": 6834,
      "Ġbase": 6835,
      "White": 6836,
      "Ġrights": 6837,
      "Ġimma": 6838,
      "Ġbeg": 6839,
      "illah": 6840,
      "Ġshame": 6841,
      "Louis": 6842,
      "Ġlikely": 6843,
      "Ryan": 6844,
      "Ġreceived": 6845,
      "pay": 6846,
      "gem": 6847,
      "Ia": 6848,
      "Ġscary": 6849,
      "aced": 6850,
      "rav": 6851,
      "army": 6852,
      "Ġcompl": 6853,
      "ITS": 6854,
      "Kd": 6855,
      "Gd": 6856,
      "Ġafraid": 6857,
      "ĠEnglish": 6858,
      "Ġforce": 6859,
      "sub": 6860,
      "RQ": 6861,
      "Ġcreated": 6862,
      "ĠBaby": 6863,
      "ĠWay": 6864,
      "ser": 6865,
      "Wl": 6866,
      "Stream": 6867,
      "playing": 6868,
      "aru": 6869,
      "Steve": 6870,
      "Ġresearch": 6871,
      "ĠReal": 6872,
      "Rn": 6873,
      "scribe": 6874,
      "bY": 6875,
      "itic": 6876,
      "PQ": 6877,
      "Ġleaving": 6878,
      "Power": 6879,
      "zd": 6880,
      "Ġcream": 6881,
      "Ġviews": 6882,
      "itions": 6883,
      "Ġcal": 6884,
      "Ks": 6885,
      "Ġride": 6886,
      "ĠFUN": 6887,
      ".@": 6888,
      "Ġport": 6889,
      "qT": 6890,
      "inst": 6891,
      "MN": 6892,
      "ðŁĺ«": 6893,
      "dev": 6894,
      "also": 6895,
      "Save": 6896,
      "Kiss": 6897,
      "binance": 6898,
      "ification": 6899,
      "emi": 6900,
      "ĠMa": 6901,
      "agl": 6902,
      "Break": 6903,
      "âĦ": 6904,
      "Ġlisting": 6905,
      "Uc": 6906,
      "otic": 6907,
      "999": 6908,
      "WV": 6909,
      "BJP": 6910,
      "OOL": 6911,
      "ping": 6912,
      "Ġrev": 6913,
      "Ġâļ": 6914,
      "Lib": 6915,
      "MAR": 6916,
      "nick": 6917,
      "Ġinfo": 6918,
      "bill": 6919,
      "thed": 6920,
      "oma": 6921,
      "Ġrecently": 6922,
      "yeah": 6923,
      "ĠðŁ¥µ": 6924,
      "Gg": 6925,
      "xS": 6926,
      "ritten": 6927,
      "xj": 6928,
      "CD": 6929,
      "Ġtha": 6930,
      "char": 6931,
      "KING": 6932,
      "ĠPost": 6933,
      "rh": 6934,
      "Ġship": 6935,
      "Ġprefer": 6936,
      "Lady": 6937,
      "Au": 6938,
      "oli": 6939,
      "ĠMor": 6940,
      "Ġpink": 6941,
      "ĠPaul": 6942,
      "Zh": 6943,
      "Ġmir": 6944,
      "alaxy": 6945,
      "Rac": 6946,
      "bitch": 6947,
      "Ġtoxic": 6948,
      "ðŁĳĪ": 6949,
      "Ġtatt": 6950,
      "Ġperiod": 6951,
      "zX": 6952,
      "Ġfootball": 6953,
      "iano": 6954,
      "ĠAmazon": 6955,
      "ĠAGAIN": 6956,
      "ĠCould": 6957,
      "cember": 6958,
      "asses": 6959,
      "ðŁĴ°": 6960,
      "cies": 6961,
      "xu": 6962,
      "atin": 6963,
      "ums": 6964,
      "ogy": 6965,
      "!\"": 6966,
      "Ġtwt": 6967,
      "Ġintro": 6968,
      "link": 6969,
      "Ġmeme": 6970,
      "Dance": 6971,
      "Listen": 6972,
      "ednes": 6973,
      "Ġcommon": 6974,
      "Cal": 6975,
      "Ġque": 6976,
      "ĠHouse": 6977,
      "AKING": 6978,
      "udy": 6979,
      "hon": 6980,
      "emme": 6981,
      "Fg": 6982,
      "Ġtea": 6983,
      "Ġwins": 6984,
      "othes": 6985,
      "uka": 6986,
      "JIN": 6987,
      "Ue": 6988,
      "ribut": 6989,
      "Nm": 6990,
      "Home": 6991,
      "Ġboring": 6992,
      "Ġsis": 6993,
      "Hum": 6994,
      "ariShopee": 6995,
      "bat": 6996,
      "RAT": 6997,
      "Ġjoy": 6998,
      "Bt": 6999,
      "ĠShould": 7000,
      "ðĿĲŀ": 7001,
      "ground": 7002,
      "Law": 7003,
      "Mm": 7004,
      "Ġcares": 7005,
      "orter": 7006,
      "osi": 7007,
      "ðŁĴĺ": 7008,
      "nh": 7009,
      "Conn": 7010,
      "ðŁĸ": 7011,
      "JI": 7012,
      "ingle": 7013,
      "ongs": 7014,
      "Dd": 7015,
      "eni": 7016,
      "exy": 7017,
      "zone": 7018,
      "Belle": 7019,
      "Mk": 7020,
      "ivia": 7021,
      "Ġinde": 7022,
      "while": 7023,
      "ðŁĺī": 7024,
      "avis": 7025,
      "777": 7026,
      "ĠPER": 7027,
      "Ġsup": 7028,
      "Ġsimilar": 7029,
      "morning": 7030,
      "Jeff": 7031,
      "cap": 7032,
      "Ġdifficult": 7033,
      "Ġeffect": 7034,
      "Jv": 7035,
      "Ġshall": 7036,
      "Jb": 7037,
      "Keep": 7038,
      "zk": 7039,
      "ShopeePH": 7040,
      "bri": 7041,
      "amamoo": 7042,
      "Vk": 7043,
      "ĠAir": 7044,
      "ees": 7045,
      "Ġnotice": 7046,
      "Tl": 7047,
      "Cw": 7048,
      "Vt": 7049,
      "ĠBET": 7050,
      "ĠLETS": 7051,
      "Fp": 7052,
      "Ġaud": 7053,
      "odgers": 7054,
      "Ġblow": 7055,
      "ĠMal": 7056,
      "ashed": 7057,
      "ĠâĢ¢": 7058,
      "Ġband": 7059,
      "à¥Ģ": 7060,
      "George": 7061,
      "Dear": 7062,
      "ĠProject": 7063,
      "apter": 7064,
      "Ġtotal": 7065,
      "ennie": 7066,
      "£¼": 7067,
      "Ġlately": 7068,
      "fish": 7069,
      "iler": 7070,
      "Stay": 7071,
      "fall": 7072,
      "Ġsuggest": 7073,
      "Ġvoted": 7074,
      "bra": 7075,
      "Ġthous": 7076,
      "ĠMarch": 7077,
      "Ġfavourite": 7078,
      "Ġfish": 7079,
      "Ek": 7080,
      "Ġcarry": 7081,
      "asi": 7082,
      "ĠThose": 7083,
      "anted": 7084,
      "Hp": 7085,
      "®ðŁĩ": 7086,
      "Ġtick": 7087,
      "KB": 7088,
      "yc": 7089,
      "PO": 7090,
      "ALE": 7091,
      "YZ": 7092,
      "Ġground": 7093,
      "Very": 7094,
      "AAA": 7095,
      "ĠCur": 7096,
      "did": 7097,
      "WZ": 7098,
      "erg": 7099,
      "Mg": 7100,
      "zm": 7101,
      "Rs": 7102,
      "FA": 7103,
      "Ġinterest": 7104,
      "lover": 7105,
      "Gm": 7106,
      "ĠOff": 7107,
      "ĠLET": 7108,
      "Ġgreatest": 7109,
      "Fk": 7110,
      "Space": 7111,
      "Alt": 7112,
      "Ġmate": 7113,
      "Vs": 7114,
      "ì£¼": 7115,
      "ĠðŁĺ¤": 7116,
      "Ġtiktok": 7117,
      "Nj": 7118,
      "Ġnone": 7119,
      "idk": 7120,
      "Ġaddress": 7121,
      "ĠUnited": 7122,
      "ĠðŁ¤¨": 7123,
      "raham": 7124,
      "linson": 7125,
      "ĠNope": 7126,
      "LQ": 7127,
      "Ġtae": 7128,
      "Ġvibe": 7129,
      "Wo": 7130,
      "itude": 7131,
      "Ew": 7132,
      "Hr": 7133,
      "à¸§": 7134,
      "Nation": 7135,
      "qf": 7136,
      "rell": 7137,
      "lock": 7138,
      "Kar": 7139,
      "ĠSan": 7140,
      "aliforn": 7141,
      "Ġbow": 7142,
      "Ġinj": 7143,
      "Gt": 7144,
      "Dark": 7145,
      "ĠBook": 7146,
      "Ġcast": 7147,
      "sen": 7148,
      "innie": 7149,
      "Ub": 7150,
      "Night": 7151,
      "Ġje": 7152,
      "Binance": 7153,
      "Ġgif": 7154,
      "avorite": 7155,
      "ulu": 7156,
      "FOR": 7157,
      "ĠðŁ¤ŀ": 7158,
      "PMOIndia": 7159,
      "Ġconcert": 7160,
      "urner": 7161,
      "Ġdelet": 7162,
      "COVID": 7163,
      "ĠðŁĺĤðŁĺĤðŁĺĤðŁĺĤ": 7164,
      "Ġsecurity": 7165,
      "Kp": 7166,
      "ushing": 7167,
      "oking": 7168,
      "onely": 7169,
      "Rr": 7170,
      "dt": 7171,
      "ĠTeam": 7172,
      "Ġbuilding": 7173,
      "ĠHum": 7174,
      "ĠPar": 7175,
      "ĠIdk": 7176,
      "Dp": 7177,
      "à¹Ī": 7178,
      "Pw": 7179,
      "Ġpat": 7180,
      "Angel": 7181,
      "ULL": 7182,
      "Market": 7183,
      "jas": 7184,
      "ĠTexas": 7185,
      "Ġyout": 7186,
      "Kt": 7187,
      "ivid": 7188,
      "paul": 7189,
      "respect": 7190,
      "Ġneigh": 7191,
      "Ast": 7192,
      "have": 7193,
      "Voting": 7194,
      "Kk": 7195,
      "Lol": 7196,
      "Ġnumbers": 7197,
      "Ġmarried": 7198,
      "Ġnation": 7199,
      "ĠPH": 7200,
      "Ġunless": 7201,
      "Dg": 7202,
      "âĢĭ": 7203,
      "ursday": 7204,
      "Over": 7205,
      "Ec": 7206,
      "ðŁĺ¹": 7207,
      "ifesting": 7208,
      "VI": 7209,
      "Vo": 7210,
      "Ġta": 7211,
      "mmmm": 7212,
      "ĠCOME": 7213,
      "Ġcake": 7214,
      "sea": 7215,
      "Ġdecision": 7216,
      "EQ": 7217,
      "Ġproof": 7218,
      "Young": 7219,
      "uinely": 7220,
      "Ġlayout": 7221,
      "ĠPLAY": 7222,
      "Ġdanger": 7223,
      "GN": 7224,
      "Gp": 7225,
      "raud": 7226,
      "Ġprogram": 7227,
      "ocent": 7228,
      "Ae": 7229,
      "Ss": 7230,
      "nm": 7231,
      "void": 7232,
      "Ġfaith": 7233,
      "ĠPE": 7234,
      "ĠPRETTY": 7235,
      "ĠðŁĺ¬": 7236,
      "Gz": 7237,
      "íĽĪ": 7238,
      "Ġko": 7239,
      "Dar": 7240,
      "Ġbeauty": 7241,
      "pos": 7242,
      "INA": 7243,
      "nc": 7244,
      "qj": 7245,
      "ĠHome": 7246,
      "Ey": 7247,
      "Sub": 7248,
      "Ġsolo": 7249,
      "ayo": 7250,
      "Ġleague": 7251,
      "Wy": 7252,
      "vu": 7253,
      "rac": 7254,
      "Ġsuccessful": 7255,
      "ĠTODAY": 7256,
      "YX": 7257,
      "ingers": 7258,
      "Hg": 7259,
      "Ġsky": 7260,
      "otest": 7261,
      "ubble": 7262,
      "Ġincluding": 7263,
      "bian": 7264,
      "ups": 7265,
      "wide": 7266,
      "ĠDear": 7267,
      "Lt": 7268,
      "ords": 7269,
      "ĠðŁĹ": 7270,
      "iring": 7271,
      "Lw": 7272,
      "stop": 7273,
      "ĠREAL": 7274,
      "Eh": 7275,
      "Rd": 7276,
      "Ġrap": 7277,
      "Ġfo": 7278,
      "UUUU": 7279,
      "Ġrelig": 7280,
      "ondon": 7281,
      "ĠBuy": 7282,
      "VX": 7283,
      "ĠLITER": 7284,
      "free": 7285,
      "Ġfive": 7286,
      "Ġbesties": 7287,
      "Ġfandom": 7288,
      "ĠBY": 7289,
      "à¸±": 7290,
      "lou": 7291,
      "ĠYEAH": 7292,
      "vj": 7293,
      "Kz": 7294,
      "ĠEveryone": 7295,
      "park": 7296,
      "Ġregard": 7297,
      "ava": 7298,
      "Ġima": 7299,
      "ĠLi": 7300,
      "Ġbeginning": 7301,
      "nct": 7302,
      "Dc": 7303,
      "Ġresid": 7304,
      "Ġexperien": 7305,
      "Ġbb": 7306,
      "Ġobsessed": 7307,
      "Taylor": 7308,
      "imm": 7309,
      "Oc": 7310,
      "TP": 7311,
      "Ġ27": 7312,
      "zer": 7313,
      "Jj": 7314,
      "qC": 7315,
      "rease": 7316,
      "qP": 7317,
      "Fore": 7318,
      "LunarCrush": 7319,
      "ĥ£": 7320,
      "fortunately": 7321,
      "WOR": 7322,
      "ikTok": 7323,
      "Ġbigger": 7324,
      "bles": 7325,
      "Ġmarched": 7326,
      "andi": 7327,
      "Ġtweeting": 7328,
      "Ġdrama": 7329,
      "âĺħ": 7330,
      "alifornia": 7331,
      "Ġjack": 7332,
      "Ġbottom": 7333,
      "Ġamong": 7334,
      "Ġsnow": 7335,
      "à¹Ģ": 7336,
      "Qw": 7337,
      "ĠSAME": 7338,
      "Ġnoticed": 7339,
      "Ray": 7340,
      "ĠSam": 7341,
      "edding": 7342,
      "alker": 7343,
      "ibility": 7344,
      "bj": 7345,
      "Ġholy": 7346,
      "JU": 7347,
      "aku": 7348,
      "Ġrace": 7349,
      "ĠSOME": 7350,
      "Ġstories": 7351,
      "queen": 7352,
      "BiggBoss": 7353,
      "Ou": 7354,
      "Ġinspir": 7355,
      "Ġlanguage": 7356,
      "rp": 7357,
      "Station": 7358,
      "ĠAmazing": 7359,
      "df": 7360,
      "seok": 7361,
      "nu": 7362,
      "ĠSaturday": 7363,
      "Showtime": 7364,
      "ednesday": 7365,
      "ĠðŁ¤Ŀ": 7366,
      "kkkk": 7367,
      "nw": 7368,
      "hope": 7369,
      "Ġthird": 7370,
      "Gk": 7371,
      "ĠEm": 7372,
      "Ġstreets": 7373,
      "Ġaware": 7374,
      "aph": 7375,
      "Et": 7376,
      "Ġmatt": 7377,
      "haps": 7378,
      "Ġbday": 7379,
      "Wolf": 7380,
      "ZX": 7381,
      "ĠUN": 7382,
      "Gc": 7383,
      "kins": 7384,
      "ĠDes": 7385,
      "Ez": 7386,
      "Ġtough": 7387,
      "Ġwhats": 7388,
      "qB": 7389,
      "gal": 7390,
      "bae": 7391,
      "ðŁĺ¤": 7392,
      "Fans": 7393,
      "stal": 7394,
      "VY": 7395,
      "lew": 7396,
      "Ġseconds": 7397,
      "SN": 7398,
      "Ġlearning": 7399,
      "Ġsaf": 7400,
      "arp": 7401,
      "ĠFriend": 7402,
      "stan": 7403,
      "Int": 7404,
      "ĠðŁĺ«": 7405,
      "cus": 7406,
      "Ti": 7407,
      "earn": 7408,
      "Ġbullshit": 7409,
      "del": 7410,
      "was": 7411,
      "ĠYess": 7412,
      "Ġoppos": 7413,
      "Ġ26": 7414,
      "cean": 7415,
      "cob": 7416,
      "Ġsort": 7417,
      "iri": 7418,
      "â¬": 7419,
      "remely": 7420,
      "usi": 7421,
      "LH": 7422,
      "Dk": 7423,
      "Ġbio": 7424,
      "Ġchallenge": 7425,
      "Ġabducted": 7426,
      "ĠGR": 7427,
      "Ġwallet": 7428,
      "ogan": 7429,
      "vered": 7430,
      "Ġ28": 7431,
      "Ġhospital": 7432,
      "Kc": 7433,
      "Ġpotential": 7434,
      "Ġcomeback": 7435,
      "ĠBABY": 7436,
      "ando": 7437,
      "yh": 7438,
      "Ct": 7439,
      "ðŁĺĢ": 7440,
      "Ġrole": 7441,
      "ĠTsp": 7442,
      "Ġyess": 7443,
      "Press": 7444,
      "Ġwanting": 7445,
      "dg": 7446,
      "Ġterm": 7447,
      "à¥į": 7448,
      "ĠYo": 7449,
      "apy": 7450,
      "Ġstars": 7451,
      "Km": 7452,
      "ĠMarket": 7453,
      "WAYS": 7454,
      "AIN": 7455,
      "hold": 7456,
      "Token": 7457,
      "Mem": 7458,
      "Ġpsy": 7459,
      "ĠILY": 7460,
      "udents": 7461,
      "ĠKind": 7462,
      "fj": 7463,
      "ova": 7464,
      "anny": 7465,
      "anet": 7466,
      "Even": 7467,
      "Rahul": 7468,
      "ðŁĺĴ": 7469,
      "ĠĊĊ": 7470,
      "Ġassist": 7471,
      "Ġcand": 7472,
      "ðŁİīðŁİī": 7473,
      "rob": 7474,
      "Tech": 7475,
      "Ql": 7476,
      "antic": 7477,
      "Aa": 7478,
      "Ġclown": 7479,
      "MJ": 7480,
      "ĠðŁ¤¡": 7481,
      "ĠPay": 7482,
      "ĠLMFA": 7483,
      "rake": 7484,
      "ANCE": 7485,
      "Ġemploy": 7486,
      "Ġviolence": 7487,
      "OLUT": 7488,
      "Greg": 7489,
      "ĠSU": 7490,
      "Ġfresh": 7491,
      "ustry": 7492,
      "Sometimes": 7493,
      "jul": 7494,
      "ĠRock": 7495,
      "ining": 7496,
      "Ġrecogn": 7497,
      "Daniel": 7498,
      "Ġob": 7499,
      "Ġexam": 7500,
      "IRE": 7501,
      "Ġwrote": 7502,
      "Ġeasily": 7503,
      "Bur": 7504,
      "Ġaccident": 7505,
      "airs": 7506,
      "Ġstudy": 7507,
      "ìļ°": 7508,
      "ĠRev": 7509,
      "Ġhandsome": 7510,
      "ĠPark": 7511,
      "UFC": 7512,
      "Ġâĺ¹ï¸ı": 7513,
      "VZ": 7514,
      "Ġbf": 7515,
      "ĠUSA": 7516,
      "PCAs": 7517,
      "Ht": 7518,
      "Ġreminder": 7519,
      "anuary": 7520,
      "usa": 7521,
      "Ġteams": 7522,
      "ĠWORLD": 7523,
      "np": 7524,
      "Ġindeed": 7525,
      "rep": 7526,
      "oooooo": 7527,
      "uggle": 7528,
      "Someone": 7529,
      "Swap": 7530,
      "Ġbird": 7531,
      "Ġimage": 7532,
      "uffy": 7533,
      "ĠTownship": 7534,
      "Ġlunch": 7535,
      "utch": 7536,
      "ural": 7537,
      "PB": 7538,
      "Ġuniverse": 7539,
      "annah": 7540,
      "Fb": 7541,
      "fghan": 7542,
      "Hh": 7543,
      "anye": 7544,
      "QY": 7545,
      "Ġgeneral": 7546,
      "Ġcancel": 7547,
      "itish": 7548,
      "ilarious": 7549,
      "ville": 7550,
      "ourt": 7551,
      "Ġplus": 7552,
      "Ĳí": 7553,
      "ĠHaha": 7554,
      "Ġpati": 7555,
      "raz": 7556,
      "cool": 7557,
      "ATIONS": 7558,
      "ĠPart": 7559,
      "ĠLast": 7560,
      "Tv": 7561,
      "ĠHot": 7562,
      "club": 7563,
      "Rp": 7564,
      "Ao": 7565,
      "Ġspeaking": 7566,
      "Green": 7567,
      "ngth": 7568,
      "Ġcareer": 7569,
      "ĠSun": 7570,
      "cohol": 7571,
      "Ġnor": 7572,
      "CU": 7573,
      "goodnight": 7574,
      "opia": 7575,
      "DU": 7576,
      "âĿĹ": 7577,
      "Ġft": 7578,
      "ì¦Ī": 7579,
      "Kam": 7580,
      "Ġstock": 7581,
      "ealous": 7582,
      "cil": 7583,
      "Ġ70": 7584,
      "eem": 7585,
      "Iu": 7586,
      "nr": 7587,
      "Ġposition": 7588,
      "Ġeconom": 7589,
      "Pk": 7590,
      "FO": 7591,
      "Ġthru": 7592,
      "mike": 7593,
      "Sg": 7594,
      "uber": 7595,
      "RATS": 7596,
      "ðŁĴİ": 7597,
      "ency": 7598,
      "iams": 7599,
      "Ġpun": 7600,
      "ĠREALLY": 7601,
      "ĠGreen": 7602,
      "Rz": 7603,
      "ĠChar": 7604,
      "Ġoption": 7605,
      "Ġolder": 7606,
      "assy": 7607,
      "Peter": 7608,
      "Pt": 7609,
      "Ġlack": 7610,
      "Ġteacher": 7611,
      "Joy": 7612,
      "Human": 7613,
      "ĠJe": 7614,
      "irk": 7615,
      "Ġtroll": 7616,
      "rett": 7617,
      "ĠTRUE": 7618,
      "agon": 7619,
      "Ġsoo": 7620,
      "roid": 7621,
      "aries": 7622,
      "ê°": 7623,
      "Ġwaste": 7624,
      "Feels": 7625,
      "urope": 7626,
      "Ġletting": 7627,
      "Eg": 7628,
      "Ġdrawing": 7629,
      "Carl": 7630,
      "Ġspirit": 7631,
      "Ġsupporting": 7632,
      "WQ": 7633,
      "Ġwalking": 7634,
      "ashington": 7635,
      "Met": 7636,
      "jung": 7637,
      "anti": 7638,
      "ĠTell": 7639,
      "achin": 7640,
      "House": 7641,
      "ĠðŁĺĥ": 7642,
      "ension": 7643,
      "Ġbath": 7644,
      "ucker": 7645,
      "Ġabsolute": 7646,
      "riz": 7647,
      "VOTE": 7648,
      "Ww": 7649,
      "ĠAustralia": 7650,
      "ĠRuss": 7651,
      "Cz": 7652,
      "Sz": 7653,
      "Ġcrime": 7654,
      "vb": 7655,
      "Ġposts": 7656,
      "Vi": 7657,
      "Ġring": 7658,
      "Hm": 7659,
      "pj": 7660,
      "abl": 7661,
      "HHH": 7662,
      "Ġignore": 7663,
      "arriors": 7664,
      "ĠBen": 7665,
      "Ġvalue": 7666,
      "ĠWomen": 7667,
      "itics": 7668,
      "ĠâĤ": 7669,
      "stery": 7670,
      "udo": 7671,
      "IAL": 7672,
      "Ġtok": 7673,
      "Bc": 7674,
      "Ġmill": 7675,
      "Ġpure": 7676,
      "amy": 7677,
      "West": 7678,
      "ovember": 7679,
      "yeon": 7680,
      "Lord": 7681,
      "rrrr": 7682,
      "Frank": 7683,
      "ĠTHERE": 7684,
      "Ġpaying": 7685,
      "Was": 7686,
      "Bk": 7687,
      "TM": 7688,
      "lection": 7689,
      "ĠMandalay": 7690,
      "abel": 7691,
      "ival": 7692,
      "ships": 7693,
      "ðŁĴĻðŁĴĻ": 7694,
      "Lh": 7695,
      "Ġbother": 7696,
      "Ġni": 7697,
      "rm": 7698,
      "egas": 7699,
      "Ġcop": 7700,
      "131": 7701,
      "ĠSHOW": 7702,
      "ifer": 7703,
      "Anti": 7704,
      "Ġsinging": 7705,
      "Ġcivilians": 7706,
      "iao": 7707,
      "lev": 7708,
      "yler": 7709,
      "ĠBIG": 7710,
      "fits": 7711,
      "YES": 7712,
      "Hz": 7713,
      "Ġsmoke": 7714,
      "XZ": 7715,
      "Ġawake": 7716,
      "Ġnote": 7717,
      "koo": 7718,
      "anner": 7719,
      "ĠWin": 7720,
      "Ee": 7721,
      "ras": 7722,
      "mik": 7723,
      "Online": 7724,
      "Ġthankyou": 7725,
      "ĠðŁ¤¤": 7726,
      "Ii": 7727,
      "olar": 7728,
      "Ġstreet": 7729,
      "Drop": 7730,
      "Ġlegend": 7731,
      "ĠðŁĴĽ": 7732,
      "asketball": 7733,
      "ĠHind": 7734,
      "qx": 7735,
      "ĠLITERALLY": 7736,
      "High": 7737,
      "cks": 7738,
      "bal": 7739,
      "izzy": 7740,
      "Cd": 7741,
      "Light": 7742,
      "á´": 7743,
      "IsThe": 7744,
      "cot": 7745,
      "Ġbeyond": 7746,
      "TING": 7747,
      "eptember": 7748,
      "Boo": 7749,
      "Cc": 7750,
      "Ġund": 7751,
      "Ġprovid": 7752,
      "Ġchicken": 7753,
      "Ġgang": 7754,
      "Ġupset": 7755,
      "alse": 7756,
      "Ġcollection": 7757,
      "ĠWork": 7758,
      "Ov": 7759,
      "Rg": 7760,
      "uce": 7761,
      "Ġeverywhere": 7762,
      "help": 7763,
      "Uu": 7764,
      "Ġcrow": 7765,
      "OUNT": 7766,
      "Make": 7767,
      "Justice": 7768,
      "FD": 7769,
      "comes": 7770,
      "cityx": 7771,
      "ĠDaily": 7772,
      "Ġwont": 7773,
      "ĠRain": 7774,
      "akh": 7775,
      "aws": 7776,
      "mah": 7777,
      "imi": 7778,
      "aye": 7779,
      "Ġdisgusting": 7780,
      "Ġadvice": 7781,
      "TQ": 7782,
      "pls": 7783,
      "Jf": 7784,
      "ANDOM": 7785,
      "TK": 7786,
      "Uo": 7787,
      "Bp": 7788,
      "Ġbroad": 7789,
      "usion": 7790,
      "Ġcorr": 7791,
      "Yu": 7792,
      "!!!!!!": 7793,
      "ppers": 7794,
      "ðŁı½âĢįâĻĤï¸ı": 7795,
      "Bg": 7796,
      "Xl": 7797,
      "ĠMark": 7798,
      "ĠSW": 7799,
      "Uj": 7800,
      "izer": 7801,
      "ðŁļ©ðŁļ©ðŁļ©ðŁļ©": 7802,
      "ancer": 7803,
      "ðŁı¾âĢįâĻĢï¸ı": 7804,
      "jess": 7805,
      "Ġwhenever": 7806,
      "Bob": 7807,
      "days": 7808,
      "tttt": 7809,
      "Ġafternoon": 7810,
      "ĠVOTE": 7811,
      "ports": 7812,
      "Ġgf": 7813,
      "Bd": 7814,
      "Ġregular": 7815,
      "ðŁĴĲ": 7816,
      "VA": 7817,
      "ipping": 7818,
      "odd": 7819,
      "Ġhearing": 7820,
      "uni": 7821,
      "fre": 7822,
      "His": 7823,
      "icker": 7824,
      "Ġfloor": 7825,
      "edi": 7826,
      "lib": 7827,
      "Uv": 7828,
      "Ġaint": 7829,
      "Rk": 7830,
      "arrior": 7831,
      "ÂłÂłÂłÂł": 7832,
      "Ġcredit": 7833,
      "Lg": 7834,
      "cam": 7835,
      "Cg": 7836,
      "ahh": 7837,
      "Ġsens": 7838,
      "Gaming": 7839,
      "Ġsomewhere": 7840,
      "Ġcourt": 7841,
      "Tz": 7842,
      "Rc": 7843,
      "Ġswe": 7844,
      "Cm": 7845,
      "Permission": 7846,
      "Ġscen": 7847,
      "Ġsix": 7848,
      "ĠðŁĺįðŁĺįðŁĺį": 7849,
      "Rm": 7850,
      "Ġom": 7851,
      "duce": 7852,
      "Nf": 7853,
      "ollywood": 7854,
      "Lr": 7855,
      "Ġpassed": 7856,
      "MON": 7857,
      "Fv": 7858,
      "ì£¼ëħĦ": 7859,
      "face": 7860,
      "Ġsite": 7861,
      "yw": 7862,
      "vidence": 7863,
      "ĠYep": 7864,
      "FUCK": 7865,
      "intendo": 7866,
      "Ġsurprise": 7867,
      "ĠBoth": 7868,
      "ĠĠĠĠĠĠ": 7869,
      "ìĻĢ": 7870,
      "True": 7871,
      "Nb": 7872,
      "âłĢâłĢâłĢâłĢ": 7873,
      "ĠSen": 7874,
      "ribute": 7875,
      "Ġreasons": 7876,
      "Ġmeeting": 7877,
      "ĠMad": 7878,
      "Ġcum": 7879,
      "ĠBlue": 7880,
      "Ġdom": 7881,
      "JoeBiden": 7882,
      "âľ¨âľ¨": 7883,
      "Ġsolid": 7884,
      "bob": 7885,
      "adies": 7886,
      "Ġboard": 7887,
      "TheReal": 7888,
      "Ġserv": 7889,
      "Sd": 7890,
      "iko": 7891,
      "Ġscream": 7892,
      "Ġten": 7893,
      "Ck": 7894,
      "Ġnames": 7895,
      "Uf": 7896,
      "Inter": 7897,
      "ably": 7898,
      "Ġpaint": 7899,
      "Ġrisk": 7900,
      "Oe": 7901,
      "ĠStr": 7902,
      "Ġident": 7903,
      "ĠWAN": 7904,
      "ĠAwesome": 7905,
      "GK": 7906,
      "Ġ500": 7907,
      "ìĺ": 7908,
      "Ġtrending": 7909,
      "issa": 7910,
      "Ġtv": 7911,
      "Lz": 7912,
      "Ġpub": 7913,
      "Crypt": 7914,
      "Bz": 7915,
      "Ġlegal": 7916,
      "Ġheavy": 7917,
      "LING": 7918,
      "Ġmeaning": 7919,
      "Db": 7920,
      "Ġwishes": 7921,
      "Ġnational": 7922,
      "Pi": 7923,
      "ðŁĺŃðŁĺŃðŁĺŃðŁĺŃðŁĺŃðŁĺŃðŁĺŃðŁĺŃ": 7924,
      "Ġrom": 7925,
      "ðŁ¤©ðŁ¤©": 7926,
      "Ġgn": 7927,
      "NOT": 7928,
      "Ġintern": 7929,
      "ìĭ": 7930,
      "Ġvac": 7931,
      "Ġregret": 7932,
      "HI": 7933,
      "iculous": 7934,
      "ĠFIRST": 7935,
      "ĠSa": 7936,
      "Jx": 7937,
      "Ġbirth": 7938,
      "icted": 7939,
      "Ġpopular": 7940,
      "nan": 7941,
      "Cp": 7942,
      "Ġclosed": 7943,
      "Ġpowerful": 7944,
      "Ġlif": 7945,
      "Hd": 7946,
      "break": 7947,
      "times": 7948,
      "Mf": 7949,
      "Ġreceive": 7950,
      "Finance": 7951,
      "Sad": 7952,
      "Ġgotten": 7953,
      "Ġconversation": 7954,
      "Chain": 7955,
      "ookie": 7956,
      "Shah": 7957,
      "Ġgenuinely": 7958,
      "tto": 7959,
      "Ġeducation": 7960,
      "ÙĨ": 7961,
      "riy": 7962,
      "oving": 7963,
      "Ġclothes": 7964,
      "jx": 7965,
      "OOOOO": 7966,
      "cience": 7967,
      "LIVE": 7968,
      "Ġpers": 7969,
      "yrics": 7970,
      "Zw": 7971,
      "GI": 7972,
      "Ġluv": 7973,
      "Smart": 7974,
      "Eu": 7975,
      "ĠDream": 7976,
      "fox": 7977,
      "Sel": 7978,
      "Ġgrowing": 7979,
      "keep": 7980,
      "Ġhorrible": 7981,
      "Hor": 7982,
      "VQ": 7983,
      "colate": 7984,
      "Spotify": 7985,
      "ðŁ¤ª": 7986,
      "Ġfalling": 7987,
      "Ġfre": 7988,
      "BBMAsTop": 7989,
      "ĠUr": 7990,
      "Ġquiet": 7991,
      "hello": 7992,
      "WHY": 7993,
      "Ġdeliver": 7994,
      "Ff": 7995,
      "Ġobviously": 7996,
      "Ġrecent": 7997,
      "VW": 7998,
      "esla": 7999,
      "Ġbff": 8000,
      "Eb": 8001,
      "Ġstaged": 8002,
      "ĠCL": 8003,
      "ĠCRYING": 8004,
      "onde": 8005,
      "Cle": 8006,
      "sf": 8007,
      "ðŁ¤Ń": 8008,
      "Fashion": 8009,
      "Cam": 8010,
      "ĠNorth": 8011,
      "ĠQueen": 8012,
      "Ġsize": 8013,
      "Nv": 8014,
      "pha": 8015,
      "Ġrare": 8016,
      "Ġbuilt": 8017,
      "rev": 8018,
      "lal": 8019,
      "illiant": 8020,
      "Ġtoken": 8021,
      "ĠDONE": 8022,
      "heel": 8023,
      "ðŁĮ¸": 8024,
      "Ġanyways": 8025,
      "ĠPower": 8026,
      "Hero": 8027,
      "UI": 8028,
      "ĠBar": 8029,
      "COME": 8030,
      "Tg": 8031,
      "ĠâĿ¤ï¸ıâĿ¤ï¸ıâĿ¤ï¸ı": 8032,
      "Ġilleg": 8033,
      "las": 8034,
      "Ua": 8035,
      "JUN": 8036,
      "Dv": 8037,
      "Ġdrinking": 8038,
      "Ver": 8039,
      "Jam": 8040,
      "qK": 8041,
      "Ġactiv": 8042,
      "ĠTHATS": 8043,
      "Pp": 8044,
      "Pd": 8045,
      "Ġmultiple": 8046,
      "Ġvari": 8047,
      "Ġ:((": 8048,
      "HK": 8049,
      "ooh": 8050,
      "ADE": 8051,
      "aptain": 8052,
      "Beast": 8053,
      "Pg": 8054,
      "Mv": 8055,
      "????????": 8056,
      "Requ": 8057,
      "ĠKnow": 8058,
      "ĠREQUEST": 8059,
      "Ġangry": 8060,
      "JA": 8061,
      "ilf": 8062,
      "ĠNext": 8063,
      "thes": 8064,
      "Maybe": 8065,
      "mitted": 8066,
      "Does": 8067,
      "gging": 8068,
      "ĠDR": 8069,
      "eeeee": 8070,
      "Ġnetwork": 8071,
      "RAW": 8072,
      "Cn": 8073,
      "Zl": 8074,
      "ination": 8075,
      "Ġuser": 8076,
      "alley": 8077,
      "apnap": 8078,
      "Ġcutie": 8079,
      "Ġstudent": 8080,
      "ĠDa": 8081,
      "Pn": 8082,
      "ðŁĴľðŁĴľðŁĴľðŁĴľ": 8083,
      "Ġcitiz": 8084,
      "Ġneck": 8085,
      "ĠVER": 8086,
      "jake": 8087,
      "Album": 8088,
      "Ġvirus": 8089,
      "ateg": 8090,
      "OMOR": 8091,
      "Bn": 8092,
      "Ġworried": 8093,
      "Att": 8094,
      "jeon": 8095,
      "NIE": 8096,
      "iaz": 8097,
      "Phil": 8098,
      "aire": 8099,
      "Ġjealous": 8100,
      "ðŁĴĥ": 8101,
      "Ġplays": 8102,
      "Ġculture": 8103,
      "ĠFb": 8104,
      "dated": 8105,
      "Hs": 8106,
      "Gb": 8107,
      "ðŁĳĩðŁĳĩ": 8108,
      "ëı": 8109,
      "bby": 8110,
      "Pm": 8111,
      "acker": 8112,
      "mind": 8113,
      "Yl": 8114,
      "obiec": 8115,
      "ĠJIMIN": 8116,
      "urr": 8117,
      "Ld": 8118,
      "Ġkeeping": 8119,
      "Ġ29": 8120,
      "annie": 8121,
      "ĠBLACKPINK": 8122,
      "Ġer": 8123,
      "Ġitself": 8124,
      "Ġmic": 8125,
      "Ġlit": 8126,
      "Xt": 8127,
      "Ġhigher": 8128,
      "ðŁĮŁ": 8129,
      "Ġexcellent": 8130,
      "uren": 8131,
      "Ġcampaign": 8132,
      "oles": 8133,
      "GGGG": 8134,
      "Ġdevelopment": 8135,
      "Gf": 8136,
      "atan": 8137,
      "Ġmemories": 8138,
      "ossible": 8139,
      "CRE": 8140,
      "Ġadorable": 8141,
      "Gv": 8142,
      "Ġends": 8143,
      "Xp": 8144,
      "BBC": 8145,
      "Posobiec": 8146,
      "JackPosobiec": 8147,
      "Ġprovide": 8148,
      "assic": 8149,
      "Ter": 8150,
      "ĠJunta": 8151,
      "à¹ī": 8152,
      "Ġsle": 8153,
      "ĠDude": 8154,
      "XQ": 8155,
      "jimin": 8156,
      "Ġlmfao": 8157,
      "aii": 8158,
      "Andy": 8159,
      "Ġwondering": 8160,
      "Ġsociety": 8161,
      "rry": 8162,
      "ìĦ¸ë": 8163,
      "Ġdeserved": 8164,
      "Vr": 8165,
      "ĠMess": 8166,
      "Moh": 8167,
      "Ġgovt": 8168,
      "ament": 8169,
      "obic": 8170,
      "Ġwilling": 8171,
      "Ġfailed": 8172,
      "Ġpie": 8173,
      "luc": 8174,
      "Wt": 8175,
      "Ġrank": 8176,
      "erk": 8177,
      "Ġplaylist": 8178,
      "ìłľ": 8179,
      "Ġshots": 8180,
      "lie": 8181,
      "Ġjustice": 8182,
      "THING": 8183,
      "Ġexpected": 8184,
      "Ġweight": 8185,
      "ĠSONG": 8186,
      "ĠApril": 8187,
      "ĠFOLLOW": 8188,
      "Ġmins": 8189,
      "ĠHOT": 8190,
      "Pc": 8191,
      "Bm": 8192,
      "Ġcup": 8193,
      "ternational": 8194,
      "Ġgoals": 8195,
      "ilson": 8196,
      "ĠASS": 8197,
      "Vw": 8198,
      "Ġwest": 8199,
      "ĠDESER": 8200,
      "Lisa": 8201,
      "Kevin": 8202,
      "Ġspeech": 8203,
      "Ġrlly": 8204,
      "KKCA": 8205,
      "Ġ99": 8206,
      "Ġ06": 8207,
      "ismillah": 8208,
      "Ġsurv": 8209,
      "Ġmostly": 8210,
      "Ġexample": 8211,
      "ĠAgain": 8212,
      "OCK": 8213,
      "die": 8214,
      "Lp": 8215,
      "Ġjus": 8216,
      "ĠYEAR": 8217,
      "ĠAMA": 8218,
      "Next": 8219,
      "Pz": 8220,
      "ĠMV": 8221,
      "boys": 8222,
      "ĠComm": 8223,
      "gggg": 8224,
      "oa": 8225,
      "Lakers": 8226,
      "Ġcountries": 8227,
      "Hk": 8228,
      "Ġbabies": 8229,
      "okemon": 8230,
      "íĮ¬": 8231,
      "Ġcalm": 8232,
      "Ġcollect": 8233,
      "ĠBAD": 8234,
      "Really": 8235,
      "Care": 8236,
      "Ġmfs": 8237,
      "ìĦ¸ë¸": 8238,
      "Ġnamed": 8239,
      "Wind": 8240,
      "Ws": 8241,
      "PD": 8242,
      "pty": 8243,
      "igga": 8244,
      "wift": 8245,
      "ĠStreet": 8246,
      "Far": 8247,
      "luck": 8248,
      "Ġfreedom": 8249,
      "Two": 8250,
      "ĠðŁ¤ª": 8251,
      "Dave": 8252,
      "Ġopening": 8253,
      "hin": 8254,
      "Uni": 8255,
      "oker": 8256,
      "ockey": 8257,
      "YS": 8258,
      "Hn": 8259,
      "Again": 8260,
      "Ġratio": 8261,
      "TD": 8262,
      "Vy": 8263,
      "WWE": 8264,
      "Ø¯": 8265,
      "Tt": 8266,
      "Fj": 8267,
      "Ġannounce": 8268,
      "Ġfill": 8269,
      "Ġweap": 8270,
      "Ġtable": 8271,
      "alib": 8272,
      "ZQ": 8273,
      "ulan": 8274,
      "uter": 8275,
      "BBMAsTopSocial": 8276,
      "ðŁĺĲ": 8277,
      "Read": 8278,
      "Ġ%": 8279,
      "idence": 8280,
      "Van": 8281,
      "clusive": 8282,
      "Ġyoutube": 8283,
      "uga": 8284,
      "ĠMen": 8285,
      "inary": 8286,
      "ĠYork": 8287,
      "OMORROW": 8288,
      "arling": 8289,
      "Ġresult": 8290,
      "Reg": 8291,
      "anne": 8292,
      "ĠFore": 8293,
      "Ġbuddy": 8294,
      "wall": 8295,
      "amar": 8296,
      "Vu": 8297,
      "nite": 8298,
      "Ġga": 8299,
      "talk": 8300,
      "Ġdms": 8301,
      "ĠSTILL": 8302,
      "LOVE": 8303,
      "xK": 8304,
      "íĽĦì": 8305,
      "à¸¥": 8306,
      "Ġtitle": 8307,
      "west": 8308,
      "Right": 8309,
      "íĽĦì¦Ī": 8310,
      "íĽĦì¦ĪíĮ¬": 8311,
      "ðŁĺĩ": 8312,
      "alg": 8313,
      "Ġprojects": 8314,
      "Lm": 8315,
      "Ġbecame": 8316,
      "BN": 8317,
      "icago": 8318,
      "jaemcityx": 8319,
      "antasy": 8320,
      "Singh": 8321,
      "Ġdeb": 8322,
      "arming": 8323,
      "Chan": 8324,
      "Police": 8325,
      "Rain": 8326,
      "Ġfemale": 8327,
      "Ġcrimin": 8328,
      "ancial": 8329,
      "kee": 8330,
      "onn": 8331,
      "Hc": 8332,
      "mond": 8333,
      "ë¦¬": 8334,
      "666": 8335,
      "Ġwritten": 8336,
      "agan": 8337,
      "Oj": 8338,
      "ĠWeek": 8339,
      "ĠMet": 8340,
      "Ġplaces": 8341,
      "BAL": 8342,
      "Lk": 8343,
      "ĠMON": 8344,
      "Ġplans": 8345,
      "kan": 8346,
      "Ġincredible": 8347,
      "YQ": 8348,
      "azi": 8349,
      "'âĢ¦": 8350,
      "ðŁ¤¨": 8351,
      "raj": 8352,
      "Ġbes": 8353,
      "ayy": 8354,
      "Ġresidents": 8355,
      "ðŁĳģ": 8356,
      "Ġdogs": 8357,
      "ðŁĽ": 8358,
      "risis": 8359,
      "Ġenco": 8360,
      "End": 8361,
      "Ġtech": 8362,
      "ĠGOING": 8363,
      "Umar": 8364,
      "?!?": 8365,
      "WN": 8366,
      "RATUL": 8367,
      "ĠEnjoy": 8368,
      "âĺ¹ï¸ı": 8369,
      "Ġcous": 8370,
      "Mj": 8371,
      "christ": 8372,
      "Ġforces": 8373,
      "Ġshowed": 8374,
      "Ġshout": 8375,
      "aters": 8376,
      "Lc": 8377,
      "ĠLooking": 8378,
      "oro": 8379,
      "ï¼ģ": 8380,
      "ooty": 8381,
      "Ġarm": 8382,
      "url": 8383,
      "ained": 8384,
      "RN": 8385,
      "izard": 8386,
      "abb": 8387,
      "asp": 8388,
      "imon": 8389,
      "uggl": 8390,
      "Ġreplies": 8391,
      "icles": 8392,
      "Ġhelped": 8393,
      "need": 8394,
      "ante": 8395,
      "clos": 8396,
      "itation": 8397,
      "cole": 8398,
      "Ġ2019": 8399,
      "Ġjail": 8400,
      "Ġhelping": 8401,
      "rost": 8402,
      "lle": 8403,
      "ĠDREAM": 8404,
      "eeps": 8405,
      "ahi": 8406,
      "ðŁĩºðŁĩ¸": 8407,
      "Ġeffort": 8408,
      "âĤ": 8409,
      "ĠUnivers": 8410,
      "orya": 8411,
      "sweet": 8412,
      "rican": 8413,
      "ĠHa": 8414,
      "ĠDec": 8415,
      "ĠSign": 8416,
      "ĠSend": 8417,
      "athe": 8418,
      "zg": 8419,
      "ĠALB": 8420,
      "josh": 8421,
      "igan": 8422,
      "Too": 8423,
      "lv": 8424,
      "Ġstatement": 8425,
      "TheS": 8426,
      "ĠMIN": 8427,
      "Ġshooting": 8428,
      "ĠðŁ¤Ń": 8429,
      "Ġapparently": 8430,
      "à¸ĩ": 8431,
      "ĠHarry": 8432,
      "ëĵ": 8433,
      "Gold": 8434,
      "Ġconcept": 8435,
      "oga": 8436,
      "Ġgirlfriend": 8437,
      "ĠCHE": 8438,
      "iamond": 8439,
      "IsTheBoss": 8440,
      "MPN": 8441,
      "Yt": 8442,
      "Ġir": 8443,
      "azing": 8444,
      "see": 8445,
      "Ġadmin": 8446,
      "ARY": 8447,
      "kj": 8448,
      "Ġcancell": 8449,
      "erc": 8450,
      "eman": 8451,
      "Ln": 8452,
      "ĠSal": 8453,
      "avage": 8454,
      "ĠNetflix": 8455,
      "SI": 8456,
      "Park": 8457,
      "Work": 8458,
      "pan": 8459,
      "Ġwo": 8460,
      "Ġlockdown": 8461,
      "Mx": 8462,
      "oung": 8463,
      "ĠFeb": 8464,
      "Qh": 8465,
      "ĠYe": 8466,
      "Xw": 8467,
      "ĠĊĠĊ": 8468,
      "Kv": 8469,
      "Zy": 8470,
      "ĠTAL": 8471,
      "ìĽ": 8472,
      "Ġ05": 8473,
      "Ai": 8474,
      "Ġtall": 8475,
      "kpop": 8476,
      "Finally": 8477,
      "oseph": 8478,
      "Ġpunch": 8479,
      "TheD": 8480,
      "Ġ]": 8481,
      "Ġfurther": 8482,
      "MER": 8483,
      "RU": 8484,
      "Wg": 8485,
      "Bb": 8486,
      "mj": 8487,
      "ĠJames": 8488,
      "Ġupon": 8489,
      "ĠREV": 8490,
      "Ġbattle": 8491,
      "umps": 8492,
      "ĠSounds": 8493,
      "Ġsexual": 8494,
      "Haw": 8495,
      "Ġegg": 8496,
      "ĠStart": 8497,
      "Ġ||": 8498,
      "ĠDep": 8499,
      "ĠEp": 8500,
      "ĠKING": 8501,
      "Ġstaff": 8502,
      "Ġanal": 8503,
      "Ġclip": 8504,
      "Ġhundred": 8505,
      "tim": 8506,
      "ðŁĺ±": 8507,
      "akin": 8508,
      "ĠEVEN": 8509,
      "exual": 8510,
      "Nik": 8511,
      "Ġdecide": 8512,
      "sky": 8513,
      "Vers": 8514,
      "Ġghost": 8515,
      "Qt": 8516,
      "Want": 8517,
      "nic": 8518,
      "och": 8519,
      "Project": 8520,
      "Yg": 8521,
      "Ġideas": 8522,
      "Ros": 8523,
      "Ġpurch": 8524,
      "ĠLong": 8525,
      "Ġembarrassing": 8526,
      "ĠCha": 8527,
      "LG": 8528,
      "rw": 8529,
      "Xy": 8530,
      "Ġhilarious": 8531,
      "Host": 8532,
      "Ġweren": 8533,
      "Ġballs": 8534,
      "soo": 8535,
      "----": 8536,
      "Ġgra": 8537,
      "IGN": 8538,
      "ĠAllah": 8539,
      "ELY": 8540,
      "Ġdoesnt": 8541,
      "Pink": 8542,
      "MMA": 8543,
      "qE": 8544,
      "Fight": 8545,
      "Ġresults": 8546,
      "Ġgrateful": 8547,
      "name": 8548,
      "Ġcelebrate": 8549,
      "ogue": 8550,
      "Fly": 8551,
      "isit": 8552,
      "joe": 8553,
      "ĠAmericans": 8554,
      "sad": 8555,
      "Ġprecious": 8556,
      "pin": 8557,
      "phone": 8558,
      "Ġinsp": 8559,
      "acha": 8560,
      "Ġvo": 8561,
      "Ġsen": 8562,
      "Tn": 8563,
      "ĠHealth": 8564,
      "oda": 8565,
      "Ġbal": 8566,
      "oliday": 8567,
      "ogi": 8568,
      "ĠSchool": 8569,
      "ĠGuy": 8570,
      "Ġbarely": 8571,
      "ĠMine": 8572,
      "Xh": 8573,
      "Ij": 8574,
      "ðĿĲ¨": 8575,
      "ðŁı»âĢįâĻĤï¸ı": 8576,
      "Ġtight": 8577,
      "ðŁ¤£ðŁ¤£ðŁ¤£": 8578,
      "ÙĦ": 8579,
      "Ġemotional": 8580,
      "Yw": 8581,
      "888": 8582,
      "Ġmistake": 8583,
      "VES": 8584,
      "YW": 8585,
      "gon": 8586,
      "enry": 8587,
      "Ġcryptocurren": 8588,
      "Ġrelated": 8589,
      "ACH": 8590,
      "ILLION": 8591,
      "ðŁĴ«": 8592,
      "ellig": 8593,
      "annon": 8594,
      "Fort": 8595,
      "CJ": 8596,
      "mist": 8597,
      "ĠNational": 8598,
      "LK": 8599,
      "Ġmax": 8600,
      "ĠYea": 8601,
      "ĠFamily": 8602,
      "urk": 8603,
      "Cb": 8604,
      "Ġhelps": 8605,
      "Blog": 8606,
      "ĠSay": 8607,
      "Ġsugar": 8608,
      "Ġpoll": 8609,
      "aglorya": 8610,
      "Jake": 8611,
      "orant": 8612,
      "Club": 8613,
      "orea": 8614,
      "Found": 8615,
      "Once": 8616,
      "chitaglorya": 8617,
      "Ġcy": 8618,
      "Tk": 8619,
      "ĠMAKE": 8620,
      "Ġvir": 8621,
      "Ġesc": 8622,
      "ĠDefinitely": 8623,
      "Friend": 8624,
      "Ġsy": 8625,
      "Brown": 8626,
      "Ġhype": 8627,
      "AUT": 8628,
      "Zz": 8629,
      "Sb": 8630,
      "cv": 8631,
      "oml": 8632,
      "idding": 8633,
      "IHOON": 8634,
      "usted": 8635,
      "TU": 8636,
      "ĠĠĠĠĠĠĠ": 8637,
      "Ġangel": 8638,
      "Ġfinna": 8639,
      "ĦìĿ´": 8640,
      "tar": 8641,
      "Ġharder": 8642,
      "ennis": 8643,
      "Ġult": 8644,
      "ðŁĺŀ": 8645,
      "Za": 8646,
      "Td": 8647,
      "ĠSad": 8648,
      "bird": 8649,
      "enda": 8650,
      "Ġinnocent": 8651,
      "xD": 8652,
      "~~": 8653,
      "Wal": 8654,
      "Ġitems": 8655,
      "corn": 8656,
      "Tp": 8657,
      "CG": 8658,
      "Bron": 8659,
      "Ġidc": 8660,
      "urple": 8661,
      "Ġsaved": 8662,
      "aches": 8663,
      "Ci": 8664,
      "ĠAnother": 8665,
      "ĠLight": 8666,
      "ĠPakistan": 8667,
      "shan": 8668,
      "ĠCool": 8669,
      "Qr": 8670,
      "Ġperform": 8671,
      "Yh": 8672,
      "Covid": 8673,
      "entle": 8674,
      "Rv": 8675,
      "Ġwhether": 8676,
      "idden": 8677,
      "Ġextremely": 8678,
      "ivation": 8679,
      "Ġafford": 8680,
      "Ġvalid": 8681,
      "Ġuh": 8682,
      "ruly": 8683,
      "acle": 8684,
      "tti": 8685,
      "michael": 8686,
      "Ġrepresent": 8687,
      "market": 8688,
      "Ġcongratulations": 8689,
      "Ġ--": 8690,
      "enix": 8691,
      "iper": 8692,
      "AMN": 8693,
      "than": 8694,
      "300": 8695,
      "Ġoutta": 8696,
      "thinking": 8697,
      "ĠBill": 8698,
      "ĠBad": 8699,
      "ĠðĿĳ": 8700,
      "xq": 8701,
      "Karan": 8702,
      "Ġdat": 8703,
      "Ġmassive": 8704,
      "thy": 8705,
      "Nat": 8706,
      "Ġscam": 8707,
      "ĠASAP": 8708,
      "Oa": 8709,
      "Media": 8710,
      "STAR": 8711,
      "Ġsports": 8712,
      "avior": 8713,
      "Ġnecess": 8714,
      "ðŁĻĥ": 8715,
      "Wz": 8716,
      "ores": 8717,
      "ĠTry": 8718,
      "Ġstrength": 8719,
      "ĠId": 8720,
      "Ġflag": 8721,
      "ðŁĺĥ": 8722,
      "ened": 8723,
      "ĠFull": 8724,
      "Ġcamera": 8725,
      "Card": 8726,
      "vey": 8727,
      "child": 8728,
      "Ġki": 8729,
      "Ġbot": 8730,
      "Bra": 8731,
      ";/": 8732,
      "Wd": 8733,
      "ĠParty": 8734,
      "Tm": 8735,
      "ĠSub": 8736,
      "job": 8737,
      "Vg": 8738,
      "Ġcoin": 8739,
      "Ġscience": 8740,
      "Ġdespite": 8741,
      "tl": 8742,
      "isf": 8743,
      "Ġseveral": 8744,
      "Ġpolitic": 8745,
      "Ġawful": 8746,
      "Jason": 8747,
      "ĠHas": 8748,
      "Ġhero": 8749,
      "Ġzero": 8750,
      "Ġentertain": 8751,
      "Ġachieve": 8752,
      "BU": 8753,
      "Ġwi": 8754,
      "oko": 8755,
      "Wu": 8756,
      "Qg": 8757,
      "Pun": 8758,
      "ĠImagine": 8759,
      "flower": 8760,
      "ĠMah": 8761,
      "ĠPretty": 8762,
      "ushi": 8763,
      "Ġcru": 8764,
      "BF": 8765,
      "Mod": 8766,
      "ðŁİĬ": 8767,
      "ĠChinese": 8768,
      "ĠARMY": 8769,
      "ĠInt": 8770,
      "PU": 8771,
      "gold": 8772,
      "Dead": 8773,
      "people": 8774,
      "Ġtalented": 8775,
      "Yr": 8776,
      "bull": 8777,
      "Gj": 8778,
      "ĠBel": 8779,
      "IDS": 8780,
      "iven": 8781,
      "Lv": 8782,
      "Ġmedical": 8783,
      "Ġdriving": 8784,
      "Jq": 8785,
      "ĠâľĮ": 8786,
      "ĠTHINK": 8787,
      "ĠðŁĻıðŁı»": 8788,
      "axx": 8789,
      "Brian": 8790,
      "gie": 8791,
      "CF": 8792,
      "ĠJAE": 8793,
      "Ġpartner": 8794,
      "ĠNick": 8795,
      "Wp": 8796,
      "Ġpurpose": 8797,
      "Jackson": 8798,
      "Ùĥ": 8799,
      "ĠModi": 8800,
      "Ġanxiety": 8801,
      "IU": 8802,
      "urage": 8803,
      "Bj": 8804,
      "Qs": 8805,
      "ĠBo": 8806,
      "Ġbear": 8807,
      "then": 8808,
      "ĠGoodnight": 8809,
      "ë°©": 8810,
      "Ġbon": 8811,
      "Qp": 8812,
      "AMA": 8813,
      "ĠDecember": 8814,
      "ìĹĲ": 8815,
      "SEVENTEEN": 8816,
      "Styles": 8817,
      "Ġben": 8818,
      "ABC": 8819,
      "buy": 8820,
      "nat": 8821,
      "gram": 8822,
      "ĠLOO": 8823,
      "Johnson": 8824,
      "far": 8825,
      "lla": 8826,
      "hun": 8827,
      "Ġshower": 8828,
      "Vz": 8829,
      "stein": 8830,
      "usty": 8831,
      "ĠOctober": 8832,
      "ounce": 8833,
      "lw": 8834,
      "ĠHelp": 8835,
      "Ġhungry": 8836,
      "Ġnar": 8837,
      "Wc": 8838,
      "ĠFacebook": 8839,
      "Ġvaccines": 8840,
      "tech": 8841,
      "TheB": 8842,
      "ĠALBUM": 8843,
      "Ġoutfit": 8844,
      "GD": 8845,
      "íĬ¸": 8846,
      "uta": 8847,
      "Ġscore": 8848,
      "ĠBESTIE": 8849,
      "Sid": 8850,
      "rub": 8851,
      "Ġsnap": 8852,
      "LM": 8853,
      "Network": 8854,
      "COM": 8855,
      "ĠPRO": 8856,
      "Ġcas": 8857,
      "Qy": 8858,
      "imb": 8859,
      "Ġdiscord": 8860,
      "ĠðŁ§į": 8861,
      "anies": 8862,
      "Ted": 8863,
      "jab": 8864,
      "Ġ35": 8865,
      "Ġoper": 8866,
      "ĠPat": 8867,
      "Omg": 8868,
      "STOP": 8869,
      "Ġisnt": 8870,
      "ĠFL": 8871,
      "Ġbrut": 8872,
      "xE": 8873,
      "JN": 8874,
      "Xr": 8875,
      "ĠDev": 8876,
      "hop": 8877,
      "tc": 8878,
      "Jan": 8879,
      "Ghost": 8880,
      "Ġhide": 8881,
      "LF": 8882,
      "ria": 8883,
      "Rev": 8884,
      "hajp": 8885,
      "Jordan": 8886,
      "erve": 8887,
      "Sur": 8888,
      "ĠSomeone": 8889,
      "Zr": 8890,
      "Hb": 8891,
      "alentine": 8892,
      "Ġevidence": 8893,
      "Pad": 8894,
      "ĠâĿ¤ï¸ıâĿ¤ï¸ı": 8895,
      "ë¹": 8896,
      "Vp": 8897,
      "AHA": 8898,
      "Ġridiculous": 8899,
      "Ġgam": 8900,
      "Ġprofessional": 8901,
      "Ġmode": 8902,
      "ðŁĳĳ": 8903,
      "KO": 8904,
      "iers": 8905,
      "vib": 8906,
      "itan": 8907,
      "mac": 8908,
      "Ġles": 8909,
      "Rj": 8910,
      "Money": 8911,
      "WOO": 8912,
      "TheFeels": 8913,
      "Ġfinding": 8914,
      "Old": 8915,
      "Pf": 8916,
      "ĠðŁĶ¥ðŁĶ¥": 8917,
      "ista": 8918,
      "ðŁķ¯": 8919,
      "HYUN": 8920,
      "Ġflight": 8921,
      "Xd": 8922,
      "ðŁĳħ": 8923,
      "Ġcheese": 8924,
      "ĠðŁĺįðŁĺį": 8925,
      "Sorry": 8926,
      "ãħ¤ãħ¤": 8927,
      "stone": 8928,
      ":)": 8929,
      "Wn": 8930,
      "ĠALWAYS": 8931,
      "Cv": 8932,
      "Ġjourney": 8933,
      "111": 8934,
      "Qz": 8935,
      "ĠPal": 8936,
      "Rb": 8937,
      "Bull": 8938,
      "lm": 8939,
      "2001": 8940,
      "Vd": 8941,
      "though": 8942,
      "ĠAp": 8943,
      "lg": 8944,
      "ļðĿĲ": 8945,
      "Ġschedule": 8946,
      "ĠAlex": 8947,
      "Bf": 8948,
      "âŃĲ": 8949,
      "Ġfreak": 8950,
      "week": 8951,
      "Ġlord": 8952,
      "Birthday": 8953,
      "ĠTemp": 8954,
      "ĠUnder": 8955,
      "RATULATIONS": 8956,
      "bour": 8957,
      "someone": 8958,
      "ðŁ¤¬": 8959,
      "ĠCONGRATS": 8960,
      "sal": 8961,
      "Welcome": 8962,
      "astaken": 8963,
      "Iq": 8964,
      "Ġfantastic": 8965,
      "Ġpm": 8966,
      "otal": 8967,
      "Qd": 8968,
      "Ġmoved": 8969,
      "Xg": 8970,
      "boi": 8971,
      "Dem": 8972,
      "Wk": 8973,
      "Cj": 8974,
      "endy": 8975,
      "Ġattempt": 8976,
      "ĠYangon": 8977,
      "âľĬ": 8978,
      "Ġhers": 8979,
      "Ġreaction": 8980,
      "ĠLink": 8981,
      "ĠSummer": 8982,
      "Kb": 8983,
      "Qn": 8984,
      "zzz": 8985,
      "Ġauthor": 8986,
      "à¸Ħ": 8987,
      "Ran": 8988,
      "high": 8989,
      "Ġdirty": 8990,
      "ĠGoogle": 8991,
      "Mary": 8992,
      "Ġconnect": 8993,
      "Know": 8994,
      "super": 8995,
      "mis": 8996,
      "lit": 8997,
      "oups": 8998,
      "Tc": 8999,
      "Military": 9000,
      "Ġkindly": 9001,
      "lf": 9002,
      "Zd": 9003,
      "ĠTL": 9004,
      "ĠQUE": 9005,
      "Ġdefense": 9006,
      "press": 9007,
      "ooms": 9008,
      "bling": 9009,
      "EST": 9010,
      "fel": 9011,
      "ĠHAPP": 9012,
      "Ġupload": 9013,
      "Ġstates": 9014,
      "ĠEnd": 9015,
      "Ġknowledge": 9016,
      "Aq": 9017,
      "Ġdinner": 9018,
      "Anyone": 9019,
      "Coach": 9020,
      "Ġvotes": 9021,
      "Xo": 9022,
      "Ġdebut": 9023,
      "Ġcloser": 9024,
      "Zg": 9025,
      "Bv": 9026,
      "ĠTerrorists": 9027,
      "Sup": 9028,
      "ige": 9029,
      "2000": 9030,
      "Wall": 9031,
      "SSS": 9032,
      "ican": 9033,
      "Wm": 9034,
      "ĠBEL": 9035,
      "BIN": 9036,
      "ISE": 9037,
      "Yn": 9038,
      "Ġairdrop": 9039,
      "drop": 9040,
      "Ġlarge": 9041,
      "ln": 9042,
      "Sant": 9043,
      "MSuppasit": 9044,
      "oods": 9045,
      "Ġrule": 9046,
      "ĠðŁĴ¥": 9047,
      "Lb": 9048,
      "Ġimpact": 9049,
      "izone": 9050,
      "Sv": 9051,
      "READY": 9052,
      "bron": 9053,
      "horny": 9054,
      "Ġyouuu": 9055,
      "NU": 9056,
      "Ġcorrupt": 9057,
      "uccess": 9058,
      "rived": 9059,
      "imum": 9060,
      "ocking": 9061,
      "token": 9062,
      "thet": 9063,
      "otocol": 9064,
      "ĠBless": 9065,
      "Ġsomehow": 9066,
      "Ġeth": 9067,
      "ĠCard": 9068,
      "ĠMany": 9069,
      "Df": 9070,
      "Tae": 9071,
      "alph": 9072,
      "MAMAV": 9073,
      "Everyone": 9074,
      "Ġjournal": 9075,
      "Ġrelax": 9076,
      "Ġmph": 9077,
      "Zo": 9078,
      "ells": 9079,
      "Kf": 9080,
      "Ġmi": 9081,
      "ĠEsp": 9082,
      "Pv": 9083,
      "chart": 9084,
      "Ġporn": 9085,
      "umer": 9086,
      "rama": 9087,
      "quid": 9088,
      "Kj": 9089,
      "aders": 9090,
      "RG": 9091,
      "Ġdating": 9092,
      "ĠðŁĺķ": 9093,
      "Ġfamous": 9094,
      "Nothing": 9095,
      "Sab": 9096,
      "hajpal": 9097,
      "Tea": 9098,
      "bott": 9099,
      "iKONIC": 9100,
      "YA": 9101,
      "Ox": 9102,
      "ĠWON": 9103,
      "Qk": 9104,
      "Ġtickets": 9105,
      "Ġcapital": 9106,
      "Ġgym": 9107,
      "Party": 9108,
      "works": 9109,
      "urate": 9110,
      "ĠFIGHTING": 9111,
      "cj": 9112,
      "Ġyoure": 9113,
      "ĠAdd": 9114,
      "Find": 9115,
      "Ys": 9116,
      "ĠKen": 9117,
      "Kal": 9118,
      "Ġartists": 9119,
      "Ġfavor": 9120,
      "ĠðŁĺĦ": 9121,
      "TheH": 9122,
      "Imagine": 9123,
      "itel": 9124,
      "ĠCA": 9125,
      "Ġblind": 9126,
      "Ġmale": 9127,
      "ĠCO": 9128,
      "maybe": 9129,
      "Ġcu": 9130,
      "Ġtrading": 9131,
      "SOL": 9132,
      "Xz": 9133,
      "KA": 9134,
      "Ġtiny": 9135,
      "MAMAVOTE": 9136,
      "ĠðŁİ¶": 9137,
      "ĠFire": 9138,
      "USD": 9139,
      "Comp": 9140,
      "aty": 9141,
      "Hv": 9142,
      "lar": 9143,
      "ENS": 9144,
      "ĠIG": 9145,
      "Ġshoes": 9146,
      "kiss": 9147,
      "ĠBetter": 9148,
      "Sha": 9149,
      "cloud": 9150,
      "ĠLo": 9151,
      "Ġjokes": 9152,
      "Crazy": 9153,
      "Yz": 9154,
      "rise": 9155,
      "ribe": 9156,
      "cons": 9157,
      "ĠGIVE": 9158,
      "rg": 9159,
      "Sf": 9160,
      "icked": 9161,
      "cf": 9162,
      "Vn": 9163,
      "Ġcopy": 9164,
      "ISOO": 9165,
      "EXT": 9166,
      "Sweet": 9167,
      "OI": 9168,
      "mod": 9169,
      "Ġmodel": 9170,
      "EG": 9171,
      "OLY": 9172,
      "Ġcurious": 9173,
      "Ġlips": 9174,
      "mes": 9175,
      "Ġlegs": 9176,
      "roc": 9177,
      "Ġnose": 9178,
      "encer": 9179,
      "Ġpump": 9180,
      "lets": 9181,
      "Xs": 9182,
      "dar": 9183,
      "ĠSil": 9184,
      "ĠAbout": 9185,
      "Ġbillion": 9186,
      "ĠAD": 9187,
      "ĠWonder": 9188,
      "Idk": 9189,
      "ĠOKAY": 9190,
      "Mew": 9191,
      "Ġwinner": 9192,
      "ĠHATE": 9193,
      "Oi": 9194,
      "IIII": 9195,
      "Ren": 9196,
      "Sarah": 9197,
      "Fx": 9198,
      "ĠLib": 9199,
      "adam": 9200,
      "ĠOpen": 9201,
      "Ġassh": 9202,
      "Ġprior": 9203,
      "Ġreported": 9204,
      "wolf": 9205,
      "Ġarms": 9206,
      "âĻ¥ï¸ıâĻ¥ï¸ı": 9207,
      "Ġcos": 9208,
      "Ġpromote": 9209,
      "Ġstom": 9210,
      "à¸ļ": 9211,
      "Wild": 9212,
      "UYS": 9213,
      "Bank": 9214,
      "ĠMom": 9215,
      "Ġnick": 9216,
      "inky": 9217,
      "Ġliber": 9218,
      "Tf": 9219,
      "Fall": 9220,
      "iga": 9221,
      "âĢ¼ï¸ıâĢ¼ï¸ı": 9222,
      "ðŁĺľ": 9223,
      "ĠBETTER": 9224,
      "NFL": 9225,
      "pal": 9226,
      "Ġscreaming": 9227,
      "ghost": 9228,
      "bet": 9229,
      "isy": 9230,
      "Rf": 9231,
      "Cf": 9232,
      "ðĿĹ²": 9233,
      "ï¿": 9234,
      "icide": 9235,
      "ĠPhil": 9236,
      "Vm": 9237,
      "JAY": 9238,
      "Ble": 9239,
      "Yk": 9240,
      "james": 9241,
      "Ġdangerous": 9242,
      "LOBAL": 9243,
      "Wi": 9244,
      "Ġbreaking": 9245,
      "ðŁĴ¯ðŁĴ¯": 9246,
      "WORLD": 9247,
      "Ġrent": 9248,
      "ĠMus": 9249,
      "omy": 9250,
      "Ġdoctor": 9251,
      "Ġpolitics": 9252,
      "ĠHAS": 9253,
      "Ġmath": 9254,
      "ocket": 9255,
      "Zt": 9256,
      "iner": 9257,
      "íĺ": 9258,
      "Yy": 9259,
      "Ġmentioned": 9260,
      "Ġquickly": 9261,
      "Ġâģ": 9262,
      "ĠDIS": 9263,
      "iev": 9264,
      "anish": 9265,
      "amel": 9266,
      "achi": 9267,
      "South": 9268,
      "Zs": 9269,
      "ĠEast": 9270,
      "Xe": 9271,
      "Ġjobs": 9272,
      "Xn": 9273,
      "Ġpill": 9274,
      "Ġsooo": 9275,
      "arks": 9276,
      "Link": 9277,
      "ĠNa": 9278,
      "Ġkpop": 9279,
      "ĠSAID": 9280,
      "cry": 9281,
      "WIN": 9282,
      "Kas": 9283,
      "ĠHard": 9284,
      "ĠHad": 9285,
      "Ġshared": 9286,
      "âĿ£ï¸ı": 9287,
      "olic": 9288,
      "mat": 9289,
      "Nico": 9290,
      "thony": 9291,
      "ĠHELLO": 9292,
      "ĠDi": 9293,
      "Buy": 9294,
      "Ġticket": 9295,
      "ĠWR": 9296,
      "Mir": 9297,
      "BG": 9298,
      "igeria": 9299,
      "Ġemo": 9300,
      "HOON": 9301,
      "lc": 9302,
      "Zn": 9303,
      "FIN": 9304,
      "Ġmagic": 9305,
      "Yd": 9306,
      "ĠFavorite": 9307,
      "wei": 9308,
      "ĠGold": 9309,
      "Ġturning": 9310,
      "ðŁĶ¥ðŁĶ¥ðŁĶ¥ðŁĶ¥": 9311,
      "gency": 9312,
      "ĠTheir": 9313,
      "Vc": 9314,
      "erts": 9315,
      "Ġmerch": 9316,
      "uro": 9317,
      "WayV": 9318,
      "Ġservices": 9319,
      "Ġsom": 9320,
      "rit": 9321,
      "Ġsand": 9322,
      "atives": 9323,
      "Ġdisrespect": 9324,
      "ivery": 9325,
      "lis": 9326,
      "aza": 9327,
      "Ġindustry": 9328,
      "Ġbreath": 9329,
      "®ðŁĩ³": 9330,
      "Yp": 9331,
      "Cash": 9332,
      "Ġfed": 9333,
      "Ġdeleted": 9334,
      "Central": 9335,
      "ðŁĹ£": 9336,
      "rrr": 9337,
      "Smith": 9338,
      "?âĢ¦": 9339,
      "hk": 9340,
      "ĠHoly": 9341,
      "ĠJanuary": 9342,
      "Sj": 9343,
      "Xx": 9344,
      "Ġcats": 9345,
      "Zp": 9346,
      "nnnn": 9347,
      "Qe": 9348,
      "Ġcars": 9349,
      "ìĿ´ìĬ¤": 9350,
      "Ġpersonally": 9351,
      "ðĿŁ": 9352,
      "Qm": 9353,
      "Ġpodcast": 9354,
      "remacy": 9355,
      "Lj": 9356,
      "sur": 9357,
      "cow": 9358,
      "Ġappear": 9359,
      "alu": 9360,
      "Lf": 9361,
      "Zk": 9362,
      "ĠðŁĴŀ": 9363,
      "Ġpractice": 9364,
      "etz": 9365,
      "Ġarrested": 9366,
      "VO": 9367,
      "ĠMod": 9368,
      "yoon": 9369,
      "oris": 9370,
      "Ġquit": 9371,
      "ĠAfghan": 9372,
      "âĦ¢": 9373,
      "wtf": 9374,
      "finity": 9375,
      "ĠðŁ§¡": 9376,
      "Ġpizza": 9377,
      "ĠRN": 9378,
      "Ġ1000": 9379,
      "EH": 9380,
      "1000": 9381,
      "riff": 9382,
      "espa": 9383,
      "ĠShit": 9384,
      "ĠðŁĺĩ": 9385,
      "ĠART": 9386,
      "ĠGIRL": 9387,
      "oooooooo": 9388,
      "Ġanywhere": 9389,
      "âĹ½": 9390,
      "Ġgrowth": 9391,
      "IAN": 9392,
      "orean": 9393,
      "INC": 9394,
      "Ġprev": 9395,
      "Ġsuddenly": 9396,
      "à¤¸": 9397,
      "KN": 9398,
      "going": 9399,
      "Bee": 9400,
      "reck": 9401,
      "OLUTION": 9402,
      "Ġremain": 9403,
      "Ġchanges": 9404,
      "Download": 9405,
      "ĠAugust": 9406,
      "Ġusual": 9407,
      "awan": 9408,
      "sv": 9409,
      "Espanto": 9410,
      "Ġadmit": 9411,
      "Tj": 9412,
      "Ea": 9413,
      "ĠðĿĴ": 9414,
      "them": 9415,
      "Ham": 9416,
      "ĠRank": 9417,
      "tb": 9418,
      "agu": 9419,
      "ĠBitcoin": 9420,
      "him": 9421,
      "ĠPART": 9422,
      "Ġhous": 9423,
      "Xk": 9424,
      "Ġsem": 9425,
      "team": 9426,
      "Ġexcuse": 9427,
      "ĠMax": 9428,
      "Ui": 9429,
      "first": 9430,
      "word": 9431,
      "via": 9432,
      "ĭ´": 9433,
      "Ġunique": 9434,
      "Qc": 9435,
      "Pb": 9436,
      "CRA": 9437,
      "Ġbomb": 9438,
      "SHIB": 9439,
      "Ġgender": 9440,
      "Has": 9441,
      "Ġsan": 9442,
      "ìĦ¸ë¸Ĳí": 9443,
      "TwitterSupport": 9444,
      "lorida": 9445,
      "Remember": 9446,
      "ĠWELL": 9447,
      "say": 9448,
      "ĠðŁĺľ": 9449,
      "Ġdefin": 9450,
      "PF": 9451,
      "urry": 9452,
      "Ġdeg": 9453,
      "ï¸ıâĥ£": 9454,
      "Ġtrouble": 9455,
      "SUN": 9456,
      "Ġ45": 9457,
      "Ġ????": 9458,
      "âĿĮ": 9459,
      "Ġpfp": 9460,
      "ĠGroup": 9461,
      "cient": 9462,
      "Ġmoments": 9463,
      "ods": 9464,
      "Bon": 9465,
      "CAN": 9466,
      "íĬ¸ìĻĢ": 9467,
      "Ġcart": 9468,
      "ĠTweet": 9469,
      "Ġmasks": 9470,
      "Ġeasier": 9471,
      "FANDOM": 9472,
      "Ġchanging": 9473,
      "ìĦ¸ë¸Ĳíĭ´": 9474,
      "aras": 9475,
      "show": 9476,
      "Ġbringing": 9477,
      "Ġrout": 9478,
      "zp": 9479,
      "ĠCons": 9480,
      "gb": 9481,
      "Ġepisodes": 9482,
      "ĠBEEN": 9483,
      "Ġnct": 9484,
      "Ġplanning": 9485,
      "Ġgrown": 9486,
      "Ġmand": 9487,
      "fol": 9488,
      "Ġik": 9489,
      "ë°©íĥ": 9490,
      "Ej": 9491,
      "Rx": 9492,
      "ĠBah": 9493,
      "Imp": 9494,
      "Bit": 9495,
      "rod": 9496,
      "Ġmama": 9497,
      "year": 9498,
      "Ķë": 9499,
      "Ġconfir": 9500,
      "ðĿĶ": 9501,
      "Ġinvestig": 9502,
      "ttery": 9503,
      "Ġhole": 9504,
      "Ġanybody": 9505,
      "ĠVote": 9506,
      "Ġbecoming": 9507,
      "ĠTwo": 9508,
      "Vj": 9509,
      "itchen": 9510,
      "nin": 9511,
      "ĠCanada": 9512,
      "ĠCalifornia": 9513,
      "Hj": 9514,
      "à¥ĩ": 9515,
      "Ġturns": 9516,
      "Pj": 9517,
      "againg": 9518,
      "Ķï¸ı": 9519,
      "Ġminds": 9520,
      "lon": 9521,
      "ĠSOR": 9522,
      "Ġassign": 9523,
      "Ġdey": 9524,
      "agree": 9525,
      "ĠðŁĺ¡": 9526,
      "isters": 9527,
      "ĠProbably": 9528,
      "ĠChris": 9529,
      "ruction": 9530,
      "ëį": 9531,
      "Ġopened": 9532,
      "bec": 9533,
      "ĠDOES": 9534,
      "Xc": 9535,
      "ifa": 9536,
      "Mur": 9537,
      "ë°©íĥĦì": 9538,
      "Ġprove": 9539,
      "ushant": 9540,
      "Ġast": 9541,
      "DariShopee": 9542,
      "awin": 9543,
      "Ent": 9544,
      "ĠTrans": 9545,
      "Week": 9546,
      "Ef": 9547,
      "ĠACC": 9548,
      "nj": 9549,
      "amjoon": 9550,
      "RJ": 9551,
      "ĠWHERE": 9552,
      "Ġmatters": 9553,
      "!âĢĿ": 9554,
      "Ġnegative": 9555,
      "eri": 9556,
      "ĠGlad": 9557,
      "Lin": 9558,
      "Yv": 9559,
      "Pet": 9560,
      "HC": 9561,
      "alia": 9562,
      "rivate": 9563,
      "api": 9564,
      "Ġhitting": 9565,
      "unes": 9566,
      "adh": 9567,
      "Ġaccord": 9568,
      "Ix": 9569,
      "ifty": 9570,
      "ario": 9571,
      "ĠSuch": 9572,
      "ĠRel": 9573,
      "rc": 9574,
      "sports": 9575,
      "Nx": 9576,
      "Ġfield": 9577,
      "ĠRam": 9578,
      "Gem": 9579,
      "bag": 9580,
      "ðŁĮĪ": 9581,
      "ches": 9582,
      "ĠðŁİĤ": 9583,
      "Nq": 9584,
      "Fq": 9585,
      "KOOK": 9586,
      "Ġsuit": 9587,
      "Ġaverage": 9588,
      "Ġobvious": 9589,
      "ĠEv": 9590,
      "Ġpregn": 9591,
      "Games": 9592,
      "ELF": 9593,
      "ej": 9594,
      "wow": 9595,
      "meg": 9596,
      "Ġincrease": 9597,
      "):": 9598,
      "ĠMatt": 9599,
      "Ġenjoying": 9600,
      "à¥ĭ": 9601,
      "Qa": 9602,
      "Ġdemocracy": 9603,
      "Ġindivid": 9604,
      "Ġdare": 9605,
      "ëĭ¨": 9606,
      "ðŁ¦ĭ": 9607,
      "Zm": 9608,
      "NFTs": 9609,
      "Ġmal": 9610,
      "ĠLMFAO": 9611,
      "ĠIsrael": 9612,
      "Ġexact": 9613,
      "ĠWANNA": 9614,
      "Zc": 9615,
      "Weather": 9616,
      "ulture": 9617,
      "ĠAMAZ": 9618,
      "Ġheaven": 9619,
      "âĶĢ": 9620,
      "Uq": 9621,
      "ãĥ¼": 9622,
      "yz": 9623,
      "Kid": 9624,
      "irts": 9625,
      "Ġstanding": 9626,
      "ĠTune": 9627,
      "Tan": 9628,
      "yon": 9629,
      "ĠInc": 9630,
      "olt": 9631,
      "Xm": 9632,
      "BACK": 9633,
      "Ġlee": 9634,
      "Ġonto": 9635,
      "Hf": 9636,
      "XO": 9637,
      "ĠSSR": 9638,
      "Ġshitty": 9639,
      "Ġpremium": 9640,
      "à¤®": 9641,
      "ĊĠĠĠĠĠĠĠĠ": 9642,
      "tters": 9643,
      "Pan": 9644,
      "Ġtrump": 9645,
      "911": 9646,
      "Ġpron": 9647,
      "never": 9648,
      "Dec": 9649,
      "ĠTaylor": 9650,
      "olen": 9651,
      "YO": 9652,
      "azara": 9653,
      "bI": 9654,
      "agar": 9655,
      "ðŁĻĪ": 9656,
      "Ġwash": 9657,
      "Artistofthe": 9658,
      "istor": 9659,
      "ĠOVER": 9660,
      "ĠHonestly": 9661,
      "Ġtells": 9662,
      "Ġapply": 9663,
      "Ġtransl": 9664,
      "Vel": 9665,
      ";âĢ¦": 9666,
      "Ġfraud": 9667,
      "Ġevening": 9668,
      "Ġfeat": 9669,
      "Ym": 9670,
      "Ella": 9671,
      "Ġdedic": 9672,
      "GHT": 9673,
      "ceed": 9674,
      "ources": 9675,
      "ðŁĳįðŁĳį": 9676,
      "Ġenjoyed": 9677,
      "ArtistoftheSummer": 9678,
      "TI": 9679,
      "anie": 9680,
      "Ġglobal": 9681,
      "Sco": 9682,
      "Apr": 9683,
      "edge": 9684,
      "Ġprogress": 9685,
      "Indian": 9686,
      "ĠBRO": 9687,
      "ancel": 9688,
      "BIG": 9689,
      "Ġcards": 9690,
      "cart": 9691,
      "accine": 9692,
      "Ġapologize": 9693,
      "rz": 9694,
      "bx": 9695,
      "Ġofficially": 9696,
      "ĠYa": 9697,
      "Start": 9698,
      "Tomlinson": 9699,
      "ðŁĴļðŁĴļ": 9700,
      "issy": 9701,
      "ĠMic": 9702,
      "Ġtil": 9703,
      "tha": 9704,
      "Ġspotify": 9705,
      "lat": 9706,
      "inated": 9707,
      "ðŁĺ³ðŁĺ³": 9708,
      "Ġcharge": 9709,
      ",,,,": 9710,
      "ĠWOULD": 9711,
      "Ġinflu": 9712,
      "acity": 9713,
      "wk": 9714,
      "oked": 9715,
      "hj": 9716,
      "Ġwinter": 9717,
      "âľĭ": 9718,
      "sure": 9719,
      "chu": 9720,
      "ĠPROUD": 9721,
      "Ġsep": 9722,
      "THANK": 9723,
      "Ġreminds": 9724,
      "FJ": 9725,
      "GOD": 9726,
      "LU": 9727,
      "wx": 9728,
      "ĠAfrica": 9729,
      "Prince": 9730,
      "ì°": 9731,
      "Qo": 9732,
      "abri": 9733,
      "Cut": 9734,
      "fun": 9735,
      "ĠDavid": 9736,
      "iann": 9737,
      "bunny": 9738,
      "KM": 9739,
      "Ġjudge": 9740,
      "Ġformer": 9741,
      "dp": 9742,
      "Ġjimin": 9743,
      "Hard": 9744,
      "power": 9745,
      "Little": 9746,
      "bas": 9747,
      "Ġcaused": 9748,
      ".......": 9749,
      "ĠPort": 9750,
      "Kej": 9751,
      "wife": 9752,
      "ĠTalk": 9753,
      "Long": 9754,
      "ooks": 9755,
      "Ġhoney": 9756,
      "Rod": 9757,
      "KG": 9758,
      "Inst": 9759,
      "does": 9760,
      "ĠApple": 9761,
      "âĢ¦..": 9762,
      "uster": 9763,
      "jah": 9764,
      "little": 9765,
      "Ġcommiss": 9766,
      "YYY": 9767,
      "Ġtemp": 9768,
      "ĠSpe": 9769,
      "Ġcudd": 9770,
      "Xu": 9771,
      "Bri": 9772,
      "bright": 9773,
      "ðĿĲ¨ðĿĲ": 9774,
      "Ġbae": 9775,
      "Ġkidding": 9776,
      "aterial": 9777,
      "made": 9778,
      "ĠYoung": 9779,
      "Ġtalked": 9780,
      "Tony": 9781,
      "Ġslowly": 9782,
      "dz": 9783,
      "ROSE": 9784,
      "ĠSweet": 9785,
      "Ġbeloved": 9786,
      "cruz": 9787,
      "Ġcheap": 9788,
      "Promotes": 9789,
      "ĠJan": 9790,
      "olve": 9791,
      "ĠAW": 9792,
      "Ġinvolved": 9793,
      "Xa": 9794,
      "ĠðŁķ¯": 9795,
      "ZW": 9796,
      "ĠGeorge": 9797,
      "Add": 9798,
      "Fam": 9799,
      "Ġprison": 9800,
      "Gam": 9801,
      "Ġbrings": 9802,
      "full": 9803,
      "rder": 9804,
      "burn": 9805,
      "cul": 9806,
      "ĠREVOLUTION": 9807,
      "hat": 9808,
      "Ġteen": 9809,
      "feat": 9810,
      "ĠSupport": 9811,
      "Health": 9812,
      "State": 9813,
      "data": 9814,
      "Ġ300": 9815,
      "Ġenter": 9816,
      "ìľ": 9817,
      "lem": 9818,
      "à¤¹": 9819,
      "Eo": 9820,
      "Tb": 9821,
      "Ġbrown": 9822,
      "atriot": 9823,
      "ĠSeptember": 9824,
      "nx": 9825,
      "Zu": 9826,
      "ĠPC": 9827,
      "kth": 9828,
      "Ġyouu": 9829,
      "Ġgrind": 9830,
      "ĠAww": 9831,
      "Ġbanned": 9832,
      "Sx": 9833,
      "ĠPO": 9834,
      "Ġavoid": 9835,
      "Ġthrowing": 9836,
      "Ġruns": 9837,
      "ĠAnn": 9838,
      "Ġlower": 9839,
      "Ġchrist": 9840,
      "à¤¿": 9841,
      "ionally": 9842,
      "FIGHT": 9843,
      "PI": 9844,
      "ysis": 9845,
      "íĬ¸ìĻĢìĿ´ìĬ¤": 9846,
      "stay": 9847,
      "Mamamoo": 9848,
      "stick": 9849,
      "tock": 9850,
      "ĠJUNG": 9851,
      "ssa": 9852,
      "rra": 9853,
      "Ġanniversary": 9854,
      "anced": 9855,
      "wild": 9856,
      "rex": 9857,
      "ggg": 9858,
      "DonaldTrump": 9859,
      "cas": 9860,
      "Lyn": 9861,
      "Colors": 9862,
      "being": 9863,
      "Group": 9864,
      "Ġnatural": 9865,
      ":(": 9866,
      "adiShopee": 9867,
      "ĠMed": 9868,
      "ĠMeg": 9869,
      "ĠNovember": 9870,
      "ðŁĺĦ": 9871,
      "âĢįðŁĴ«": 9872,
      "µâĢįðŁĴ«": 9873,
      "oms": 9874,
      "Ġworkers": 9875,
      "ë§": 9876,
      "Ġplanet": 9877,
      "Ġvid": 9878,
      "aaaaa": 9879,
      "UPER": 9880,
      "Ġbat": 9881,
      "Ġbroadcast": 9882,
[...]
